de 100000
la 99999
, 99998
y 99997
el 99996
en 99995
. 99994
los 99993
a 99992
que 99991
las 99990
del 99989
se 99988
para 99987
) 99986
con 99985
por 99984
un 99983
( 99982
al 99981
sobre 99980
una 99979
su 99978
/ 99977
no 99976
; 99975
o 99974
como 99973
&quot; 99972
Naciones 99971
Unidas 99970
: 99969
sus 99968
es 99967
ha 99966
entre 99965
Estados 99964
más 99963
General 99962
desarrollo 99961
lo 99960
derechos 99959
Comité 99958
países 99957
también 99956
Comisión 99955
e 99954
informe 99953
período 99952
Consejo 99951
han 99950
medidas 99949
@-@ 99948
contra 99947
información 99946
resolución 99945
actividades 99944
internacional 99943
sesiones 99942
humanos 99941
artículo 99940
derecho 99939
Estado 99938
todos 99937
parte 99936
Asamblea 99935
este 99934
personas 99933
Gobierno 99932
programa 99931
aplicación 99930
1 99929
niños 99928
proyecto 99927
Secretario 99926
servicios 99925
otros 99924
recursos 99923
sin 99922
apoyo 99921
si 99920
respecto 99919
2 99918
así 99917
Convención 99916
programas 99915
fin 99914
A 99913
son 99912
% 99911
organizaciones 99910
otras 99909
sistema 99908
seguridad 99907
mujeres 99906
ese 99905
asistencia 99904
trabajo 99903
párrafo 99902
República 99901
internacionales 99900
durante 99899
Grupo 99898
esta 99897
nacional 99896
3 99895
cuestiones 99894
años 99893
país 99892
todas 99891
cooperación 99890
dólares 99889
miembros 99888
particular 99887
Internacional 99886
dos 99885
está 99884
situación 99883
personal 99882
relación 99881
ser 99880
Derechos 99879
además 99878
ado 99877
Sr. 99876
Conferencia 99875
ar 99874
protección 99873
paz 99872
nacionales 99871
nivel 99870
Seguridad 99869
4 99868
había 99867
proceso 99866
esa 99865
Presidente 99864
cuenta 99863
5 99862
examen 99861
- 99860
general 99859
todo 99858
conformidad 99857
desde 99856
políticas 99855
mediante 99854
b 99853
capacidad 99852
debe 99851
ante 99850
ados 99849
Oficina 99848
esos 99847
armas 99846
Especial 99845
informes 99844
ó 99843
Desarrollo 99842
an 99841
ada 99840
cada 99839
adas 99838
tema 99837
cuestión 99836
número 99835
puede 99834
marco 99833
salud 99832
antes 99831
labor 99830
Humanos 99829
era 99828
esas 99827
ya 99826
casos 99825
6 99824
Ley 99823
cuando 99822
decisión 99821
educación 99820
partes 99819
presente 99818
diciembre 99817
materia 99816
mayor 99815
atención 99814
mujer 99813
política 99812
forma 99811
10 99810
social 99809
caso 99808
Organización 99807
le 99806
7 99805
C 99804
recomendaciones 99803
tiene 99802
participación 99801
Programa 99800
sido 99799
datos 99798
grupos 99797
están 99796
disposiciones 99795
gestión 99794
esfuerzos 99793
acceso 99792
reunión 99791
violencia 99790
año 99789
hacer 99788
lugar 99787
vez 99786
condiciones 99785
tanto 99784
instituciones 99783
según 99782
necesidades 99781
proyectos 99780
pueden 99779
Partes 99778
8 99777
ley 99776
base 99775
población 99774
deben 99773
millones 99772
fue 99771
hasta 99770
15 99769
normas 99768
documento 99767
Miembros 99766
gastos 99765
comunidad 99764
importante 99763
manera 99762
ando 99761
12 99760
hecho 99759
objetivos 99758
9 99757
Mundial 99756
regionales 99755
pero 99754
sesión 99753
nota 99752
discriminación 99751
Trabajo 99750
arse 99749
importancia 99748
resultados 99747
medio 99746
2005 99745
in@@ 99744
as 99743
ación 99742
necesidad 99741
junio 99740
2006 99739
mejorar 99738
órganos 99737
promover 99736
tres 99735
aron 99734
especial 99733
tienen 99732
algunos 99731
acuerdo 99730
30 99729
2008 99728
menos 99727
sector 99726
posible 99725
organismos 99724
Junta 99723
os 99722
África 99721
11 99720
problemas 99719
14 99718
20 99717
pertinentes 99716
evaluación 99715
virtud 99714
embargo 99713
sociedad 99712
ejecución 99711
funcionarios 99710
mundial 99709
vida 99708
región 99707
18 99706
presupuesto 99705
2007 99704
tiempo 99703
Unidos 99702
d 99701
civil 99700
2009 99699
&#91; 99698
2010 99697
gubernamentales 99696
fecha 99695
grupo 99694
&#93; 99693
habían 99692
relativas 99691
bien 99690
2004 99689
El 99688
Tribunal 99687
delegación 99686
medios 99685
autoridades 99684
re@@ 99683
uso 99682
financiación 99681
I 99680
zonas 99679
capacitación 99678
julio 99677
total 99676
reuniones 99675
ejemplo 99674
Nacional 99673
plan 99672
Ministerio 99671
organización 99670
mandato 99669
mundo 99668
estos 99667
13 99666
16 99665
siguientes 99664
horas 99663
después 99662
igualdad 99661
sea 99660
decisiones 99659
sociales 99658
operaciones 99657
objetivo 99656
representantes 99655
sólo 99654
legislación 99653
Social 99652
mantenimiento 99651
necesario 99650
ará 99649
nucleares 99648
Secretaría 99647
2011 99646
pobreza 99645
víctimas 99644
coordinación 99643
principios 99642
cabo 99641
gobiernos 99640
plazo 99639
objeto 99638
gran 99637
Parte 99636
2003 99635
libertad 99634
octubre 99633
promoción 99632
otra 99631
creación 99630
especialmente 99629
mismo 99628
2000 99627
La 99626
Unión 99625
anexo 99624
acción 99623
aumento 99622
lograr 99621
noviembre 99620
Fondo 99619
práctica 99618
toda 99617
hay 99616
Departamento 99615
arreglo 99614
función 99613
efectos 99612
debería 99611
principales 99610
prácticas 99609
ni 99608
des@@ 99607
fondos 99606
2002 99605
empleo 99604
septiembre 99603
cual 99602
garantizar 99601
estas 99600
uno 99599
otro 99598
sostenible 99597
declaración 99596
aba 99595
trata 99594
17 99593
ello 99592
21 99591
establecer 99590
persona 99589
Misión 99588
regional 99587
medida 99586
31 99585
19 99584
II 99583
procedimientos 99582
cumplimiento 99581
género 99580
investigación 99579
justicia 99578
nuevo 99577
establecimiento 99576
Protocolo 99575
ara 99574
puestos 99573
mecanismos 99572
lucha 99571
2001 99570
policía 99569
mayo 99568
aunque 99567
responsabilidad 99566
marzo 99565
resoluciones 99564
Asuntos 99563
2012 99562
locales 99561
Declaración 99560
1995 99559
niño 99558
nuevas 99557
25 99556
hace 99555
equipo 99554
E 99553
muy 99552
relacionadas 99551
obligaciones 99550
funciones 99549
edad 99548
respuesta 99547
1994 99546
enero 99545
dice 99544
tipo 99543
contexto 99542
22 99541
técnica 99540
pública 99539
actos 99538
haya 99537
1999 99536
prevención 99535
asimismo 99534
primer 99533
ellos 99532
les 99531
cualquier 99530
público 99529
DE 99528
dentro 99527
consultas 99526
examinar 99525
económico 99524
1998 99523
24 99522
iniciativas 99521
calidad 99520
documentos 99519
1996 99518
formación 99517
control 99516
cuanto 99515
carácter 99514
especiales 99513
instrumentos 99512
cambio 99511
algunas 99510
comercio 99509
tal 99508
sigue 99507
celebrada 99506
abril 99505
1997 99504
sistemas 99503
23 99502
véase 99501
varios 99500
centros 99499
indígenas 99498
Código 99497
presentación 99496
aplicar 99495
expertos 99494
pueblos 99493
aprobación 99492
representante 99491
refugiados 99490
eran 99489
primera 99488
adopción 99487
importantes 99486
utilización 99485
formas 99484
incluidos 99483
teniendo 99482
productos 99481
Acción 99480
administración 99479
muchos 99478
PNUD 99477
preocupación 99476
conflictos 99475
nombre 99474
puesto 99473
falta 99472
económica 99471
u 99470
observaciones 99469
adoptar 99468
tener 99467
papel 99466
Carta 99465
posibilidad 99464
leyes 99463
colaboración 99462
Relator 99461
ingresos 99460
Convenio 99459
esferas 99458
2013 99457
Nueva 99456
artículos 99455
empresas 99454
frente 99453
Pacto 99452
bajo 99451
ía 99450
Europea 99449
estado 99448
seguimiento 99447
Sra. 99446
comunicación 99445
1993 99444
nuevos 99443
acuerdos 99442
reducción 99441
terrorismo 99440
relativa 99439
S 99438
establecido 99437
fuerzas 99436
Penal 99435
esfera 99434
aspectos 99433
acerca 99432
Nº 99431
menores 99430
podría 99429
días 99428
generales 99427
26 99426
arán 99425
jóvenes 99424
siguiente 99423
mayoría 99422
S@@ 99421
debido 99420
relacionados 99419
principio 99418
territorio 99417
América 99416
dar 99415
asegurar 99414
aban 99413
violaciones 99412
Centro 99411
27 99410
financieros 99409
delitos 99408
tras 99407
propuesta 99406
aciones 99405
misiones 99404
secretaría 99403
aumentar 99402
Constitución 99401
interés 99400
contribuciones 99399
pide 99398
facilitar 99397
continuación 99396
delito 99395
28 99394
tecnología 99393
siendo 99392
febrero 99391
actual 99390
problema 99389
procedimiento 99388
fundamentales 99387
propuestas 99386
comunidades 99385
cargo 99384
lista 99383
orden 99382
mejor 99381
reducir 99380
producción 99379
segundo 99378
aún 99377
estrategia 99376
sino 99375
fueron 99374
desarme 99373
incluso 99372
temas 99371
zona 99370
análisis 99369
A@@ 99368
consecuencia 99367
aran 99366
progresos 99365
discapacidad 99364
agosto 99363
cumplir 99362
seguir 99361
Israel 99360
5@@ 99359
M@@ 99358
ambiente 99357
momento 99356
eficaz 99355
sentido 99354
aría 99353
mi 99352
adoptadas 99351
cuatro 99350
plenamente 99349
tratados 99348
sean 99347
detención 99346
enseñanza 99345
recomienda 99344
29 99343
elaboración 99342
conflicto 99341
diálogo 99340
reforma 99339
50 99338
consecuencias 99337
T@@ 99336
fines 99335
servicio 99334
resultado 99333
sexual 99332
estudio 99331
planes 99330
penal 99329
familia 99328
da 99327
provisional 99326
largo 99325
puedan 99324
considera 99323
bienes 99322
delegaciones 99321
i 99320
judicial 99319
cinco 99318
alto 99317
incluida 99316
curso 99315
bienio 99314
ámbito 99313
incluidas 99312
varias 99311
poder 99310
comunicaciones 99309
preparación 99308
nueva 99307
6@@ 99306
debate 99305
niveles 99304
Económico 99303
figura 99302
sección 99301
recomendación 99300
prestar 99299
crear 99298
militares 99297
referencia 99296
B@@ 99295
haber 99294
deberían 99293
hacia 99292
obstante 99291
planificación 99290
conocimientos 99289
oficiales 99288
pueblo 99287
relaciones 99286
compromiso 99285
mecanismo 99284
texto 99283
P@@ 99282
cuales 99281
III 99280
local 99279
tales 99278
determinar 99277
crecimiento 99276
último 99275
ían 99274
entidades 99273
enfoque 99272
ejercicio 99271
será 99270
opinión 99269
ayuda 99268
cuadro 99267
serie 99266
7@@ 99265
estrategias 99264
diversos 99263
Asia 99262
Iraq 99261
párr 99260
efecto 99259
civiles 99258
misión 99257
aprobó 99256
presentado 99255
VIH 99254
relativo 99253
Representante 99252
ales 99251
P 99250
crisis 99249
valor 99248
autor 99247
conjunto 99246
Consultiva 99245
oficinas 99244
hayan 99243
ahora 99242
supervisión 99241
dispuesto 99240
meses 99239
Plan 99238
figuran 99237
agua 99236
demás 99235
Corte 99234
trabajadores 99233
proteger 99232
niñas 99231
Sur 99230
solución 99229
directrices 99228
tribunales 99227
dado 99226
terreno 99225
procesos 99224
fundamental 99223
hombres 99222
régimen 99221
fuera 99220
solicitud 99219
diversas 99218
Alto 99217
asuntos 99216
poner 99215
prestación 99214
riesgo 99213
sectores 99212
necesarias 99211
Medio 99210
fortalecer 99209
8@@ 99208
Tratado 99207
párrafos 99206
miras 99205
eficacia 99204
División 99203
oportunidades 99202
privado 99201
actualmente 99200
F 99199
modo 99198
ciudadanos 99197
necesarios 99196
donde 99195
principal 99194
estudios 99193
asociados 99192
declaraciones 99191
escuelas 99190
Federación 99189
Permanente 99188
financiera 99187
misma 99186
Paz 99185
60 99184
aprobado 99183
G@@ 99182
participantes 99181
libre 99180
cosas 99179
ellas 99178
presentar 99177
políticos 99176
do 99175
través 99174
mientras 99173
relativos 99172
disposición 99171
realizar 99170
futuro 99169
reconocimiento 99168
D@@ 99167
Ministro 99166
transporte 99165
mantener 99164
esto 99163
familias 99162
Ginebra 99161
fortalecimiento 99160
titulado 99159
integración 99158
últimos 99157
concepto 99156
SIDA 99155
señaló 99154
militar 99153
correspondientes 99152
o@@ 99151
N@@ 99150
períodos 99149
&apos; 99148
negociaciones 99147
económicos 99146
pueda 99145
Europa 99144
Administración 99143
oficial 99142
proporcionar 99141
conferencias 99140
asesoramiento 99139
fomento 99138
toma 99137
interesados 99136
tortura 99135
China 99134
nos 99133
funcionamiento 99132
amos 99131
cuentas 99130
día 99129
qué 99128
podrá 99127
pidió 99126
diferentes 99125
ninguna 99124
Reino 99123
guerra 99122
40 99121
regiones 99120
sí 99119
participar 99118
Justicia 99117
L@@ 99116
observa 99115
respeto 99114
c 99113
agentes 99112
anterior 99111
nuclear 99110
vigor 99109
Milenio 99108
amplia 99107
competencia 99106
elementos 99105
eliminación 99104
previsto 99103
C@@ 99102
situaciones 99101
consiguiente 99100
porque 99099
r@@ 99098
t@@ 99097
públicos 99096
sería 99095
tasa 99094
K@@ 99093
existentes 99092
experiencia 99091
graves 99090
origen 99089
al@@ 99088
economía 99087
2014 99086
obtener 99085
Servicios 99084
Director 99083
compromisos 99082
Comisionado 99081
seis 99080
Mujer 99079
donantes 99078
Democrática 99077
superior 99076
F@@ 99075
violación 99074
incluido 99073
* 99072
obligación 99071
9@@ 99070
final 99069
adicionales 99068
decidió 99067
dicho 99066
ente 99065
inglés 99064
anual 99063
conclusiones 99062
ayudar 99061
iniciativa 99060
contratación 99059
cabe 99058
UNICEF 99057
saber 99056
culturales 99055
R@@ 99054
actividad 99053
financieras 99052
vista 99051
básicos 99050
apoyar 99049
1992 99048
cambios 99047
adoptado 99046
podrían 99045
favor 99044
elecciones 99043
vigilancia 99042
transición 99041
económicas 99040
condición 99039
respecta 99038
determinación 99037
categoría 99036
Acuerdo 99035
segunda 99034
° 99033
finales 99032
marcha 99031
Rusia 99030
muchas 99029
energía 99028
armados 99027
siempre 99026
material 99025
trabajos 99024
tribunal 99023
anteriores 99022
estaba 99021
B 99020
? 99019
establece 99018
48 99017
nuestra 99016
Sudán 99015
insta 99014
siguen 99013
espacio 99012
jurídico 99011
ª 99010
explotación 99009
causa 99008
inter@@ 99007
orientación 99006
intercambio 99005
H@@ 99004
común 99003
¿ 99002
intereses 99001
prevé 99000
partir 98999
fondo 98998
circunstancias 98997
proliferación 98996
Unido 98995
hizo 98994
elaborar 98993
distribución 98992
adores 98991
endo 98990
Cumbre 98989
fuerza 98988
mercado 98987
dificultades 98986
contribución 98985
jurídica 98984
espera 98983
drogas 98982
presentó 98981
ningún 98980
costos 98979
tan 98978
1º 98977
todavía 98976
órgano 98975
posibles 98974
nuestro 98973
correspondiente 98972
No 98971
E@@ 98970
s@@ 98969
alcance 98968
tráfico 98967
opiniones 98966
unos 98965
internos 98964
motivos 98963
pena 98962
prevenir 98961
investigaciones 98960
51 98959
métodos 98958
señala 98957
ción 98956
minorías 98955
Instituto 98954
informó 98953
UNCTAD 98952
52 98951
político 98950
independiente 98949
territorios 98948
fuentes 98947
entes 98946
decir 98945
públicas 98944
distintos 98943
evitar 98942
autoridad 98941
independencia 98940
Países 98939
prioridades 98938
ACNUR 98937
alcanzar 98936
minas 98935
solicitudes 98934
amplio 98933
indicadores 98932
infraestructura 98931
Foro 98930
an@@ 98929
solo 98928
Canadá 98927
reconoce 98926
conforme 98925
dicha 98924
materiales 98923
denuncias 98922
k@@ 98921
instrumento 98920
carta 98919
criterios 98918
IV 98917
satisfacción 98916
difusión 98915
realización 98914
di@@ 98913
55 98912
incluir 98911
punto 98910
b@@ 98909
humanitaria 98908
2.@@ 98907
reglamento 98906
49 98905
indica 98904
constituye 98903
especializados 98902
tratamiento 98901
ta 98900
incluye 98899
to 98898
prohibición 98897
Información 98896
tercer 98895
z@@ 98894
junto 98893
contribuir 98892
Niño 98891
fomentar 98890
financiero 98889
existe 98888
naturales 98887
dispone 98886
acoge 98885
profesional 98884
propiedad 98883
miembro 98882
lugares 98881
58 98880
1990 98879
57 98878
pesar 98877
eron 98876
realizados 98875
construcción 98874
con@@ 98873
posición 98872
oportunidad 98871
Ejecutivo 98870
mucho 98869
costo 98868
sub@@ 98867
formulación 98866
causas 98865
plena 98864
tareas 98863
tengan 98862
Derecho 98861
beneplácito 98860
tratado 98859
tecnologías 98858
escala 98857
central 98856
padres 98855
refiere 98854
Cooperación 98853
gobierno 98852
Corea 98851
suma 98850
g@@ 98849
extranjeros 98848
abordar 98847
centro 98846
instalaciones 98845
d@@ 98844
Organismo 98843
evaluar 98842
35 98841
inversiones 98840
encargado 98839
York 98838
Sala 98837
celebró 98836
llevar 98835
infantil 98834
juicio 98833
estar 98832
comerciales 98831
Dependencia 98830
riesgos 98829
asociaciones 98828
rurales 98827
ex 98826
Japón 98825
pruebas 98824
alienta 98823
eficaces 98822
dirigida 98821
Banco 98820
cuyo 98819
dirección 98818
c@@ 98817
61 98816
eliminar 98815
recordando 98814
i@@ 98813
59 98812
quienes 98811
recibir 98810
formular 98809
concretas 98808
prioridad 98807
quincuagésimo 98806
permanente 98805
n@@ 98804
hijos 98803
at@@ 98802
53 98801
im@@ 98800
-- 98799
ador 98798
grandes 98797
deberá 98796
en@@ 98795
das 98794
sanciones 98793
oficina 98792
muerte 98791
pues 98790
principalmente 98789
recibido 98788
Desarme 98787
combatir 98786
efectiva 98785
l@@ 98784
ido 98783
65 98782
éxito 98781
45 98780
debía 98779
Reunión 98778
62 98777
efectivo 98776
33 98775
Ejecutiva 98774
1991 98773
Caribe 98772
Relaciones 98771
ar@@ 98770
competentes 98769
él 98768
humanitario 98767
igual 98766
ci@@ 98765
mundiales 98764
100 98763
inversión 98762
Bosnia 98761
D 98760
Los 98759
votación 98758
pago 98757
O@@ 98756
32 98755
menor 98754
estructura 98753
de@@ 98752
observó 98751
reforzar 98750
Comercio 98749
34 98748
cursos 98747
Servicio 98746
amiento 98745
desea 98744
64 98743
ti@@ 98742
tierras 98741
g 98740
necesaria 98739
orador 98738
a@@ 98737
pasado 98736
ables 98735
Sede 98734
asociación 98733
estaban 98732
Africana 98731
36 98730
47 98729
54 98728
factores 98727
Mesa 98726
Afganistán 98725
56 98724
emergencia 98723
vulnerables 98722
logro 98721
celebración 98720
vivienda 98719
amenaza 98718
responsables 98717
63 98716
respuestas 98715
gracias 98714
ana 98713
institucional 98712
utilizar 98711
transferencia 98710
judiciales 98709
jurídicos 98708
periódico 98707
adecuada 98706
Educación 98705
Congo 98704
ella 98703
defensa 98702
distintas 98701
tuvo 98700
sexagésimo 98699
2015 98698
prisión 98697
1.@@ 98696
tomar 98695
pobres 98694
conclusión 98693
inicial 98692
existen 98691
hincapié 98690
universal 98689
J@@ 98688
libertades 98687
decide 98686
adicional 98685
ad@@ 98684
pregunta 98683
ciones 98682
destrucción 98681
37 98680
resolver 98679
realizado 98678
Francia 98677
racial 98676
consenso 98675
estadísticas 98674
Salud 98673
economías 98672
tos 98671
Norte 98670
climático 98669
acciones 98668
considerar 98667
p@@ 98666
operacionales 98665
propone 98664
India 98663
Cuba 98662
arían 98661
categorías 98660
señalar 98659
Pacífico 98658
ONG 98657
profesionales 98656
México 98655
expresa 98654
registro 98653
39 98652
cultura 98651
rehabilitación 98650
revisión 98649
ordinario 98648
hechos 98647
U@@ 98646
tipos 98645
palestino 98644
LA 98643
c. 98642
66 98641
co@@ 98640
am@@ 98639
deuda 98638
Occidental 98637
ario 98636
Exteriores 98635
garantías 98634
Informe 98633
ac@@ 98632
particularmente 98631
tenido 98630
mandatos 98629
entorno 98628
inclusión 98627
Gestión 98626
migrantes 98625
formuladas 98624
deberán 98623
cuarto 98622
responsabilidades 98621
su@@ 98620
tratos 98619
presencia 98618
as@@ 98617
on@@ 98616
able 98615
consulta 98614
ir 98613
requisitos 98612
recientemente 98611
ida 98610
examinó 98609
cifras 98608
beneficios 98607
oficiosas 98606
cultural 98605
recomendó 98604
recuperación 98603
í@@ 98602
cuya 98601
aprobada 98600
adelantados 98599
estabilidad 98598
directamente 98597
tierra 98596
interesadas 98595
familiares 98594
perspectiva 98593
celebrado 98592
V@@ 98591
idiomas 98590
confianza 98589
composición 98588
46 98587
cuotas 98586
grave 98585
Palestina 98584
En 98583
44 98582
alguna 98581
poblaciones 98580
m@@ 98579
habla 98578
conocimiento 98577
comprendido 98576
grado 98575
Oriente 98574
actuales 98573
indemnización 98572
pequeños 98571
h@@ 98570
Herzegovina 98569
razones 98568
esencial 98567
reservas 98566
Australia 98565
capital 98564
er@@ 98563
presenta 98562
buena 98561
Viena 98560
41 98559
Expertos 98558
pleno 98557
porcentaje 98556
ex@@ 98555
aria 98554
red 98553
interpretación 98552
suficiente 98551
ab@@ 98550
razón 98549
Árabe 98548
idas 98547
Al 98546
67 98545
definición 98544
j@@ 98543
apartado 98542
38 98541
3.@@ 98540
eficiencia 98539
ambientales 98538
Sociales 98537
arios 98536
constituyen 98535
nacionalidad 98534
duración 98533
queda 98532
pequeñas 98531
idos 98530
jurisdicción 98529
mejora 98528
v@@ 98527
Irán 98526
4@@ 98525
peligro 98524
velar 98523
interno 98522
palestinos 98521
integrado 98520
f@@ 98519
voluntad 98518
próximo 98517
solicita 98516
Rwanda 98515
técnicas 98514
debates 98513
tenía 98512
habida 98511
u@@ 98510
mercados 98509
ano 98508
1@@ 98507
A. 98506
42 98505
establecidos 98504
Z@@ 98503
afectados 98502
B. 98501
redes 98500
y@@ 98499
disponibles 98498
motivo 98497
43 98496
expresión 98495
capítulo 98494
ri@@ 98493
deliberaciones 98492
basada 98491
contenido 98490
bienestar 98489
hoy 98488
difícil 98487
consumo 98486
preciso 98485
intergubernamentales 98484
reciente 98483
desastres 98482
aproximadamente 98481
ase 98480
demanda 98479
invita 98478
entrada 98477
mejores 98476
etapa 98475
encia 98474
transparencia 98473
Apoyo 98472
estén 98471
Líbano 98470
comunes 98469
previstos 98468
ón 98467
enfermedades 98466
representación 98465
únicamente 98464
Irlanda 98463
plano 98462
casi 98461
serán 98460
or@@ 98459
68 98458
máximo 98457
terroristas 98456
Islámica 98455
Latina 98454
desarrollar 98453
art 98452
técnico 98451
Yugoslavia 98450
exhorta 98449
Ambiente 98448
per@@ 98447
institucionales 98446
Coordinación 98445
Add.1 98444
autores 98443
Protección 98442
reserva 98441
elección 98440
Alemania 98439
viven 98438
avances 98437
tenga 98436
ámbitos 98435
asilo 98434
preparar 98433
tasas 98432
incluyen 98431
anos 98430
multilaterales 98429
alimentos 98428
contingentes 98427
3@@ 98426
desechos 98425
ocupación 98424
ambos 98423
Brasil 98422
mínimo 98421
daños 98420
extranjero 98419
estratégico 98418
amente 98417
directa 98416
religión 98415
Parlamento 98414
º 98413
observadores 98412
den 98411
Sudáfrica 98410
trato 98409
e@@ 98408
jurídicas 98407
éste 98406
celebrar 98405
existencia 98404
conducto 98403
Pakistán 98402
detenidos 98401
77 98400
PNUMA 98399
cantidad 98398
diversidad 98397
tendrá 98396
vi@@ 98395
documentación 98394
activamente 98393
suministro 98392
seguro 98391
propio 98390
10@@ 98389
equipos 98388
apoya 98387
veces 98386
Policía 98385
é@@ 98384
cómo 98383
mayores 98382
acto 98381
expresó 98380
posibilidades 98379
Económica 98378
matrimonio 98377
ordenación 98376
Asociación 98375
permite 98374
suficientes 98373
4.@@ 98372
Turquía 98371
Y 98370
recurso 98369
progreso 98368
conferencia 98367
evaluaciones 98366
técnicos 98365
abierta 98364
ica 98363
nuestros 98362
gobernanza 98361
examinado 98360
Y@@ 98359
Subcomisión 98358
propia 98357
palabra 98356
ina 98355
extraordinario 98354
Facultativo 98353
destinados 98352
Reglamento 98351
pertinente 98350
humano 98349
claramente 98348
prestaciones 98347
Popular 98346
petición 98345
anuales 98344
Comunidad 98343
tas 98342
Examen 98341
dichas 98340
valores 98339
encargados 98338
in 98337
llamamiento 98336
me 98335
O 98334
hemos 98333
activos 98332
privadas 98331
primaria 98330
llegar 98329
específicas 98328
siga 98327
Somalia 98326
sexo 98325
fuente 98324
obstáculos 98323
contrato 98322
intención 98321
desarrollados 98320
dijo 98319
it@@ 98318
consolidación 98317
actualidad 98316
desplazados 98315
Económicos 98314
ambiental 98313
dichos 98312
unas 98311
publicación 98310
delincuencia 98309
Las 98308
modelo 98307
preparado 98306
ico 98305
atender 98304
Kuwait 98303
encias 98302
desempeñar 98301
tomando 98300
acontecimientos 98299
Re@@ 98298
despliegue 98297
escuela 98296
destino 98295
física 98294
ch@@ 98293
crímenes 98292
propósito 98291
celebrará 98290
conciencia 98289
70 98288
creado 98287
trabajar 98286
reformas 98285
completa 98284
posteriormente 98283
infancia 98282
pese 98281
conjunta 98280
comercial 98279
Noruega 98278
sitio 98277
Pública 98276
ilícito 98275
estados 98274
global 98273
consideración 98272
efectivos 98271
I@@ 98270
responder 98269
contiene 98268
Discriminación 98267
administrativas 98266
osa 98265
supra 98264
empresa 98263
interna 98262
comisión 98261
es@@ 98260
médico 98259
li@@ 98258
tarea 98257
ampliar 98256
6.@@ 98255
recuerda 98254
integridad 98253
dirigentes 98252
tratar 98251
índole 98250
plenaria 98249
Suiza 98248
R 98247
comisiones 98246
democracia 98245
podrán 98244
modalidades 98243
contratos 98242
basado 98241
estableció 98240
ratificación 98239
familiar 98238
naturaleza 98237
W@@ 98236
poco 98235
tradicionales 98234
ro@@ 98233
almente 98232
Políticos 98231
géneros 98230
er 98229
Presidencia 98228
funcionario 98227
Siria 98226
informar 98225
Estatuto 98224
recientes 98223
ofrece 98222
ob@@ 98221
anteriormente 98220
deseo 98219
alta 98218
corrupción 98217
destinadas 98216
repercusiones 98215
Operaciones 98214
V 98213
Prevención 98212
conexas 98211
debían 98210
honor 98209
capacidades 98208
representa 98207
Se 98206
restricciones 98205
soluciones 98204
5.@@ 98203
términos 98202
haciendo 98201
médicos 98200
adolescentes 98199
disminución 98198
relieve 98197
ándose 98196
resumen 98195
podía 98194
encaminadas 98193
Jefe 98192
evolución 98191
penales 98190
Regional 98189
oriental 98188
realizadas 98187
Adjunto 98186
responsable 98185
debidamente 98184
reclamaciones 98183
alidad 98182
sírvanse 98181
án 98180
israelíes 98179
alimentaria 98178
prestando 98177
propuesto 98176
conservación 98175
Sostenible 98174
previstas 98173
arias 98172
80 98171
esté 98170
diferencias 98169
puesta 98168
humana 98167
logros 98166
vehículos 98165
proceda 98164
emisiones 98163
Sección 98162
última 98161
tomó 98160
sede 98159
sensibilización 98158
si@@ 98157
estudiantes 98156
Internet 98155
ó@@ 98154
H 98153
Quinta 98152
conducta 98151
mar 98150
impedir 98149
200 98148
mes 98147
ésta 98146
Fuerza 98145
encuentran 98144
permanentes 98143
institución 98142
90 98141
auditoría 98140
Indonesia 98139
Guinea 98138
determinados 98137
Ministros 98136
preocupa 98135
prueba 98134
estrecha 98133
un@@ 98132
com@@ 98131
web 98130
fase 98129
estimaciones 98128
r 98127
amenazas 98126
producto 98125
seguirá 98124
arlos 98123
asignación 98122
tercera 98121
concretos 98120
experiencias 98119
l 98118
Egipto 98117
Liberia 98116
proporción 98115
consentimiento 98114
sustancias 98113
clave 98112
pre@@ 98111
visitas 98110
Bajos 98109
pro@@ 98108
presentes 98107
ag@@ 98106
Marco 98105
activa 98104
2@@ 98103
quinto 98102
UNFPA 98101
venta 98100
componente 98099
realidad 98098
periódicos 98097
estatuto 98096
Eliminación 98095
Ucrania 98094
estatales 98093
comparación 98092
privada 98091
preguntas 98090
Presupuesto 98089
penas 98088
aplica 98087
realizada 98086
entidad 98085
alización 98084
pendientes 98083
Haití 98082
administrativos 98081
organizada 98080
introducción 98079
precios 98078
candidatos 98077
carga 98076
creciente 98075
é 98074
puntos 98073
escrito 98072
69 98071
luchar 98070
Kosovo 98069
celebradas 98068
contacto 98067
mortalidad 98066
laboral 98065
voluntarias 98064
conjuntamente 98063
humanidad 98062
permitir 98061
racismo 98060
dio 98059
adquisición 98058
Federal 98057
ofrecer 98056
ataques 98055
empleados 98054
ONUDI 98053
DEL 98052
respectivamente 98051
siete 98050
conocer 98049
adecuado 98048
migración 98047
Objetivos 98046
identidad 98045
jueces 98044
Chipre 98043
Islas 98042
Croacia 98041
reconociendo 98040
Delito 98039
opciones 98038
hogares 98037
trabajan 98036
ap@@ 98035
presta 98034
bilaterales 98033
parece 98032
decenio 98031
seminarios 98030
OIT 98029
corresponde 98028
mitad 98027
específicos 98026
or 98025
idioma 98024
desempeño 98023
abarca 98022
completo 98021
España 98020
Argentina 98019
presentada 98018
rendición 98017
comité 98016
Dirección 98015
Italia 98014
crédito 98013
Zelandia 98012
palabras 98011
Estrategia 98010
Suecia 98009
Relatora 98008
estructuras 98007
título 98006
rá 98005
elemento 98004
asunto 98003
único 98002
menudo 98001
aprobadas 98000
cerca 97999
Universidad 97998
propios 97997
legislativas 97996
créditos 97995
Oriental 97994
bases 97993
sexuales 97992
presentados 97991
arlo 97990
logrado 97989
indicó 97988
ven@@ 97987
campaña 97986
incorporación 97985
par@@ 97984
víctima 97983
ent@@ 97982
luz 97981
viajes 97980
habría 97979
requiere 97978
Autoridad 97977
le@@ 97976
real 97975
alumnos 97974
afirma 97973
tenían 97972
adecuadas 97971
ambas 97970
aéreo 97969
línea 97968
aumentado 97967
integrada 97966
adecuados 97965
útil 97964
N 97963
pérdida 97962
0@@ 97961
te 97960
prensa 97959
LOS 97958
9.@@ 97957
considerable 97956
esenciales 97955
residencia 97954
fuego 97953
cor@@ 97952
CP 97951
unidades 97950
tendencias 97949
intervención 97948
reitera 97947
PMA 97946
comités 97945
bi@@ 97944
foro 97943
hubiera 97942
firme 97941
Colombia 97940
Refugiados 97939
ad 97938
est@@ 97937
Asistencia 97936
verificación 97935
... 97934
Al@@ 97933
hogar 97932
frecuencia 97931
magistrados 97930
habitantes 97929
constante 97928
exige 97927
pérdidas 97926
presentadas 97925
bosques 97924
75 97923
mismos 97922
publicaciones 97921
Embajador 97920
cargos 97919
soberanía 97918
elaborado 97917
desafíos 97916
malos 97915
exposición 97914
africanos 97913
ejercer 97912
icos 97911
cometidos 97910
conexos 97909
arreglos 97908
agricultura 97907
7.@@ 97906
enta 97905
abusos 97904
Gaza 97903
superiores 97902
8.@@ 97901
ocho 97900
cont@@ 97899
volumen 97898
aprovechar 97897
ONU 97896
escolar 97895
contar 97894
enmienda 97893
vínculos 97892
ul@@ 97891
considerablemente 97890
visita 97889
Sistema 97888
Personal 97887
estima 97886
Ivoire 97885
mejoramiento 97884
ativa 97883
adhesión 97882
tar 97881
residentes 97880
va 97879
componentes 97878
ciclo 97877
humanitarias 97876
Sierra 97875
legal 97874
ores 97873
Côte 97872
entendimiento 97871
adora 97870
paso 97869
sión 97868
icas 97867
oso 97866
determinado 97865
Con@@ 97864
cometido 97863
indican 97862
ajuste 97861
Marruecos 97860
básica 97859
Central 97858
Burundi 97857
VI 97856
form@@ 97855
numerosas 97854
aplicables 97853
em@@ 97852
insulares 97851
ol@@ 97850
estudiar 97849
prostitución 97848
Decenio 97847
ampliación 97846
s 97845
puso 97844
preocupaciones 97843
az@@ 97842
Fiscal 97841
determinadas 97840
Leona 97839
18@@ 97838
destaca 97837
continuar 97836
quien 97835
Mujeres 97834
participan 97833
adelante 97832
israelí 97831
mejoras 97830
departamentos 97829
reparación 97828
subprograma 97827
procedentes 97826
formuló 97825
numerosos 97824
Azerbaiyán 97823
t 97822
encontrar 97821
Aplicación 97820
integral 97819
aplicable 97818
adoras 97817
garantía 97816
armadas 97815
Mantenimiento 97814
Primer 97813
limitaciones 97812
aprobados 97811
testigos 97810
hicieron 97809
abuso 97808
establecidas 97807
éstos 97806
exportaciones 97805
Política 97804
adaptación 97803
adopte 97802
OIEA 97801
ir@@ 97800
sta 97799
término 97798
necesitan 97797
seminario 97796
Tortura 97795
reintegración 97794
electrónico 97793
enmiendas 97792
T 97791
Población 97790
Primera 97789
hacen 97788
.@@ 97787
k 97786
on 97785
adopten 97784
fronteras 97783
300 97782
ría 97781
múltiples 97780
futuras 97779
apropiadas 97778
afectadas 97777
observación 97776
constitucional 97775
prevista 97774
exportación 97773
industria 97772
excepción 97771
norma 97770
particulares 97769
ur@@ 97768
m 97767
Nigeria 97766
solicitar 97765
Gran 97764
gener@@ 97763
CN.4 97762
abogado 97761
apertura 97760
basa 97759
suministros 97758
partidos 97757
entonces 97756
podían 97755
ciertas 97754
Supremo 97753
párrs 97752
os@@ 97751
negociación 97750
siguió 97749
erradicación 97748
independientes 97747
hombre 97746
disponibilidad 97745
reproductiva 97744
unidad 97743
pagos 97742
metas 97741
multilateral 97740
ciudad 97739
administrativo 97738
partida 97737
ocupado 97736
Hábitat 97735
rse 97734
nombramiento 97733
debemos 97732
tomado 97731
firma 97730
firmado 97729
reafirma 97728
corrientes 97727
ones 97726
árabe 97725
criterio 97724
calendario 97723
tránsito 97722
resulta 97721
IN@@ 97720
secundaria 97719
coordinar 97718
dirigidas 97717
asentamientos 97716
urgente 97715
ativas 97714
concesión 97713
reciben 97712
dignidad 97711
respectivos 97710
examina 97709
inmediatamente 97708
afectan 97707
operacional 97706
religiosas 97705
médica 97704
fiscales 97703
versión 97702
claro 97701
comprensión 97700
ocupan 97699
pa@@ 97698
viviendas 97697
13@@ 97696
marcos 97695
representan 97694
noveno 97693
so 97692
Ar@@ 97691
diferencia 97690
arlas 97689
hacerlo 97688
Serbia 97687
ciertos 97686
pro 97685
campañas 97684
examinando 97683
Civiles 97682
Presidenta 97681
electoral 97680
movilización 97679
Etiopía 97678
francés 97677
14@@ 97676
om@@ 97675
organismo 97674
convenios 97673
sexto 97672
considerarse 97671
ACNUDH 97670
activo 97669
detenido 97668
aprobar 97667
básico 97666
Austria 97665
Supervisión 97664
Infancia 97663
Chile 97662
respetar 97661
alentar 97660
ic@@ 97659
reconstrucción 97658
Administrativos 97657
extradición 97656
73 97655
enfoques 97654
OS 97653
tendencia 97652
condena 97651
pone 97650
anti@@ 97649
supervisar 97648
ero 97647
químicos 97646
operación 97645
cuyos 97644
nuestras 97643
encuentra 97642
masa 97641
conseguir 97640
quisiera 97639
concluir 97638
UNESCO 97637
denuncia 97636
igualmente 97635
expresar 97634
Darfur 97633
rural 97632
formulada 97631
sustantivo 97630
Territorio 97629
ciudades 97628
ot@@ 97627
armado 97626
utilizando 97625
esfuerzo 97624
Timor 97623
Interior 97622
seguido 97621
EE.UU. 97620
reglamentos 97619
z 97618
solamente 97617
llegado 97616
el@@ 97615
estamos 97614
adquisiciones 97613
juez 97612
esperanza 97611
administrativa 97610
organizado 97609
super@@ 97608
mediano 97607
autorización 97606
72 97605
siones 97604
reconciliación 97603
arla 97602
preventiva 97601
planos 97600
proporciona 97599
Congreso 97598
redacción 97597
cre@@ 97596
proveedores 97595
desempleo 97594
características 97593
Georgia 97592
meridional 97591
recibió 97590
jefes 97589
is@@ 97588
árabes 97587
á@@ 97586
Perú 97585
octavo 97584
espíritu 97583
In@@ 97582
Civil 97581
Decreto 97580
coherencia 97579
permitan 97578
ocupa 97577
tengo 97576
investigar 97575
Asesor 97574
asen 97573
lado 97572
fi@@ 97571
periódicamente 97570
cierto 97569
Guatemala 97568
única 97567
gubernamental 97566
Argelia 97565
legales 97564
básicas 97563
informa 97562
organizar 97561
ocasiones 97560
oradores 97559
espaciales 97558
nunca 97557
dinero 97556
mi@@ 97555
municiones 97554
salvo 97553
Finlandia 97552
controversias 97551
indicar 97550
occidental 97549
usuarios 97548
h 97547
ías 97546
hora 97545
miento 97544
Filipinas 97543
eficiente 97542
adoptada 97541
permita 97540
Belarús 97539
incorporar 97538
.000 97537
incidentes 97536
Kenya 97535
cu@@ 97534
producido 97533
séptimo 97532
rán 97531
eso 97530
G 97529
subregionales 97528
Uganda 97527
tivo 97526
Movimiento 97525
detallada 97524
destinado 97523
C.2 97522
600 97521
0,@@ 97520
15@@ 97519
remuneración 97518
deficiencias 97517
refleja 97516
500 97515
ciencia 97514
primeros 97513
habiendo 97512
realizan 97511
finalidad 97510
Jerusalén 97509
19@@ 97508
L.@@ 97507
llevado 97506
aplicado 97505
consiste 97504
Artículo 97503
ería 97502
vacantes 97501
71 97500
doméstica 97499
utilizado 97498
Myanmar 97497
creados 97496
estatal 97495
Iniciativa 97494
existente 97493
agrícolas 97492
establecida 97491
ra 97490
Oficial 97489
Bélgica 97488
privados 97487
ativo 97486
perspectivas 97485
revisado 97484
ilegal 97483
abierto 97482
solicitantes 97481
consideró 97480
alizar 97479
posterior 97478
identificación 97477
étnicas 97476
propias 97475
sigan 97474
mos 97473
clara 97472
adultos 97471
An@@ 97470
demostrado 97469
destacó 97468
semana 97467
sostenibles 97466
reclamación 97465
haga 97464
Árabes 97463
re 97462
encargada 97461
Europeo 97460
Polonia 97459
vulnerabilidad 97458
saneamiento 97457
consonancia 97456
previa 97455
informado 97454
celebra 97453
VII 97452
factor 97451
etc. 97450
exámenes 97449
hagan 97448
subraya 97447
garantiza 97446
dependencia 97445
mencionados 97444
internacionalmente 97443
Cuarta 97442
sociedades 97441
conversaciones 97440
fiscal 97439
alrededor 97438
Fuerzas 97437
mismas 97436
equilibrio 97435
financiar 97434
beneficio 97433
Segunda 97432
Equipo 97431
similares 97430
Dinamarca 97429
aplicando 97428
qu@@ 97427
Defensa 97426
Racial 97425
cumplido 97424
declaró 97423
límites 97422
externa 97421
sostenibilidad 97420
dan 97419
semanas 97418
alimentación 97417
ocasión 97416
76 97415
actuar 97414
car@@ 97413
tivos 97412
asistir 97411
Recursos 97410
ejecutar 97409
efectivamente 97408
selección 97407
búsqueda 97406
Universal 97405
FAO 97404
pedir 97403
prestado 97402
ensayos 97401
estrechamente 97400
pesca 97399
ve 97398
mencionadas 97397
organizó 97396
D. 97395
sentencia 97394
mental 97393
raíz 97392
superar 97391
agresión 97390
creó 97389
podido 97388
aplican 97387
reales 97386
tu@@ 97385
distrito 97384
ejemplos 97383
participaron 97382
fic@@ 97381
instancia 97380
ren 97379
salvaguardias 97378
ministerios 97377
hubo 97376
incluya 97375
C.5 97374
Alta 97373
armamentos 97372
pudieran 97371
diez 97370
intervenciones 97369
pas@@ 97368
M 97367
soldados 97366
impacto 97365
preparativos 97364
espacial 97363
Tailandia 97362
reconocer 97361
trabajando 97360
la@@ 97359
OMS 97358
AS 97357
osas 97356
impunidad 97355
naciones 97354
circulación 97353
ultraterrestre 97352
tr@@ 97351
pertenecientes 97350
Bretaña 97349
Tercera 97348
separación 97347
limitado 97346
visión 97345
abogados 97344
transmisión 97343
C.3 97342
vecinos 97341
acusado 97340
iniciado 97339
Principios 97338
74 97337
Ciencia 97336
agrícola 97335
desplazadas 97334
f 97333
observando 97332
Actividades 97331
territorial 97330
anas 97329
presupuestarias 97328
iniciar 97327
monto 97326
10.00 97325
humanitarios 97324
viaje 97323
ant@@ 97322
95 97321
consecución 97320
patrocinadores 97319
federal 97318
manifiesto 97317
Camboya 97316
io 97315
85 97314
repatriación 97313
ver 97312
Plataforma 97311
presentan 97310
fenómeno 97309
geográfica 97308
il@@ 97307
na 97306
individuales 97305
contrario 97304
notificación 97303
acogida 97302
prestan 97301
contribuido 97300
primero 97299
expulsión 97298
historia 97297
cuidado 97296
sur 97295
licencia 97294
rápida 97293
necesita 97292
ja 97291
debida 97290
Ch@@ 97289
media 97288
1989 97287
futuros 97286
ratificado 97285
socorro 97284
400 97283
enjuiciamiento 97282
nueve 97281
satisfacer 97280
C.1 97279
convenciones 97278
inmediato 97277
habrá 97276
sustitu@@ 97275
78 97274
ari@@ 97273
idea 97272
eficazmente 97271
pedido 97270
posteriores 97269
Bangladesh 97268
voto 97267
basadas 97266
romaníes 97265
plazos 97264
Procedimiento 97263
ocupados 97262
independientemente 97261
pudiera 97260
ideas 97259
Tecnología 97258
Mar 97257
textos 97256
altos 97255
83 97254
urbanas 97253
Des@@ 97252
15.00 97251
adoptó 97250
resto 97249
Armenia 97248
utilizados 97247
integrar 97246
instrucciones 97245
go 97244
Libia 97243
realizó 97242
materna 97241
tendrán 97240
Cuestiones 97239
Alianza 97238
presupuestos 97237
ati@@ 97236
realizando 97235
ver@@ 97234
étnico 97233
requisito 97232
Checa 97231
actuaciones 97230
positiva 97229
ilegales 97228
ativos 97227
instrucción 97226
etapas 97225
id@@ 97224
cifra 97223
retos 97222
solidaridad 97221
ofrecen 97220
electrónica 97219
av@@ 97218
duda 97217
siglo 97216
demora 97215
equitativa 97214
realiza 97213
analizar 97212
indispensable 97211
solicitado 97210
clima 97209
subsidiarios 97208
petróleo 97207
sufragar 97206
consciente 97205
sueldos 97204
frontera 97203
recibidas 97202
Jefes 97201
st@@ 97200
exterior 97199
Caja 97198
us@@ 97197
ec@@ 97196
gu@@ 97195
ta@@ 97194
identificar 97193
totalidad 97192
promedio 97191
consideran 97190
disfrute 97189
inferior 97188
reafirmando 97187
Año 97186
ú@@ 97185
hijo 97184
81 97183
privación 97182
método 97181
Coordinador 97180
expresaron 97179
ni@@ 97178
Rev.1 97177
alcanzado 97176
competente 97175
oradora 97174
ejército 97173
hacerse 97172
saldo 97171
apropiado 97170
ingreso 97169
lleva 97168
tardar 97167
rápido 97166
and 97165
pacífica 97164
tivas 97163
Angola 97162
82 97161
solicitó 97160
prohíbe 97159
temporal 97158
irse 97157
campamentos 97156
96 97155
norte 97154
incremento 97153
Eritrea 97152
incumplimiento 97151
Malasia 97150
vía 97149
beneficiarios 97148
mantiene 97147
ausencia 97146
específicamente 97145
aumentó 97144
inspección 97143
800 97142
distribuir 97141
aquellos 97140
á 97139
decidido 97138
hu@@ 97137
publicado 97136
rec@@ 97135
ora 97134
79 97133
inform@@ 97132
tores 97131
utilizan 97130
metodología 97129
seres 97128
presentara 97127
disponible 97126
luego 97125
Familia 97124
continúa 97123
col@@ 97122
proporcionado 97121
supone 97120
Comisionada 97119
ma@@ 97118
prácticos 97117
aje 97116
97 97115
estratégica 97114
agenda 97113
poseedores 97112
requieren 97111
diseño 97110
Nairobi 97109
Fiduciario 97108
muestra 97107
inciso 97106
bajos 97105
Gobiernos 97104
is 97103
aportan 97102
genocidio 97101
considere 97100
enlace 97099
ed@@ 97098
98 97097
termin@@ 97096
presión 97095
pres@@ 97094
potencial 97093
mon@@ 97092
recurrir 97091
17@@ 97090
relacionada 97089
ga 97088
cobertura 97087
1.000 97086
inscripción 97085
comprende 97084
Jordania 97083
dependencias 97082
aprendizaje 97081
plantea 97080
900 97079
Sri 97078
talleres 97077
EL 97076
defensores 97075
reconoció 97074
idad 97073
Ecuador 97072
aspecto 97071
Di@@ 97070
tampoco 97069
Culturales 97068
gan@@ 97067
miles 97066
programación 97065
intolerancia 97064
acceder 97063
Administrativo 97062
eros 97061
Lanka 97060
conjuntas 97059
comprometido 97058
cumplan 97057
van 97056
deseen 97055
empresarial 97054
L 97053
aguas 97052
autora 97051
definir 97050
tica 97049
depende 97048
88 97047
Igualdad 97046
Montenegro 97045
divulgación 97044
Portugal 97043
Pro@@ 97042
industrial 97041
limitada 97040
basados 97039
92 97038
corto 97037
aun 97036
algún 97035
Túnez 97034
máxima 97033
93 97032
provincias 97031
combustible 97030
comentarios 97029
osos 97028
91 97027
disponer 97026
trate 97025
éndose 97024
preliminar 97023
reclusos 97022
16@@ 97021
Interna 97020
Promoción 97019
votos 97018
regla 97017
87 97016
tiva 97015
véanse 97014
Venezuela 97013
mencionado 97012
laborales 97011
84 97010
Estadística 97009
apelación 97008
totalmente 97007
aceptación 97006
99 97005
foros 97004
contactos 97003
op@@ 97002
urgencia 97001
tuviera 97000
raza 96999
permitido 96998
convención 96997
modificar 96996
Com@@ 96995
examine 96994
Superior 96993
stas 96992
obligatoria 96991
pacíficos 96990
reducido 96989
alternativas 96988
aplicaciones 96987
Hungría 96986
Común 96985
Rumania 96984
decidir 96983
terceros 96982
presentaron 96981
positivos 96980
trans@@ 96979
tación 96978
actuación 96977
cooperar 96976
és 96975
normativa 96974
contr@@ 96973
ten 96972
LAS 96971
mano 96970
elevado 96969
rápidamente 96968
científicos 96967
reglas 96966
gama 96965
vigentes 96964
camino 96963
benefici@@ 96962
opción 96961
estará 96960
contaminación 96959
destacar 96958
cometidas 96957
Beijing 96956
Costa 96955
Proyecto 96954
actualizada 96953
exclusión 96952
visto 96951
baja 96950
participado 96949
explosivos 96948
Cultura 96947
1988 96946
700 96945
acelerar 96944
secciones 96943
modificaciones 96942
94 96941
vigilar 96940
der@@ 96939
participó 96938
Vicepresidente 96937
extranjera 96936
participen 96935
of 96934
tó 96933
Uruguay 96932
pagar 96931
Un 96930
quedan 96929
éstas 96928
migratorios 96927
res 96926
reconocido 96925
vigente 96924
competencias 96923
parecer 96922
amplias 96921
breve 96920
comienzo 96919
convencionales 96918
amientos 96917
iz@@ 96916
registrado 96915
personales 96914
respectivas 96913
San 96912
terminado 96911
ay@@ 96910
sa 96909
Lucha 96908
tur@@ 96907
concretamente 96906
generación 96905
titulada 96904
Nepal 96903
Auditores 96902
tado 96901
sumamente 96900
estipula 96899
enfermedad 96898
represión 96897
Grecia 96896
Investigación 96895
legislativo 96894
subregional 96893
evidente 96892
invitó 96891
CRC 96890
89 96889
habido 96888
res@@ 96887
Investigaciones 96886
sistemática 96885
almacenamiento 96884
escolares 96883
agradecimiento 96882
EN 96881
qui@@ 96880
actas 96879
propuso 96878
avanzar 96877
llevó 96876
original 96875
Excmo. 96874
radio 96873
agradecería 96872
IC@@ 96871
profunda 96870
temprana 96869
detalles 96868
formulado 96867
empoderamiento 96866
establecimientos 96865
étnicos 96864
listas 96863
coherente 96862
transacciones 96861
mínima 96860
mesa 96859
comportamiento 96858
madre 96857
ia 96856
impuestas 96855
ficación 96854
lamenta 96853
específica 96852
intergubernamental 96851
Energía 96850
doble 96849
directo 96848
dirigido 96847
se@@ 96846
aplicarse 96845
-@@ 96844
Kazajstán 96843
duradera 96842
televisión 96841
considerables 96840
86 96839
ES 96838
autonomía 96837
tolerancia 96836
exclusivamente 96835
logrados 96834
pronto 96833
controles 96832
ak@@ 96831
préstamos 96830
desertificación 96829
desastre 96828
turismo 96827
K 96826
buen 96825
alguno 96824
instó 96823
asi@@ 96822
señalado 96821
acta 96820
significa 96819
introducir 96818
auto@@ 96817
proceder 96816
Evaluación 96815
ven 96814
armonización 96813
SR.@@ 96812
n 96811
pi@@ 96810
inmigrantes 96809
individual 96808
AN@@ 96807
buenas 96806
modificación 96805
ajustes 96804
cesación 96803
ACIÓN 96802
Unidad 96801
multi@@ 96800
seguros 96799
registros 96798
Rica 96797
provincia 96796
erradicar 96795
Mecanismo 96794
ares 96793
llevan 96792
ampliamente 96791
protocolo 96790
manifestaciones 96789
allá 96788
Río 96787
Mar@@ 96786
entrega 96785
estadísticos 96784
asegur@@ 96783
concreto 96782
nombres 96781
ciudadanía 96780
cuadragésimo 96779
so@@ 96778
declara 96777
presos 96776
preocupado 96775
Directora 96774
contabilidad 96773
OMC 96772
gr@@ 96771
estuvo 96770
mitigación 96769
dis@@ 96768
Intergubernamental 96767
firmemente 96766
servir 96765
desmovilización 96764
relativamente 96763
212 96762
consolidar 96761
precio 96760
existencias 96759
du@@ 96758
apliquen 96757
consideraciones 96756
pag@@ 96755
Tanzanía 96754
procesamiento 96753
código 96752
usos 96751
coordinadores 96750
me@@ 96749
tuvieron 96748
Lituania 96747
Mayor 96746
razonable 96745
fiscalización 96744
químicas 96743
orgánico 96742
eg@@ 96741
observar 96740
invitación 96739
formularon 96738
movimiento 96737
dada 96736
llegó 96735
establecen 96734
OOPS 96733
movimientos 96732
interino 96731
v 96730
ma 96729
ang@@ 96728
definitiva 96727
ligeras 96726
probable 96725
oportuna 96724
agrado 96723
aceptar 96722
aprueba 96721
ento 96720
adamente 96719
voluntarios 96718
hubieran 96717
regreso 96716
presentará 96715
movilizar 96714
Conferencias 96713
París 96712
facultativo 96711
entró 96710
permiten 96709
De@@ 96708
inició 96707
Salvador 96706
acusados 96705
difundir 96704
educativo 96703
ficar 96702
aportaciones 96701
liderazgo 96700
Potencia 96699
oferta 96698
posiciones 96697
Fiscalía 96696
regul@@ 96695
Eslovenia 96694
justa 96693
recordar 96692
externos 96691
tenemos 96690
OSSI 96689
Red 96688
ER@@ 96687
Nivel 96686
oposición 96685
dió 96684
estimación 96683
Bulgaria 96682
alcanzados 96681
ilícitos 96680
futura 96679
I. 96678
at 96677
dotación 96676
terrestres 96675
bancos 96674
libres 96673
toneladas 96672
facilitación 96671
fueran 96670
patrimonio 96669
apruebe 96668
consultores 96667
subrayó 96666
Jurídica 96665
positivo 96664
extranjeras 96663
antecedentes 96662
similar 96661
ética 96660
viernes 96659
AL 96658
lunes 96657
religiosos 96656
au@@ 96655
apropiados 96654
inmediata 96653
celebraron 96652
inicio 96651
ret@@ 96650
jefe 96649
notas 96648
inmigración 96647
haberse 96646
jo 96645
suelen 96644
hará 96643
traslado 96642
cartas 96641
facultades 96640
cualquiera 96639
20@@ 96638
ecosistemas 96637
nosotros 96636
mientos 96635
intensificar 96634
torno 96633
indicado 96632
aumentando 96631
agrav@@ 96630
colectiva 96629
Día 96628
señalaron 96627
cuentan 96626
gasto 96625
ere 96624
revisar 96623
permiso 96622
desee 96621
Sexta 96620
recopilación 96619
periódicas 96618
elegidos 96617
científica 96616
imponer 96615
órdenes 96614
recibieron 96613
gi@@ 96612
fabricación 96611
nacimiento 96610
pensiones 96609
concienciación 96608
difíciles 96607
3,@@ 96606
buques 96605
ra@@ 96604
formula 96603
inclusive 96602
ulterior 96601
limitación 96600
cree 96599
normativo 96598
end@@ 96597
hi@@ 96596
degradación 96595
dedicado 96594
Roja 96593
afirmó 96592
ten@@ 96591
man@@ 96590
Senegal 96589
biológica 96588
extrema 96587
étnica 96586
legislativos 96585
mencionar 96584
distinción 96583
aniversario 96582
informaciones 96581
ter@@ 96580
Albania 96579
desempeñan 96578
propuestos 96577
xenofobia 96576
í 96575
permitirá 96574
nación 96573
conjuntos 96572
ordinarios 96571
reclutamiento 96570
tercero 96569
Macedonia 96568
religiosa 96567
reg@@ 96566
primordial 96565
carrera 96564
PRESIDENTE 96563
esperamos 96562
Federativa 96561
gar@@ 96560
Planificación 96559
te@@ 96558
iniciales 96557
asumir 96556
equidad 96555
Normas 96554
litoral 96553
desempeña 96552
adecuadamente 96551
natural 96550
Bolivia 96549
conclu@@ 96548
Pueblo 96547
reflej@@ 96546
integrados 96545
pen@@ 96544
Inspección 96543
prioritarias 96542
moral 96541
Uzbekistán 96540
obra 96539
dirigidos 96538
derivados 96537
obras 96536
periodistas 96535
Consultivo 96534
pocos 96533
bilateral 96532
ventajas 96531
reglamentación 96530
dieron 96529
daño 96528
normativas 96527
TNP 96526
alianzas 96525
ve@@ 96524
continua 96523
profundamente 96522
observador 96521
comunicado 96520
Personas 96519
reconocidos 96518
.1 96517
contribuye 96516
expresado 96515
campo 96514
Indígenas 96513
concluido 96512
plantilla 96511
convino 96510
dejar 96509
pol@@ 96508
corresponda 96507
revisada 96506
encaminados 96505
Armas 96504
preste 96503
11.@@ 96502
estratégicas 96501
1980 96500
práctico 96499
plataforma 96498
mejor@@ 96497
adoptando 96496
próximos 96495
entiende 96494
aquí 96493
perjuicio 96492
flexibilidad 96491
maternidad 96490
maestros 96489
previo 96488
infra 96487
Malí 96486
madres 96485
oc@@ 96484
ocuparse 96483
ataque 96482
ha@@ 96481
reunir 96480
considerando 96479
UNOPS 96478
Operación 96477
ru@@ 96476
próxima 96475
límite 96474
imparcial 96473
pudo 96472
co 96471
the 96470
apropiada 96469
Camerún 96468
euros 96467
mar@@ 96466
af@@ 96465
Corr.1 96464
peligrosos 96463
destinada 96462
expresamente 96461
w@@ 96460
resultantes 96459
5.000 96458
pensión 96457
pornografía 96456
libremente 96455
avance 96454
J 96453
constitu@@ 96452
índice 96451
guía 96450
positivas 96449
creencias 96448
tendría 96447
adquirir 96446
urgentes 96445
Tayikistán 96444
tados 96443
min@@ 96442
presentarse 96441
pasar 96440
Centroafricana 96439
establezca 96438
constitucionales 96437
interinstitucional 96436
encuesta 96435
transparente 96434
degradantes 96433
Formas 96432
favorable 96431
Chad 96430
insuficiente 96429
demasiado 96428
limitar 96427
CI@@ 96426
adelanto 96425
reunió 96424
Nam 96423
demuestra 96422
refieren 96421
volver 96420
alent@@ 96419
cost@@ 96418
incrementar 96417
cuyas 96416
asignados 96415
deber 96414
rendimiento 96413
intelectual 96412
Moldova 96411
sustantivos 96410
arle 96409
limit@@ 96408
AC@@ 96407
inhumanos 96406
mo 96405
Constitucional 96404
memorando 96403
meta 96402
nada 96401
publicó 96400
Viet 96399
ce 96398
Ministerial 96397
gen@@ 96396
afecta 96395
lo@@ 96394
Fundación 96393
jueves 96392
indebido 96391
discurso 96390
sugirió 96389
Arabia 96388
efectuar 96387
cooper@@ 96386
Saudita 96385
separado 96384
atribu@@ 96383
impulso 96382
delincuentes 96381
pequeña 96380
proporcionada 96379
cantidades 96378
presenten 96377
promoviendo 96376
Add.@@ 96375
ancia 96374
Agricultura 96373
adquirida 96372
Ex@@ 96371
x 96370
tarde 96369
constituir 96368
prestó 96367
financi@@ 96366
contribuyen 96365
Ghana 96364
cal@@ 96363
120 96362
asignado 96361
IS@@ 96360
Liga 96359
suspensión 96358
ba 96357
pe@@ 96356
evalu@@ 96355
policial 96354
basándose 96353
emos 96352
utilizarse 96351
reestructuración 96350
enc@@ 96349
entos 96348
internas 96347
propósitos 96346
oficialmente 96345
transmitir 96344
incidencia 96343
finanzas 96342
larga 96341
utiliza 96340
Kyoto 96339
Programas 96338
medicamentos 96337
he 96336
UNODC 96335
netas 96334
60@@ 96333
27@@ 96332
verse 96331
Internacionales 96330
castigo 96329
negativas 96328
autónomos 96327
empleadores 96326
alerta 96325
fechas 96324
cambi@@ 96323
modelos 96322
importación 96321
Ribera 96320
odio 96319
décimo 96318
examinará 96317
ca@@ 96316
cuantía 96315
provisionales 96314
12@@ 96313
U 96312
erse 96311
enda 96310
hambre 96309
entreg@@ 96308
vigésimo 96307
mejorado 96306
Meridional 96305
Eslovaquia 96304
generar 96303
distribu@@ 96302
impuesto 96301
examin@@ 96300
redonda 96299
X 96298
formar 96297
transferencias 96296
interacción 96295
taller 96294
sometido 96293
conceptos 96292
obtenidos 96291
gratuita 96290
mo@@ 96289
continente 96288
sumas 96287
E. 96286
blanqueo 96285
Nicaragua 96284
ciudadano 96283
martes 96282
aportar 96281
policiales 96280
poniendo 96279
sistemáticamente 96278
vidas 96277
controlar 96276
cuarta 96275
seguía 96274
ratificar 96273
mal@@ 96272
contenidas 96271
ér@@ 96270
Ab@@ 96269
impuestos 96268
FMAM 96267
coordin@@ 96266
Preparatorio 96265
centr@@ 96264
prisiones 96263
Consolidación 96262
ministerial 96261
sos 96260
hospitales 96259
prórroga 96258
subvenciones 96257
colaborar 96256
acogió 96255
nuevamente 96254
Terrorismo 96253
Medidas 96252
taron 96251
AR@@ 96250
gas 96249
sindicatos 96248
suficientemente 96247
Políticas 96246
abilidad 96245
za 96244
alizado 96243
edificios 96242
parcial 96241
marinos 96240
sujetos 96239
Yemen 96238
extrapresupuestarios 96237
páginas 96236
vo 96235
sivos 96234
concreta 96233
esperar 96232
ita 96231
globalización 96230
12.@@ 96229
4,@@ 96228
alojamiento 96227
Otros 96226
Roma 96225
sivas 96224
fallo 96223
conveniente 96222
miércoles 96221
ud@@ 96220
influencia 96219
acordado 96218
ato 96217
siguiendo 96216
crueles 96215
juventud 96214
elegir 96213
especialistas 96212
10.@@ 96211
democrática 96210
Observación 96209
mercurio 96208
asign@@ 96207
Su@@ 96206
distritos 96205
bles 96204
ponga 96203
cin@@ 96202
esti@@ 96201
Mauricio 96200
Estonia 96199
eren 96198
orientaciones 96197
5,@@ 96196
estupefacientes 96195
sal@@ 96194
ajust@@ 96193
ología 96192
educativos 96191
escasez 96190
Unida 96189
po@@ 96188
pronunci@@ 96187
vol@@ 96186
viol@@ 96185
imposición 96184
VIII 96183
Cruz 96182
Letonia 96181
alquiler 96180
directores 96179
apoy@@ 96178
29@@ 96177
apoyando 96176
tor 96175
PIB 96174
actores 96173
comenzó 96172
corresponden 96171
fr@@ 96170
electorales 96169
anfitrión 96168
estadística 96167
sometidos 96166
zca 96165
industriales 96164
Financiación 96163
ka 96162
aci@@ 96161
elegido 96160
áreas 96159
jurisprudencia 96158
cl@@ 96157
CNUDMI 96156
utilidad 96155
brutas 96154
mencionada 96153
específico 96152
mercancías 96151
autorizado 96150
comprender 96149
can@@ 96148
actualización 96147
mejorando 96146
Santa 96145
integr@@ 96144
democrático 96143
pongan 96142
tadas 96141
potable 96140
abord@@ 96139
recordó 96138
algo 96137
Sáhara 96136
plantean 96135
padre 96134
facilit@@ 96133
estable 96132
Miembro 96131
antipersonal 96130
Salón 96129
elimin@@ 96128
um@@ 96127
Droga 96126
destin@@ 96125
recibida 96124
sustantivas 96123
vías 96122
desigualdad 96121
28@@ 96120
municipales 96119
considerado 96118
fe 96117
to@@ 96116
desapariciones 96115
13.00 96114
licencias 96113
serían 96112
encargadas 96111
aire 96110
sufrido 96109
incentivos 96108
productividad 96107
clase 96106
indi@@ 96105
HRC 96104
sugerencias 96103
15.@@ 96102
tri@@ 96101
ña 96100
@ 96099
Cap. 96098
Jurídicos 96097
XXI 96096
custodia 96095
regímenes 96094
demostrar 96093
Transición 96092
dé 96091
enfrent@@ 96090
inas 96089
be 96088
voluntario 96087
estratégicos 96086
International 96085
ejecutivo 96084
presten 96083
directas 96082
terrorista 96081
venido 96080
Montreal 96079
entraña 96078
18.00 96077
cumplen 96076
bruto 96075
enfrentan 96074
negativos 96073
ali@@ 96072
desearía 96071
am 96070
mitigar 96069
brindar 96068
presuntos 96067
dic@@ 96066
acogiendo 96065
trat@@ 96064
buenos 96063
nutrición 96062
recomendar 96061
femenina 96060
producir 96059
precedentes 96058
Protocolos 96057
1967 96056
continúe 96055
exclu@@ 96054
ular 96053
observancia 96052
Qatar 96051
ejecuciones 96050
planteadas 96049
participa 96048
obligado 96047
negoci@@ 96046
Ac@@ 96045
equivalente 96044
margen 96043
sanitaria 96042
corriente 96041
gravedad 96040
subsidios 96039
infraestructuras 96038
ejecutivos 96037
poderes 96036
AS@@ 96035
Estupefacientes 96034
educativas 96033
Documentos 96032
Jamaica 96031
Documento 96030
manual 96029
aj@@ 96028
hídricos 96027
relacionado 96026
proporcionó 96025
instalación 96024
racional 96023
ca 96022
Subcomité 96021
obtención 96020
vari@@ 96019
asignar 96018
finalmente 96017
Delincuencia 96016
fundamento 96015
inos 96014
fundamentalmente 96013
edificio 96012
ah@@ 96011
centrado 96010
uc@@ 96009
convenidos 96008
ii 96007
desplazamiento 96006
formato 96005
pie 96004
enti@@ 96003
entar 96002
consign@@ 96001
nadie 96000
peticiones 95999
Doha 95998
proporcionan 95997
útiles 95996
desglosados 95995
elevada 95994
Oficiales 95993
aclarar 95992
erá 95991
Ejército 95990
favorables 95989
equitativo 95988
aplique 95987
ponen 95986
anexos 95985
EN@@ 95984
0.000 95983
consignación 95982
recibe 95981
actu@@ 95980
objetos 95979
compartir 95978
salario 95977
.2 95976
asesores 95975
edades 95974
enunciados 95973
transformación 95972
reembolso 95971
centrales 95970
medi@@ 95969
proporcione 95968
reflejan 95967
consultiva 95966
indic@@ 95965
Leste 95964
TIC 95963
abastecimiento 95962
construir 95961
división 95960
obtenido 95959
ilícitas 95958
dando 95957
ro 95956
dad 95955
nacidos 95954
regular 95953
mu@@ 95952
incorpor@@ 95951
prevén 95950
Malta 95949
innovación 95948
complementarias 95947
utiliz@@ 95946
ende 95945
funcion@@ 95944
val@@ 95943
define 95942
mantenido 95941
precisa 95940
experto 95939
tor@@ 95938
CO@@ 95937
Singapur 95936
legislativa 95935
culturas 95934
0.@@ 95933
complement@@ 95932
obstáculo 95931
invit@@ 95930
CE@@ 95929
actitudes 95928
muertes 95927
titulares 95926
enci@@ 95925
detección 95924
rectores 95923
exi@@ 95922
lleg@@ 95921
realizaron 95920
protocolos 95919
preservar 95918
desempeñ@@ 95917
condenados 95916
Mixto 95915
universidades 95914
et@@ 95913
derivadas 95912
voluntaria 95911
hacía 95910
gue 95909
Asentamientos 95908
contraer 95907
torturas 95906
discapacitados 95905
justo 95904
mando 95903
mediación 95902
CEDAW 95901
Islandia 95900
llevando 95899
magnitud 95898
cumpli@@ 95897
quedado 95896
recomendado 95895
sujeción 95894
pr@@ 95893
mundialización 95892
buscar 95891
pl@@ 95890
descripción 95889
ne@@ 95888
26@@ 95887
Humanitarios 95886
impu@@ 95885
zar 95884
normalmente 95883
asistieron 95882
aviones 95881
totales 95880
impulsar 95879
exten@@ 95878
libros 95877
tome 95876
compar@@ 95875
expansión 95874
encarga 95873
intento 95872
preámbulo 95871
ticos 95870
remoción 95869
actitud 95868
forman 95867
0 95866
liberalización 95865
organiz@@ 95864
núm. 95863
océanos 95862
clientes 95861
juicios 95860
convertido 95859
normativos 95858
Una 95857
explicar 95856
crimen 95855
difun@@ 95854
consultar 95853
tando 95852
Inter@@ 95851
elaborando 95850
DERECHOS 95849
gases 95848
ilícita 95847
basan 95846
1986 95845
infracciones 95844
condenado 95843
trabaj@@ 95842
activas 95841
ficada 95840
tuvieran 95839
explicación 95838
manos 95837
déficit 95836
decreto 95835
6,@@ 95834
restantes 95833
Cambio 95832
aprovech@@ 95831
OR@@ 95830
efectivas 95829
Territorios 95828
cierta 95827
2.000 95826
hostilidades 95825
FNUAP 95824
150 95823
Alimentación 95822
cur@@ 95821
auspicios 95820
tramitación 95819
sexos 95818
compra 95817
individuos 95816
Bissau 95815
denunci@@ 95814
vinculante 95813
prácticamente 95812
declarado 95811
Modelo 95810
Registro 95809
municipios 95808
propicio 95807
desigualdades 95806
ama 95805
remos 95804
registrados 95803
fácil 95802
obligatorio 95801
estimado 95800
presupuestarios 95799
jurídicamente 95798
sitios 95797
DE@@ 95796
investig@@ 95795
correo 95794
procede 95793
sostenido 95792
ES@@ 95791
sectoriales 95790
lig@@ 95789
concluyó 95788
OCDE 95787
esclavitud 95786
referente 95785
Generales 95784
Mongolia 95783
tada 95782
Directrices 95781
mensaje 95780
detalle 95779
español 95778
963 95777
quejas 95776
septentrional 95775
Provisional 95774
contienen 95773
radi@@ 95772
terminación 95771
realmente 95770
tura 95769
afectado 95768
acept@@ 95767
Sociedad 95766
consideren 95765
dimensión 95764
amplios 95763
prioritario 95762
presidentes 95761
Comunicaciones 95760
cubrir 95759
página 95758
directos 95757
En@@ 95756
supervis@@ 95755
DP 95754
Niños 95753
impone 95752
ismo 95751
envió 95750
controversia 95749
plazas 95748
1987 95747
acordó 95746
becas 95745
Burkina 95744
kilómetros 95743
tin@@ 95742
eras 95741
cierre 95740
gar 95739
Mozambique 95738
Web 95737
disponen 95736
dimensiones 95735
hechas 95734
reclu@@ 95733
isla 95732
irán 95731
ig@@ 95730
Público 95729
Mu@@ 95728
bu@@ 95727
Basilea 95726
consideramos 95725
obligados 95724
Faso 95723
adap@@ 95722
agricultores 95721
aldeas 95720
13.@@ 95719
jan 95718
podemos 95717
traducción 95716
reconocidas 95715
revisadas 95714
alfabetización 95713
retirada 95712
Zambia 95711
entender 95710
Espacio 95709
supuesto 95708
UN@@ 95707
determinada 95706
7,@@ 95705
alentó 95704
ponerse 95703
cuadros 95702
vivir 95701
estrictamente 95700
Ombudsman 95699
temáticos 95698
constructivo 95697
trabaja 95696
gan 95695
tras@@ 95694
indígena 95693
AL@@ 95692
aptitudes 95691
seno 95690
Condición 95689
intercambiar 95688
ización 95687
saldos 95686
Cámara 95685
bar@@ 95684
observ@@ 95683
cumple 95682
uni@@ 95681
arm@@ 95680
registrada 95679
asesinato 95678
ayud@@ 95677
8,@@ 95676
calle 95675
interesado 95674
Alineados 95673
presuntamente 95672
tropas 95671
Electoral 95670
gestionar 95669
tes 95668
Género 95667
un.org 95666
embarazo 95665
clasificación 95664
delegados 95663
ena 95662
comenzar 95661
copias 95660
respeten 95659
estructural 95658
reserv@@ 95657
elaboró 95656
desarrollado 95655
negativa 95654
directivo 95653
prefer@@ 95652
amparo 95651
representados 95650
viabilidad 95649
Africa 95648
inseguridad 95647
hecha 95646
reiteró 95645
tamaño 95644
gradual 95643
ura 95642
lesiones 95641
idades 95640
gravemente 95639
subtema 95638
líneas 95637
financiados 95636
influ@@ 95635
ice 95634
Tierra 95633
conviene 95632
rigen 95631
fuerte 95630
Suplemento 95629
formulan 95628
arts 95627
primeras 95626
figuraban 95625
goce 95624
cumpla 95623
Panamá 95622
ejecu@@ 95621
comunitarios 95620
tico 95619
mor@@ 95618
arbitraje 95617
aliz@@ 95616
conceder 95615
usted 95614
sugiere 95613
Yugoslava 95612
satélite 95611
detenidas 95610
ordenamiento 95609
carbono 95608
renovación 95607
101 95606
repercusión 95605
cambiar 95604
inventario 95603
ori@@ 95602
promulgación 95601
logística 95600
promueve 95599
remiti@@ 95598
forestales 95597
interior 95596
bienal 95595
105 95594
anualmente 95593
cárceles 95592
Durban 95591
vital 95590
detallado 95589
Pe@@ 95588
parámetros 95587
ce@@ 95586
significativa 95585
industrias 95584
área 95583
DI@@ 95582
ou@@ 95581
Luxemburgo 95580
generalmente 95579
partido 95578
v. 95577
ozono 95576
envío 95575
emprender 95574
ár@@ 95573
cat@@ 95572
siguiera 95571
desafío 95570
transnacional 95569
1985 95568
sostiene 95567
siguieron 95566
Gu@@ 95565
OSCE 95564
sh@@ 95563
atura 95562
clasi@@ 95561
retorno 95560
acoso 95559
preparando 95558
Q@@ 95557
desaparición 95556
pidieron 95555
físico 95554
designado 95553
complace 95552
religiones 95551
evit@@ 95550
tradicional 95549
oralmente 95548
terminar 95547
Jamahiriya 95546
RE@@ 95545
unilaterales 95544
eng@@ 95543
mensuales 95542
orient@@ 95541
Observadores 95540
Es@@ 95539
sin@@ 95538
habit@@ 95537
probablemente 95536
mutuo 95535
telecomunicaciones 95534
mínimas 95533
Ad@@ 95532
preparó 95531
alcanz@@ 95530
comenzado 95529
avión 95528
cali@@ 95527
proseguir 95526
proporcionando 95525
decenios 95524
sequía 95523
ampliado 95522
comunic@@ 95521
nombramientos 95520
vínculo 95519
pequeño 95518
proporcionen 95517
esper@@ 95516
Est@@ 95515
movilidad 95514
fu@@ 95513
promesas 95512
consejos 95511
electrónicos 95510
Ju@@ 95509
fal@@ 95508
ninguno 95507
encomi@@ 95506
deterioro 95505
forestal 95504
confi@@ 95503
Armadas 95502
import@@ 95501
mediados 95500
oración 95499
sob@@ 95498
crucial 95497
don@@ 95496
yan 95495
ev@@ 95494
ej@@ 95493
vinculados 95492
istas 95491
consult@@ 95490
patrocin@@ 95489
pusieron 95488
variedad 95487
ye 95486
armonizar 95485
incidente 95484
CA@@ 95483
Independiente 95482
asegurarse 95481
tratan 95480
ño 95479
cárcel 95478
limitados 95477
sentencias 95476
orientadas 95475
superficie 95474
Se@@ 95473
necesariamente 95472
empeño 95471
ministros 95470
permitiría 95469
demostr@@ 95468
17.@@ 95467
sola 95466
previas 95465
concentr@@ 95464
ino 95463
be@@ 95462
fer@@ 95461
invasión 95460
of@@ 95459
ins@@ 95458
ban@@ 95457
hablando 95456
ing@@ 95455
penitenciario 95454
inestabilidad 95453
iraquíes 95452
examinara 95451
clases 95450
Pueblos 95449
ai@@ 95448
humanas 95447
Zimbabwe 95446
maltrato 95445
misiles 95444
smo 95443
AD@@ 95442
ala 95441
represent@@ 95440
discriminatorias 95439
disponga 95438
Haya 95437
pocas 95436
físicas 95435
Financiero 95434
últimas 95433
desean 95432
adoptarse 95431
hor@@ 95430
continuo 95429
crítica 95428
verbal 95427
dur@@ 95426
entemente 95425
ritmo 95424
cadena 95423
bas@@ 95422
modific@@ 95421
reducciones 95420
subregión 95419
por@@ 95418
manifestó 95417
Honduras 95416
centra 95415
mutuamente 95414
proponer 95413
verificar 95412
exig@@ 95411
cualesquiera 95410
alismo 95409
inicialmente 95408
contempl@@ 95407
compens@@ 95406
atorio 95405
Benin 95404
peligros 95403
permitió 95402
imparcialidad 95401
eb@@ 95400
empleos 95399
urbana 95398
peligrosas 95397
Finanzas 95396
garantiz@@ 95395
prohibir 95394
simplemente 95393
inici@@ 95392
Liechtenstein 95391
prestará 95390
ticas 95389
bloqueo 95388
Pr@@ 95387
subsistencia 95386
reforz@@ 95385
piloto 95384
competitividad 95383
discapacidades 95382
liberación 95381
explic@@ 95380
exteriores 95379
1982 95378
intentos 95377
POR 95376
biológicas 95375
Namibia 95374
ju@@ 95373
dependen 95372
cas@@ 95371
admisibilidad 95370
102 95369
9,@@ 95368
suya 95367
regulación 95366
diferente 95365
integrante 95364
PA@@ 95363
present@@ 95362
extensión 95361
for 95360
ov@@ 95359
islas 95358
coordinada 95357
108 95356
expresadas 95355
br@@ 95354
Organizada 95353
defin@@ 95352
marino 95351
manifiesta 95350
estudiando 95349
consultivo 95348
lamentablemente 95347
calcul@@ 95346
Sal@@ 95345
Atómica 95344
ñ@@ 95343
posesión 95342
Convenios 95341
centrarse 95340
entrar 95339
hiciera 95338
gráfico 95337
irá 95336
reciban 95335
experiment@@ 95334
importaciones 95333
aceptado 95332
Climático 95331
instancias 95330
concede 95329
pasó 95328
detectar 95327
supresión 95326
seguirán 95325
explica 95324
pronta 95323
basarse 95322
declar@@ 95321
TA@@ 95320
señal@@ 95319
Capacitación 95318
heridos 95317
SA@@ 95316
continuidad 95315
convenio 95314
111 95313
supervivencia 95312
generaciones 95311
exploración 95310
sol@@ 95309
pendiente 95308
fiduciarios 95307
abandon@@ 95306
Co@@ 95305
complejidad 95304
levanta 95303
lengua 95302
recepción 95301
30@@ 95300
tratando 95299
consagrados 95298
concentración 95297
Tr@@ 95296
enmendada 95295
diplomática 95294
coordinador 95293
justific@@ 95292
250 95291
vistas 95290
PR@@ 95289
conden@@ 95288
minoría 95287
enfrenta 95286
contenidos 95285
salarios 95284
110 95283
ber@@ 95282
observado 95281
acusaciones 95280
OS@@ 95279
mantenga 95278
credibilidad 95277
FPNUL 95276
impuls@@ 95275
admisión 95274
complejo 95273
hall@@ 95272
trabajadoras 95271
embarazadas 95270
indicador 95269
restablecer 95268
ampli@@ 95267
financiado 95266
especi@@ 95265
constitución 95264
realicen 95263
creemos 95262
tensiones 95261
encontr@@ 95260
dades 95259
OSE 95258
destacando 95257
suministr@@ 95256
exigencias 95255
dej@@ 95254
OSACT 95253
afía 95252
consumidores 95251
detec@@ 95250
sustitución 95249
llamamientos 95248
reclusión 95247
atribuciones 95246
electricidad 95245
concluye 95244
aportación 95243
Car@@ 95242
detenciones 95241
iraquí 95240
complementaria 95239
micro@@ 95238
Conjunto 95237
lectura 95236
Principal 95235
103 95234
tomen 95233
cuáles 95232
continúan 95231
dir 95230
contratistas 95229
recién 95228
devolución 95227
distancia 95226
verdad 95225
sel@@ 95224
viable 95223
cia 95222
contenida 95221
plenarias 95220
dese@@ 95219
quiero 95218
exigen 95217
Nacionales 95216
describen 95215
cuestionario 95214
validez 95213
continuará 95212
continu@@ 95211
emprendidas 95210
gestiones 95209
combatientes 95208
productores 95207
UNEP 95206
estructurado 95205
Final 95204
mutua 95203
IPSAS 95202
líderes 95201
IX 95200
certificado 95199
examinaron 95198
descentralización 95197
quen 95196
exigir 95195
suele 95194
Rec@@ 95193
prest@@ 95192
ficados 95191
ocupar 95190
coloc@@ 95189
sanitarios 95188
proyec@@ 95187
palestina 95186
UNIFEM 95185
subsidio 95184
bastante 95183
incorporado 95182
preliminares 95181
estereotipos 95180
provoc@@ 95179
estudi@@ 95178
ami@@ 95177
Emiratos 95176
profesores 95175
desarrollando 95174
demoras 95173
Señor 95172
procesales 95171
ll@@ 95170
Móvil 95169
CERD 95168
sufren 95167
us 95166
minutos 95165
Defensor 95164
oral 95163
hoc 95162
00@@ 95161
adi@@ 95160
mañana 95159
Juventud 95158
metodologías 95157
EC@@ 95156
emprendido 95155
onales 95154
arbitraria 95153
inspecciones 95152
empleado 95151
reo 95150
oportuno 95149
apoyado 95148
garantice 95147
estándar 95146
produjo 95145
incluyendo 95144
preparados 95143
Vigilancia 95142
preparatorio 95141
disminuido 95140
bo@@ 95139
utilicen 95138
facilitado 95137
reflejar 95136
causados 95135
per 95134
inquietud 95133
Financiera 95132
reinserción 95131
CA 95130
record@@ 95129
ind@@ 95128
Penas 95127
designación 95126
encuestas 95125
sirio 95124
erán 95123
asociadas 95122
MONUC 95121
hon@@ 95120
labores 95119
expres@@ 95118
106 95117
conduc@@ 95116
facilita 95115
docentes 95114
impartir 95113
solucionar 95112
determinó 95111
104 95110
rían 95109
transmite 95108
Administrador 95107
dispuestos 95106
Lista 95105
Terreno 95104
cometer 95103
fac@@ 95102
desplazamientos 95101
mesas 95100
revis@@ 95099
adición 95098
accidentes 95097
Estocolmo 95096
Tratos 95095
yen 95094
Tareas 95093
cuerpo 95092
logístico 95091
alegaciones 95090
inteligencia 95089
presupuestario 95088
acer@@ 95087
especializado 95086
coloniales 95085
científicas 95084
estructurales 95083
pu@@ 95082
normal 95081
constat@@ 95080
casa 95079
objeciones 95078
contribuirá 95077
F. 95076
esen 95075
eni@@ 95074
serbios 95073
CD 95072
ble 95071
investigadores 95070
Apelaciones 95069
design@@ 95068
eci@@ 95067
guar@@ 95066
Bienestar 95065
port@@ 95064
brinda 95063
integrantes 95062
cláusula 95061
forzadas 95060
enviar 95059
incluyó 95058
Qué 95057
ruta 95056
constantemente 95055
reclamante 95054
salida 95053
mutilación 95052
und@@ 95051
og@@ 95050
prorrogar 95049
irían 95048
AT@@ 95047
priv@@ 95046
queja 95045
contraídos 95044
excepciones 95043
solicit@@ 95042
ruso 95041
incluía 95040
mat@@ 95039
refer@@ 95038
Liberación 95037
oras 95036
Técnica 95035
causado 95034
abandono 95033
Turkmenistán 95032
100.000 95031
Diversidad 95030
dido 95029
án@@ 95028
Á@@ 95027
arbitrarias 95026
clausura 95025
departamento 95024
sivo 95023
destacaron 95022
regresar 95021
capitales 95020
imparti@@ 95019
seguían 95018
presupuestación 95017
tar@@ 95016
estuvieron 95015
carecen 95014
ficado 95013
zcan 95012
05 95011
18.@@ 95010
allí 95009
CE 95008
inci@@ 95007
atorios 95006
prioritaria 95005
detener 95004
sti@@ 95003
sumario 95002
inspir@@ 95001
relatores 95000
2,@@ 94999
neg@@ 94998
promuevan 94997
momentos 94996
dot@@ 94995
sustantiva 94994
temporario 94993
contribuyan 94992
cri@@ 94991
establezcan 94990
exposiciones 94989
traslad@@ 94988
osamente 94987
introducido 94986
agradece 94985
examinan 94984
iguales 94983
ológica 94982
Proceso 94981
restablecimiento 94980
describe 94979
socioeconómico 94978
alivio 94977
proporcion@@ 94976
expresando 94975
+ 94974
rel@@ 94973
referencias 94972
ah 94971
defender 94970
retraso 94969
Secretaria 94968
post@@ 94967
solicitante 94966
dr@@ 94965
divisiones 94964
consuetudinario 94963
112 94962
afirmación 94961
imposible 94960
oper@@ 94959
multa 94958
yeron 94957
comprenden 94956
atos 94955
des 94954
Organizaciones 94953
jubilación 94952
Militar 94951
dispositiva 94950
letrada 94949
reuni@@ 94948
convocadas 94947
tenerse 94946
ficadas 94945
persistentes 94944
Paraguay 94943
ática 94942
temáticas 94941
pacientes 94940
cosa 94939
juvenil 94938
integradas 94937
endan 94936
respal@@ 94935
Cu@@ 94934
fijado 94933
estableciendo 94932
107 94931
autorizados 94930
OUA 94929
estimados 94928
empleador 94927
sum@@ 94926
sospechosos 94925
censo 94924
psicológica 94923
pacífico 94922
desempeñado 94921
comunitaria 94920
incitación 94919
arles 94918
ata 94917
dará 94916
Hong 94915
cálculo 94914
peso 94913
orden@@ 94912
reconocida 94911
ños 94910
etas 94909
reconocen 94908
corporales 94907
certificación 94906
producen 94905
tecnológica 94904
aeronaves 94903
alu@@ 94902
ast@@ 94901
facilite 94900
UNMIK 94899
qued@@ 94898
habitual 94897
ID@@ 94896
quinta 94895
avi@@ 94894
guarda 94893
produci@@ 94892
encomia 94891
concertado 94890
brind@@ 94889
afrontar 94888
estaría 94887
vuelo 94886
dinámica 94885
cam@@ 94884
vehículo 94883
Bi@@ 94882
ñas 94881
atendiendo 94880
cuál 94879
ocurridos 94878
vot@@ 94877
acusación 94876
exista 94875
Fiscalización 94874
Kong 94873
trimestre 94872
suelo 94871
Representantes 94870
infracción 94869
rapidez 94868
medir 94867
limita 94866
legalidad 94865
Le@@ 94864
asociado 94863
claridad 94862
alizados 94861
enorme 94860
asciende 94859
permisos 94858
legítima 94857
preventivas 94856
eno 94855
figuraba 94854
anza 94853
administr@@ 94852
apreci@@ 94851
ias 94850
Reducción 94849
temático 94848
fij@@ 94847
debidas 94846
combate 94845
aclar@@ 94844
áticas 94843
referentes 94842
fraude 94841
je 94840
entablar 94839
all@@ 94838
otorga 94837
der 94836
debajo 94835
especies 94834
fin@@ 94833
Transnacional 94832
domicilio 94831
Por 94830
Ma@@ 94829
organizados 94828
asignaciones 94827
vio 94826
comunicó 94825
X@@ 94824
contaminantes 94823
libanés 94822
secretarías 94821
Formación 94820
Guía 94819
determina 94818
lesa 94817
enérgicamente 94816
sueldo 94815
agreg@@ 94814
Que 94813
incumbe 94812
deci@@ 94811
Sub@@ 94810
designados 94809
ge@@ 94808
Tema 94807
dispuesta 94806
realizarse 94805
aprovechamiento 94804
Kirguistán 94803
indemnizaciones 94802
expectativas 94801
otorg@@ 94800
quedó 94799
frase 94798
faciliten 94797
MA 94796
CN.9 94795
presupuestaria 94794
reunirse 94793
Mo@@ 94792
C.@@ 94791
campamento 94790
vinculadas 94789
invernadero 94788
alidades 94787
16.@@ 94786
Corrupción 94785
explicó 94784
celebrarán 94783
cultivos 94782
orientar 94781
pretende 94780
conexo 94779
Base 94778
agente 94777
significativo 94776
FMI 94775
fund@@ 94774
aceptable 94773
abarcan 94772
fun@@ 94771
constantes 94770
114 94769
estando 94768
escasa 94767
ológicas 94766
mantienen 94765
116 94764
CON@@ 94763
Reglas 94762
promo@@ 94761
NEPAD 94760
Potencias 94759
convertirse 94758
Presidentes 94757
Enviado 94756
combinación 94755
asegure 94754
varones 94753
colectivos 94752
Auxiliar 94751
Inhumanos 94750
regres@@ 94749
estabilización 94748
inflación 94747
envi@@ 94746
experimental 94745
perfeccionamiento 94744
sensibilizar 94743
secuestro 94742
duplicación 94741
aparte 94740
declarar 94739
200@@ 94738
que@@ 94737
aremos 94736
Control 94735
restricción 94734
colabor@@ 94733
campos 94732
raciales 94731
planteamiento 94730
audiencia 94729
prestados 94728
cuidados 94727
avanzado 94726
aquellas 94725
conce@@ 94724
encaminada 94723
inferiores 94722
llevaron 94721
admiti@@ 94720
ático 94719
provinciales 94718
aumenta 94717
comunicarse 94716
CONF.@@ 94715
130 94714
amento 94713
realice 94712
director 94711
dudas 94710
ológico 94709
fases 94708
acional 94707
confirmó 94706
desplegados 94705
man 94704
Degradantes 94703
correcciones 94702
eses 94701
ide@@ 94700
consignaciones 94699
ai 94698
imos 94697
UNAMID 94696
fica 94695
hospital 94694
especializadas 94693
vuelos 94692
parecen 94691
transmiti@@ 94690
Dominicana 94689
existía 94688
incluyan 94687
pertinencia 94686
Add.2 94685
14.@@ 94684
salir 94683
emisión 94682
separados 94681
no@@ 94680
Fiji 94679
HUMANOS 94678
reasentamiento 94677
sanción 94676
VI@@ 94675
autorizada 94674
Golán 94673
descolonización 94672
Empleo 94671
presidencia 94670
PARA 94669
eficientes 94668
continuó 94667
lidad 94666
consideraba 94665
gui@@ 94664
respaldo 94663
mer@@ 94662
Auditoría 94661
aspiraciones 94660
figur@@ 94659
plani@@ 94658
forzoso 94657
nacimientos 94656
aldea 94655
visitar 94654
intervenir 94653
CU@@ 94652
noti@@ 94651
informaron 94650
definiciones 94649
colaborando 94648
capaz 94647
formal 94646
valor@@ 94645
sur@@ 94644
muestran 94643
flexible 94642
dejado 94641
materias 94640
aleg@@ 94639
Bahrein 94638
adherirse 94637
115 94636
sufrag@@ 94635
residente 94634
penitenciarios 94633
fiduciario 94632
parlamentarios 94631
Judicial 94630
mantuvo 94629
acompañados 94628
nombrado 94627
piezas 94626
convenido 94625
enemigo 94624
barreras 94623
cuanti@@ 94622
q@@ 94621
contrat@@ 94620
externas 94619
sujeto 94618
Q 94617
sec@@ 94616
exhor@@ 94615
diera 94614
beneficiarse 94613
ep@@ 94612
comunitario 94611
identi@@ 94610
adjunto 94609
liber@@ 94608
increment@@ 94607
receptores 94606
diri@@ 94605
sala 94604
113 94603
especie 94602
inmunidad 94601
oficios 94600
.4 94599
adelantos 94598
repatriados 94597
examinados 94596
niña 94595
reafirmó 94594
Sh@@ 94593
organizadas 94592
Crueles 94591
carg@@ 94590
administraciones 94589
extrajudiciales 94588
estarán 94587
armada 94586
sírvase 94585
MI@@ 94584
tel 94583
aérea 94582
mensual 94581
Mon@@ 94580
CEDEAO 94579
persistencia 94578
cru@@ 94577
Togo 94576
satélites 94575
suprimir 94574
convocar 94573
discrimin@@ 94572
africano 94571
anunció 94570
federales 94569
denominado 94568
cumbre 94567
Cuadro 94566
tom@@ 94565
COM@@ 94564
tradiciones 94563
procedente 94562
transnacionales 94561
refugiado 94560
prorrateo 94559
peces 94558
castigos 94557
aplic@@ 94556
didos 94555
negociar 94554
Subsecretario 94553
expuestos 94552
susci@@ 94551
enviado 94550
ubicación 94549
perjudiciales 94548
NLB 94547
od@@ 94546
abri@@ 94545
calcula 94544
118 94543
Pensiones 94542
archivos 94541
definitivo 94540
én@@ 94539
reclam@@ 94538
CEPA 94537
fil@@ 94536
33@@ 94535
examinarse 94534
menciona 94533
legítimos 94532
for@@ 94531
genital 94530
Bolivariana 94529
policías 94528
10.000 94527
implementación 94526
atentados 94525
científico 94524
colectivo 94523
neto 94522
Logística 94521
complejas 94520
garantizado 94519
109 94518
pan@@ 94517
consider@@ 94516
legitimidad 94515
sólida 94514
generalizada 94513
aplicadas 94512
apoyó 94511
finalizar 94510
et 94509
altas 94508
muertos 94507
coordinado 94506
dispositivos 94505
cumbres 94504
motiv@@ 94503
refirió 94502
122 94501
Djibouti 94500
demandas 94499
poseen 94498
ista 94497
presidente 94496
and@@ 94495
respondió 94494
bol@@ 94493
revoc@@ 94492
1970 94491
satisfactoria 94490
repercu@@ 94489
34@@ 94488
tomadas 94487
prevalencia 94486
Africano 94485
previamente 94484
invoc@@ 94483
CESPAP 94482
rige 94481
De 94480
musulmanes 94479
Biológica 94478
sinergias 94477
ío 94476
Verificación 94475
acompañ@@ 94474
sujetas 94473
deposi@@ 94472
lanzamiento 94471
Subdivisión 94470
117 94469
salas 94468
constituido 94467
próximas 94466
UE 94465
sobre@@ 94464
37@@ 94463
especializada 94462
prob@@ 94461
divi@@ 94460
entr@@ 94459
confía 94458
existir 94457
1981 94456
As@@ 94455
comunicar 94454
solicitan 94453
vieron 94452
reiterar 94451
secc 94450
aclaraciones 94449
1973 94448
elevados 94447
1373 94446
aborto 94445
Interinstitucional 94444
itos 94443
culpables 94442
70@@ 94441
ona 94440
funcionar 94439
presiones 94438
pág. 94437
recuper@@ 94436
panorama 94435
entrevistas 94434
Véase 94433
bajas 94432
oficiosa 94431
sometidas 94430
contratar 94429
recibidos 94428
religioso 94427
operan 94426
justificar 94425
titular 94424
ach@@ 94423
empresariales 94422
Ejecución 94421
fortaleciendo 94420
absoluta 94419
puestas 94418
gozan 94417
democráticas 94416
firmó 94415
credenciales 94414
38@@ 94413
objeción 94412
alianza 94411
conserv@@ 94410
comienzos 94409
tarse 94408
parcialmente 94407
yó 94406
comercialización 94405
cultivo 94404
Ni@@ 94403
CEPE 94402
ho@@ 94401
abstenciones 94400
oficioso 94399
vive 94398
facto 94397
suministrar 94396
informativa 94395
Descolonización 94394
atac@@ 94393
coinci@@ 94392
alternativa 94391
ME@@ 94390
convenidas 94389
poli@@ 94388
maestro 94387
Región 94386
prosperidad 94385
dedicada 94384
claras 94383
sufrimiento 94382
compatible 94381
lagunas 94380
aport@@ 94379
Reglamentación 94378
car 94377
rev@@ 94376
color 94375
Tribunales 94374
origin@@ 94373
Comisiones 94372
afectar 94371
hablar 94370
hab@@ 94369
asumido 94368
intimidación 94367
Segundo 94366
publicará 94365
mantenerse 94364
implica 94363
proteg@@ 94362
Ultraterrestre 94361
impiden 94360
obedece 94359
Pre@@ 94358
visi@@ 94357
maneras 94356
www.@@ 94355
demuestran 94354
diamantes 94353
dirigir 94352
CP@@ 94351
complementarios 94350
tim@@ 94349
lu@@ 94348
itas 94347
deberes 94346
oro 94345
desfavorecidos 94344
cónyuges 94343
1978 94342
nu@@ 94341
votantes 94340
diversificación 94339
36@@ 94338
Drogas 94337
otorgar 94336
complementar 94335
1984 94334
hipótesis 94333
ov 94332
organizaron 94331
herramientas 94330
cion@@ 94329
capaces 94328
ord@@ 94327
Socorro 94326
extr@@ 94325
incluirá 94324
MA@@ 94323
facilitando 94322
visitó 94321
utilizadas 94320
millón 94319
innovadores 94318
analiz@@ 94317
parto 94316
Barbados 94315
182 94314
injerencia 94313
imperio 94312
140 94311
aviación 94310
138 94309
Prohibición 94308
pertenecen 94307
prioritarios 94306
logr@@ 94305
Agencia 94304
enseñanzas 94303
productiva 94302
códigos 94301
prever 94300
cul@@ 94299
mir 94298
habrían 94297
acredit@@ 94296
excepto 94295
ONUCI 94294
Manual 94293
universales 94292
pedi@@ 94291
debatir 94290
Diálogo 94289
comentario 94288
lleve 94287
razonables 94286
RA@@ 94285
XI 94284
concertados 94283
modificado 94282
pon@@ 94281
certificados 94280
urbano 94279
administrar 94278
Voluntarios 94277
siva 94276
pasivo 94275
celebr@@ 94274
_ 94273
constituía 94272
firmar 94271
conversión 94270
1ª 94269
navegación 94268
puerto 94267
ascienden 94266
asigna 94265
én 94264
abandonar 94263
diendo 94262
nas 94261
mencionó 94260
atraer 94259
public@@ 94258
dadas 94257
UNMIL 94256
comparte 94255
innovadoras 94254
gobern@@ 94253
concertación 94252
retiro 94251
reanudación 94250
apéndice 94249
amenaz@@ 94248
hoja 94247
conec@@ 94246
circunstancia 94245
ne 94244
50.000 94243
FCCC 94242
suyas 94241
3.000 94240
exhortó 94239
permanecer 94238
urbanos 94237
aumentos 94236
contribuyó 94235
excepcionales 94234
territoriales 94233
africana 94232
votar 94231
transcurrido 94230
inst@@ 94229
invitados 94228
profundo 94227
153 94226
condenas 94225
institutos 94224
180 94223
manteniendo 94222
liquidación 94221
combin@@ 94220
1949 94219
distribuido 94218
oci@@ 94217
ON@@ 94216
dedicación 94215
vers@@ 94214
vincul@@ 94213
program@@ 94212
Industrial 94211
Transporte 94210
disminu@@ 94209
compr@@ 94208
125 94207
CO 94206
entrañ@@ 94205
119 94204
ODM 94203
inclusivo 94202
pondrá 94201
estimular 94200
preocupada 94199
globales 94198
ense 94197
juntas 94196
Guyana 94195
19.@@ 94194
ocupante 94193
uniforme 94192
AC.@@ 94191
completar 94190
anía 94189
ministerio 94188
energética 94187
acumul@@ 94186
actuando 94185
reto 94184
encuentren 94183
123 94182
aras 94181
comunitarias 94180
testigo 94179
disciplina 94178
reformar 94177
Minorías 94176
mercenarios 94175
matrimonios 94174
justificación 94173
disciplinarias 94172
brecha 94171
auditorías 94170
observaron 94169
fique 94168
apoyan 94167
informativas 94166
intensificación 94165
yendo 94164
apartados 94163
defensor 94162
asesor 94161
resid@@ 94160
casas 94159
25@@ 94158
2ª 94157
ganancias 94156
alej@@ 94155
copia 94154
muestras 94153
cionales 94152
altura 94151
invertir 94150
ecto 94149
subrayaron 94148
Vi@@ 94147
aprobaron 94146
inclu@@ 94145
nombr@@ 94144
vivos 94143
artefactos 94142
indicaron 94141
anunci@@ 94140
sucesión 94139
malnutrición 94138
conciliación 94137
do@@ 94136
emergencias 94135
conci@@ 94134
intercambi@@ 94133
protegidas 94132
Seguimiento 94131
mente 94130
administradores 94129
revel@@ 94128
tem@@ 94127
responde 94126
facilitada 94125
signific@@ 94124
pos@@ 94123
protegidos 94122
combustibles 94121
Su 94120
carreteras 94119
http 94118
excepcional 94117
tutela 94116
acompañado 94115
dictamen 94114
segura 94113
terrestre 94112
vele 94111
fiquen 94110
Productos 94109
actualiz@@ 94108
ficaciones 94107
tra@@ 94106
forzada 94105
iii 94104
renov@@ 94103
diario 94102
crea 94101
Cas@@ 94100
garanticen 94099
121 94098
publicidad 94097
computadoras 94096
decida 94095
llevadas 94094
grav@@ 94093
produce 94092
OM@@ 94091
registraron 94090
medición 94089
enormes 94088
ocasion@@ 94087
aplicará 94086
examinen 94085
apoyen 94084
marítimo 94083
promulgado 94082
Fortalecimiento 94081
aumente 94080
gri@@ 94079
resuel@@ 94078
facultad 94077
anc@@ 94076
dificultad 94075
orientado 94074
impide 94073
intent@@ 94072
gestion@@ 94071
nicos 94070
má@@ 94069
50@@ 94068
contribuyendo 94067
P.@@ 94066
aw@@ 94065
01 94064
insuficientes 94063
impresión 94062
perjuicios 94061
opina 94060
legalmente 94059
AM@@ 94058
novedades 94057
Gubernamentales 94056
destacado 94055
th@@ 94054
histórica 94053
críticas 94052
transform@@ 94051
24@@ 94050
huérfanos 94049
sustituir 94048
contra@@ 94047
modernización 94046
ego 94045
periódica 94044
comprendidas 94043
cos 94042
conscientes 94041
Monterrey 94040
explot@@ 94039
viene 94038
afecten 94037
ocurrido 94036
antiguo 94035
mis 94034
oblig@@ 94033
Estratégico 94032
antigua 94031
determin@@ 94030
dietas 94029
regula 94028
partidas 94027
encontraban 94026
pilares 94025
inquietudes 94024
comparti@@ 94023
Frente 94022
violentos 94021
negativamente 94020
endi@@ 94019
Tokelau 94018
establecerse 94017
creando 94016
enfrentar 94015
arización 94014
verdadera 94013
ong 94012
renovables 94011
arnos 94010
áticos 94009
deneg@@ 94008
revitalización 94007
Racismo 94006
iría 94005
resultaron 94004
dida 94003
p 94002
TD 94001
efectuado 94000
sustancial 93999
Z 93998
cap@@ 93997
eta 93996
TO 93995
Observador 93994
cumpliendo 93993
exhaustiva 93992
CC@@ 93991
mínimos 93990
propiedades 93989
hacer@@ 93988
ASEAN 93987
limpieza 93986
derog@@ 93985
habl@@ 93984
elev@@ 93983
respaldar 93982
ko 93981
preval@@ 93980
restos 93979
llegada 93978
notable 93977
seriamente 93976
ciencias 93975
fallos 93974
quedar 93973
prestada 93972
enjuiciar 93971
inventarios 93970
doy 93969
enfer@@ 93968
altamente 93967
DA@@ 93966
disparidades 93965
definido 93964
cr@@ 93963
moneda 93962
CESPAO 93961
mensajes 93960
arriba 93959
CN@@ 93958
decisiva 93957
rendir 93956
sancionar 93955
convencida 93954
entales 93953
nombrar 93952
alternativo 93951
Violencia 93950
informara 93949
cobrar 93948
foment@@ 93947
Monetario 93946
Malawi 93945
darse 93944
XV 93943
llamado 93942
afectada 93941
envejecimiento 93940
hidro@@ 93939
134 93938
emente 93937
Cor@@ 93936
temor 93935
intercambios 93934
vinculantes 93933
Alimentos 93932
UNITAR 93931
presentaciones 93930
quizás 93929
Trans@@ 93928
Man@@ 93927
docente 93926
reviste 93925
Níger 93924
quiere 93923
higiene 93922
moder@@ 93921
helicópteros 93920
adoptara 93919
160 93918
directivos 93917
Suprema 93916
aliviar 93915
desempeñando 93914
títulos 93913
claros 93912
1.0@@ 93911
tecnológicos 93910
facilitó 93909
solicite 93908
Proyectos 93907
acus@@ 93906
Franja 93905
169 93904
atr@@ 93903
favorablemente 93902
ético 93901
recíproca 93900
pens@@ 93899
ter 93898
IED 93897
aument@@ 93896
proporcionados 93895
establecieron 93894
autorizar 93893
cab@@ 93892
Si 93891
subrayar 93890
actualizar 93889
efectu@@ 93888
palestinas 93887
atmósfera 93886
Bar@@ 93885
gradualmente 93884
propici@@ 93883
ques 93882
trataba 93881
Capítulo 93880
corregir 93879
valiosa 93878
Instancia 93877
itario 93876
estaciones 93875
aprob@@ 93874
edi@@ 93873
móviles 93872
modalidad 93871
diplomáticos 93870
finalización 93869
señalan 93868
significativamente 93867
registr@@ 93866
he@@ 93865
ear 93864
Puerto 93863
redujo 93862
someter 93861
cónyuge 93860
ega 93859
restring@@ 93858
detalladas 93857
retir@@ 93856
CEPAL 93855
ológicos 93854
124 93853
Copenhague 93852
ens@@ 93851
Samoa 93850
preocupan 93849
citar 93848
constru@@ 93847
CAT 93846
Apelación 93845
one 93844
resultante 93843
recaudación 93842
creada 93841
fenómenos 93840
Biblioteca 93839
contrata 93838
tenencia 93837
Especiales 93836
testimonio 93835
magistrado 93834
accesibilidad 93833
popular 93832
Escuela 93831
secundarias 93830
conservar 93829
indicación 93828
excesiva 93827
ambi@@ 93826
UNPROFOR 93825
decisivo 93824
celebrados 93823
23@@ 93822
Ri@@ 93821
j 93820
aislamiento 93819
físicos 93818
legítimo 93817
exce@@ 93816
explícitamente 93815
incluyera 93814
procurar 93813
tenor 93812
Lagos 93811
Utilización 93810
pes@@ 93809
médicas 93808
debati@@ 93807
centró 93806
diplomáticas 93805
transfronterizos 93804
abarcar 93803
umbral 93802
soliciten 93801
atorias 93800
oportunamente 93799
cripción 93798
planificar 93797
estimó 93796
doc@@ 93795
155 93794
A.@@ 93793
Botswana 93792
juntos 93791
cooperen 93790
correspondencia 93789
manifestado 93788
fría 93787
constructiva 93786
cios 93785
romaní 93784
Per@@ 93783
Adquisiciones 93782
profundas 93781
dirigió 93780
luch@@ 93779
redactar 93778
incapacidad 93777
lucro 93776
refiriéndose 93775
Medi@@ 93774
IA 93773
inmediatas 93772
armonía 93771
atoria 93770
resultar 93769
imper@@ 93768
felici@@ 93767
nor@@ 93766
equilibrada 93765
adquirido 93764
utilizada 93763
asesinatos 93762
remisión 93761
traducido 93760
registró 93759
preguntó 93758
considerará 93757
compatibles 93756
cooperativas 93755
estación 93754
adherido 93753
definidos 93752
autom@@ 93751
sudoriental 93750
Lu@@ 93749
tramit@@ 93748
asentamiento 93747
20.000 93746
impugn@@ 93745
piratería 93744
complejos 93743
128 93742
ef@@ 93741
GENERAL 93740
Sector 93739
É@@ 93738
carretera 93737
parti@@ 93736
orientados 93735
noticias 93734
insolvencia 93733
imprevistos 93732
dirig@@ 93731
auxiliares 93730
espec@@ 93729
participando 93728
publicar 93727
fican 93726
presidenciales 93725
consagr@@ 93724
asumi@@ 93723
denegación 93722
export@@ 93721
deporte 93720
imagen 93719
invitar 93718
exclusiva 93717
Principales 93716
sanitarias 93715
pedía 93714
celebrando 93713
produjeron 93712
132 93711
Estudios 93710
duraderas 93709
sent@@ 93708
sometida 93707
devast@@ 93706
insuficiencia 93705
avanzada 93704
conven@@ 93703
minerales 93702
Estudio 93701
añadido 93700
afect@@ 93699
indicios 93698
viaj@@ 93697
neta 93696
precisión 93695
sistemático 93694
Partido 93693
aceptó 93692
discriminatorio 93691
Cairo 93690
muro 93689
transport@@ 93688
lecciones 93687
registradas 93686
jurisdicciones 93685
informáticos 93684
interactivo 93683
antiguos 93682
quizá 93681
preveía 93680
Públicas 93679
proporcionará 93678
curs@@ 93677
Adelanto 93676
queremos 93675
tendrían 93674
Madagascar 93673
marginados 93672
tic@@ 93671
aéreas 93670
Washington 93669
histórico 93668
contratista 93667
propagación 93666
Am@@ 93665
considerados 93664
formul@@ 93663
ito 93662
rechaz@@ 93661
Otras 93660
debió 93659
rotación 93658
estr@@ 93657
numer@@ 93656
bis 93655
juzgar 93654
difer@@ 93653
transparentes 93652
enfrentamientos 93651
Ronda 93650
Kar@@ 93649
frecuentes 93648
dedic@@ 93647
insisti@@ 93646
colaboradores 93645
domin@@ 93644
puertos 93643
plantear 93642
medianas 93641
UNIDAS 93640
inspectores 93639
procur@@ 93638
denomin@@ 93637
veri@@ 93636
Promover 93635
zo 93634
Puedo 93633
progenitores 93632
reacción 93631
restitución 93630
permítaseme 93629
Mi@@ 93628
planteado 93627
autoriza 93626
Si@@ 93625
UR@@ 93624
permiti@@ 93623
Discapacidad 93622
1,@@ 93621
redistribución 93620
Me@@ 93619
manuales 93618
prepar@@ 93617
destru@@ 93616
Sub.2 93615
recibi@@ 93614
sexta 93613
preservación 93612
tal@@ 93611
confidencial 93610
audiencias 93609
variaciones 93608
accesibles 93607
AOD 93606
tempor@@ 93605
compuesto 93604
íamos 93603
men@@ 93602
unilateral 93601
seguras 93600
Verde 93599
académicas 93598
x@@ 93597
íntegramente 93596
promueven 93595
ajes 93594
Resolución 93593
contraídas 93592
anim@@ 93591
círculos 93590
preten@@ 93589
amentos 93588
colonos 93587
sion@@ 93586
argumentos 93585
Woods 93584
ang 93583
Im@@ 93582
EM@@ 93581
socioeconómica 93580
aprobara 93579
cent@@ 93578
despleg@@ 93577
Qaida 93576
potenciar 93575
carece 93574
actualizado 93573
apenas 93572
resistencia 93571
colocación 93570
preescolar 93569
llevará 93568
CICR 93567
conseguido 93566
ancianos 93565
fundament@@ 93564
conocido 93563
examinadas 93562
geo@@ 93561
126 93560
prohibido 93559
existan 93558
socioeconómicos 93557
universalidad 93556
alizada 93555
privatización 93554
transacción 93553
199@@ 93552
acu@@ 93551
Maldivas 93550
Nota 93549
culpable 93548
Bretton 93547
extra@@ 93546
retención 93545
primarias 93544
capaci@@ 93543
lleven 93542
metros 93541
simple 93540
cápita 93539
vigencia 93538
resumidas 93537
actúan 93536
bur@@ 93535
are 93534
Londres 93533
mal 93532
CH@@ 93531
1979 93530
reúne 93529
continuado 93528
excelente 93527
bio@@ 93526
cuartel 93525
oeste 93524
matrícula 93523
extracción 93522
Academia 93521
plantas 93520
debilit@@ 93519
20.@@ 93518
Í@@ 93517
seguida 93516
Consenso 93515
referéndum 93514
Acuerdos 93513
esbo@@ 93512
dólar 93511
Todos 93510
teléfono 93509
red@@ 93508
efectuados 93507
milicias 93506
gast@@ 93505
celebrarse 93504
acreedores 93503
resumida 93502
2020 93501
causar 93500
estricto 93499
Estatal 93498
espacios 93497
den@@ 93496
escasos 93495
precedente 93494
Grandes 93493
Excelencia 93492
162 93491
mentales 93490
procura 93489
zado 93488
acepta 93487
fijar 93486
RP 93485
valoración 93484
celebre 93483
transmitió 93482
sirve 93481
hubiese 93480
convicción 93479
corte 93478
salv@@ 93477
orientada 93476
dedicadas 93475
instamos 93474
1983 93473
prejuicios 93472
Mauritania 93471
Gar@@ 93470
descri@@ 93469
imp@@ 93468
fácilmente 93467
emplear 93466
141 93465
acia 93464
interrog@@ 93463
analfabetismo 93462
ón@@ 93461
ejecutado 93460
contenía 93459
subprogramas 93458
redondas 93457
favorecer 93456
turas 93455
disponía 93454
retirar 93453
costumbres 93452
bombas 93451
Nucleares 93450
rea 93449
tiempos 93448
aqu@@ 93447
significativos 93446
interlocutores 93445
tido 93444
udi@@ 93443
aeropuerto 93442
abrir 93441
Atlántico 93440
iendo 93439
convoc@@ 93438
identific@@ 93437
conexión 93436
ine 93435
tensión 93434
mas 93433
administradora 93432
completamente 93431
revisiones 93430
Detallada 93429
nicas 93428
bro@@ 93427
SE@@ 93426
provocado 93425
Lao 93424
académicos 93423
dedicados 93422
Addis 93421
joven 93420
interdependencia 93419
agrup@@ 93418
respetando 93417
acaba 93416
agotan 93415
compleja 93414
conveniencia 93413
expedientes 93412
imágenes 93411
reprimir 93410
ban 93409
interinstitucionales 93408
minoritarios 93407
educativa 93406
Trinidad 93405
ACION 93404
continúen 93403
Abeba 93402
índices 93401
pareci@@ 93400
ema 93399
estuvieran 93398
Johannesburgo 93397
ficó 93396
Po@@ 93395
Papua 93394
autorizadas 93393
endas 93392
salvaguardar 93391
duplic@@ 93390
.org 93389
fuese 93388
reconocemos 93387
129 93386
reparaciones 93385
adoptan 93384
donaciones 93383
efectividad 93382
ani 93381
designar 93380
MANUD 93379
expresada 93378
diagnóstico 93377
tocante 93376
busca 93375
Zona 93374
cio 93373
tecnológico 93372
Menos 93371
Inmigración 93370
ejecutiva 93369
complet@@ 93368
aumentaron 93367
temporales 93366
PNUFID 93365
tradición 93364
encarcelamiento 93363
persistente 93362
simpli@@ 93361
heridas 93360
ingres@@ 93359
productivo 93358
convencido 93357
reduci@@ 93356
época 93355
133 93354
ú 93353
135 93352
importe 93351
módulos 93350
incluirse 93349
orgánica 93348
127 93347
empleadas 93346
reconocieron 93345
reciba 93344
incumben 93343
aloj@@ 93342
pudieron 93341
significado 93340
C.4 93339
éticas 93338
alizadas 93337
disminuyó 93336
cabal 93335
acumulación 93334
destac@@ 93333
perdido 93332
fórmula 93331
Mediterráneo 93330
clor@@ 93329
oy@@ 93328
Distrito 93327
esp@@ 93326
estableciera 93325
divorcio 93324
consultarse 93323
antelación 93322
vigil@@ 93321
fax 93320
ambientalmente 93319
ejerce 93318
trabajador 93317
aborda 93316
anticonceptivos 93315
regi@@ 93314
socioeconómicas 93313
consideraron 93312
utilice 93311
transferir 93310
icamente 93309
mala 93308
Adelantados 93307
llenar 93306
cooperando 93305
manten@@ 93304
conform@@ 93303
sujeta 93302
presidido 93301
bienvenida 93300
stos 93299
epidemia 93298
estructur@@ 93297
previsible 93296
económicamente 93295
establecerá 93294
representado 93293
publicados 93292
adiestramiento 93291
apart@@ 93290
sancion@@ 93289
desp@@ 93288
combinados 93287
argumento 93286
const@@ 93285
235 93284
levant@@ 93283
americana 93282
145 93281
Mónaco 93280
incertidumbre 93279
desplaz@@ 93278
pagado 93277
Reforma 93276
Bu@@ 93275
recabar 93274
abolición 93273
moviliz@@ 93272
obliga 93271
Madrid 93270
No@@ 93269
yo 93268
añadir 93267
ago 93266
expuestas 93265
deliber@@ 93264
patrocinado 93263
persecución 93262
Bangkok 93261
ejercicios 93260
go@@ 93259
entornos 93258
separ@@ 93257
óptimas 93256
exhaustivo 93255
ejecutando 93254
obje@@ 93253
ilustr@@ 93252
peri@@ 93251
NACIONES 93250
existían 93249
interes@@ 93248
acreditación 93247
ads@@ 93246
áfica 93245
edición 93244
ratificó 93243
adoptará 93242
SI@@ 93241
Palacio 93240
autoriz@@ 93239
1974 93238
aduanas 93237
Ay@@ 93236
etc 93235
anticip@@ 93234
marina 93233
particip@@ 93232
entrevist@@ 93231
regularmente 93230
Comandante 93229
detenida 93228
prima 93227
acionales 93226
deja 93225
Bruselas 93224
aborígenes 93223
CR@@ 93222
pat@@ 93221
adopta 93220
Contribuciones 93219
fundadas 93218
geográficas 93217
planeta 93216
pautas 93215
agresiones 93214
intern@@ 93213
desprende 93212
patrullas 93211
interpre@@ 93210
compensación 93209
incompatible 93208
propietarios 93207
séptima 93206
conoce 93205
acog@@ 93204
Par@@ 93203
secu@@ 93202
vinculación 93201
tro@@ 93200
contempla 93199
provisión 93198
alistas 93197
13.15 93196
fuertes 93195
1960 93194
ingeniería 93193
homenaje 93192
buque 93191
nocivas 93190
logró 93189
elevadas 93188
lin@@ 93187
prisioneros 93186
intersectoriales 93185
hom@@ 93184
reafirmar 93183
Estambul 93182
funciona 93181
elevar 93180
recuperar 93179
poner@@ 93178
garantizan 93177
ces 93176
instal@@ 93175
tradicionalmente 93174
leg@@ 93173
habilit@@ 93172
proponen 93171
abog@@ 93170
asisten 93169
IDB.@@ 93168
modos 93167
escol@@ 93166
abon@@ 93165
disminuir 93164
Tabago 93163
vacaciones 93162
suscri@@ 93161
Ro@@ 93160
negativo 93159
rebeldes 93158
je@@ 93157
respete 93156
ecológicamente 93155
Jurídico 93154
adjunta 93153
finaliz@@ 93152
gratuitamente 93151
131 93150
dispens@@ 93149
tivamente 93148
uro 93147
barrios 93146
auxiliar 93145
uniformes 93144
aga 93143
reform@@ 93142
muerto 93141
marc@@ 93140
llev@@ 93139
exponen 93138
esperaba 93137
St@@ 93136
Desastres 93135
elaborados 93134
dañ@@ 93133
consta 93132
ocurre 93131
practic@@ 93130
ín 93129
recogida 93128
abarc@@ 93127
pasando 93126
Órgano 93125
escrita 93124
ces@@ 93123
Diario 93122
Orden 93121
encarar 93120
Pri@@ 93119
solicitada 93118
tamente 93117
San@@ 93116
pobl@@ 93115
opon@@ 93114
ventaja 93113
sus@@ 93112
143 93111
interrogatorio 93110
anterioridad 93109
adaptar 93108
Estadísticas 93107
Contratantes 93106
delictivas 93105
hallar 93104
PRO@@ 93103
localidades 93102
siquiera 93101
Qu@@ 93100
semestre 93099
marítima 93098
taciones 93097
cob@@ 93096
marido 93095
aplazar 93094
explicaciones 93093
aus@@ 93092
formulario 93091
TI@@ 93090
incluían 93089
guen 93088
manifestación 93087
ron@@ 93086
Golfo 93085
MINUSTAH 93084
equilibrado 93083
ONUSIDA 93082
actúa 93081
Científico 93080
capítulos 93079
caus@@ 93078
manejo 93077
2016 93076
adoptaron 93075
Instituciones 93074
riqueza 93073
comprendidos 93072
contractuales 93071
norm@@ 93070
memoria 93069
adquiri@@ 93068
almacen@@ 93067
itaria 93066
junta 93065
Li@@ 93064
huelga 93063
comunicados 93062
merece 93061
Cuenta 93060
infantiles 93059
disfrutar 93058
intermedio 93057
escolarización 93056
Nuevo 93055
142 93054
subrayando 93053
retras@@ 93052
racionales 93051
robo 93050
torio 93049
académico 93048
voluntariamente 93047
137 93046
añad@@ 93045
Real 93044
sim@@ 93043
1975 93042
136 93041
Ordenanza 93040
agr@@ 93039
proclam@@ 93038
Aumento 93037
OTAN 93036
Vivienda 93035
consultivas 93034
proveedor 93033
4.000 93032
Obras 93031
ocul@@ 93030
UNMIS 93029
estimadas 93028
ulteriores 93027
contraído 93026
migratorias 93025
sto 93024
peores 93023
democratización 93022
ios 93021
armoniz@@ 93020
Vicepresidentes 93019
cabalmente 93018
sumado 93017
PROGRAMA 93016
asisti@@ 93015
Príncipe 93014
complementa 93013
situadas 93012
democráticos 93011
aprecio 93010
166 93009
adopt@@ 93008
reunido 93007
municipal 93006
asoci@@ 93005
sufrimientos 93004
eles 93003
imponen 93002
europeos 93001
transfer@@ 93000
chino 92999
presentaran 92998
ech@@ 92997
ras 92996
Mundo 92995
proyecciones 92994
adoptados 92993
Profesional 92992
ONU@@ 92991
escritas 92990
estuviera 92989
lec@@ 92988
realidades 92987
21.@@ 92986
2017 92985
verdaderamente 92984
anuncios 92983
racistas 92982
colabora 92981
habrán 92980
depósitos 92979
arresto 92978
agrupaciones 92977
Seminario 92976
cerr@@ 92975
SOBRE 92974
compañías 92973
orgánicas 92972
Commonwealth 92971
nombrados 92970
guardan 92969
confirma 92968
empr@@ 92967
11@@ 92966
retrasos 92965
GE@@ 92964
candidato 92963
Ru@@ 92962
juveniles 92961
Directivo 92960
fe@@ 92959
extremadamente 92958
caracteriz@@ 92957
tan@@ 92956
denominada 92955
aportado 92954
indicaba 92953
toman 92952
controlada 92951
resultas 92950
rob@@ 92949
ruega 92948
consejo 92947
icen 92946
amnistía 92945
torias 92944
convendría 92943
151 92942
aporte 92941
inadmisible 92940
acogemos 92939
Preparatoria 92938
llevarse 92937
definen 92936
flu@@ 92935
rar 92934
Pl@@ 92933
emple@@ 92932
abordarse 92931
Cabo 92930
concertar 92929
pabellón 92928
Permanentes 92927
paludismo 92926
gió 92925
rió 92924
llega 92923
exención 92922
contener 92921
rango 92920
35@@ 92919
139 92918
ini@@ 92917
Experto 92916
dominio 92915
Centros 92914
diman@@ 92913
aparición 92912
entabl@@ 92911
pró@@ 92910
arma 92909
encaminado 92908
obtenida 92907
nacido 92906
voz 92905
prestarse 92904
obtenidas 92903
ayudará 92902
confidencialidad 92901
completos 92900
representadas 92899
perfeccion@@ 92898
tribu@@ 92897
poca 92896
int@@ 92895
eligió 92894
Gabón 92893
atiz@@ 92892
nico 92891
40@@ 92890
talibanes 92889
cuestion@@ 92888
Independientes 92887
excesivo 92886
coercitivas 92885
manifest@@ 92884
autorizó 92883
influir 92882
expedición 92881
presentando 92880
constituían 92879
sores 92878
LA@@ 92877
calificación 92876
juego 92875
mucha 92874
ao 92873
OMI 92872
encontraba 92871
sas 92870
fija 92869
determine 92868
módulo 92867
mantengan 92866
her@@ 92865
emplazamientos 92864
IA@@ 92863
retro@@ 92862
continental 92861
predomin@@ 92860
indirectamente 92859
cientos 92858
domésticos 92857
sectorial 92856
segu@@ 92855
Palestino 92854
Bosques 92853
rechazo 92852
frecuente 92851
deseamos 92850
someterlo 92849
cobr@@ 92848
suerte 92847
correcta 92846
acoger 92845
decente 92844
trabajado 92843
sugerencia 92842
CARICOM 92841
G. 92840
vídeo 92839
are@@ 92838
LES 92837
Asesoramiento 92836
ándoles 92835
sustancia 92834
transfi@@ 92833
prohibi@@ 92832
preferencia 92831
coherentes 92830
comprobar 92829
Emergencia 92828
indicadas 92827
144 92826
mostr@@ 92825
pregun@@ 92824
tipi@@ 92823
has 92822
estadounidenses 92821
signatarios 92820
reglamentaciones 92819
pasos 92818
Integrado 92817
orgánicos 92816
señaladas 92815
apoyamos 92814
aproxim@@ 92813
realizará 92812
promueva 92811
apelaciones 92810
000 92809
diplomacia 92808
produzcan 92807
Gabinete 92806
atribuye 92805
brevedad 92804
provenientes 92803
Informes 92802
redund@@ 92801
reafirm@@ 92800
profesión 92799
acordados 92798
usar 92797
C.6 92796
ronda 92795
organiza 92794
contraria 92793
error 92792
consolid@@ 92791
confer@@ 92790
ult@@ 92789
ejecutivas 92788
inf@@ 92787
estricta 92786
preocupante 92785
suspendi@@ 92784
compatibilidad 92783
devuel@@ 92782
fuer@@ 92781
conf@@ 92780
sólido 92779
acogieron 92778
viajar 92777
cripciones 92776
demandante 92775
imprescindible 92774
enumerados 92773
ACIONES 92772
59@@ 92771
reemplaz@@ 92770
adaptarse 92769
personalidad 92768
remesas 92767
reanudar 92766
seleccionados 92765
áficos 92764
añadió 92763
descenso 92762
INF 92761
pedidos 92760
preparatoria 92759
ahorro 92758
encarg@@ 92757
bibliotecas 92756
ablemente 92755
realiz@@ 92754
contables 92753
abiertas 92752
introdujo 92751
resuelto 92750
Ham@@ 92749
objetiva 92748
Para 92747
ánica 92746
sabe 92745
plenario 92744
simultáneamente 92743
rector 92742
Fomento 92741
facilitará 92740
emergentes 92739
6.000 92738
solicitados 92737
edor 92736
transi@@ 92735
extraordinarias 92734
reseña 92733
racionalizar 92732
aprovechando 92731
ev 92730
147 92729
referirse 92728
Tratados 92727
lan@@ 92726
vulnerable 92725
1977 92724
Integración 92723
reclamantes 92722
acab@@ 92721
146 92720
IONES 92719
convencidos 92718
MDL 92717
Encargado 92716
23.@@ 92715
manifestaron 92714
arsenales 92713
ran 92712
concedido 92711
tendientes 92710
sab@@ 92709
reci@@ 92708
ilegalmente 92707
san@@ 92706
tuberculosis 92705
golpe@@ 92704
promulgó 92703
242 92702
instructores 92701
stat@@ 92700
inocentes 92699
ren@@ 92698
tel@@ 92697
tend@@ 92696
refugio 92695
consecu@@ 92694
art@@ 92693
esc@@ 92692
castigar 92691
elec@@ 92690
jornada 92689
externo 92688
limitadas 92687
ment@@ 92686
electrónicas 92685
AC.109 92684
fronterizos 92683
AMISOM 92682
auditores 92681
abordan 92680
franc@@ 92679
provincial 92678
CCPR 92677
equival@@ 92676
aturas 92675
funcional 92674
protege 92673
Sudoriental 92672
alternativos 92671
ibíd 92670
oficio 92669
mención 92668
it 92667
mara 92666
Tráfico 92665
verdadero 92664
implic@@ 92663
progresiva 92662
desarrolladas 92661
CAC 92660
156 92659
refería 92658
encima 92657
aparatos 92656
suyo 92655
tora 92654
unificado 92653
aspir@@ 92652
MM 92651
integran 92650
libro 92649
radic@@ 92648
Mal@@ 92647
COMISIÓN 92646
bir 92645
suspender 92644
diligencia 92643
Inversiones 92642
directriz 92641
UNFICYP 92640
autónomo 92639
ascendía 92638
fec@@ 92637
dijeron 92636
152 92635
tir 92634
soport@@ 92633
vel@@ 92632
vulner@@ 92631
violado 92630
enmendado 92629
22.@@ 92628
ejercen 92627
Ambiental 92626
ate 92625
Situación 92624
Cuarto 92623
Gobernador 92622
WP.@@ 92621
1540 92620
intensific@@ 92619
dict@@ 92618
alber@@ 92617
154 92616
socav@@ 92615
expuesto 92614
indispensables 92613
racionalización 92612
potenci@@ 92611
definidas 92610
individuo 92609
ejecutan 92608
marginación 92607
absoluto 92606
comprador 92605
lament@@ 92604
americanos 92603
institu@@ 92602
remitir 92601
apátridas 92600
ensayo 92599
respondieron 92598
formado 92597
contemporáneas 92596
pa 92595
11º 92594
reforzado 92593
CCI 92592
tomaron 92591
emitió 92590
Análisis 92589
MINURSO 92588
str@@ 92587
frecuentemente 92586
cen@@ 92585
lanz@@ 92584
comprob@@ 92583
ór@@ 92582
Bel@@ 92581
ubic@@ 92580
emb@@ 92579
ampliando 92578
Interamericana 92577
perpetr@@ 92576
dimanantes 92575
medicina 92574
sólidos 92573
ster@@ 92572
discriminatoria 92571
subordin@@ 92570
Bo@@ 92569
informática 92568
afirmar 92567
inundaciones 92566
encial 92565
excesivamente 92564
comerci@@ 92563
compartida 92562
produc@@ 92561
potenciales 92560
consistente 92559
afiliados 92558
irregular 92557
gente 92556
indicados 92555
primas 92554
obe@@ 92553
arbitral 92552
toria 92551
resultó 92550
fl@@ 92549
lograrse 92548
document@@ 92547
precursores 92546
www.un.org 92545
bancarias 92544
plas@@ 92543
notar 92542
Estabilización 92541
Guam 92540
agu@@ 92539
aplicarán 92538
emas 92537
Nu@@ 92536
viables 92535
Libertad 92534
desaparecidas 92533
enden 92532
presidencial 92531
cláusulas 92530
accesible 92529
inmunidades 92528
158 92527
situado 92526
00 92525
inco@@ 92524
corren 92523
incorporarse 92522
Plenario 92521
apo@@ 92520
deleg@@ 92519
candidaturas 92518
dispon@@ 92517
expedi@@ 92516
institucion@@ 92515
promulgar 92514
esencialmente 92513
CLD 92512
precisamente 92511
notables 92510
describir 92509
soci@@ 92508
adquiridos 92507
TE@@ 92506
limitarse 92505
informará 92504
prohibidos 92503
Gibraltar 92502
remite 92501
cambiado 92500
suprimi@@ 92499
números 92498
controladas 92497
251 92496
ofrecido 92495
usa 92494
daba 92493
depósito 92492
fide@@ 92491
representar 92490
toras 92489
empezado 92488
madera 92487
urbanización 92486
repeti@@ 92485
02 92484
ak 92483
impres@@ 92482
pacíficas 92481
íes 92480
otorgamiento 92479
infecciones 92478
corporal 92477
bast@@ 92476
conocidos 92475
ez 92474
dispar@@ 92473
alista 92472
marinas 92471
confirmar 92470
respondido 92469
francos 92468
data 92467
vinculado 92466
celebran 92465
Migración 92464
complic@@ 92463
fran@@ 92462
abstenerse 92461
confirmado 92460
presuntas 92459
negocios 92458
imparte 92457
digital 92456
ocupándose 92455
asist@@ 92454
presunta 92453
1961 92452
vuelto 92451
fecundidad 92450
inaceptable 92449
48@@ 92448
llam@@ 92447
notificaciones 92446
Rotterdam 92445
costas 92444
insumos 92443
CP.@@ 92442
bilidad 92441
inalienables 92440
quién 92439
cancel@@ 92438
Legislativa 92437
banco 92436
gh@@ 92435
sumarias 92434
infección 92433
honorarios 92432
sanitario 92431
desplegar 92430
recibiendo 92429
denunciar 92428
enciales 92427
157 92426
Rights 92425
prepare 92424
ajusta 92423
grados 92422
abi@@ 92421
estipul@@ 92420
posiblemente 92419
conocida 92418
licitación 92417
EL@@ 92416
ani@@ 92415
represalias 92414
Aprobación 92413
traduc@@ 92412
históricos 92411
Con 92410
encarcel@@ 92409
Ser@@ 92408
ser@@ 92407
reflexión 92406
calcular 92405
condicion@@ 92404
psicológico 92403
ayudado 92402
diseñ@@ 92401
148 92400
mono@@ 92399
surgido 92398
03 92397
felicita 92396
capacitar 92395
yera 92394
exenciones 92393
transmisibles 92392
constituidas 92391
complemento 92390
complementario 92389
ofrec@@ 92388
Ko@@ 92387
cau@@ 92386
señalando 92385
Dis@@ 92384
reduciendo 92383
detallados 92382
experimentado 92381
arrest@@ 92380
Lesotho 92379
control@@ 92378
1,5 92377
ece 92376
elabor@@ 92375
públicamente 92374
ST 92373
racimo 92372
ICA 92371
cero 92370
57@@ 92369
mobiliario 92368
adoptaran 92367
aseguren 92366
Ciudad 92365
sostuvo 92364
Cercano 92363
vic@@ 92362
citado 92361
recomend@@ 92360
costa 92359
preparada 92358
delictivos 92357
fiables 92356
celebraría 92355
proced@@ 92354
Reconciliación 92353
alter@@ 92352
Organismos 92351
distinto 92350
multiplic@@ 92349
situada 92348
situ@@ 92347
pul@@ 92346
Número 92345
estancamiento 92344
pensamiento 92343
So@@ 92342
FA@@ 92341
ocupar@@ 92340
bordo 92339
harán 92338
rup@@ 92337
12º 92336
orios 92335
innovaciones 92334
I.@@ 92333
39@@ 92332
egos 92331
apartheid 92330
repuesto 92329
volvió 92328
presentarán 92327
garantizados 92326
desglos@@ 92325
profundidad 92324
resulte 92323
preparatorias 92322
Tom@@ 92321
Migraciones 92320
ofreció 92319
Océano 92318
fortaleci@@ 92317
enjuici@@ 92316
Minas 92315
netos 92314
alentando 92313
ota 92312
canales 92311
unanimidad 92310
énfasis 92309
bus@@ 92308
emplazamiento 92307
contamin@@ 92306
Decisión 92305
trág@@ 92304
encomend@@ 92303
mencion@@ 92302
limitan 92301
éticos 92300
reiter@@ 92299
urgentemente 92298
cional 92297
entrado 92296
dedican 92295
Or@@ 92294
sis 92293
1971 92292
ín@@ 92291
centrar 92290
reforzando 92289
har@@ 92288
vivían 92287
149 92286
ater@@ 92285
Pobreza 92284
dol@@ 92283
ger@@ 92282
integrarse 92281
avanzando 92280
hicieran 92279
vectores 92278
aumenten 92277
208 92276
representaban 92275
empresarios 92274
Marino 92273
recopil@@ 92272
promesa 92271
emitido 92270
creo 92269
convertir 92268
matriculación 92267
TA 92266
edit@@ 92265
requer@@ 92264
fa 92263
ONUDD 92262
indirecta 92261
normalización 92260
declarada 92259
converti@@ 92258
Global 92257
165 92256
.00 92255
dependerá 92254
result@@ 92253
Dr. 92252
ordinaria 92251
perpetrados 92250
sign@@ 92249
postura 92248
expone 92247
renovable 92246
distinta 92245
arraig@@ 92244
ocur@@ 92243
supuestamente 92242
fungibles 92241
encabez@@ 92240
dirigirse 92239
situados 92238
bal@@ 92237
entas 92236
taba 92235
sistemáticas 92234
ascendieron 92233
temática 92232
bos@@ 92231
residen 92230
obtuvo 92229
estoy 92228
mencionan 92227
senci@@ 92226
planta 92225
concepción 92224
adversos 92223
asumidos 92222
provi@@ 92221
judicatura 92220
enunci@@ 92219
hostigamiento 92218
participante 92217
ace 92216
excombatientes 92215
parlamentarias 92214
trastornos 92213
anal@@ 92212
vac@@ 92211
GU@@ 92210
promulg@@ 92209
encuentre 92208
cohesión 92207
atentamente 92206
J. 92205
resultan 92204
contextos 92203
eléctrica 92202
lejos 92201
sistém@@ 92200
funcionan 92199
192 92198
1976 92197
zación 92196
ciclos 92195
doctrina 92194
firmes 92193
ejerci@@ 92192
prosiga 92191
raciones 92190
pusiera 92189
crecientes 92188
demográfica 92187
descentr@@ 92186
inscritos 92185
boletín 92184
aré 92183
Fondos 92182
IT@@ 92181
posterioridad 92180
críticos 92179
informada 92178
préstamo 92177
colombi@@ 92176
Br@@ 92175
centrará 92174
omiso 92173
forzado 92172
respe@@ 92171
170 92170
tienden 92169
transcurso 92168
aceptables 92167
din@@ 92166
AP@@ 92165
prolongada 92164
161 92163
penetr@@ 92162
Arbitraje 92161
ciento 92160
implantación 92159
anuncio 92158
trienal 92157
ordenar 92156
dificult@@ 92155
octava 92154
senti@@ 92153
parlamentos 92152
nutri@@ 92151
ricos 92150
niñez 92149
XII 92148
garantizando 92147
examinada 92146
constancia 92145
biodiversidad 92144
accidente 92143
moratoria 92142
ard 92141
contrarrestar 92140
cuidadosamente 92139
Cuando 92138
industrializados 92137
trámites 92136
esposa 92135
prohibiciones 92134
goz@@ 92133
sufrir 92132
contradic@@ 92131
Cuotas 92130
perjudic@@ 92129
europeo 92128
colegas 92127
acorde 92126
consagrado 92125
expediente 92124
entrañan 92123
06 92122
droga 92121
correc@@ 92120
pose@@ 92119
1951 92118
localidad 92117
acordaron 92116
ocupada 92115
Centroamérica 92114
SC 92113
inten@@ 92112
oria 92111
159 92110
critos 92109
prometi@@ 92108
generado 92107
reiv@@ 92106
ade@@ 92105
apl@@ 92104
kg 92103
puerta 92102
celebren 92101
macroeconómicas 92100
excluidos 92099
guerras 92098
expresiones 92097
ei@@ 92096
estables 92095
Mor@@ 92094
Economía 92093
registrar 92092
presunto 92091
adu@@ 92090
asistentes 92089
extraordinarios 92088
escuch@@ 92087
firm@@ 92086
deudas 92085
acontecimiento 92084
Bagdad 92083
condu@@ 92082
concierne 92081
Coalición 92080
atentado 92079
amigos 92078
aya 92077
obtenerse 92076
contribuiría 92075
ístico 92074
cionar 92073
incluyeron 92072
jur@@ 92071
compañía 92070
46@@ 92069
multianual 92068
sospechoso 92067
contribu@@ 92066
condenadas 92065
normales 92064
desempleados 92063
RI@@ 92062
medianos 92061
lenguas 92060
ventas 92059
fundamentos 92058
deseos 92057
aparecen 92056
fiable 92055
traz@@ 92054
libr@@ 92053
H. 92052
dan@@ 92051
227 92050
1.1 92049
destacan 92048
prohíben 92047
colectivas 92046
exceso 92045
47@@ 92044
estimada 92043
impedi@@ 92042
ogr@@ 92041
subvención 92040
utilizó 92039
213 92038
Fines 92037
equip@@ 92036
Moscú 92035
impuesta 92034
creen 92033
ed 92032
remuner@@ 92031
plataformas 92030
ascendió 92029
pedagóg@@ 92028
somos 92027
legítimas 92026
oportunas 92025
Recomendación 92024
actualizados 92023
COP 92022
ric@@ 92021
contribuya 92020
órbita 92019
Poblaciones 92018
verá 92017
folletos 92016
éxitos 92015
ariamente 92014
culos 92013
LE@@ 92012
incurri@@ 92011
tabaco 92010
enmendar 92009
conoc@@ 92008
secreto 92007
enumeran 92006
llegaron 92005
Ti@@ 92004
iza 92003
agencias 92002
mand@@ 92001
exhaus@@ 92000
enmend@@ 91999
haci@@ 91998
renunci@@ 91997
eti@@ 91996
Conjunta 91995
finalizado 91994
plur@@ 91993
mil 91992
esperanzas 91991
ill@@ 91990
autócton@@ 91989
ayudando 91988
abar@@ 91987
aviso 91986
fomentando 91985
Por@@ 91984
francesa 91983
eco 91982
ene 91981
restric@@ 91980
Ciencias 91979
OCI 91978
positivamente 91977
pertenencia 91976
Bahamas 91975
PC 91974
ite 91973
formulen 91972
morales 91971
costeras 91970
cáncer 91969
creer 91968
tercios 91967
ajustarse 91966
lingüísticas 91965
publica 91964
académica 91963
detenidamente 91962
Pequeños 91961
elabore 91960
estimul@@ 91959
sen@@ 91958
preparara 91957
lici@@ 91956
blanco 91955
dirige 91954
Mer@@ 91953
sirven 91952
fronteriza 91951
enter@@ 91950
dictado 91949
UNU 91948
211 91947
mentos 91946
constituyó 91945
culmin@@ 91944
cargas 91943
FR@@ 91942
afec@@ 91941
minería 91940
UNITA 91939
tividad 91938
financiadas 91937
abarcar@@ 91936
novena 91935
falleci@@ 91934
PA 91933
nica 91932
dedicar 91931
congel@@ 91930
mac@@ 91929
167 91928
informal 91927
llevada 91926
pasajeros 91925
Res@@ 91924
década 91923
padecen 91922
forzados 91921
metro 91920
estim@@ 91919
ratific@@ 91918
Har@@ 91917
distribuye 91916
eda 91915
arte 91914
macroeconómica 91913
IM@@ 91912
iales 91911
tercio 91910
soberano 91909
cuota 91908
desplegado 91907
dependiente 91906
Sam@@ 91905
Add.3 91904
criminales 91903
recomendadas 91902
conducir 91901
recor@@ 91900
planteó 91899
Andorra 91898
gir@@ 91897
agotado 91896
IP@@ 91895
tratarse 91894
insiste 91893
ecológica 91892
compromete 91891
productivos 91890
Omán 91889
autor@@ 91888
moción 91887
coordinadas 91886
ENT@@ 91885
financiamiento 91884
reunificación 91883
sorpr@@ 91882
PRST 91881
eli@@ 91880
australi@@ 91879
cotidiana 91878
obstaculiz@@ 91877
civilizaciones 91876
biológicos 91875
convinieron 91874
mantendrá 91873
atri@@ 91872
alcanzó 91871
escaso 91870
materi@@ 91869
cartera 91868
reembols@@ 91867
correctamente 91866
aco@@ 91865
aco 91864
Gambia 91863
218 91862
acabar 91861
milenio 91860
contrabando 91859
distribuyó 91858
Cómo 91857
concerniente 91856
encontrado 91855
acreedor 91854
remotas 91853
internamiento 91852
ki 91851
lamentable 91850
ólica 91849
Multilateral 91848
errores 91847
utilizaron 91846
calificados 91845
nea 91844
obligadas 91843
previ@@ 91842
Bonn 91841
abund@@ 91840
atañe 91839
Directiva 91838
metilbromuro 91837
dieran 91836
pareja 91835
hal@@ 91834
contravención 91833
constituida 91832
coordinados 91831
ejecutados 91830
emitir 91829
cabeza 91828
direcciones 91827
haría 91826
Belice 91825
fon@@ 91824
representaba 91823
bo 91822
aporta 91821
embarazos 91820
estudie 91819
S.@@ 91818
Sha@@ 91817
24.@@ 91816
hí@@ 91815
Oportunidades 91814
distin@@ 91813
extremistas 91812
ajustar 91811
africanas 91810
redoblar 91809
Suriname 91808
1.500 91807
248 91806
helicóptero 91805
ativamente 91804
pensar 91803
visit@@ 91802
terrenos 91801
rwandeses 91800
oma 91799
noche 91798
zan 91797
escri@@ 91796
completado 91795
220 91794
eres 91793
Faja 91792
organ@@ 91791
alega 91790
realista 91789
empezó 91788
Trata 91787
reanud@@ 91786
ocurri@@ 91785
organizando 91784
237 91783
201 91782
firmaron 91781
requerido 91780
ESTADOS 91779
interpretarse 91778
ducir 91777
Luna 91776
modernos 91775
L.1 91774
somalíes 91773
juzgados 91772
pier@@ 91771
subsidiario 91770
operativos 91769
aprender 91768
09 91767
SS 91766
M. 91765
bió 91764
cer@@ 91763
intensifique 91762
legisl@@ 91761
Democracia 91760
decidi@@ 91759
ofertas 91758
mit@@ 91757
ay 91756
ileg@@ 91755
indique 91754
sica 91753
diplomático 91752
GR@@ 91751
certific@@ 91750
universitarios 91749
europea 91748
comprend@@ 91747
sedes 91746
detrimento 91745
GC.@@ 91744
supuestos 91743
ibles 91742
prolongado 91741
llegue 91740
malaria 91739
gozar 91738
Is@@ 91737
siguieran 91736
Ali 91735
consideradas 91734
aplicada 91733
transfronterizo 91732
adoptarán 91731
enunciadas 91730
Insulares 91729
ejemplares 91728
vinculada 91727
pasa 91726
asegura 91725
penitenciaria 91724
hallan 91723
prestara 91722
silvicultura 91721
Objetivo 91720
excluir 91719
164 91718
capacitados 91717
exactitud 91716
sustancialmente 91715
CIÓN 91714
dist@@ 91713
Rel@@ 91712
amistad 91711
proporcionaron 91710
organizan 91709
José 91708
sust@@ 91707
Decisiones 91706
desarrolla 91705
conexa 91704
mode@@ 91703
ira 91702
aceptadas 91701
complementariedad 91700
1972 91699
183 91698
estipulado 91697
estrictas 91696
mapas 91695
acion@@ 91694
conceptual 91693
abiertos 91692
merecen 91691
blemente 91690
ezca 91689
intervienen 91688
facilitan 91687
congelación 91686
tecnológicas 91685
bl@@ 91684
consolidado 91683
expir@@ 91682
Conducta 91681
centrándose 91680
10,@@ 91679
equivalentes 91678
210 91677
automáticamente 91676
correspondan 91675
04 91674
flexibles 91673
otorgado 91672
enseñ@@ 91671
asequibles 91670
ún 91669
Solidaridad 91668
plant@@ 91667
administrados 91666
World 91665
revista 91664
convicciones 91663
terminó 91662
fijo 91661
asesin@@ 91660
TE 91659
Ali@@ 91658
frustr@@ 91657
encomendado 91656
172 91655
201@@ 91654
cá@@ 91653
199 91652
suce@@ 91651
introduci@@ 91650
ascend@@ 91649
diarios 91648
cron@@ 91647
recer 91646
IS 91645
deba 91644
decía 91643
214 91642
obligada 91641
189 91640
incompatibles 91639
aéreos 91638
ase@@ 91637
propon@@ 91636
síntesis 91635
respalda 91634
beneficiado 91633
fijación 91632
descubri@@ 91631
Embajada 91630
13º 91629
agre@@ 91628
reiterando 91627
sustanciales 91626
incendios 91625
Establecer 91624
bres 91623
Espacial 91622
bri@@ 91621
28.@@ 91620
respondiendo 91619
jera 91618
alrededores 91617
tribales 91616
rein@@ 91615
cuán@@ 91614
Tercer 91613
progresivamente 91612
quiera 91611
persisten 91610
jud@@ 91609
informativo 91608
resolverse 91607
experimentales 91606
equivale 91605
apareci@@ 91604
pot@@ 91603
uras 91602
inscribirse 91601
PU@@ 91600
circular 91599
163 91598
fallecimiento 91597
W 91596
prepara 91595
intersectorial 91594
enal 91593
cercan@@ 91592
introducidas 91591
not@@ 91590
plaza 91589
Técnico 91588
residuos 91587
empe@@ 91586
270 91585
dici@@ 91584
supon@@ 91583
Altas 91582
productivas 91581
proces@@ 91580
CEI 91579
regulan 91578
patria 91577
tre@@ 91576
FDI 91575
homólogos 91574
lización 91573
dia 91572
El@@ 91571
gando 91570
perfil 91569
determinan 91568
Contralor 91567
capa 91566
rlo 91565
hacinamiento 91564
AI 91563
egue 91562
DH 91561
manifestar 91560
generalizado 91559
Atención 91558
escuchar 91557
CFC 91556
cons@@ 91555
um 91554
volvi@@ 91553
enlaces 91552
aceler@@ 91551
Caledonia 91550
Sch@@ 91549
enunciado 91548
Erradicación 91547
disturbios 91546
deficiente 91545
personalmente 91544
let@@ 91543
sa@@ 91542
formule 91541
amb@@ 91540
visado 91539
grande 91538
intérpretes 91537
CAPI 91536
suponen 91535
injustific@@ 91534
participe 91533
seleccion@@ 91532
demográficas 91531
etnia 91530
Orgánico 91529
consideraban 91528
Ministra 91527
Víctimas 91526
efectuó 91525
comparten 91524
acordadas 91523
destruir 91522
tud 91521
incursiones 91520
uranio 91519
producirse 91518
confirmación 91517
propiciar 91516
refuerzo 91515
trató 91514
candidatura 91513
penitenciarias 91512
isl@@ 91511
dictar 91510
prorrogó 91509
Pan@@ 91508
Zaire 91507
rehenes 91506
quedaron 91505
reproducción 91504
Human 91503
vol. 91502
Iglesia 91501
multilateralismo 91500
173 91499
vis@@ 91498
eventos 91497
08 91496
fijados 91495
crítico 91494
ofreciendo 91493
fiscalía 91492
abe 91491
adop@@ 91490
soberana 91489
exigencia 91488
correctivas 91487
promovi@@ 91486
supre@@ 91485
oría 91484
lit@@ 91483
condicional 91482
absorción 91481
precis@@ 91480
giendo 91479
llamada 91478
inversores 91477
indicaciones 91476
contratados 91475
laboratorio 91474
EA 91473
produzca 91472
microfinanciación 91471
atas 91470
ER 91469
progresivo 91468
causadas 91467
río 91466
renta 91465
Boletín 91464
examinarán 91463
cualit@@ 91462
cuali@@ 91461
top@@ 91460
30.000 91459
prorrate@@ 91458
seleccionar 91457
orio 91456
reco@@ 91455
iba 91454
encarecidamente 91453
confiscación 91452
desvi@@ 91451
evidentemente 91450
encar@@ 91449
FNUDC 91448
desglose 91447
reunieron 91446
Plurinacional 91445
ponder@@ 91444
macro@@ 91443
Agua 91442
dosis 91441
cadenas 91440
suc@@ 91439
entendi@@ 91438
XX 91437
aumentará 91436
Industria 91435
moderna 91434
herramienta 91433
respondan 91432
ejercer@@ 91431
orales 91430
175 91429
CDI 91428
deriv@@ 91427
Cont@@ 91426
uales 91425
deudor 91424
rit@@ 91423
Bhután 91422
alquil@@ 91421
compuesta 91420
226 91419
Desertificación 91418
diseñar 91417
Comités 91416
fisionable 91415
q 91414
cese 91413
evacuación 91412
tutor 91411
alcohol 91410
recur@@ 91409
configuración 91408
construc@@ 91407
po 91406
doméstico 91405
ali 91404
desaparecidos 91403
necesi@@ 91402
quinquenal 91401
FI@@ 91400
fundada 91399
haiti@@ 91398
quin@@ 91397
descritas 91396
ayuden 91395
alentador 91394
móvil 91393
Enlace 91392
rem@@ 91391
destacados 91390
afganos 91389
indiquen 91388
181 91387
interesada 91386
dictó 91385
remunerado 91384
An 91383
empezar 91382
Salas 91381
presunción 91380
Kivu 91379
versiones 91378
agotamiento 91377
convirti@@ 91376
til 91375
llamadas 91374
paradero 91373
actúen 91372
cuerpos 91371
aisl@@ 91370
benefician 91369
empeñ@@ 91368
renu@@ 91367
SP 91366
teór@@ 91365
D.@@ 91364
II@@ 91363
nav@@ 91362
reúnen 91361
permitía 91360
Senado 91359
mares 91358
coacción 91357
gara 91356
185 91355
semanales 91354
posee 91353
prece@@ 91352
señalados 91351
imperativo 91350
Nor@@ 91349
existiendo 91348
erró@@ 91347
restaur@@ 91346
restabl@@ 91345
enfermos 91344
Pacíficos 91343
reduce 91342
permanencia 91341
gación 91340
gratuito 91339
168 91338
cometen 91337
Adjunta 91336
nacionalidades 91335
desviación 91334
cesión 91333
efectuadas 91332
confisc@@ 91331
deportación 91330
ezcan 91329
vesti@@ 91328
liza 91327
dependientes 91326
lla 91325
ecer 91324
notific@@ 91323
interrupción 91322
pormenoriz@@ 91321
análogas 91320
endeudados 91319
centrada 91318
muchachas 91317
temporalmente 91316
permitiera 91315
identificado 91314
responda 91313
quer@@ 91312
inv@@ 91311
resúmenes 91310
lab@@ 91309
Abu 91308
ulares 91307
acompañada 91306
sostenida 91305
reducida 91304
persegu@@ 91303
exportadores 91302
criminal 91301
juzg@@ 91300
valioso 91299
vendedor 91298
Negocios 91297
emin@@ 91296
anci@@ 91295
171 91294
RC 91293
arrend@@ 91292
arroj@@ 91291
OIM 91290
241 91289
ticamente 91288
prerrogativas 91287
49@@ 91286
ajusten 91285
culto 91284
colonial 91283
tina 91282
vacunación 91281
situ 91280
Americanos 91279
encontrarse 91278
segregación 91277
involucr@@ 91276
enses 91275
Mej@@ 91274
creci@@ 91273
escal@@ 91272
bil@@ 91271
contrarias 91270
perfeccionar 91269
mostró 91268
guarderías 91267
congole@@ 91266
opin@@ 91265
Ki@@ 91264
menoscab@@ 91263
encargará 91262
estadounidense 91261
Consul@@ 91260
promovido 91259
bre 91258
poder@@ 91257
biblioteca 91256
ministeriales 91255
CRIC 91254
liz@@ 91253
ieron 91252
Humano 91251
baj@@ 91250
décima 91249
visitantes 91248
asistió 91247
interesante 91246
cha 91245
sospechosas 91244
fusión 91243
desigual 91242
243 91241
receptor 91240
cuid@@ 91239
acom@@ 91238
consisti@@ 91237
someter@@ 91236
flagelo 91235
aquel 91234
174 91233
suplentes 91232
ocu@@ 91231
reorganización 91230
Umoja 91229
tangibles 91228
tradu@@ 91227
levantamiento 91226
corre 91225
2,5 91224
177 91223
laboratorios 91222
significativas 91221
233 91220
corrección 91219
milit@@ 91218
profesion@@ 91217
reconoci@@ 91216
sali@@ 91215
For@@ 91214
desarrollan 91213
có@@ 91212
PV.@@ 91211
establec@@ 91210
paridad 91209
ándole 91208
orgul@@ 91207
internamente 91206
plaguicidas 91205
Abyei 91204
provocar 91203
via 91202
socios 91201
favoreci@@ 91200
Inspectores 91199
concer@@ 91198
rle 91197
EX@@ 91196
perpetua 91195
inser@@ 91194
env@@ 91193
nombró 91192
ST@@ 91191
arrendamiento 91190
dejó 91189
disparos 91188
notificado 91187
visados 91186
1.2 91185
bonos 91184
decidida 91183
prohíba 91182
depend@@ 91181
12,@@ 91180
mostrado 91179
reafirmaron 91178
violó 91177
diaria 91176
entenderá 91175
sible 91174
eder@@ 91173
iniciación 91172
CI 91171
foc@@ 91170
27.@@ 91169
Direc@@ 91168
problemática 91167
ch 91166
44@@ 91165
itud 91164
secuestr@@ 91163
animales 91162
restringir 91161
queden 91160
invocar 91159
58@@ 91158
propaganda 91157
perturb@@ 91156
servirá 91155
trabajen 91154
balance 91153
II.@@ 91152
Bienes 91151
ros 91150
pli@@ 91149
percepción 91148
PAR@@ 91147
Tri@@ 91146
Jo@@ 91145
masiva 91144
salvar 91143
toler@@ 91142
ganado 91141
imparciales 91140
The 91139
men 91138
simplificar 91137
tripul@@ 91136
croatas 91135
prohibida 91134
mancomun@@ 91133
Val@@ 91132
ratificados 91131
aplaz@@ 91130
OP@@ 91129
considerada 91128
CON 91127
191 91126
recae 91125
tab@@ 91124
2.1 91123
perder 91122
gn@@ 91121
aclaración 91120
respald@@ 91119
patri@@ 91118
residuales 91117
publicada 91116
240 91115
Químicas 91114
asegurando 91113
retirado 91112
ari 91111
FIDA 91110
gratitud 91109
reconozca 91108
incluirán 91107
ciertamente 91106
calificaciones 91105
190 91104
rechazó 91103
procediera 91102
agro@@ 91101
noción 91100
mec@@ 91099
conmemor@@ 91098
continuamente 91097
confirm@@ 91096
grab@@ 91095
designadas 91094
sem@@ 91093
sac@@ 91092
= 91091
divul@@ 91090
UNO@@ 91089
habitualmente 91088
centran 91087
exacta 91086
depuración 91085
suscrito 91084
apoye 91083
crearon 91082
sever@@ 91081
consultor 91080
tutores 91079
CM@@ 91078
forzosos 91077
subsiguientes 91076
potenciación 91075
INF@@ 91074
adiciones 91073
iv 91072
contingente 91071
serio 91070
Página 91069
japon@@ 91068
FNUOS 91067
Ben@@ 91066
teleobservación 91065
restrictivas 91064
ulación 91063
divisas 91062
añade 91061
ham@@ 91060
ible 91059
Integrada 91058
TIV@@ 91057
respet@@ 91056
parejas 91055
reclasificación 91054
fluctuaciones 91053
supervisa 91052
citada 91051
reiteraron 91050
pesquera 91049
traspaso 91048
localización 91047
lizar 91046
erían 91045
Min@@ 91044
carcel@@ 91043
renovar 91042
Menores 91041
obligar 91040
llevados 91039
secundario 91038
erta 91037
impedido 91036
femenino 91035
consumidor 91034
desfavorecidas 91033
fici@@ 91032
arro@@ 91031
lio 91030
capacitado 91029
preferencias 91028
programáticas 91027
ás 91026
fracaso 91025
Aduanas 91024
portal 91023
Químicos 91022
distingu@@ 91021
Micronesia 91020
vali@@ 91019
enfrentamiento 91018
CRP.@@ 91017
disparidad 91016
az 91015
esforz@@ 91014
monedas 91013
Turismo 91012
Sa@@ 91011
1963 91010
vit@@ 91009
ale 91008
coordina 91007
modificada 91006
187 91005
informados 91004
comparecer 91003
preci@@ 91002
aliment@@ 91001
virus 91000
arg@@ 90999
ts 90998
pedimos 90997
ben 90996
afirmaciones 90995
cionalmente 90994
ordinarias 90993
Ecuatorial 90992
14.30 90991
ol 90990
modernas 90989
ayudan 90988
deriva 90987
aboli@@ 90986
extremismo 90985
privilegios 90984
Ética 90983
comprome@@ 90982
vitales 90981
Du@@ 90980
prefi@@ 90979
confiere 90978
paga 90977
singular 90976
aplicados 90975
opone 90974
cidad 90973
ofrecimiento 90972
cometan 90971
someterse 90970
suici@@ 90969
separadas 90968
aca 90967
203 90966
destinatarios 90965
liquidar 90964
Comoras 90963
interrump@@ 90962
llegan 90961
clínicas 90960
EC 90959
ahí 90958
aplicabilidad 90957
amin@@ 90956
206 90955
inju@@ 90954
agradecer 90953
ug@@ 90952
198 90951
demográfico 90950
psico@@ 90949
53@@ 90948
contó 90947
transfronteriza 90946
AB@@ 90945
petrol@@ 90944
precisos 90943
cosec@@ 90942
utilizarán 90941
estancia 90940
comenzará 90939
Americana 90938
aeronave 90937
propugn@@ 90936
escap@@ 90935
abarque 90934
continuos 90933
renovado 90932
ame@@ 90931
Participación 90930
Sindic@@ 90929
Subsidiario 90928
consum@@ 90927
ascendencia 90926
son@@ 90925
Mad@@ 90924
Taiwán 90923
radiactivos 90922
sp@@ 90921
descanso 90920
quil@@ 90919
determinará 90918
idó@@ 90917
comisarías 90916
disolución 90915
seguiría 90914
enviados 90913
requerirá 90912
perci@@ 90911
imperi@@ 90910
suman 90909
abortos 90908
Naturales 90907
aderas 90906
Abjasia 90905
dispongan 90904
prolong@@ 90903
municipio 90902
invitado 90901
perfiles 90900
descrito 90899
adi 90898
prec@@ 90897
Poder 90896
apoyará 90895
empez@@ 90894
cultiv@@ 90893
subsahariana 90892
surg@@ 90891
lesion@@ 90890
caja 90889
iraní 90888
ri 90887
antir@@ 90886
dez 90885
186 90884
sindicales 90883
Ú@@ 90882
obstaculizar 90881
lactancia 90880
gado 90879
pretexto 90878
herencia 90877
notablemente 90876
solicitaron 90875
recon@@ 90874
ecen 90873
niega 90872
vacante 90871
Hu@@ 90870
miti@@ 90869
salvaguardia 90868
rap@@ 90867
anul@@ 90866
tramitar 90865
activistas 90864
promul@@ 90863
escuchó 90862
conductas 90861
aportes 90860
incorporen 90859
222 90858
crean 90857
crianza 90856
194 90855
contribuyeron 90854
refleje 90853
posibilit@@ 90852
subvencion@@ 90851
participaran 90850
programático 90849
combati@@ 90848
compilación 90847
La@@ 90846
quede 90845
dinámico 90844
daría 90843
flagrante 90842
Her@@ 90841
asesorar 90840
lia 90839
rutas 90838
operativo 90837
rechaza 90836
extraordinaria 90835
Media 90834
ton 90833
aa 90832
enen 90831
ambul@@ 90830
aceleración 90829
permanecen 90828
1969 90827
entendido 90826
stre 90825
crito 90824
figurar 90823
Vic@@ 90822
explo@@ 90821
aliza 90820
contribuy@@ 90819
Fu@@ 90818
au 90817
Grupos 90816
ental 90815
ligeramente 90814
ea 90813
izar 90812
procurando 90811
condenó 90810
americano 90809
telefónicas 90808
intensidad 90807
comparables 90806
clandestin@@ 90805
necesitaban 90804
previsiones 90803
homicidio 90802
BL@@ 90801
concurso 90800
establecía 90799
habituales 90798
mot@@ 90797
proporcionara 90796
Niñez 90795
UNAMA 90794
mejore 90793
estabilizar 90792
pandemia 90791
comprobación 90790
esperan 90789
Solici@@ 90788
ocupe 90787
separada 90786
derivan 90785
descendi@@ 90784
débiles 90783
IOS 90782
libras 90781
considerara 90780
parecía 90779
redac@@ 90778
permitirán 90777
brevemente 90776
entero 90775
eman@@ 90774
agot@@ 90773
afianzar 90772
previsión 90771
Extranj@@ 90770
sudan@@ 90769
vaya 90768
educacionales 90767
incre@@ 90766
regulares 90765
Vírgenes 90764
par 90763
remit@@ 90762
amplió 90761
viola 90760
entan 90759
piden 90758
restante 90757
Mercantil 90756
pel@@ 90755
utilizará 90754
financia 90753
subyacentes 90752
tram@@ 90751
espero 90750
faltas 90749
Bali 90748
215 90747
inalienable 90746
500.000 90745
sangre 90744
ore 90743
vayan 90742
nicamente 90741
43@@ 90740
equilibr@@ 90739
184 90738
educar 90737
Brindisi 90736
oriz@@ 90735
capit@@ 90734
introduc@@ 90733
176 90732
identificados 90731
apremi@@ 90730
Septentrional 90729
inmunización 90728
refi@@ 90727
iniciaron 90726
Ayuda 90725
contaba 90724
censos 90723
jar 90722
codificación 90721
restauración 90720
universalmente 90719
fianza 90718
ándolos 90717
contratado 90716
recurri@@ 90715
subsanar 90714
err@@ 90713
56@@ 90712
Asiático 90711
conocen 90710
folleto 90709
178 90708
ME 90707
may@@ 90706
goza 90705
judíos 90704
lenguaje 90703
testimonios 90702
trasladado 90701
230 90700
emprendi@@ 90699
veto 90698
dotar 90697
fronterizas 90696
Rico 90695
ayudó 90694
confesiones 90693
dedica 90692
vial 90691
OC 90690
breves 90689
comenzaron 90688
personalidades 90687
ógen@@ 90686
Srpska 90685
NU@@ 90684
declarados 90683
suponer 90682
SEGURIDAD 90681
repatri@@ 90680
fortal@@ 90679
silencio 90678
Todas 90677
US 90676
preparará 90675
188 90674
COP.@@ 90673
Bra@@ 90672
07 90671
deportivas 90670
pidiendo 90669
declararon 90668
il 90667
1948 90666
paralelamente 90665
Recomendaciones 90664
interpretar 90663
corri@@ 90662
química 90661
Pres@@ 90660
alla 90659
vincular 90658
Abogados 90657
reemplazar 90656
cohetes 90655
deforestación 90654
cuente 90653
XIII 90652
referirme 90651
desper@@ 90650
abordado 90649
205 90648
estadístico 90647
UNOMIG 90646
emplear@@ 90645
reflejen 90644
incur@@ 90643
eva 90642
Karabaj 90641
consisten 90640
MONUSCO 90639
DC 90638
209 90637
pasaporte 90636
illa 90635
gos 90634
hermano 90633
aten@@ 90632
edores 90631
coalición 90630
Cachemira 90629
interponer 90628
dom@@ 90627
concertada 90626
visibilidad 90625
mapa 90624
reposición 90623
aparentemente 90622
Belgrado 90621
siente 90620
patrocinio 90619
alim@@ 90618
apare@@ 90617
actúe 90616
2.500 90615
velando 90614
inscri@@ 90613
digno 90612
tarjetas 90611
sami 90610
defini@@ 90609
renuncia 90608
informen 90607
supervivientes 90606
Adoptar 90605
basó 90604
exponer 90603
Kabul 90602
202 90601
cerrada 90600
originales 90599
preventivo 90598
yentes 90597
resiliencia 90596
stico 90595
existi@@ 90594
formularios 90593
Contencioso 90592
260 90591
11,@@ 90590
procesar 90589
comportamientos 90588
ayude 90587
pida 90586
refuerzan 90585
concret@@ 90584
agilizar 90583
Defensoría 90582
negó 90581
feder@@ 90580
valer 90579
fortalecido 90578
paralelo 90577
deterior@@ 90576
ánicos 90575
IO 90574
MAR@@ 90573
eleg@@ 90572
Facultad 90571
Santo 90570
sacar 90569
Swazilandia 90568
exced@@ 90567
Extern@@ 90566
izado 90565
ono 90564
ajustan 90563
exit@@ 90562
8.000 90561
terminología 90560
concluya 90559
potestad 90558
instar 90557
207 90556
aparece 90555
secuestros 90554
ejemplar 90553
estrechos 90552
piedra 90551
endos 90550
verano 90549
adquiridas 90548
instaron 90547
seguridades 90546
series 90545
financian 90544
profesor 90543
ponía 90542
titul@@ 90541
notificar 90540
Comunicación 90539
OL@@ 90538
epidemi@@ 90537
calificado 90536
comenz@@ 90535
felicitar 90534
ole@@ 90533
29.@@ 90532
icanos 90531
ow@@ 90530
hid@@ 90529
celdas 90528
inde@@ 90527
recopilar 90526
hito 90525
plan@@ 90524
convenientes 90523
especialización 90522
garantizada 90521
Socialista 90520
recurriendo 90519
asignadas 90518
depositario 90517
DESARROLLO 90516
implement@@ 90515
sostener 90514
transformar 90513
217 90512
inte@@ 90511
225 90510
intentar 90509
254 90508
ash@@ 90507
Marshall 90506
hospit@@ 90505
fomenta 90504
osci@@ 90503
ola 90502
comprometidos 90501
216 90500
ím@@ 90499
anotaciones 90498
Form@@ 90497
amplitud 90496
Cr@@ 90495
Eslovaca 90494
estimar 90493
Vicente 90492
apel@@ 90491
Libertades 90490
administradoras 90489
seguimos 90488
Federados 90487
prohibidas 90486
ou 90485
sirva 90484
concentraciones 90483
concesiones 90482
estatutos 90481
erto 90480
necesiten 90479
señ@@ 90478
tización 90477
telefónica 90476
vend@@ 90475
jos 90474
paramilitares 90473
Radio 90472
selec@@ 90471
socavar 90470
autónoma 90469
violan 90468
reglamentarias 90467
écimo 90466
abrió 90465
directivas 90464
corta 90463
Jerusalem 90462
incorpora 90461
221 90460
1325 90459
Ber@@ 90458
difi@@ 90457
despli@@ 90456
tomarse 90455
cel@@ 90454
satisfactoriamente 90453
kuwaitíes 90452
colaborado 90451
reos 90450
correspondía 90449
internados 90448
pal@@ 90447
ry 90446
236 90445
infr@@ 90444
intercultural 90443
ases@@ 90442
Anual 90441
negado 90440
característica 90439
triparti@@ 90438
premat@@ 90437
core@@ 90436
alarm@@ 90435
coincide 90434
orar 90433
reglament@@ 90432
Malvinas 90431
explícita 90430
funcionales 90429
cerrado 90428
escaños 90427
dados 90426
anes 90425
comp@@ 90424
Salomón 90423
deban 90422
ejecut@@ 90421
ofrezca 90420
intensi@@ 90419
profes@@ 90418
Jóvenes 90417
ear@@ 90416
Edi@@ 90415
escuchado 90414
68@@ 90413
ALES 90412
grecochipriota 90411
AG@@ 90410
constituiría 90409
INFORMES 90408
promoverá 90407
guardias 90406
Aviación 90405
implant@@ 90404
ici@@ 90403
haber@@ 90402
atenu@@ 90401
colectivamente 90400
respeta 90399
Poderes 90398
acelerado 90397
practicar 90396
Marítima 90395
firmas 90394
ik@@ 90393
traum@@ 90392
hacían 90391
exacerb@@ 90390
ayudas 90389
encu@@ 90388
adjun@@ 90387
sólidas 90386
alcal@@ 90385
350 90384
bancarios 90383
espos@@ 90382
anu@@ 90381
bru@@ 90380
requerida 90379
tables 90378
marcado 90377
procederá 90376
empír@@ 90375
hermanos 90374
usuario 90373
PARTES 90372
agos 90371
discursos 90370
13,@@ 90369
implicación 90368
profundizar 90367
involucrados 90366
revisados 90365
defi@@ 90364
Comercial 90363
Seg@@ 90362
diálogos 90361
deport@@ 90360
wa 90359
ilo 90358
inserción 90357
afro@@ 90356
delincuente 90355
Ag@@ 90354
Asesora 90353
facult@@ 90352
Hab@@ 90351
remitió 90350
vul@@ 90349
traficantes 90348
WG.@@ 90347
exc@@ 90346
Nos 90345
Libre 90344
demostró 90343
multisectorial 90342
morbilidad 90341
Beirut 90340
servido 90339
amer@@ 90338
DCI 90337
estiman 90336
ur 90335
Development 90334
26.@@ 90333
columna 90332
Contabilidad 90331
compil@@ 90330
teléfonos 90329
preven@@ 90328
OEA 90327
200.000 90326
esbozo 90325
25.@@ 90324
hacemos 90323
terremoto 90322
tase 90321
fracas@@ 90320
promulgada 90319
ól@@ 90318
nov@@ 90317
sobrevivi@@ 90316
otor@@ 90315
rla 90314
reasignación 90313
disciplinarios 90312
anzas 90311
óptima 90310
pis@@ 90309
266 90308
gé@@ 90307
enumeradas 90306
retirarse 90305
terapia 90304
asiento 90303
PYMES 90302
disciplinaria 90301
relator 90300
difamación 90299
varía 90298
Ilícito 90297
Ter@@ 90296
Arusha 90295
Er@@ 90294
fér@@ 90293
Ministerios 90292
representativo 90291
aplicó 90290
probabilidad 90289
uda 90288
raz@@ 90287
vuelta 90286
jas 90285
buscan 90284
cincuentenario 90283
busc@@ 90282
contempor@@ 90281
Datos 90280
propusieron 90279
aceptada 90278
modificó 90277
228 90276
anex@@ 90275
requería 90274
aporten 90273
cancelación 90272
193 90271
arbitr@@ 90270
Tokio 90269
maternoinfantil 90268
sirvi@@ 90267
pilar 90266
179 90265
populares 90264
7.000 90263
pesado 90262
infractores 90261
naci@@ 90260
paternidad 90259
2.2 90258
continuara 90257
Elección 90256
NO@@ 90255
licenci@@ 90254
propietario 90253
enormemente 90252
intensificado 90251
apoyaron 90250
acumulado 90249
adelantado 90248
adic@@ 90247
energéticos 90246
Falkland 90245
Rey 90244
expuls@@ 90243
ist@@ 90242
concili@@ 90241
adhi@@ 90240
Bur@@ 90239
296 90238
mantend@@ 90237
socialmente 90236
conlleva 90235
ENCIA 90234
15º 90233
ICEF 90232
encargan 90231
metod@@ 90230
consagra 90229
gal@@ 90228
atraves@@ 90227
retiró 90226
audi@@ 90225
absor@@ 90224
ejecuta 90223
reproductivos 90222
mercantil 90221
gratuitos 90220
referido 90219
directiva 90218
desarroll@@ 90217
Ram@@ 90216
rum@@ 90215
w 90214
señales 90213
Cam@@ 90212
facultado 90211
didas 90210
Técnicos 90209
km 90208
contenedores 90207
cer 90206
0,7 90205
suel@@ 90204
Amigos 90203
anuncia 90202
NE@@ 90201
meteor@@ 90200
inversionistas 90199
sentar 90198
pasaron 90197
TS 90196
captura 90195
delimitación 90194
IO@@ 90193
repetidas 90192
disfru@@ 90191
elaboren 90190
motivación 90189
constituya 90188
usti@@ 90187
cara 90186
redactado 90185
emitida 90184
egip@@ 90183
dil@@ 90182
facilidades 90181
diarias 90180
lar 90179
incendi@@ 90178
recom@@ 90177
facciones 90176
tarias 90175
revitalizar 90174
fundaciones 90173
logre 90172
interfer@@ 90171
232 90170
protegen 90169
critic@@ 90168
aun@@ 90167
abolir 90166
Ny@@ 90165
terceras 90164
Institu@@ 90163
compensar 90162
ras@@ 90161
deton@@ 90160
aderos 90159
ininterrump@@ 90158
loc@@ 90157
2º 90156
recoge 90155
aumentan 90154
justifica 90153
demandado 90152
Hol@@ 90151
dignas 90150
condi@@ 90149
contractual 90148
salen 90147
Inspector 90146
pir@@ 90145
cias 90144
suprim@@ 90143
Sarajevo 90142
ocupen 90141
reun@@ 90140
cliente 90139
interven@@ 90138
pesc@@ 90137
demarcación 90136
ascendían 90135
duc@@ 90134
compuestos 90133
salud@@ 90132
opio 90131
serias 90130
áficas 90129
dirigente 90128
decretos 90127
MIS@@ 90126
prontitud 90125
cálculos 90124
DA 90123
delegado 90122
portu@@ 90121
patrulla 90120
CS 90119
269 90118
aduci@@ 90117
eh 90116
comprometen 90115
peligroso 90114
brindan 90113
Seguir 90112
Cat@@ 90111
emis@@ 90110
enumer@@ 90109
masivas 90108
lam@@ 90107
crita 90106
trámite 90105
trasladar 90104
vuelva 90103
racista 90102
artes 90101
196 90100
Islámico 90099
cubano 90098
concier@@ 90097
domicili@@ 90096
verde 90095
itales 90094
propiamente 90093
197 90092
tipifica 90091
denunciados 90090
Cuá@@ 90089
inflig@@ 90088
anfitriones 90087
gran@@ 90086
estarían 90085
15.000 90084
especifica 90083
Gr@@ 90082
artillería 90081
contratante 90080
enviarse 90079
tej@@ 90078
inherentes 90077
sor@@ 90076
compartidos 90075
contabiliz@@ 90074
decenal 90073
redact@@ 90072
Jartum 90071
687 90070
someti@@ 90069
psicosocial 90068
comienza 90067
afrodescendientes 90066
intencion@@ 90065
toxic@@ 90064
Residente 90063
partidarios 90062
violar 90061
ing 90060
prepararse 90059
signatura 90058
monetarias 90057
emiti@@ 90056
necesitaba 90055
demográficos 90054
Índico 90053
Prestar 90052
analíticos 90051
sig@@ 90050
fiabilidad 90049
did@@ 90048
person@@ 90047
minuci@@ 90046
195 90045
trabas 90044
FARDC 90043
voc@@ 90042
involunt@@ 90041
inculp@@ 90040
registran 90039
CONSEJO 90038
provech@@ 90037
precoz 90036
cerciorarse 90035
operadores 90034
ahorros 90033
yente 90032
remediar 90031
Kimberley 90030
CC 90029
acusadas 90028
Infantil 90027
genu@@ 90026
funcionando 90025
destitu@@ 90024
representó 90023
proporcionadas 90022
detalladamente 90021
pronunciado 90020
progre@@ 90019
imperante 90018
transmitía 90017
compras 90016
abl@@ 90015
publicaron 90014
horario 90013
indebida 90012
incid@@ 90011
efectuaron 90010
acogido 90009
Telecomunicaciones 90008
bor@@ 90007
centrados 90006
afiliación 90005
fructífer@@ 90004
él@@ 90003
trabajaban 90002
prior@@ 90001
poseer 90000
peticion@@ 89999
Creación 89998
secundarios 89997
cívica 89996
jubilados 89995
Geogr@@ 89994
Em@@ 89993
recuer@@ 89992
conceder@@ 89991
Rom@@ 89990
celebrara 89989
sucede 89988
añ@@ 89987
cuantit@@ 89986
lav@@ 89985
afron@@ 89984
correspondi@@ 89983
tí@@ 89982
conc@@ 89981
somet@@ 89980
destruc@@ 89979
imiento 89978
informativos 89977
geográfico 89976
aprecia 89975
Envejecimiento 89974
informático 89973
part@@ 89972
verán 89971
residi@@ 89970
tir@@ 89969
tomará 89968
IR@@ 89967
conmemoración 89966
desequilibrios 89965
tes@@ 89964
Barbuda 89963
autónomas 89962
XX@@ 89961
caminos 89960
tortur@@ 89959
sil@@ 89958
oí@@ 89957
Lucía 89956
genera 89955
IP 89954
domésticas 89953
calculado 89952
1.200 89951
reputación 89950
verific@@ 89949
esencia 89948
S. 89947
prelación 89946
Be@@ 89945
incondicional 89944
ampliada 89943
juzgado 89942
metales 89941
Voluntarias 89940
concentrarse 89939
lactantes 89938
berg 89937
realizara 89936
meras 89935
colec@@ 89934
satisfactorio 89933
teras 89932
casti@@ 89931
reside 89930
cita 89929
253 89928
culpabilidad 89927
Trabajadores 89926
cimiento 89925
40.000 89924
agradeció 89923
revisten 89922
258 89921
analítico 89920
UNAMSIL 89919
requieran 89918
disciplinas 89917
sindicato 89916
admisible 89915
castig@@ 89914
sumaron 89913
carencia 89912
Chernobyl 89911
divulgar 89910
contenga 89909
Periódico 89908
núcleo 89907
trasc@@ 89906
Tu@@ 89905
preparadas 89904
demostración 89903
comisaría 89902
rechazar 89901
Mixta 89900
Tra@@ 89899
report@@ 89898
aguar@@ 89897
educ@@ 89896
presidi@@ 89895
porcentajes 89894
rog@@ 89893
asumió 89892
válida 89891
Constitu@@ 89890
Ba@@ 89889
IL@@ 89888
sucesivo 89887
Ge@@ 89886
aterri@@ 89885
apelar 89884
ideal 89883
Ban@@ 89882
transmitido 89881
Fronteras 89880
ciudadana 89879
omisión 89878
Cuestión 89877
aeropuertos 89876
Nagorno 89875
adjudic@@ 89874
tóxicos 89873
Enfoque 89872
Confederación 89871
ofreci@@ 89870
ales@@ 89869
obligatorias 89868
distinguir 89867
Reserva 89866
deportes 89865
asignó 89864
much@@ 89863
SA 89862
vacunas 89861
han@@ 89860
habilitación 89859
prolongados 89858
colaboró 89857
representada 89856
embaj@@ 89855
204 89854
dispositivo 89853
desminado 89852
confesión 89851
migraciones 89850
Administr@@ 89849
abre 89848
E.@@ 89847
adeud@@ 89846
relacion@@ 89845
planteados 89844
multas 89843
contengan 89842
ceremonia 89841
elas 89840
ENTO 89839
atar 89838
45@@ 89837
procedió 89836
quebrant@@ 89835
enviaron 89834
Militares 89833
ulteriormente 89832
Conexas 89831
concebido 89830
cubierta 89829
semejante 89828
INSTRAW 89827
Cri@@ 89826
alentado 89825
esparcimiento 89824
deste 89823
tiz@@ 89822
estrecho 89821
fronterizo 89820
Interparlamentaria 89819
XIV 89818
sibles 89817
hi 89816
pe 89815
mercaderías 89814
sens@@ 89813
gieron 89812
radiación 89811
discrepancias 89810
Women 89809
dispuso 89808
sinergia 89807
puntual 89806
sist@@ 89805
bieron 89804
memorandos 89803
permanentemente 89802
Antigua 89801
cannabis 89800
avanz@@ 89799
decidieron 89798
repetición 89797
surgir 89796
tarios 89795
renunciar 89794
samente 89793
ez@@ 89792
básicamente 89791
predecesor 89790
afirman 89789
aprendidas 89788
mejoren 89787
trigésimo 89786
desequilibrio 89785
AN 89784
murieron 89783
ingresar 89782
PAO 89781
descritos 89780
ENTE 89779
extraídas 89778
ke 89777
comprometida 89776
proporcional 89775
Aplic@@ 89774
afirmaron 89773
338 89772
Es 89771
racion@@ 89770
ancias 89769
justi@@ 89768
16º 89767
CCT 89766
permanec@@ 89765
recti@@ 89764
interval@@ 89763
ficarse 89762
decomiso 89761
ure 89760
aplazamiento 89759
simplificación 89758
válido 89757
adecu@@ 89756
insistió 89755
Asociaciones 89754
Preven@@ 89753
diferenci@@ 89752
invalidez 89751
describió 89750
intenciones 89749
identificadas 89748
Mohamed 89747
cuándo 89746
drás@@ 89745
imposibilidad 89744
señalaba 89743
concedió 89742
puntualmente 89741
dependiendo 89740
semejantes 89739
afi@@ 89738
indu@@ 89737
basaba 89736
incautación 89735
onia 89734
RES 89733
dispuestas 89732
saluda 89731
perpetu@@ 89730
áneos 89729
Norm@@ 89728
veget@@ 89727
ística 89726
EP 89725
compren@@ 89724
17º 89723
atrocidades 89722
revisó 89721
ua 89720
ordenó 89719
ge 89718
sospecha 89717
icul@@ 89716
reembolsos 89715
estacion@@ 89714
transfronterizas 89713
formulados 89712
matanzas 89711
mérit@@ 89710
PN@@ 89709
fundamentado 89708
SAT 89707
incluyente 89706
irregularidades 89705
proven@@ 89704
percib@@ 89703
conseguidos 89702
iban 89701
antiguas 89700
archivo 89699
evacu@@ 89698
entrenamiento 89697
autén@@ 89696
Guerra 89695
tratará 89694
donación 89693
frag@@ 89692
67@@ 89691
hubiesen 89690
care@@ 89689
individu@@ 89688
Redacción 89687
letra 89686
explosión 89685
semi@@ 89684
14º 89683
intensa 89682
asignan 89681
limpio 89680
tec@@ 89679
recíproc@@ 89678
disciplinario 89677
disminuyendo 89676
inequívoc@@ 89675
continuaron 89674
refugiadas 89673
nat@@ 89672
evalú@@ 89671
sufr@@ 89670
ánea 89669
tragedia 89668
convocación 89667
fabric@@ 89666
pase 89665
C.12 89664
vent@@ 89663
lento 89662
14,@@ 89661
11ª 89660
plante@@ 89659
entraron 89658
prescripción 89657
PO@@ 89656
constituyendo 89655
ocupadas 89654
Comunidades 89653
Ampli@@ 89652
tratamientos 89651
pare@@ 89650
habló 89649
indirectos 89648
interpret@@ 89647
movi@@ 89646
Sob@@ 89645
Del@@ 89644
coexistencia 89643
parientes 89642
observan 89641
concienciar 89640
devengados 89639
MO@@ 89638
inminente 89637
nacion@@ 89636
L.2 89635
up@@ 89634
ocupó 89633
informarle 89632
Colegio 89631
IPCC 89630
provisionalmente 89629
Sec@@ 89628
afirmado 89627
Kinshasa 89626
neutr@@ 89625
enciones 89624
Tuvalu 89623
ignor@@ 89622
sospec@@ 89621
At@@ 89620
resol@@ 89619
L. 89618
che 89617
obtengan 89616
United 89615
producidos 89614
stro 89613
BI@@ 89612
parental 89611
Ciudad@@ 89610
mascul@@ 89609
puntu@@ 89608
3.1 89607
apatridia 89606
Lo@@ 89605
beb@@ 89604
276 89603
atrás 89602
ong@@ 89601
Ho@@ 89600
herman@@ 89599
juz@@ 89598
INTERNACIONAL 89597
video@@ 89596
discapacitadas 89595
estímulo 89594
lógica 89593
SADC 89592
presidida 89591
aborden 89590
socio@@ 89589
lar@@ 89588
dec@@ 89587
Ul@@ 89586
UNMIT 89585
parlamentaria 89584
península 89583
ál@@ 89582
ropa 89581
generan 89580
impulsado 89579
absolutamente 89578
marginales 89577
Publicaciones 89576
UNAMI 89575
Bak@@ 89574
unión 89573
ass@@ 89572
procurará 89571
adolescencia 89570
Col@@ 89569
cuenten 89568
Go@@ 89567
daban 89566
allan@@ 89565
ć 89564
Cap@@ 89563
ándolo 89562
entrará 89561
flujos 89560
ofrezcan 89559
permitieron 89558
mero 89557
dro@@ 89556
ION 89555
óp@@ 89554
1966 89553
centro@@ 89552
15,@@ 89551
sup@@ 89550
Az@@ 89549
Tes@@ 89548
neo 89547
mayor@@ 89546
éndo@@ 89545
cuant@@ 89544
alemán 89543
soberanos 89542
CB 89541
SU@@ 89540
historial 89539
esforzarse 89538
viv@@ 89537
Granadinas 89536
profundi@@ 89535
exhortamos 89534
caracteriza 89533
ecológico 89532
derivada 89531
condados 89530
necesitamos 89529
recomi@@ 89528
desmilit@@ 89527
reanuda 89526
sensibilidad 89525
convergencia 89524
ído 89523
averigu@@ 89522
cubri@@ 89521
marítimas 89520
tá@@ 89519
recoger 89518
sabemos 89517
Dec.@@ 89516
asigne 89515
naturalmente 89514
neutralidad 89513
tiv@@ 89512
CO2 89511
ofrecía 89510
lanzó 89509
pertenece 89508
necesitarán 89507
vici@@ 89506
interregional 89505
vería 89504
satisfactorios 89503
54@@ 89502
aer@@ 89501
recab@@ 89500
mencionaron 89499
zas 89498
brindado 89497
causada 89496
Tratamiento 89495
Oslo 89494
noctur@@ 89493
Auditor 89492
objetividad 89491
238 89490
obsol@@ 89489
intimidad 89488
contribuirán 89487
enviada 89486
264 89485
variante 89484
incrementado 89483
afirmativa 89482
contribuyentes 89481
CT@@ 89480
adolescente 89479
tesis 89478
fotografías 89477
rlos 89476
enas 89475
entrevista 89474
indicando 89473
hol@@ 89472
Mé@@ 89471
ísticos 89470
Kh@@ 89469
deliberadamente 89468
Bas@@ 89467
SESIÓN 89466
aceptados 89465
sindical 89464
reparto 89463
Inclu@@ 89462
acel@@ 89461
Annan 89460
Fiduciaria 89459
tratadas 89458
discusión 89457
autosuficiencia 89456
Detención 89455
ayer 89454
interrogatorios 89453
anticipos 89452
creadas 89451
basta 89450
optar 89449
realizarán 89448
DO 89447
llas 89446
249 89445
Don@@ 89444
primario 89443
inmuebles 89442
integrales 89441
incorporan 89440
MI 89439
circuns@@ 89438
referían 89437
234 89436
Pu@@ 89435
captur@@ 89434
precisas 89433
Intolerancia 89432
Mater@@ 89431
Janeiro 89430
Sexual 89429
produciendo 89428
necesitará 89427
223 89426
peor 89425
refuerce 89424
AC.105 89423
tario 89422
opinó 89421
comprometieron 89420
Aé@@ 89419
Enmienda 89418
adaptados 89417
angular 89416
Sistemas 89415
Sahel 89414
AF@@ 89413
protejan 89412
emigr@@ 89411
conceb@@ 89410
Soviética 89409
prag@@ 89408
geográficos 89407
reanudó 89406
explotar 89405
li 89404
20º 89403
redobl@@ 89402
reunidos 89401
Cartagena 89400
marroqu@@ 89399
empeoramiento 89398
estándares 89397
remitido 89396
22@@ 89395
247 89394
proceden 89393
anda 89392
Presidencial 89391
69@@ 89390
Ger@@ 89389
aplicaba 89388
equi@@ 89387
reúnan 89386
Anti@@ 89385
Establecimiento 89384
enviadas 89383
maoríes 89382
variables 89381
Almaty 89380
moderno 89379
discriminatorios 89378
intensifiquen 89377
QUE 89376
Marinos 89375
Jean 89374
Empresa 89373
distribuidos 89372
pasan 89371
tarifas 89370
Enseñanza 89369
Convenciones 89368
Anexo 89367
Add.4 89366
enriquecimiento 89365
colaboran 89364
ratificaciones 89363
cercano 89362
afines 89361
convocatoria 89360
comprometió 89359
responden 89358
refuercen 89357
Soci@@ 89356
escritos 89355
Copresidentes 89354
procesal 89353
Cultural 89352
252 89351
mera 89350
recaud@@ 89349
consignados 89348
largos 89347
participativo 89346
procurado 89345
aquél@@ 89344
protegido 89343
relacionan 89342
MINUEE 89341
cabría 89340
manipulación 89339
Ibíd 89338
EST@@ 89337
13ª 89336
sustento 89335
dispu@@ 89334
consulares 89333
escalas 89332
centradas 89331
digna 89330
14ª 89329
231 89328
demasi@@ 89327
asa 89326
egr@@ 89325
Deci@@ 89324
Mejorar 89323
meros 89322
discuti@@ 89321
pos 89320
proponía 89319
indiscriminados 89318
taban 89317
244 89316
sindic@@ 89315
ogía 89314
Vanuatu 89313
anunciado 89312
IB@@ 89311
ib@@ 89310
tentativa 89309
66@@ 89308
sensibles 89307
12ª 89306
argen@@ 89305
envergadura 89304
inherente 89303
Penitenci@@ 89302
Ur@@ 89301
indiscrimin@@ 89300
preferible 89299
ví@@ 89298
permit@@ 89297
tribus 89296
SESIONES 89295
Dec@@ 89294
auténtica 89293
firmados 89292
incautaciones 89291
simposio 89290
llamados 89289
varían 89288
afirmando 89287
Seychelles 89286
246 89285
justas 89284
georgi@@ 89283
CD@@ 89282
abandonado 89281
elaboraron 89280
inaugur@@ 89279
ampar@@ 89278
eca 89277
anz@@ 89276
Kofi 89275
satisf@@ 89274
Premio 89273
empleada 89272
entretanto 89271
ólogos 89270
aplicara 89269
ab 89268
violaron 89267
posi@@ 89266
tele@@ 89265
TPCE 89264
LO 89263
investigando 89262
sticos 89261
Ne@@ 89260
recogen 89259
reconocía 89258
creencia 89257
igual@@ 89256
cerrar 89255
sufrió 89254
famili@@ 89253
acc@@ 89252
dictada 89251
previsibles 89250
rlas 89249
imparten 89248
nic@@ 89247
causan 89246
químico 89245
cuestionarios 89244
C. 89243
denunciado 89242
lograron 89241
citados 89240
Ku@@ 89239
UNMISS 89238
XIX 89237
sincero 89236
impartió 89235
Migr@@ 89234
ecológicos 89233
ejerza 89232
intrínsec@@ 89231
PS 89230
Contratos 89229
equit@@ 89228
sionales 89227
mantuvieron 89226
beneficiario 89225
asta 89224
estall@@ 89223
comunicaron 89222
islámica 89221
orado 89220
Este 89219
inclusiva 89218
combinado 89217
encomendó 89216
contramedidas 89215
Observatorio 89214
manufac@@ 89213
oto@@ 89212
ayudaría 89211
hectáreas 89210
Legislativo 89209
conceden 89208
constituirá 89207
multinacional 89206
esclavos 89205
invitará 89204
dictámenes 89203
patentes 89202
excluye 89201
especificar 89200
occidentales 89199
completas 89198
laudo 89197
SIIG 89196
224 89195
ti 89194
til@@ 89193
ocurrió 89192
queo 89191
agas 89190
rep@@ 89189
Adolescencia 89188
punible 89187
bec@@ 89186
esqu@@ 89185
padeci@@ 89184
Buenos 89183
fotogr@@ 89182
Facilit@@ 89181
US@@ 89180
agradeci@@ 89179
glob@@ 89178
castigado 89177
reparar 89176
denegar 89175
mad@@ 89174
Misiones 89173
amina 89172
asal@@ 89171
soli@@ 89170
croata 89169
buscando 89168
SECRETARIO 89167
Campaña 89166
autoevaluación 89165
Tor@@ 89164
Línea 89163
consultoría 89162
refugios 89161
muer@@ 89160
secret@@ 89159
265 89158
escucha 89157
bel@@ 89156
1968 89155
Mil@@ 89154
odi@@ 89153
consistía 89152
norte@@ 89151
comparativas 89150
Administrativa 89149
delic@@ 89148
Xenofobia 89147
Blan@@ 89146
SG 89145
conocidas 89144
afili@@ 89143
decenas 89142
inspeccion@@ 89141
entregar 89140
obstaculizan 89139
biotecnología 89138
discu@@ 89137
lej@@ 89136
tero 89135
contable 89134
decret@@ 89133
Fundamentales 89132
revolución 89131
GEI 89130
alimentarios 89129
Dakar 89128
agradezco 89127
Nación 89126
articul@@ 89125
respetan 89124
encomió 89123
Part 89122
iente 89121
psiquiátr@@ 89120
lleguen 89119
219 89118
logísticos 89117
entradas 89116
destinar 89115
18º 89114
interpretaciones 89113
cuar@@ 89112
erlos 89111
exigía 89110
insistir 89109
May@@ 89108
subray@@ 89107
77@@ 89106
decimo@@ 89105
caída 89104
prim@@ 89103
ás@@ 89102
demor@@ 89101
mercen@@ 89100
Memorando 89099
celebramos 89098
combates 89097
XVII 89096
acordes 89095
plique 89094
rech@@ 89093
obtuvieron 89092
caracterizado 89091
ardu@@ 89090
dispers@@ 89089
prenatal 89088
acogen 89087
OR 89086
invier@@ 89085
pronunció 89084
Criminal 89083
asimil@@ 89082
equitativas 89081
justificado 89080
centraron 89079
60.000 89078
culo 89077
hurac@@ 89076
disfrutan 89075
arquitectura 89074
Brunei 89073
Rehabilitación 89072
etos 89071
reveló 89070
introductoria 89069
precisar 89068
reflejado 89067
pur@@ 89066
razonablemente 89065
tempr@@ 89064
ariz@@ 89063
Ver@@ 89062
table 89061
darle 89060
ideales 89059
necesitados 89058
ba@@ 89057
neos 89056
vo@@ 89055
AM 89054
dor@@ 89053
rest@@ 89052
óg@@ 89051
sper@@ 89050
ejercido 89049
dispararon 89048
severas 89047
Armon@@ 89046
Especi@@ 89045
resal@@ 89044
dictadas 89043
teoría 89042
atend@@ 89041
recomendaron 89040
FECHA 89039
endencia 89038
mantuviera 89037
décadas 89036
olución 89035
condenar 89034
protesta 89033
Aires 89032
entación 89031
incisos 89030
mex@@ 89029
correcto 89028
prestaron 89027
bloque@@ 89026
voluntariado 89025
perten@@ 89024
mostraron 89023
jubil@@ 89022
QU@@ 89021
Oce@@ 89020
Magistrado 89019
em 89018
recep@@ 89017
enriqu@@ 89016
golpe 89015
dif@@ 89014
cámaras 89013
rero 89012
Ottawa 89011
Pol@@ 89010
transmitirle 89009
R. 89008
disu@@ 89007
definitivamente 89006
onía 89005
aconsej@@ 89004
estuvi@@ 89003
reit@@ 89002
reconstruir 89001
Gra@@ 89000
sumarse 88999
desproporcionada 88998
concord@@ 88997
pobre 88996
CL@@ 88995
land 88994
monetaria 88993
Ha@@ 88992
Granada 88991
facilitaría 88990
históricas 88989
diputados 88988
analítica 88987
idénticas 88986
examinaran 88985
presentaría 88984
Cop@@ 88983
quedará 88982
terror 88981
sensible 88980
Agrícola 88979
Inteligencia 88978
14.45 88977
umbr@@ 88976
enví@@ 88975
guardia 88974
fisible 88973
avanzados 88972
respon@@ 88971
He@@ 88970
encargó 88969
lor@@ 88968
esforzándose 88967
permítame 88966
Ak@@ 88965
retener 88964
otas 88963
Accra 88962
adver@@ 88961
radiodifusión 88960
recibían 88959
carteles 88958
defendi@@ 88957
agradecer@@ 88956
avanzadas 88955
00.000 88954
aranceles 88953
K. 88952
atravi@@ 88951
Genocidio 88950
Un@@ 88949
idi@@ 88948
inicie 88947
inicia 88946
diseñado 88945
menoscabar 88944
menester 88943
extraer 88942
cuadri@@ 88941
adelant@@ 88940
titud 88939
forense 88938
acerc@@ 88937
compartido 88936
experim@@ 88935
probabilidades 88934
inmunodeficiencia 88933
idoneidad 88932
casadas 88931
jamás 88930
atario 88929
lógico 88928
condado 88927
alarmante 88926
rechazado 88925
asistido 88924
ducción 88923
UL@@ 88922
19º 88921
abu@@ 88920
fuere 88919
deten@@ 88918
1950 88917
escenario 88916
intentado 88915
liter@@ 88914
efectuada 88913
taria 88912
anta 88911
autob@@ 88910
vejez 88909
Propiedad 88908
alice 88907
diversi@@ 88906
designada 88905
Gaceta 88904
industrialización 88903
presentase 88902
Deb@@ 88901
migrante 88900
ác@@ 88899
John 88898
tipificados 88897
ADA 88896
rent@@ 88895
discre@@ 88894
TR@@ 88893
administrado 88892
evolucion@@ 88891
ane 88890
subsidi@@ 88889
inver@@ 88888
ustedes 88887
fruto 88886
D.C. 88885
tiende 88884
ús@@ 88883
reclasi@@ 88882
colonialismo 88881
excelencia 88880
ami 88879
Macao 88878
prosigue 88877
Cumplimiento 88876
iraníes 88875
infecciosas 88874
Post 88873
depender 88872
acordar 88871
procedi@@ 88870
cuadrados 88869
SO@@ 88868
influyen 88867
propicias 88866
acondicion@@ 88865
Democrá@@ 88864
landés 88863
escati@@ 88862
multinacionales 88861
reiteramos 88860
RESUMIDA 88859
darles 88858
Delitos 88857
actuado 88856
conformes 88855
inhumano 88854
previsibilidad 88853
superávit 88852
digitales 88851
EPU 88850
289 88849
matriz 88848
Azul 88847
motor 88846
Regionales 88845
refriger@@ 88844
partiendo 88843
secreta 88842
Entidad 88841
reseñ@@ 88840
constituyan 88839
ore@@ 88838
reclamar 88837
ept@@ 88836
registra 88835
continuas 88834
formales 88833
di 88832
aliento 88831
definida 88830
paciente 88829
255 88828
jes 88827
contratantes 88826
Dom@@ 88825
PRESENTADOS 88824
miedo 88823
Deportes 88822
3.2 88821
ejerzan 88820
cristi@@ 88819
promet@@ 88818
incorpore 88817
marca 88816
ribereños 88815
Rev@@ 88814
densidad 88813
Hi@@ 88812
apellido 88811
administrador 88810
actor 88809
Kam@@ 88808
aretz 88807
275 88806
suelos 88805
convocó 88804
abstengan 88803
entran 88802
analiza 88801
págs. 88800
minoritarias 88799
suspen@@ 88798
hábit@@ 88797
requiera 88796
30.@@ 88795
desalojos 88794
atin@@ 88793
16ª 88792
aportó 88791
irlo 88790
iglesias 88789
computadora 88788
empres@@ 88787
dinares 88786
reflexionar 88785
enio 88784
implíci@@ 88783
450 88782
mí 88781
administra 88780
coopera 88779
sico 88778
supervisores 88777
traducir@@ 88776
Sar@@ 88775
Au@@ 88774
coordenadas 88773
consultivos 88772
Sim@@ 88771
copresidentes 88770
tun@@ 88769
anot@@ 88768
preocupando 88767
confidenciales 88766
elo 88765
derro@@ 88764
inyec@@ 88763
blo@@ 88762
ü@@ 88761
ton@@ 88760
Excelentísimo 88759
sistemáticos 88758
donante 88757
sirios 88756
deserción 88755
portátiles 88754
participaban 88753
consignar 88752
termina 88751
pondrán 88750
12.00 88749
iz 88748
constar 88747
modifica 88746
líci@@ 88745
sirvan 88744
16,@@ 88743
Tonga 88742
tamos 88741
aprueben 88740
reas 88739
15ª 88738
plantearon 88737
turco 88736
suplementaria 88735
europeas 88734
xi@@ 88733
fera 88732
declaradas 88731
vienen 88730
próximamente 88729
intermediarios 88728
ester@@ 88727
marítimos 88726
tent@@ 88725
corchetes 88724
283 88723
XVI 88722
17ª 88721
energías 88720
PAC@@ 88719
persiste 88718
azón 88717
facilitador 88716
potencia 88715
condenada 88714
deficiencia 88713
encabezada 88712
Verdad 88711
Prácticas 88710
acreditadas 88709
sul@@ 88708
reproduce 88707
apunt@@ 88706
profesiones 88705
obtienen 88704
DIRIGIDA 88703
áb@@ 88702
Mc@@ 88701
expresan 88700
seria 88699
239 88698
reconozcan 88697
BR@@ 88696
áu@@ 88695
banda 88694
examinaría 88693
olu@@ 88692
ezas 88691
transcurridos 88690
tela 88689
comenzaría 88688
protec@@ 88687
insto 88686
envíos 88685
sto@@ 88684
pagan 88683
extremo 88682
64@@ 88681
amenazan 88680
ben@@ 88679
satisfactorias 88678
dista 88677
Palau 88676
adecuación 88675
25.000 88674
3,5 88673
305 88672
generadores 88671
reunirá 88670
landes@@ 88669
importadores 88668
comun@@ 88667
hel@@ 88666
pronunciarse 88665
firmada 88664
Procuraduría 88663
aceite 88662
sugerido 88661
extender 88660
estipuladas 88659
desgr@@ 88658
cocaína 88657
explosiones 88656
pares 88655
éd@@ 88654
implicados 88653
flujo 88652
cabida 88651
manej@@ 88650
awa 88649
Amnistía 88648
Association 88647
monogr@@ 88646
artesan@@ 88645
245 88644
uses 88643
surgen 88642
atribuirse 88641
candidatas 88640
sinceramente 88639
9.000 88638
dulce 88637
mm 88636
microempresas 88635
sanidad 88634
desventaja 88633
revise 88632
albaneses 88631
272 88630
matriculados 88629
erías 88628
estudiara 88627
despido 88626
PAN 88625
colaboren 88624
orcio 88623
Gales 88622
semillas 88621
beneficien 88620
vir@@ 88619
AR 88618
ísticas 88617
nacer 88616
consignan 88615
uniform@@ 88614
marse 88613
permitiendo 88612
sing@@ 88611
validación 88610
atra@@ 88609
OACI 88608
estudiado 88607
IDAD 88606
carencias 88605
emisoras 88604
entregado 88603
abarcaba 88602
ance 88601
concursos 88600
inadecuada 88599
genéticos 88598
orías 88597
Ocho 88596
bat@@ 88595
castiga 88594
pasaportes 88593
supera 88592
Curso 88591
quedaba 88590
periodo 88589
liberar 88588
atu@@ 88587
Administradora 88586
oponen 88585
consolidada 88584
educadores 88583
dejan 88582
sidad 88581
encontró 88580
52º 88579
verbales 88578
UN 88577
Observ@@ 88576
reafirmamos 88575
ahor@@ 88574
ke@@ 88573
saludable 88572
direc@@ 88571
llevarán 88570
indemniz@@ 88569
sia 88568
reproduc@@ 88567
activ@@ 88566
universalización 88565
psicológicos 88564
legado 88563
sincer@@ 88562
vean 88561
complacido 88560
Integral 88559
discreción 88558
bio 88557
fortalezca 88556
facturas 88555
Colaboración 88554
50º 88553
TIC@@ 88552
impart@@ 88551
atro@@ 88550
suministrada 88549
anse 88548
formulando 88547
cometi@@ 88546
dest@@ 88545
reconoc@@ 88544
cumplirse 88543
congres@@ 88542
realistas 88541
rápidos 88540
261 88539
ocupaban 88538
rendi@@ 88537
negligencia 88536
mezqu@@ 88535
problem@@ 88534
penalización 88533
Electró@@ 88532
cier@@ 88531
hiri@@ 88530
previos 88529
compl@@ 88528
RES@@ 88527
conduci@@ 88526
vecindad 88525
eliminado 88524
áctica 88523
Lusaka 88522
patente 88521
manifestantes 88520
ís@@ 88519
cabía 88518
idén@@ 88517
To@@ 88516
violentas 88515
sucesos 88514
tributación 88513
servidores 88512
cruce 88511
descendientes 88510
atis@@ 88509
perjudicial 88508
jerárqu@@ 88507
Observaciones 88506
jerarquía 88505
permitieran 88504
citadas 88503
universidad 88502
utilizaban 88501
plantearse 88500
adjudicadora 88499
Contacto 88498
lingüística 88497
ferencia 88496
comprar 88495
cho 88494
explíci@@ 88493
salvaguar@@ 88492
sufridos 88491
leer 88490
adul@@ 88489
conceda 88488
olvidar 88487
localizar 88486
sen 88485
Patri@@ 88484
1.4@@ 88483
intermediación 88482
aplicaran 88481
nes 88480
Cuerpo 88479
satisfac@@ 88478
forjar 88477
Experta 88476
recicl@@ 88475
servidumbre 88474
conciliar 88473
respetu@@ 88472
cruciales 88471
retira 88470
idóneas 88469
contradicción 88468
tsunami 88467
256 88466
programadas 88465
tam@@ 88464
intenta 88463
ses@@ 88462
explorar 88461
Escocia 88460
PRE@@ 88459
adhieran 88458
favore@@ 88457
prorro@@ 88456
itarias 88455
salarial 88454
suplementarios 88453
š@@ 88452
orígenes 88451
Ori@@ 88450
crónica 88449
oce@@ 88448
deseados 88447
incomunicación 88446
PER@@ 88445
ESA 88444
ratifiquen 88443
anticipada 88442
Pat@@ 88441
51º 88440
titularidad 88439
traducir 88438
peligrosa 88437
velen 88436
desmantel@@ 88435
vivi@@ 88434
18ª 88433
impugnar 88432
Actu@@ 88431
ices 88430
lanzado 88429
Ap@@ 88428
ambici@@ 88427
rol@@ 88426
respons@@ 88425
sufre 88424
cad@@ 88423
comport@@ 88422
MD@@ 88421
pagadas 88420
55@@ 88419
vuelve 88418
bancario 88417
1,2 88416
precep@@ 88415
ash 88414
fauna 88413
Examinar 88412
alum@@ 88411
originalmente 88410
Discriminaciones 88409
emprendió 88408
elogió 88407
Bal@@ 88406
cial 88405
contemplados 88404
11.00 88403
recibirá 88402
zaje 88401
itali@@ 88400
asum@@ 88399
human@@ 88398
arancelarias 88397
Comun@@ 88396
progenitor 88395
icanas 88394
defens@@ 88393
desapareci@@ 88392
fuesen 88391
aborde 88390
OU@@ 88389
quieren 88388
PL@@ 88387
Antár@@ 88386
ul 88385
emplean 88384
interministerial 88383
centenares 88382
consignado 88381
procesados 88380
logren 88379
our@@ 88378
promot@@ 88377
conducido 88376
sufrieron 88375
incorporando 88374
elem@@ 88373
curr@@ 88372
podamos 88371
gasolina 88370
complementan 88369
liquidez 88368
clubes 88367
ero@@ 88366
indivi@@ 88365
legislaciones 88364
fundación 88363
incans@@ 88362
1.5@@ 88361
Nuclear 88360
cuidar 88359
prorrat@@ 88358
prorrog@@ 88357
indicada 88356
usu@@ 88355
dedicarse 88354
Darussalam 88353
publican 88352
detallan 88351
antemente 88350
revela 88349
resulten 88348
insuficientemente 88347
acen 88346
literales 88345
fomenten 88344
nocivos 88343
crimin@@ 88342
ónica 88341
intensificando 88340
confusión 88339
med@@ 88338
circ@@ 88337
stru@@ 88336
garantizará 88335
paralelas 88334
velocidad 88333
Humanitario 88332
perpetrado 88331
corpus 88330
reúna 88329
desempeñe 88328
Interamericano 88327
ORGANIZ@@ 88326
forenses 88325
permanecido 88324
catalizador 88323
vulneración 88322
Han@@ 88321
abordó 88320
Teherán 88319
cido 88318
IF@@ 88317
percibir 88316
eter@@ 88315
Uni@@ 88314
229 88313
afirmativo 88312
GTE 88311
transportes 88310
tomara 88309
ejerciendo 88308
campesinos 88307
asignada 88306
llamar 88305
epígrafe 88304
impartido 88303
262 88302
hered@@ 88301
brig@@ 88300
alle 88299
explican 88298
optimi@@ 88297
fur@@ 88296
saben 88295
orias 88294
consigo 88293
strucción 88292
ich 88291
som@@ 88290
ö@@ 88289
pozos 88288
recu@@ 88287
incum@@ 88286
solucion@@ 88285
simul@@ 88284
Aspectos 88283
formulara 88282
cli@@ 88281
integren 88280
afirm@@ 88279
municipalidades 88278
rehabilitar 88277
intimid@@ 88276
PRESIDENTA 88275
AC 88274
incluiría 88273
batallón 88272
pondría 88271
valora 88270
Naqura 88269
constructivas 88268
fragmentación 88267
intermedi@@ 88266
triangular 88265
fall@@ 88264
desembolsos 88263
raíces 88262
recibirán 88261
variación 88260
sacri@@ 88259
perman@@ 88258
dilación 88257
autorice 88256
musulmana 88255
Arm@@ 88254
dónde 88253
susceptibles 88252
acrec@@ 88251
Prestación 88250
diariamente 88249
circul@@ 88248
OMM 88247
sobrevolaron 88246
soborno 88245
Cuentas 88244
78@@ 88243
17,@@ 88242
trope@@ 88241
tino 88240
brasile@@ 88239
Mundi@@ 88238
acuer@@ 88237
levantar 88236
requeridos 88235
Estratég@@ 88234
Encuesta 88233
Resistencia 88232
áneo 88231
afiliadas 88230
pertenec@@ 88229
fortalec@@ 88228
292 88227
analizando 88226
ain@@ 88225
matricul@@ 88224
elaborara 88223
Rural 88222
nutricional 88221
planteaba 88220
Gastos 88219
jeran 88218
franco 88217
carbón 88216
1267 88215
bienales 88214
erosión 88213
cant@@ 88212
elogi@@ 88211
inti@@ 88210
consiguientes 88209
aparato 88208
ajenas 88207
sosten@@ 88206
ae 88205
deficientes 88204
pluralismo 88203
enfoc@@ 88202
ocupará 88201
protestas 88200
proyección 88199
convencional 88198
escen@@ 88197
cualificados 88196
unda 88195
pasada 88194
Sol@@ 88193
china 88192
volúmenes 88191
mil@@ 88190
inocencia 88189
logía 88188
cometa 88187
ficando 88186
conozcan 88185
recalc@@ 88184
instaurar 88183
reducirse 88182
1964 88181
plá@@ 88180
aka 88179
estime 88178
è@@ 88177
288 88176
inexistencia 88175
mejorarse 88174
ordenamientos 88173
Te@@ 88172
259 88171
observamos 88170
we@@ 88169
comprobados 88168
uti@@ 88167
finalizó 88166
263 88165
armonizado 88164
expuso 88163
País 88162
ler 88161
frágil 88160
Asi@@ 88159
enten 88158
eventual 88157
ner@@ 88156
estudien 88155
sentimiento 88154
exactamente 88153
Pi@@ 88152
estigmatización 88151
Rectores 88150
eje 88149
dura 88148
egro 88147
18,@@ 88146
63@@ 88145
recib@@ 88144
colocar 88143
milicia 88142
notificó 88141
oficiosos 88140
ced@@ 88139
actuarial 88138
accion@@ 88137
concertadas 88136
atras@@ 88135
1958 88134
auto 88133
recogidas 88132
subrayado 88131
54º 88130
espiritual 88129
HCFC 88128
arizados 88127
guías 88126
forz@@ 88125
albergues 88124
microcrédito 88123
Chi@@ 88122
tipificación 88121
construido 88120
someta 88119
gradu@@ 88118
Groenlandia 88117
257 88116
Repertorio 88115
prolon@@ 88114
estrictos 88113
precaria 88112
elaboradas 88111
var@@ 88110
valid@@ 88109
otorgan 88108
generados 88107
dría 88106
Nombramiento 88105
Abidján 88104
uros 88103
Tur@@ 88102
soldado 88101
300.000 88100
relevantes 88099
recolección 88098
afganas 88097
parlamentario 88096
ung 88095
contado 88094
potencialmente 88093
elig@@ 88092
educacional 88091
GNUD 88090
subtemas 88089
unt@@ 88088
análoga 88087
Hí@@ 88086
respir@@ 88085
Red@@ 88084
ي@@ 88083
Secret@@ 88082
Ob@@ 88081
necesitadas 88080
ultim@@ 88079
menos@@ 88078
descart@@ 88077
cursillos 88076
prove@@ 88075
Ahmed 88074
terapéu@@ 88073
Bermudas 88072
FIC@@ 88071
yeran 88070
Provincia 88069
Hel@@ 88068
cem@@ 88067
extiende 88066
extraterritorial 88065
andés 88064
serbia 88063
285 88062
decididamente 88061
satis@@ 88060
sicotrópicas 88059
opinaron 88058
sivamente 88057
ue 88056
Penitenciario 88055
Sustancias 88054
modernizar 88053
convocado 88052
damos 88051
afrontan 88050
TRABA@@ 88049
facilitara 88048
CONVENCIÓN 88047
continuada 88046
refirieron 88045
comparecencia 88044
fidedigna 88043
FPA 88042
Científicos 88041
excus@@ 88040
Estudi@@ 88039
4,5 88038
litigios 88037
facultativos 88036
vini@@ 88035
aportando 88034
284 88033
.3 88032
ases 88031
asignen 88030
cómplic@@ 88029
Aprob@@ 88028
conexiones 88027
hostiles 88026
moderación 88025
desempeñó 88024
viviendo 88023
financiada 88022
preserv@@ 88021
Nauru 88020
lazos 88019
claves 88018
prudente 88017
ORM@@ 88016
Francesa 88015
resum@@ 88014
Santiago 88013
fortalezcan 88012
mostrar 88011
perfectamente 88010
CTPD 88009
comete 88008
únicos 88007
acepte 88006
primavera 88005
sucesivos 88004
sím@@ 88003
prestaba 88002
impresos 88001
bar 88000
planteada 87999
inviolabilidad 87998
íos 87997
asesor@@ 87996
convirtió 87995
425 87994
bra 87993
Reuniones 87992
agregar 87991
facilitadores 87990
can 87989
áfico 87988
bandas 87987
sud@@ 87986
yu@@ 87985
Revisión 87984
distribuyeron 87983
Nations 87982
sugirieron 87981
tipificar 87980
traslados 87979
paralela 87978
B.@@ 87977
compañ@@ 87976
Mah@@ 87975
transmiten 87974
explor@@ 87973
negar 87972
infring@@ 87971
resultaba 87970
ho 87969
Gal@@ 87968
insti@@ 87967
280 87966
365 87965
Cuarteto 87964
transmitida 87963
aliente 87962
Super@@ 87961
tera 87960
Pap@@ 87959
OC@@ 87958
rusa 87957
suicidio 87956
especificaciones 87955
aclamación 87954
CRP.1 87953
comandantes 87952
inscrito 87951
quisiéramos 87950
imponerse 87949
usan 87948
contará 87947
pesqueros 87946
And@@ 87945
energético 87944
ardo 87943
esposo 87942
Ŷ@@ 87941
supuesta 87940
ocupaciones 87939
gratu@@ 87938
UIT 87937
relevancia 87936
autorizaciones 87935
superado 87934
devol@@ 87933
solicitadas 87932
llevaba 87931
ecas 87930
pusieran 87929
desarrollen 87928
dedi@@ 87927
impul@@ 87926
diversificar 87925
decididos 87924
somete 87923
individualmente 87922
habi@@ 87921
brindó 87920
Garantizar 87919
Velar 87918
humill@@ 87917
encuentro 87916
pico 87915
congru@@ 87914
detalla 87913
ordenado 87912
transferido 87911
OD@@ 87910
Impuestos 87909
canadienses 87908
Vicepresidenta 87907
juegos 87906
Coordinadora 87905
acusada 87904
alegación 87903
L.3 87902
dica 87901
círculo 87900
climáticos 87899
asume 87898
opera 87897
categór@@ 87896
esfuerza 87895
Medios 87894
comprendida 87893
negarse 87892
turcochipriotas 87891
usas 87890
restitu@@ 87889
abandonados 87888
Os@@ 87887
vie@@ 87886
Privado 87885
preparan 87884
facilidad 87883
vender 87882
prostitu@@ 87881
pactos 87880
terci@@ 87879
290 87878
torturado 87877
extend@@ 87876
AT 87875
Tecnológica 87874
lev@@ 87873
señal 87872
camiones 87871
Aruba 87870
trataron 87869
desarrollarse 87868
extranjería 87867
evidentes 87866
didáctico 87865
reiteradamente 87864
elegidas 87863
demos 87862
cami@@ 87861
dignos 87860
79@@ 87859
involucradas 87858
fab@@ 87857
tribuna 87856
aprobará 87855
institucionalización 87854
ICCD 87853
aline@@ 87852
ferrocarri@@ 87851
HRI 87850
escrit@@ 87849
19ª 87848
we 87847
comunica 87846
reglamentarios 87845
hostilidad 87844
egu@@ 87843
suces@@ 87842
TRA@@ 87841
presupuestadas 87840
prevea 87839
verti@@ 87838
líder 87837
Isla 87836
IN 87835
vuelvan 87834
Adicional 87833
éndolo 87832
reflejaba 87831
fir@@ 87830
participativa 87829
estrales 87828
comuniquen 87827
halla 87826
cadá@@ 87825
cuantitativos 87824
hospital@@ 87823
JS@@ 87822
analizan 87821
muebles 87820
plenos 87819
prolongadas 87818
unido 87817
subterráneas 87816
provocó 87815
dióxido 87814
Sil@@ 87813
Conclu@@ 87812
motivados 87811
Je@@ 87810
cantones 87809
Ci@@ 87808
conten@@ 87807
dominación 87806
embar@@ 87805
ulti@@ 87804
SP@@ 87803
certeza 87802
corresponder@@ 87801
Hebrón 87800
cotiz@@ 87799
polio 87798
XVIII 87797
reanu@@ 87796
iro 87795
británicos 87794
convierta 87793
estimulantes 87792
desventajas 87791
psic@@ 87790
chil@@ 87789
clasificaciones 87788
IV@@ 87787
cub@@ 87786
consul@@ 87785
reciclado 87784
ofrecerá 87783
afecte 87782
lentitud 87781
ánico 87780
ém@@ 87779
Saint 87778
GO@@ 87777
comandante 87776
demand@@ 87775
válidas 87774
Empoderamiento 87773
automatización 87772
iniciada 87771
adjudicación 87770
pesada 87769
pudi@@ 87768
tomarán 87767
MERCOSUR 87766
predeci@@ 87765
aud@@ 87764
distinciones 87763
eslo@@ 87762
Conse@@ 87761
XL@@ 87760
rer 87759
distribuirá 87758
impuso 87757
acudir 87756
temporarios 87755
traten 87754
ame 87753
coment@@ 87752
ascenso 87751
rin@@ 87750
denominados 87749
revisando 87748
asu@@ 87747
Centrales 87746
solid@@ 87745
Memoria 87744
restringido 87743
Caimán 87742
deplora 87741
alentadores 87740
nómadas 87739
1514 87738
pañ@@ 87737
cív@@ 87736
unificación 87735
Competencia 87734
estilo 87733
Add.5 87732
diligencias 87731
liberi@@ 87730
espectro 87729
enos 87728
unes 87727
contenían 87726
adversas 87725
exclusivo 87724
cumplieran 87723
injusticia 87722
degradante 87721
sep@@ 87720
kuwaití 87719
hum@@ 87718
80@@ 87717
análogos 87716
alguien 87715
atribuir 87714
reflejo 87713
ampliarse 87712
acho 87711
lat@@ 87710
resumi@@ 87709
minimizar 87708
53º 87707
presentaba 87706
puertas 87705
transportar 87704
placer 87703
Américas 87702
calendarios 87701
anulación 87700
def@@ 87699
bin 87698
Delhi 87697
duradero 87696
burocr@@ 87695
arbitrariamente 87694
adeudadas 87693
esquema 87692
MINURCAT 87691
286 87690
válidos 87689
rique@@ 87688
Afr@@ 87687
Elaborar 87686
&lt; 87685
refuerza 87684
prorrogado 87683
colon@@ 87682
VNU 87681
mol@@ 87680
ponían 87679
indefin@@ 87678
vas 87677
aulas 87676
consistir 87675
libanesas 87674
ue@@ 87673
gráficos 87672
Mari@@ 87671
pluri@@ 87670
Ve@@ 87669
parentales 87668
Hammarskjöld 87667
desi@@ 87666
evalúa 87665
Ha 87664
transgre@@ 87663
Dag 87662
ocupando 87661
ámicos 87660
civilización 87659
abrevi@@ 87658
Represent@@ 87657
2.3 87656
corrobor@@ 87655
suspendido 87654
atribución 87653
Balcanes 87652
Oper@@ 87651
parlamento 87650
reglamentario 87649
comprobado 87648
4.1 87647
ascensos 87646
contrarios 87645
eléctricas 87644
resume 87643
INTERPOL 87642
prepararon 87641
adjuntos 87640
&gt; 87639
Abuja 87638
rati@@ 87637
proporcionalidad 87636
sedi@@ 87635
imagin@@ 87634
matanza 87633
gencia 87632
Cooper@@ 87631
evento 87630
burgo 87629
componen 87628
restaurar 87627
operativas 87626
evitando 87625
ard@@ 87624
antiles 87623
lap@@ 87622
Fi@@ 87621
vigilando 87620
1.8@@ 87619
abarcado 87618
sustitúyase 87617
recomendados 87616
balísticos 87615
ecológicas 87614
prosiguió 87613
anto 87612
indicaban 87611
Reg@@ 87610
negociado 87609
AD 87608
afirmaba 87607
Indemnización 87606
Children 87605
reten@@ 87604
mutil@@ 87603
películas 87602
neo@@ 87601
sint@@ 87600
atent@@ 87599
brit@@ 87598
calentamiento 87597
rá@@ 87596
gocen 87595
acce@@ 87594
DEC@@ 87593
afectaban 87592
sk@@ 87591
287 87590
alcanza 87589
publicarán 87588
1965 87587
ajo 87586
read@@ 87585
arra@@ 87584
dejando 87583
proximidad 87582
indebidamente 87581
yo@@ 87580
fisc@@ 87579
304 87578
montos 87577
OMPI 87576
11.30 87575
desempeñen 87574
desmantelamiento 87573
agregado 87572
parec@@ 87571
determinantes 87570
monum@@ 87569
secretario 87568
ecuatori@@ 87567
cercanos 87566
reguladores 87565
bomba 87564
entablado 87563
respaldado 87562
privilegi@@ 87561
radiaciones 87560
destruido 87559
Adolesc@@ 87558
plaz@@ 87557
surjan 87556
Alimentaria 87555
hubiere 87554
tuvi@@ 87553
celda 87552
persist@@ 87551
UNIDIR 87550
proporciones 87549
econom@@ 87548
emplea 87547
tard@@ 87546
proteja 87545
designó 87544
primacía 87543
ariedad 87542
TOS 87541
equipamiento 87540
Elec@@ 87539
cibern@@ 87538
Proliferación 87537
enem@@ 87536
Kigali 87535
ie 87534
causó 87533
quedaban 87532
distinguido 87531
provecho 87530
Shi@@ 87529
antecede 87528
armamento 87527
líqu@@ 87526
Atlas 87525
ers 87524
célu@@ 87523
asent@@ 87522
instauración 87521
abajo 87520
patrull@@ 87519
Montserrat 87518
efectúa 87517
máximos 87516
solar 87515
efectuarse 87514
SI 87513
asuman 87512
zó 87511
1.3 87510
admitir 87509
únicas 87508
robu@@ 87507
contaban 87506
Disposiciones 87505
adopciones 87504
65@@ 87503
verificable 87502
recomendada 87501
deduci@@ 87500
ándolas 87499
copatrocin@@ 87498
automática 87497
conducción 87496
termine 87495
enales 87494
Watch 87493
recaudar 87492
ves 87491
elaborará 87490
Cal@@ 87489
267 87488
funcione 87487
55º 87486
jurisdiccionales 87485
tranqui@@ 87484
preve@@ 87483
281 87482
ET@@ 87481
sufridas 87480
determinante 87479
introdujeron 87478
Humanitaria 87477
Damasco 87476
10.30 87475
mejorará 87474
realizaban 87473
0,5 87472
sumaria 87471
evidencia 87470
atendidos 87469
reforzamiento 87468
afianz@@ 87467
Local 87466
Radi@@ 87465
millas 87464
destinatario 87463
entenderse 87462
Nuevas 87461
elemental 87460
revelan 87459
bit@@ 87458
adaptado 87457
naturalización 87456
nex@@ 87455
asequible 87454
devolver 87453
emen@@ 87452
clausur@@ 87451
enérg@@ 87450
Diplom@@ 87449
reduzcan 87448
heroína 87447
stir 87446
reca@@ 87445
bienios 87444
óptico 87443
irlos 87442
erit@@ 87441
tará 87440
Uniform@@ 87439
arr@@ 87438
vuel@@ 87437
empobreci@@ 87436
revistas 87435
requerían 87434
deseaba 87433
perseguir 87432
recesión 87431
atiende 87430
316 87429
monta@@ 87428
ándola 87427
democr@@ 87426
dificulta 87425
Goma 87424
elaborada 87423
comience 87422
obvi@@ 87421
expulsar 87420
suger@@ 87419
aduan@@ 87418
dedicó 87417
incluyeran 87416
uer@@ 87415
reiteradas 87414
expan@@ 87413
21º 87412
estipulados 87411
calles 87410
Mogadiscio 87409
cumplían 87408
1,3 87407
Pactos 87406
envía 87405
iten 87404
requeridas 87403
1.7@@ 87402
conmemorar 87401
configur@@ 87400
IMI@@ 87399
violando 87398
Mus@@ 87397
presa 87396
sirias 87395
asistan 87394
audiovisuales 87393
367 87392
46º 87391
Islam 87390
perdieron 87389
elabora 87388
refrend@@ 87387
cobro 87386
dictamin@@ 87385
iv@@ 87384
recogidos 87383
innovador 87382
Clasificación 87381
alban@@ 87380
Juan 87379
incentivo 87378
Plan@@ 87377
gustaría 87376
comerciantes 87375
Cen@@ 87374
comparar 87373
vea 87372
constitucionalidad 87371
regresado 87370
provocados 87369
planteamientos 87368
compone 87367
eos 87366
cula 87365
extremos 87364
teatro 87363
ensa 87362
Infraestructura 87361
Sat@@ 87360
valiosas 87359
750 87358
convocada 87357
automóviles 87356
1.6@@ 87355
obligatorios 87354
éndoles 87353
abrig@@ 87352
obstétrica 87351
87@@ 87350
extensa 87349
ier@@ 87348
ocasi@@ 87347
estrechas 87346
organizará 87345
alicen 87344
expropi@@ 87343
ogar 87342
jeron 87341
sospech@@ 87340
aclor@@ 87339
ácticos 87338
comprometerse 87337
Hamas 87336
Hom@@ 87335
Len@@ 87334
Autónom@@ 87333
dios 87332
margin@@ 87331
operativa 87330
hen@@ 87329
sumo 87328
unánime 87327
Presentación 87326
bacteri@@ 87325
áridas 87324
dispondrá 87323
establecerán 87322
adura 87321
favorece 87320
Establ@@ 87319
preventivos 87318
jord@@ 87317
ólicas 87316
Can@@ 87315
puls@@ 87314
GA@@ 87313
indag@@ 87312
corre@@ 87311
aprendi@@ 87310
here@@ 87309
elogia 87308
comparativa 87307
resist@@ 87306
zada 87305
turca 87304
atarios 87303
endeudamiento 87302
atacar 87301
regularidad 87300
marginadas 87299
multidisciplinario 87298
ku@@ 87297
catástrofes 87296
éxo@@ 87295
hici@@ 87294
agravado 87293
impedimentos 87292
Cons@@ 87291
ESPEC@@ 87290
necesitaría 87289
concentra 87288
manifiestamente 87287
probar 87286
cursar 87285
representaron 87284
Anguila 87283
itarios 87282
Vo@@ 87281
85@@ 87280
Facultativos 87279
suizos 87278
DOS 87277
Hospital 87276
lic@@ 87275
BRE 87274
litros 87273
excluidas 87272
DER@@ 87271
ficios 87270
aplicaban 87269
complicaciones 87268
arizada 87267
publicadas 87266
Reconstrucción 87265
respectivo 87264
fijada 87263
comprenda 87262
plurianual 87261
advierte 87260
DD@@ 87259
PRES@@ 87258
asegurado 87257
castigados 87256
Incluye 87255
contrarrest@@ 87254
confron@@ 87253
subregiones 87252
rechazada 87251
divor@@ 87250
Básicos 87249
prefec@@ 87248
canadiense 87247
antías 87246
otorgante 87245
Relatores 87244
ficas 87243
cumplía 87242
aislados 87241
permitirse 87240
enérgica 87239
279 87238
árboles 87237
admite 87236
expresamos 87235
celer@@ 87234
otoño 87233
recalcó 87232
absolu@@ 87231
ubicados 87230
49º 87229
Inversión 87228
grecochipriotas 87227
Contribu@@ 87226
viudas 87225
Viceprimer 87224
carpe@@ 87223
delictiva 87222
ARTÍCULO 87221
268 87220
ova 87219
retorn@@ 87218
ela 87217
corrup@@ 87216
monit@@ 87215
contraven@@ 87214
permitirían 87213
1.9@@ 87212
copatrocinadores 87211
aprobarse 87210
formalmente 87209
comparable 87208
femeninas 87207
Caicos 87206
reubicación 87205
Procedimientos 87204
nórdicos 87203
Fuego 87202
refun@@ 87201
maquinaria 87200
bul@@ 87199
Tecnológico 87198
conced@@ 87197
impartida 87196
descuido 87195
atendidas 87194
fan@@ 87193
Acceso 87192
reafirmado 87191
Inmun@@ 87190
Suministros 87189
cas 87188
puni@@ 87187
lubricantes 87186
Seguro 87185
sufriendo 87184
Adaptación 87183
acuci@@ 87182
recinto 87181
deplor@@ 87180
277 87179
emp@@ 87178
proyecta 87177
4.2 87176
secretarios 87175
Ocupado 87174
cuidad@@ 87173
abordando 87172
agraria 87171
partos 87170
deni@@ 87169
mantener@@ 87168
Vuestra 87167
respetado 87166
mensur@@ 87165
ide 87164
controlados 87163
desaparecido 87162
Elena 87161
Bou@@ 87160
legitim@@ 87159
riego 87158
escog@@ 87157
Juntas 87156
argel@@ 87155
Famili@@ 87154
analizó 87153
Edad 87152
vin@@ 87151
alimenti@@ 87150
gio 87149
indefinida 87148
sancionado 87147
escolaridad 87146
consegu@@ 87145
antigüedad 87144
especificados 87143
llevaban 87142
Cir@@ 87141
90@@ 87140
desarrolló 87139
bil 87138
ánimo 87137
deliberada 87136
produ@@ 87135
indul@@ 87134
valiosos 87133
periodista 87132
č@@ 87131
ofrecidas 87130
Consider@@ 87129
medio@@ 87128
19,@@ 87127
vencia 87126
ayudarlos 87125
Continu@@ 87124
Fortalecer 87123
99@@ 87122
caban 87121
Separación 87120
munición 87119
peren 87118
continuarán 87117
madurez 87116
Av@@ 87115
rera 87114
Ste@@ 87113
Sen@@ 87112
rescate 87111
reciprocidad 87110
fraudul@@ 87109
ous@@ 87108
dificultan 87107
convivencia 87106
alo@@ 87105
Empresas 87104
nan 87103
endente 87102
iga 87101
ell@@ 87100
solicitaba 87099
aler@@ 87098
irregulares 87097
mediana 87096
Viceministro 87095
compartimos 87094
mineras 87093
OI@@ 87092
exigirá 87091
temperatura 87090
investigador 87089
trasladados 87088
coordinando 87087
16.30 87086
Pen@@ 87085
pretend@@ 87084
surgi@@ 87083
armoni@@ 87082
otorgada 87081
pacto 87080
discrep@@ 87079
paralelos 87078
fijadas 87077
colegios 87076
umb@@ 87075
falsas 87074
plantear@@ 87073
itiner@@ 87072
lares 87071
udos 87070
ED@@ 87069
llo 87068
correspon@@ 87067
islámicos 87066
pin@@ 87065
privacidad 87064
equ@@ 87063
vino 87062
Parlament@@ 87061
demostrada 87060
aplicaron 87059
intencional 87058
onas 87057
propag@@ 87056
már@@ 87055
vemos 87054
reduzca 87053
vela 87052
reglamentar 87051
consuetudinarias 87050
requeriría 87049
piensa 87048
ús 87047
LP 87046
Públicos 87045
alizando 87044
lítem 87043
impidan 87042
UNAMIR 87041
mixto 87040
unificada 87039
aso 87038
dirigen 87037
sabido 87036
hablan 87035
distorsion@@ 87034
británico 87033
decl@@ 87032
fabricantes 87031
cubanos 87030
Coordin@@ 87029
DES@@ 87028
resarci@@ 87027
manifiestas 87026
reactivación 87025
cruel 87024
egación 87023
ji 87022
ile 87021
impresion@@ 87020
interrelación 87019
uma 87018
Identi@@ 87017
derivado 87016
reducen 87015
presentaban 87014
aumentaría 87013
Guardia 87012
combinar 87011
impida 87010
fallecido 87009
deje 87008
eza 87007
sometió 87006
fortalecerse 87005
uk@@ 87004
Cla@@ 87003
siles 87002
provocación 87001
decidirá 87000
levante 86999
PNB 86998
embarcaciones 86997
anunciar 86996
débil 86995
Mag@@ 86994
eléctricos 86993
inmediatos 86992
convinc@@ 86991
síndrome 86990
saharau@@ 86989
íntegra 86988
278 86987
aridad 86986
prohib@@ 86985
referendo 86984
desnutrición 86983
Régimen 86982
Ingenier@@ 86981
granadas 86980
subsiguiente 86979
catástrofe 86978
pido 86977
Conservación 86976
disuasión 86975
islámico 86974
puente 86973
tantos 86972
artís@@ 86971
tanques 86970
indemnizar 86969
estudian 86968
Meteor@@ 86967
atizar 86966
salariales 86965
pent@@ 86964
Proces@@ 86963
L.4 86962
papeles 86961
paci@@ 86960
recurrido 86959
sirvió 86958
oqui@@ 86957
elegida 86956
otorgue 86955
mixtas 86954
ans 86953
mán 86952
eo 86951
primordialmente 86950
embajadores 86949
preparatorios 86948
segmentos 86947
ran@@ 86946
1946 86945
inmensa 86944
12.000 86943
resi@@ 86942
inevitable 86941
refin@@ 86940
separar 86939
intr@@ 86938
inglesa 86937
debieron 86936
comprometer 86935
Documentación 86934
genér@@ 86933
tóx@@ 86932
OP 86931
auspici@@ 86930
ultimar 86929
frenar 86928
trabajó 86927
Apoyar 86926
recreativas 86925
intelectuales 86924
reglamentaria 86923
vice@@ 86922
acos 86921
agrupación 86920
selectiva 86919
aparente 86918
limpi@@ 86917
mezcla 86916
V. 86915
encarcelados 86914
signaturas 86913
Presupuest@@ 86912
relaciona 86911
establecieran 86910
Tierras 86909
sinopsis 86908
asuma 86907
3.500 86906
extraditar 86905
requerir 86904
recluso 86903
ek 86902
áneas 86901
informales 86900
agan 86899
malas 86898
diga 86897
confirman 86896
comision@@ 86895
pod@@ 86894
presid@@ 86893
convenga 86892
jer@@ 86891
simultánea 86890
cumplió 86889
Resoluciones 86888
firmeza 86887
privilegio 86886
Prisiones 86885
manutención 86884
EM 86883
recalcar 86882
frágiles 86881
gol@@ 86880
lados 86879
MIN@@ 86878
Juristas 86877
WG@@ 86876
caracter@@ 86875
cristianos 86874
gü@@ 86873
mentalidad 86872
refu@@ 86871
és@@ 86870
trimestrales 86869
CIM 86868
jurado 86867
concebir 86866
llevara 86865
consistentes 86864
suponía 86863
dotado 86862
273 86861
todox@@ 86860
visibles 86859
informando 86858
lanzados 86857
17.00 86856
SE 86855
incluy@@ 86854
282 86853
vivan 86852
adquiere 86851
sex@@ 86850
id 86849
idores 86848
Ash@@ 86847
cesante 86846
reiterado 86845
minera 86844
islam 86843
suspende 86842
masas 86841
Berlín 86840
Mohammed 86839
1962 86838
muse@@ 86837
implantar 86836
barrio 86835
299 86834
teros 86833
Comerci@@ 86832
comunicará 86831
desestimó 86830
Mas@@ 86829
falsa 86828
desestabiliz@@ 86827
cubana 86826
considerarán 86825
percep@@ 86824
rescisión 86823
surgimiento 86822
ajustado 86821
remedio 86820
minu@@ 86819
universitaria 86818
onal 86817
1954 86816
archiv@@ 86815
acord@@ 86814
intérprete 86813
Proporcionar 86812
patrones 86811
entrevistó 86810
delicada 86809
rara 86808
migratoria 86807
conmu@@ 86806
prescri@@ 86805
Intelectual 86804
multisectoriales 86803
Como 86802
mociones 86801
andesa 86800
abiertamente 86799
fragment@@ 86798
deseado 86797
1,4 86796
comunicada 86795
rw@@ 86794
facilitaron 86793
confiamos 86792
proclamación 86791
iniciarse 86790
felicitó 86789
enjuiciamientos 86788
vale 86787
GC 86786
Tomé 86785
Ejecutivos 86784
suscitado 86783
ever@@ 86782
Dar 86781
resolvió 86780
interdependientes 86779
Movi@@ 86778
ramas 86777
ratione 86776
aprovechen 86775
estimaba 86774
PYME 86773
hago 86772
Contaduría 86771
optimizar 86770
Asegurar 86769
adhirió 86768
1,6 86767
FD@@ 86766
infectadas 86765
causando 86764
costumbre 86763
aní 86762
SR@@ 86761
persu@@ 86760
libaneses 86759
sustent@@ 86758
bancaria 86757
Límites 86756
recalca 86755
justificada 86754
Procurador 86753
últimamente 86752
sustr@@ 86751
UNA@@ 86750
Educ@@ 86749
ingo 86748
dependía 86747
insatisfac@@ 86746
arc@@ 86745
añádase 86744
ventaj@@ 86743
izo 86742
acompañadas 86741
ko@@ 86740
desacuerdo 86739
Convencionales 86738
tropiezan 86737
evaluado 86736
prevaleci@@ 86735
emprend@@ 86734
contag@@ 86733
zos 86732
Penales 86731
adher@@ 86730
obligatori@@ 86729
Urbano 86728
Compro@@ 86727
sano 86726
vigor@@ 86725
introducidos 86724
afectando 86723
Foundation 86722
prestarán 86721
seleccionado 86720
neutral 86719
gendarmería 86718
inaceptables 86717
cione 86716
CION 86715
Kirguisa 86714
confirmaron 86713
prospección 86712
prestarles 86711
sidades 86710
Estrategias 86709
acreditados 86708
20,@@ 86707
295 86706
preocupaba 86705
protegida 86704
Inst@@ 86703
RT@@ 86702
ić 86701
tipificado 86700
peru@@ 86699
asambleas 86698
repar@@ 86697
plementos 86696
electró@@ 86695
indicativa 86694
vacío 86693
dial@@ 86692
Magistr@@ 86691
auténtico 86690
perteneciente 86689
idamente 86688
manufactu@@ 86687
alentaron 86686
ísimo 86685
enuncian 86684
polimetálicos 86683
plic@@ 86682
alcancen 86681
Intern@@ 86680
confiado 86679
ate@@ 86678
proporcionarles 86677
SGB 86676
1945 86675
velará 86674
met@@ 86673
encau@@ 86672
bombardeos 86671
destruidas 86670
auten@@ 86669
insist@@ 86668
www.un@@ 86667
mis@@ 86666
boletines 86665
mado 86664
expulsados 86663
esforzado 86662
opi@@ 86661
reforestación 86660
atienden 86659
veno 86658
complacida 86657
Adopte 86656
complicidad 86655
Law 86654
logísticas 86653
asol@@ 86652
amplíe 86651
precipit@@ 86650
sequías 86649
struc@@ 86648
UNSOA 86647
cesar 86646
88@@ 86645
reaccionar 86644
9.00 86643
inevitablemente 86642
Centro@@ 86641
asamblea 86640
tuviese 86639
sucesivas 86638
embarg@@ 86637
interregionales 86636
rigurosamente 86635
universitario 86634
estructurada 86633
cuarteles 86632
dumping 86631
fijos 86630
Adopción 86629
ibilidad 86628
serios 86627
agravi@@ 86626
respectiva 86625
75@@ 86624
flora 86623
introduciendo 86622
controver@@ 86621
mediciones 86620
1.300 86619
beneficiar 86618
fundado 86617
Ejecu@@ 86616
ánicas 86615
mejoró 86614
fí@@ 86613
comprendi@@ 86612
partidaria 86611
afgano 86610
om 86609
IZ@@ 86608
Científic@@ 86607
superposición 86606
hierro 86605
tropicales 86604
largas 86603
violenta 86602
mina 86601
Abi@@ 86600
injer@@ 86599
Artículos 86598
arroz 86597
úr@@ 86596
transmita 86595
demuestre 86594
pornogr@@ 86593
paradig@@ 86592
convenci@@ 86591
UNISPACE 86590
ONUSOM 86589
velara 86588
1701 86587
cubre 86586
democracias 86585
proteccion@@ 86584
rios 86583
impusi@@ 86582
convierte 86581
degrad@@ 86580
solicitando 86579
Mercado 86578
• 86577
ultramar 86576
aban@@ 86575
comprometi@@ 86574
borrador 86573
desech@@ 86572
encuestados 86571
ocupaba 86570
ejercida 86569
correspondían 86568
conoci@@ 86567
exigido 86566
transformaciones 86565
asesinados 86564
reestructur@@ 86563
osidad 86562
suyos 86561
distribuyen 86560
exacto 86559
medit@@ 86558
POL@@ 86557
cautelares 86556
Inglaterra 86555
competitiva 86554
amplía 86553
impedimento 86552
observarse 86551
torios 86550
inación 86549
depositado 86548
ED 86547
entend@@ 86546
limpias 86545
ican 86544
SBI 86543
azi 86542
atizado 86541
destina 86540
construyendo 86539
intensas 86538
Nom@@ 86537
cupos 86536
Ó@@ 86535
gua 86534
Labor@@ 86533
escu@@ 86532
implementar 86531
disminuyeron 86530
orería 86529
AP 86528
vecino 86527
enuncia 86526
1,8 86525
Prepar@@ 86524
merc@@ 86523
preferencial 86522
CSCE 86521
critas 86520
ratifique 86519
Profesor 86518
291 86517
visible 86516
vulnerabilidades 86515
274 86514
PNA 86513
Espaciales 86512
audit@@ 86511
acces@@ 86510
incau@@ 86509
incorporó 86508
confec@@ 86507
PERÍODO 86506
56º 86505
múltiple 86504
decisivas 86503
masac@@ 86502
radica 86501
sín@@ 86500
Capacidad 86499
porteador 86498
Sud@@ 86497
litigio 86496
REC@@ 86495
seleccionadas 86494
quej@@ 86493
discutir 86492
innovadora 86491
horizontal 86490
protegerse 86489
cubiertos 86488
dific@@ 86487
portavoz 86486
duplicaciones 86485
Majestad 86484
sentimientos 86483
1955 86482
firmar@@ 86481
tida 86480
encomendadas 86479
stren 86478
distor@@ 86477
discriminaciones 86476
verbalmente 86475
coronas 86474
ojos 86473
escasas 86472
Gobernanza 86471
Kir@@ 86470
remotos 86469
estrés 86468
hún@@ 86467
57º 86466
ratificada 86465
L.7 86464
alcanzaron 86463
DI 86462
virtu@@ 86461
invitaciones 86460
Naturaleza 86459
acuífero 86458
sufri@@ 86457
logrará 86456
comenzando 86455
documentar 86454
3.3 86453
40.@@ 86452
Club 86451
cuencas 86450
equipar@@ 86449
subaltern@@ 86448
IG@@ 86447
liberados 86446
instru@@ 86445
puntualidad 86444
etiquetado 86443
Principado 86442
line@@ 86441
cometieron 86440
armonizadas 86439
pasados 86438
versa 86437
ogé@@ 86436
valorar 86435
demuestren 86434
descubrir 86433
someterá 86432
llos 86431
codific@@ 86430
íg@@ 86429
instalado 86428
turcochipriota 86427
noru@@ 86426
Inv@@ 86425
plomo 86424
Antillas 86423
eve 86422
alizas 86421
participarán 86420
alizan 86419
jef@@ 86418
recarg@@ 86417
premi@@ 86416
Hum@@ 86415
coeficiente 86414
POPS 86413
National 86412
regresan 86411
otorgó 86410
1,7 86409
intervengan 86408
forzosa 86407
creciendo 86406
dolor 86405
lanzaron 86404
recre@@ 86403
figuren 86402
estudia 86401
alimentarias 86400
yaci@@ 86399
turcas 86398
Turcas 86397
ecosistema 86396
serviría 86395
lingüísticos 86394
fem@@ 86393
toxínicas 86392
consu@@ 86391
factible 86390
prestaran 86389
introdu@@ 86388
mixta 86387
amist@@ 86386
concentrar 86385
rumbo 86384
enfrentarse 86383
interesa 86382
Gobernadores 86381
decer 86380
encargaría 86379
rode@@ 86378
guatemaltec@@ 86377
plen@@ 86376
presupuest@@ 86375
Exist@@ 86374
medicin@@ 86373
mg 86372
suspend@@ 86371
tantes 86370
reros 86369
facilitados 86368
emitidos 86367
Explotación 86366
nen 86365
bol 86364
ail@@ 86363
yacente 86362
ates 86361
jardines 86360
concur@@ 86359
Public@@ 86358
apreciación 86357
determinarse 86356
apunta 86355
extinción 86354
Olím@@ 86353
Jefa 86352
menoscabo 86351
zando 86350
competitivas 86349
enjuiciados 86348
Alentar 86347
alcanzarse 86346
ign@@ 86345
prudencia 86344
toxicidad 86343
infrin@@ 86342
razon@@ 86341
Familiar 86340
progresar 86339
reducirá 86338
cualitativos 86337
definitivas 86336
homicidios 86335
departamental 86334
aduaneros 86333
multicultural 86332
Cáucaso 86331
23ª 86330
360 86329
aguarda 86328
somalí 86327
esclare@@ 86326
1.600 86325
doce 86324
Géneros 86323
letrado 86322
sumideros 86321
diferenciado 86320
seriedad 86319
culminación 86318
sucesor 86317
CAR@@ 86316
montañas 86315
expuesta 86314
semanal 86313
perturbaciones 86312
exceder 86311
UNAVEM 86310
concedida 86309
entorpec@@ 86308
vanguardia 86307
Alem@@ 86306
entrañar 86305
itan 86304
debidos 86303
há@@ 86302
vertical 86301
escalada 86300
nódulos 86299
cay@@ 86298
cina 86297
extraterritoriales 86296
preocup@@ 86295
Financi@@ 86294
acuíferos 86293
20ª 86292
pliquen 86291
evaluando 86290
imputado 86289
cuenca 86288
advertencia 86287
fortalecerá 86286
Nicosia 86285
Argel 86284
realizaran 86283
our 86282
formulará 86281
Litoral 86280
enriquecido 86279
Desarrol@@ 86278
ocupacional 86277
ague 86276
Leyes 86275
irreversible 86274
cicl@@ 86273
resur@@ 86272
ingenieros 86271
provid@@ 86270
ocurrir 86269
especificado 86268
enerse 86267
cho@@ 86266
balanza 86265
exija 86264
Inici@@ 86263
KFOR 86262
Hacienda 86261
segmento 86260
CIP@@ 86259
contrast@@ 86258
zadas 86257
concentrado 86256
rot@@ 86255
mutuos 86254
competi@@ 86253
amenazados 86252
ESTA@@ 86251
ordenada 86250
cid@@ 86249
despr@@ 86248
enios 86247
cip@@ 86246
concernientes 86245
preced@@ 86244
trayectoria 86243
servirán 86242
Pa@@ 86241
fusiones 86240
recibo 86239
profundos 86238
docum@@ 86237
Referéndum 86236
progres@@ 86235
actualizadas 86234
rom@@ 86233
adquieran 86232
resultaría 86231
analfab@@ 86230
conviertan 86229
47º 86228
Comisionados 86227
extendido 86226
tropezado 86225
participará 86224
justifican 86223
271 86222
Sanidad 86221
obtiene 86220
remitirse 86219
sucedido 86218
Laboral 86217
General@@ 86216
española 86215
aportados 86214
fomentan 86213
redujeron 86212
blancos 86211
ot 86210
mora 86209
puramente 86208
COMIS@@ 86207
ac 86206
extradit@@ 86205
debi@@ 86204
inauguró 86203
Lima 86202
caza 86201
CN.15 86200
políticamente 86199
ox@@ 86198
señalarse 86197
estand@@ 86196
liberaciones 86195
determinen 86194
NA 86193
Kiribati 86192
decis@@ 86191
informan 86190
nominal 86189
expresados 86188
proporcionaran 86187
indis@@ 86186
nomin@@ 86185
1.400 86184
Forest@@ 86183
Ensayos 86182
Paulo 86181
ún@@ 86180
diverso 86179
oceánicos 86178
anteproyecto 86177
delictivo 86176
Revolucion@@ 86175
violento 86174
reemplazo 86173
igu@@ 86172
2.0@@ 86171
pesquerías 86170
dominante 86169
ómicas 86168
ocup@@ 86167
manifiest@@ 86166
egan 86165
L.6 86164
noventa 86163
resuelta 86162
achos 86161
aceptan 86160
unificados 86159
Mejora 86158
formada 86157
serbias 86156
proporcionarán 86155
geogr@@ 86154
solemne 86153
descripciones 86152
Bah@@ 86151
primarios 86150
pronó@@ 86149
herido 86148
preocupados 86147
concep@@ 86146
Resumen 86145
obtenga 86144
hija 86143
leche 86142
Además 86141
explotaciones 86140
FDLR 86139
entren 86138
omisiones 86137
Ozono 86136
proporcionarse 86135
óptimo 86134
ende@@ 86133
consi@@ 86132
1.800 86131
Honorable 86130
determinaron 86129
nómina 86128
descu@@ 86127
paul@@ 86126
aplicaría 86125
gram@@ 86124
sar 86123
necesite 86122
congratula 86121
sigui@@ 86120
jeros 86119
ículas 86118
recordará 86117
extensas 86116
PI@@ 86115
votaciones 86114
acogi@@ 86113
incl@@ 86112
ion@@ 86111
sufragio 86110
[...]
