the 100000
of 99999
, 99998
and 99997
. 99996
to 99995
in 99994
a 99993
for 99992
on 99991
@-@ 99990
that 99989
) 99988
( 99987
by 99986
with 99985
as 99984
/ 99983
be 99982
is 99981
; 99980
its 99979
at 99978
or 99977
was 99976
United 99975
it 99974
&quot; 99973
are 99972
from 99971
Nations 99970
which 99969
an 99968
: 99967
Committee 99966
their 99965
this 99964
&apos;s 99963
not 99962
General 99961
have 99960
has 99959
all 99958
had 99957
been 99956
States 99955
international 99954
also 99953
other 99952
rights 99951
were 99950
report 99949
development 99948
should 99947
will 99946
countries 99945
under 99944
Council 99943
would 99942
such 99941
human 99940
including 99939
State 99938
resolution 99937
national 99936
women 99935
information 99934
1 99933
Assembly 99932
support 99931
work 99930
Government 99929
Convention 99928
children 99927
implementation 99926
Secretary 99925
session 99924
- 99923
activities 99922
Commission 99921
made 99920
2 99919
law 99918
against 99917
those 99916
A 99915
they 99914
per 99913
measures 99912
one 99911
into 99910
article 99909
more 99908
these 99907
between 99906
through 99905
any 99904
country 99903
3 99902
there 99901
system 99900
well 99899
International 99898
we 99897
programme 99896
I 99895
his 99894
new 99893
organizations 99892
Rights 99891
meeting 99890
cooperation 99889
Republic 99888
draft 99887
social 99886
security 99885
economic 99884
number 99883
cent 99882
Conference 99881
efforts 99880
$ 99879
may 99878
out 99877
resources 99876
who 99875
paragraph 99874
non 99873
he 99872
provide 99871
order 99870
level 99869
during 99868
services 99867
assistance 99866
ensure 99865
right 99864
regional 99863
4 99862
up 99861
members 99860
5 99859
persons 99858
Security 99857
Development 99856
public 99855
further 99854
Mr. 99853
issues 99852
no 99851
some 99850
provided 99849
party 99848
use 99847
education 99846
financial 99845
process 99844
two 99843
programmes 99842
within 99841
health 99840
but 99839
people 99838
Human 99837
b 99836
Special 99835
Group 99834
10 99833
decision 99832
time 99831
could 99830
particular 99829
Office 99828
legal 99827
if 99826
6 99825
areas 99824
only 99823
first 99822
years 99821
relevant 99820
shall 99819
protection 99818
based 99817
period 99816
need 99815
following 99814
related 99813
adopted 99812
training 99811
developing 99810
being 99809
management 99808
held 99807
staff 99806
take 99805
than 99804
action 99803
taken 99802
them 99801
political 99800
year 99799
can 99798
must 99797
regard 99796
review 99795
December 99794
situation 99793
7 99792
C 99791
policy 99790
child 99789
The 99788
community 99787
parties 99786
agenda 99785
since 99784
accordance 99783
reports 99782
over 99781
recommendations 99780
respect 99779
so 99778
while 99777
established 99776
among 99775
part 99774
however 99773
peace 99772
access 99771
effective 99770
special 99769
Organization 99768
cases 99767
capacity 99766
continue 99765
about 99764
8 99763
15 99762
where 99761
President 99760
our 99759
both 99758
most 99757
violence 99756
12 99755
Programme 99754
Member 99753
9 99752
many 99751
&apos; 99750
provisions 99749
working 99748
view 99747
institutions 99746
role 99745
important 99744
groups 99743
technical 99742
when 99741
basis 99740
progress 99739
E 99738
d 99737
nuclear 99736
appropriate 99735
National 99734
present 99733
item 99732
necessary 99731
consideration 99730
case 99729
30 99728
Social 99727
before 99726
budget 99725
11 99724
said 99723
Act 99722
2005 99721
set 99720
Board 99719
14 99718
June 99717
Africa 99716
world 99715
general 99714
three 99713
2006 99712
same 99711
gender 99710
local 99709
20 99708
concerned 99707
possible 99706
global 99705
policies 99704
18 99703
meetings 99702
without 99701
specific 99700
2008 99699
data 99698
full 99697
ation 99696
make 99695
Parties 99694
Court 99693
13 99692
discrimination 99691
million 99690
s 99689
delegation 99688
proposed 99687
un@@ 99686
World 99685
available 99684
2010 99683
2007 99682
16 99681
area 99680
see 99679
after 99678
2009 99677
Economic 99676
each 99675
African 99674
2004 99673
population 99672
authorities 99671
&#91; 99670
&#93; 99669
society 99668
include 99667
framework 99666
increase 99665
e 99664
particularly 99663
July 99662
upon 99661
considered 99660
needs 99659
bodies 99658
submitted 99657
account 99656
note 99655
military 99654
participation 99653
place 99652
civil 99651
continued 99650
various 99649
group 99648
trade 99647
given 99646
police 99645
promote 99644
noted 99643
high 99642
issue 99641
developed 99640
region 99639
sector 99638
European 99637
conflict 99636
end 99635
required 99634
Law 99633
building 99632
document 99631
ing 99630
sustainable 99629
age 99628
legislation 99627
2011 99626
South 99625
Ministry 99624
17 99623
Secretariat 99622
levels 99621
Fund 99620
humanitarian 99619
21 99618
conditions 99617
additional 99616
importance 99615
second 99614
addition 99613
2003 99612
agencies 99611
2000 99610
concerning 99609
October 99608
re@@ 99607
S 99606
Working 99605
19 99604
field 99603
poverty 99602
used 99601
whether 99600
project 99599
total 99598
provision 99597
address 99596
current 99595
November 99594
Department 99593
criminal 99592
representatives 99591
care 99590
status 99589
requested 99588
S@@ 99587
31 99586
2002 99585
term 99584
September 99583
No. 99582
her 99581
plan 99580
resolutions 99579
person 99578
establishment 99577
adoption 99576
family 99575
requirements 99574
projects 99573
therefore 99572
Governments 99571
Rapporteur 99570
Mission 99569
do 99568
II 99567
private 99566
Women 99565
25 99564
context 99563
personnel 99562
contained 99561
Protocol 99560
2001 99559
concern 99558
Union 99557
Action 99556
May 99555
future 99554
22 99553
above 99552
question 99551
attention 99550
operations 99549
requests 99548
request 99547
relating 99546
March 99545
2012 99544
towards 99543
weapons 99542
statement 99541
Affairs 99540
mandate 99539
1995 99538
force 99537
monitoring 99536
governmental 99535
regarding 99534
24 99533
able 99532
impact 99531
Declaration 99530
1994 99529
taking 99528
indigenous 99527
major 99526
received 99525
23 99524
justice 99523
third 99522
agreed 99521
January 99520
domestic 99519
approach 99518
means 99517
1999 99516
organization 99515
control 99514
comprehensive 99513
several 99512
subject 99511
coordination 99510
victims 99509
representative 99508
armed 99507
principles 99506
treatment 99505
1998 99504
t 99503
1996 99502
rule 99501
service 99500
ed 99499
member 99498
way 99497
entitled 99496
increased 99495
procedures 99494
result 99493
fully 99492
rules 99491
1997 99490
existing 99489
April 99488
she 99487
High 99486
especially 99485
consider 99484
Executive 99483
environment 99482
UNDP 99481
responsibility 99480
included 99479
life 99478
costs 99477
inter 99476
according 99475
Code 99474
mechanisms 99473
expressed 99472
New 99471
now 99470
in@@ 99469
reporting 99468
provides 99467
implement 99466
strengthen 99465
results 99464
ate 99463
26 99462
terms 99461
standards 99460
providing 99459
27 99458
improve 99457
decisions 99456
change 99455
cultural 99454
did 99453
2013 99452
obligations 99451
practices 99450
making 99449
strengthening 99448
systems 99447
due 99446
annex 99445
because 99444
B@@ 99443
employment 99442
government 99441
what 99440
1993 99439
administrative 99438
contributions 99437
environmental 99436
fact 99435
my 99434
very 99433
28 99432
land 99431
Advisory 99430
different 99429
M@@ 99428
agreement 99427
para 99426
how 99425
Palestinian 99424
addressed 99423
follow 99422
-- 99421
trafficking 99420
problems 99419
long 99418
ated 99417
section 99416
funds 99415
cost 99414
assessment 99413
reported 99412
acts 99411
technology 99410
recent 99409
risk 99408
response 99407
sexual 99406
N@@ 99405
prevention 99404
T@@ 99403
ting 99402
Arab 99401
amount 99400
application 99399
violations 99398
free 99397
Constitution 99396
29 99395
notes 99394
procedure 99393
establish 99392
es 99391
consultations 99390
post 99389
promotion 99388
P@@ 99387
actions 99386
i 99385
February 99384
still 99383
lack 99382
peoples 99381
decided 99380
F 99379
thus 99378
Covenant 99377
G@@ 99376
men 99375
example 99374
five 99373
significant 99372
equality 99371
key 99370
small 99369
develop 99368
50 99367
regular 99366
matters 99365
challenges 99364
responsible 99363
crime 99362
another 99361
income 99360
commitment 99359
Service 99358
Criminal 99357
main 99356
laws 99355
committed 99354
school 99353
does 99352
August 99351
secretariat 99350
detention 99349
mission 99348
disarmament 99347
even 99346
forces 99345
called 99344
water 99343
four 99342
food 99341
al 99340
initiatives 99339
documents 99338
practice 99337
Centre 99336
annual 99335
s@@ 99334
dialogue 99333
D@@ 99332
behalf 99331
terrorism 99330
own 99329
common 99328
reform 99327
P 99326
planning 99325
organized 99324
pursuant 99323
statements 99322
priority 99321
5@@ 99320
strategy 99319
official 99318
c 99317
F@@ 99316
court 99315
individual 99314
certain 99313
equipment 99312
rate 99311
forms 99310
like 99309
communities 99308
prevent 99307
A@@ 99306
awareness 99305
America 99304
least 99303
growth 99302
K@@ 99301
recommendation 99300
help 99299
foreign 99298
principle 99297
delegations 99296
East 99295
basic 99294
H@@ 99293
although 99292
production 99291
HIV 99290
funding 99289
agreements 99288
research 99287
labour 99286
involved 99285
letter 99284
date 99283
L@@ 99282
purpose 99281
Commissioner 99280
missions 99279
previous 99278
instruments 99277
already 99276
operational 99275
might 99274
R@@ 99273
serious 99272
form 99271
treaty 99270
aimed 99269
approved 99268
workers 99267
promoting 99266
freedom 99265
III 99264
focus 99263
Israel 99262
implemented 99261
Ms. 99260
Representative 99259
6@@ 99258
torture 99257
Minister 99256
ers 99255
facilities 99254
objectives 99253
adequate 99252
carried 99251
steps 99250
implementing 99249
currently 99248
recommended 99247
Article 99246
Iraq 99245
supported 99244
living 99243
er 99242
list 99241
needed 99240
Director 99239
joint 99238
biennium 99237
7@@ 99236
position 99235
financing 99234
de 99233
refugees 99232
having 99231
issued 99230
matter 99229
reduction 99228
office 99227
stated 99226
discussion 99225
strategies 99224
quality 99223
ensuring 99222
articles 99221
Justice 99220
affected 99219
schools 99218
judicial 99217
evaluation 99216
posts 99215
plans 99214
large 99213
arrangements 99212
proposals 99211
60 99210
recommends 99209
act 99208
took 99207
girls 99206
partners 99205
facilitate 99204
together 99203
Treaty 99202
every 99201
equal 99200
line 99199
ating 99198
greater 99197
good 99196
achieve 99195
Tribunal 99194
informed 99193
authority 99192
rural 99191
8@@ 99190
Chairman 99189
meet 99188
dis@@ 99187
self 99186
OF 99185
study 99184
individuals 99183
Division 99182
analysis 99181
Plan 99180
AIDS 99179
undertaken 99178
THE 99177
early 99176
strategic 99175
guidelines 99174
arms 99173
prepared 99172
families 99171
Geneva 99170
interest 99169
40 99168
medical 99167
independent 99166
best 99165
ations 99164
performance 99163
dated 99162
Charter 99161
k@@ 99160
better 99159
officials 99158
young 99157
property 99156
fundamental 99155
space 99154
limited 99153
essential 99152
conduct 99151
offices 99150
investment 99149
informal 99148
problem 99147
assist 99146
crimes 99145
ethnic 99144
peacekeeping 99143
compliance 99142
Central 99141
expected 99140
proposal 99139
protect 99138
past 99137
referred 99136
nature 99135
proceedings 99134
centres 99133
experts 99132
Permanent 99131
primary 99130
last 99129
recognized 99128
give 99127
knowledge 99126
day 99125
communication 99124
yet 99123
opportunities 99122
overall 99121
W@@ 99120
enhance 99119
connection 99118
clear 99117
officers 99116
fifty 99115
B 99114
paragraphs 99113
functions 99112
Russian 99111
Child 99110
understanding 99109
aspects 99108
months 99107
provisional 99106
exercise 99105
conducted 99104
become 99103
reference 99102
market 99101
light 99100
Federation 99099
increasing 99098
contribute 99097
effect 99096
Children 99095
mechanism 99094
C@@ 99093
potential 99092
energy 99091
negotiations 99090
China 99089
2014 99088
manner 99087
territory 99086
evidence 99085
others 99084
us 99083
preparation 99082
Agency 99081
communications 99080
natural 99079
ts 99078
author 99077
Democratic 99076
Bank 99075
citizens 99074
ted 99073
body 99072
Israeli 99071
six 99070
integrated 99069
? 99068
below 99067
48 99066
Protection 99065
integration 99064
changes 99063
UNICEF 99062
benefits 99061
periodic 99060
institutional 99059
y@@ 99058
contribution 99057
less 99056
led 99055
alia 99054
next 99053
found 99052
Kingdom 99051
E@@ 99050
administration 99049
business 99048
e@@ 99047
questions 99046
o@@ 99045
9@@ 99044
Asia 99043
climate 99042
active 99041
former 99040
goals 99039
exchange 99038
1992 99037
y 99036
abuse 99035
state 99034
views 99033
commitments 99032
submit 99031
concerns 99030
Panel 99029
often 99028
calls 99027
Millennium 99026
enforcement 99025
courts 99024
processes 99023
transfer 99022
opportunity 99021
media 99020
objective 99019
internal 99018
t@@ 99017
substantive 99016
circumstances 99015
Trade 99014
text 99013
items 99012
open 99011
presented 99010
crisis 99009
51 99008
* 99007
experience 99006
table 99005
fourth 99004
direct 99003
purposes 99002
religious 99001
outcome 99000
52 98999
course 98998
resource 98997
days 98996
disabilities 98995
participate 98994
multilateral 98993
identified 98992
war 98991
legislative 98990
until 98989
indicated 98988
Health 98987
regions 98986
positive 98985
mentioned 98984
vote 98983
Agreement 98982
d@@ 98981
remain 98980
interests 98979
Information 98978
entities 98977
please 98976
estimated 98975
final 98974
55 98973
you 98972
conference 98971
achieved 98970
tion 98969
regulations 98968
sessions 98967
Management 98966
49 98965
throughout 98964
drug 98963
D 98962
revised 98961
educational 98960
point 98959
participants 98958
higher 98957
Sudan 98956
enable 98955
reduce 98954
combat 98953
improving 98952
whose 98951
UNCTAD 98950
Public 98949
maintenance 98948
material 98947
Summit 98946
35 98945
remains 98944
put 98943
infrastructure 98942
UNHCR 98941
% 98940
58 98939
operation 98938
57 98937
situations 98936
language 98935
ongoing 98934
tions 98933
value 98932
low 98931
sectors 98930
Institute 98929
Europe 98928
effectively 98927
Global 98926
wish 98925
Unit 98924
safety 98923
return 98922
Forum 98921
civilian 98920
forward 98919
benefit 98918
art 98917
33 98916
To 98915
death 98914
wide 98913
furthermore 98912
despite 98911
allow 98910
Meeting 98909
effects 98908
prior 98907
physical 98906
investigation 98905
32 98904
economy 98903
Education 98902
ability 98901
welcomed 98900
intergovernmental 98899
specialized 98898
far 98897
discussions 98896
Canada 98895
voluntary 98894
Cooperation 98893
rates 98892
introduced 98891
governance 98890
then 98889
59 98888
61 98887
g@@ 98886
34 98885
53 98884
elections 98883
him 98882
effectiveness 98881
IV 98880
Civil 98879
45 98878
claims 98877
Report 98876
Discrimination 98875
done 98874
vulnerable 98873
Services 98872
comments 98871
housing 98870
initial 98869
65 98868
36 98867
ways 98866
b@@ 98865
en@@ 98864
effort 98863
indicators 98862
responsibilities 98861
hours 98860
activity 98859
62 98858
applied 98857
cannot 98856
100 98855
initiative 98854
sources 98853
l@@ 98852
observations 98851
developments 98850
Review 98849
recalling 98848
relation 98847
People 98846
priorities 98845
power 98844
York 98843
welcomes 98842
expert 98841
elements 98840
guidance 98839
jurisdiction 98838
scope 98837
asked 98836
summary 98835
using 98834
parents 98833
J@@ 98832
collaboration 98831
47 98830
relations 98829
extent 98828
racial 98827
p@@ 98826
universal 98825
much 98824
Political 98823
establishing 98822
permanent 98821
displaced 98820
54 98819
64 98818
close 98817
Federal 98816
56 98815
includes 98814
37 98813
violation 98812
Crime 98811
bring 98810
itself 98809
signed 98808
receive 98807
de@@ 98806
materials 98805
youth 98804
travel 98803
continuing 98802
Caribbean 98801
Islamic 98800
range 98799
fifth 98798
compensation 98797
American 98796
Japan 98795
poor 98794
critical 98793
Optional 98792
peaceful 98791
judges 98790
methods 98789
G 98788
ent 98787
aid 98786
apply 98785
Force 98784
63 98783
ant 98782
lead 98781
NGOs 98780
emergency 98779
1991 98778
offences 98777
39 98776
stakeholders 98775
improved 98774
obligation 98773
achieving 98772
h 98771
require 98770
UN 98769
Party 98768
scale 98767
distribution 98766
call 98765
prison 98764
V@@ 98763
determination 98762
O@@ 98761
Foreign 98760
sixty 98759
invited 98758
similar 98757
h@@ 98756
follows 98755
addressing 98754
Non 98753
exploitation 98752
consultation 98751
encourage 98750
opinion 98749
adopt 98748
directly 98747
plenary 98746
share 98745
treaties 98744
I@@ 98743
UNEP 98742
transition 98741
brought 98740
ally 98739
Support 98738
identify 98737
Peace 98736
Regional 98735
continues 98734
Administrative 98733
44 98732
great 98731
66 98730
delivery 98729
Environment 98728
Implementation 98727
applicable 98726
46 98725
Elimination 98724
creation 98723
twenty 98722
whole 98721
detailed 98720
themselves 98719
majority 98718
38 98717
41 98716
n@@ 98715
f@@ 98714
supporting 98713
Labour 98712
2015 98711
r@@ 98710
events 98709
difficult 98708
trial 98707
core 98706
Persons 98705
ates 98704
appreciation 98703
transport 98702
pay 98701
consensus 98700
just 98699
encourages 98698
Disarmament 98697
th 98696
paid 98695
debt 98694
Korea 98693
capital 98692
Headquarters 98691
border 98690
once 98689
noting 98688
associated 98687
encouraged 98686
assets 98685
offence 98684
states 98683
Pacific 98682
k 98681
met 98680
re 98679
structure 98678
Police 98677
Congo 98676
settlement 98675
reasons 98674
threat 98673
ded 98672
m 98671
Goals 98670
rather 98669
technologies 98668
moreover 98667
urban 98666
Latin 98665
a@@ 98664
R 98663
outside 98662
statistics 98661
either 98660
France 98659
balance 98658
today 98657
67 98656
central 98655
urges 98654
UNFPA 98653
42 98652
1990 98651
practical 98650
create 98649
temporary 98648
positions 98647
al@@ 98646
culture 98645
Afghanistan 98644
concluded 98643
ad 98642
Mexico 98641
partnership 98640
43 98639
debate 98638
fund 98637
illegal 98636
takes 98635
submission 98634
Cuba 98633
aim 98632
reflected 98631
origin 98630
consistent 98629
on@@ 98628
standard 98627
play 98626
agency 98625
covered 98624
studies 98623
efficiency 98622
respective 98621
All 98620
involving 98619
strong 98618
ch@@ 98617
points 98616
external 98615
Prevention 98614
o 98613
completed 98612
conferences 98611
traditional 98610
designed 98609
units 98608
bilateral 98607
minimum 98606
anti 98605
st@@ 98604
criteria 98603
claim 98602
proliferation 98601
complete 98600
inter@@ 98599
sufficient 98598
forty 98597
Z@@ 98596
terrorist 98595
expenditure 98594
li@@ 98593
raised 98592
few 98591
conflicts 98590
actors 98589
appeal 98588
Vienna 98587
an@@ 98586
regime 98585
factors 98584
election 98583
rehabilitation 98582
products 98581
average 98580
Syrian 98579
freedoms 98578
students 98577
minorities 98576
India 98575
parts 98574
independence 98573
team 98572
stability 98571
decides 98570
carry 98569
Section 98568
reached 98567
Sustainable 98566
source 98565
68 98564
weapon 98563
seek 98562
female 98561
complaints 98560
4@@ 98559
recently 98558
intended 98557
suggested 98556
remained 98555
Bosnia 98554
advice 98553
1,@@ 98552
1@@ 98551
entry 98550
maintain 98549
monitor 98548
task 98547
refugee 98546
construction 98545
goods 98544
raising 98543
down 98542
implications 98541
Countries 98540
resulting 98539
around 98538
sixth 98537
c@@ 98536
conclusions 98535
l 98534
clearly 98533
grounds 98532
economies 98531
sanctions 98530
conclusion 98529
goal 98528
committee 98527
punishment 98526
destruction 98525
Joint 98524
again 98523
improvement 98522
procurement 98521
personal 98520
U@@ 98519
Iran 98518
serve 98517
consequences 98516
Administration 98515
discussed 98514
am@@ 98513
u 98512
owing 98511
build 98510
contract 98509
capacities 98508
languages 98507
Chair 98506
scientific 98505
77 98504
duty 98503
successful 98502
T 98501
supply 98500
Herzegovina 98499
A. 98498
th@@ 98497
co 98496
recovery 98495
formal 98494
Y@@ 98493
defined 98492
presence 98491
10@@ 98490
achievement 98489
accountability 98488
created 98487
democratic 98486
urgent 98485
event 98484
ans 98483
leaders 98482
ninth 98481
deal 98480
p.m. 98479
professional 98478
ly 98477
cover 98476
beyond 98475
Australia 98474
net 98473
involvement 98472
approaches 98471
0@@ 98470
Add.1 98469
elected 98468
sharing 98467
possibility 98466
2,@@ 98465
difficulties 98464
focused 98463
alternative 98462
partnerships 98461
concluding 98460
requires 98459
3@@ 98458
placed 98457
demand 98456
Territory 98455
solution 98454
introduction 98453
ended 98452
Community 98451
illicit 98450
defence 98449
definition 98448
ence 98447
French 98446
phase 98445
Middle 98444
Rwanda 98443
als 98442
West 98441
membership 98440
Other 98439
stage 98438
transparency 98437
absence 98436
efficient 98435
Pakistan 98434
subregional 98433
b. 98432
paper 98431
migration 98430
sex 98429
70 98428
Coordination 98427
instrument 98426
stressed 98425
leave 98424
movement 98423
measure 98422
approval 98421
Ireland 98420
timely 98419
approximately 98418
w@@ 98417
payment 98416
recognition 98415
relationship 98414
later 98413
skills 98412
imposed 98411
target 98410
u@@ 98409
Room 98408
.@@ 98407
Germany 98406
loss 98405
Governing 98404
audit 98403
asylum 98402
eighth 98401
donors 98400
specifically 98399
written 98398
step 98397
am 98396
seventh 98395
agricultural 98394
visit 98393
ous 98392
represented 98391
extended 98390
network 98389
planned 98388
occupied 98387
religion 98386
Authority 98385
compared 98384
recruitment 98383
AND 98382
Yugoslavia 98381
en 98380
ab@@ 98379
keeping 98378
Annex 98377
generally 98376
Brazil 98375
air 98374
ance 98373
p 98372
operating 98371
sub 98370
z@@ 98369
leadership 98368
workshops 98367
forced 98366
actively 98365
secondary 98364
commercial 98363
mandates 98362
ri@@ 98361
across 98360
honour 98359
launched 98358
broad 98357
prepare 98356
Association 98355
challenge 98354
enhancing 98353
undertake 98352
home 98351
centre 98350
civilians 98349
hold 98348
deployment 98347
Lebanon 98346
real 98345
Rules 98344
contributing 98343
assessments 98342
concept 98341
conventions 98340
described 98339
Nuclear 98338
reflect 98337
closely 98336
hand 98335
ratification 98334
lower 98333
growing 98332
Re@@ 98331
month 98330
constitutional 98329
ground 98328
appointed 98327
chapter 98326
Parliament 98325
strengthened 98324
registration 98323
beginning 98322
documentation 98321
short 98320
single 98319
nationality 98318
mass 98317
soon 98316
organizational 98315
institution 98314
coordinated 98313
published 98312
Turkey 98311
investigations 98310
export 98309
2@@ 98308
pre 98307
guarantee 98306
representation 98305
ment 98304
inclusion 98303
determined 98302
competent 98301
System 98300
at@@ 98299
recognizing 98298
immediate 98297
namely 98296
indicate 98295
as@@ 98294
negative 98293
accordingly 98292
Agenda 98291
useful 98290
Somalia 98289
Strategy 98288
dealing 98287
territories 98286
reduced 98285
ar@@ 98284
live 98283
combating 98282
minority 98281
democracy 98280
authorized 98279
enhanced 98278
80 98277
M 98276
sent 98275
finance 98274
disaster 98273
percentage 98272
Second 98271
Palestine 98270
hope 98269
reviewed 98268
respond 98267
half 98266
billion 98265
urged 98264
known 98263
ti@@ 98262
emphasis 98261
host 98260
Bureau 98259
Netherlands 98258
69 98257
amended 98256
determine 98255
sh@@ 98254
expertise 98253
concrete 98252
Legal 98251
occupation 98250
Chief 98249
Cultural 98248
along 98247
cooperate 98246
know 98245
v@@ 98244
prisoners 98243
caused 98242
applications 98241
estimates 98240
types 98239
Kuwait 98238
tools 98237
participated 98236
your 98235
C. 98234
success 98233
constitute 98232
el 98231
leading 98230
off 98229
island 98228
places 98227
subsequent 98226
Norway 98225
contact 98224
declaration 98223
migrants 98222
Policy 98221
come 98220
US 98219
ents 98218
resulted 98217
longer 98216
90 98215
victim 98214
i@@ 98213
observers 98212
inform 98211
ative 98210
m@@ 98209
collection 98208
component 98207
senior 98206
corruption 98205
attacks 98204
companies 98203
amendments 98202
design 98201
gross 98200
believe 98199
sentence 98198
g 98197
marriage 98196
followed 98195
accused 98194
over@@ 98193
emphasized 98192
se@@ 98191
ratified 98190
200 98189
confidence 98188
donor 98187
mind 98186
consent 98185
mainly 98184
Supreme 98183
courses 98182
causes 98181
Ministers 98180
allegations 98179
expression 98178
shown 98177
actual 98176
reducing 98175
express 98174
fair 98173
Switzerland 98172
words 98171
imprisonment 98170
Officer 98169
dollars 98168
solutions 98167
Al 98166
University 98165
statistical 98164
granted 98163
workshop 98162
avoid 98161
organs 98160
advance 98159
medium 98158
reach 98157
fields 98156
alleged 98155
participating 98154
accepted 98153
North 98152
considering 98151
shared 98150
face 98149
cross 98148
Weapons 98147
integrity 98146
separate 98145
type 98144
reproductive 98143
English 98142
insurance 98141
Western 98140
UNIDO 98139
ill 98138
aware 98137
times 98136
aircraft 98135
affairs 98134
record 98133
engaged 98132
category 98131
assess 98130
Guinea 98129
trust 98128
markets 98127
remaining 98126
industry 98125
forest 98124
Territories 98123
Zealand 98122
cause 98121
collective 98120
series 98119
electronic 98118
di@@ 98117
raise 98116
Kosovo 98115
Assistance 98114
model 98113
dissemination 98112
safe 98111
ings 98110
ments 98109
reintegration 98108
damage 98107
always 98106
relief 98105
ro@@ 98104
Cyprus 98103
appointment 98102
seven 98101
registered 98100
threats 98099
75 98098
penalty 98097
highest 98096
Ambassador 98095
interpretation 98094
Operations 98093
3,@@ 98092
speaking 98091
se 98090
find 98089
el@@ 98088
Islands 98087
fight 98086
Experts 98085
im@@ 98084
headquarters 98083
risks 98082
ILO 98081
eliminate 98080
reforms 98079
accounts 98078
reason 98077
ary 98076
paras 98075
advisory 98074
ses 98073
visits 98072
Egypt 98071
Framework 98070
function 98069
&apos;@@ 98068
mutual 98067
setting 98066
respectively 98065
allowed 98064
categories 98063
territorial 98062
functioning 98061
Prosecutor 98060
ity 98059
Fifth 98058
tive 98057
welcome 98056
Spain 98055
ar 98054
unless 98053
Indonesia 98052
immediately 98051
site 98050
n 98049
internationally 98048
... 98047
norms 98046
options 98045
records 98044
it@@ 98043
contributed 98042
holding 98041
In 98040
racism 98039
lives 98038
industrial 98037
identification 98036
likely 98035
recorded 98034
OHCHR 98033
Northern 98032
tasks 98031
cash 98030
L 98029
seen 98028
enjoyment 98027
observed 98026
nor 98025
findings 98024
18@@ 98023
arrest 98022
teachers 98021
consumption 98020
In@@ 98019
preventing 98018
prosecution 98017
existence 98016
entered 98015
le@@ 98014
outcomes 98013
counter 98012
guarantees 98011
amendment 98010
availability 98009
ad@@ 98008
j@@ 98007
Italy 98006
unit 98005
Liberia 98004
elimination 98003
restrictions 98002
sought 98001
targets 98000
complex 97999
crucial 97998
Chairperson 97997
substantial 97996
expenditures 97995
structures 97994
me 97993
red 97992
Decade 97991
birth 97990
Family 97989
requirement 97988
co@@ 97987
Inter 97986
electoral 97985
side 97984
lo@@ 97983
sub@@ 97982
Roma 97981
funded 97980
First 97979
finally 97978
Colombia 97977
extend 97976
ors 97975
added 97974
subsequently 97973
responses 97972
disability 97971
mortality 97970
thematic 97969
old 97968
enterprises 97967
forum 97966
Ukraine 97965
Croatia 97964
Vice 97963
identity 97962
considers 97961
migrant 97960
increasingly 97959
contains 97958
governing 97957
survey 97956
judge 97955
populations 97954
kind 97953
Sweden 97952
N 97951
supplies 97950
Argentina 97949
Internet 97948
Forms 97947
et 97946
regulation 97945
considerable 97944
recognizes 97943
listed 97942
emerging 97941
Chamber 97940
sovereignty 97939
candidates 97938
formulation 97937
failure 97936
Deputy 97935
equitable 97934
sed 97933
ding 97932
endorsed 97931
executive 97930
duties 97929
multi 97928
Sierra 97927
secure 97926
science 97925
4,@@ 97924
Gaza 97923
Population 97922
Haiti 97921
press 97920
perspective 97919
13@@ 97918
completion 97917
values 97916
he@@ 97915
opening 97914
IN@@ 97913
contracts 97912
discuss 97911
engage 97910
trends 97909
Technical 97908
or@@ 97907
creating 97906
COP 97905
Torture 97904
subsidiary 97903
almost 97902
Refugees 97901
protected 97900
realization 97899
produced 97898
300 97897
V 97896
indeed 97895
expresses 97894
subprogramme 97893
faced 97892
obtain 97891
15@@ 97890
previously 97889
v. 97888
est 97887
commission 97886
custody 97885
highlighted 97884
VI 97883
allocated 97882
fulfil 97881
base 97880
pending 97879
Habitat 97878
welfare 97877
examination 97876
networks 97875
Asian 97874
detained 97873
mental 97872
IAEA 97871
linked 97870
Technology 97869
comply 97868
Third 97867
associations 97866
Great 97865
campaign 97864
eight 97863
sion 97862
73 97861
back 97860
inclusive 97859
internally 97858
offer 97857
er@@ 97856
seeking 97855
Burundi 97854
assessed 97853
content 97852
whom 97851
budgetary 97850
Procedure 97849
too 97848
bearing 97847
aged 97846
preventive 97845
Ch@@ 97844
updated 97843
arising 97842
si@@ 97841
conformity 97840
Jerusalem 97839
strongly 97838
preliminary 97837
discriminatory 97836
thirty 97835
drugs 97834
Leone 97833
socio 97832
Members 97831
initiated 97830
earlier 97829
allocation 97828
sound 97827
acting 97826
pointed 97825
lessons 97824
agriculture 97823
ants 97822
juvenile 97821
departments 97820
drafting 97819
committees 97818
competition 97817
72 97816
commissions 97815
nationals 97814
entire 97813
recognize 97812
convened 97811
Humanitarian 97810
5,@@ 97809
Indigenous 97808
coverage 97807
numerous 97806
publications 97805
aims 97804
money 97803
publication 97802
Internal 97801
marine 97800
affect 97799
liberty 97798
zone 97797
reservations 97796
residence 97795
outstanding 97794
etc 97793
Fourth 97792
500 97791
nevertheless 97790
tr@@ 97789
otherwise 97788
favour 97787
reconciliation 97786
accounting 97785
Azerbaijan 97784
prostitution 97783
targeted 97782
CN.4 97781
delay 97780
14@@ 97779
.1 97778
payments 97777
ou@@ 97776
Morocco 97775
systematic 97774
maximum 97773
Space 97772
f 97771
containing 97770
ex@@ 97769
processing 97768
ap@@ 97767
offered 97766
presentation 97765
Prime 97764
encouraging 97763
om@@ 97762
race 97761
components 97760
IC@@ 97759
significantly 97758
maintained 97757
instance 97756
ical 97755
enabling 97754
judiciary 97753
Questions 97752
19@@ 97751
oversight 97750
latter 97749
diseases 97748
vehicles 97747
uses 97746
closed 97745
release 97744
Principles 97743
wishes 97742
forth 97741
Research 97740
perpetrators 97739
charge 97738
1.@@ 97737
diversity 97736
um 97735
IS@@ 97734
employees 97733
hoped 97732
name 97731
71 97730
week 97729
oil 97728
invites 97727
limit 97726
road 97725
minors 97724
start 97723
rise 97722
Training 97721
legitimate 97720
ul@@ 97719
par@@ 97718
dignity 97717
ators 97716
amounts 97715
waste 97714
arrested 97713
go 97712
Gender 97711
convention 97710
details 97709
eradication 97708
ac@@ 97707
Al@@ 97706
protecting 97705
wished 97704
satisfaction 97703
Field 97702
expenses 97701
globalization 97700
preparatory 97699
expansion 97698
detainees 97697
specified 97696
supports 97695
original 97694
round 97693
le 97692
learning 97691
exist 97690
man 97689
ties 97688
experiences 97687
carrying 97686
subjected 97685
interested 97684
diplomatic 97683
Nigeria 97682
except 97681
primarily 97680
direction 97679
Food 97678
proper 97677
city 97676
engagement 97675
il@@ 97674
mine 97673
selected 97672
ator 97671
alization 97670
vital 97669
ine 97668
obtained 97667
job 97666
Chile 97665
ag@@ 97664
safeguards 97663
examine 97662
UNESCO 97661
sustained 97660
facilitating 97659
proportion 97658
highly 97657
sea 97656
read 97655
powers 97654
incidents 97653
ak@@ 97652
ra@@ 97651
credit 97650
76 97649
cycle 97648
preparing 97647
regulatory 97646
prohibited 97645
El 97644
pl@@ 97643
flows 97642
unemployment 97641
Status 97640
located 97639
decrease 97638
why 97637
geographical 97636
productive 97635
stations 97634
be@@ 97633
substances 97632
thereby 97631
speakers 97630
drawn 97629
Peacekeeping 97628
Financial 97627
Darfur 97626
De@@ 97625
unable 97624
Spanish 97623
Sea 97622
400 97621
Regulations 97620
declared 97619
x 97618
Control 97617
decide 97616
emissions 97615
mis@@ 97614
6,@@ 97613
theme 97612
es@@ 97611
op@@ 97610
recalled 97609
Serbia 97608
maintaining 97607
designated 97606
frameworks 97605
binding 97604
Drugs 97603
occurred 97602
verification 97601
seminars 97600
move 97599
74 97598
attended 97597
giving 97596
daily 97595
Lebanese 97594
Observer 97593
ic@@ 97592
nations 97591
circulated 97590
interim 97589
disabled 97588
&apos;Ivoire 97587
left 97586
reiterates 97585
i.e. 97584
is@@ 97583
ol@@ 97582
ed@@ 97581
settlements 97580
makes 97579
Peru 97578
principal 97577
L.@@ 97576
learned 97575
heard 97574
a.m. 97573
Austria 97572
obstacles 97571
sites 97570
guaranteed 97569
Ethiopia 97568
Iraqi 97567
Assistant 97566
7,@@ 97565
em@@ 97564
Staff 97563
affecting 97562
Forces 97561
Côte 97560
disasters 97559
95 97558
Georgia 97557
po@@ 97556
association 97555
intention 97554
sale 97553
Congress 97552
receiving 97551
permit 97550
qu@@ 97549
empowerment 97548
v 97547
entity 97546
Guatemala 97545
campaigns 97544
confirmed 97543
prohibition 97542
room 97541
Peoples 97540
refer 97539
here 97538
la 97537
coordinate 97536
ever 97535
tool 97534
extension 97533
examined 97532
violated 97531
C.2 97530
Penal 97529
vocational 97528
Budgetary 97527
Myanmar 97526
charges 97525
Year 97524
e.g. 97523
des 97522
ons 97521
Eastern 97520
78 97519
hoc 97518
identifying 97517
chemical 97516
,000 97515
Finland 97514
background 97513
spirit 97512
heads 97511
keep 97510
attend 97509
pursue 97508
2.@@ 97507
owned 97506
Timor 97505
complaint 97504
enter 97503
arbitrary 97502
ages 97501
federal 97500
head 97499
85 97498
facing 97497
fuel 97496
CRC 97495
employed 97494
O 97493
Algeria 97492
reaffirms 97491
remedies 97490
widely 97489
UN@@ 97488
.2 97487
examples 97486
ownership 97485
governments 97484
Czech 97483
topic 97482
competence 97481
pre@@ 97480
Kenya 97479
late 97478
turn 97477
liability 97476
resolve 97475
83 97474
Belgium 97473
history 97472
improvements 97471
transparent 97470
ur@@ 97469
sustainability 97468
600 97467
ha@@ 97466
though 97465
transmitted 97464
teams 97463
D. 97462
Trust 97461
sanitation 97460
Hoc 97459
draw 97458
regards 97457
grant 97456
transit 97455
Racial 97454
extradition 97453
failed 97452
jointly 97451
sing 97450
users 97449
tax 97448
Initiative 97447
Scientific 97446
dealt 97445
Universal 97444
disputes 97443
foster 97442
0.@@ 97441
scheduled 97440
reasonable 97439
Ad 97438
adolescents 97437
VII 97436
FAO 97435
enjoy 97434
constructive 97433
played 97432
numbers 97431
impunity 97430
degree 97429
complainant 97428
Uganda 97427
Sub 97426
Belarus 97425
Statute 97424
consultative 97423
structural 97422
regularly 97421
81 97420
attached 97419
Decree 97418
Under 97417
coordinating 97416
96 97415
reiterated 97414
king 97413
differences 97412
factor 97411
Subcommittee 97410
investments 97409
79 97408
82 97407
show 97406
UNODC 97405
pa@@ 97404
agree 97403
website 97402
advocacy 97401
figure 97400
C.5 97399
achievements 97398
Terrorism 97397
reconstruction 97396
reaffirming 97395
Ombudsman 97394
premises 97393
legally 97392
extensive 97391
adaptation 97390
element 97389
spoke 97388
mines 97387
database 97386
con@@ 97385
reply 97384
mainstreaming 97383
reviews 97382
delivered 97381
impacts 97380
Poland 97379
Philippines 97378
Coordinator 97377
sections 97376
16@@ 97375
observer 97374
trained 97373
ve 97372
C.3 97371
97 97370
rapid 97369
dispute 97368
troops 97367
ter 97366
covering 97365
17@@ 97364
woman 97363
Movement 97362
investigate 97361
assigned 97360
produce 97359
98 97358
innovative 97357
distributed 97356
contrary 97355
assisting 97354
never 97353
res@@ 97352
contain 97351
Resources 97350
93 97349
stresses 97348
nine 97347
expanded 97346
constraints 97345
figures 97344
suffering 97343
envisaged 97342
worked 97341
out@@ 97340
incorporated 97339
mandated 97338
1989 97337
8,@@ 97336
staffing 97335
An@@ 97334
announced 97333
Monitoring 97332
la@@ 97331
combined 97330
94 97329
pilot 97328
technological 97327
EU 97326
Thailand 97325
focal 97324
modalities 97323
welcoming 97322
99 97321
NGO 97320
near 97319
prices 97318
under@@ 97317
reaffirmed 97316
counsel 97315
represent 97314
pro@@ 97313
witnesses 97312
88 97311
84 97310
87 97309
per@@ 97308
C.1 97307
outlined 97306
Denmark 97305
me@@ 97304
officer 97303
mail 97302
appeals 97301
Power 97300
bringing 97299
91 97298
bl@@ 97297
mobilization 97296
district 97295
ality 97294
Armenia 97293
92 97292
maternal 97291
Energy 97290
outer 97289
Ad@@ 97288
grave 97287
company 97286
product 97285
sensitive 97284
teaching 97283
believes 97282
NPT 97281
mother 97280
losses 97279
psychological 97278
p.m 97277
belonging 97276
solidarity 97275
deep 97274
consequently 97273
let 97272
execution 97271
Independent 97270
controlled 97269
capabilities 97268
lines 97267
Preparatory 97266
resumed 97265
allowance 97264
worldwide 97263
minor 97262
comment 97261
killed 97260
3.@@ 97259
burden 97258
AN@@ 97257
monthly 97256
transferred 97255
Turkish 97254
chemicals 97253
methodology 97252
Task 97251
humanity 97250
Britain 97249
st 97248
periods 97247
accept 97246
Bangladesh 97245
9,@@ 97244
older 97243
deliberations 97242
rape 97241
camps 97240
option 97239
directed 97238
homes 97237
price 97236
Cambodia 97235
Rev.1 97234
vision 97233
troop 97232
Costa 97231
ni@@ 97230
WHO 97229
appear 97228
resident 97227
te 97226
house 97225
.4 97224
explained 97223
reservation 97222
floor 97221
Nairobi 97220
trend 97219
radio 97218
shows 97217
89 97216
700 97215
sponsors 97214
anniversary 97213
ir@@ 97212
began 97211
insufficient 97210
extreme 97209
adjustment 97208
ministries 97207
vulnerability 97206
AC@@ 97205
location 97204
enterprise 97203
grateful 97202
little 97201
86 97200
Sri 97199
ES 97198
deprived 97197
perform 97196
facts 97195
composition 97194
K 97193
Constitutional 97192
Co@@ 97191
prisons 97190
ot@@ 97189
man@@ 97188
link 97187
800 97186
Professional 97185
constitutes 97184
r 97183
selection 97182
00 97181
interventions 97180
savings 97179
tourism 97178
ks 97177
opened 97176
limits 97175
standing 97174
ty 97173
af@@ 97172
ones 97171
test 97170
Ecuador 97169
LDCs 97168
gap 97167
weeks 97166
doing 97165
intervention 97164
names 97163
Platform 97162
involve 97161
released 97160
Jordan 97159
focusing 97158
Ministerial 97157
H 97156
century 97155
budgets 97154
Com@@ 97153
Equality 97152
mo@@ 97151
sets 97150
Treatment 97149
pension 97148
recalls 97147
Comprehensive 97146
acquisition 97145
relevance 97144
preparations 97143
attack 97142
soldiers 97141
Expert 97140
arts 97139
compulsory 97138
accessible 97137
expand 97136
reaching 97135
links 97134
Developing 97133
Youth 97132
Defence 97131
Malaysia 97130
programming 97129
finding 97128
Angola 97127
customs 97126
seminar 97125
boys 97124
served 97123
look 97122
guide 97121
rest 97120
Project 97119
ship 97118
Financing 97117
serving 97116
topics 97115
900 97114
repatriation 97113
CD 97112
suffered 97111
alized 97110
exports 97109
charged 97108
Planning 97107
roles 97106
ob@@ 97105
Beijing 97104
1988 97103
duration 97102
Partnership 97101
ci@@ 97100
demands 97099
thank 97098
Montenegro 97097
belief 97096
utilization 97095
ho@@ 97094
acceptance 97093
severe 97092
update 97091
behaviour 97090
Violence 97089
Venezuela 97088
transactions 97087
citizenship 97086
begin 97085
OIOS 97084
sectoral 97083
run 97082
size 97081
demonstrated 97080
abroad 97079
replies 97078
gaps 97077
sive 97076
treated 97075
attempt 97074
procedural 97073
condition 97072
U 97071
convicted 97070
financed 97069
Uruguay 97068
advancement 97067
integrate 97066
alone 97065
broader 97064
conducting 97063
Portugal 97062
jobs 97061
ling 97060
ON 97059
bi@@ 97058
posed 97057
ah 97056
letters 97055
Y 97054
represents 97053
lasting 97052
coming 97051
inadequate 97050
undertaking 97049
similarly 97048
instead 97047
Excellency 97046
locations 97045
qualified 97044
Hungary 97043
widespread 97042
Di@@ 97041
nation 97040
aries 97039
ministerial 97038
controls 97037
panel 97036
intolerance 97035
born 97034
Southern 97033
societies 97032
recommend 97031
Official 97030
representing 97029
works 97028
Mechanism 97027
ban 97026
TO 97025
biological 97024
transportation 97023
Auditors 97022
remedy 97021
latest 97020
stages 97019
WTO 97018
voting 97017
invitation 97016
ec@@ 97015
Romania 97014
requesting 97013
cities 97012
true 97011
Day 97010
adopting 97009
transnational 97008
consolidated 97007
ending 97006
started 97005
believed 97004
end@@ 97003
formed 97002
orders 97001
modern 97000
substance 96999
municipal 96998
aggression 96997
Network 96996
Palestinians 96995
became 96994
Eritrea 96993
managers 96992
UNRWA 96991
reflects 96990
Nepal 96989
Promotion 96988
Lanka 96987
vi@@ 96986
Kazakhstan 96985
indicates 96984
balanced 96983
changing 96982
oral 96981
unilateral 96980
Statistics 96979
supervision 96978
overcome 96977
Interior 96976
deployed 96975
Ex@@ 96974
away 96973
harm 96972
version 96971
considerations 96970
relatively 96969
Strategic 96968
oriented 96967
SR.@@ 96966
coherence 96965
hearing 96964
forums 96963
Trafficking 96962
joined 96961
Rica 96960
gr@@ 96959
schedule 96958
advantage 96957
facility 96956
organize 96955
sp@@ 96954
deaths 96953
largely 96952
influence 96951
Military 96950
inhuman 96949
no@@ 96948
emphasizes 96947
212 96946
adequately 96945
Ar@@ 96944
trans@@ 96943
ds 96942
fire 96941
inspection 96940
devoted 96939
degrading 96938
sense 96937
lands 96936
contents 96935
UNOPS 96934
promoted 96933
gave 96932
conservation 96931
Q@@ 96930
com@@ 96929
Greece 96928
pressure 96927
came 96926
Con@@ 96925
determining 96924
professionals 96923
equally 96922
citizen 96921
returned 96920
acknowledged 96919
penalties 96918
stable 96917
assisted 96916
withdrawal 96915
passed 96914
introduce 96913
ure 96912
variety 96911
enforced 96910
20@@ 96909
ma@@ 96908
tolerance 96907
ati@@ 96906
traffic 96905
disposal 96904
thousands 96903
manage 96902
adverse 96901
transmit 96900
0 96899
sts 96898
Lithuania 96897
1st 96896
Saudi 96895
search 96894
equity 96893
AT@@ 96892
Foundation 96891
ne@@ 96890
AS@@ 96889
Paris 96888
revision 96887
Safety 96886
increases 96885
Small 96884
regardless 96883
ably 96882
seekers 96881
seriously 96880
2nd 96879
accession 96878
RE@@ 96877
lawyers 96876
Oversight 96875
tenth 96874
mid 96873
Conventions 96872
extremely 96871
academic 96870
visited 96869
Armed 96868
convinced 96867
exception 96866
embargo 96865
male 96864
ving 96863
Self 96862
ICT 96861
scheme 96860
Employment 96859
largest 96858
En@@ 96857
sentenced 96856
to@@ 96855
everyone 96854
protocol 96853
ev@@ 96852
constituted 96851
partner 96850
integral 96849
Salvador 96848
Red 96847
ph@@ 96846
estimate 96845
Mar@@ 96844
contingent 96843
str@@ 96842
12@@ 96841
fied 96840
rose 96839
households 96838
writing 96837
managed 96836
south 96835
CO@@ 96834
ten 96833
Friday 96832
J 96831
so@@ 96830
Tanzania 96829
airspace 96828
Part 96827
experienced 96826
reportedly 96825
performed 96824
Finance 96823
ying 96822
Proliferation 96821
ER@@ 96820
CEDAW 96819
papers 96818
HRC 96817
conclude 96816
ago 96815
up@@ 96814
tic 96813
son 96812
ready 96811
join 96810
z 96809
res 96808
valuable 96807
drew 96806
é@@ 96805
decline 96804
Operation 96803
operate 96802
southern 96801
mi@@ 96800
firm 96799
introducing 96798
multiple 96797
continuous 96796
becoming 96795
decade 96794
neither 96793
laid 96792
functional 96791
His 96790
covers 96789
felt 96788
Science 96787
grants 96786
accommodation 96785
non@@ 96784
AR@@ 96783
fall 96782
zones 96781
helped 96780
north 96779
choice 96778
X 96777
Monday 96776
Intergovernmental 96775
Agriculture 96774
salary 96773
code 96772
ideas 96771
Slovenia 96770
St@@ 96769
sometimes 96768
copies 96767
generation 96766
1,000 96765
4.@@ 96764
suggestions 96763
composed 96762
Corr.1 96761
gas 96760
gh@@ 96759
su@@ 96758
pertaining 96757
conjunction 96756
continuation 96755
den@@ 96754
ist 96753
ational 96752
fying 96751
depth 96750
ic 96749
allegedly 96748
bo@@ 96747
Afghan 96746
satellite 96745
tory 96744
der 96743
fi@@ 96742
segment 96741
On 96740
authors 96739
expressing 96738
reviewing 96737
employers 96736
customary 96735
wider 96734
advanced 96733
sign 96732
harassment 96731
disciplinary 96730
deprivation 96729
ves 96728
formulated 96727
fishing 96726
linkages 96725
outreach 96724
relate 96723
distinction 96722
sions 96721
neighbouring 96720
barriers 96719
requiring 96718
remote 96717
stipulates 96716
Macedonia 96715
rejected 96714
launch 96713
Bulgaria 96712
vehicle 96711
for@@ 96710
corresponding 96709
judgement 96708
commit 96707
Committees 96706
Bolivia 96705
fixed 96704
crises 96703
fication 96702
degradation 96701
ness 96700
instances 96699
GEF 96698
projected 96697
helping 96696
removal 96695
unique 96694
cl@@ 96693
Climate 96692
violent 96691
Occupied 96690
commended 96689
borders 96688
Tunisia 96687
cruel 96686
phenomenon 96685
ay@@ 96684
mothers 96683
Senegal 96682
Chinese 96681
character 96680
counselling 96679
lastly 96678
bank 96677
PR@@ 96676
120 96675
war@@ 96674
unlawful 96673
occasion 96672
movements 96671
demobilization 96670
inventory 96669
moral 96668
opposition 96667
W 96666
ya 96665
60@@ 96664
disaggregated 96663
Directorate 96662
Pro@@ 96661
overview 96660
mining 96659
um@@ 96658
Integrated 96657
subjects 96656
ch 96655
board 96654
urge 96653
corporate 96652
say 96651
newly 96650
banks 96649
usually 96648
Libyan 96647
ological 96646
acceptable 96645
disease 96644
Guidelines 96643
trading 96642
understand 96641
transfers 96640
reliable 96639
id@@ 96638
adjustments 96637
pleased 96636
signing 96635
sentences 96634
administering 96633
proceed 96632
Kyoto 96631
wage 96630
xenophobia 96629
ked 96628
referring 96627
briefing 96626
col@@ 96625
lost 96624
bill 96623
Rio 96622
adults 96621
lists 96620
ge@@ 96619
favourable 96618
filed 96617
Change 96616
word 96615
displacement 96614
outputs 96613
unions 96612
explanation 96611
Society 96610
allowing 96609
respected 96608
Mo@@ 96607
applies 96606
deeply 96605
flow 96604
genocide 96603
journalists 96602
exclusion 96601
television 96600
Standing 96599
faith 96598
negotiation 96597
dedicated 96596
Heads 96595
nearly 96594
denied 96593
Add.@@ 96592
consultants 96591
annually 96590
asset 96589
bound 96588
hi@@ 96587
Se@@ 96586
Ac@@ 96585
built 96584
seeks 96583
ari@@ 96582
Model 96581
army 96580
Cameroon 96579
consolidation 96578
instructions 96577
notification 96576
dependent 96575
a.m 96574
ters 96573
warning 96572
spread 96571
min@@ 96570
extrabudgetary 96569
immigration 96568
contractual 96567
parliamentary 96566
replace 96565
station 96564
danger 96563
Thursday 96562
provincial 96561
WFP 96560
te@@ 96559
pornography 96558
tri@@ 96557
closure 96556
applying 96555
pupils 96554
comprising 96553
notably 96552
Albania 96551
fo@@ 96550
Mali 96549
mitigation 96548
Migration 96547
appears 96546
os@@ 96545
conventional 96544
hazardous 96543
import 96542
fisheries 96541
deemed 96540
provinces 96539
relative 96538
Sixth 96537
kept 96536
try 96535
claimed 96534
Welfare 96533
schemes 96532
Moldova 96531
reflecting 96530
offenders 96529
sovereign 96528
transitional 96527
changed 96526
Island 96525
abuses 96524
delays 96523
defenders 96522
responding 96521
ratify 96520
ze 96519
household 96518
prejudice 96517
evaluate 96516
offers 96515
strict 96514
cluster 96513
harmonization 96512
freely 96511
define 96510
Use 96509
texts 96508
restructuring 96507
fiscal 96506
speak 96505
Mrs. 96504
accountable 96503
leaving 96502
web 96501
transmitting 96500
Protocols 96499
expulsion 96498
ful 96497
ang@@ 96496
nutrition 96495
limitations 96494
GDP 96493
organizing 96492
Uzbekistan 96491
village 96490
Nam 96489
normal 96488
successfully 96487
demonstrate 96486
testing 96485
decades 96484
agents 96483
forthcoming 96482
servicing 96481
League 96480
flexibility 96479
Ghana 96478
amounted 96477
understood 96476
surveys 96475
assessing 96474
reality 96473
fulfilment 96472
intellectual 96471
Tuesday 96470
ently 96469
prosecutors 96468
equivalent 96467
pi@@ 96466
ement 96465
competitive 96464
forests 96463
ATION 96462
us@@ 96461
Budget 96460
eligible 96459
Inter@@ 96458
Yugoslav 96457
ret@@ 96456
properly 96455
facilitated 96454
statute 96453
supplementary 96452
enshrined 96451
showed 96450
method 96449
restricted 96448
environmentally 96447
disadvantaged 96446
Punishment 96445
inputs 96444
issuance 96443
drawing 96442
machinery 96441
ach@@ 96440
begun 96439
clarification 96438
disseminate 96437
Gu@@ 96436
biodiversity 96435
biennial 96434
harmful 96433
purchase 96432
techniques 96431
27@@ 96430
mandatory 96429
alternatives 96428
refers 96427
Open 96426
Slovakia 96425
separation 96424
map 96423
evaluations 96422
coastal 96421
Adviser 96420
pursued 96419
Reduction 96418
Wednesday 96417
0,000 96416
Nicaragua 96415
Tajikistan 96414
9.@@ 96413
IT@@ 96412
permitted 96411
DP 96410
tors 96409
deliver 96408
Acting 96407
incorporate 96406
renewed 96405
beneficiaries 96404
Chad 96403
laundering 96402
é 96401
Rome 96400
av@@ 96399
dangerous 96398
strength 96397
elaboration 96396
5,000 96395
stand 96394
ter@@ 96393
British 96392
suitable 96391
establishes 96390
submissions 96389
Viet 96388
Team 96387
AL@@ 96386
attributable 96385
historical 96384
residents 96383
ent@@ 96382
fe@@ 96381
interaction 96380
top 96379
alize 96378
calling 96377
regarded 96376
volume 96375
literacy 96374
characteristics 96373
RIGHTS 96372
presidential 96371
UNCITRAL 96370
atory 96369
ain 96368
anticipated 96367
sides 96366
stock 96365
ast@@ 96364
patterns 96363
explore 96362
capable 96361
attempts 96360
fighting 96359
negotiating 96358
ordinary 96357
Yemen 96356
object 96355
Transitional 96354
alizing 96353
fiftieth 96352
cor@@ 96351
subparagraph 96350
idea 96349
mercury 96348
union 96347
incurred 96346
liaison 96345
foreigners 96344
starting 96343
enough 96342
flexible 96341
VIII 96340
au@@ 96339
6.@@ 96338
Disabilities 96337
friendly 96336
i. 96335
@ 96334
Peacebuilding 96333
heavy 96332
resolved 96331
signature 96330
Process 96329
replaced 96328
simply 96327
Latvia 96326
arrangement 96325
ke 96324
Mauritius 96323
orientation 96322
ir 96321
w 96320
marked 96319
ov@@ 96318
sponsored 96317
format 96316
mention 96315
vacancy 96314
Local 96313
fees 96312
actually 96311
frequently 96310
IN 96309
memorandum 96308
register 96307
conviction 96306
granting 96305
observance 96304
Drug 96303
larger 96302
ex 96301
placement 96300
witness 96299
page 96298
detail 96297
5.@@ 96296
accompanied 96295
Inspection 96294
municipalities 96293
ka 96292
Cross 96291
desertification 96290
stocks 96289
As@@ 96288
holders 96287
output 96286
gives 96285
contacts 96284
coherent 96283
thereto 96282
mobilize 96281
alities 96280
SBI 96279
convening 96278
1967 96277
expanding 96276
productivity 96275
stress 96274
guided 96273
occur 96272
wastes 96271
Ab@@ 96270
Montreal 96269
SBSTA 96268
Session 96267
parent 96266
meaning 96265
ering 96264
explosive 96263
ances 96262
northern 96261
fl@@ 96260
declarations 96259
mon@@ 96258
hospitals 96257
exceptional 96256
add 96255
Settlements 96254
talks 96253
Arabia 96252
presents 96251
eastern 96250
tes 96249
genuine 96248
buildings 96247
pose 96246
conducive 96245
tried 96244
ii 96243
seized 96242
sur@@ 96241
invite 96240
Indian 96239
ging 96238
lawyer 96237
Educational 96236
cooperative 96235
storage 96234
analytical 96233
TA@@ 96232
port 96231
notice 96230
innovation 96229
pollution 96228
cutting 96227
Doha 96226
title 96225
incident 96224
mean 96223
relationships 96222
EC@@ 96221
26@@ 96220
injury 96219
responded 96218
thereon 96217
pregnant 96216
input 96215
Head 96214
appropriation 96213
pregnancy 96212
Estonia 96211
Combat 96210
clarify 96209
themes 96208
Relations 96207
farmers 96206
29@@ 96205
entrusted 96204
attitudes 96203
bear 96202
stipulated 96201
receipt 96200
beings 96199
ace 96198
greatly 96197
commodity 96196
3rd 96195
necessity 96194
PA 96193
orally 96192
providers 96191
formulate 96190
inhabitants 96189
allows 96188
ously 96187
occupying 96186
thanks 96185
Communications 96184
translation 96183
heritage 96182
ge 96181
observation 96180
150 96179
MDGs 96178
peacebuilding 96177
Their 96176
Strip 96175
suspected 96174
sufficiently 96173
we@@ 96172
balances 96171
incentives 96170
ely 96169
1990s 96168
sect 96167
consists 96166
whereas 96165
rel@@ 96164
injured 96163
things 96162
ia 96161
obtaining 96160
Increased 96159
macroeconomic 96158
San 96157
enrolment 96156
dimensions 96155
emphasize 96154
operative 96153
ps 96152
opinions 96151
assembly 96150
105 96149
inquiry 96148
101 96147
chap 96146
pages 96145
sec@@ 96144
going 96143
objection 96142
accurate 96141
Singapore 96140
Right 96139
12.@@ 96138
breach 96137
ay 96136
Prohibition 96135
stay 96134
Anti 96133
auspices 96132
OECD 96131
har@@ 96130
Qatar 96129
headed 96128
salaries 96127
hard 96126
Malta 96125
package 96124
ST@@ 96123
entering 96122
reserve 96121
maritime 96120
Counter 96119
aspect 96118
hunger 96117
Bissau 96116
managing 96115
appeared 96114
acquired 96113
vis 96112
renewable 96111
track 96110
behind 96109
possession 96108
interference 96107
reductions 96106
ology 96105
industries 96104
1986 96103
Developed 96102
authorization 96101
revenue 96100
facilitation 96099
loans 96098
punishable 96097
thought 96096
explain 96095
gains 96094
relates 96093
Jamaica 96092
eliminating 96091
ammunition 96090
ines 96089
currency 96088
villages 96087
thereof 96086
EC 96085
underlying 96084
greatest 96083
concepts 96082
X@@ 96081
e. 96080
whereby 96079
platform 96078
Leste 96077
hospital 96076
continent 96075
proved 96074
carbon 96073
City 96072
Im@@ 96071
Li@@ 96070
Outer 96069
ve@@ 96068
tu@@ 96067
Records 96066
tables 96065
Organized 96064
5th 96063
Iceland 96062
FOR 96061
spent 96060
votes 96059
valid 96058
liabilities 96057
Ma@@ 96056
Greek 96055
mutually 96054
Luxembourg 96053
collected 96052
Chapter 96051
heading 96050
facto 96049
difference 96048
German 96047
fine 96046
stressing 96045
generated 96044
Assessment 96043
combatants 96042
terrorists 96041
foundation 96040
inequality 96039
28@@ 96038
derived 96037
Earth 96036
CERD 96035
copy 96034
Least 96033
Sahara 96032
8.@@ 96031
quarter 96030
1987 96029
propose 96028
parental 96027
As 96026
liberalization 96025
963 96024
War 96023
obliged 96022
fill 96021
prosecutor 96020
aw@@ 96019
message 96018
EN@@ 96017
ited 96016
closing 96015
computer 96014
advances 96013
ana 96012
intensify 96011
Commonwealth 96010
therein 96009
Cuban 96008
Army 96007
mer@@ 96006
generate 96005
shelter 96004
exists 96003
via 96002
recruited 96001
assumed 96000
punished 95999
Interim 95998
ships 95997
102 95996
none 95995
az@@ 95994
era 95993
indicator 95992
os 95991
consequence 95990
rapidly 95989
Environmental 95988
uni@@ 95987
arise 95986
Basel 95985
arbitration 95984
Emergency 95983
monitored 95982
fac@@ 95981
prohibit 95980
gi@@ 95979
05 95978
dimension 95977
Ban 95976
un.org 95975
length 95974
participatory 95973
enacted 95972
Durban 95971
penal 95970
preserve 95969
logistical 95968
objects 95967
Burkina 95966
adult 95965
universities 95964
prospects 95963
Faso 95962
fy 95961
prescribed 95960
permits 95959
willingness 95958
redress 95957
ten@@ 95956
ING 95955
excessive 95954
alism 95953
eg@@ 95952
admissibility 95951
108 95950
Panama 95949
ums 95948
ensured 95947
suspended 95946
devices 95945
bur@@ 95944
replacement 95943
clearance 95942
tribunal 95941
disappearance 95940
Le@@ 95939
systematically 95938
Arms 95937
maternity 95936
get 95935
Region 95934
Transnational 95933
den 95932
stop 95931
organ 95930
remuneration 95929
ratio 95928
chaired 95927
discharge 95926
administered 95925
ism 95924
termination 95923
ai@@ 95922
award 95921
connected 95920
et@@ 95919
See 95918
accelerate 95917
software 95916
assurances 95915
Mongolia 95914
OSCE 95913
houses 95912
curricula 95911
Order 95910
impose 95909
1985 95908
consisting 95907
wor@@ 95906
School 95905
persistent 95904
District 95903
prompt 95902
department 95901
districts 95900
strictly 95899
cultures 95898
110 95897
Issues 95896
ce 95895
Aligned 95894
111 95893
Mozambique 95892
targeting 95891
necessarily 95890
ali@@ 95889
11.@@ 95888
103 95887
No 95886
Country 95885
subsistence 95884
ese 95883
reaffirm 95882
want 95881
ven@@ 95880
integrating 95879
pe@@ 95878
mobile 95877
Advancement 95876
drafted 95875
ences 95874
eradicate 95873
Representatives 95872
reserves 95871
depending 95870
formation 95869
Strengthening 95868
indicating 95867
aging 95866
emphasizing 95865
reiterate 95864
OR@@ 95863
ry 95862
are@@ 95861
hostilities 95860
complement 95859
Biological 95858
ID@@ 95857
hence 95856
parallel 95855
DE@@ 95854
Arabic 95853
appoint 95852
ies 95851
Administrator 95850
explicitly 95849
finds 95848
enhancement 95847
missing 95846
Atomic 95845
protocols 95844
Resolution 95843
ched 95842
closer 95841
Consultative 95840
prosecute 95839
unity 95838
AL 95837
SA@@ 95836
prevented 95835
ders 95834
Co 95833
division 95832
els 95831
ture 95830
delegates 95829
ization 95828
dates 95827
consult 95826
gu@@ 95825
Corruption 95824
initiate 95823
existed 95822
online 95821
COM@@ 95820
curriculum 95819
ard 95818
destroyed 95817
telephone 95816
fear 95815
trials 95814
impartial 95813
progressive 95812
interactive 95811
ow@@ 95810
Saint 95809
Zambia 95808
regulated 95807
refused 95806
regrets 95805
meaningful 95804
convene 95803
CE@@ 95802
reinforce 95801
IPSAS 95800
Appeals 95799
programs 95798
invasion 95797
1980 95796
ency 95795
ess@@ 95794
frame 95793
restoration 95792
appointments 95791
Supplement 95790
immigrants 95789
landlocked 95788
prevalence 95787
ta@@ 95786
healthy 95785
Sal@@ 95784
concerted 95783
UNIFIL 95782
excluded 95781
pri@@ 95780
middle 95779
Main 95778
send 95777
ha 95776
des@@ 95775
104 95774
threatened 95773
promptly 95772
university 95771
camp 95770
file 95769
intensive 95768
province 95767
106 95766
do@@ 95765
mobility 95764
1982 95763
&amp; 95762
complementary 95761
transmission 95760
kilometres 95759
ODA 95758
consistently 95757
safeguard 95756
Sector 95755
mediation 95754
Liechtenstein 95753
collect 95752
ah@@ 95751
gain 95750
Bill 95749
diverse 95748
models 95747
father 95746
att@@ 95745
reimbursement 95744
notwithstanding 95743
ically 95742
handling 95741
cease 95740
Statistical 95739
emergencies 95738
Benin 95737
employer 95736
Procurement 95735
Facility 95734
demographic 95733
brief 95732
occasions 95731
10.@@ 95730
addresses 95729
regimes 95728
Honduras 95727
consolidate 95726
cur@@ 95725
claimant 95724
Par@@ 95723
Jamahiriya 95722
unfortunately 95721
looking 95720
ED 95719
executions 95718
root 95717
budgeting 95716
methodologies 95715
perhaps 95714
Activities 95713
attendance 95712
Electoral 95711
UNIFEM 95710
meant 95709
flight 95708
acy 95707
absolute 95706
master 95705
durable 95704
ei@@ 95703
Evaluation 95702
enabled 95701
doubt 95700
subsidies 95699
investigated 95698
exceed 95697
Workers 95696
producing 95695
Measures 95694
ordered 95693
limitation 95692
remove 95691
twentieth 95690
air@@ 95689
250 95688
births 95687
analyse 95686
Zimbabwe 95685
pattern 95684
looked 95683
credibility 95682
depend 95681
atic 95680
hosted 95679
SE@@ 95678
Organizations 95677
marginalized 95676
acquire 95675
ged 95674
secured 95673
description 95672
Dominican 95671
exploration 95670
desire 95669
merely 95668
decreased 95667
possibilities 95666
ery 95665
mostly 95664
amend 95663
Sh@@ 95662
incidence 95661
choose 95660
Former 95659
ish 95658
clean 95657
FDI 95656
submitting 95655
went 95654
summit 95653
coordinator 95652
significance 95651
involves 95650
Pension 95649
Tr@@ 95648
capability 95647
ME@@ 95646
underlined 95645
user 95644
rely 95643
millions 95642
Guide 95641
assume 95640
que 95639
removed 95638
firms 95637
Basic 95636
accounted 95635
Hague 95634
ty@@ 95633
undermine 95632
Standards 95631
112 95630
Poverty 95629
Inhuman 95628
Muslim 95627
RA@@ 95626
ale 95625
elderly 95624
du@@ 95623
street 95622
zing 95621
ng 95620
Equal 95619
30@@ 95618
translated 95617
Euro@@ 95616
hal@@ 95615
les 95614
Prosecution 95613
subregion 95612
statutory 95611
107 95610
likewise 95609
rendered 95608
prove 95607
nothing 95606
ke@@ 95605
insecurity 95604
ory 95603
Transport 95602
proceeds 95601
hatred 95600
exposure 95599
x@@ 95598
refrain 95597
comparison 95596
Branch 95595
form@@ 95594
Alliance 95593
briefings 95592
comparative 95591
Unity 95590
slavery 95589
normally 95588
killing 95587
prevailing 95586
bed 95585
AP@@ 95584
liable 95583
offset 95582
infant 95581
approve 95580
ite 95579
corporations 95578
gener@@ 95577
remarks 95576
Qu@@ 95575
servants 95574
bro@@ 95573
Logistics 95572
ail@@ 95571
duplication 95570
malaria 95569
surveillance 95568
Culture 95567
businesses 95566
og@@ 95565
BY 95564
inside 95563
Industrial 95562
repeated 95561
struggle 95560
pen@@ 95559
drought 95558
married 95557
correct 95556
Mu@@ 95555
governed 95554
decree 95553
50@@ 95552
drinking 95551
Th@@ 95550
tor@@ 95549
hear 95548
imperative 95547
instruction 95546
presentations 95545
tical 95544
compilation 95543
suffer 95542
commodities 95541
MONUC 95540
indirect 95539
willing 95538
census 95537
rich 95536
referendum 95535
contractors 95534
moving 95533
ep@@ 95532
survival 95531
Water 95530
bu@@ 95529
00@@ 95528
ing@@ 95527
CH@@ 95526
ized 95525
competitiveness 95524
encountered 95523
impossible 95522
Man@@ 95521
prohibits 95520
admission 95519
establishments 95518
Contracting 95517
Namibia 95516
Land 95515
CP@@ 95514
minutes 95513
UR@@ 95512
Independence 95511
Investment 95510
seats 95509
fostering 95508
exclusively 95507
mat@@ 95506
anyone 95505
substantially 95504
Stockholm 95503
Officers 95502
urgency 95501
acted 95500
investigating 95499
114 95498
occupational 95497
Q 95496
girl 95495
CON@@ 95494
ward 95493
decent 95492
ani 95491
ass@@ 95490
116 95489
intends 95488
Governmental 95487
od@@ 95486
focuses 95485
defining 95484
our@@ 95483
workload 95482
percent 95481
aliens 95480
duly 95479
IX 95478
enemy 95477
ecosystems 95476
fraud 95475
0,@@ 95474
ned 95473
intelligence 95472
ong 95471
relatives 95470
guilty 95469
tangible 95468
zed 95467
expectations 95466
mainstream 95465
justified 95464
130 95463
da 95462
recall 95461
cons@@ 95460
Cypriot 95459
command 95458
eb@@ 95457
fish 95456
ics 95455
career 95454
11@@ 95453
emb@@ 95452
Relief 95451
makers 95450
calendar 95449
racist 95448
benefited 95447
constant 95446
115 95445
A.@@ 95444
Degrading 95443
eng@@ 95442
Emirates 95441
corporal 95440
suspension 95439
gained 95438
her@@ 95437
wages 95436
Paraguay 95435
wishing 95434
elsewhere 95433
rental 95432
ade 95431
UNMIK 95430
VI@@ 95429
characterized 95428
redeployment 95427
Decision 95426
cr@@ 95425
Audit 95424
hy@@ 95423
exercised 95422
speaker 95421
urgently 95420
Chemical 95419
irrespective 95418
think 95417
cited 95416
whenever 95415
ne 95414
generations 95413
outline 95412
sphere 95411
endeavour 95410
submits 95409
capita 95408
IMF 95407
24@@ 95406
finalized 95405
budgeted 95404
suggest 95403
lay 95402
accorded 95401
Powers 95400
ES@@ 95399
murder 95398
Attorney 95397
town 95396
preservation 95395
Saharan 95394
the@@ 95393
113 95392
consistency 95391
CAT 95390
cut 95389
UNC@@ 95388
Narcotic 95387
ori@@ 95386
Document 95385
negotiated 95384
carefully 95383
NEPAD 95382
branch 95381
ECA 95380
desirable 95379
ens 95378
SC 95377
ends 95376
foundations 95375
credible 95374
sion@@ 95373
accomplishments 95372
deadline 95371
severely 95370
engaging 95369
IA@@ 95368
tor 95367
formulating 95366
predictable 95365
thorough 95364
IM@@ 95363
seems 95362
Bo@@ 95361
readiness 95360
Envoy 95359
features 95358
q@@ 95357
optional 95356
prosecuted 95355
exchanges 95354
train 95353
PA@@ 95352
presidency 95351
SecretaryGeneral 95350
formally 95349
references 95348
tic@@ 95347
initially 95346
Work 95345
comprises 95344
decentralization 95343
questionnaire 95342
ruling 95341
enforce 95340
manufacture 95339
Cruel 95338
accessibility 95337
retained 95336
vast 95335
electricity 95334
ahead 95333
stronger 95332
sports 95331
ministers 95330
ess 95329
109 95328
Rec@@ 95327
viable 95326
Area 95325
solely 95324
quite 95323
OAU 95322
double 95321
proof 95320
ask 95319
abortion 95318
Item 95317
C.@@ 95316
certificate 95315
engineering 95314
delayed 95313
offering 95312
mitigate 95311
CO 95310
2,000 95309
merits 95308
car@@ 95307
imports 95306
channels 95305
118 95304
completely 95303
causing 95302
himself 95301
considerably 95300
manual 95299
Responsible 95298
updating 95297
restore 95296
realized 95295
program 95294
firmly 95293
disclosure 95292
examining 95291
work@@ 95290
certification 95289
40@@ 95288
abolition 95287
tackle 95286
allocate 95285
Judicial 95284
contemporary 95283
difficulty 95282
learn 95281
generating 95280
Senior 95279
TION 95278
bar@@ 95277
_ 95276
Institutions 95275
utilized 95274
Ocean 95273
ber@@ 95272
ping 95271
TI@@ 95270
122 95269
ved 95268
For@@ 95267
tons 95266
Somali 95265
Building 95264
117 95263
Am@@ 95262
ibid 95261
advisers 95260
Su@@ 95259
Canadian 95258
east 95257
Parliamentary 95256
husband 95255
transformation 95254
spe@@ 95253
inflation 95252
hopes 95251
Minorities 95250
highlight 95249
candidate 95248
driven 95247
divided 95246
ECE 95245
CN.9 95244
aforementioned 95243
definitions 95242
declined 95241
1.2 95240
plant 95239
Car@@ 95238
decolonization 95237
CONF.@@ 95236
tin@@ 95235
retirement 95234
50,000 95233
tests 95232
UNAMID 95231
retain 95230
profit 95229
USD 95228
ef@@ 95227
ements 95226
injuries 95225
munitions 95224
100,000 95223
poorest 95222
worth 95221
slow 95220
IP@@ 95219
satisfactory 95218
privacy 95217
fu@@ 95216
exposed 95215
So@@ 95214
ech@@ 95213
ots 95212
dr@@ 95211
autonomy 95210
ultimately 95209
au 95208
allocations 95207
COMMITTEE 95206
securing 95205
annexes 95204
rising 95203
alien 95202
ranging 95201
contracting 95200
ensures 95199
consumer 95198
Golan 95197
baseline 95196
realize 95195
malnutrition 95194
dynamic 95193
pursuing 95192
appreciated 95191
fulfilling 95190
complexity 95189
condemned 95188
tensions 95187
quickly 95186
unemployed 95185
ON@@ 95184
classification 95183
tribunals 95182
applicant 95181
transaction 95180
ECOWAS 95179
An 95178
historic 95177
promotes 95176
normative 95175
killings 95174
weight 95173
hour 95172
chosen 95171
species 95170
+ 95169
adherence 95168
awarded 95167
est@@ 95166
hands 95165
Conferences 95164
borne 95163
Add.2 95162
feasible 95161
guaranteeing 95160
patients 95159
CC@@ 95158
Kuwaiti 95157
grade 95156
Monetary 95155
classes 95154
workplace 95153
Disaster 95152
un 95151
Libya 95150
resort 95149
thanked 95148
suggestion 95147
Follow 95146
weak 95145
roads 95144
firearms 95143
elaborated 95142
allowances 95141
disparities 95140
employee 95139
Diversity 95138
RC 95137
shift 95136
mar@@ 95135
guiding 95134
Violations 95133
Appeal 95132
all@@ 95131
publicly 95130
Voluntary 95129
opposed 95128
Racism 95127
organisations 95126
momentum 95125
SP 95124
imposition 95123
ren@@ 95122
ra 95121
140 95120
enjoyed 95119
F. 95118
prohibiting 95117
damages 95116
analyses 95115
Test 95114
gratitude 95113
House 95112
gar@@ 95111
4th 95110
ins 95109
ESCAP 95108
interpreted 95107
maintains 95106
Desertification 95105
ST 95104
suggests 95103
Mal@@ 95102
refusal 95101
indication 95100
ane 95099
Dialogue 95098
ver@@ 95097
Australian 95096
fissile 95095
seem 95094
138 95093
NLB 95092
inspections 95091
genital 95090
1.1 95089
70@@ 95088
religions 95087
119 95086
resettlement 95085
ban@@ 95084
preceding 95083
elaborate 95082
emerged 95081
Immigration 95080
exclusive 95079
class 95078
Kyrgyzstan 95077
wealth 95076
125 95075
separately 95074
handed 95073
Russia 95072
Fiji 95071
resolving 95070
ceasefire 95069
preparedness 95068
extrajudicial 95067
digital 95066
immunity 95065
No@@ 95064
Pl@@ 95063
Volunteers 95062
ns 95061
Rwandan 95060
soil 95059
fulfilled 95058
ners 95057
west 95056
contributes 95055
Ap@@ 95054
synergies 95053
Bolivarian 95052
iz@@ 95051
id 95050
calculated 95049
123 95048
Legislative 95047
secondly 95046
ratifying 95045
ta 95044
verbale 95043
economically 95042
Turkmenistan 95041
credentials 95040
regulate 95039
perspectives 95038
books 95037
fell 95036
Business 95035
tan@@ 95034
gathering 95033
precise 95032
Survey 95031
tw@@ 95030
adolescent 95029
registry 95028
CA@@ 95027
Mi@@ 95026
extending 95025
tel 95024
1981 95023
Round 95022
juveniles 95021
smuggling 95020
One 95019
Syria 95018
confidential 95017
sum 95016
proceeding 95015
ethics 95014
aspirations 95013
wife 95012
manufacturing 95011
logistics 95010
Victims 95009
wondered 95008
em 95007
ind@@ 95006
down@@ 95005
rapporteurs 95004
upgrading 95003
1973 95002
182 95001
atmosphere 95000
repeatedly 94999
Iranian 94998
Togo 94997
CA 94996
launching 94995
commends 94994
hu@@ 94993
Conflict 94992
Ordinance 94991
performing 94990
eleventh 94989
IS 94988
ur 94987
multi@@ 94986
1373 94985
video 94984
greenhouse 94983
atives 94982
ther@@ 94981
adjusted 94980
dual 94979
justification 94978
7.@@ 94977
saw 94976
holds 94975
acceded 94974
sole 94973
wording 94972
25@@ 94971
spending 94970
Ro@@ 94969
withdraw 94968
inherent 94967
rec@@ 94966
utmost 94965
Mediterranean 94964
121 94963
traditions 94962
tically 94961
ru@@ 94960
reading 94959
Korean 94958
Presidents 94957
Z 94956
news 94955
Draft 94954
inform@@ 94953
incitement 94952
assignment 94951
ina 94950
153 94949
inequalities 94948
executed 94947
acknowledging 94946
Library 94945
oc@@ 94944
pursuit 94943
01 94942
cu@@ 94941
FCCC 94940
thereafter 94939
HR 94938
seemed 94937
summits 94936
potentially 94935
serves 94934
09 94933
Bahrain 94932
Care 94931
aci@@ 94930
revealed 94929
legitimacy 94928
specialists 94927
hor@@ 94926
MA@@ 94925
1984 94924
moment 94923
www.@@ 94922
qualifications 94921
path 94920
Serious 94919
spite 94918
1978 94917
realistic 94916
sales 94915
ches 94914
rent 94913
declare 94912
ozone 94911
Hong 94910
detection 94909
outset 94908
evident 94907
affordable 94906
pace 94905
ports 94904
telecommunications 94903
harmonized 94902
pledges 94901
manifestations 94900
unacceptable 94899
conversion 94898
apart 94897
tur@@ 94896
Djibouti 94895
simple 94894
Regulation 94893
ageing 94892
Prison 94891
minimize 94890
monetary 94889
piracy 94888
1949 94887
viewed 94886
died 94885
180 94884
recipient 94883
disappearances 94882
acknowledges 94881
vessels 94880
motion 94879
Related 94878
massive 94877
continuity 94876
ak 94875
observe 94874
lies 94873
ant@@ 94872
Granting 94871
appraisal 94870
exercising 94869
fit 94868
Base 94867
depends 94866
suppliers 94865
Sexual 94864
impartiality 94863
Kong 94862
UNMIL 94861
and@@ 94860
Reform 94859
herewith 94858
Additional 94857
additionally 94856
undertook 94855
Note 94854
Adoption 94853
UNOCI 94852
mobilizing 94851
separated 94850
Customs 94849
constitution 94848
exceptions 94847
Cabinet 94846
attending 94845
ASEAN 94844
recurrent 94843
intimidation 94842
advantages 94841
expressly 94840
combination 94839
reas@@ 94838
vacancies 94837
FR@@ 94836
stakeholder 94835
certainly 94834
instability 94833
ot 94832
enti@@ 94831
gradually 94830
ud@@ 94829
punish 94828
descent 94827
indispensable 94826
moved 94825
Colonial 94824
waters 94823
ov 94822
returning 94821
eni@@ 94820
nongovernmental 94819
solid 94818
ls 94817
becomes 94816
wi@@ 94815
Swiss 94814
Decolonization 94813
Congolese 94812
wanted 94811
134 94810
amounting 94809
Barbados 94808
Haitian 94807
sized 94806
extraordinary 94805
turning 94804
truth 94803
partly 94802
Trial 94801
P.@@ 94800
supportive 94799
wh@@ 94798
appealed 94797
Conduct 94796
ner 94795
deterioration 94794
Suppression 94793
appreciate 94792
tel@@ 94791
hydro@@ 94790
Genocide 94789
livelihoods 94788
Dis@@ 94787
23@@ 94786
Mis@@ 94785
Sub@@ 94784
ai 94783
Register 94782
returnees 94781
partial 94780
Center 94779
councils 94778
ecosystem 94777
Lao 94776
124 94775
documented 94774
apparent 94773
spouses 94772
emission 94771
night 94770
Property 94769
NATIONS 94768
ste@@ 94767
mutilation 94766
trying 94765
ces 94764
invoked 94763
fr@@ 94762
comparable 94761
MO@@ 94760
strike 94759
XI 94758
08 94757
green 94756
ultimate 94755
AC.@@ 94754
AS 94753
attributed 94752
whatever 94751
reinforcing 94750
ble 94749
vers 94748
Pe@@ 94747
entirely 94746
prosperity 94745
aphic 94744
FI@@ 94743
tly 94742
geographic 94741
OS@@ 94740
paying 94739
ars 94738
classified 94737
oceans 94736
denial 94735
timetable 94734
debates 94733
spare 94732
HUMAN 94731
Housing 94730
assumption 94729
realities 94728
inmates 94727
spouse 94726
operated 94725
Atlantic 94724
atively 94723
sessional 94722
CR@@ 94721
06 94720
ced 94719
CI@@ 94718
adi@@ 94717
Articles 94716
islands 94715
answer 94714
assurance 94713
codes 94712
square 94711
Committed 94710
databases 94709
Guyana 94708
advancing 94707
stereotypes 94706
tures 94705
frequent 94704
jurisprudence 94703
ancy 94702
putting 94701
ases 94700
portion 94699
arrived 94698
compromise 94697
leader 94696
Illicit 94695
motivated 94694
recourse 94693
justify 94692
essentially 94691
hab@@ 94690
teacher 94689
Common 94688
Ensure 94687
speech 94686
assure 94685
Niger 94684
diversification 94683
anti@@ 94682
10,000 94681
distinct 94680
ular 94679
iii 94678
Free 94677
Annual 94676
169 94675
ment@@ 94674
stating 94673
ESCWA 94672
160 94671
tion@@ 94670
communicate 94669
violate 94668
towns 94667
UNITAR 94666
easily 94665
low@@ 94664
tively 94663
ning 94662
testimony 94661
worker 94660
disseminated 94659
Bar@@ 94658
thirds 94657
kinds 94656
comes 94655
inadmissible 94654
CC 94653
visiting 94652
preambular 94651
pillars 94650
Bi@@ 94649
commerce 94648
satisfied 94647
AD@@ 94646
Web 94645
incorporating 94644
rooms 94643
producers 94642
incorporation 94641
warrant 94640
compar@@ 94639
mark 94638
Or@@ 94637
Body 94636
Matters 94635
poses 94634
profile 94633
defend 94632
incompatible 94631
feasibility 94630
ICRC 94629
summarized 94628
ker 94627
contractor 94626
transboundary 94625
128 94624
155 94623
partially 94622
Monterrey 94621
132 94620
interviews 94619
obstacle 94618
Mor@@ 94617
investigative 94616
Me@@ 94615
student 94614
sixtieth 94613
ghts 94612
shed 94611
attitude 94610
seas 94609
admitted 94608
hearings 94607
ma 94606
exercises 94605
corrections 94604
Tokelau 94603
bul@@ 94602
roots 94601
Registrar 94600
lived 94599
tered 94598
defines 94597
Danish 94596
Further 94595
collaborative 94594
aphy 94593
adapt 94592
front 94591
fin@@ 94590
http 94589
confirm 94588
suspects 94587
pr@@ 94586
amending 94585
ill@@ 94584
payable 94583
sustain 94582
ours 94581
000 94580
linguistic 94579
restriction 94578
Forests 94577
hundreds 94576
1.5 94575
om 94574
twice 94573
founded 94572
forestry 94571
innocent 94570
TD 94569
nonetheless 94568
Malawi 94567
perpetrated 94566
cold 94565
retention 94564
Copenhagen 94563
weekly 94562
ped 94561
OP@@ 94560
miscellaneous 94559
describe 94558
voice 94557
ms 94556
ice 94555
PS 94554
126 94553
Botswana 94552
micro@@ 94551
Pri@@ 94550
residential 94549
External 94548
aviation 94547
discipline 94546
attempted 94545
secretariats 94544
landmines 94543
reparation 94542
communicated 94541
assault 94540
falling 94539
Families 94538
2.1 94537
H.E. 94536
Per@@ 94535
UNCCD 94534
GE@@ 94533
divisions 94532
Si@@ 94531
easy 94530
uniform 94529
ation@@ 94528
evaluating 94527
US@@ 94526
tics 94525
attainment 94524
JIU 94523
wing 94522
plays 94521
modified 94520
truly 94519
Final 94518
cas@@ 94517
ring 94516
Journal 94515
secret 94514
morning 94513
committing 94512
permission 94511
skilled 94510
deportation 94509
sm 94508
ECLAC 94507
colour 94506
perceived 94505
FA@@ 94504
advise 94503
abstentions 94502
Standard 94501
resume 94500
pro 94499
responsive 94498
UNPROFOR 94497
excellent 94496
deals 94495
placing 94494
6th 94493
flo@@ 94492
departure 94491
regulating 94490
Croatian 94489
destination 94488
legality 94487
smaller 94486
twelfth 94485
withdrawn 94484
sen@@ 94483
Kar@@ 94482
originally 94481
wall 94480
showing 94479
sponsoring 94478
explicit 94477
RI@@ 94476
officially 94475
pretrial 94474
speci@@ 94473
reminded 94472
Coordinating 94471
clients 94470
listing 94469
shortly 94468
Po@@ 94467
SP@@ 94466
Sudanese 94465
Integration 94464
defendant 94463
Medical 94462
verify 94461
locally 94460
und@@ 94459
135 94458
banking 94457
validity 94456
pressing 94455
sexually 94454
Taliban 94453
Situation 94452
NA@@ 94451
off@@ 94450
bis 94449
XV 94448
145 94447
pur@@ 94446
indirectly 94445
enormous 94444
fewer 94443
conscience 94442
ama 94441
counter@@ 94440
spheres 94439
2.2 94438
childhood 94437
dollar 94436
clarified 94435
Albanian 94434
unprecedented 94433
Trans@@ 94432
tension 94431
129 94430
appropriately 94429
Mon@@ 94428
resumption 94427
benchmarks 94426
tenure 94425
AM@@ 94424
investors 94423
branches 94422
equipped 94421
deleted 94420
owed 94419
Letter 94418
affects 94417
shares 94416
141 94415
Washington 94414
evolving 94413
CS@@ 94412
print 94411
institutes 94410
phases 94409
cope 94408
nominated 94407
127 94406
shortcomings 94405
Os 94404
ately 94403
advised 94402
fired 94401
London 94400
162 94399
proposes 94398
tribute 94397
evolution 94396
def@@ 94395
revenues 94394
aligned 94393
chain 94392
colonial 94391
Tribunals 94390
Consensus 94389
33@@ 94388
For 94387
ists 94386
inalienable 94385
133 94384
ash@@ 94383
contingency 94382
Cairo 94381
Goal 94380
pledged 94379
stood 94378
ang 94377
universality 94376
underscored 94375
pol@@ 94374
protective 94373
rol@@ 94372
specify 94371
clause 94370
Aid 94369
ler 94368
underlines 94367
Studies 94366
concentration 94365
parliament 94364
Samoa 94363
ba 94362
countering 94361
quantity 94360
drop 94359
Cor@@ 94358
acknowledge 94357
hand@@ 94356
consist 94355
dri@@ 94354
comprise 94353
il 94352
Amendment 94351
ished 94350
annexed 94349
ching 94348
pertinent 94347
ened 94346
1,0@@ 94345
certificates 94344
beliefs 94343
ata 94342
07 94341
200@@ 94340
stabilization 94339
picture 94338
intern@@ 94337
bas@@ 94336
authorize 94335
cooperating 94334
rem@@ 94333
breakdown 94332
Bu@@ 94331
heavily 94330
Madagascar 94329
appropriations 94328
37@@ 94327
consulted 94326
pass 94325
jurisdictions 94324
izing 94323
UNO@@ 94322
Migrant 94321
extr@@ 94320
holistic 94319
Sub.2 94318
ballot 94317
managerial 94316
autonomous 94315
marriages 94314
attract 94313
beneficial 94312
offender 94311
moun@@ 94310
Italian 94309
pensions 94308
sup@@ 94307
quick 94306
3,000 94305
cessation 94304
owners 94303
Production 94302
ocean 94301
exceeding 94300
LA@@ 94299
Eradication 94298
signs 94297
Program 94296
delivering 94295
EM@@ 94294
evaluated 94293
men@@ 94292
1979 94291
land@@ 94290
efficiently 94289
ile 94288
divorce 94287
ential 94286
2020 94285
plus 94284
taxes 94283
index 94282
ust 94281
La@@ 94280
can@@ 94279
elect 94278
solve 94277
Woods 94276
131 94275
Serb 94274
ro 94273
applicants 94272
app@@ 94271
practitioners 94270
notion 94269
promulgated 94268
Rev@@ 94267
highlights 94266
por@@ 94265
2.5 94264
excess 94263
epidemic 94262
LE@@ 94261
assured 94260
departmental 94259
Presidential 94258
Against 94257
argued 94256
socially 94255
privileges 94254
Maritime 94253
tonnes 94252
Lakes 94251
itation 94250
ables 94249
j 94248
globally 94247
Bretton 94246
1983 94245
fa@@ 94244
List 94243
NE@@ 94242
regret 94241
Freedom 94240
concentrated 94239
UNDCP 94238
coordinators 94237
proven 94236
chief 94235
eth@@ 94234
cultivation 94233
ethical 94232
Academy 94231
Steering 94230
accede 94229
confidentiality 94228
MI@@ 94227
wards 94226
sure 94225
render 94224
feel 94223
Johannesburg 94222
negotiate 94221
Account 94220
marketing 94219
unpaid 94218
supplement 94217
elling 94216
nationally 94215
hom@@ 94214
36@@ 94213
examinations 94212
bases 94211
revitalization 94210
endeavours 94209
illiteracy 94208
affirmed 94207
PC 94206
suspect 94205
surrounding 94204
UNDAF 94203
adversely 94202
phrase 94201
143 94200
privatization 94199
witnessed 94198
repair 94197
parameters 94196
disseminating 94195
38@@ 94194
notified 94193
Workshop 94192
ize 94191
releases 94190
virtue 94189
serv@@ 94188
ack@@ 94187
Ps 94186
plants 94185
congratulate 94184
ko 94183
dro@@ 94182
environments 94181
accidents 94180
unified 94179
thirteenth 94178
na 94177
unaccompanied 94176
gen@@ 94175
ore 94174
Addis 94173
CN@@ 94172
commentary 94171
235 94170
irregular 94169
137 94168
medicines 94167
TE@@ 94166
142 94165
Be@@ 94164
stateless 94163
UNAIDS 94162
Aboriginal 94161
schooling 94160
embr@@ 94159
constitu@@ 94158
art@@ 94157
feedback 94156
136 94155
intensified 94154
Manual 94153
earmarked 94152
valuation 94151
zation 94150
Swedish 94149
ver 94148
Ababa 94147
fies 94146
discretion 94145
ests 94144
collecting 94143
GENERAL 94142
arbitral 94141
compatible 94140
mercenaries 94139
advocate 94138
arization 94137
succession 94136
Capacity 94135
respecting 94134
mu@@ 94133
structured 94132
flights 94131
Registry 94130
Programmes 94129
acute 94128
possibly 94127
Maldives 94126
Page 94125
convictions 94124
confiscation 94123
presenting 94122
Monaco 94121
sis 94120
claimants 94119
pres@@ 94118
Sec@@ 94117
mankind 94116
Royal 94115
tation 94114
neglect 94113
receives 94112
Ri@@ 94111
council 94110
monitors 94109
settled 94108
lab@@ 94107
edi@@ 94106
speed 94105
Commander 94104
alleviation 94103
indicative 94102
.org 94101
C.4 94100
insolvency 94099
Trinidad 94098
34@@ 94097
loan 94096
139 94095
03 94094
Mauritania 94093
sti@@ 94092
Sa@@ 94091
UNITED 94090
Sha@@ 94089
reliance 94088
Air 94087
Tri@@ 94086
ast 94085
char@@ 94084
tional 94083
dismissed 94082
bio@@ 94081
ths 94080
SA 94079
enactment 94078
popular 94077
Ban@@ 94076
measured 94075
Bangkok 94074
feature 94073
Palais 94072
à 94071
Madrid 94070
surface 94069
151 94068
shelters 94067
Portuguese 94066
doctors 94065
TH@@ 94064
Personal 94063
hon@@ 94062
unknown 94061
IMO 94060
audits 94059
lets 94058
Liberation 94057
adapted 94056
commencement 94055
networking 94054
Juvenile 94053
stands 94052
ame 94051
radioactive 94050
airport 94049
radiation 94048
Pre@@ 94047
Investigation 94046
1974 94045
gathered 94044
arrears 94043
Brussels 94042
of@@ 94041
powerful 94040
loc@@ 94039
arrival 94038
ishing 94037
eventually 94036
fail 94035
careful 94034
avoiding 94033
apportionment 94032
Tobago 94031
inconsistent 94030
PRESIDENT 94029
Gulf 94028
accommodate 94027
western 94026
frequency 94025
20,000 94024
fer@@ 94023
He@@ 94022
prosecutions 94021
Capital 94020
centred 94019
notify 94018
wherever 94017
settings 94016
told 94015
revisions 94014
Establishment 94013
166 94012
ca@@ 94011
Province 94010
ethnicity 94009
harmony 94008
interdependence 94007
perpetrator 94006
aiming 94005
Papua 94004
IL@@ 94003
expedite 94002
maximize 94001
ple 94000
Acts 93999
legisl@@ 93998
02 93997
OIC 93996
unauthorized 93995
Cape 93994
2016 93993
patient 93992
reinforced 93991
E.@@ 93990
IDB.@@ 93989
coordinates 93988
aside 93987
endorses 93986
pu@@ 93985
ats 93984
Judge 93983
10,@@ 93982
hosting 93981
IG@@ 93980
Multilateral 93979
Lu@@ 93978
tracking 93977
Domestic 93976
144 93975
Bosnian 93974
excluding 93973
Presidency 93972
Accounting 93971
crops 93970
MINUSTAH 93969
residing 93968
programmatic 93967
credits 93966
standardized 93965
ITC 93964
supplied 93963
fertility 93962
intent 93961
traditionally 93960
At@@ 93959
yah 93958
Personnel 93957
demonstration 93956
Serbs 93955
Istanbul 93954
revise 93953
Election 93952
commenced 93951
decisive 93950
fax 93949
recording 93948
Un@@ 93947
Opportunities 93946
NATO 93945
sport 93944
Governor 93943
draws 93942
LA 93941
associate 93940
awards 93939
looks 93938
CTBT 93937
organic 93936
predic@@ 93935
harmonize 93934
arrests 93933
messages 93932
preference 93931
encies 93930
medi@@ 93929
book 93928
Jewish 93927
UNMIS 93926
false 93925
surplus 93924
females 93923
ading 93922
judgements 93921
ong@@ 93920
Col@@ 93919
147 93918
ades 93917
argument 93916
Japanese 93915
leads 93914
installation 93913
1970 93912
Contributions 93911
ption 93910
1975 93909
Cs 93908
slightly 93907
analysed 93906
meets 93905
qualitative 93904
don@@ 93903
break 93902
tal@@ 93901
At 93900
Ben@@ 93899
influ@@ 93898
146 93897
nur@@ 93896
Natural 93895
lawful 93894
SMEs 93893
broadly 93892
deploy 93891
workforce 93890
lowest 93889
decentralized 93888
eds 93887
han@@ 93886
analysing 93885
04 93884
chlor@@ 93883
client 93882
asing 93881
accelerated 93880
-@@ 93879
Sir 93878
processed 93877
tioned 93876
Har@@ 93875
2017 93874
write 93873
attain 93872
arm 93871
abolished 93870
restrict 93869
IF@@ 93868
Norwegian 93867
filled 93866
Des@@ 93865
1.3 93864
CHAIRMAN 93863
I.@@ 93862
utilize 93861
ju@@ 93860
bre@@ 93859
fragile 93858
threaten 93857
OU@@ 93856
distinguished 93855
intersessional 93854
CDM 93853
156 93852
discussing 93851
shortage 93850
entail 93849
Ko@@ 93848
settlers 93847
152 93846
Hall 93845
uphold 93844
contrast 93843
misconduct 93842
mixed 93841
continuously 93840
robust 93839
individually 93838
Courts 93837
Qaida 93836
zero 93835
Works 93834
Level 93833
encing 93832
militia 93831
coercive 93830
civic 93829
Rem@@ 93828
row 93827
Speci@@ 93826
accredited 93825
inf@@ 93824
Conventional 93823
kindly 93822
CARICOM 93821
patrol 93820
Rule 93819
micro 93818
metres 93817
developmental 93816
subprogrammes 93815
Sam@@ 93814
Chairs 93813
proactive 93812
profound 93811
prisoner 93810
helicopter 93809
INF 93808
AI 93807
incumbent 93806
Arbitration 93805
Soviet 93804
uncertainty 93803
architecture 93802
Af@@ 93801
deb@@ 93800
survivors 93799
challenging 93798
concludes 93797
cent@@ 93796
addendum 93795
tend 93794
154 93793
limiting 93792
fifteenth 93791
Data 93790
Serbian 93789
UNU 93788
distor@@ 93787
nationwide 93786
screening 93785
quota 93784
objec@@ 93783
GM 93782
check 93781
prolonged 93780
installations 93779
cargo 93778
threshold 93777
relocation 93776
Ni@@ 93775
sw@@ 93774
stri@@ 93773
discriminate 93772
Slovak 93771
ga 93770
instituted 93769
tend@@ 93768
sa 93767
PRO@@ 93766
issuing 93765
AMISOM 93764
violating 93763
methyl 93762
alist 93761
Reconciliation 93760
Detention 93759
grow 93758
designate 93757
heart 93756
gradual 93755
boards 93754
sk@@ 93753
Colombian 93752
independently 93751
Insurance 93750
detainee 93749
Refugee 93748
Prevent 93747
empowered 93746
q 93745
fast 93744
Closed 93743
depleting 93742
242 93741
playing 93740
UNFICYP 93739
Agreements 93738
48@@ 93737
Civilian 93736
goes 93735
comprised 93734
obvious 93733
tariff 93732
running 93731
arguments 93730
IR@@ 93729
port@@ 93728
kg 93727
introductory 93726
ber 93725
emergence 93724
restrictive 93723
Gabon 93722
buyer 93721
participant 93720
Aspects 93719
accreditation 93718
alleviate 93717
Centres 93716
illegally 93715
Reports 93714
pool 93713
C.6 93712
convey 93711
158 93710
ail 93709
ala 93708
visa 93707
abduction 93706
ets 93705
G. 93704
suicide 93703
Gr@@ 93702
isolation 93701
ambi@@ 93700
constantly 93699
livelihood 93698
ACC 93697
chapters 93696
CCPR 93695
fate 93694
9th 93693
shing 93692
collectively 93691
3.2 93690
oring 93689
asi@@ 93688
attaches 93687
1977 93686
returns 93685
qui@@ 93684
breaches 93683
aring 93682
Puerto 93681
Communication 93680
148 93679
democratization 93678
diplomacy 93677
reg@@ 93676
Du@@ 93675
unencumbered 93674
deferred 93673
questioned 93672
plan@@ 93671
peer 93670
nineteenth 93669
8th 93668
1540 93667
reflection 93666
57@@ 93665
consolidating 93664
projections 93663
Study 93662
worst 93661
teenth 93660
Dr. 93659
ll@@ 93658
disappeared 93657
confinement 93656
inde@@ 93655
awaiting 93654
Practices 93653
measurement 93652
ins@@ 93651
13.@@ 93650
157 93649
vari@@ 93648
eligibility 93647
attained 93646
Enforcement 93645
3.1 93644
7th 93643
demonstrations 93642
mindful 93641
ach 93640
guardian 93639
strive 93638
reunification 93637
segments 93636
ue 93635
mid@@ 93634
safeguarding 93633
alternate 93632
properties 93631
confident 93630
ick 93629
missile 93628
exemption 93627
resilience 93626
clinics 93625
voted 93624
entrepreneurship 93623
AC.109 93622
Minimum 93621
receivable 93620
faces 93619
furniture 93618
sters 93617
tives 93616
Post 93615
deficiencies 93614
15.@@ 93613
Outcome 93612
lease 93611
Analysis 93610
slow@@ 93609
SU@@ 93608
Mine 93607
ecological 93606
files 93605
specialist 93604
Guam 93603
designing 93602
halt 93601
industrialized 93600
Zone 93599
persistence 93598
Tax 93597
neighbours 93596
39@@ 93595
eding 93594
COUNCIL 93593
ordin@@ 93592
parliamentarians 93591
distance 93590
sal@@ 93589
ws 93588
patrols 93587
ought 93586
Liberian 93585
broadcast 93584
EA 93583
methodological 93582
Rotterdam 93581
virtually 93580
El@@ 93579
2.3 93578
149 93577
meanwhile 93576
deficit 93575
moratorium 93574
unanimously 93573
inst@@ 93572
CB@@ 93571
mere 93570
unnecessary 93569
counterparts 93568
Holy 93567
WP.@@ 93566
cour@@ 93565
Shi@@ 93564
crossing 93563
sponsor 93562
Go@@ 93561
ket 93560
onal 93559
broadcasting 93558
alignment 93557
accord 93556
forensic 93555
Muslims 93554
MINURSO 93553
correspondence 93552
251 93551
Agricultural 93550
Statement 93549
afford 93548
weaknesses 93547
Industry 93546
Near 93545
periodically 93544
ster 93543
clarity 93542
CT@@ 93541
165 93540
sincere 93539
debtor 93538
AC 93537
commend 93536
sc@@ 93535
IMIS 93534
Resident 93533
agrees 93532
inability 93531
wood 93530
earnings 93529
Destruction 93528
simultaneously 93527
rotation 93526
contradic@@ 93525
Gazette 93524
Enforced 93523
Gibraltar 93522
assumptions 93521
pat@@ 93520
missiles 93519
SI@@ 93518
ali 93517
od 93516
infection 93515
falls 93514
post@@ 93513
licence 93512
ev 93511
expect 93510
medicine 93509
Treaties 93508
www.un.org 93507
aver@@ 93506
qualification 93505
desired 93504
profession 93503
illness 93502
politics 93501
ingly 93500
ell@@ 93499
EL@@ 93498
Church 93497
wrongful 93496
operates 93495
Americas 93494
appendix 93493
possess 93492
marginalization 93491
HR@@ 93490
water@@ 93489
Democracy 93488
161 93487
damaged 93486
expense 93485
liquidation 93484
Crimes 93483
extra 93482
disrup@@ 93481
holder 93480
settle 93479
1980s 93478
ara 93477
&gt; 93476
casualties 93475
208 93474
flag 93473
tortured 93472
IDF 93471
Dec@@ 93470
chronic 93469
oun@@ 93468
reiterating 93467
debris 93466
dev@@ 93465
reserved 93464
politically 93463
Ru@@ 93462
ish@@ 93461
persecution 93460
gro@@ 93459
certified 93458
pillar 93457
printing 93456
back@@ 93455
47@@ 93454
GR@@ 93453
Ti@@ 93452
cap@@ 93451
fourteenth 93450
probably 93449
quantitative 93448
turned 93447
It 93446
ER 93445
vary 93444
Communities 93443
criterion 93442
159 93441
equ@@ 93440
ath@@ 93439
portfolio 93438
Argentine 93437
14.@@ 93436
arm@@ 93435
CP.@@ 93434
Aviation 93433
ays 93432
vers@@ 93431
condemns 93430
College 93429
sending 93428
1961 93427
Liaison 93426
phased 93425
mm 93424
lu@@ 93423
stimul@@ 93422
reconnaissance 93421
ou 93420
192 93419
170 93418
interrogation 93417
licensing 93416
lacking 93415
earliest 93414
clearing 93413
To@@ 93412
TS 93411
deliberate 93410
ari 93409
respects 93408
agg@@ 93407
1971 93406
ol 93405
explanations 93404
int@@ 93403
dic@@ 93402
Cre@@ 93401
= 93400
&lt; 93399
reproduced 93398
ham@@ 93397
Brazilian 93396
confirmation 93395
quantities 93394
flu@@ 93393
han 93392
commence 93391
linking 93390
recon@@ 93389
automatically 93388
inquiries 93387
shipment 93386
enables 93385
tioning 93384
dropped 93383
Hel@@ 93382
sian 93381
Peaceful 93380
marital 93379
ack 93378
contingents 93377
Coalition 93376
Lo@@ 93375
updates 93374
Border 93373
objections 93372
acks 93371
communiqué 93370
ek 93369
spec@@ 93368
comp@@ 93367
Lesotho 93366
designation 93365
genetic 93364
elled 93363
regretted 93362
preferred 93361
expendable 93360
ce@@ 93359
upcoming 93358
publish 93357
toxic 93356
ref@@ 93355
overseas 93354
ease 93353
affirmative 93352
Solidarity 93351
temporarily 93350
ple@@ 93349
grown 93348
SS 93347
inspectors 93346
CIS 93345
Organisation 93344
totalling 93343
design@@ 93342
abl@@ 93341
chairmanship 93340
DC 93339
Systems 93338
exclude 93337
voluntarily 93336
cards 93335
law@@ 93334
helpful 93333
dangers 93332
je@@ 93331
wounded 93330
acking 93329
ills 93328
Ho@@ 93327
go@@ 93326
doctor 93325
1976 93324
lin@@ 93323
enrolled 93322
tradition 93321
highlighting 93320
completing 93319
Islam 93318
adding 93317
With 93316
magnitude 93315
Ethics 93314
adhere 93313
policymakers 93312
eable 93311
Is@@ 93310
Seminar 93309
abandoned 93308
Pr@@ 93307
mor@@ 93306
Recommendations 93305
fairly 93304
Resource 93303
intend 93302
treat 93301
167 93300
modernization 93299
intercultural 93298
orphans 93297
streamlining 93296
Sch@@ 93295
del 93294
substitute 93293
wil@@ 93292
immunities 93291
varied 93290
Res@@ 93289
panels 93288
ered 93287
tious 93286
213 93285
refer@@ 93284
UNCDF 93283
Plenary 93282
adequacy 93281
infections 93280
proceeded 93279
weak@@ 93278
visible 93277
Commercial 93276
quanti@@ 93275
Pen@@ 93274
segregation 93273
tuberculosis 93272
San@@ 93271
exceeded 93270
guideline 93269
val 93268
renew 93267
GC.@@ 93266
Chambers 93265
1951 93264
Governance 93263
supervisory 93262
UNFCCC 93261
reverse 93260
4.2 93259
conceptual 93258
imposing 93257
ap 93256
Chairmen 93255
227 93254
volunteers 93253
OM@@ 93252
logical 93251
explosives 93250
rer 93249
ys 93248
thinking 93247
cat@@ 93246
Rural 93245
Number 93244
list@@ 93243
Ministries 93242
scientists 93241
Radio 93240
clothing 93239
besides 93238
apartheid 93237
creditors 93236
PAR@@ 93235
Chemicals 93234
renewal 93233
restitution 93232
consumers 93231
Table 93230
ourselves 93229
emp@@ 93228
endorsement 93227
alcohol 93226
ea 93225
aching 93224
sixteenth 93223
directives 93222
GU@@ 93221
leg@@ 93220
prerequisite 93219
ound@@ 93218
occurring 93217
tains 93216
proclaimed 93215
conten@@ 93214
library 93213
foreseen 93212
studied 93211
Stabilization 93210
1.15 93209
arrange 93208
ear@@ 93207
applicability 93206
cells 93205
embodied 93204
reasonably 93203
ton 93202
underp@@ 93201
affirms 93200
H. 93199
Baghdad 93198
entr@@ 93197
referral 93196
Te@@ 93195
Fi@@ 93194
bridge 93193
inception 93192
164 93191
Georgian 93190
imply 93189
contributors 93188
Groups 93187
postponed 93186
creative 93185
Accounts 93184
der@@ 93183
Inspectors 93182
preserving 93181
seventeenth 93180
institute 93179
Tu@@ 93178
Moscow 93177
bor@@ 93176
211 93175
ian 93174
218 93173
km 93172
interregional 93171
rs 93170
11,@@ 93169
18.@@ 93168
fications 93167
cell 93166
finalize 93165
marking 93164
trainers 93163
4,000 93162
roster 93161
replied 93160
STATES 93159
sel@@ 93158
smooth 93157
soci@@ 93156
Bahamas 93155
lan@@ 93154
neutral 93153
destin@@ 93152
systemic 93151
tragic 93150
consultant 93149
Br@@ 93148
Practice 93147
accident 93146
modules 93145
attacked 93144
explored 93143
exemptions 93142
creditor 93141
MENT 93140
201 93139
River 93138
inventories 93137
AG@@ 93136
220 93135
formula 93134
entitlement 93133
Promoting 93132
Fundamental 93131
align 93130
measuring 93129
ruled 93128
enders 93127
Subcommission 93126
183 93125
shel@@ 93124
threatening 93123
supplemented 93122
172 93121
6,000 93120
reception 93119
san@@ 93118
Rehabilitation 93117
Marine 93116
diversion 93115
directors 93114
Rom@@ 93113
filing 93112
Fo@@ 93111
aking 93110
163 93109
tre@@ 93108
237 93107
ICC 93106
instalment 93105
prominent 93104
3.3 93103
UNITA 93102
realizing 93101
entitlements 93100
Jo@@ 93099
Rel@@ 93098
eliminated 93097
judgment 93096
XII 93095
audited 93094
248 93093
males 93092
posted 93091
helicopters 93090
empower 93089
1960 93088
accomplished 93087
colleagues 93086
boundaries 93085
hot@@ 93084
categor@@ 93083
circled 93082
Professor 93081
infected 93080
impetus 93079
bing 93078
ascertain 93077
contexts 93076
Urban 93075
tro@@ 93074
declining 93073
Operational 93072
210 93071
freeze 93070
belong 93069
teen 93068
tain@@ 93067
chair 93066
Tourism 93065
entrepreneurs 93064
diamonds 93063
189 93062
communicable 93061
save 93060
circulation 93059
arch@@ 93058
Port 93057
Verification 93056
hundred 93055
DA 93054
childcare 93053
porting 93052
overdue 93051
Bel@@ 93050
operators 93049
Commerce 93048
custodial 93047
disclosed 93046
tobacco 93045
tested 93044
ambitious 93043
173 93042
approves 93041
quarterly 93040
socioeconomic 93039
commensurate 93038
precisely 93037
Ham@@ 93036
condi@@ 93035
coercion 93034
hostile 93033
isolated 93032
expeditiously 93031
totally 93030
satisfy 93029
informing 93028
22@@ 93027
CMP 93026
OC 93025
attribu@@ 93024
forwarded 93023
Ag@@ 93022
complemented 93021
enting 93020
brings 93019
refuse 93018
199 93017
nominations 93016
Bonn 93015
complied 93014
divi@@ 93013
consular 93012
workplan 93011
cy 93010
Ba@@ 93009
Participation 93008
13,@@ 93007
helps 93006
apparently 93005
cooperatives 93004
aling 93003
thousand 93002
ki 93001
PRST 93000
pil@@ 92999
invest 92998
dry 92997
TA 92996
sting 92995
Citizens 92994
Uses 92993
afforded 92992
deposit 92991
QU@@ 92990
214 92989
head@@ 92988
cancellation 92987
immigrant 92986
describes 92985
psychiatric 92984
amb@@ 92983
policymaking 92982
resistance 92981
recipients 92980
indi@@ 92979
interesting 92978
steady 92977
milit@@ 92976
impede 92975
Armenian 92974
DI@@ 92973
humankind 92972
Add.3 92971
correctional 92970
identical 92969
Hy@@ 92968
lodged 92967
ri 92966
cians 92965
Certain 92964
ening 92963
stimulate 92962
spo@@ 92961
shipping 92960
aph@@ 92959
commun@@ 92958
publishing 92957
choices 92956
ger 92955
collaborate 92954
rejection 92953
visual 92952
proposing 92951
fee 92950
dict@@ 92949
sity 92948
narcotic 92947
12,@@ 92946
PO@@ 92945
oper@@ 92944
STA@@ 92943
IOM 92942
elec@@ 92941
briefed 92940
dismissal 92939
sl@@ 92938
here@@ 92937
valued 92936
1972 92935
eradicating 92934
direc@@ 92933
J. 92932
challenged 92931
Young 92930
175 92929
implies 92928
laboratory 92927
pan@@ 92926
seat 92925
Egyptian 92924
freight 92923
2.4 92922
subscri@@ 92921
appreciates 92920
hazards 92919
cont@@ 92918
si 92917
bat@@ 92916
eighteenth 92915
signatories 92914
vested 92913
Belize 92912
oning 92911
Corporation 92910
PP@@ 92909
inher@@ 92908
computers 92907
gs 92906
positively 92905
L.1 92904
Ali 92903
tl@@ 92902
libraries 92901
venue 92900
Access 92899
acceding 92898
incomes 92897
AT 92896
communal 92895
timing 92894
remind 92893
psych@@ 92892
Vi@@ 92891
tra@@ 92890
claiming 92889
CEB 92888
Periodic 92887
wai@@ 92886
che@@ 92885
tribal 92884
undermined 92883
grass 92882
din@@ 92881
4.1 92880
dependence 92879
urg@@ 92878
tain 92877
ae 92876
remand 92875
58@@ 92874
Response 92873
overcoming 92872
scourge 92871
amnesty 92870
atal 92869
II.@@ 92868
trafficked 92867
168 92866
image 92865
Pur@@ 92864
181 92863
226 92862
tackling 92861
Oman 92860
exhausted 92859
br@@ 92858
Mogadishu 92857
textbooks 92856
185 92855
ran@@ 92854
solving 92853
Gambia 92852
blood 92851
expelled 92850
enquiry 92849
Transfer 92848
270 92847
weather 92846
physi@@ 92845
Ivorian 92844
171 92843
beneficiary 92842
Suriname 92841
demining 92840
substantiated 92839
Andorra 92838
ise 92837
rou@@ 92836
universally 92835
easier 92834
navigation 92833
Abuse 92832
exploring 92831
tful 92830
municipality 92829
1.4 92828
benefiting 92827
encouragement 92826
Combating 92825
compatibility 92824
Senate 92823
urbanization 92822
Role 92821
respondents 92820
19.@@ 92819
expectancy 92818
arbitr@@ 92817
agent 92816
Azerbaijani 92815
amongst 92814
174 92813
abide 92812
channel 92811
Conservation 92810
upgrade 92809
That 92808
shot 92807
Dispute 92806
gn@@ 92805
typically 92804
immunization 92803
177 92802
Christian 92801
Higher 92800
cam@@ 92799
SO 92798
Moroccan 92797
fuels 92796
tou@@ 92795
49@@ 92794
Em@@ 92793
removing 92792
interview 92791
seller 92790
Ukrainian 92789
IDPs 92788
hardship 92787
PARTIES 92786
syn@@ 92785
investigators 92784
Goods 92783
correction 92782
Na@@ 92781
17.@@ 92780
ined 92779
Principal 92778
carries 92777
kers 92776
apo@@ 92775
nomination 92774
agendas 92773
requisite 92772
rers 92771
GS 92770
compiled 92769
successive 92768
assi@@ 92767
ED@@ 92766
farming 92765
14,@@ 92764
vit@@ 92763
Provide 92762
3.5 92761
4.5 92760
translate 92759
cancer 92758
Counsel 92757
Home 92756
tendency 92755
rations 92754
MENTS 92753
multilateralism 92752
Freedoms 92751
Mexican 92750
reaction 92749
failing 92748
preferential 92747
RES@@ 92746
restraint 92745
Judiciary 92744
Ge@@ 92743
revi@@ 92742
passage 92741
orial 92740
We@@ 92739
facilitates 92738
undertakings 92737
gather 92736
multinational 92735
ght 92734
Bal@@ 92733
241 92732
ase 92731
preamble 92730
inheritance 92729
cre@@ 92728
avoided 92727
rein@@ 92726
deny 92725
Contr@@ 92724
equi@@ 92723
Catholic 92722
installed 92721
complementarity 92720
fel@@ 92719
lying 92718
hereinafter 92717
MA 92716
there@@ 92715
gravity 92714
huge 92713
fers 92712
Ethiopian 92711
243 92710
15,@@ 92709
fic@@ 92708
Cons@@ 92707
hygiene 92706
vacant 92705
Exploitation 92704
perception 92703
Bhutan 92702
wel@@ 92701
flagrant 92700
thly 92699
flying 92698
CRIC 92697
arian 92696
ner@@ 92695
saving 92694
CHAIRPERSON 92693
IC 92692
allegation 92691
deciding 92690
Up@@ 92689
OD@@ 92688
petition 92687
SADC 92686
impeded 92685
aj@@ 92684
successor 92683
unded 92682
CST 92681
U.S. 92680
archives 92679
Verde 92678
parliaments 92677
233 92676
MEETING 92675
paramount 92674
commonly 92673
191 92672
EN 92671
Socialist 92670
short@@ 92669
centr@@ 92668
Umoja 92667
eline 92666
admissible 92665
everything 92664
ious 92663
ig@@ 92662
solved 92661
incentive 92660
confined 92659
controlling 92658
occurs 92657
inappropriate 92656
intermedi@@ 92655
readily 92654
GE 92653
ada 92652
ok 92651
iv 92650
newspapers 92649
Caledonia 92648
Informal 92647
Take 92646
recosting 92645
ron@@ 92644
pic@@ 92643
gone 92642
tim@@ 92641
ees 92640
Views 92639
creates 92638
FROM 92637
somewhat 92636
continental 92635
ath 92634
Uni@@ 92633
visibility 92632
190 92631
handled 92630
geo@@ 92629
taught 92628
Indonesian 92627
variance 92626
profits 92625
Abu 92624
accelerating 92623
millennium 92622
UNDOF 92621
reads 92620
remittances 92619
bromide 92618
criminals 92617
endorse 92616
announcement 92615
mineral 92614
compl@@ 92613
experiencing 92612
modest 92611
calculation 92610
AP 92609
ca 92608
AB@@ 92607
origin@@ 92606
High@@ 92605
44@@ 92604
commented 92603
sequ@@ 92602
perpetu@@ 92601
chairs 92600
voters 92599
routes 92598
activists 92597
Compensation 92596
escalation 92595
executing 92594
187 92593
suf@@ 92592
civilizations 92591
pos@@ 92590
Scheme 92589
unlikely 92588
confrontation 92587
super@@ 92586
argues 92585
crop 92584
coexistence 92583
oned 92582
predecessor 92581
printed 92580
aftermath 92579
instruc@@ 92578
eness 92577
240 92576
bel@@ 92575
finalization 92574
platforms 92573
Ter@@ 92572
203 92571
MIS@@ 92570
procuring 92569
oted 92568
blockade 92567
16.@@ 92566
una 92565
signatory 92564
overcrowding 92563
206 92562
esting 92561
cau@@ 92560
upper 92559
succeeded 92558
lifting 92557
Plurinational 92556
.3 92555
mapping 92554
194 92553
rests 92552
Embassy 92551
imported 92550
personality 92549
acquiring 92548
interrelated 92547
norm@@ 92546
Subsidiary 92545
appointing 92544
occurrence 92543
condemn 92542
scenario 92541
ental 92540
consulting 92539
Sy@@ 92538
semi 92537
chairpersons 92536
Question 92535
Press 92534
If 92533
tot@@ 92532
Abyei 92531
govern@@ 92530
CCW 92529
abilities 92528
186 92527
devote 92526
GO@@ 92525
extremist 92524
Meetings 92523
SR@@ 92522
Bas@@ 92521
cast 92520
narrow 92519
consisted 92518
intervene 92517
advocated 92516
oversee 92515
cohesion 92514
identifies 92513
CP 92512
ories 92511
deposited 92510
Procedures 92509
streamline 92508
administrations 92507
deposits 92506
succeed 92505
198 92504
Mer@@ 92503
suspend 92502
fresh 92501
mentally 92500
devastating 92499
gases 92498
expects 92497
long@@ 92496
depl@@ 92495
4.3 92494
interpreters 92493
Afro 92492
ining 92491
CB 92490
seizure 92489
verified 92488
terminated 92487
Guiding 92486
aggravated 92485
56@@ 92484
microfinance 92483
native 92482
Stat@@ 92481
16,@@ 92480
conscious 92479
studying 92478
checks 92477
Intelligence 92476
sold 92475
empl@@ 92474
chance 92473
preci@@ 92472
Provisional 92471
AU 92470
Media 92469
REPORTS 92468
Substances 92467
184 92466
205 92465
sible 92464
doctrine 92463
hol@@ 92462
statutes 92461
pul@@ 92460
linkage 92459
rebel 92458
ians 92457
Stockpiling 92456
Equatorial 92455
Virgin 92454
passing 92453
with@@ 92452
guards 92451
taxation 92450
pon@@ 92449
directions 92448
IFAD 92447
17,@@ 92446
norm 92445
neighbour@@ 92444
coun@@ 92443
NO@@ 92442
arities 92441
José 92440
fallen 92439
dead 92438
Friends 92437
ut@@ 92436
ury 92435
substitu@@ 92434
defendants 92433
tens 92432
eu@@ 92431
199@@ 92430
lie 92429
broken 92428
ains 92427
grades 92426
resi@@ 92425
St. 92424
transl@@ 92423
176 92422
arose 92421
Sur@@ 92420
defer 92419
attach 92418
222 92417
Intolerance 92416
seizures 92415
aggregate 92414
detect 92413
BU@@ 92412
è@@ 92411
attempting 92410
lending 92409
remainder 92408
ceased 92407
imprisoned 92406
OR 92405
demonstrates 92404
CD@@ 92403
determines 92402
Zaire 92401
178 92400
Ageing 92399
Promote 92398
ley 92397
broaden 92396
AF@@ 92395
ft 92394
speedy 92393
PV.@@ 92392
59@@ 92391
CE 92390
boundary 92389
spiritual 92388
usual 92387
concentrate 92386
aded 92385
formerly 92384
ICSC 92383
sy@@ 92382
undoubtedly 92381
multidisciplinary 92380
versions 92379
progressively 92378
regrettable 92377
mobilized 92376
infrastructures 92375
abi@@ 92374
sample 92373
188 92372
CRP.@@ 92371
accuracy 92370
IES 92369
hampered 92368
215 92367
ao 92366
usefulness 92365
Bur@@ 92364
1963 92363
fre@@ 92362
enact 92361
hi 92360
val@@ 92359
meantime 92358
upheld 92357
cru@@ 92356
clauses 92355
delete 92354
Disability 92353
Light 92352
entails 92351
counsel@@ 92350
veto 92349
arti@@ 92348
derog@@ 92347
graduate 92346
aire 92345
Taiwan 92344
director 92343
Adolescents 92342
prevail 92341
refin@@ 92340
AN 92339
backlog 92338
tal 92337
satellites 92336
less@@ 92335
modification 92334
phenomena 92333
Ser@@ 92332
celebr@@ 92331
accessing 92330
inflicted 92329
negatively 92328
aqu@@ 92327
vendors 92326
SO@@ 92325
orbit 92324
legislature 92323
something 92322
230 92321
Protec@@ 92320
owner 92319
module 92318
competencies 92317
ide@@ 92316
visitors 92315
ids 92314
vol 92313
extremism 92312
cooperated 92311
toward 92310
seriousness 92309
named 92308
scene 92307
vo@@ 92306
licences 92305
cal@@ 92304
openness 92303
Mater@@ 92302
cli@@ 92301
OL@@ 92300
IA 92299
BiH 92298
stereotyp@@ 92297
exacerbated 92296
King 92295
Hu@@ 92294
educate 92293
crimin@@ 92292
deci@@ 92291
s.@@ 92290
209 92289
pandemic 92288
notable 92287
pressures 92286
foregoing 92285
und 92284
ores 92283
automatic 92282
202 92281
steadily 92280
fairness 92279
Eritrean 92278
selective 92277
attaining 92276
route 92275
obstruc@@ 92274
Aliens 92273
innovations 92272
arranged 92271
Whole 92270
adi 92269
1969 92268
varying 92267
ested 92266
guardianship 92265
lacked 92264
supplementing 92263
geared 92262
outlines 92261
car 92260
answers 92259
constituting 92258
Inspector 92257
terror 92256
elementary 92255
Arabs 92254
literature 92253
capture 92252
UNAMA 92251
auditors 92250
uranium 92249
commissioned 92248
Cur@@ 92247
panellists 92246
guardians 92245
istic 92244
briefly 92243
INSTRAW 92242
feeding 92241
renovation 92240
ade@@ 92239
Organic 92238
estate 92237
earthquake 92236
factual 92235
207 92234
indiscriminate 92233
dumping 92232
accomplishment 92231
ira 92230
lose 92229
sensing 92228
unde@@ 92227
kets 92226
UK 92225
summer 92224
vessel 92223
inserted 92222
rapporteur 92221
cleansing 92220
researchers 92219
wid@@ 92218
thing 92217
pain@@ 92216
Objec@@ 92215
Approach 92214
evacuation 92213
Private 92212
sibility 92211
Accord 92210
merit 92209
foremost 92208
IONS 92207
passport 92206
quotas 92205
corrected 92204
cycles 92203
sign@@ 92202
D.@@ 92201
Sami 92200
suppression 92199
Gar@@ 92198
Don@@ 92197
lic@@ 92196
parti@@ 92195
wa 92194
collec@@ 92193
Austrian 92192
ented 92191
Cas@@ 92190
undermining 92189
propaganda 92188
disproportionate 92187
Be 92186
really 92185
ric@@ 92184
nutritional 92183
30,000 92182
policing 92181
Missions 92180
217 92179
plight 92178
afternoon 92177
restored 92176
va 92175
circulate 92174
any@@ 92173
Credentials 92172
scholarships 92171
destroy 92170
audio 92169
sick 92168
waiting 92167
anticip@@ 92166
earned 92165
illustr@@ 92164
Bali 92163
Polish 92162
traffickers 92161
accompanying 92160
multisectoral 92159
Ay@@ 92158
exploited 92157
abused 92156
225 92155
roll 92154
Progress 92153
MT@@ 92152
criminalization 92151
NP@@ 92150
uring 92149
overwhelming 92148
Blue 92147
216 92146
254 92145
ib@@ 92144
Chi@@ 92143
driving 92142
221 92141
1,500 92140
vac@@ 92139
Facilit@@ 92138
replic@@ 92137
doubts 92136
divide 92135
carrier 92134
fails 92133
Ur@@ 92132
ate@@ 92131
investing 92130
stockpiles 92129
ligh@@ 92128
van 92127
1948 92126
banning 92125
236 92124
eless 92123
recover 92122
favoured 92121
diligence 92120
Directive 92119
MAR@@ 92118
undue 92117
260 92116
wars 92115
recruit 92114
websites 92113
COP.@@ 92112
coast 92111
psychosocial 92110
193 92109
Comoros 92108
regul@@ 92107
179 92106
farm 92105
MONUSCO 92104
DI 92103
tailored 92102
livestock 92101
gold 92100
Cl@@ 92099
protest 92098
invested 92097
UNOMIG 92096
Ju@@ 92095
Kivu 92094
abolish 92093
ulation 92092
govern 92091
fashion 92090
mitigating 92089
turing 92088
complicated 92087
sight 92086
illustrated 92085
SH@@ 92084
magistrates 92083
regulates 92082
modifications 92081
Ou@@ 92080
Controller 92079
Line 92078
clusters 92077
ense 92076
detrimental 92075
MDG 92074
ges 92073
chi@@ 92072
armaments 92071
contracted 92070
usage 92069
OS 92068
dynamics 92067
handle 92066
restoring 92065
indications 92064
warranted 92063
ole 92062
func@@ 92061
Equ@@ 92060
alongside 92059
read@@ 92058
tial 92057
cop@@ 92056
228 92055
white 92054
militias 92053
1325 92052
demanded 92051
dra@@ 92050
Solomon 92049
Offices 92048
urging 92047
refoulement 92046
aces 92045
Recovery 92044
gan@@ 92043
orship 92042
assign@@ 92041
groupings 92040
alarming 92039
select 92038
Mines 92037
Belgrade 92036
block 92035
wa@@ 92034
escape 92033
notifications 92032
ignored 92031
packages 92030
ranking 92029
Micronesia 92028
pledge 92027
Dutch 92026
19,@@ 92025
CL@@ 92024
Ste@@ 92023
coupled 92022
Kabul 92021
degrees 92020
assuming 92019
thirdly 92018
10th 92017
Any 92016
terminology 92015
participates 92014
vol@@ 92013
presumption 92012
hou@@ 92011
county 92010
guard 92009
Competition 92008
ATIONS 92007
conciliation 92006
extraterritorial 92005
18,@@ 92004
HC@@ 92003
agers 92002
hazard 92001
oys 92000
350 91999
altern@@ 91998
necessit@@ 91997
person@@ 91996
protracted 91995
modify 91994
appropriated 91993
beaten 91992
oy@@ 91991
conc@@ 91990
CS 91989
seventy 91988
coalition 91987
Prince 91986
thoroughly 91985
á@@ 91984
196 91983
unequal 91982
forming 91981
physically 91980
195 91979
bol@@ 91978
agu@@ 91977
currencies 91976
risen 91975
river 91974
deputy 91973
parity 91972
Disabled 91971
Twenty 91970
overarching 91969
Marino 91968
exhibi@@ 91967
anda 91966
mountain 91965
5.2 91964
successes 91963
Recommendation 91962
character@@ 91961
ship@@ 91960
OP 91959
ino 91958
0.7 91957
Procurator 91956
conform 91955
ens@@ 91954
hate 91953
hit 91952
1.6 91951
197 91950
eous 91949
Brindisi 91948
Chargé 91947
compensate 91946
&apos;affaires 91945
provoc@@ 91944
recycling 91943
Increase 91942
saying 91941
Tokyo 91940
footing 91939
arity 91938
Compact 91937
unfair 91936
repairs 91935
unclear 91934
adjudic@@ 91933
fruitful 91932
accepting 91931
deforestation 91930
Os@@ 91929
arrive 91928
Srpska 91927
remnants 91926
contaminated 91925
Inquiry 91924
enacting 91923
Ber@@ 91922
aun@@ 91921
fines 91920
rationale 91919
ame@@ 91918
employ 91917
cul@@ 91916
unchanged 91915
raw 91914
Cu@@ 91913
exact 91912
M. 91911
card 91910
accumulation 91909
Trustees 91908
culmin@@ 91907
leisure 91906
sustaining 91905
Antigua 91904
Judges 91903
Compliance 91902
utilizing 91901
impeding 91900
Swaziland 91899
complainants 91898
vulnerabilities 91897
supplier 91896
domain 91895
determin@@ 91894
bus 91893
IPCC 91892
personally 91891
insi@@ 91890
232 91889
dies 91888
Do@@ 91887
interrog@@ 91886
permanently 91885
comm@@ 91884
Por@@ 91883
266 91882
maps 91881
Sup@@ 91880
PE@@ 91879
Memorandum 91878
pel@@ 91877
nationalities 91876
utility 91875
sustainment 91874
OAS 91873
instrumental 91872
hin@@ 91871
reject 91870
War@@ 91869
visas 91868
initiation 91867
ams 91866
Enhanced 91865
drive 91864
fron@@ 91863
synergy 91862
advocates 91861
explo@@ 91860
Reporting 91859
plant@@ 91858
planet 91857
Executives 91856
296 91855
financially 91854
bulk 91853
circl@@ 91852
consecutive 91851
insofar 91850
set@@ 91849
Er@@ 91848
differentiated 91847
my@@ 91846
joining 91845
CM@@ 91844
activ@@ 91843
protects 91842
Ozone 91841
sees 91840
Investigations 91839
ug@@ 91838
extends 91837
optimal 91836
enh@@ 91835
high@@ 91834
distinc@@ 91833
redeployed 91832
indictment 91831
5.1 91830
Landlocked 91829
gaining 91828
Falkland 91827
20.@@ 91826
68@@ 91825
204 91824
Life 91823
reclassification 91822
Rico 91821
Arusha 91820
moder@@ 91819
tile 91818
shocks 91817
tended 91816
dif@@ 91815
lot 91814
misuse 91813
bills 91812
affiliated 91811
newspaper 91810
ami 91809
Ku@@ 91808
XIII 91807
ain@@ 91806
WG.@@ 91805
Kh@@ 91804
memory 91803
Bra@@ 91802
adjust 91801
rit@@ 91800
manager 91799
liber@@ 91798
small@@ 91797
UNV 91796
Super@@ 91795
kidnapping 91794
Vincent 91793
uc@@ 91792
delegate 91791
marks 91790
DEVELOPMENT 91789
nation@@ 91788
founding 91787
enforcing 91786
TR@@ 91785
adj@@ 91784
ano 91783
Company 91782
269 91781
stic 91780
ord@@ 91779
Mag@@ 91778
struc@@ 91777
manuals 91776
Khartoum 91775
star@@ 91774
bloc@@ 91773
reliability 91772
deadlines 91771
tac@@ 91770
DA@@ 91769
2.6 91768
CF 91767
dy 91766
ser 91765
bri@@ 91764
conditional 91763
contravention 91762
paramilitary 91761
promising 91760
promise 91759
routine 91758
clashes 91757
interpretative 91756
oblig@@ 91755
dramatic 91754
FARDC 91753
actuarial 91752
sentencing 91751
stric@@ 91750
condemnation 91749
alike 91748
Registration 91747
shape 91746
shi@@ 91745
ung 91744
This 91743
sensitization 91742
spectrum 91741
assignments 91740
friends 91739
tom@@ 91738
retro@@ 91737
253 91736
Ne@@ 91735
20,@@ 91734
abducted 91733
SECURITY 91732
Auditor 91731
ICEF 91730
ass 91729
contamination 91728
incomplete 91727
solici@@ 91726
TH 91725
edly 91724
resid@@ 91723
obviously 91722
EM 91721
Correc@@ 91720
Beirut 91719
ques 91718
exporting 91717
vian 91716
stake 91715
cannabis 91714
ware@@ 91713
countermeasures 91712
23.@@ 91711
commission@@ 91710
Empowerment 91709
IO@@ 91708
elaborating 91707
Ethnic 91706
purchasing 91705
Narcotics 91704
sexes 91703
pursuance 91702
specially 91701
accrued 91700
258 91699
Xenophobia 91698
blo@@ 91697
calcul@@ 91696
yield 91695
unlike 91694
inspec@@ 91693
president 91692
ef 91691
John 91690
minimal 91689
les@@ 91688
cumulative 91687
EX@@ 91686
inviting 91685
There 91684
enc@@ 91683
Sarajevo 91682
Marshall 91681
Bri@@ 91680
Ram@@ 91679
nets 91678
analy@@ 91677
adopts 91676
eh 91675
Moun@@ 91674
won 91673
offensive 91672
IT 91671
ils 91670
Effective 91669
deteriorating 91668
esti@@ 91667
eventual 91666
lic 91665
Chernobyl 91664
avi@@ 91663
mal@@ 91662
publicity 91661
ran 91660
Market 91659
mic 91658
portal 91657
constructed 91656
path@@ 91655
FA 91654
Republika 91653
VER@@ 91652
arises 91651
patri@@ 91650
predictability 91649
aps 91648
21.@@ 91647
Traffic 91646
justi@@ 91645
sco@@ 91644
conf@@ 91643
residual 91642
runs 91641
progres@@ 91640
spring 91639
frustr@@ 91638
emanating 91637
yan 91636
Religious 91635
ony 91634
Bah@@ 91633
La 91632
annotations 91631
lengthy 91630
Karabakh 91629
influenced 91628
lift 91627
disposition 91626
detected 91625
announcements 91624
procur@@ 91623
CONVENTION 91622
confiscated 91621
Fifty 91620
ishment 91619
500,000 91618
687 91617
Front 91616
presently 91615
discriminated 91614
UL@@ 91613
ministry 91612
pregnancies 91611
four@@ 91610
Kyrgyz 91609
feder@@ 91608
yl 91607
ton@@ 91606
evictions 91605
recommending 91604
reforming 91603
provider 91602
3.4 91601
tionally 91600
remedial 91599
interviewed 91598
IP 91597
Ver@@ 91596
suspicion 91595
artillery 91594
Malvinas 91593
ual 91592
46@@ 91591
concentrations 91590
prioritize 91589
Dem@@ 91588
Develop 91587
educated 91586
pleasure 91585
recruiting 91584
sor@@ 91583
exit 91582
adviser 91581
criticism 91580
Green 91579
actor 91578
UNAMSIL 91577
legacy 91576
rain 91575
Federated 91574
neg@@ 91573
TCDC 91572
summaries 91571
book@@ 91570
cri@@ 91569
ames 91568
Nos. 91567
arsenals 91566
ena 91565
intentional 91564
dered 91563
24.@@ 91562
dead@@ 91561
ow 91560
Campaign 91559
Enterprise 91558
Barbuda 91557
black 91556
compile 91555
expeditious 91554
valid@@ 91553
Mob@@ 91552
Contracts 91551
arg@@ 91550
penitentiary 91549
ér@@ 91548
Op@@ 91547
Observ@@ 91546
Sales 91545
foot@@ 91544
measurable 91543
injec@@ 91542
lia 91541
suit 91540
lers 91539
Sen@@ 91538
Cypriots 91537
breastfeeding 91536
observes 91535
imbalances 91534
During 91533
stand@@ 91532
prof@@ 91531
happened 91530
adjournment 91529
ordnance 91528
sharp 91527
Defense 91526
opium 91525
unconditional 91524
twelve 91523
laboratories 91522
ris@@ 91521
whatsoever 91520
4.4 91519
ox@@ 91518
inci@@ 91517
remarkable 91516
asserted 91515
viability 91514
Lucia 91513
undertakes 91512
weigh@@ 91511
DR 91510
Hospital 91509
tasked 91508
Understanding 91507
rational 91506
signatures 91505
spoken 91504
dialogues 91503
AWG 91502
depended 91501
Oceans 91500
synthesis 91499
alisation 91498
petroleum 91497
reveal 91496
electrical 91495
Pol@@ 91494
Abkhazia 91493
ani@@ 91492
338 91491
tun@@ 91490
acqu@@ 91489
Road 91488
verifiable 91487
peacekeepers 91486
sum@@ 91485
pe 91484
profiles 91483
Electronic 91482
escal@@ 91481
aug@@ 91480
conce@@ 91479
voter 91478
therapy 91477
termin@@ 91476
constituent 91475
5.3 91474
ful@@ 91473
sively 91472
alised 91471
unt@@ 91470
codification 91469
chains 91468
UNMEE 91467
emotional 91466
generous 91465
persist 91464
recovered 91463
ranks 91462
demonstrating 91461
Bak@@ 91460
scenarios 91459
XX@@ 91458
desk 91457
reorganization 91456
occasi@@ 91455
iness 91454
Summary 91453
CO2 91452
Rapporteurs 91451
234 91450
replacing 91449
artistic 91448
Olympic 91447
ard@@ 91446
generic 91445
empowering 91444
fit@@ 91443
Liber@@ 91442
reat@@ 91441
223 91440
importing 91439
8,000 91438
differential 91437
tertiary 91436
confirms 91435
ee 91434
Produc@@ 91433
instructed 91432
rooted 91431
ash 91430
238 91429
GHG 91428
occupations 91427
sym@@ 91426
hiring 91425
Estonian 91424
barrier 91423
PB@@ 91422
duplic@@ 91421
med 91420
raises 91419
yle 91418
purely 91417
INTERNATIONAL 91416
drivers 91415
deliber@@ 91414
tragedy 91413
Lan@@ 91412
assists 91411
criminalize 91410
concurr@@ 91409
dependency 91408
lor@@ 91407
ety 91406
Kimberley 91405
Effects 91404
rarely 91403
scrutiny 91402
hostage 91401
precursors 91400
264 91399
ome 91398
200,000 91397
narcotics 91396
fullest 91395
invo@@ 91394
247 91393
vigil@@ 91392
ures 91391
276 91390
SW@@ 91389
images 91388
54@@ 91387
Adop@@ 91386
interdependent 91385
Associations 91384
Tim@@ 91383
vent 91382
younger 91381
distribute 91380
Improved 91379
underlining 91378
impediments 91377
hid@@ 91376
Inclu@@ 91375
abortions 91374
Algerian 91373
MS 91372
249 91371
devi@@ 91370
Mohamed 91369
lion 91368
count 91367
verbatim 91366
ica 91365
phere 91364
5.5 91363
worship 91362
Fisheries 91361
simplified 91360
diver@@ 91359
embarked 91358
Trusteeship 91357
C.12 91356
Offences 91355
Mad@@ 91354
commits 91353
UNAMI 91352
exacerb@@ 91351
Timorese 91350
costly 91349
unsustainable 91348
psychotropic 91347
pas@@ 91346
initiating 91345
ire 91344
Commissions 91343
harmonizing 91342
overlap 91341
231 91340
banned 91339
UNMIT 91338
tru@@ 91337
detec@@ 91336
cuts 91335
Kinshasa 91334
2,500 91333
prosecuting 91332
stopped 91331
imper@@ 91330
ICCPR 91329
B.@@ 91328
magaz@@ 91327
connec@@ 91326
S.@@ 91325
morbidity 91324
not@@ 91323
expensive 91322
rigorous 91321
Her@@ 91320
Art. 91319
delegated 91318
schedules 91317
kit 91316
Laws 91315
252 91314
Min@@ 91313
erosion 91312
politici@@ 91311
246 91310
plur@@ 91309
expressions 91308
Grenadines 91307
yers 91306
encompass 91305
HS 91304
Def@@ 91303
specifies 91302
labor 91301
CI 91300
Policies 91299
sla@@ 91298
exhaustive 91297
fol@@ 91296
Sciences 91295
6.5 91294
Crescent 91293
purchased 91292
L.2 91291
class@@ 91290
za 91289
organised 91288
liberation 91287
tanks 91286
rehabilit@@ 91285
RES 91284
deems 91283
Ken@@ 91282
commemoration 91281
arized 91280
rank 91279
Almaty 91278
ounce 91277
Refer@@ 91276
Kashmir 91275
244 91274
UPR 91273
ARTICLE 91272
importantly 91271
Fin@@ 91270
Major 91269
DE 91268
na@@ 91267
permitting 91266
precarious 91265
Tuvalu 91264
SR 91263
Certi@@ 91262
acc@@ 91261
224 91260
tentative 91259
mit 91258
transferring 91257
sensitivity 91256
wives 91255
laun@@ 91254
cian 91253
ESA 91252
attainable 91251
volatile 91250
akes 91249
Oslo 91248
centralized 91247
Direc@@ 91246
evidenced 91245
PL@@ 91244
ey 91243
dist@@ 91242
yp@@ 91241
feed 91240
sanction 91239
bottom 91238
ership 91237
Application 91236
Mac@@ 91235
disclose 91234
habit@@ 91233
steering 91232
Glob@@ 91231
Bar 91230
1.7 91229
precedence 91228
219 91227
red@@ 91226
breaking 91225
lectures 91224
rog@@ 91223
error 91222
bs 91221
insul@@ 91220
Sports 91219
1966 91218
theft 91217
cel@@ 91216
pretext 91215
quest 91214
AC.105 91213
awa@@ 91212
capit@@ 91211
Finnish 91210
vendor 91209
euros 91208
ini@@ 91207
receivables 91206
broch@@ 91205
volunteer 91204
67@@ 91203
intermediate 91202
Dec.@@ 91201
berg 91200
depar@@ 91199
optimi@@ 91198
archi@@ 91197
ć 91196
vic@@ 91195
interface 91194
ground@@ 91193
Sol@@ 91192
Economy 91191
consultancy 91190
Cartagena 91189
Entity 91188
reparations 91187
22.@@ 91186
ature 91185
fled 91184
MI 91183
Under@@ 91182
reco@@ 91181
265 91180
Annan 91179
Mil@@ 91178
Vanuatu 91177
jo@@ 91176
film 91175
atrocities 91174
advertising 91173
situated 91172
robbery 91171
Two 91170
subjec@@ 91169
Boards 91168
subparagraphs 91167
AM 91166
yearly 91165
migr@@ 91164
clearer 91163
bar 91162
WG@@ 91161
ems 91160
hinder 91159
II@@ 91158
players 91157
15,000 91156
timber 91155
eli@@ 91154
travelling 91153
ney 91152
B. 91151
samples 91150
oting 91149
kits 91148
insert 91147
ree 91146
ax@@ 91145
infectious 91144
whereabouts 91143
ial 91142
2.7 91141
lifest@@ 91140
confer@@ 91139
Ak@@ 91138
ja 91137
allot@@ 91136
blocks 91135
undergoing 91134
69@@ 91133
affiliation 91132
insured 91131
scre@@ 91130
EP 91129
station@@ 91128
Jean 91127
Continue 91126
DP@@ 91125
symbol 91124
ouring 91123
charter 91122
Nordic 91121
Equalization 91120
mit@@ 91119
defamation 91118
confronted 91117
ove@@ 91116
colon@@ 91115
Prepar@@ 91114
accru@@ 91113
intr@@ 91112
ti 91111
electric 91110
approving 91109
reside 91108
Kam@@ 91107
converted 91106
bi 91105
mix@@ 91104
ene 91103
alu@@ 91102
lays 91101
gl@@ 91100
fer 91099
triennial 91098
getting 91097
anything 91096
precedent 91095
differ 91094
Confederation 91093
Pact 91092
conducts 91091
cyber@@ 91090
dominant 91089
ader 91088
Jud@@ 91087
smo@@ 91086
multilingu@@ 91085
UNMISS 91084
affirming 91083
li 91082
debts 91081
Seychelles 91080
sation 91079
ener@@ 91078
bo 91077
boost 91076
stance 91075
sanitary 91074
fortieth 91073
discovered 91072
regrettably 91071
diamond 91070
jeopardi@@ 91069
fluctuations 91068
Paper 91067
ich@@ 91066
Can@@ 91065
Belgian 91064
Offenders 91063
posing 91062
1.8 91061
Add.4 91060
ague 91059
taining 91058
skill 91057
&apos;a 91056
BO@@ 91055
devise 91054
affirm 91053
Reg@@ 91052
medic@@ 91051
mode 91050
closures 91049
ón 91048
academia 91047
appearance 91046
brother 91045
ides 91044
authorizes 91043
decreasing 91042
Commitment 91041
overtime 91040
convers@@ 91039
concessions 91038
competen@@ 91037
tremendous 91036
circum@@ 91035
Chan@@ 91034
sen 91033
Autonomous 91032
disorders 91031
Over@@ 91030
Ha 91029
53@@ 91028
multidimensional 91027
Watch 91026
unliquidated 91025
organisation 91024
forcibly 91023
accessed 91022
tongue 91021
denomin@@ 91020
IV@@ 91019
May@@ 91018
column 91017
Ir@@ 91016
selling 91015
migratory 91014
imbalance 91013
accumulated 91012
grew 91011
Amer@@ 91010
crip@@ 91009
presumed 91008
Amnesty 91007
Organizational 91006
streets 91005
atri@@ 91004
Kofi 91003
repression 91002
estim@@ 91001
commanders 91000
stream 90999
confront 90998
Advoc@@ 90997
Strengthen 90996
bling 90995
compelled 90994
lap@@ 90993
Han@@ 90992
UNDG 90991
The@@ 90990
accommodated 90989
im 90988
7,000 90987
lateral 90986
credited 90985
floods 90984
midterm 90983
Discipl@@ 90982
extensively 90981
Cir@@ 90980
ero@@ 90979
noteworthy 90978
recreational 90977
evolved 90976
7.5 90975
1968 90974
a.i. 90973
Israelis 90972
guar@@ 90971
catch 90970
sional 90969
XIV 90968
locate 90967
childbirth 90966
judg@@ 90965
RB@@ 90964
Buenos 90963
Risk 90962
comprehensively 90961
ACABQ 90960
disproportionately 90959
quarters 90958
ition 90957
PR 90956
apped 90955
Aires 90954
cycl@@ 90953
dismant@@ 90952
Seabed 90951
united 90950
clu@@ 90949
cornerstone 90948
Sk@@ 90947
imp@@ 90946
demanding 90945
gre@@ 90944
adds 90943
HRI 90942
healthcare 90941
tripartite 90940
Tor@@ 90939
ceremony 90938
bus@@ 90937
standardization 90936
litem 90935
ken 90934
trou@@ 90933
suspicious 90932
terminate 90931
Money 90930
repercussions 90929
reli@@ 90928
255 90927
RU@@ 90926
distinguish 90925
SECRETARY 90924
underline 90923
35@@ 90922
las 90921
Dakar 90920
persu@@ 90919
Kur@@ 90918
scarce 90917
administer 90916
Coun@@ 90915
documentary 90914
Fu@@ 90913
mal 90912
Janeiro 90911
Spe@@ 90910
ab 90909
extradite 90908
Ottawa 90907
ody 90906
acti@@ 90905
prop@@ 90904
tsunami 90903
sell 90902
ster@@ 90901
conveyed 90900
Its 90899
Cambodian 90898
Income 90897
wal@@ 90896
attracting 90895
interfere 90894
convergence 90893
Pal@@ 90892
40,000 90891
bon 90890
lacks 90889
strikes 90888
captured 90887
siveness 90886
door 90885
differenti@@ 90884
corrective 90883
sciences 90882
shortfall 90881
Consideration 90880
shells 90879
allocating 90878
Appointment 90877
Applications 90876
77@@ 90875
commerci@@ 90874
essence 90873
dedication 90872
phone 90871
facilitator 90870
Brunei 90869
olutionary 90868
solar 90867
restricting 90866
approached 90865
Forest 90864
desi@@ 90863
agr@@ 90862
indic@@ 90861
tionality 90860
RA 90859
aboli@@ 90858
edition 90857
Citizenship 90856
complying 90855
ensuing 90854
thirtieth 90853
implic@@ 90852
lear@@ 90851
relied 90850
pollutants 90849
UNT@@ 90848
MISSION 90847
DATED 90846
arisen 90845
disturbing 90844
kinder@@ 90843
LDC 90842
bulletin 90841
ices 90840
AU@@ 90839
device 90838
big 90837
rounds 90836
defec@@ 90835
Cro@@ 90834
SD 90833
pain 90832
homeless 90831
undergo 90830
Contact 90829
Overseas 90828
245 90827
freezing 90826
questioning 90825
reconsider 90824
239 90823
Directors 90822
ceiling 90821
Accra 90820
revolution 90819
tank 90818
Sahel 90817
spaces 90816
Sport 90815
28.@@ 90814
adjacent 90813
WORK 90812
tings 90811
disregard 90810
yesterday 90809
deli@@ 90808
finalizing 90807
hectares 90806
violates 90805
consequent 90804
275 90803
dominated 90802
TRA@@ 90801
centers 90800
cler@@ 90799
fic 90798
Pat@@ 90797
LRA 90796
shipments 90795
tural 90794
Sheikh 90793
289 90792
assistant 90791
accurately 90790
ori 90789
compound 90788
Provisions 90787
machine 90786
infants 90785
contraceptive 90784
worse 90783
neutrality 90782
Agencies 90781
š@@ 90780
Nu@@ 90779
handbook 90778
rationalization 90777
283 90776
qualify 90775
curb 90774
publici@@ 90773
crow@@ 90772
promulgation 90771
deliberately 90770
lit@@ 90769
invoke 90768
mas@@ 90767
itable 90766
aced 90765
grati@@ 90764
pack@@ 90763
thers 90762
six@@ 90761
cho@@ 90760
imminent 90759
obstetric 90758
SAT 90757
bon@@ 90756
eration 90755
Maori 90754
incommunicado 90753
rev@@ 90752
void 90751
wrong@@ 90750
checkpoints 90749
interrup@@ 90748
faster 90747
scaling 90746
certi@@ 90745
Black 90744
absolutely 90743
peri@@ 90742
emerge 90741
generators 90740
CPC 90739
rest@@ 90738
collaborating 90737
therhood 90736
surpri@@ 90735
journ@@ 90734
ideal 90733
assem@@ 90732
backgrounds 90731
L. 90730
protests 90729
Reintegration 90728
correctly 90727
assaul@@ 90726
upbringing 90725
accepts 90724
demarcation 90723
advocating 90722
enforceable 90721
conscientious 90720
icans 90719
Providing 90718
metal 90717
materi@@ 90716
Exercise 90715
Provision 90714
Pan@@ 90713
worthy 90712
break@@ 90711
27,@@ 90710
Cent@@ 90709
ater 90708
orderly 90707
ba@@ 90706
clarifying 90705
confronting 90704
bled 90703
originating 90702
Ny@@ 90701
Pet@@ 90700
inning 90699
veget@@ 90698
DEC@@ 90697
Prisoners 90696
intra 90695
NA 90694
ambass@@ 90693
Disappearance 90692
conveni@@ 90691
compliments 90690
Jordanian 90689
operation@@ 90688
asive 90687
ries 90686
Maintenance 90685
preschool 90684
geogr@@ 90683
Reserve 90682
ologists 90681
cocaine 90680
Language 90679
premi@@ 90678
believing 90677
Malaria 90676
fathers 90675
yes 90674
prob@@ 90673
Impact 90672
anis@@ 90671
272 90670
Hungarian 90669
Hon@@ 90668
Wel@@ 90667
ID 90666
declares 90665
261 90664
fleet 90663
bid@@ 90662
ni 90661
hum@@ 90660
placements 90659
supporters 90658
6.2 90657
Sanctions 90656
6.3 90655
volunte@@ 90654
ction 90653
Departments 90652
fran@@ 90651
superior 90650
D.C. 90649
congratulations 90648
Truth 90647
tations 90646
clubs 90645
streamlined 90644
benchmark 90643
stemming 90642
elessness 90641
dissolution 90640
volatility 90639
ey@@ 90638
§ 90637
305 90636
TC 90635
nic@@ 90634
Vo@@ 90633
reprisals 90632
refuge 90631
win@@ 90630
upholding 90629
expedi@@ 90628
Magistr@@ 90627
competing 90626
repeal 90625
adors 90624
escorted 90623
DS 90622
practised 90621
diagnosis 90620
perceptions 90619
margin 90618
lization 90617
esc@@ 90616
preferences 90615
Sar@@ 90614
tracing 90613
amed 90612
Pres@@ 90611
self@@ 90610
mercenary 90609
ODS 90608
modality 90607
Guard 90606
timeliness 90605
triangular 90604
TIVE 90603
ols 90602
deceased 90601
resolu@@ 90600
vice 90599
Fish 90598
aggravating 90597
asking 90596
arbitrarily 90595
rocket 90594
shortages 90593
Mc@@ 90592
circumstance 90591
itely 90590
clarifications 90589
cancelled 90588
Fr@@ 90587
azi 90586
bot@@ 90585
bilingual 90584
envisages 90583
Az@@ 90582
exploit 90581
bid 90580
fighters 90579
familiar 90578
256 90577
bodily 90576
atics 90575
congres@@ 90574
hel@@ 90573
ortium 90572
ratios 90571
gun@@ 90570
follow@@ 90569
229 90568
reimbur@@ 90567
Construction 90566
continu@@ 90565
depositary 90564
top@@ 90563
solitary 90562
alists 90561
objectivity 90560
450 90559
bombs 90558
pend@@ 90557
Punish 90556
ineffective 90555
scales 90554
multicultural 90553
compens@@ 90552
outbreak 90551
aya 90550
akh@@ 90549
xes 90548
ODP 90547
DO@@ 90546
ites 90545
wave 90544
conferred 90543
burdens 90542
&apos;aretz 90541
hear@@ 90540
deserved 90539
totalled 90538
effected 90537
compliant 90536
ICAO 90535
Gi@@ 90534
Requ@@ 90533
excellence 90532
Cel@@ 90531
peacefully 90530
enjoys 90529
securities 90528
culturally 90527
decrees 90526
supervise 90525
Grenada 90524
XVII 90523
Grand 90522
ser@@ 90521
pollu@@ 90520
definitive 90519
precautionary 90518
correspond 90517
repatriated 90516
mechan@@ 90515
ardi@@ 90514
repeat 90513
ased 90512
transform 90511
observing 90510
Ki@@ 90509
magistrate 90508
hun@@ 90507
institutionalized 90506
munition 90505
ac 90504
iz 90503
LD@@ 90502
Frente 90501
chron@@ 90500
cast@@ 90499
subnational 90498
employing 90497
SUBMITTED 90496
engine@@ 90495
interven@@ 90494
recti@@ 90493
Stocks 90492
factions 90491
broadening 90490
Series 90489
Tonga 90488
evacu@@ 90487
demilit@@ 90486
irreversible 90485
widest 90484
removals 90483
wake 90482
annum 90481
6.1 90480
questionnaires 90479
ater@@ 90478
Extension 90477
EST@@ 90476
262 90475
reputation 90474
Commissioners 90473
prospective 90472
Adaptation 90471
Sim@@ 90470
destructive 90469
xed 90468
vaccination 90467
Crisis 90466
Palau 90465
graduation 90464
di 90463
animal 90462
Cal@@ 90461
struck 90460
symposium 90459
ET@@ 90458
28,@@ 90457
expectation 90456
rebuilding 90455
RECORD 90454
reconci@@ 90453
retaining 90452
abandonment 90451
Laundering 90450
bureau 90449
stat@@ 90448
Drought 90447
implied 90446
cid@@ 90445
rescue 90444
trav@@ 90443
When 90442
du 90441
Elections 90440
Cha@@ 90439
surge 90438
SubCommission 90437
Lusaka 90436
BL@@ 90435
woun@@ 90434
found@@ 90433
declaring 90432
contributor 90431
Intellectual 90430
CER@@ 90429
politicians 90428
ME 90427
albeit 90426
Conclu@@ 90425
theory 90424
irs 90423
tle 90422
FMCT 90421
2.8 90420
ENCE 90419
auditing 90418
Tenth 90417
oto@@ 90416
tured 90415
condemning 90414
2.45 90413
Slavery 90412
ora 90411
Time 90410
Main@@ 90409
filling 90408
audience 90407
Abidjan 90406
intentions 90405
Engineering 90404
corpus 90403
avail 90402
combine 90401
ami@@ 90400
immun@@ 90399
Supply 90398
infringement 90397
align@@ 90396
revo@@ 90395
colonialism 90394
promotional 90393
ich 90392
may@@ 90391
tieth 90390
chart 90389
flag@@ 90388
enrichment 90387
Dj@@ 90386
olution 90385
herself 90384
plas@@ 90383
principally 90382
Out@@ 90381
safer 90380
Command 90379
Populations 90378
ep 90377
Governors 90376
sy 90375
comb@@ 90374
Es@@ 90373
prompted 90372
alty 90371
Strategies 90370
separ@@ 90369
win 90368
LD 90367
Areas 90366
subsidi@@ 90365
adapting 90364
che 90363
Ca@@ 90362
interactions 90361
elo@@ 90360
unresolved 90359
colleges 90358
projec@@ 90357
Transit 90356
tiz@@ 90355
catastrop@@ 90354
variations 90353
lifted 90352
practicable 90351
varies 90350
IPU 90349
strengths 90348
LOS 90347
spend 90346
259 90345
Concer@@ 90344
describing 90343
22,@@ 90342
silence 90341
je 90340
Thir@@ 90339
aerial 90338
deserve 90337
263 90336
21,@@ 90335
Reconstruction 90334
Ombudsperson 90333
subsidy 90332
confessions 90331
By 90330
teenage 90329
apprehen@@ 90328
S. 90327
257 90326
accomplish 90325
donations 90324
gh 90323
irrigation 90322
couples 90321
know@@ 90320
lor 90319
compounded 90318
fri@@ 90317
Vic@@ 90316
Regular 90315
Ph@@ 90314
foreigner 90313
26.@@ 90312
dam 90311
compu@@ 90310
Fight 90309
af 90308
PN@@ 90307
WMO 90306
humili@@ 90305
staffed 90304
Covenants 90303
stries 90302
exi@@ 90301
contested 90300
deduc@@ 90299
ez 90298
1267 90297
slum 90296
interpretations 90295
simultaneous 90294
Darussalam 90293
23,@@ 90292
sto@@ 90291
tices 90290
dom@@ 90289
eing 90288
Euro 90287
alling 90286
utilities 90285
disciplines 90284
surrender 90283
oes 90282
umbrella 90281
292 90280
prospect 90279
prev@@ 90278
lesser 90277
exported 90276
celebration 90275
prerog@@ 90274
Air@@ 90273
invitations 90272
tering 90271
TV 90270
horizontal 90269
toler@@ 90268
cleared 90267
pays 90266
conver@@ 90265
expiration 90264
Schools 90263
Reper@@ 90262
implici@@ 90261
ASSEMBLY 90260
Technological 90259
interrupted 90258
mir 90257
Greenland 90256
uneven 90255
furthering 90254
aux 90253
Andean 90252
Guatemalan 90251
JS@@ 90250
60,000 90249
és 90248
confession 90247
AR 90246
tran@@ 90245
Tajik 90244
Irish 90243
orphan@@ 90242
mise 90241
vicinity 90240
intense 90239
prevalent 90238
titles 90237
firm@@ 90236
detriment 90235
Documents 90234
Appro@@ 90233
defending 90232
deported 90231
Such 90230
ye 90229
caring 90228
specifici@@ 90227
tariffs 90226
craft 90225
supervised 90224
directive 90223
stories 90222
subsection 90221
behavi@@ 90220
lock 90219
likelihood 90218
jeopardize 90217
nom@@ 90216
minute 90215
I. 90214
Establish 90213
Partnerships 90212
meth@@ 90211
288 90210
compli@@ 90209
deputies 90208
tening 90207
articulated 90206
Pre 90205
ITU 90204
exceeds 90203
285 90202
opposite 90201
multipli@@ 90200
provo@@ 90199
dom 90198
Hazardous 90197
widening 90196
xenophobic 90195
amphetamine 90194
rail@@ 90193
alled 90192
neglected 90191
encompasses 90190
alls 90189
economics 90188
biotechnology 90187
Turks 90186
Bermuda 90185
Christi@@ 90184
societal 90183
3.6 90182
ock 90181
Total 90180
sufficiency 90179
configuration 90178
graduates 90177
1,200 90176
chair@@ 90175
affor@@ 90174
microcredit 90173
absent 90172
cleaning 90171
essors 90170
inflic@@ 90169
RI 90168
Advice 90167
match 90166
notic@@ 90165
confusion 90164
inqui@@ 90163
Exchange 90162
educators 90161
competi@@ 90160
disadvantage 90159
ily 90158
1958 90157
UNLB 90156
stipul@@ 90155
naval 90154
dramatically 90153
volumes 90152
284 90151
intensity 90150
1964 90149
incorporates 90148
alistic 90147
Southeast 90146
revising 90145
season 90144
pay@@ 90143
pharmaceutical 90142
econom@@ 90141
pers 90140
instig@@ 90139
secret@@ 90138
problematic 90137
perfec@@ 90136
footnote 90135
lob@@ 90134
1970s 90133
selecting 90132
Saf@@ 90131
replying 90130
Assistants 90129
furn@@ 90128
adverti@@ 90127
25.@@ 90126
K. 90125
ICPD 90124
atized 90123
Cities 90122
280 90121
peak 90120
Multi@@ 90119
marry 90118
preclude 90117
jure 90116
omission 90115
automation 90114
ero 90113
CCF 90112
travelled 90111
indefinite 90110
FCs 90109
suited 90108
well@@ 90107
vals 90106
redouble 90105
laying 90104
absor@@ 90103
corri@@ 90102
compounds 90101
persist@@ 90100
XVI 90099
rup@@ 90098
implements 90097
involuntary 90096
manufactured 90095
bad 90094
adap@@ 90093
peninsula 90092
understands 90091
NATION 90090
proud 90089
FM@@ 90088
Ahmed 90087
sophisticated 90086
urs 90085
rowing 90084
dismantling 90083
Classification 90082
cleaner 90081
ö@@ 90080
fruit 90079
nings 90078
unanimous 90077
anthropogenic 90076
bly 90075
endanger 90074
revit@@ 90073
seize 90072
osp@@ 90071
brid 90070
Transparency 90069
ü@@ 90068
vering 90067
exempt 90066
Peruvian 90065
tropical 90064
brackets 90063
administr@@ 90062
rot@@ 90061
gradu@@ 90060
commending 90059
sical 90058
Age 90057
exer@@ 90056
Ger@@ 90055
Claims 90054
humane 90053
collabor@@ 90052
Labor 90051
preferable 90050
deter 90049
Drafting 90048
lend 90047
certainty 90046
Settlement 90045
pronounced 90044
jec@@ 90043
Nauru 90042
pled 90041
maturity 90040
accusations 90039
viol@@ 90038
peacemaking 90037
pluralism 90036
ik@@ 90035
petitions 90034
lah 90033
Posi@@ 90032
ult 90031
bal@@ 90030
reproduction 90029
wrong 90028
Decisions 90027
EL 90026
noble 90025
Santiago 90024
sheets 90023
enced 90022
URE 90021
guides 90020
INF@@ 90019
425 90018
ideals 90017
institutionalization 90016
validation 90015
stabiliz@@ 90014
outlining 90013
ace@@ 90012
fiable 90011
penetr@@ 90010
0.5 90009
pp. 90008
Mah@@ 90007
tail@@ 90006
REL@@ 90005
metric 90004
asy@@ 90003
rati@@ 90002
unforeseen 90001
4.6 90000
OB@@ 89999
365 89998
governorates 89997
ous@@ 89996
án 89995
containers 89994
sch@@ 89993
alliances 89992
Point 89991
Suppress 89990
Intern@@ 89989
290 89988
virus 89987
inspired 89986
facilitators 89985
21st 89984
encompassing 89983
Ash@@ 89982
templ@@ 89981
technically 89980
2.30 89979
don 89978
bail 89977
lo 89976
abstain@@ 89975
happen 89974
posi@@ 89973
holidays 89972
nursing 89971
firstly 89970
failures 89969
summari@@ 89968
hereby 89967
rough 89966
rig@@ 89965
Wit@@ 89964
dow@@ 89963
industrialization 89962
Quartet 89961
posters 89960
deepening 89959
foreseeable 89958
Nor@@ 89957
nu@@ 89956
assistants 89955
UNIDIR 89954
gent 89953
incremental 89952
box 89951
occupy 89950
practi@@ 89949
FPA 89948
denying 89947
Hamas 89946
subsidized 89945
constructively 89944
Ef@@ 89943
Val@@ 89942
errors 89941
presiding 89940
unexploded 89939
bargaining 89938
ici@@ 89937
tiveness 89936
ised 89935
UNA@@ 89934
acknowledgement 89933
passengers 89932
country@@ 89931
chan@@ 89930
doubled 89929
efs 89928
mil@@ 89927
refurb@@ 89926
11th 89925
Ama@@ 89924
appreci@@ 89923
ored 89922
landing 89921
Non@@ 89920
searches 89919
care@@ 89918
quadrennial 89917
CU@@ 89916
Nation 89915
GC 89914
answered 89913
agro 89912
inaugur@@ 89911
insur@@ 89910
ist@@ 89909
symbols 89908
institution@@ 89907
web@@ 89906
Councils 89905
80@@ 89904
White 89903
acclamation 89902
Resolutions 89901
29,@@ 89900
leverage 89899
recreation 89898
MERCOSUR 89897
abduc@@ 89896
disparity 89895
milestone 89894
SAR 89893
Tra@@ 89892
specifications 89891
BR@@ 89890
tened 89889
moderate 89888
inevitably 89887
Philippine 89886
commendable 89885
irregularities 89884
Funds 89883
reformed 89882
286 89881
shelf 89880
abo@@ 89879
supposed 89878
erving 89877
12th 89876
Corpor@@ 89875
Wil@@ 89874
privileged 89873
Migrants 89872
pione@@ 89871
preceded 89870
circular 89869
gri@@ 89868
deepen 89867
compelling 89866
harmonious 89865
airports 89864
farms 89863
prime 89862
unfortunate 89861
withdrew 89860
ICCD 89859
pour 89858
CRP.1 89857
dose 89856
GN@@ 89855
Somal@@ 89854
diplomats 89853
conceived 89852
motivation 89851
aquifer 89850
petitioner 89849
authorizing 89848
Tehran 89847
Based 89846
expiry 89845
ising 89844
punitive 89843
fragmentation 89842
Romanian 89841
SESSION 89840
Il@@ 89839
gratis 89838
uk@@ 89837
enquired 89836
broadcasts 89835
ratifications 89834
L.3 89833
Prisons 89832
Men 89831
tied 89830
spatial 89829
25,000 89828
holdings 89827
00,000 89826
happy 89825
UD@@ 89824
caregi@@ 89823
Hebron 89822
CF@@ 89821
frames 89820
mix 89819
Weapon 89818
rous 89817
exporters 89816
News 89815
stam@@ 89814
injustice 89813
clandestine 89812
Institutional 89811
NAP 89810
criminalized 89809
Arbitrary 89808
tary 89807
ence@@ 89806
bonds 89805
alizes 89804
pragmatic 89803
agreeing 89802
particul@@ 89801
Future 89800
zes 89799
slave 89798
locked 89797
rid 89796
9,000 89795
XL@@ 89794
aggressive 89793
EE@@ 89792
squ@@ 89791
ota 89790
pressed 89789
ion@@ 89788
Observation 89787
francs 89786
efficiencies 89785
explosions 89784
chambers 89783
Good 89782
267 89781
deline@@ 89780
payroll 89779
WIPO 89778
aka 89777
MOP 89776
Abuja 89775
ority 89774
cin@@ 89773
Oper@@ 89772
backs 89771
prevents 89770
Guarante@@ 89769
Delhi 89768
arriving 89767
predominantly 89766
vir@@ 89765
Cam@@ 89764
confirming 89763
mem@@ 89762
rightly 89761
explains 89760
impression 89759
deliveries 89758
registers 89757
a.@@ 89756
304 89755
287 89754
presum@@ 89753
churches 89752
.... 89751
reconcile 89750
MINURCAT 89749
transi@@ 89748
metals 89747
discrepancies 89746
FD@@ 89745
Hol@@ 89744
Wales 89743
exchanged 89742
Provincial 89741
orm@@ 89740
explaining 89739
DPRK 89738
honoured 89737
impediment 89736
Ra@@ 89735
pieces 89734
vertical 89733
ITEM 89732
detentions 89731
hired 89730
dispatch 89729
academics 89728
Lead@@ 89727
jurisdictional 89726
exert 89725
sav@@ 89724
gered 89723
CTC 89722
caution 89721
Ha@@ 89720
Documentation 89719
bian 89718
Continental 89717
modes 89716
underscores 89715
manifest 89714
ven 89713
part@@ 89712
INTERPOL 89711
teri@@ 89710
tax@@ 89709
DD@@ 89708
constrained 89707
die 89706
disruption 89705
privately 89704
harsh 89703
Yearbook 89702
settling 89701
rendering 89700
Rati@@ 89699
rebels 89698
Altern@@ 89697
281 89696
1514 89695
Transboundary 89694
ean 89693
Cluster 89692
Unions 89691
repetition 89690
Disappearances 89689
forecast 89688
wo@@ 89687
rare 89686
Occup@@ 89685
news@@ 89684
GH@@ 89683
FOR@@ 89682
nurses 89681
finances 89680
disputed 89679
offshore 89678
24,@@ 89677
freshwater 89676
attend@@ 89675
hardly 89674
Treasury 89673
driver 89672
materiel 89671
reinforcement 89670
domination 89669
fec@@ 89668
explosion 89667
MD@@ 89666
discontinued 89665
suggesting 89664
invaluable 89663
shorter 89662
inflows 89661
delimitation 89660
Especially 89659
juridical 89658
deletion 89657
po 89656
ign@@ 89655
entailed 89654
minerals 89653
corporation 89652
slight 89651
ura 89650
collapse 89649
basically 89648
modern@@ 89647
inv@@ 89646
1965 89645
transformed 89644
prioritized 89643
by@@ 89642
LAC 89641
professions 89640
deal@@ 89639
opposing 89638
reat 89637
Atlas 89636
Add.5 89635
reclassi@@ 89634
Heritage 89633
tories 89632
NU@@ 89631
passports 89630
AGENDA 89629
naturally 89628
imposes 89627
Kor@@ 89626
Physical 89625
classifications 89624
bomb 89623
entirety 89622
acies 89621
corrupt 89620
Gal@@ 89619
On@@ 89618
happen@@ 89617
domin@@ 89616
inary 89615
heroin 89614
EU@@ 89613
reconven@@ 89612
connections 89611
UNI@@ 89610
Inalienable 89609
ached 89608
transported 89607
capitals 89606
Respect 89605
mag@@ 89604
bureaucr@@ 89603
Str@@ 89602
lec@@ 89601
exhaustion 89600
stag@@ 89599
Observatory 89598
sheet 89597
Twelfth 89596
venture 89595
43@@ 89594
kes@@ 89593
globe 89592
narrative 89591
enriched 89590
cur 89589
ez@@ 89588
KP 89587
Vietnamese 89586
friendship 89585
Referendum 89584
Early 89583
collaborated 89582
subordinate 89581
tled 89580
tivity 89579
ces@@ 89578
Cayman 89577
ine@@ 89576
Kigali 89575
Symposium 89574
band 89573
quar@@ 89572
dé@@ 89571
preferably 89570
XX 89569
expired 89568
1,5@@ 89567
diction 89566
heightened 89565
advising 89564
acing 89563
CM 89562
Consolidated 89561
Dag 89560
Identification 89559
dor@@ 89558
4.8 89557
PU@@ 89556
underscore 89555
dras@@ 89554
Coordin@@ 89553
Volunteer 89552
purview 89551
TE 89550
Authorities 89549
defin@@ 89548
ó@@ 89547
Del@@ 89546
habeas 89545
stigma 89544
jury 89543
occup@@ 89542
historically 89541
Marriage 89540
perpetr@@ 89539
coal 89538
coup 89537
signal 89536
FS 89535
25,@@ 89534
PRE@@ 89533
prescribes 89532
commu@@ 89531
regionally 89530
268 89529
threatens 89528
assemblies 89527
Diplomatic 89526
279 89525
Supplementary 89524
organiz@@ 89523
devised 89522
manipul@@ 89521
Evidence 89520
synthe@@ 89519
everywhere 89518
spreading 89517
cement 89516
adic 89515
ff 89514
What 89513
breaks 89512
sers 89511
inviolability 89510
66@@ 89509
else 89508
Associate 89507
idable 89506
316 89505
Sat@@ 89504
striving 89503
popul@@ 89502
Thai 89501
ANT 89500
XXI 89499
stringent 89498
frozen 89497
anian 89496
promises 89495
Collabor@@ 89494
mediate 89493
announce 89492
customers 89491
Ta@@ 89490
respec@@ 89489
talk 89488
ows 89487
peas@@ 89486
deficiency 89485
lev@@ 89484
1950 89483
buffer 89482
iron 89481
ga@@ 89480
Rican 89479
Census 89478
matrix 89477
numer@@ 89476
367 89475
undergone 89474
Abkhaz 89473
anc@@ 89472
fold 89471
constituencies 89470
steri@@ 89469
ups 89468
uncertainties 89467
congratulated 89466
differing 89465
obsolete 89464
iting 89463
stolen 89462
Ms 89461
promised 89460
connectivity 89459
bir@@ 89458
GNP 89457
bin@@ 89456
strugg@@ 89455
surg@@ 89454
suppress 89453
dal 89452
breast 89451
int 89450
warrants 89449
Hammarskjöld 89448
acqui@@ 89447
resour@@ 89446
indebted 89445
Montserrat 89444
impaired 89443
Master 89442
incarcer@@ 89441
otic 89440
sponsorship 89439
dental 89438
sake 89437
discourage 89436
rub@@ 89435
ficiency 89434
litigation 89433
eighty 89432
encumbered 89431
los 89430
leaves 89429
neighbourhood 89428
massacres 89427
Constitu@@ 89426
voices 89425
277 89424
Inspectorate 89423
ideological 89422
scan@@ 89421
eries 89420
4.7 89419
preconditions 89418
Bou@@ 89417
PAs 89416
Goma 89415
trauma 89414
ray 89413
undocumented 89412
ayan 89411
ENT@@ 89410
eco 89409
liz@@ 89408
righ@@ 89407
ender 89406
choosing 89405
contraven@@ 89404
pli@@ 89403
bin 89402
seas@@ 89401
7.3 89400
main@@ 89399
senti@@ 89398
sedi@@ 89397
guilt 89396
rulings 89395
Wi@@ 89394
alp@@ 89393
Chech@@ 89392
spokes@@ 89391
train@@ 89390
compensable 89389
battalion 89388
Naqurah 89387
Faculty 89386
cludes 89385
Arctic 89384
90@@ 89383
deserves 89382
depend@@ 89381
protections 89380
vig@@ 89379
hindered 89378
fam@@ 89377
recurrence 89376
aks 89375
formats 89374
antiretroviral 89373
etary 89372
motions 89371
300,000 89370
commander 89369
criminality 89368
observ@@ 89367
eminent 89366
á 89365
Hou@@ 89364
natal 89363
Asylum 89362
grantor 89361
provisionally 89360
reason@@ 89359
phen@@ 89358
ert 89357
Nationality 89356
1.9 89355
civilization 89354
unequivocal 89353
uncertain 89352
Tunis 89351
nes@@ 89350
punishments 89349
26,@@ 89348
invalid@@ 89347
ren 89346
Case 89345
8.5 89344
PI@@ 89343
Mari@@ 89342
administrators 89341
ration@@ 89340
Consultation 89339
Tur@@ 89338
cer@@ 89337
siz@@ 89336
domes@@ 89335
concep@@ 89334
bias 89333
proportionality 89332
Satellite 89331
assertion 89330
5.6 89329
gravely 89328
cell@@ 89327
practically 89326
affili@@ 89325
Sah@@ 89324
multifaceted 89323
premature 89322
fa 89321
retired 89320
ales 89319
Units 89318
soft 89317
750 89316
Part@@ 89315
conserv@@ 89314
Schedul@@ 89313
° 89312
pensionable 89311
minister 89310
CISG 89309
asser@@ 89308
accords 89307
Fa@@ 89306
awar@@ 89305
proximity 89304
regi@@ 89303
arily 89302
wrote 89301
prohibitions 89300
arena 89299
catalytic 89298
aker 89297
withdrawing 89296
treat@@ 89295
frank 89294
CFC 89293
awa 89292
forg@@ 89291
ERP 89290
classi@@ 89289
demobilized 89288
beg@@ 89287
ousness 89286
Includes 89285
Bulgarian 89284
respondent 89283
Pa@@ 89282
Stand@@ 89281
explanatory 89280
2.9 89279
lodge 89278
simplification 89277
populated 89276
discour@@ 89275
execute 89274
í@@ 89273
3.7 89272
Eng@@ 89271
tourist 89270
buy 89269
č@@ 89268
Nation@@ 89267
ombudsman 89266
hamper 89265
Anguilla 89264
assign 89263
Gro@@ 89262
transform@@ 89261
deriving 89260
urban@@ 89259
inspected 89258
refusing 89257
array 89256
Medium 89255
transmit@@ 89254
identi@@ 89253
TED 89252
prejudices 89251
Secretaries 89250
key@@ 89249
contemplated 89248
Delegation 89247
concise 89246
fil@@ 89245
ul 89244
278 89243
dismis@@ 89242
Television 89241
import@@ 89240
arest 89239
LES 89238
hospitality 89237
tability 89236
calm 89235
counts 89234
273 89233
ared 89232
Amen@@ 89231
catalyst 89230
underrepresented 89229
14th 89228
interpret 89227
Eigh@@ 89226
DF 89225
arri@@ 89224
theoretical 89223
silent 89222
deeper 89221
sou@@ 89220
soldier 89219
stream@@ 89218
arid 89217
UNAMIR 89216
kes 89215
exc@@ 89214
liquidity 89213
atures 89212
supreme 89211
sery 89210
EG@@ 89209
prioritization 89208
Crown 89207
combining 89206
Sao 89205
devast@@ 89204
stone 89203
boarding 89202
stored 89201
consum@@ 89200
295 89199
Restrictions 89198
30,@@ 89197
alert 89196
customer 89195
NH@@ 89194
Five 89193
ballistic 89192
teach 89191
Sin@@ 89190
remedi@@ 89189
educating 89188
log@@ 89187
alo@@ 89186
doz@@ 89185
que@@ 89184
ét@@ 89183
replenishment 89182
display 89181
dropout 89180
statelessness 89179
new@@ 89178
Brig@@ 89177
reposi@@ 89176
iles 89175
Rest@@ 89174
tual 89173
theatre 89172
shoul@@ 89171
Minority 89170
traum@@ 89169
nour@@ 89168
ads 89167
supplements 89166
zon@@ 89165
armoured 89164
PERMANENT 89163
restrain@@ 89162
dioxide 89161
Airport 89160
movable 89159
Cla@@ 89158
lian 89157
CSCE 89156
cantons 89155
contends 89154
music 89153
dec@@ 89152
rap@@ 89151
282 89150
custom 89149
299 89148
begins 89147
Cle@@ 89146
hospit@@ 89145
disadvantages 89144
concurred 89143
AD 89142
Tal@@ 89141
rang@@ 89140
routinely 89139
GA 89138
virtual 89137
incur@@ 89136
achiev@@ 89135
unilaterally 89134
1,8@@ 89133
indivisible 89132
thy 89131
Proce@@ 89130
ić 89129
accommod@@ 89128
Angolan 89127
Pan 89126
concession@@ 89125
aut 89124
1946 89123
someone 89122
UNDER 89121
Substantive 89120
destabilizing 89119
Tunisian 89118
avo@@ 89117
ff@@ 89116
WC 89115
pou@@ 89114
exchanging 89113
inser@@ 89112
1945 89111
investor 89110
counties 89109
Exploration 89108
bureaux 89107
escor@@ 89106
OTHER 89105
ji 89104
Improving 89103
testi@@ 89102
permissible 89101
CFCs 89100
nee 89099
sewage 89098
petrol 89097
ut 89096
thrust 89095
extensions 89094
whe@@ 89093
Africans 89092
discretionary 89091
doc@@ 89090
pricing 89089
deteriorated 89088
ares 89087
diffusion 89086
16th 89085
Mohammed 89084
load 89083
justifiable 89082
Term 89081
church 89080
precondition 89079
prefec@@ 89078
view@@ 89077
fertiliz@@ 89076
junior 89075
injur@@ 89074
Cy@@ 89073
Challenges 89072
intensification 89071
induced 89070
vigorously 89069
stockpile 89068
deploying 89067
faith@@ 89066
tery 89065
testify 89064
Renew@@ 89063
minimizing 89062
organisms 89061
Paul 89060
ema 89059
flew 89058
avenues 89057
bears 89056
signment 89055
borrowing 89054
repe@@ 89053
uti@@ 89052
reaches 89051
destroying 89050
pivotal 89049
pir@@ 89048
Berlin 89047
Instrument 89046
couple 89045
enter@@ 89044
video@@ 89043
Patri@@ 89042
illustrate 89041
Soci@@ 89040
tigh@@ 89039
Caicos 89038
Long 89037
logy 89036
distress 89035
Continu@@ 89034
prevailed 89033
duc@@ 89032
L.4 89031
Gra@@ 89030
MSP 89029
summ@@ 89028
wisdom 89027
45@@ 89026
comfor@@ 89025
brut@@ 89024
ION 89023
Ve@@ 89022
Fs 89021
exactly 89020
Vocational 89019
WITH 89018
1962 89017
TNCs 89016
scheduling 89015
Psychotropic 89014
5.4 89013
reminder 89012
temperature 89011
IAL 89010
1954 89009
CN 89008
Jews 89007
sexuality 89006
Kan@@ 89005
15th 89004
articul@@ 89003
sacrific@@ 89002
27.@@ 89001
ployment 89000
radical 88999
kh@@ 88998
journalist 88997
minimi@@ 88996
Revised 88995
controversial 88994
UNMO@@ 88993
alleges 88992
Mental 88991
TRI@@ 88990
nul@@ 88989
burg 88988
cart@@ 88987
specifying 88986
lubricants 88985
meteor@@ 88984
inscribed 88983
massacre 88982
Baltic 88981
restim@@ 88980
rebuild 88979
professionalism 88978
R. 88977
responds 88976
influx 88975
274 88974
protection@@ 88973
preserved 88972
Dam@@ 88971
Nov@@ 88970
Damascus 88969
fur@@ 88968
Ninth 88967
UNOSOM 88966
backed 88965
condolences 88964
whilst 88963
wedlock 88962
examines 88961
Shelf 88960
contraception 88959
predomin@@ 88958
motiv@@ 88957
ignore 88956
hostility 88955
Firearms 88954
severity 88953
publicize 88952
mism 88951
13th 88950
quo 88949
attractive 88948
liter@@ 88947
intentionally 88946
stipulate 88945
rice 88944
Primary 88943
litres 88942
dering 88941
persisted 88940
xi@@ 88939
attracted 88938
unding 88937
bribery 88936
Opinion 88935
ku@@ 88934
rex@@ 88933
ase@@ 88932
ounced 88931
ageous 88930
strongest 88929
interact 88928
Den@@ 88927
tine 88926
experimental 88925
deep@@ 88924
eu 88923
motor 88922
purchases 88921
interpreter 88920
cing 88919
55@@ 88918
thou@@ 88917
cultiv@@ 88916
XVIII 88915
enlargement 88914
impressive 88913
logistic 88912
alter 88911
Towards 88910
survi@@ 88909
fossil 88908
intervals 88907
Handbook 88906
brutal 88905
Bro@@ 88904
Algiers 88903
Arrangements 88902
courage 88901
England 88900
struction 88899
chamber 88898
GSP 88897
Neighbouring 88896
impro@@ 88895
Mutual 88894
distribu@@ 88893
disco@@ 88892
SGB 88891
Kir@@ 88890
favourably 88889
Amman 88888
revitalize 88887
Officials 88886
officio 88885
shar@@ 88884
Performance 88883
Camp 88882
SAICM 88881
Index 88880
carriage 88879
pesticides 88878
identities 88877
complications 88876
Ensuring 88875
hurric@@ 88874
solemn 88873
seabed 88872
Lord 88871
UNSOA 88870
warfare 88869
euro 88868
291 88867
undermines 88866
repres@@ 88865
SNA 88864
photographs 88863
warming 88862
trips 88861
window 88860
CAS 88859
While 88858
avoidance 88857
sol@@ 88856
Mas@@ 88855
refu@@ 88854
antly 88853
invalid 88852
formul@@ 88851
unrest 88850
Host 88849
Establi@@ 88848
Turk@@ 88847
Helena 88846
prefer 88845
reversed 88844
1,7@@ 88843
homeland 88842
dig@@ 88841
clinical 88840
brokering 88839
emigr@@ 88838
Childhood 88837
SIDS 88836
fugi@@ 88835
obligatory 88834
ogical 88833
Request 88832
ratione 88831
roughly 88830
∙ 88829
XIX 88828
constraint 88827
ninety 88826
deterr@@ 88825
ascertained 88824
Observers 88823
Assi@@ 88822
POPS 88821
privilege 88820
employ@@ 88819
inal 88818
promin@@ 88817
animals 88816
8.3 88815
UNISPACE 88814
BDE 88813
concer@@ 88812
bombing 88811
fellowship 88810
assassination 88809
desirability 88808
CERs 88807
derive 88806
78@@ 88805
dre@@ 88804
shaping 88803
advisable 88802
biggest 88801
Persistent 88800
271 88799
Responsibility 88798
Transition 88797
lege 88796
Growth 88795
Land@@ 88794
apart@@ 88793
sit 88792
voiced 88791
criminalizing 88790
Consider 88789
crew 88788
Eleventh 88787
Gener@@ 88786
handic@@ 88785
cataly@@ 88784
sud@@ 88783
sh 88782
1955 88781
hood 88780
17th 88779
punishing 88778
counted 88777
3.8 88776
noon 88775
earn 88774
Hom@@ 88773
miles 88772
KFOR 88771
vigorous 88770
64@@ 88769
imag@@ 88768
Tog@@ 88767
rown 88766
hoods 88765
expiring 88764
18th 88763
judged 88762
stimulating 88761
trip 88760
unrestricted 88759
radi@@ 88758
worsening 88757
Municipal 88756
kidn@@ 88755
1,6@@ 88754
7.2 88753
operator 88752
enumerated 88751
sensitize 88750
producer 88749
bet@@ 88748
compensated 88747
criticized 88746
prosperous 88745
Economics 88744
shes 88743
1701 88742
ini 88741
Introduction 88740
authenti@@ 88739
SOCIAL 88738
fears 88737
seeds 88736
milk 88735
Learning 88734
seeing 88733
presid@@ 88732
aqui@@ 88731
asserts 88730
CR 88729
commencing 88728
remin@@ 88727
LEG 88726
unjust 88725
comment@@ 88724
firing 88723
complained 88722
Pollutants 88721
Institution 88720
anal@@ 88719
proclamation 88718
sing@@ 88717
extraction 88716
cy@@ 88715
enlarg@@ 88714
diversified 88713
HIPC 88712
entrepreneurial 88711
Travel@@ 88710
audiences 88709
rockets 88708
distributing 88707
aggreg@@ 88706
ayed 88705
forcing 88704
passenger 88703
Inte@@ 88702
innocence 88701
backstopping 88700
conform@@ 88699
Mos@@ 88698
tenant 88697
DPI 88696
unlawfully 88695
Unlawful 88694
universalization 88693
endangered 88692
kin@@ 88691
abstr@@ 88690
outsourcing 88689
Majesty 88688
abund@@ 88687
Preventive 88686
err@@ 88685
diagno@@ 88684
yan@@ 88683
aids 88682
20th 88681
depreci@@ 88680
www.un@@ 88679
diagnostic 88678
pool@@ 88677
ationally 88676
aria 88675
opti@@ 88674
aying 88673
FC 88672
safeguarded 88671
crossed 88670
fle@@ 88669
blind 88668
prospec@@ 88667
profit@@ 88666
addiction 88665
Concluding 88664
lar@@ 88663
ules 88662
chiefs 88661
domici@@ 88660
contraceptives 88659
relying 88658
upgraded 88657
democracies 88656
ote 88655
tender 88654
FDLR 88653
201@@ 88652
az 88651
eved 88650
oppose 88649
Commodities 88648
dep@@ 88647
pointing 88646
Commun@@ 88645
anonym@@ 88644
attorney 88643
registering 88642
eviction 88641
trainees 88640
Bet@@ 88639
lethal 88638
usting 88637
warplanes 88636
adoptions 88635
Lat@@ 88634
youths 88633
muse@@ 88632
ican 88631
diminished 88630
eve 88629
met@@ 88628
victimization 88627
hire 88626
Deposi@@ 88625
origins 88624
ICA 88623
logging 88622
Khan 88621
adhered 88620
1,9@@ 88619
aa 88618
ranges 88617
titude 88616
dire 88615
Nicosia 88614
wit@@ 88613
builds 88612
bienniums 88611
reforestation 88610
drawdown 88609
L.7 88608
asi 88607
fered 88606
ility 88605
oth@@ 88604
Prosecu@@ 88603
Kal@@ 88602
damaging 88601
RS 88600
ida 88599
ises 88598
Infrastructure 88597
quoted 88596
Club 88595
gation 88594
compete 88593
openly 88592
unfounded 88591
etc. 88590
Employ@@ 88589
Telecommunication 88588
asts 88587
jour@@ 88586
360 88585
typical 88584
entrance 88583
rejects 88582
intimid@@ 88581
UNAVEM 88580
alter@@ 88579
Wal@@ 88578
Societies 88577
than@@ 88576
bans 88575
mos@@ 88574
iding 88573
dependants 88572
belongs 88571
overseeing 88570
rating 88569
demoli@@ 88568
advis@@ 88567
ok@@ 88566
corrigendum 88565
mg 88564
defe@@ 88563
Nigerian 88562
fifteen 88561
develops 88560
techni@@ 88559
Pu@@ 88558
distur@@ 88557
recruits 88556
chers 88555
99@@ 88554
unci@@ 88553
PFOS 88552
deficits 88551
deployments 88550
Interpol 88549
7.1 88548
tribes 88547
Chairpersons 88546
subregions 88545
disbursement 88544
302 88543
Ds 88542
ISU 88541
poorly 88540
forefront 88539
stones 88538
09@@ 88537
polling 88536
unutilized 88535
cle@@ 88534
marginal 88533
Kiribati 88532
proportional 88531
ll 88530
Lim@@ 88529
narrow@@ 88528
cher 88527
anced 88526
sanctioned 88525
disposed 88524
Khali@@ 88523
diversify 88522
circul@@ 88521
vaccines 88520
fire@@ 88519
GIS 88518
endang@@ 88517
aer@@ 88516
Multi 88515
REPRESENTA@@ 88514
selectivity 88513
bal 88512
potenti@@ 88511
unhindered 88510
widows 88509
rehabilitate 88508
io 88507
renov@@ 88506
differ@@ 88505
exceptionally 88504
computerized 88503
smugg@@ 88502
ben@@ 88501
stigmatization 88500
contradiction 88499
Lima 88498
ained 88497
troop- 88496
understandings 88495
ply 88494
oul 88493
Aruba 88492
rafts 88491
Au@@ 88490
incoming 88489
reluctant 88488
79@@ 88487
moves 88486
thir@@ 88485
recession 88484
Boli@@ 88483
indicted 88482
Dar@@ 88481
EF@@ 88480
Collec@@ 88479
nonproliferation 88478
19th 88477
corresponds 88476
rostrum 88475
ials 88474
treating 88473
suit@@ 88472
MC 88471
reveals 88470
overlapping 88469
scarcity 88468
CESCR 88467
concession 88466
memorandums 88465
pedag@@ 88464
Temporary 88463
Fif@@ 88462
addic@@ 88461
Proposed 88460
epidemi@@ 88459
poppy 88458
brothers 88457
prenatal 88456
impasse 88455
Equipment 88454
Horn 88453
endeav@@ 88452
sampl@@ 88451
Disengagement 88450
ype 88449
eye 88448
pal@@ 88447
mist@@ 88446
summarizes 88445
nes 88444
Uzbek 88443
dat@@ 88442
hope@@ 88441
Vision 88440
cogniz@@ 88439
waiver 88438
atmospheric 88437
ose 88436
discus@@ 88435
null 88434
expires 88433
precursor 88432
ther 88431
Investigate 88430
CN.15 88429
ral 88428
puts 88427
unsatisfactory 88426
Cri@@ 88425
envisage 88424
sizing 88423
Explo@@ 88422
eighteen 88421
annul@@ 88420
penditure 88419
L.6 88418
nomin@@ 88417
behavioural 88416
330 88415
illnesses 88414
cant@@ 88413
investigator 88412
DD 88411
ponents 88410
recognised 88409
ISAF 88408
fifty@@ 88407
V. 88406
default 88405
sorties 88404
organizes 88403
prone 88402
cular 88401
hen@@ 88400
associates 88399
dh@@ 88398
alis@@ 88397
critici@@ 88396
ever@@ 88395
landscape 88394
extradited 88393
mac@@ 88392
priv@@ 88391
consuming 88390
conflicting 88389
probation 88388
boat 88387
Opening 88386
301 88385
addling 88384
cum@@ 88383
allies 88382
fai@@ 88381
recurring 88380
morals 88379
retaliation 88378
ennial 88377
Fol@@ 88376
maximizing 88375
negotiable 88374
Collective 88373
carriers 88372
Maj@@ 88371
298 88370
emi@@ 88369
practise 88368
IV.@@ 88367
AH@@ 88366
poli@@ 88365
proportionate 88364
lici@@ 88363
discharging 88362
Paulo 88361
Caucasus 88360
simplify 88359
poly@@ 88358
outlook 88357
treas@@ 88356
mies 88355
standpoint 88354
ECONOMIC 88353
kill 88352
lever@@ 88351
sin 88350
L.8 88349
mean@@ 88348
Geographical 88347
AB 88346
wholly 88345
petitioners 88344
alleviating 88343
refined 88342
Award 88341
unsafe 88340
Poor 88339
87@@ 88338
dou@@ 88337
onian 88336
wind 88335
29.@@ 88334
curtail@@ 88333
accept@@ 88332
inhumane 88331
elev@@ 88330
Prohibitions 88329
abusive 88328
III.@@ 88327
DES@@ 88326
POPs 88325
divor@@ 88324
characteristic 88323
phasing 88322
disbursements 88321
duction 88320
polymetallic 88319
vide@@ 88318
adoptive 88317
303 88316
sickness 88315
lectu@@ 88314
labelling 88313
expire 88312
citing 88311
sister 88310
hur@@ 88309
sinks 88308
percentages 88307
Wor@@ 88306
Innov@@ 88305
onto 88304
mined 88303
cription 88302
Ev@@ 88301
relies 88300
publi@@ 88299
abandon 88298
Paragraph 88297
veness 88296
arial 88295
absorbed 88294
Probl@@ 88293
graded 88292
postpone 88291
nominate 88290
resignation 88289
Biodiversity 88288
them@@ 88287
Opportunity 88286
invoices 88285
tow@@ 88284
caught 88283
ho 88282
interior 88281
paternity 88280
Pos@@ 88279
warned 88278
edit@@ 88277
Hi@@ 88276
NAM 88275
L.5 88274
PROGRAMME 88273
expropri@@ 88272
enjoying 88271
quali@@ 88270
000,000 88269
appearing 88268
tier 88267
torial 88266
saf@@ 88265
variables 88264
extor@@ 88263
unreasonable 88262
ICTs 88261
celebrate 88260
dispers@@ 88259
diverg@@ 88258
loride 88257
Ah@@ 88256
finished 88255
appro@@ 88254
shor@@ 88253
294 88252
contr@@ 88251
gendarmerie 88250
Antilles 88249
genuinely 88248
forfe@@ 88247
Facilitation 88246
matic 88245
ski 88244
Ibid 88243
shortfalls 88242
raped 88241
Juba 88240
ICTY 88239
revoc@@ 88238
additions 88237
attachment 88236
WOR@@ 88235
40,@@ 88234
assert 88233
Projects 88232
fellowships 88231
intercountry 88230
sic@@ 88229
contacted 88228
oti@@ 88227
alleging 88226
itude 88225
depletion 88224
nominal 88223
bridging 88222
Sha 88221
absorb 88220
evolve 88219
Ali@@ 88218
LE 88217
P. 88216
Muse@@ 88215
mentoring 88214
symposi@@ 88213
share@@ 88212
concentr@@ 88211
reminds 88210
verifying 88209
Da@@ 88208
losing 88207
band@@ 88206
accoun@@ 88205
boy 88204
continually 88203
Have 88202
Counsel@@ 88201
cab@@ 88200
Lis@@ 88199
entren@@ 88198
belonged 88197
olds 88196
enters 88195
cia 88194
CN.3 88193
centuries 88192
Mur@@ 88191
vo 88190
poorer 88189
illa 88188
doub@@ 88187
310 88186
wind@@ 88185
Hun@@ 88184
knew 88183
question@@ 88182
equival@@ 88181
fishery 88180
compiling 88179
produces 88178
perv@@ 88177
Implementing 88176
Havana 88175
earth 88174
Those 88173
radar 88172
swit@@ 88171
ogr@@ 88170
consensual 88169
293 88168
SI 88167
Orig@@ 88166
drome 88165
320 88164
secrecy 88163
gency 88162
authoritative 88161
ards 88160
sharply 88159
e.@@ 88158
Ros@@ 88157
UNMOVIC 88156
Tome 88155
tar@@ 88154
bil@@ 88153
inet 88152
deterrent 88151
asy 88150
12,000 88149
mod@@ 88148
Guidance 88147
Ugandan 88146
Notes 88145
mand@@ 88144
Micro@@ 88143
tely 88142
Hassan 88141
sun@@ 88140
Contribu@@ 88139
groundwater 88138
ext 88137
scholars 88136
bomb@@ 88135
wat@@ 88134
forcible 88133
Forestry 88132
PM 88131
defen@@ 88130
erup@@ 88129
Civilizations 88128
atu@@ 88127
USA 88126
ä@@ 88125
prescri@@ 88124
tec@@ 88123
ashed 88122
aggress@@ 88121
Movements 88120
verdict 88119
therapeutic 88118
retri@@ 88117
viewing 88116
Wastes 88115
repatri@@ 88114
stores 88113
Burundian 88112
dele@@ 88111
Extradition 88110
naturalization 88109
Tlatelolco 88108
impa@@ 88107
297 88106
cluding 88105
KO 88104
interlocutors 88103
fellow 88102
chose 88101
itted 88100
hemis@@ 88099
401 88098
oms 88097
improper 88096
Effec@@ 88095
dispatched 88094
6.7 88093
discharged 88092
everyday 88091
autical 88090
ORGANIZ@@ 88089
uma 88088
leges 88087
PER@@ 88086
Nacional 88085
films 88084
Acc@@ 88083
chances 88082
wise 88081
toxicity 88080
POL@@ 88079
sac@@ 88078
Export 88077
unjustified 88076
deposi@@ 88075
oa 88074
exempted 88073
devising 88072
MATTERS 88071
Adv@@ 88070
3,500 88069
Antarctic 88068
pression 88067
Legislation 88066
.. 88065
ardo 88064
oph@@ 88063
Fellowship 88062
queries 88061
weap@@ 88060
forbidden 88059
L.9 88058
DAC 88057
Travel 88056
cripts 88055
inconsistencies 88054
4.9 88053
wait 88052
sid@@ 88051
stor@@ 88050
6.6 88049
but@@ 88048
Lab@@ 88047
Displaced 88046
road@@ 88045
channelled 88044
plaintiff 88043
operationalization 88042
hub 88041
Nutrition 88040
BER 88039
mes 88038
trad@@ 88037
censuses 88036
bond 88035
R.@@ 88034
gers 88033
Länder 88032
CHILD 88031
brig@@ 88030
unusual 88029
disbursed 88028
ç@@ 88027
versus 88026
Experiencing 88025
supplying 88024
landmark 88023
enses 88022
critically 88021
mark@@ 88020
Principe 88019
authoris@@ 88018
Pay@@ 88017
grand@@ 88016
unconstitutional 88015
pha@@ 88014
ball 88013
alliance 88012
Hotel 88011
inspir@@ 88010
levi@@ 88009
dressing 88008
immense 88007
fraudulent 88006
cou@@ 88005
argu@@ 88004
crossings 88003
Leg@@ 88002
mainstreamed 88001
proscri@@ 88000
! 87999
CH 87998
Entebbe 87997
conclu@@ 87996
Accoun@@ 87995
goodwill 87994
toll 87993
outgoing 87992
trees 87991
biased 87990
iced 87989
6.4 87988
infringed 87987
dwellers 87986
optimize 87985
MS@@ 87984
system@@ 87983
drafts 87982
shifts 87981
Cook 87980
PIC 87979
unds 87978
Secondary 87977
sugar 87976
porters 87975
unidentified 87974
rez 87973
prioritiz@@ 87972
BA 87971
construed 87970
approaching 87969
Mat@@ 87968
IB@@ 87967
Preventing 87966
commemorate 87965
9.5 87964
integr@@ 87963
TER@@ 87962
ell 87961
OCHA 87960
lump 87959
Net@@ 87958
dispose 87957
Comment 87956
ECOSOC 87955
arten 87954
negligence 87953
ologically 87952
X. 87951
motives 87950
Sum@@ 87949
odi@@ 87948
sincerely 87947
hs 87946
calculations 87945
aled 87944
Wall 87943
fore@@ 87942
ion 87941
displayed 87940
deem 87939
subordin@@ 87938
proportions 87937
5.7 87936
Albanians 87935
Scotland 87934
forge 87933
warmly 87932
fed 87931
85@@ 87930
Delivering 87929
custom@@ 87928
stationary 87927
Street 87926
electronically 87925
Encour@@ 87924
Municip@@ 87923
warm 87922
loy@@ 87921
dwellings 87920
beds 87919
10.30 87918
sho@@ 87917
bridges 87916
trucks 87915
OPCW 87914
programmed 87913
fortun@@ 87912
hardware 87911
prepares 87910
institu@@ 87909
writ@@ 87908
supervising 87907
GB@@ 87906
communicating 87905
passive 87904
dus 87903
IAS@@ 87902
Metohija 87901
defences 87900
deni@@ 87899
infring@@ 87898
babies 87897
Nagorny 87896
tis 87895
Injur@@ 87894
ova 87893
reciprocal 87892
newborn 87891
sk 87890
ordering 87889
Seventh 87888
Inform@@ 87887
Ari@@ 87886
pra@@ 87885
exhib@@ 87884
Mediation 87883
bidding 87882
Shar@@ 87881
Mus@@ 87880
fore 87879
shifting 87878
expen@@ 87877
tends 87876
isons 87875
311 87874
weakness 87873
intensifying 87872
Honourable 87871
anga 87870
tomorrow 87869
meals 87868
ović 87867
engine 87866
Prostitution 87865
Particip@@ 87864
profiling 87863
vici@@ 87862
tak@@ 87861
blat@@ 87860
escap@@ 87859
Dominica 87858
gues 87857
stabilize 87856
ward@@ 87855
margins 87854
las@@ 87853
consci@@ 87852
differently 87851
Enhancing 87850
abolishment 87849
Meteorological 87848
Mak@@ 87847
gly 87846
waste@@ 87845
auth@@ 87844
refine 87843
manufacturers 87842
It@@ 87841
baselines 87840
truck 87839
contempt 87838
Stud@@ 87837
experim@@ 87836
ago@@ 87835
88@@ 87834
impairment 87833
juncture 87832
construct 87831
exist@@ 87830
Dise@@ 87829
arching 87828
307 87827
Single 87826
atomic 87825
309 87824
directing 87823
Ouagadougou 87822
stering 87821
merger 87820
burning 87819
admit 87818
gan 87817
dlife 87816
homicide 87815
editorial 87814
Cooperative 87813
needy 87812
insist@@ 87811
Helsinki 87810
gy@@ 87809
vaccine 87808
pros@@ 87807
child@@ 87806
Names 87805
Balkans 87804
vi 87803
gg@@ 87802
yielded 87801
David 87800
Relationship 87799
repealed 87798
justices 87797
Arts 87796
positioning 87795
Semitism 87794
philosophy 87793
overri@@ 87792
Set 87791
ane@@ 87790
Kitts 87789
assumes 87788
expan@@ 87787
geospatial 87786
Sund@@ 87785
Colonel 87784
gang 87783
UNISFA 87782
turnover 87781
tours 87780
stan@@ 87779
ambiguous 87778
308 87777
stem 87776
grouped 87775
Organiz@@ 87774
Peter 87773
endemic 87772
START 87771
policemen 87770
Forty 87769
Dr@@ 87768
TIONS 87767
yn@@ 87766
fid@@ 87765
counterpart 87764
sort 87763
argue 87762
trans 87761
crude 87760
gue 87759
SITU@@ 87758
Harmonized 87757
intersectoral 87756
ET 87755
AC.26 87754
quot@@ 87753
logic 87752
Kampala 87751
arrang@@ 87750
lig@@ 87749
Venez@@ 87748
Sab@@ 87747
plit 87746
yiel@@ 87745
Bon@@ 87744
tedness 87743
Pristina 87742
murders 87741
prerequisites 87740
ambul@@ 87739
Indivi@@ 87738
layer 87737
tox@@ 87736
reciprocity 87735
checked 87734
descriptions 87733
Nevis 87732
revert 87731
jur@@ 87730
abbrevi@@ 87729
kan 87728
sist@@ 87727
Orthodox 87726
aki 87725
femin@@ 87724
striking 87723
prudent 87722
pornographic 87721
dy@@ 87720
aspir@@ 87719
sul@@ 87718
lasted 87717
diminish 87716
racially 87715
entation 87714
feeling 87713
ita 87712
disagreement 87711
trusts 87710
daughter 87709
IGAD 87708
restrial 87707
cooperates 87706
sem@@ 87705
interdisciplinary 87704
furnished 87703
OL 87702
piece 87701
SPEC@@ 87700
altered 87699
Rw@@ 87698
murdered 87697
paral@@ 87696
complies 87695
impover@@ 87694
stepped 87693
98@@ 87692
delicate 87691
Tech@@ 87690
modelling 87689
Dangerous 87688
defer@@ 87687
í 87686
ham 87685
Invest@@ 87684
oration 87683
yles 87682
ress 87681
ush 87680
bes 87679
resor@@ 87678
Negotiating 87677
Fem@@ 87676
Affecting 87675
CONFER@@ 87674
liness 87673
Improvement 87672
Eight 87671
liaise 87670
reduces 87669
Minors 87668
torate 87667
2,0@@ 87666
FGM 87665
chairman 87664
rol 87663
50,@@ 87662
kno@@ 87661
yo 87660
stockpiling 87659
Involuntary 87658
Knowledge 87657
Vol 87656
Ecuadorian 87655
periodic@@ 87654
PF@@ 87653
responsiveness 87652
holi@@ 87651
elu@@ 87650
L.10 87649
306 87648
XXIX 87647
gui@@ 87646
FP 87645
Ed@@ 87644
Quality 87643
alteration 87642
FO@@ 87641
correspond@@ 87640
Three 87639
forec@@ 87638
fundamentally 87637
Yemeni 87636
Bil@@ 87635
fabric 87634
mortar 87633
criptions 87632
pron@@ 87631
exhibition 87630
550 87629
Us 87628
oppression 87627
artificial 87626
specialization 87625
profession@@ 87624
mentioning 87623
ECOMOG 87622
Lithuanian 87621
ords 87620
opt 87619
says 87618
973 87617
CN.7 87616
frontier 87615
oma 87614
exo@@ 87613
Bir@@ 87612
N. 87611
ventures 87610
ffee 87609
dish 87608
localities 87607
Living 87606
inclu@@ 87605
ural 87604
Fern@@ 87603
skin 87602
env@@ 87601
parking 87600
ARY 87599
Minsk 87598
tre 87597
creativity 87596
liberties 87595
infl@@ 87594
shad@@ 87593
atings 87592
LO 87591
WP 87590
fled@@ 87589
embed@@ 87588
Initi@@ 87587
Rob@@ 87586
Priv@@ 87585
Indicators 87584
editing 87583
ium 87582
acade@@ 87581
fish@@ 87580
Broadcasting 87579
CP.7 87578
reluctance 87577
autumn 87576
tori@@ 87575
exha@@ 87574
380 87573
Columbia 87572
917 87571
sanc@@ 87570
concessional 87569
ancements 87568
V.@@ 87567
estr@@ 87566
nesses 87565
optimum 87564
Complaints 87563
Codification 87562
prostitutes 87561
derogation 87560
Icelandic 87559
Carlos 87558
borrow@@ 87557
Bos@@ 87556
UNSMI@@ 87555
monopoly 87554
handicapped 87553
itarian 87552
fires 87551
Pitcairn 87550
SPIDER 87549
gies 87548
2018 87547
machines 87546
acceler@@ 87545
uniformed 87544
ts@@ 87543
County 87542
measurements 87541
sitting 87540
L.11 87539
inevitable 87538
remuner@@ 87537
altogether 87536
ega 87535
Best 87534
manifestation 87533
BC 87532
ICTR 87531
swift 87530
9.3 87529
ffer@@ 87528
Form@@ 87527
charitable 87526
paradigm 87525
MU@@ 87524
leaflets 87523
trigger 87522
festiv@@ 87521
chairing 87520
CMP.1 87519
ideology 87518
ão 87517
tackled 87516
entries 87515
superiority 87514
forestation 87513
Monrovia 87512
RECOMMENDATIONS 87511
trusted 87510
inous 87509
liberal 87508
corrobor@@ 87507
simpli@@ 87506
appropriateness 87505
diarrho@@ 87504
transforming 87503
obligated 87502
memor@@ 87501
swif@@ 87500
New@@ 87499
possessing 87498
primacy 87497
ky 87496
tireless 87495
Ow@@ 87494
22nd 87493
Claimant 87492
candidat@@ 87491
Deci@@ 87490
With@@ 87489
expel 87488
IR 87487
IU@@ 87486
Rad@@ 87485
Chilean 87484
smoking 87483
fat@@ 87482
husbands 87481
alive 87480
assimil@@ 87479
ona 87478
DIS@@ 87477
hierarchy 87476
blan@@ 87475
Ontario 87474
Reproductive 87473
illiterate 87472
RESOLU@@ 87471
ignor@@ 87470
Malian 87469
manifested 87468
yer 87467
flown 87466
encounter 87465
applau@@ 87464
NI@@ 87463
ston 87462
cite 87461
UM 87460
ym@@ 87459
Facilities 87458
lla 87457
God 87456
Luis 87455
insisted 87454
substantiate 87453
sums 87452
basi@@ 87451
deprive 87450
E. 87449
312 87448
democratically 87447
fragment@@ 87446
food@@ 87445
illustrates 87444
farm@@ 87443
vague 87442
Immun@@ 87441
raft 87440
6.8 87439
lat@@ 87438
319 87437
accompany 87436
dry@@ 87435
underdevelopment 87434
E4 87433
apping 87432
dest 87431
ogen@@ 87430
Far@@ 87429
08@@ 87428
impacted 87427
distingu@@ 87426
adv@@ 87425
Older 87424
Chadian 87423
discrimin@@ 87422
UNOMIL 87421
induction 87420
Sir@@ 87419
ml 87418
diverted 87417
gren@@ 87416
elap@@ 87415
trainings 87414
ania 87413
secretary 87412
318 87411
etr@@ 87410
record@@ 87409
react 87408
posting 87407
confron@@ 87406
25th 87405
balancing 87404
emed 87403
underground 87402
canc@@ 87401
incite 87400
menting 87399
Deputies 87398
redund@@ 87397
5.8 87396
looting 87395
Dissemin@@ 87394
testimonies 87393
itary 87392
Friend@@ 87391
Shabaab 87390
incumb@@ 87389
broad@@ 87388
disorder 87387
boats 87386
L.15 87385
opi@@ 87384
constitutionality 87383
onwards 87382
wi 87381
1244 87380
intra@@ 87379
Prosecutions 87378
WA 87377
biomass 87376
Encourage 87375
impres@@ 87374
clinic 87373
evidentiary 87372
afflic@@ 87371
Where 87370
omissions 87369
downward 87368
reimbursements 87367
interpreting 87366
decreases 87365
atus 87364
Maz@@ 87363
anes 87362
harb@@ 87361
sympathy 87360
Course 87359
pping 87358
immunodeficiency 87357
Juan 87356
fostered 87355
Consultations 87354
nition 87353
convert 87352
ADOP@@ 87351
Plans 87350
fix@@ 87349
surveyed 87348
EF 87347
Anti@@ 87346
lawfulness 87345
steel 87344
wear 87343
Sand@@ 87342
Spo@@ 87341
inc@@ 87340
acquitted 87339
symp@@ 87338
GA@@ 87337
DH 87336
Particularly 87335
forecasting 87334
restorative 87333
END@@ 87332
Which 87331
Oil 87330
amin 87329
schoolchildren 87328
human@@ 87327
excuse 87326
delinquency 87325
zi@@ 87324
neonatal 87323
Rs 87322
manifestly 87321
van@@ 87320
ming 87319
umb@@ 87318
Principality 87317
construc@@ 87316
Beings 87315
sia 87314
atric 87313
M.@@ 87312
Associated 87311
1,800 87310
push 87309
heating 87308
capaci@@ 87307
MYFF 87306
catering 87305
shooting 87304
Ahmad 87303
informative 87302
radiological 87301
ie 87300
Demobilization 87299
licensed 87298
broadened 87297
automated 87296
cotton 87295
translating 87294
Identi@@ 87293
evalu@@ 87292
Annex@@ 87291
dor 87290
Bud@@ 87289
globalized 87288
ayer 87287
ses@@ 87286
praised 87285
inhal@@ 87284
Dou@@ 87283
sulph@@ 87282
Dom@@ 87281
Guin@@ 87280
reactions 87279
apportioned 87278
life@@ 87277
Respon@@ 87276
São 87275
coinci@@ 87274
morality 87273
1,600 87272
demolition 87271
frag@@ 87270
Agreed 87269
Publications 87268
variances 87267
addenda 87266
propag@@ 87265
SD@@ 87264
photogr@@ 87263
23rd 87262
medium- 87261
ffs 87260
SPLA 87259
guns 87258
Jammu 87257
propri@@ 87256
outdated 87255
Phase 87254
Alma 87253
revol@@ 87252
Nature 87251
representations 87250
torneys 87249
postponement 87248
spon@@ 87247
Fran@@ 87246
requisi@@ 87245
Bodies 87244
cross@@ 87243
egr@@ 87242
Migr@@ 87241
enly 87240
checkpoint 87239
maltreatment 87238
humans 87237
lows 87236
nutri@@ 87235
Radi@@ 87234
bread@@ 87233
depleted 87232
helpl@@ 87231
ss 87230
coven@@ 87229
Basi@@ 87228
rationalize 87227
s. 87226
effic@@ 87225
VA 87224
measles 87223
3.9 87222
polygamy 87221
Immunities 87220
Extraordinary 87219
aspora 87218
315 87217
retirees 87216
contributory 87215
MAN@@ 87214
mistreatment 87213
89@@ 87212
Disposal 87211
Bujumbura 87210
mann 87209
Sign@@ 87208
ue@@ 87207
detain 87206
pror@@ 87205
gangs 87204
telecommunication 87203
debated 87202
2030 87201
46th 87200
L.16 87199
embark 87198
empir@@ 87197
resorting 87196
export@@ 87195
L.18 87194
stan 87193
Material 87192
reimbursed 87191
verbal 87190
Jan@@ 87189
checklist 87188
Pakist@@ 87187
Bay 87186
procured 87185
comparability 87184
7.6 87183
Manager 87182
Methods 87181
iled 87180
servant 87179
accomplic@@ 87178
judic@@ 87177
tra 87176
IONAL 87175
ods 87174
Times 87173
COVEN@@ 87172
TT 87171
Ceasefire 87170
bab@@ 87169
Mul@@ 87168
Contin@@ 87167
1874 87166
Bre@@ 87165
Insolvency 87164
sistance 87163
appren@@ 87162
weakened 87161
organis@@ 87160
tiers 87159
Excessively 87158
anxi@@ 87157
rain@@ 87156
estos 87155
siege 87154
tolerated 87153
technicians 87152
inhabited 87151
UNIKOM 87150
offs 87149
tho@@ 87148
toral 87147
GAT@@ 87146
doms 87145
mine@@ 87144
Pollu@@ 87143
cens@@ 87142
oun 87141
terminal 87140
endeavoured 87139
Jurists 87138
ather 87137
SED 87136
hypo@@ 87135
retraining 87134
60,@@ 87133
Safeguards 87132
unregulated 87131
scrupul@@ 87130
POPR@@ 87129
assassin@@ 87128
Limits 87127
costing 87126
grievances 87125
Cass@@ 87124
Comple@@ 87123
# 87122
Ituri 87121
possessed 87120
lawfully 87119
architec@@ 87118
conditionally 87117
ARD 87116
seed 87115
demonstrators 87114
introduc@@ 87113
Eradicate 87112
Joseph 87111
ancestral 87110
past@@ 87109
Consum@@ 87108
keen 87107
tour@@ 87106
Republics 87105
Law@@ 87104
egal@@ 87103
pupil 87102
earn@@ 87101
hotel 87100
restruc@@ 87099
4.30 87098
gun 87097
Croats 87096
broadest 87095
dimin@@ 87094
graphic 87093
97@@ 87092
Rev.2 87091
remember 87090
Toxin 87089
congratul@@ 87088
CCA 87087
ght@@ 87086
rail 87085
Reco@@ 87084
Belaru@@ 87083
strife 87082
insist 87081
coping 87080
SG 87079
convicts 87078
casu@@ 87077
Tan@@ 87076
eship 87075
governorate 87074
Islan@@ 87073
modernize 87072
eyes 87071
340 87070
Sources 87069
amparo 87068
worrying 87067
Supporting 87066
thre@@ 87065
essively 87064
container 87063
Girls 87062
UNTAC 87061
battle 87060
inasmuch 87059
annot@@ 87058
313 87057
Accords 87056
Colonialism 87055
REPOR@@ 87054
Francophonie 87053
Ful@@ 87052
Hussein 87051
IH@@ 87050
separati@@ 87049
Strait 87048
experiments 87047
liqui@@ 87046
evening 87045
ange 87044
bold 87043
descendants 87042
ā@@ 87041
rements 87040
bombar@@ 87039
numbered 87038
&apos;t 87037
Lawyers 87036
asb@@ 87035
inated 87034
strides 87033
backdrop 87032
Fon@@ 87031
Bor@@ 87030
ville 87029
ICAL 87028
1959 87027
gniz@@ 87026
time@@ 87025
discount 87024
326 87023
Bedou@@ 87022
doctrines 87021
520 87020
CAR@@ 87019
75@@ 87018
rich@@ 87017
strengthens 87016
understand@@ 87015
uniform@@ 87014
wee@@ 87013
flee 87012
Managing 87011
cen@@ 87010
Corps 87009
Mel@@ 87008
sens@@ 87007
forc@@ 87006
Tit@@ 87005
1000 87004
famili@@ 87003
wan 87002
compromised 87001
Smuggling 87000
314 86999
● 86998
HKSAR 86997
Gen@@ 86996
appe@@ 86995
Worst 86994
EZ 86993
loads 86992
Mandate 86991
respiratory 86990
unduly 86989
Wilson 86988
zo 86987
commemorative 86986
Organs 86985
stuffs 86984
itting 86983
harvest 86982
assig@@ 86981
bit@@ 86980
Conditions 86979
monum@@ 86978
publican 86977
MENTA@@ 86976
yl@@ 86975
pa 86974
sable 86973
feelings 86972
veter@@ 86971
appor@@ 86970
winter 86969
survive 86968
scal@@ 86967
solicitation 86966
Inf@@ 86965
Inv@@ 86964
polio 86963
presi@@ 86962
Colom@@ 86961
sibly 86960
Technologies 86959
URAL 86958
11.30 86957
este@@ 86956
thood 86955
bility 86954
extern@@ 86953
Struc@@ 86952
region@@ 86951
96@@ 86950
nal 86949
eping 86948
GATT 86947
ults 86946
Enh@@ 86945
prise 86944
ophy@@ 86943
Cap 86942
ek@@ 86941
olu@@ 86940
Ji@@ 86939
coral 86938
entable 86937
trig@@ 86936
clas@@ 86935
Targ@@ 86934
Nicar@@ 86933
FIC@@ 86932
Quds 86931
Archi@@ 86930
imparti@@ 86929
Valley 86928
She@@ 86927
vement 86926
fru@@ 86925
Jakarta 86924
317 86923
barr@@ 86922
pum@@ 86921
bun@@ 86920
ger@@ 86919
dela@@ 86918
Sp@@ 86917
anci@@ 86916
vis@@ 86915
Commit@@ 86914
7.4 86913
Pleni@@ 86912
Edit@@ 86911
sias@@ 86910
acked 86909
conv@@ 86908
lling 86907
Holocaust 86906
PLEMENTA@@ 86905
endosulf@@ 86904
UP@@ 86903
LC 86902
Debt 86901
LCA 86900
Que@@ 86899
8.1 86898
76@@ 86897
ECH@@ 86896
lio 86895
phones 86894
Alex@@ 86893
Literacy 86892
ital 86891
Has@@ 86890
Privi@@ 86889
Transport@@ 86888
after@@ 86887
Telecommunications 86886
ops 86885
Naz@@ 86884
sky 86883
mort@@ 86882
licit 86881
325 86880
Lake 86879
We 86878
Needs 86877
pestici@@ 86876
ampi@@ 86875
L.14 86874
Ibrahim 86873
fen@@ 86872
ck 86871
Amend@@ 86870
8.2 86869
Achi@@ 86868
Medici@@ 86867
intru@@ 86866
1737 86865
Kafr 86864
promo@@ 86863
RO 86862
HO 86861
tetr@@ 86860
dest@@ 86859
MINUGUA 86858
rifl@@ 86857
tude 86856
repa@@ 86855
Punt@@ 86854
oner 86853
Expan@@ 86852
mate 86851
intim@@ 86850
Vill@@ 86849
who@@ 86848
vinci@@ 86847
shops 86846
wei@@ 86845
L.12 86844
NP 86843
anten@@ 86842
Med@@ 86841
1957 86840
lass 86839
appar@@ 86838
uelan 86837
ide 86836
visi@@ 86835
Dat@@ 86834
Cau@@ 86833
Gh@@ 86832
650 86831
dit 86830
L.19 86829
Fair 86828
WH@@ 86827
infringe 86826
Iber@@ 86825
patrol@@ 86824
L.13 86823
Terroris@@ 86822
equip@@ 86821
endor@@ 86820
sensitiz@@ 86819
TEC 86818
recogn@@ 86817
XXVI 86816
Regul@@ 86815
LM 86814
NAS@@ 86813
Slo@@ 86812
63@@ 86811
Santa 86810
ny 86809
Bulletin 86808
lis 86807
Lou@@ 86806
ficient 86805
DISCRIMI@@ 86804
reti@@ 86803
hard@@ 86802
ann@@ 86801
receip@@ 86800
CES 86799
Gor@@ 86798
stem@@ 86797
1718 86796
eman@@ 86795
ITS 86794
deton@@ 86793
Teach@@ 86792
noti@@ 86791
activi@@ 86790
Residual 86789
cost@@ 86788
hic 86787
Geogr@@ 86786
Tuberculosis 86785
memb@@ 86784
L.17 86783
Dar 86782
strateg@@ 86781
• 86780
Negoti@@ 86779
Mit@@ 86778
aler@@ 86777
NC@@ 86776
altitudes 86775
LT@@ 86774
judici@@ 86773
Fl@@ 86772
lip@@ 86771
Elimin@@ 86770
infan@@ 86769
digni@@ 86768
PI 86767
step@@ 86766
alogue 86765
Parli@@ 86764
thu@@ 86763
ffic@@ 86762
consign@@ 86761
shif@@ 86760
65@@ 86759
harv@@ 86758
Manufac@@ 86757
328 86756
anth@@ 86755
margin@@ 86754
pun@@ 86753
06@@ 86752
yright 86751
ball@@ 86750
rah 86749
din 86748
Eco@@ 86747
ACT 86746
reserv@@ 86745
stic@@ 86744
Sil@@ 86743
eded 86742
Hist@@ 86741
consul@@ 86740
Bad@@ 86739
boo@@ 86738
acquisi@@ 86737
TIES 86736
Gre@@ 86735
annex@@ 86734
timel@@ 86733
lod@@ 86732
07@@ 86731
HCFC 86730
vill@@ 86729
Cap@@ 86728
Hal@@ 86727
Riyadh 86726
M23 86725
see@@ 86724
coo@@ 86723
dress 86722
alem@@ 86721
ito 86720
5.9 86719
oll 86718
ghter 86717
SPT 86716
MF@@ 86715
rejec@@ 86714
nel 86713
sil@@ 86712
Kaz@@ 86711
986 86710
gal@@ 86709
ENT 86708
ando 86707
tting 86706
IPF 86705
FM 86704
Gene@@ 86703
Man 86702
mer 86701
FIR 86700
olog@@ 86699
ensu@@ 86698
ung@@ 86697
tis@@ 86696
shr@@ 86695
outs 86694
perform@@ 86693
Ini@@ 86692
Salvad@@ 86691
Flem@@ 86690
Add.6 86689
ONUB 86688
Arch@@ 86687
Meth@@ 86686
spir@@ 86685
Mic@@ 86684
cantonal 86683
ki@@ 86682
abst@@ 86681
admit@@ 86680
Jabal 86679
attle 86678
Cont@@ 86677
Rab@@ 86676
milest@@ 86675
BT 86674
compendi@@ 86673
Char@@ 86672
satis@@ 86671
vigor@@ 86670
Bern@@ 86669
simul@@ 86668
earning 86667
indefin@@ 86666
discrep@@ 86665
ej@@ 86664
conve@@ 86663
she@@ 86662
busin@@ 86661
FNL 86660
ante 86659
LO@@ 86658
unequivoc@@ 86657
arding 86656
GNSS 86655
Abdul@@ 86654
Bangui 86653
Nas@@ 86652
bra@@ 86651
ICJ 86650
HCH 86649
Sult@@ 86648
concur@@ 86647
harm@@ 86646
Religi@@ 86645
POLISARIO 86644
Consul@@ 86643
affirm@@ 86642
1612 86641
atis@@ 86640
watch 86639
Ka@@ 86638
issu@@ 86637
ati 86636
Tar@@ 86635
HABITA@@ 86634
reactiv@@ 86633
L.20 86632
ž@@ 86631
eti@@ 86630
MIN@@ 86629
EEC 86628
marke@@ 86627
coca 86626
transfer@@ 86625
Kab@@ 86624
Fer@@ 86623
aggrav@@ 86622
MN@@ 86621
adher@@ 86620
deri@@ 86619
flow@@ 86618
WG 86617
use@@ 86616
ison 86615
Rap@@ 86614
antor 86613
Sharif 86612
Zagreb 86611
Hiz@@ 86610
expatri@@ 86609
Jen@@ 86608
7.8 86607
Recog@@ 86606
emia 86605
IAN 86604
KO@@ 86603
guerri@@ 86602
tants 86601
Harmon@@ 86600
Est@@ 86599
OI@@ 86598
jus 86597
embar@@ 86596
buds@@ 86595
envi@@ 86594
Analy@@ 86593
IZ@@ 86592
BINU@@ 86591
aBDE 86590
Bus@@ 86589
fund@@ 86588
reign@@ 86587
iland 86586
surro@@ 86585
plements 86584
atorial 86583
IDA 86582
aw 86581
MD 86580
bad@@ 86579
370 86578
posite 86577
depri@@ 86576
Lomé 86575
broadcast@@ 86574
JI 86573
Pil@@ 86572
Dal@@ 86571
custodi@@ 86570
journal 86569
Sul@@ 86568
indict@@ 86567
alg@@ 86566
decl@@ 86565
UNMIBH 86564
infra@@ 86563
glob@@ 86562
group@@ 86561
Je@@ 86560
adul@@ 86559
resili@@ 86558
ether 86557
cho 86556
HA@@ 86555
Regi@@ 86554
Canal 86553
CN.17 86552
323 86551
346 86550
Sw@@ 86549
neighb@@ 86548
73@@ 86547
TN@@ 86546
passes 86545
Ky@@ 86544
Examin@@ 86543
Abdul 86542
COP@@ 86541
ION@@ 86540
Wa@@ 86539
CT 86538
Edi@@ 86537
Cat@@ 86536
aro@@ 86535
ouf 86534
chil@@ 86533
chi 86532
Gali 86531
Š@@ 86530
387 86529
amp@@ 86528
Michael 86527
enda 86526
XXV 86525
Hyogo 86524
Boutros 86523
Compu@@ 86522
.00 86521
circu@@ 86520
IL 86519
Thomas 86518
661 86517
teen@@ 86516
7.7 86515
Antonio 86514
Integr@@ 86513
colle@@ 86512
bil 86511
ingu@@ 86510
ker@@ 86509
reaffirm@@ 86508
pared 86507
375 86506
alli@@ 86505
Abdullah 86504
standardi@@ 86503
Mem@@ 86502
ied 86501
Buil@@ 86500
Legisl@@ 86499
tap@@ 86498
Ya@@ 86497
roc@@ 86496
EULEX 86495
complic@@ 86494
contin@@ 86493
Tom@@ 86492
ambigu@@ 86491
iro 86490
iture 86489
1956 86488
Monit@@ 86487
Id@@ 86486
333 86485
auditor 86484
dings 86483
UNOWA 86482
promulg@@ 86481
Moder@@ 86480
ples 86479
AWACS 86478
8.6 86477
prosecu@@ 86476
Guer@@ 86475
postal 86474
exclu@@ 86473
repor@@ 86472
radic@@ 86471
Park 86470
UNDA@@ 86469
raf@@ 86468
incl@@ 86467
ana@@ 86466
embarg@@ 86465
uro@@ 86464
kin 86463
nar@@ 86462
TP@@ 86461
verbales 86460
Strength@@ 86459
bienni@@ 86458
satisfac@@ 86457
intangible 86456
mir@@ 86455
negoti@@ 86454
321 86453
aches 86452
Represent@@ 86451
sustain@@ 86450
spar@@ 86449
avy 86448
incid@@ 86447
Rev.@@ 86446
335 86445
Chang@@ 86444
327 86443
indivi@@ 86442
PH@@ 86441
atories 86440
commemor@@ 86439
ø@@ 86438
ris 86437
1947 86436
stula 86435
6.9 86434
Khmer 86433
Charles 86432
ISO 86431
pension@@ 86430
log 86429
rom 86428
ROM 86427
Shel@@ 86426
ê@@ 86425
dar@@ 86424
lib@@ 86423
Dili 86422
wan@@ 86421
DDT 86420
UND@@ 86419
just@@ 86418
tag@@ 86417
fundament@@ 86416
internation@@ 86415
preclu@@ 86414
03@@ 86413
ofluorocar@@ 86412
estici@@ 86411
Resid@@ 86410
Martin 86409
jun@@ 86408
Mach@@ 86407
30.@@ 86406
ONUSAL 86405
persecu@@ 86404
Noti@@ 86403
tech@@ 86402
Town 86401
Dispu@@ 86400
Pi@@ 86399
orbit@@ 86398
dynam@@ 86397
ja@@ 86396
9.1 86395
Fun@@ 86394
Martínez 86393
351 86392
dens@@ 86391
supervis@@ 86390
Beth@@ 86389
BWC 86388
authoriz@@ 86387
RT@@ 86386
destabiliz@@ 86385
sile 86384
nec@@ 86383
AA 86382
SB@@ 86381
ask@@ 86380
Suc@@ 86379
segreg@@ 86378
meaning@@ 86377
SY@@ 86376
terrible 86375
RP@@ 86374
infr@@ 86373
Tam@@ 86372
verse 86371
Robert 86370
where@@ 86369
Visi@@ 86368
eld 86367
IOC 86366
Had@@ 86365
nex@@ 86364
Bene@@ 86363
cus 86362
ACE 86361
ole@@ 86360
multilater@@ 86359
ket@@ 86358
variable 86357
infer@@ 86356
nically 86355
Kon@@ 86354
Muni@@ 86353
001 86352
Work@@ 86351
renew@@ 86350
EP@@ 86349
HF 86348
Distribu@@ 86347
achment 86346
enrol@@ 86345
comprehen@@ 86344
JS1 86343
sin@@ 86342
CULT@@ 86341
oba 86340
L.22 86339
sc 86338
CRP.2 86337
equit@@ 86336
atl@@ 86335
420 86334
sta@@ 86333
322 86332
Rodríguez 86331
lim@@ 86330
impl@@ 86329
abled 86328
rid@@ 86327
Emer@@ 86326
Aung 86325
Rou@@ 86324
Bamako 86323
Ori@@ 86322
dum@@ 86321
hic@@ 86320
diplom@@ 86319
intel@@ 86318
UNPOS 86317
test@@ 86316
actu@@ 86315
coast@@ 86314
yu@@ 86313
precau@@ 86312
draw@@ 86311
Ref@@ 86310
7.9 86309
L.21 86308
atten@@ 86307
Save 86306
execu@@ 86305
legiti@@ 86304
wered 86303
heed 86302
ML@@ 86301
Vil@@ 86300
plied 86299
González 86298
plementing 86297
ras@@ 86296
2050 86295
L.23 86294
servers 86293
bles 86292
Kis@@ 86291
Dim@@ 86290
Lin@@ 86289
gram@@ 86288
Francisco 86287
enqui@@ 86286
atr@@ 86285
ender@@ 86284
SPLOS 86283
ateral 86282
CN.6 86281
336 86280
Raj@@ 86279
vibr@@ 86278
349 86277
vigation 86276
Ke@@ 86275
vaccin@@ 86274
gible 86273
Compar@@ 86272
dem@@ 86271
signi@@ 86270
TO@@ 86269
ko@@ 86268
Torres 86267
genous 86266
neo 86265
Ob@@ 86264
Tru@@ 86263
324 86262
fun@@ 86261
Carri@@ 86260
nit@@ 86259
dil@@ 86258
ESCR 86257
respon@@ 86256
aba 86255
Doc@@ 86254
ceremon@@ 86253
seri@@ 86252
Scot@@ 86251
empha@@ 86250
AC.96 86249
Memb@@ 86248
compromis@@ 86247
forth@@ 86246
REC@@ 86245
Ramallah 86244
eth 86243
shop 86242
valu@@ 86241
textiles 86240
alleg@@ 86239
restaur@@ 86238
real@@ 86237
rested 86236
MINUSMA 86235
dea@@ 86234
Deb@@ 86233
ONU@@ 86232
lov@@ 86231
haz@@ 86230
CFA 86229
Ass@@ 86228
let@@ 86227
De 86226
354 86225
vec@@ 86224
337 86223
ub@@ 86222
modif@@ 86221
329 86220
ford 86219
mara 86218
P.1 86217
forwar@@ 86216
deliver@@ 86215
stead@@ 86214
507 86213
nouvelles 86212
awi 86211
Juven@@ 86210
prefabric@@ 86209
ust@@ 86208
BER@@ 86207
poten@@ 86206
OF@@ 86205
alties 86204
alk@@ 86203
improvi@@ 86202
Concili@@ 86201
Leon@@ 86200
accumul@@ 86199
Proces@@ 86198
Aq@@ 86197
resear@@ 86196
bilater@@ 86195
Deleg@@ 86194
vil 86193
subven@@ 86192
biom@@ 86191
Sta@@ 86190
Afgh@@ 86189
reign 86188
ono 86187
RO@@ 86186
Triparti@@ 86185
ick@@ 86184
incre@@ 86183
enshr@@ 86182
mini@@ 86181
RY 86180
Pent@@ 86179
Comp@@ 86178
OSS 86177
index@@ 86176
itment 86175
attr@@ 86174
INCL@@ 86173
temper@@ 86172
bord@@ 86171
UNF@@ 86170
ip@@ 86169
345 86168
contempl@@ 86167
Aboli@@ 86166
Extr@@ 86165
griev@@ 86164
Filip@@ 86163
diversi@@ 86162
ï@@ 86161
LTTE 86160
Requi@@ 86159
Iraq@@ 86158
Categ@@ 86157
lam@@ 86156
ticul@@ 86155
familiari@@ 86154
SAR@@ 86153
332 86152
TER 86151
ECO 86150
eques 86149
prot@@ 86148
347 86147
mitted 86146
Barcelona 86145
hex@@ 86144
ITY 86143
cit 86142
confisc@@ 86141
Sing@@ 86140
TRAC 86139
habitual 86138
tum 86137
second@@ 86136
ingredi@@ 86135
AI@@ 86134
Juris@@ 86133
UNTAES 86132
ight 86131
ording 86130
Subregional 86129
fluctu@@ 86128
amin@@ 86127
comple@@ 86126
len@@ 86125
oud 86124
Wol@@ 86123
pot@@ 86122
Manila 86121
Jan 86120
kil@@ 86119
empli@@ 86118
Eli@@ 86117
tiary 86116
Of@@ 86115
zi 86114
Econom@@ 86113
impair@@ 86112
UNMIH 86111
kov 86110
sted 86109
426 86108
Tari@@ 86107
Execu@@ 86106
lions 86105
Cooper@@ 86104
duci@@ 86103
ander 86102
probable 86101
asu@@ 86100
Alber@@ 86099
civiliz@@ 86098
aga 86097
acteri@@ 86096
Elec@@ 86095
án@@ 86094
Tamil 86093
old@@ 86092
sement 86091
Shanghai 86090
POL 86089
74@@ 86088
James 86087
Sali@@ 86086
Pretoria 86085
approxim@@ 86084
Muhammad 86083
ARC 86082
Defin@@ 86081
Conse@@ 86080
Bat@@ 86079
ave 86078
Investig@@ 86077
facie 86076
Demogr@@ 86075
prima 86074
other@@ 86073
1952 86072
rech@@ 86071
yo@@ 86070
scar@@ 86069
SFOR 86068
eman 86067
mad@@ 86066
Macao 86065
Plan@@ 86064
Pun@@ 86063
Program@@ 86062
drop@@ 86061
Wast@@ 86060
Nep@@ 86059
MP 86058
pendix 86057
334 86056
348 86055
mics 86054
497 86053
Audiovisual 86052
chec@@ 86051
Fre@@ 86050
fal@@ 86049
Av@@ 86048
406 86047
reflec@@ 86046
Ambass@@ 86045
shap@@ 86044
duce 86043
mises 86042
Fal@@ 86041
ado 86040
9.2 86039
stances 86038
rigi@@ 86037
UNA0@@ 86036
chr@@ 86035
otor@@ 86034
simi@@ 86033
Dayton 86032
440 86031
san 86030
850 86029
bet 86028
nial 86027
ancies 86026
lities 86025
Princi@@ 86024
Bol@@ 86023
COOPER@@ 86022
430 86021
exped@@ 86020
neutr@@ 86019
Norm@@ 86018
XXVII 86017
exp@@ 86016
Bien@@ 86015
560 86014
Nagorno 86013
ycl@@ 86012
ink 86011
princi@@ 86010
tras@@ 86009
settl@@ 86008
ape@@ 86007
402 86006
preced@@ 86005
POS@@ 86004
CORE 86003
initi@@ 86002
86@@ 86001
XXVIII 86000
repu@@ 85999
indeb@@ 85998
L.24 85997
ascer@@ 85996
grav@@ 85995
410 85994
Concep@@ 85993
George 85992
UNTAET 85991
periodici@@ 85990
Institu@@ 85989
417 85988
JA@@ 85987
356 85986
cohe@@ 85985
ám@@ 85984
Tashkent 85983
ere 85982
PROTEC@@ 85981
Flo@@ 85980
ud 85979
ika 85978
Fri@@ 85977
chann@@ 85976
Add.7 85975
USAID 85974
339 85973
battali@@ 85972
avier 85971
dau@@ 85970
esel 85969
Taylor 85968
− 85967
desper@@ 85966
scholar@@ 85965
Ol@@ 85964
asses@@ 85963
Ankara 85962
restric@@ 85961
331 85960
prud@@ 85959
jo 85958
tries 85957
reneg@@ 85956
Indi@@ 85955
intergener@@ 85954
epide@@ 85953
Nav@@ 85952
SID@@ 85951
366 85950
isa 85949
tric 85948
Dev@@ 85947
Enter@@ 85946
versal 85945
05@@ 85944
sements 85943
multimedia 85942
Vir@@ 85941
extric@@ 85940
sour@@ 85939
Oce@@ 85938
And@@ 85937
Rep@@ 85936
ensing 85935
discer@@ 85934
inhibi@@ 85933
XXIII 85932
ald 85931
lavonia 85930
antic 85929
dly 85928
posses@@ 85927
autom@@ 85926
Cartogr@@ 85925
isol@@ 85924
Vol@@ 85923
auxili@@ 85922
84@@ 85921
364 85920
fe 85919
Agr@@ 85918
Bosni@@ 85917
contain@@ 85916
PNTL 85915
L.29 85914
él@@ 85913
sat 85912
hall@@ 85911
INFORM@@ 85910
tex@@ 85909
DG@@ 85908
anch@@ 85907
impe@@ 85906
preside 85905
sex@@ 85904
tray@@ 85903
Py@@ 85902
gres@@ 85901
SIS 85900
correc@@ 85899
dar 85898
Islam@@ 85897
aca 85896
415 85895
prescribe 85894
432 85893
tar 85892
OC@@ 85891
UNPREDEP 85890
GEN@@ 85889
357 85888
mar 85887
428 85886
school@@ 85885
c.@@ 85884
DM 85883
Gab@@ 85882
950 85881
SER@@ 85880
deser@@ 85879
Mes@@ 85878
avily 85877
rebel@@ 85876
SE 85875
situ 85874
plu@@ 85873
registr@@ 85872
com 85871
curr@@ 85870
Kin@@ 85869
docu@@ 85868
tas@@ 85867
Pot@@ 85866
Apartheid 85865
ández 85864
convoy 85863
Srebrenica 85862
dam@@ 85861
pares 85860
complement@@ 85859
bic@@ 85858
sives 85857
352 85856
tica 85855
PCN 85854
Niño 85853
OV 85852
gar 85851
FAR@@ 85850
ato 85849
polar 85848
Pra@@ 85847
fav@@ 85846
metropolit@@ 85845
MIC@@ 85844
Tob@@ 85843
Provid@@ 85842
fabric@@ 85841
nam@@ 85840
esa 85839
contro@@ 85838
344 85837
GBIS 85836
Sustain@@ 85835
distr@@ 85834
voc@@ 85833
ht@@ 85832
arly 85831
mutandis 85830
pus 85829
UNP@@ 85828
itative 85827
ario 85826
Develop@@ 85825
94@@ 85824
mutatis 85823
ella 85822
review@@ 85821
induce 85820
355 85819
eng 85818
341 85817
RCD 85816
phil@@ 85815
iv@@ 85814
COL@@ 85813
enunci@@ 85812
visor 85811
audiovisual 85810
Radio@@ 85809
Publi@@ 85808
OM 85807
UNIC@@ 85806
460 85805
lum@@ 85804
Budapest 85803
ologies 85802
terr@@ 85801
intercep@@ 85800
deterior@@ 85799
Oli@@ 85798
sus@@ 85797
edul@@ 85796
pp@@ 85795
5935 85794
L.26 85793
assur@@ 85792
alim@@ 85791
WG.6 85790
som@@ 85789
BLE 85788
L.25 85787
Cour@@ 85786
8.4 85785
F.@@ 85784
tab@@ 85783
solemn@@ 85782
gen 85781
bios@@ 85780
Ki 85779
stered 85778
eties 85777
amid 85776
conceptu@@ 85775
394 85774
PP 85773
extremi@@ 85772
377 85771
FE@@ 85770
cot@@ 85769
ei 85768
Faro@@ 85767
nob@@ 85766
atar 85765
moon 85764
Kas@@ 85763
ues 85762
Jer@@ 85761
ango 85760
subver@@ 85759
bah 85758
Maria 85757
disast@@ 85756
ere@@ 85755
educ@@ 85754
insectici@@ 85753
amo 85752
poli 85751
prox@@ 85750
sociocultural 85749
won@@ 85748
Hab@@ 85747
Jab@@ 85746
ester 85745
pharm@@ 85744
onic 85743
Ker@@ 85742
nik 85741
REDD 85740
deplorable 85739
proc@@ 85738
CRPD 85737
iling 85736
Tre@@ 85735
house@@ 85734
372 85733
appen@@ 85732
470 85731
destitu@@ 85730
83@@ 85729
Chri@@ 85728
advant@@ 85727
nov@@ 85726
414 85725
456 85724
Applic@@ 85723
abri@@ 85722
SL@@ 85721
run@@ 85720
Prac@@ 85719
343 85718
codi@@ 85717
ope 85716
bert 85715
Conven@@ 85714
net@@ 85713
Mai 85712
lif@@ 85711
cellaneous 85710
carb@@ 85709
480 85708
ourg 85707
publics 85706
ror 85705
Laur@@ 85704
occu@@ 85703
coincide 85702
encom@@ 85701
Nic@@ 85700
MEE@@ 85699
practic@@ 85698
rele@@ 85697
Arafat 85696
mam@@ 85695
Ren@@ 85694
PO 85693
rob@@ 85692
advi@@ 85691
utu 85690
390 85689
selec@@ 85688
Neg@@ 85687
BI@@ 85686
Vul@@ 85685
favour@@ 85684
fauna 85683
374 85682
stems 85681
further@@ 85680
TIN@@ 85679
lex 85678
Wh@@ 85677
T. 85676
DC2 85675
Focu@@ 85674
Kyi 85673
aye 85672
perc@@ 85671
conserve 85670
Omar 85669
631 85668
Eurostat 85667
sear@@ 85666
cruel@@ 85665
zen 85664
Bush 85663
inspi@@ 85662
otes 85661
Shu@@ 85660
Langu@@ 85659
DIS 85658
Beit 85657
fratern@@ 85656
tant@@ 85655
509 85654
organ@@ 85653
modi@@ 85652
til@@ 85651
elle 85650
9.30 85649
L.27 85648
AC.51 85647
PD 85646
ji@@ 85645
ands 85644
protest@@ 85643
dispu@@ 85642
pose@@ 85641
Popular 85640
onia 85639
373 85638
diploma 85637
reinser@@ 85636
UNIO@@ 85635
simil@@ 85634
PAL@@ 85633
succe@@ 85632
shima 85631
vel@@ 85630
rd 85629
412 85628
accus@@ 85627
Sav@@ 85626
rami@@ 85625
OPS 85624
Balk@@ 85623
ported 85622
ité 85621
Mayor 85620
LAN 85619
horiz@@ 85618
Issu@@ 85617
one@@ 85616
Invent@@ 85615
UNMISET 85614
itures 85613
hop@@ 85612
eland 85611
L.38 85610
CIC@@ 85609
ín 85608
Charg@@ 85607
Sect 85606
sa@@ 85605
Á@@ 85604
imagin@@ 85603
evic@@ 85602
Arbitr@@ 85601
instal@@ 85600
scrutin@@ 85599
tu 85598
shore 85597
Sor@@ 85596
falsi@@ 85595
Territorial 85594
youn@@ 85593
sali@@ 85592
Sad@@ 85591
DH@@ 85590
reconfigur@@ 85589
488 85588
recycl@@ 85587
Interpre@@ 85586
342 85585
353 85584
oce@@ 85583
ophobia 85582
thres@@ 85581
Indu@@ 85580
363 85579
Ci@@ 85578
Audi@@ 85577
inten@@ 85576
show@@ 85575
Journ@@ 85574
REP 85573
delic@@ 85572
roller 85571
Trop@@ 85570
99.@@ 85569
ear 85568
emolum@@ 85567
anni@@ 85566
fi 85565
ais 85564
,@@ 85563
abad 85562
duran 85561
ook 85560
Dur@@ 85559
dating 85558
oles@@ 85557
Statu@@ 85556
Cab@@ 85555
relieve 85554
Men@@ 85553
eva 85552
Ng@@ 85551
EUFOR 85550
32,@@ 85549
play@@ 85548
witnes@@ 85547
95@@ 85546
422 85545
Fe@@ 85544
362 85543
vable 85542
susceptible 85541
flexi@@ 85540
Kisangani 85539
emancip@@ 85538
liger@@ 85537
04@@ 85536
Abdel@@ 85535
413 85534
Fil@@ 85533
liquid@@ 85532
exhum@@ 85531
Hus@@ 85530
phy@@ 85529
parad@@ 85528
ication 85527
insti@@ 85526
Bin 85525
ua 85524
avail@@ 85523
accidental 85522
Bougainville 85521
Gl@@ 85520
liti@@ 85519
Tel@@ 85518
Bai@@ 85517
CG@@ 85516
COR@@ 85515
deriv@@ 85514
385 85513
gain@@ 85512
mi 85511
inging 85510
stry 85509
legitim@@ 85508
408 85507
Mam@@ 85506
Pierre 85505
delinqu@@ 85504
SB 85503
405 85502
anom@@ 85501
ayo 85500
med@@ 85499
substanti@@ 85498
ür@@ 85497
358 85496
JEC@@ 85495
pow@@ 85494
L.28 85493
elop@@ 85492
tained 85491
L.32 85490
earmar@@ 85489
mayor 85488
orian 85487
MICIVIH 85486
detail@@ 85485
Malay@@ 85484
scienti@@ 85483
mel@@ 85482
ification 85481
overwhel@@ 85480
investig@@ 85479
Bom@@ 85478
vić 85477
accu@@ 85476
UNSCOM 85475
disturb@@ 85474
381 85473
Sel@@ 85472
akh 85471
Consolid@@ 85470
ond@@ 85469
ept@@ 85468
475 85467
yen 85466
GEO 85465
361 85464
AMIS 85463
eda 85462
Ox@@ 85461
orient@@ 85460
ante@@ 85459
Astron@@ 85458
dedic@@ 85457
jan 85456
Coton@@ 85455
obe@@ 85454
usal 85453
368 85452
sha 85451
tioner 85450
SCO 85449
L.34 85448
refriger@@ 85447
Pedro 85446
Revit@@ 85445
aim@@ 85444
Oc@@ 85443
decentr@@ 85442
457 85441
andi 85440
sent@@ 85439
Met@@ 85438
Hen@@ 85437
kh 85436
bre 85435
Mitrovica 85434
heigh@@ 85433
incrimin@@ 85432
dur@@ 85431
Mun@@ 85430
TIC@@ 85429
clos@@ 85428
gather@@ 85427
Montevideo 85426
peti@@ 85425
371 85424
gio 85423
psychi@@ 85422
colonization 85421
503 85420
Postal 85419
mot@@ 85418
487 85417
INTER@@ 85416
ISAR 85415
540 85414
423 85413
cardi@@ 85412
AV@@ 85411
kilom@@ 85410
Christ@@ 85409
ene@@ 85408
Ben 85407
XXX 85406
mits 85405
Loc@@ 85404
intoler@@ 85403
Flor@@ 85402
Sou@@ 85401
Suu 85400
necessi@@ 85399
2025 85398
consu@@ 85397
379 85396
GL@@ 85395
Tun@@ 85394
prevail@@ 85393
Gbagbo 85392
Organis@@ 85391
grading 85390
Mahmoud 85389
suspen@@ 85388
inas 85387
RACIAL 85386
Recom@@ 85385
bom@@ 85384
Dep@@ 85383
Lit@@ 85382
unders@@ 85381
cus@@ 85380
HU@@ 85379
celer@@ 85378
Sour@@ 85377
715 85376
10.15 85375
Yam@@ 85374
tish 85373
Kra@@ 85372
UNS@@ 85371
Labor@@ 85370
Kom@@ 85369
33,@@ 85368
Civi@@ 85367
389 85366
diabetes 85365
Consult@@ 85364
concili@@ 85363
ola 85362
setia 85361
ocal 85360
Cz@@ 85359
Tall 85358
Rus@@ 85357
mani@@ 85356
infiltr@@ 85355
defender 85354
TP 85353
Kim 85352
Dubai 85351
bio 85350
par 85349
418 85348
472 85347
osting 85346
Enti@@ 85345
ISBA 85344
credi@@ 85343
portun@@ 85342
BA@@ 85341
nogr@@ 85340
clan 85339
386 85338
Congres@@ 85337
mun@@ 85336
ag 85335
Mek@@ 85334
hib@@ 85333
enumer@@ 85332
hang 85331
Eur@@ 85330
ferti@@ 85329
391 85328
Mir@@ 85327
369 85326
Luanda 85325
absten@@ 85324
alcoho@@ 85323
1503 85322
[...]
