#version: 0.2
e n
t i
c i
r e
o n
t h
d e</w>
e r
a n
i n
o s</w>
e s</w>
a r
th e</w>
a s</w>
o r
d e
o n</w>
l a</w>
a l</w>
s t
s i
r o
o f</w>
en t
ó n</w>
e n</w>
a ci
a d
a l
a ti
i t
q u
t o</w>
o m
e c
u n
e l</w>
an d</w>
i c
e d</w>
a t
o r</w>
p ro
d i
c on
a m
e s
l os</w>
i n</w>
p ar
e m
a c
u r
aci ón</w>
l i
re s
qu e</w>
l as</w>
v i
a b
e r</w>
r i
a n</w>
s e</w>
u l
in g</w>
a r</w>
p o
c om
on es</w>
s u
e l
de l</w>
p er
ati on</w>
p l
t r
en t</w>
e st
o l
t er
i d
f or
e x
on s</w>
o b
e g
a t</w>
m i
a s
on al</w>
c u
a d</w>
ci ón</w>
c o
r e</w>
g r
par a</w>
i l
o t
ti on</w>
@ -
@- @</w>
f or</w>
c l
p or
d o</w>
c h
for m
2 0
c e</w>
ad o</w>
p e
a p
f i
m e
s e
al es</w>
v e</w>
i m
ent e</w>
b l
re s</w>
ar i
a g
aci ones</w>
u m
ti n
th at</w>
t u
i z
an t
i s</w>
i s
C om
c on</w>
p or</w>
p u
ad os</w>
en ci
o p
e v
m ent</w>
p re
d u
st r
ati ons</w>
U n
ti c
t s</w>
p res
v er
m in
o u
C on
ter n
20 0
b i
en er
u n</w>
n o</w>
de s
ent o</w>
f ic
b y</w>
í a</w>
re g
ci al</w>
qu ot
w it
quot ;</w>
& quot;</w>
t o
r a
ab l
wit h</w>
at e</w>
w h
1 9
l o</w>
em b
it y</w>
un a</w>
b e</w>
di s
in form
s o
l y</w>
s h
s ob
g an
en d
si ón</w>
sob re</w>
m a
g h
u s
re c
enci a</w>
ener al</w>
v en
s er
ati onal</w>
si on</w>
b e
s u</w>
po s
f er
e d
p a
u d
m it
l o
m o
t e
gr am
in tern
ti v
p r
re l
si d
id ad</w>
du c
I n
g u
h a
m an
th e
s ec
es ti
ic a</w>
res p
n o
f u
19 9
ti es</w>
p ri
G eneral</w>
t en
re ch
t ri
t ed</w>
s ti
ar y</w>
ad es</w>
re t
tin g</w>
ad a</w>
i r</w>
me di
it s</w>
gan iz
de r</w>
f in
n i
ol u
per s
in cl
an ce</w>
t a
ati v
par t
l eg
pro gram
e f
ent s</w>
h um
E st
s o</w>
ar e</w>
S ec
ro l
b u
t os</w>
pres ent
S t
i t</w>
si st
ul d</w>
t ur
er e</w>
th er</w>
or d
it ed</w>
ci ones</w>
d ic
ant e</w>
por t
ci p
o per
d os</w>
i a</w>
ent es</w>
pro c
ad as</w>
el op
sti tu
at ed</w>
a j
por t</w>
id as</w>
f r
w as</w>
aci onal</w>
com o</w>
co un
al l</w>
er s</w>
C o
qu i
w or
m á
e p
Un ited</w>
ar t
en ce</w>
ac ti
mi s
abl e</w>
n e
u p
res olu
d ad</w>
t ec
reg i
de rech
l a
or i
a pos
& apos
in i
f un
an ci
c re
m e</w>
at es</w>
o uld</w>
pro vi
A s
de v
m u
s t</w>
a u
o ver
t h</w>
h a</w>
or ganiz
a f
má s</w>
am bi
t y</w>
f ro
c ri
fro m</w>
20 1
h i
d as</w>
s es</w>
ar rol
fi ci
un i
P ro
em ent</w>
on ales</w>
t a</w>
o cu
su s</w>
N aciones</w>
N ations</w>
com m
c ul
po si
am i
Un idas</w>
ic h</w>
de d</w>
de ci
n u
mit te
Sec ret
pl ic
si ones</w>
wh ich</w>
ti ons</w>
s eg
po l
al iz
ari o</w>
su b
a in
gh ts</w>
o c
re d</w>
dev elop
er a</w>
pu est
mitte e</w>
mi ento</w>
con tr
l e
arrol lo</w>
pa í
d a</w>
U N
c ap
an do</w>
ser v
i r
en ti
am ente</w>
tr an
&apos ;
in t
over n
Com mittee</w>
par ti
n ec
acti vi
o tr
b er
the ir</w>
es s</w>
ent re</w>
m o</w>
j ec
th is</w>
e b
ac c
&apos; s</w>
con c
ent r
c h</w>
Con ven
no t</w>
an os</w>
j e
ar g
c es</w>
h as</w>
in v
R e
resp on
a v
t or
ec to</w>
an t</w>
ar m
g i
ad op
ec on
l it
incl u
a se</w>
ha ve</w>
h ad</w>
ent os</w>
ant es</w>
o res</w>
ro u
in ter
h ab
con t
i sión</w>
á n</w>
ñ os</w>
Est ados</w>
in g
min i
p li
s pe
at er
m ar
be en</w>
ul t
es e</w>
d ades</w>
des arrollo</w>
o ther</w>
bl e</w>
ra f
St ates</w>
o f
0 0</w>
n g</w>
intern ational</w>
d s</w>
ul ar</w>
i er
p en
un ci
pl em
c as
con tin
al so</w>
ti ve</w>
é n</w>
g n
it é</w>
f ec
u c
su p
k ing</w>
im port
ent al</w>
derech os</w>
cap aci
t e</w>
c or
o s
i o</w>
al u
In tern
tran s
ex am
ab aj
ur e</w>
par tic
parti cip
vi ol
per i
c ol
d ing</w>
g en
ri ghts</w>
emb er</w>
Com ité</w>
j u
paí ses</w>
co oper
d ur
est r
a plic
o ci
o g
w ere</w>
r it
on e</w>
a de
t er</w>
b li
j o</w>
a si
ac e</w>
em a</w>
so ci
de b
s em
w e
fi r
il l</w>
g h</w>
ari os</w>
ú bl
D e
mini str
pers on
ati ve</w>
ambi én</w>
t ambién</w>
z a</w>
id o</w>
aci onales</w>
í o
ou t</w>
per ío
i c</w>
p ec
P re
i st
wor k</w>
plem ent
f l
ch il
í tic
gh t</w>
ou s</w>
re present
Com isión</w>
pr in
re port</w>
ord in
m er
m ents</w>
s es
develop ment</w>
re n</w>
al ly</w>
e m</w>
con s
t or</w>
con sid
sh ould</w>
contin u
ic o</w>
pu bli
si tu
tri es</w>
inform e</w>
w ill</w>
pro tec
o ur
om en</w>
G overn
a gr
ob ier
w i
em pl
l ev
ur idad</w>
p i
tri bu
est ab
m ente</w>
perío do</w>
cri min
in stitu
si ons</w>
pro y
es pe
ti m
g e
y o</w>
al l
Con se
coun tries</w>
m en
at eg
art í
e ar</w>
h an</w>
Conse jo</w>
Con fer
Co unci
vi ci
vi e
e duc
Counci l</w>
un der</w>
n ot
ag e</w>
ur ity</w>
ami ento</w>
m or
hum an</w>
incl ud
v e
tr abaj
ta k
s os</w>
ci on
o se</w>
A d
est abl
eg r
e ar
á r
í an</w>
w ould</w>
publi c</w>
mis sion</w>
d ocu
su ch</w>
medi das</w>
a y</w>
r u
li z
ec h
r .</w>
pol ític
st a</w>
con tribu
d er
y a</w>
& #
&# 9
contr a</w>
e a</w>
a po
cu esti
c el
ab or
cul o</w>
o v
com un
ar d</w>
an g
s y
al s</w>
li ci
inform ación</w>
emb r
m on
C h
partic ular</w>
c o</w>
O r
me e
fin anci
to dos</w>
includ ing</w>
si gu
n ational</w>
el ec
D ec
l u
st an
f o
ati ng</w>
consid er
a pro
en g
p on
resolu ción</w>
activi dades</w>
o w
e ci
ic e</w>
Pre sid
St ate</w>
s ed</w>
pro duc
hum anos</w>
im plement
en s
c ur
resolu tion</w>
w el
econ om
h e
ó m
H um
lo c
al mente</w>
li g
so cial</w>
str uc
intern acional</w>
a y
el y</w>
d ren</w>
ti cl
a i
w omen</w>
nec es
f ac
inform ation</w>
se siones</w>
pl e</w>
h e</w>
conc er
ar on</w>
en do</w>
en c
artí culo</w>
derech o</w>
ou r</w>
bl y</w>
a z
ap pro
es o</w>
p ár
M ini
Est ado</w>
A c
m ater
part e</w>
ser vici
fu er
1 0</w>
obier no</w>
b as
sem bly</w>
g o</w>
is su
a st
re qui
est e</w>
cl u
a re
m un
eb r
il ity</w>
embr os</w>
a res</w>
an ti
As sembly</w>
li dad</w>
pu e
ter min
is l
rec ur
sup port</w>
pro mo
o d</w>
I I</w>
de leg
sy st
up o</w>
ob serv
int egr
prin cip
d at
úbl ica</w>
n er
am bl
estab li
l e</w>
di rec
program a</w>
ic es</w>
tiv os</w>
Govern ment</w>
ñ o</w>
ob je
ambl ea</w>
mi l
us ti
id ades</w>
tr at
As amblea</w>
lo w
espe ci
vi r
Conven tion</w>
ar se</w>
enci as</w>
wi th
emb re</w>
ci vi
anci a</w>
regi onal</w>
re ci
S u
vie w</w>
chil dren</w>
tiv o</w>
k e
a su
D i
f aci
or m
person as</w>
G obierno</w>
id os</w>
s on</w>
or y</w>
ent a</w>
en i
ol og
aplic ación</w>
implement ation</w>
proc e
de n</w>
re com
ari a</w>
ticl e</w>
ti onal</w>
Or ganiz
cu m
al i
é s</w>
ti en
re comm
tic al</w>
be t
um b
í as</w>
g ro
tur e</w>
end a</w>
ni ños</w>
spe cial</w>
ú n</w>
l in
pl an
ses sion</w>
st ri
resp ec
con di
com pl
p er</w>
ac tu
re qu
ativ as</w>
nec e
proy ecto</w>
am ent
Secret ary</w>
n a</w>
v ed</w>
in dic
c ar
1 5</w>
n ic
re aliz
1 2</w>
esti g
Secret ario</w>
mor e</w>
I s
er ci
an is
e j
co ordin
Com mission</w>
th rou
cel ebr
re at
p o</w>
me j
g eneral</w>
f ol
ad ministr
on g</w>
activi ties</w>
exam in
ef fec
puest o</w>
us t</w>
pár raf
á c
cl ar
ob lig
nu ev
tiv a</w>
servici os</w>
s i</w>
ma de</w>
T r
otr os</w>
u m</w>
ar á</w>
si n</w>
N U
recur sos</w>
Pro gram
pro bl
u ro
co ur
apo yo</w>
G r
leg isl
p end
pre par
hum an
ain st</w>
sist encia</w>
resp ecto</w>
in to</w>
b o
E x
la w</w>
om e</w>
in cre
A r
ag ainst</w>
de termin
th ose</w>
re por
dis crimin
em ents</w>
id a</w>
as í</w>
program as</w>
ab i
g res
rou p</w>
me asu
establi sh
the y</w>
es t</w>
g overn
ad i
an y</w>
ari as</w>
Conven ción</w>
el d</w>
ex pres
f in</w>
tr y</w>
3 0</w>
re con
E uro
re uni
m es</w>
R i
l es</w>
P art
measu res</w>
si s</w>
A fr
je res</w>
docu m
apro b
agr ap
g o
e t
m os</w>
fl ic
u s</w>
ar ía</w>
2 0</w>
b un
tic a</w>
par agrap
tur a</w>
l an
f fic
fir m
ar ticle</w>
d es</w>
ta in
e i
th ese</w>
st at
c entr
we en</w>
bet ween</w>
ocu p
seg uridad</w>
nu cl
organiz aciones</w>
u di
econ óm
a ños</w>
u ti
comm un
w e</w>
g un
S o
est a</w>
in de
adop t
throu gh</w>
program me</w>
em as</w>
otr as</w>
jec u
coun try</w>
sist ema</w>
ev alu
c ent</w>
ed ad</w>
ni v
in di
j ur
recom end
st er
un d</w>
c a</w>
al idad</w>
establ eci
res our
m ental</w>
raf t</w>
au th
1 1</w>
con flic
Intern ational</w>
1 4</w>
ad ores</w>
th ere</w>
ter r
n acional</w>
sec u
ef for
es a</w>
n orm
mu jeres</w>
b re</w>
Un i
recomm end
1 0
i g
sh i
syst em</w>
pers onal</w>
a sistencia</w>
f ul
v ing</w>
sigu i
inv estig
f ur
ma y
nece sid
De rech
se ñ
pol ic
p ul
wel l</w>
la res</w>
in te
tec h
concer n
trabaj o</w>
c a
R ep
párraf o</w>
c r
r o</w>
1 8</w>
o y
n eg
pe o
pri m
capaci dad</w>
or der</w>
un der
s in
as t</w>
h is</w>
t w
ag re
ativ a</w>
Rep ública</w>
d on
di al</w>
pre st
ef ec
en e
al th</w>
re st
con form
pri v
intern acionales</w>
arg o</w>
acc ord
si ble</w>
k s</w>
Gr upo</w>
dur ante</w>
u se</w>
pre ven
D es
ne w</w>
e qui
h o
c an
Ri ghts</w>
n umb
d ó
pre vi
con stitu
a um
al ity</w>
organiz ations</w>
t ot
econom ic</w>
d r
u er
t as</w>
cuesti ones</w>
li ber
aci on
ter i
mee ting</w>
h or
s ex
con si
0 00</w>
P ar
200 5</w>
paí s</w>
to das</w>
il e</w>
A l
vi s
cooper ación</w>
v er</w>
sec urity</w>
man d
form a</w>
seg u
1 3</w>
l ab
dó lares</w>
ma in
ac h</w>
sist ance</w>
cooper ation</w>
ami li
in a</w>
u al</w>
f e
S er
spe ci
200 6</w>
S eg
j un
li min
J un
l d</w>
re fer
ad or</w>
fuer z
1 6</w>
Re public</w>
ver s
L e
d raft</w>
mi embros</w>
c er
si a</w>
es os</w>
m emb
faci lit
W or
numb er</w>
D ev
uti liz
fic ación</w>
pro gres
Intern acional</w>
ag ement</w>
m ul
si g
fun d
Confer ence</w>
l ob
de clar
res ult
200 8</w>
fol low
j usti
Dev elop
paragrap h</w>
leg al</w>
di ci
é r
cons ult
P er
est á</w>
effor ts</w>
ex ist
s er</w>
E con
an to</w>
situ ación</w>
s ing</w>
p ur
ma y</w>
con clu
ic os</w>
b r
ed er
bi en
rel ación</w>
so lici
e qu
k e</w>
a il
l ar
A u
resour ces</w>
Derech os</w>
ade más</w>
re e</w>
au tor
rit ori
S r.</w>
wh o</w>
n on</w>
fin an
So cial</w>
ar ds</w>
mi lit
n olog
g ener
or s</w>
200 7</w>
ex per
mej or
201 0</w>
provi de</w>
pro pos
200 9</w>
f amili
tak en</w>
lev el</w>
du ci
res ul
I C
1 ;</w>
&#9 1;</w>
pr ác
1 7</w>
n acionales</w>
ó r
3 ;</w>
&#9 3;</w>
pro por
200 4</w>
dur ing</w>
sec tor</w>
g ar
de ber
serv ices</w>
al es
mi entos</w>
er on</w>
as sistance</w>
i os</w>
z ar</w>
su m
si onal</w>
pl es</w>
re co
ens ure</w>
for e</w>
d res
re li
ri ght</w>
fici na</w>
civi l</w>
O ffic
an a</w>
dis posi
ini ci
u p</w>
Confer encia</w>
tr a
2 1</w>
am ento</w>
pa z</w>
protec ción</w>
pers ons</w>
pl an</w>
t om
si ve</w>
I D
id enti
si gn
t ación</w>
c an</w>
an c
abl es</w>
h ac
niv el</w>
v ol
Develop ment</w>
ament ales</w>
memb ers</w>
bun al</w>
ab ility</w>
. 1</w>
r a</w>
to res</w>
Sec urity</w>
t al
1 9</w>
ativ o</w>
ac t</w>
n os</w>
Seg uridad</w>
str um
fur ther</w>
ales tin
fun cion
al gun
M r.</w>
com pe
2 5</w>
hab ía</w>
proc eso</w>
issu es</w>
j er</w>
em s</w>
fi c</w>
d en
tic as</w>
ad dres
ex pl
s ome</w>
3 1</w>
form ul
provi ded</w>
po li
in strum
to do</w>
ti me</w>
part y</w>
m at
educ ation</w>
Presid ente</w>
c ambi
mit ted</w>
cu enta</w>
ud ge
at en
ou t
vir on
tot al</w>
ad di
pro jec
lo gr
human it
m ant
o un
program mes</w>
z on
alu d</w>
finan cial</w>
dat os</w>
rel ev
pl en
cum pli
proc ess</w>
mi gr
tr ain
r ati
b it
tw o</w>
ch ang
S pe
tu d</w>
201 1</w>
or ity</w>
with in</w>
us o</w>
vi sión</w>
he alth</w>
tak e</w>
M i
Hum an</w>
exam en</w>
l ed</w>
e jecu
De part
bu t</w>
200 3</w>
si on
Pro to
inte res
2 2</w>
im pro
com b
b asi
peo ple</w>
ev er</w>
mer o</w>
200 0</w>
tur al</w>
í fic
ac uer
de ten
an s</w>
Spe cial</w>
é c
conform idad</w>
G roup</w>
Euro pe
shi p</w>
ro l</w>
em p
a k
des de</w>
g ar</w>
pl az
gan is
tien e</w>
ac tion</w>
ati s
ar a</w>
ab a</w>
de fin
puest a</w>
polític as</w>
deci sion</w>
li ties</w>
ativ es</w>
medi ante</w>
st af
1 5
are as</w>
co uld</w>
es as</w>
n ú
ic as</w>
ac coun
for m</w>
str ateg
eng th
200 2</w>
or is
cur r
2 4</w>
T ri
el abor
in f
b ene
sh all</w>
de be</w>
su st
ep t
Offic e</w>
on ly</w>
po dr
2 3</w>
lob al</w>
a ir
e t</w>
y ear
ov er</w>
est udi
e ty</w>
ber n
i f</w>
am pli
&apos ;</w>
li mit
am e</w>
ori ties</w>
re fu
s ch
ac h
O ficina</w>
fir st</w>
t ema</w>
requ est
mis mo</w>
year s</w>
relev ant</w>
v al
protec tion</w>
esti ón</w>
arm as</w>
E special</w>
ex t</w>
r ul
n at
rel acion
inform es</w>
Des arrollo</w>
de mo
c ada</w>
bas ed</w>
rel ated</w>
v en</w>
ter s</w>
peri od</w>
v o</w>
a to</w>
M ar
x im
ne ed</w>
in d
g s</w>
n om
mi ti
comun ic
follow ing</w>
empl e
train ing</w>
loc al</w>
o m</w>
gu bern
nucl ear</w>
an za</w>
B o
co st
adop ted</w>
c ab
s el
200 1</w>
ativ os</w>
h eld</w>
o fici
develop ing</w>
v ari
con duc
ant s</w>
cuesti ón</w>
respon s
str ength
Mini str
be ing</w>
pres u
nú mero</w>
b re
man agement</w>
cas os</w>
ini ti
ing s</w>
ent ly</w>
th an</w>
em ente</w>
lab or</w>
pue de</w>
ot e</w>
staf f</w>
F eder
esti m
M I
en di
201 2</w>
po bl
mar co</w>
ter ritori
mater i
Dec lar
in ci
s alud</w>
199 5</w>
ac hi
the m</w>
lo w</w>
m s</w>
p úbl
A C
di a</w>
Hum anos</w>
su per
in s
ag u
bu il
fu l</w>
un tos</w>
5 0</w>
b udge
en ces</w>
A f
poli tical</w>
Di rec
reg ard</w>
2 6</w>
Le y</w>
ag enda</w>
cu ando</w>
mo st</w>
P ol
1 3
cor respon
aci a</w>
deci sión</w>
Is ra
re duc
y ear</w>
con ven
199 4</w>
i es</w>
educ ación</w>
19 8
s al
m ust</w>
of fic
ca us
ec er</w>
part es</w>
ic al</w>
com pro
i gu
ic an</w>
com e</w>
ur g
v í
R eg
in st
es fuerz
mu ch
vi g
un t
re view</w>
a ño</w>
b an
im p
proce di
pres ente</w>
E n
Dec ember</w>
e fic
1 .
indi vi
ent ar</w>
199 9</w>
C O
dici embre</w>
t éc
2 7</w>
situ ation</w>
may or</w>
mater ia</w>
O c
en viron
ari at</w>
Tri bunal</w>
aten ción</w>
mu jer</w>
ór gan
terr oris
es s
h ech
polític a</w>
T he</w>
cont rol</w>
fi g
cas o</w>
199 8</w>
compl e
man y</w>
n ing</w>
ai d</w>
199 6</w>
bi lidad</w>
L i
di f
polic y</w>
chil d</w>
Con stitu
sec ret
T A
ou th</w>
Ad ministr
partic ul
s olu
P l
ú l
reg ul
commun ity</w>
am e
indivi du
2 8</w>
p as
mul ti
un d
ri g
par ties</w>
fi ed</w>
par t</w>
b ase</w>
199 7</w>
b ec
incre as
ec anis
propor cion
proy ec
d om
ci r
G u
il y</w>
wh ile</w>
v ic
c am
fic ation</w>
port un
Organiz ación</w>
sin ce</w>
int ro
pre ci
accord ance</w>
rec ei
or ía</w>
repor ts</w>
A n
h er
i de
ci a</w>
b ility</w>
appro pri
i ci
recomend aciones</w>
on d</w>
p at
th er
di ver
a w
c rit
cu s
con fer
wh ere</w>
recommend ations</w>
empl oy
respec t</w>
particip ación</w>
Program a</w>
up os</w>
entr o</w>
pro m
bl es</w>
A m
nic al</w>
ag es</w>
in ten
M e
en d</w>
si do</w>
establish ed</w>
R el
h ol
se a</w>
per tin
enc y</w>
am ong</w>
ur al</w>
financi er
al ia</w>
h ow
reli gi
pe ace</w>
how ever</w>
effec tive</w>
cu los</w>
D is
gr upos</w>
n ica</w>
acc ess</w>
am ental</w>
jur í
F or
f on
est án</w>
the re
disposi ciones</w>
pre ocup
mil l
mi t</w>
le y</w>
ch a</w>
t ar</w>
g ast
g estión</w>
esfuerz os</w>
ex c
2 9</w>
wor k
ar ly</w>
w s</w>
1 4
se t</w>
tor s</w>
estr uc
e limin
a im
Organiz ation</w>
b ot
st eni
acc eso</w>
reuni ón</w>
viol encia</w>
gar anti
abi lidad</w>
cas es</w>
ac ción</w>
tain ed</w>
or ganis
capaci ty</w>
á m
pu bl
con secu
hac er</w>
ab out</w>
continu e</w>
ve z</w>
lu gar</w>
F r
fig ur
regi onales</w>
201 3</w>
ad v
m ecanis
l ec
di stri
distri bu
condi ciones</w>
I II</w>
fi cial</w>
er an</w>
Presid ent</w>
dis cus
medi o</w>
t anto</w>
g lobal</w>
institu ciones</w>
1 8
c al
il l
ex to</w>
L .
C u
199 3</w>
es fer
pres ent</w>
seg ún</w>
am os</w>
fr ica</w>
c ent
l lev
bot h</w>
necesid ades</w>
ta in</w>
f re
viol ence</w>
ex peri
puest os</w>
s ol
t reat
re a</w>
E S
prin ci
sust ain
proyec tos</w>
in t</w>
pue den</w>
art a</w>
Program me</w>
ci onal</w>
vi si
Part es</w>
cor por
P alestin
govern mental</w>
ver y</w>
neces s
publ ic
li on</w>
I V</w>
t re
as oci
tic o</w>
wor king</w>
op ini
gubern amentales</w>
gro up
inv ol
sig ni
pobl ación</w>
M ember</w>
ser i
ac to</w>
deb en</w>
M un
st o</w>
fu e</w>
mill ones</w>
í s
po pul
ec u
pen di
a m</w>
ha sta</w>
at or</w>
r as</w>
6 0</w>
norm as</w>
ap plic
signi fic
it al</w>
tien en</w>
ech anis
provi sions</w>
ac e
ay ud
2 .
docum ento</w>
con jun
Mi embros</w>
M on
compe t
ob jec
r aci
se sión</w>
pre v
de lit
institu tions</w>
rol e</w>
gast os</w>
d ay</w>
comun idad</w>
import ant</w>
si c
group s</w>
st as</w>
k no
tech nical</w>
import ante</w>
wh en</w>
s p
y ing</w>
v ul
á n
av ail
pro p
basi s</w>
appropri ate</w>
ori g
progres s</w>
er v
po lici
necess ary</w>
man era</w>
N or
de f
p an
li d
ev a</w>
ati on
str ic
t as
per o</w>
Mini ster
su f
hech o</w>
is h
P e
de red</w>
b aj
N ational</w>
obje tivos</w>
l and</w>
señ al
T er
Afr ica</w>
g é
ci n
tin gs</w>
Mun dial</w>
des tin
liber t
Tr abaj
proc ed
ob st
an u
in e</w>
an ia</w>
t end
ame work</w>
j o
regi str
I ra
it em</w>
t ul
sex ual</w>
s h</w>
Re present
mon it
se e</w>
C .
m é
dis tin
ater al</w>
consider ation</w>
for tal
recon oci
V i
c ase</w>
not a</w>
k ed</w>
pos sible</w>
pl ac
vol unt
ten er</w>
E l</w>
enci es</w>
L a
discrimin ación</w>
a z</w>
as pec
ci onales</w>
com erci
form ación</w>
be fore</w>
c all
ab an</w>
t em
Trabaj o</w>
ar án</w>
a la</w>
budge t</w>
emb argo</w>
ari an</w>
t res</w>
f av
s aid</w>
g e</w>
Ac t</w>
import ancia</w>
result ados</w>
am ent</w>
F in
so steni
nu estr
1 6
ig n</w>
j uni
Bo ard</w>
al dad</w>
em pe
qu e
inde pend
at ori
Jun e</w>
di es</w>
posi ble</w>
sch o
ed s</w>
men os</w>
ab o
m echanis
s an
wor ld</w>
pl ace</w>
necesid ad</w>
é g
juni o</w>
en h
4 0</w>
th ree</w>
c ateg
tiv as</w>
wh e
pro hi
C i
e ve</w>
h en
s ame</w>
c tim
as ses
em pres
el s</w>
1 7
tr adi
uni ties</w>
S ud
mejor ar</w>
si bility</w>
li o</w>
Econ om
puest as</w>
órgan os</w>
promo ver</w>
Co ur
cambi o</w>
gen der</w>
acuer do</w>
ul y</w>
dat a</w>
r ang
buil ding</w>
per man
so lid
í n
espe cial</w>
estr ateg
regi ón</w>
af ter</w>
concern ed</w>
ow n</w>
el o
chang e</w>
f al
polici es</w>
di rig
algun os</w>
mee tings</w>
at ten
com pr
with out</w>
N u
Isra el</w>
stan d
en ing</w>
ví ctim
si v
ac k</w>
E R
eni miento</w>
aliz ación</w>
y e</w>
pr ac
g a</w>
an teri
achi ev
c li
speci fic</w>
v in
m an</w>
s ó
th ir
h om
sigui ente</w>
en cour
evalu ación</w>
il it
P en
b res</w>
p ti
ma j
t en</w>
ful l</w>
Jun ta</w>
we ap
organis mos</w>
em er
ju di
ó g
demo cr
of f
a ve</w>
or ing</w>
Á frica</w>
ma ke</w>
i an</w>
probl emas</w>
pers on</w>
judi cial</w>
N e
Wor ld</w>
inv it
ant e
com mit
m a</w>
Par ties</w>
pertin entes</w>
di ó</w>
om ento</w>
C or
ar reg
f air
j ud
en ded</w>
vir tud</w>
Cour t</w>
re duci
g re
soci edad</w>
C ri
in du
d o
ejecu ción</w>
discrimin ation</w>
s ur
di o</w>
funcion arios</w>
ic ul
, 000</w>
mun dial</w>
vi da</w>
ay s</w>
mil lion</w>
deleg ation</w>
e ti
u r</w>
gé ner
s atis
commun ic
hi gh
ej empl
presu puesto</w>
ac ts</w>
P NU
o l</w>
propos ed</w>
em po</w>
gn iz
am ily</w>
C ha
ade cu
col abor
conc ep
Un idos</w>
ti empo</w>
avail able</w>
requi re
Econom ic</w>
sup por
h el
vul ner
are a</w>
Ira q</w>
Afr ican</w>
fec ha</w>
gr upo</w>
c y</w>
financi ación</w>
hab ían</w>
t es</w>
cul tural</w>
e ach</w>
rel ativas</w>
obier nos</w>
dic o</w>
sub jec
bi en</w>
p e</w>
pro pi
popul ation</w>
st er</w>
D em
af ec
auth orities</w>
Econ óm
emple o</w>
regi on</w>
posi ción</w>
pu ed
deleg ación</w>
reco gniz
it o</w>
ci ud
í ci
seg un
soci ety</w>
su c
sem in
inclu de</w>
ap por
sigui entes</w>
Ad d
ñ as</w>
UN C
kno w
ag ed</w>
medi os</w>
vi sion</w>
autor idades</w>
fr amework</w>
A mer
not e</w>
incre ase</w>
I O
fair s</w>
b il
organiz ación</w>
particul arly</w>
provi sional</w>
ex is
J uly</w>
continu ed</w>
up on</w>
zon as</w>
E F</w>
as eg
enc arg
capaci tación</w>
N acional</w>
ju lio</w>
4 8</w>
pri or
an ex
gu ar
on g
consi dered</w>
ne eds</w>
bo dies</w>
i d</w>
z o</w>
reuni ones</w>
h al
sub mitted</w>
tran si
N o
accoun t</w>
us ed</w>
ejempl o</w>
D P</w>
milit ary</w>
reg ar
v es</w>
particip ation</w>
ñ a</w>
est os</w>
Minister io</w>
tra de</w>
vari ous</w>
o portun
di fic
Pl an</w>
g roup</w>
E N
ap pe
b a</w>
gi ven</w>
se qu
s en
mand ato</w>
con struc
dif fer
mun do</w>
5 1</w>
s s</w>
at t
pe di
pol ice</w>
Per man
i endo</w>
re sid
- -</w>
h u
ma in</w>
to w
prom ote</w>
not ed</w>
l abor
di fer
e ares</w>
con oci
fund amental</w>
pu és</w>
bi a</w>
ati c</w>
c en
conc ret
est as</w>
í gen
. 000</w>
hi gh</w>
for ce</w>
pl y</w>
se ver
á fic
p un
t ob
hor as</w>
form as</w>
issu e</w>
bene fici
an al
La w</w>
re ign</w>
Europe an</w>
develop ed</w>
w ay</w>
in o</w>
cumpli miento</w>
Dem oc
sustain able</w>
gen ous</w>
des pués</w>
ori ent
ni um</w>
pen s
un o</w>
ri s
st e
igu aldad</w>
J usti
f ocu
p ap
conflic t</w>
res erv
fun c
tec nolog
d ar</w>
Ser v
deci siones</w>
Ch il
soci ales</w>
es p
appor te
F on
ex ten
in corpor
gen cy</w>
l arg
am oun
requi red</w>
v o
at u
at er</w>
oper aciones</w>
c are</w>
Direc tor</w>
o ds</w>
obje tivo</w>
docu ment</w>
o k</w>
A sia</w>
represent antes</w>
só lo</w>
r á
pre hen
legisl ación</w>
fi f
mant enimiento</w>
H e
pur su
de pend
S outh</w>
condi tions</w>
M is
neces ario</w>
M al
legisl ation</w>
cab o</w>
actu al</w>
co l</w>
nucl eares</w>
ac tos</w>
4 9</w>
Ministr y</w>
col o</w>
F und</w>
ar me</w>
au se</w>
Secret aría</w>
f e</w>
Su b
Secret ariat</w>
L a</w>
de st
lev els</w>
de sign
humanit arian</w>
po bre
N ov
pobre za</w>
víctim as</w>
crimin al</w>
er o</w>
pro t
tiv ely</w>
In stitu
v alu
ti z
coordin ación</w>
sec ond</w>
po ver
addi tional</w>
princip ios</w>
p h
import ance</w>
for c
vers al</w>
addi tion</w>
n el</w>
g obiernos</w>
all eng
cri sis</w>
dis pon
dic e</w>
plaz o</w>
b á
ful ly</w>
obje to</w>
aseg ur
t an</w>
ag encies</w>
gr an</w>
s pec
or a</w>
l l
Part e</w>
S ept
D E</w>
res pe
libert ad</w>
Oc tob
tu bre</w>
concern ing</w>
Octob er</w>
equi p
es tion</w>
th ou
oc tubre</w>
apo y
ne x</w>
Wor king</w>
cu al
n i</w>
fi eld</w>
re f
ter m</w>
n ing
otr a</w>
promo ción</w>
cre ación</w>
h er</w>
especi almente</w>
pover ty</w>
Uni ón</w>
si mo</w>
no vi
whe ther</w>
gi ados</w>
projec t</w>
ecu tive</w>
multi l
anex o</w>
provi sion</w>
addres s</w>
f y</w>
6 3</w>
curr ent</w>
ti on
ta king</w>
aum ento</w>
es per
Nov ember</w>
pe ace
at ory</w>
Depart ment</w>
logr ar</w>
Fon do</w>
vis ory</w>
novi embre</w>
prác tica</w>
stat us</w>
represent atives</w>
ha y</w>
to da</w>
Ch ina</w>
IC EF</w>
Depart amento</w>
arm ament</w>
ch alleng
st s</w>
contr at
arreg lo</w>
proc es
ac y</w>
intro duc
request ed</w>
fun ción</w>
efec tos</w>
satis fac
deber ía</w>
sel f</w>
princip ales</w>
prác ticas</w>
I N
No .</w>
vi a</w>
prehen sive</w>
Sept ember</w>
fon dos</w>
se pti
sosteni ble</w>
ó di
o ti
ab ri
s af
re it
at ely</w>
es cu
resolu tions</w>
cu al</w>
septi embre</w>
t amente</w>
jur is
garanti zar</w>
el los</w>
i ficación</w>
establish ment</w>
apporte ur</w>
u g
asses s
Reg i
fr on
B an
otr o</w>
im pl
ing res
201 4</w>
declar ación</w>
defin i
tr av
re main
t l
re vi
el lo</w>
ener g
3 5</w>
adop tion</w>
correspon di
inf ra
f amily</w>
trat a</w>
al o
5 2</w>
require ments</w>
a in</w>
an o</w>
I r
ar an</w>
W omen</w>
C an
des empe
sub stan
P R
a un
tic os</w>
reci b
ra z
ep ing</w>
projec ts</w>
af fec
person a</w>
establ ecer</w>
l amento</w>
a firm
v oc
ist án</w>
there fore</w>
in ver
cual qui
ev er
d y</w>
asi gn
t al</w>
justi cia</w>
p il
dic os</w>
19 7
M isión</w>
qu ed
Govern ments</w>
re ad
as si
R apporteur</w>
qu es</w>
ju ici
se t
medi da</w>
5 5</w>
v é
ri es
Mis sion</w>
4 5</w>
ke eping</w>
ol óg
en a</w>
iz ación</w>
rec ord
procedi mientos</w>
am b
UN ICEF</w>
n ed</w>
vi d
é simo</w>
Co ordin
géner o</w>
se par
priv ate</w>
b ro
tran j
Ac tion</w>
6 7</w>
investig ación</w>
deb ate</w>
ot ación</w>
des arrol
5 8</w>
nolog y</w>
y an</w>
neg oci
re fl
cont ext</w>
crit er
su fici
nuev o</w>
st ud
man i
as es
Uni on</w>
6 1</w>
person nel</w>
tr af
con tained</w>
sist emas</w>
H i
5 7</w>
os as</w>
Proto col</w>
199 2</w>
estableci miento</w>
ódi go</w>
concer n</w>
M ay</w>
K o
fu ture</w>
Proto colo</w>
T ur
stan ding</w>
abo ve</w>
employ ment</w>
re as
ke y</w>
Con s
ígen as</w>
or g
gr ad
i l</w>
con sist
mecanis mos</w>
qu estion</w>
lu cha</w>
ma yo</w>
t able</w>
wel com
atten tion</w>
ster i
p ag
polic ía</w>
oper ations</w>
ac er
requ est</w>
tim s</w>
request s</w>
enci on
indu stri
es pec
gro w
aj e</w>
rel ating</w>
Mar ch</w>
ex tranj
esti c</w>
gu e</w>
mis sions</w>
n ico</w>
económ ico</w>
aun que</w>
s om
6 5</w>
ad ic
t led</w>
tow ards</w>
respons abilidad</w>
cu er
mar zo</w>
ám bit
r á</w>
resolu ciones</w>
weap ons</w>
Af fairs</w>
fin al</w>
stat ement</w>
li fer
As untos</w>
an d
prac tic
em os</w>
segu ir</w>
cre ci
mand ate</w>
ro g
fre ed
3 3</w>
monit oring</w>
el es</w>
justi ce</w>
M u
ex clu
5 3</w>
loc ales</w>
lin es</w>
regar ding</w>
exc ep
cons ul
Declar ación</w>
inter pre
Pen al</w>
imp act</w>
ni ño</w>
b ri
j a</w>
an ces</w>
peri ó
ud it
hal f</w>
nuev as</w>
fun ciones</w>
m uni
po se</w>
M o
organiz ation</w>
Q u
eb los</w>
5 9</w>
3 2</w>
s c
f es
ver si
Declar ation</w>
ar t</w>
A R
h ace</w>
equi po</w>
m y</w>
indi genous</w>
cu ad
maj or</w>
mu y</w>
anal y
recei ved</w>
O b
posi tion</w>
or ías</w>
E S</w>
acti ons</w>
form s</w>
relacion adas</w>
prohi bi
oblig aciones</w>
R es
thir d</w>
J anu
tiv es</w>
ade qu
mo d
am entos</w>
agre ed</w>
prim er</w>
Janu ary</w>
res puesta</w>
re cl
materi al</w>
refu ge
du res</w>
h ou
ener o</w>
al can
P r
3 7</w>
trans par
per mit
ti po</w>
anci as</w>
re d
am in
cont exto</w>
económ ica</w>
expl o
v ement</w>
dom estic</w>
r up
téc nica</w>
appro ach</w>
In form
ci o</w>
E C
po w
sigu e</w>
p ública</w>
6 4</w>
prot eg
me ans</w>
ol s</w>
treat ment</w>
re stric
desarrol l
ha ya</w>
com prehensive</w>
lin e</w>
p s</w>
sever al</w>
subjec t</w>
com pon
C ol
m ember</w>
3 .
r en
coordin ation</w>
preven ción</w>
E duc
du ce</w>
vic tims</w>
mi sión</w>
an z
6 2</w>
l ed
b al
asi mismo</w>
fu tur
b an</w>
m encion
Cha ir
represent ative</w>
1 ,
3 4</w>
ist an</w>
fic king</w>
5 4</w>
á lo
refl ec
l leg
P ri
arm ed</w>
princi ples</w>
gr av
cualqui er</w>
d ol
públ ico</w>
F i
suc c
en ting</w>
3 6</w>
d entro</w>
t ly</w>
4 7</w>
consult as</w>
reg ular</w>
serv ice</w>
rul e</w>
trans fer
úl tim
examin ar</w>
hab ilit
ag ésimo</w>
TA D</w>
Ser vici
l s</w>
d ía</w>
enti tled</w>
per miti
E jecu
UNC TAD</w>
inici ativas</w>
is h</w>
c alidad</w>
docum entos</w>
increas ed</w>
m en</w>
proce dures</w>
cu anto</w>
ác ter</w>
car ácter</w>
especi ales</w>
resul t</w>
enti al</w>
de se
aliz ed</w>
emer g
know led
i miento</w>
ear ly</w>
a h
neg oti
instrum entos</w>
con solid
á li
rul es</w>
b us
v ent
y es</w>
ad qui
juris dic
tic s</w>
A pri
exis ting</w>
algun as</w>
er ra</w>
du e</w>
Apri l</w>
e th
comerci o</w>
Co oper
oc cu
celebr ada</w>
abri l</w>
po in
sh e</w>
5 6</w>
d ica</w>
espec ífic
le ad
des cri
Hi gh</w>
deb ido</w>
i di
u st
a za</w>
abi lities</w>
it u
vé ase</w>
especi ally</w>
int er</w>
G en
v arios</w>
ent emente</w>
centr os</w>
Ci vi
su g
it e</w>
com pli
ind ígenas</w>
li fe</w>
consi der</w>
dest ac
V I
mer c
pro fe
pa red</w>
e f</w>
ami entos</w>
C ódigo</w>
present ación</w>
th em
aplic ar</w>
esp aci
cl ear</w>
Ex ecutive</w>
exper tos</w>
Ne w</w>
ur ales</w>
ci d
pu eblos</w>
environ ment</w>
mo vi
aprob ación</w>
al im
represent ante</w>
refu giados</w>
C N
p es
6 6</w>
O S</w>
UN DP</w>
prim era</w>
ci er
pon er</w>
est ado</w>
respon sibility</w>
e vid
l ess</w>
cl os
ér ica</w>
o gr
t ados</w>
inclu ded</w>
ear ch</w>
adop ción</w>
import antes</w>
úl ti
ex pec
cost s</w>
d ate</w>
Co de</w>
ma king</w>
ciud ad
accord ing</w>
aliz ation</w>
mechanis ms</w>
utiliz ación</w>
posi bilidad</w>
A N
no w</w>
expres sed</w>
a port
inclu idos</w>
4 6</w>
y en</w>
ten iendo</w>
Ac ción</w>
produc tos</w>
escu e
administr ación</w>
J ap
Pro tec
P u
much os</w>
m all</w>
at ors</w>
PNU D</w>
repor ting</w>
preocup ación</w>
si an</w>
provi des</w>
eci miento</w>
P o
pl e
el em
impl ement</w>
strength en</w>
conflic tos</w>
an nu
3 9</w>
4 4</w>
ti tul
resul ts</w>
nom bre</w>
pe que
wh at</w>
s elec
si bi
fal ta</w>
B os
me th
S e
s ent
mar ke
est ar</w>
estruc tura</w>
C entr
empres as</w>
inv est
e ded</w>
observ aciones</w>
3 8</w>
le t
c er</w>
li dades</w>
ter ms</w>
d ra
reci bi
adopt ar</w>
on ia</w>
stand ards</w>
C arta</w>
pap el</w>
v enci
P A</w>
o di
den unci
pro lifer
res ol
agu a</w>
tiv amente</w>
fic ar</w>
m al
provi ding</w>
cur so</w>
le yes</w>
pr acti
colabor ación</w>
impro ve</w>
deci sions</w>
comunic ación</w>
emp ha
en fo
di d</w>
Rel ator</w>
thou gh</w>
ingres os</w>
struc ture</w>
Conven io</w>
rit ory</w>
esti ons</w>
um er
oblig ations</w>
practic es</w>
esfer as</w>
tr as</w>
jun to</w>
liz ación</w>
syst ems</w>
strength ening</w>
si x
ven es</w>
4 .
pre sid
Nu eva</w>
equ ality</w>
s enti
Y or
4 1</w>
artí culos</w>
an nex</w>
th s</w>
er os</w>
se e
fr ente</w>
bec ause</w>
ad ís
reit er
Yor k</w>
plac ed</w>
al tern
tu des</w>
1 00</w>
P acto</w>
govern ment</w>
baj o</w>
O NU
en señ
agre ement</w>
individu al</w>
s on
Europe a</w>
ó venes</w>
O per
as soci
pi de</w>
no ti
ur ing</w>
administr ative</w>
segu imiento</w>
S ra
Sra .</w>
4 2</w>
contribu tions</w>
é x
en io</w>
environ mental</w>
t all
fac t</w>
en cu
N i
sec tion</w>
cam pa
s as</w>
ac ífic
c e
ex tr
nuev os</w>
establ ec
inde pendi
acuer dos</w>
reduc ción</w>
M an
trans port
Ad visory</w>
si di
terroris mo</w>
UN O
os la
differ ent</w>
p alestin
ho w</w>
rel ativa</w>
ev en</w>
ug osla
integr ación</w>
agr icul
ej erci
hor a</w>
C ari
estableci do</w>
Palestin ian</w>
H C
fuerz as</w>
aim ed</w>
relacion ados</w>
ens a</w>
si z
s .</w>
elec tr
addres sed</w>
d ated</w>
dic h
amoun t</w>
esfer a</w>
aspec tos</w>
fol low</w>
acer ca</w>
N º</w>
ac og
col lec
S y
ar rang
con ten
su s
su peri
men ores</w>
t arg
ci tiz
as s
álo go</w>
traf ficking</w>
Tr an
d ías</w>
podr ía</w>
probl ems</w>
Cons ul
Tr at
l ong</w>
gener ales</w>
en s</w>
pers pec
l ament
fici ent</w>
nic as</w>
ti al</w>
t ado</w>
Ex per
4 3</w>
tem por
alo gue</w>
j óvenes</w>
mi so</w>
l í
docum ent
t el
c argo</w>
fun ds</w>
Y ugosla
co st</w>
assess ment</w>
tor al</w>
T ra
g reat
may oría</w>
re ro</w>
ni a</w>
so ur
l ic
integr ation</w>
199 1</w>
A ra
princip io</w>
C entro</w>
Am érica</w>
pen al</w>
fi sc
territori o</w>
mi siones</w>
ra is
per form
repor ted</w>
be li
asegur ar</w>
g os</w>
tech nology</w>
viol aciones</w>
Is l
am en
read y</w>
rec ent</w>
l ack</w>
ris k</w>
financier os</w>
o gi
199 0</w>
r ural</w>
delit os</w>
bl o</w>
áli sis</w>
Centr al</w>
respon se</w>
adequ ate</w>
car ri
2 7
l l</w>
cons en
pro puesta</w>
inci d
si de</w>
re habilit
princip al</w>
n er</w>
uni versal</w>
lan gu
min u
A S</w>
at a
Ara b</w>
ex tern
produc ción</w>
sid ad</w>
Co ven
raci al</w>
ad ap
I m
centr al</w>
preven tion</w>
aw ar
hi st
bit r
secret aría</w>
eg u
c ru
6 8</w>
aum entar</w>
Li ber
M A</w>
Constitu ción</w>
elo p</w>
Cri min
applic ation</w>
viol ations</w>
pos t</w>
struc ción</w>
v el
inter és</w>
ic ana</w>
contribu ciones</w>
f ree</w>
com par
Com i
an da</w>
qu ality</w>
Constitu tion</w>
fin es</w>
w ater</w>
si m
ex i
as es</w>
res t</w>
facilit ar</w>
continu ación</w>
ou s
T reat
C E
not es</w>
proced ure</w>
. 4</w>
delit o</w>
establi sh</w>
h on
de li
F eb
tur ales</w>
consult ations</w>
vi vi
promo tion</w>
mis sion
tecnolog ía</w>
vig il
Feb ru
f eb
P an
Febru ary</w>
arm on
si endo</w>
A b
feb rero</w>
sti ll</w>
cer tain</w>
peo ples</w>
F o
at ég
Crimin al</w>
deci ded</w>
no v
t emas</w>
ret ur
probl ema</w>
procedi miento</w>
ab ord
com p
aum ent
re as</w>
H er
n as</w>
es es</w>
th us</w>
fund amentales</w>
Coven ant</w>
w a
UN F
ag o
to d
pro puestas</w>
comun idades</w>
ffic ul
ti l</w>
exam ple</w>
O N
pos ed</w>
2 8
at ro</w>
cu ent
a u</w>
fi ve</w>
signific ant</w>
f er</w>
di fficul
B el
guar ante
rec all
ex erci
est o</w>
cont rol
li sta</w>
mant en
i as</w>
or den</w>
s mall</w>
r ía</w>
dev elop</w>
t ro
pre sión</w>
201 5</w>
nic os</w>
recom i
ID A</w>
b en
mej or</w>
reduci r</w>
mat ters</w>
segun do</w>
me dic
a ún</w>
estrateg ia</w>
g an</w>
sin o</w>
v ac
fuer on</w>
pro per
Serv ice</w>
des arme</w>
Au g
incl uso</w>
m ob
zon a</w>
C entre</w>
vie ws</w>
y o
E m
challeng es</w>
respon sible</w>
Con go</w>
pl oy
cri me</w>
Au str
n ers</w>
in come</w>
an other</w>
commit ment</w>
g ir
or ia</w>
an álisis</w>
pre gun
la ws</w>
E s
com mitted</w>
A L</w>
Dis crimin
se an</w>
plan es</w>
compl ain
scho ol</w>
do es</w>
civi li
m i</w>
Aug ust</w>
rest s</w>
secret ariat</w>
consecu encia</w>
dis armament</w>
deten tion</w>
. 2</w>
pe ti
th ers</w>
z er
tu al</w>
al leg
progres os</w>
for ces</w>
docu ments</w>
dis capacidad</w>
ago sto</w>
call ed</w>
cumpli r</w>
R w
f our</w>
li ght</w>
cu st
comm on</w>
fo od</w>
Bos nia</w>
en ess</w>
li ke</w>
in ess</w>
com plement
de part
re fi
initi atives</w>
n ess</w>
practi ce</w>
ambi ente</w>
acti ve</w>
In ter
m omento</w>
bá sic
ol er
efic az</w>
senti do</w>
con nec
tr ices</w>
adopt adas</w>
C am
annu al</w>
cu atro</w>
can di
di alogue</w>
plen amente</w>
en o</w>
f a
art er</w>
b eg
trat ados</w>
deten ción</w>
terroris m</w>
be half</w>
enseñ anza</w>
su ministr
recomi enda</w>
pat ri
C R
elabor ación</w>
conflic to</w>
di álogo</w>
re forma</w>
re form</w>
sp ace</w>
desempe ñ
Cu ba</w>
ide lines</w>
plan ning</w>
consecu encias</w>
b ur
servici o</w>
l ing</w>
result ado</w>
organiz ed</w>
plem enting</w>
pursu ant</w>
stat ements</w>
L ati
h í
es c
d ose</w>
t ales</w>
estudi o</w>
s ab
pri ority</w>
famili a</w>
cap ital</w>
ad amente</w>
strateg y</w>
of ficial</w>
arm s</w>
er n
n umer
qu ar
l argo</w>
pued an</w>
cour t</w>
consid era</w>
con f
bien es</w>
medi a</w>
deleg aciones</w>
d ers</w>
S oci
equip ment</w>
re vis
In dia</w>
al to</w>
our th</w>
cin co</w>
áfic o</w>
inclu ida</w>
r ate</w>
com i
Comi sion
tri bun
bien io</w>
inter ven
A T
produc tion</w>
pr ó
ai m</w>
nece si
2 9
t exto</w>
C ro
it ation</w>
ámbit o</w>
d ado</w>
inclu idas</w>
v arias</w>
Com mission
comm unities</w>
al is
y p
t on
po der</w>
eg al</w>
m ent
comunic aciones</w>
om a</w>
prepar ación</w>
for z
si to</w>
prev ent</w>
Amer ica</w>
res um
nuev a</w>
B ur
K u
af firm
awar eness</w>
multil ateral</w>
le ast</w>
E ast</w>
é st
grow th</w>
niv eles</w>
sug g
Económ ico</w>
pro fes
ade l
u eb
d ru
S om
recommend ation</w>
hel p</w>
figur a</w>
de dic
p one</w>
í es</w>
fl u
ci to</w>
ticl es</w>
fo reign</w>
T H
pro secu
princi ple</w>
de ta
a í
de liber
deleg ations</w>
er se</w>
Pre ven
C ul
basi c</w>
em i
al low
ci li
to ok</w>
i gn
3 0
2 ,
ex tre
estr atég
H IV</w>
al though</w>
ID S</w>
st ep
sec ción</w>
ner ship</w>
p a</w>
recomend ación</w>
prest ar</w>
j os</w>
6 9</w>
cre ar</w>
enci al</w>
en forc
milit ares</w>
agre ements</w>
fun ding</w>
res earch</w>
st res
w ays</w>
let ter</w>
R ec
lab our</w>
des plaz
refer encia</w>
hab er</w>
pr ueb
ous ly</w>
invol ved</w>
iz ed</w>
dispon i
deber ían</w>
I S
h acia</w>
stan ces</w>
obst ante</w>
of fici
plan ificación</w>
pur pose</w>
Commission er</w>
conoci mientos</w>
ev it
ur a</w>
om s</w>
instrum ents</w>
a qu
previ ous</w>
al ready</w>
conc e
ofici ales</w>
ju dici
peri odi
O p
pue blo</w>
f il
com pens
rel aciones</w>
VI H</w>
compro miso</w>
mecanis mo</w>
oper ational</w>
si mil
tain ing</w>
mi ght</w>
el las</w>
seri ous</w>
fron ter
cu ales</w>
pu t</w>
especi aliz
treat y</w>
ac ept
determin ar</w>
men es</w>
ov ina</w>
ar bitr
R o
de tall
appro ved</w>
creci miento</w>
parti r</w>
últi mo</w>
work ers</w>
z eg
po steri
promo ting</w>
s k
enti dades</w>
li st</w>
jud g
freed om</w>
enfo que</w>
or amiento</w>
focu s</w>
7 7</w>
Her zeg
implement ed</w>
ac k
m ate</w>
M s.</w>
é n
Represent ative</w>
c arg
a red</w>
inst al
Herzeg ovina</w>
m ar</w>
nat ural</w>
ejerci cio</w>
ser á</w>
ch arg
opini ón</w>
ayud a</w>
A IDS</w>
cuad ro</w>
wi de</w>
m as
seri e</w>
un idad</w>
tor ture</w>
estrateg ias</w>
S up
Mini ster</w>
Feder al</w>
diver sos</w>
com eti
faci lities</w>
ex ig
pár r</w>
de más</w>
recl am
pró xim
lan ds</w>
objec tives</w>
ef ecto</w>
E limin
e z</w>
civi les</w>
I T
im en</w>
AC NU
carri ed</w>
ordin ario</w>
aprob ó</w>
con den
present ado</w>
ater ales</w>
vers as</w>
Austr alia</w>
n ation
Ar ticle</w>
Per s
e z
step s</w>
C C
im plementing</w>
curr ently</w>
tr as
ég imen</w>
recomm ended</w>
rel ativo</w>
r y</w>
os os</w>
R us
Regi onal</w>
suppor ted</w>
O S
li ving</w>
Represent ante</w>
val or</w>
orig in
au tor</w>
mu er
ne eded</w>
equ al</w>
i liz
po ten
olog ical</w>
conjun to</w>
jo int</w>
tiv ity</w>
d in
Consul tiva</w>
bien nium</w>
ofici nas</w>
A .</w>
financi ng</w>
i v
proce ed
ha yan</w>
struc tion</w>
a hora</w>
O F</w>
super visión</w>
aim s</w>
. 00</w>
ins pec
on ed</w>
dis puesto</w>
quar ters</w>
r endi
as ed</w>
est adís
m eses</w>
conduc t</w>
pl om
estruc tur
solici t
refuge es</w>
f om
ha ving</w>
issu ed</w>
figur an</w>
Cor te</w>
offic e</w>
oun g</w>
a vi
mat ter</w>
reduc tion</w>
eth ni
Su r</w>
trabaj adores</w>
S IDA</w>
proteg er</w>
st ated</w>
ni ñas</w>
Justi ce</w>
to ge
toge ther</w>
direc trices</w>
solu ción</w>
discus sion</w>
tribun ales</w>
strateg ies</w>
pa y
7 0</w>
S al
set tl
terr eno</w>
h s</w>
proc esos</w>
knowled ge</w>
Rw anda</w>
económ icos</w>
hom bres</w>
r égimen</w>
P ak
apro pi
Al to</w>
ac ciones</w>
qu in
cor rec
ens uring</w>
fu era</w>
ar ticles</w>
solici tud</w>
di versas</w>
Treat y</w>
inform al</w>
tul o</w>
as untos</w>
s ci
í tulo</w>
mani f
é t
affec ted</w>
prest ación</w>
scho ols</w>
ries go</w>
evalu ation</w>
sec tores</w>
J o
ord en
st atis
aj ust
neces arias</w>
di do</w>
er ship</w>
po sts</w>
ent h</w>
Me dio</w>
plan s</w>
teri or</w>
larg e</w>
arrang ements</w>
propos als</w>
Add .1</w>
sh or
con st
port unities</w>
Civi l</w>
O ri
recommend s</w>
fortal ecer</w>
gr an
p ir
Ku wa
Trat ado</w>
gir ls</w>
ex pend
t ation</w>
e fici
párraf os</w>
m n
cer ti
ex tra
mi ras</w>
qu é</w>
part ners</w>
mis os</w>
efic acia</w>
Di visión</w>
Co un
facilit ate</w>
in nov
co her
Pe o
ben ef
pri son
oportun idades</w>
priv ado</w>
actu almente</w>
ll am
ad quarters</w>
ever y</w>
cir c
c ed
great er</w>
go od</w>
mo do</w>
cu encia</w>
il íci
ciudad anos</w>
ref le
f em
achi eve</w>
ult ades</w>
UNF PA</w>
M il
inform ed</w>
compe ti
P az</w>
neces arios</w>
auth ority</w>
don de</w>
estudi os</w>
t ori
Chair man</w>
chang es</w>
Sub com
8 0</w>
i al</w>
S tr
mee t</w>
sum m
asoci ados</w>
Yugosla via</w>
go ing</w>
económ icas</w>
declar aciones</w>
stud y</w>
5 .
Feder ación</w>
Di vision</w>
escue las</w>
con sequ
H a
individu als</w>
C O</w>
re at</w>
Pol ític
Perman ente</w>
analy sis</w>
o so</w>
under taken</w>
res u
TH E</w>
ven ess</w>
financi era</w>
er cial</w>
con ex
mis ma</w>
strateg ic</w>
ther n</w>
en ed</w>
gu idelines</w>
li bre</w>
or as</w>
aprob ado</w>
ín im
al loc
R u
particip antes</w>
h ar
pre pared</w>
Gen eva</w>
p al
co sas</w>
famili es</w>
v al</w>
G in
ir á</w>
interes t</w>
po int</w>
D E
ebr a</w>
per pe
entr as</w>
present ar</w>
polític os</w>
medic al</w>
independ ent</w>
ac ter
con firm
trav és</w>
b est</w>
G e
perform ance</w>
mi entras</w>
m .</w>
Ch arter</w>
rel ativos</w>
N G
bet ter</w>
y oung</w>
p os</w>
ti vi
offici als</w>
paragrap hs</w>
proper ty</w>
er n</w>
7 3</w>
A l</w>
tri bunal</w>
limit ed</w>
muni cip
ex pan
ess ential</w>
or mente</w>
inten si
m ínim
ad ora</w>
B u
disposi ción</w>
abl emente</w>
realiz ar</w>
invest ment</w>
circ un
futur o</w>
col labor
offic es</w>
reconoci miento</w>
umb re</w>
ci pl
Ministr o</w>
m enti
ac es</w>
de man
an ual</w>
er ia</w>
our s</w>
transport e</w>
5 00</w>
manten er</w>
mo der
fi t</w>
c ro
5 0
Ob serv
famili as</w>
ol esc
probl em</w>
ar ing</w>
Gin ebra</w>
6 .
deta il
fortal ecimiento</w>
titul ado</w>
en able</w>
assi st</w>
ud a</w>
re ce</w>
sub sidi
cri mes</w>
sh o
1 º</w>
últim os</w>
in as</w>
regi ones</w>
ab ar
pi dió</w>
concep to</w>
ethni c</w>
C hi
señal ó</w>
peace keeping</w>
pos es</w>
compli ance</w>
b ar
milit ar</w>
ab e</w>
correspondi entes</w>
anc ed</w>
ve red</w>
a ur
P A
expec ted</w>
D C</w>
perío dos</w>
propos al</w>
ec es</w>
m ag
direc t</w>
protec t</w>
ne t
p ast</w>
negoci aciones</w>
refer red</w>
lo g
nat ure</w>
cent res</w>
proceed ings</w>
os p
l ast</w>
Perman ent</w>
Euro pa</w>
exper ts</w>
UN MI
fic ado</w>
fo und</w>
prim ary</w>
R E
empha siz
cor rup
recogniz ed</w>
gi ve</w>
sign ed</w>
pued a</w>
shi ps</w>
ab ier
e sia</w>
Pol ic
mo dific
cambi os</w>
Administr ación</w>
o ficial</w>
iz o</w>
Chil dren</w>
communic ation</w>
proporcion ar</w>
confer encias</w>
O I
y et</w>
P op
d om</w>
ases oramiento</w>
f omento</w>
in medi
tom a</w>
tor tura</w>
interes ados</w>
de ploy
au di
op portunities</w>
Chil d</w>
over all</w>
funcion amiento</w>
di plom
cuent as</w>
ap preci
cid ental</w>
a udit
enh ance</w>
w ard</w>
podr á</w>
20 0</w>
connec tion</w>
a us
gar ant
difer entes</w>
ning una</w>
offic ers</w>
atori o</w>
de c
Re ino</w>
iz ation</w>
S um
fif ty</w>
n es
A cuer
ge ogr
gu erra</w>
Rus sian</w>
func tions</w>
auth or
de cl
s í</w>
under standing</w>
Som alia</w>
re ti
particip ar</w>
aspec ts</w>
Justi cia</w>
k a</w>
N o</w>
pun ish
en nium</w>
institu cional</w>
comb ati
nom br
cir cum
er as</w>
observ a</w>
Democ rá
respe to</w>
Feder ation</w>
menti oned</w>
mon ths</w>
anteri or</w>
ag entes</w>
al c
an as</w>
G o
col on
9 0</w>
cour se</w>
rog as</w>
pli ed</w>
re produc
ach ed</w>
t ary</w>
n am
deci de</w>
ac us
superi or</w>
dis minu
si ca</w>
vig or</w>
ad res</w>
anti l</w>
Mil enio</w>
exerci se</w>
aliz ar</w>
conduc ted</w>
marke t</w>
ampli a</w>
refer ence</w>
bec ome</w>
Tran s
c .</w>
am end
E A</w>
compet encia</w>
ver age</w>
A gre
Ter ritori
presu puest
circun st
increas ing</w>
y ó</w>
st re
effec t</w>
elem entos</w>
contribu te</w>
grav es</w>
compr en
r se</w>
r ap
h op
elimin ación</w>
v ot
el ev
t ar
previ sto</w>
os a</w>
. .
ing l
situ aciones</w>
mechanis m</w>
diver si
con siguiente</w>
en fer
por que</w>
energ y</w>
poten tial</w>
el i</w>
Ban k</w>
públ icos</w>
Kuwa it</w>
an ía</w>
negoti ations</w>
ent er
man ner</w>
ter ritory</w>
ser ía</w>
tas a</w>
evid ence</w>
e ting</w>
A gency</w>
wor ks</w>
o thers</w>
fu sión</w>
exist entes</w>
mo de
ing ly</w>
rati c</w>
experi encia</w>
f í
á tica</w>
orig en</w>
K ing
prepar ation</w>
su stan
con fi
equ it
ti c</w>
dra w
communic ations</w>
econom ía</w>
ur ban</w>
dis cipl
In v
rec er</w>
al ist
ob tener</w>
Servici os</w>
Democ ratic</w>
F orm
rec or
ti veness</w>
tin a</w>
ur o</w>
u su
embr o</w>
juici o</w>
cul turales</w>
auth or</w>
B i
distribu ción</w>
ali ties</w>
compro misos</w>
citiz ens</w>
A p
ro b
ex port
con serv
vin cul
bo dy</w>
vie w
al idades</w>
Isra eli</w>
eg o</w>
Protec tion</w>
l ong
si x</w>
integr ated</w>
Mu jer</w>
c ed</w>
at ri
Comision ado</w>
se is</w>
est rech
re ment</w>
h in
t ext</w>
autor iz
M ill
ph y
elo w</w>
w ar
b elow</w>
Democrá tica</w>
don antes</w>
de grad
In don
s co
es col
su el
p tion</w>
benef its</w>
con sum
periodi c</w>
portun ity</w>
pal ab
institu tional</w>
é d
anci ng</w>
D el
sub ra
viol ación</w>
inclu ido</w>
Col om
contin g
contribu tion</w>
oblig ación</w>
adi cionales</w>
em or
hab it
Á r
L u
ier ra</w>
pro duci
deci dió</w>
a de</w>
fuer za</w>
des p
dich o</w>
pl ante
n ext</w>
a fr
f eder
King dom</w>
bus iness</w>
ingl és</w>
administr ation</w>
end s</w>
con ver
conclu siones</w>
er r
Gu in
ayud ar</w>
ari es</w>
inici ativa</w>
qu estions</w>
cir cul
contrat ación</w>
cab e</w>
ver i
pro b
sab er</w>
pli es</w>
P S</w>
E P</w>
cli mate</w>
w w
ac ro
tr os</w>
si tos</w>
or no</w>
ab use</w>
Su pre
p re</w>
n or
pr on
C A
b ai
Or ganis
go als</w>
e x</w>
form er</w>
Pan el</w>
ex change</w>
ci fr
atu to</w>
vi sta</w>
activi dad</w>
on d
financier as</w>
al g
st ate</w>
commit ments</w>
v ech
r ates</w>
sub mit</w>
concern s</w>
CO N
Mill ennium</w>
se ts</w>
recon o
básic os</w>
fav or</w>
of ten</w>
simil ar</w>
apoy ar</w>
sibi lities</w>
re al</w>
Tra de</w>
7 5</w>
A li
call s</w>
enforc ement</w>
en contr
di gn
de cre
st a
occu p
cour ts</w>
re affirm
con ci
end as</w>
adopt ado</w>
podr ían</w>
gu id
elec ciones</w>
proces ses</w>
electr ó
la w
trans fer</w>
í m
im medi
op portunity</w>
us os</w>
objec tive</w>
vigil ancia</w>
alim ent
intern al</w>
Ar gen
enc amin
in ed</w>
transi ción</w>
D ef
condi ción</w>
orient ación</w>
pa ñ
respec ta</w>
ver s</w>
determin ación</w>
Acuer do</w>
re duce</w>
categ oría</w>
identi fied</w>
IO N
segun da</w>
w ish</w>
V I</w>
ot as</w>
im plic
ex hor
ent ífic
S i
substan tive</w>
circum stances</w>
fin ales</w>
terr ori
estab i
it os</w>
regi ons</w>
ch o
mar cha</w>
Ru sia</w>
T or
it ems</w>
much as</w>
Guin ea</w>
energ ía</w>
emp re</w>
arm ados</w>
A g
gr ave</w>
op en</w>
la un
present ed</w>
id amente</w>
u ci
hol ders</w>
si empre</w>
tu vo</w>
trabaj os</w>
mun di
mon io</w>
in fr
anteri ores</w>
Ko so
Re fu
estab a</w>
qued a</w>
O M
re cu
j an</w>
in flu
am a</w>
experi ence</w>
ent ales</w>
mob iliz
establec e</w>
manif est
si onales</w>
f ourth</w>
G lobal</w>
nuestr a</w>
Sud án</w>
ad olesc
mor t
T ech
con venci
in sta</w>
dic as</w>
rá p
pur poses</w>
religi ous</w>
sigu en</w>
espaci o</w>
I P
cr éd
N ig
w ar</w>
He alth</w>
ten ance</w>
out come</w>
jurí dico</w>
g lob
resour ce</w>
compr endi
caus a</w>
expl otación</w>
de lin
suf ficient</w>
sic al</w>
abl y</w>
Af gh
. m.</w>
má xim
dis abilities</w>
d ays</w>
inter cambio</w>
rou ght</w>
ag ing</w>
particip ate</w>
En viron
í r
com ún</w>
at h</w>
hol d</w>
Indon esia</w>
ic s</w>
Koso vo</w>
interes es</w>
enti fic</w>
re mo
s cal
teri ores</w>
tr áfico</w>
Pu bli
t ér
prev é</w>
v ote</w>
b ed</w>
f ar</w>
f ail
fon do</w>
Po li
Inform ation</w>
legisl ative</w>
s a</w>
sub sequ
un til</w>
P .
poin ted</w>
indic ated</w>
posi tive</w>
circunst ancias</w>
tu vi
migr antes</w>
T im
t adas</w>
Agre ement</w>
a par
is ra
olu ción</w>
án dose</w>
reco g
rec ru
prolifer ación</w>
Un ido</w>
isra el
op s</w>
h izo</w>
enci ales</w>
Man agement</w>
si te</w>
R aci
cl ud
elabor ar</w>
ami c</w>
ab s
3 ,
fur ther
m arg
P aí
C umbre</w>
al e</w>
migr ation</w>
re main</w>
throu gh
merc ado</w>
inte rests</w>
eg a</w>
dific ultades</w>
por ts</w>
enti ties</w>
contribu ción</w>
ple ase</w>
O R
yo u</w>
F A
jurí dica</w>
estim ated</w>
esper a</w>
Liber ia</w>
en es</w>
d rogas</w>
ogi es</w>
Intern et</w>
W e
end encia</w>
confer ence</w>
C ap
present ó</w>
achiev ed</w>
regul ations</w>
ses sions</w>
raci s
vulner able</w>
ning ún</w>
v a</w>
dru g</w>
through out</w>
cre di
av ía</w>
cost os</w>
conc entr
fr u
P or
nu tri
Sud an</w>
revi sed</w>
F is
di se
dis semin
h og
educ ational</w>
Publi c</w>
inde mn
Institu te</w>
le ar
particip ants</w>
high er</w>
adel ant
tod avía</w>
órgan o</w>
posi bles</w>
nuestr o</w>
tér min
Com mun
Con t
hi m</w>
correspondi ente</w>
et ap
gro und</w>
UN A
recu per
comb at</w>
succ ess
alc ance</w>
ti l
A zer
impro ving</w>
un os</w>
opini ones</w>
est ed</w>
wh ose</w>
intern os</w>
mo tivos</w>
pen a</w>
preven ir</w>
Institu to</w>
w ish
pul s
investig aciones</w>
L eb
Ha it
main tenance</w>
hu bi
D I</w>
h osp
HC R</w>
mé todos</w>
4 0
Sum mit</w>
I tal
señ ala</w>
en vi
a part
Leb an
remain s</w>
ex t
min orías</w>
apro vech
bil ateral</w>
UN HCR</w>
Azer bai
UN EP</w>
infra structure</w>
inform ó</w>
de al
sta ke
z ado</w>
acc ep
R ev
In t
independi ente</w>
polític o</w>
oper ation</w>
langu age</w>
situ ations</w>
y s</w>
dis ast
encu entr
fl exi
territori os</w>
on going</w>
des ast
pow er</w>
.. .</w>
pro stitu
fu entes</w>
For um</w>
Euro pe</w>
O s</w>
ér di
Argen tina</w>
deci r</w>
públ icas</w>
J er
de m
en fr
distin tos</w>
ol e</w>
valu e</w>
evit ar</w>
autor idad</w>
independ encia</w>
volunt ary</w>
mu estr
Paí ses</w>
el er
prior idades</w>
min as</w>
má tico</w>
qui si
po t
ACNU R</w>
alcan zar</w>
Un it</w>
sec tors</w>
con su
te ach
c ó
effec tively</w>
solici tudes</w>
p érdi
est u
D ar
ampli o</w>
ob ten
indic adores</w>
For o</w>
saf ety</w>
infra estructura</w>
com pan
st ers</w>
V ic
re per
Add .
Can ad
inf antil</w>
7 2</w>
ob ern
sol o</w>
Canad á</w>
conform e</w>
recono ce</w>
pro to
Colom bia</w>
enfer me
retur n</w>
dic ha</w>
materi ales</w>
an dia</w>
denunci as</w>
consider able</w>
ed ores</w>
Re port</w>
civili an</w>
instrum ento</w>
c arta</w>
criter ios</w>
sufici ente</w>
satisfac ción</w>
di fusión</w>
Can ada</w>
ar s</w>
prohi b
for ward</w>
realiz ación</w>
dif íci
Educ ation</w>
Pr in
T o</w>
J ef
p ing</w>
bene fit</w>
Ni ño</w>
inclu ir</w>
dis pu
al low</w>
pun to</w>
de ath</w>
re patri
compro me
further more</w>
desp ite</w>
e es</w>
gubern amental</w>
om in
humanit aria</w>
pl á
str u
Me eting</w>
intro duci
h ear
f ying</w>
effec ts</w>
pri or</w>
i re</w>
ad oras</w>
direc tly</w>
reg lamento</w>
de fici
phy sical</w>
investig ation</w>
judici ales</w>
J am
ind ica</w>
A S
constitu ye</w>
i str
especializ ados</w>
e za</w>
Cooper ation</w>
re par
econom y</w>
adqui si
O R</w>
trat amiento</w>
Pri m
lu g
welcom ed</w>
un ds</w>
inter governmental</w>
speci alized</w>
discus sions</w>
cl ose</w>
mat ri
conf id
inclu ye</w>
introduc ed</w>
govern ance</w>
G aza</w>
th en</w>
st ed</w>
r án</w>
3 00</w>
di men
tu res</w>
prohibi ción</w>
ach es</w>
pedi r</w>
us ing</w>
tr ad
demo str
de mon
In formación</w>
en e</w>
ter cer</w>
G er
elec tions</w>
D ep
est at
sub regional</w>
S ierra</w>
pl ant
contribu ir</w>
th reat
pro mul
effec tiveness</w>
Serv ices</w>
fom entar</w>
financier o</w>
exist e</w>
acc es
nat urales</w>
sur ve
dis pone</w>
k in
acog e</w>
á tico</w>
profe sional</w>
pu di
h an
ch ar
L ab
str y</w>
propi edad</w>
ati es</w>
mi embro</w>
lug ares</w>
en mi
UN I
acífic o</w>
cl aims</w>
demon str
pes ar</w>
realiz ados</w>
B ang
efec tu
ban o</w>
at oria</w>
es ca
L A</w>
Discrimin ation</w>
Str ateg
d one</w>
7 .
at os</w>
pre limin
ex plic
li p
estabi lidad</w>
construc ción</w>
R A
a k</w>
fr ag
afirm a</w>
c era</w>
f ab
ap h
mu ch</w>
an se</w>
ad ul
comm ents</w>
de tec
tri al</w>
targ e
und i</w>
oportun idad</w>
ch i
Ejecu tivo</w>
hou sing</w>
exc e
initi al</w>
z ación</w>
reg im
ef fici
uni ón</w>
much o</w>
Re view</w>
er ras</w>
F uer
som e
cost o</w>
ti do</w>
e ren</w>
effor t</w>
formul ación</w>
Peo ple</w>
indic ators</w>
d oc
el eg
caus as</w>
respon sibilities</w>
h ours</w>
1 2
ac tivity</w>
plen a</w>
ap plied</w>
can not</w>
Bur undi</w>
initi ative</w>
sour ces</w>
sh ed</w>
Derech o</w>
respec tive</w>
iz a</w>
ta reas</w>
ten gan</w>
pa id</w>
li a</w>
re in
M A
bene plá
beneplá cito</w>
j ust</w>
trat ado</w>
tecnolog ías</w>
observ ations</w>
esca la</w>
develop ments</w>
st os</w>
p adres</w>
Cooper ación</w>
X X
refi ere</w>
sum a</w>
Co rea</w>
recall ing</w>
g obierno</w>
rel ation</w>
9 .
bal ance</w>
extranj eros</w>
U N</w>
com en
centr o</w>
abord ar</w>
pre fer
instal aciones</w>
ac tors</w>
IO N</w>
Organis mo</w>
it ure</w>
pri orities</w>
elec toral</w>
evalu ar</w>
ám ica</w>
reper cu
4 ,
inver siones</w>
con vic
C I
encarg ado</w>
cur sos</w>
S ala</w>
versi ty</w>
exper t</w>
welcom es</w>
guid ance</w>
el ements</w>
Amer ican</w>
u e
celebr ó</w>
jurisdic tion</w>
llev ar</w>
li gr
sco pe</w>
as ked</w>
A udit
at em
sel ves</w>
summ ary</w>
we e
comerci ales</w>
Dep endencia</w>
ar ían</w>
us al
ult ativo</w>
ries gos</w>
ej er
po co</w>
par ents</w>
Jer usal
asoci aciones</w>
collabor ation</w>
rel ations</w>
migr ación</w>
r urales</w>
ab og
stri a</w>
ext ent</w>
Jap ón</w>
pe ligr
prueb as</w>
V II</w>
Poli tical</w>
Ban co</w>
7 4</w>
arm ente</w>
cu agésimo</w>
ali enta</w>
efic aces</w>
au t
perman ent</w>
establish ing</w>
dis placed</w>
dirig ida</w>
pi ed</w>
oc er</w>
comp ati
ent y</w>
Sy ri
c anti
cu yo</w>
direc ción</w>
ci entífic
ac ting</w>
elimin ar</w>
record ando</w>
Cri me</w>
qui enes</w>
S p
includ es</w>
ac ord
be an</w>
sus pen
recibi r</w>
t ó</w>
form ular</w>
pu so</w>
8 .
Cari b
Com erci
concret as</w>
prior idad</w>
quin cuagésimo</w>
viol ation</w>
8 7</w>
in es</w>
7 1</w>
perman ente</w>
Carib bean</w>
it self</w>
br ing</w>
rel e
e di
adqui ri
hi jos</w>
l at
for zar</w>
ac u
recei ve</w>
h ere</w>
Isl amic</w>
y outh</w>
materi als</w>
aci as</w>
fif th</w>
trav el</w>
continu ing</w>
rang e</w>
Jap an</w>
u e</w>
de la
gran des</w>
compens ation</w>
ser ve</w>
cre d
po or</w>
recon cili
r ing</w>
cri tical</w>
deber á</w>
CN .4</w>
Op tional</w>
cu rement</w>
leg i
For ce</w>
peace ful</w>
san ciones</w>
d own</w>
o ficina</w>
judg es</w>
meth ods</w>
ei gh
muer te</w>
pu es</w>
M ex
ap ply</w>
princip almente</w>
D A
recib ido</w>
NG Os</w>
le ad</w>
Des arme</w>
combati r</w>
el la</w>
S O
rec en</w>
ed ades</w>
T o
efec tiva</w>
in struc
consist ent</w>
I vo
k ers</w>
re o</w>
re view
Inv estig
éx ito</w>
ir se</w>
emer gency</w>
on a</w>
deb ía</w>
L os</w>
sig n</w>
em pr
Ivo ire</w>
off ences</w>
adecu ada</w>
rest ed</w>
Re unión</w>
ju ven
Prin cip
Cari be</w>
s ting</w>
territori al</w>
stake holders</w>
o t</w>
abi lidades</w>
d am
efec tivo</w>
g ación</w>
á g
ar to</w>
Ejecu tiva</w>
impro ved</w>
Rel aciones</w>
x i
por cent
achiev ing</w>
oblig ation</w>
compet entes</w>
requi re</w>
mar ri
it arios</w>
é l</w>
c os</w>
Part y</w>
C ô
Gu atem
Cô te</w>
humanit ario</w>
igu al</w>
qu en</w>
n acion
ad s</w>
us es</w>
mundi ales</w>
st udi
ológ ica</w>
er ti
scal e</w>
id d
inver sión</w>
direc tamente</w>
Nig eria</w>
a é
In spec
distribu tion</w>
cor e</w>
Bo li
rel ation
v otación</w>
b or
K en
Fo reign</w>
pag o</w>
c all</w>
7 6</w>
h am
ol ogies</w>
si vo</w>
men or</w>
Pe ace</w>
per ten
b el
amen az
clud ing</w>
Af gan
s pon
pri son</w>
es crit
determin ation</w>
suf ri
di vi
R C</w>
su je
li br
im um</w>
actu ales</w>
í menes</w>
observ ó</w>
Comerci o</w>
F ac
re forzar</w>
prop ó
r ic
v inci
six ty</w>
gu i
N on</w>
inv ited</w>
ch ed</w>
follow s</w>
addres sing</w>
S A
s anc
n e</w>
r ad
explo itation</w>
Servici o</w>
consult ation</w>
y an
encour age</w>
opini on</w>
adop t</w>
n in
Environ ment</w>
de sea</w>
di st
ES CO</w>
du m</w>
re pres
idd le</w>
tre aties</w>
plen ary</w>
ed ly</w>
sh are</w>
deb ates</w>
ed ul
ti erras</w>
transi tion</w>
tra to</w>
Sup port</w>
me as
per sist
neces aria</w>
b rought</w>
form al</w>
Im plement
or ador</w>
som eti
k il
pas ado</w>
av o
sist em
par ts</w>
5 ,
Se de</w>
asoci ación</w>
origin al</w>
enc ed</w>
estab an</w>
Afr icana</w>
forc ed</w>
h ag
M esa</w>
tak es</w>
6 00</w>
As soci
fac tores</w>
identi fy</w>
obst á
comple te</w>
Afgan istán</w>
Administr ative</w>
vulner ables</w>
emerg encia</w>
logr o</w>
n ologies</w>
celebr ación</w>
contin ú
continu es</w>
Ch ile</w>
vivi enda</w>
s po
ci ty</w>
consi gn
Pro mo
ord s</w>
as c
Implement ation</w>
gre at</w>
o d
acc e
un as</w>
super vis
deli very</w>
amen aza</w>
s ou
respons ables</w>
P aci
or g</w>
applic able</w>
lici t</w>
qu ím
Ser bia</w>
Con gres
si ti
t op
col ec
Elimin ation</w>
res puestas</w>
trat os</w>
gr acias</w>
UN ESCO</w>
r adi
cre ation</w>
inmedi at
4 00</w>
pat ro
tw enty</w>
í co
industri al</w>
pen al
it a</w>
i ti
m emor
pro fun
st ain
co vered</w>
on ce</w>
wh ole</w>
de j
fu r</w>
der iv
er ing</w>
detail ed</w>
ow ing</w>
e an</w>
utiliz ar</w>
transfer encia</w>
a con
Lab our</w>
jurí dicos</w>
them selves</w>
nat ur
perió dico</w>
maj ority</w>
mu tu
S r
aj es</w>
re mun
C y
Educ ación</w>
suppor ting</w>
ev ents</w>
gr ado</w>
el ess</w>
Pre par
enter pri
ch em
remun er
8 5</w>
C E</w>
a ñ
u ales</w>
poin ts</w>
difficul t</w>
Pers ons</w>
Dar fur</w>
def ensa</w>
Paci fic</w>
distin tas</w>
re ach</w>
asi sti
Au stria</w>
Dis armament</w>
siv a</w>
sex agésimo</w>
se vent
7 8</w>
tim es</w>
cor ri
trans port</w>
re ly</w>
ex ecu
appreci ation</w>
Hum an
pa y</w>
me t</w>
Ko rea</w>
consen sus</w>
pri sión</w>
pl ay</w>
tom ar</w>
. org</w>
Jam a
ap ter</w>
po bres</w>
encour ages</w>
ne i
conclu sión</w>
deb t</w>
al ent
mater n
ini cial</w>
E lec
á ticos</w>
ill s</w>
exist en</w>
B ra
i é</w>
ar o
ren ov
or gan
cap ié</w>
previ stos</w>
He adquarters</w>
hin capié</w>
d ro
p ed</w>
b order</w>
Ge org
libert ades</w>
mi r</w>
sal v
no ting</w>
adi cional</w>
oc a
associ ated</w>
encour aged</w>
ac t
as sets</w>
pregun ta</w>
Nor te</w>
L í
de strucción</w>
bi r
ex tradi
off ence</w>
st ates</w>
sec ond
Am bi
resol ver</w>
re ign
d ings</w>
ab an
realiz ado</w>
n aci
S alud</w>
Fr ancia</w>
Pol ice</w>
8 3</w>
consen so</w>
U gan
estadís ticas</w>
Fr ance</w>
am en</w>
de pen
6 ,
anz as</w>
UN ID
Par li
ON G</w>
ori ental</w>
Go als</w>
econom ías</w>
Int egr
end or
re over</w>
settl ement</w>
t ability</w>
reas ons</w>
Ar men
th reat</w>
ab es</w>
Georg ia</w>
Bel ar
S en
PR O
fe red</w>
cli mático</w>
we b</w>
pre ced
consider ar</w>
om as</w>
ra ther</w>
prolifer ation</w>
oper acionales</w>
apro xim
confi anza</w>
Lati n</w>
tech nologies</w>
e te</w>
mo reover</w>
prop one</w>
institu cionales</w>
9 6</w>
Tim or</w>
Ar m
po int
T O</w>
éx ico</w>
adv ant
statis tics</w>
out side</w>
9 5</w>
M éxico</w>
categ orías</w>
señal ar</w>
P acífico</w>
Guatem ala</w>
en de</w>
cust o
ei ther</w>
a ud
profe sionales</w>
expres a</w>
registr o</w>
mo di
e p</w>
to day</w>
C .</w>
w rit
urg es</w>
8 1</w>
6 0
discipl in
cul tura</w>
u la</w>
rehabilit ación</w>
re visión</w>
rais ed</w>
legi tim
s ing
ste red</w>
hech os</w>
Afgh an
prac tical</w>
deploy ment</w>
T I
cre ate</w>
tempor ary</w>
ul ation</w>
cri p
9 7</w>
ti pos</w>
cons ci
mag istr
palestin o</w>
posi tions</w>
A soci
stric t</w>
Oc cidental</w>
Afghan istan</w>
pro vin
re v
cul ture</w>
g obern
p acífic
tor y</w>
st em</w>
en j
sufici entes</w>
de uda</w>
f are</w>
Ex teriores</w>
re m
marg in
vol um
conclu ded</w>
garant ías</w>
Inform e</w>
B raz
C. 2</w>
Mex ico</w>
part nership</w>
fun d</w>
8 2</w>
m ic
C P</w>
cas ti
particul armente</w>
ten ido</w>
man datos</w>
7 9</w>
t y
ent orno</w>
inclu sión</w>
il legal</w>
sub mission</w>
sch edul
G estión</w>
L an
ul es</w>
car acter
M yan
Su stain
Al l</w>
reflec ted</w>
B ar
Pro secu
Myan mar</w>
gro unds</w>
formul adas</w>
hi ci
orig in</w>
exist encia</w>
deber án</w>
I A
Por tu
ho sti
cu arto</w>
stand ard</w>
ant ed</w>
respons abilidades</w>
pres encia</w>
ag ency</w>
A po
ent amientos</w>
cu id
er ía</w>
c ob
a ir</w>
Ken ya</w>
lu m</w>
as h
AC .
MI NU
ac ks</w>
ant i</w>
studi es</w>
Preven tion</w>
consul ta</w>
effici ency</w>
d ates</w>
or al</w>
8 6</w>
requi sitos</w>
reci entemente</w>
str ong</w>
cifr as</w>
examin ó</w>
invol ving</w>
pendi entes</w>
syst em
in dis
benefici os</w>
ofici osas</w>
B .</w>
com ing</w>
g a
recomend ó</w>
recuper ación</w>
di r</w>
in qui
í tim
extern al</w>
cu ya</w>
capaci dades</w>
en der</w>
mini ster
aprob ada</w>
actu aliz
adelant ados</w>
f ace</w>
ti erra</w>
sen sibi
interes adas</w>
famili ares</w>
ambi entales</w>
comple ted</w>
equi val
B r
perspec tiva</w>
pro vinci
celebr ado</w>
confer ences</w>
J ur
tradi tional</w>
CN .
í o</w>
idi omas</w>
design ed</w>
vel ar</w>
er o
com posición</w>
h aci
un its</w>
en na</w>
trans miti
Ugan da</w>
Cam bo
err adic
e th</w>
b ud
nic amente</w>
direc ta</w>
cu otas</w>
9 8</w>
min imum</w>
fr anc
E n</w>
ne a</w>
I L
Palestin a</w>
migr ants</w>
atori os</w>
criter ia</w>
A gr
cl aim</w>
D ocu
alg una</w>
t on</w>
pobl aciones</w>
M or
J u
v ali
cont ro
8 8</w>
hab la</w>
á ticas</w>
em is
for ty</w>
terroris t</w>
expend iture</w>
id uci
soci o
Ori ente</w>
conoci miento</w>
comprendi do</w>
conflic ts</w>
fe w</w>
m ento</w>
cont amin
bud s
li gh
Vi enna</w>
si l</w>
appe al</w>
c at
enj oy
emb ar
diver sidad</w>
acc ept
indemn ización</w>
regim e</w>
peque ños</w>
fac tors</w>
elec tion</w>
produc ts</w>
Syri an</w>
s at
rehabilit ation</w>
aban don
a verage</w>
9 3</w>
min orities</w>
freed oms</w>
stud ents</w>
Sustain able</w>
Raci al</w>
9 2</w>
ain ed</w>
buil d</w>
lo s
raz ones</w>
In di
independ ence</w>
t oler
ver sidad</w>
r d</w>
patro cin
es encial</w>
ner g
fac tor</w>
reserv as</w>
D .</w>
te am</w>
st ability</w>
deci des</w>
Sec tion</w>
att emp
car ry</w>
9 1</w>
M aur
present a</w>
re ached</w>
8 4</w>
ori es</w>
C D</w>
Uni versal</w>
saf egu
bu ena</w>
agr íco
ro ad</w>
FA O</w>
Vi ena</w>
9 4</w>
es ting</w>
d é
Exper tos</w>
plen o</w>
ír v
h ic
t an
feder al</w>
H un
integr al</w>
a king</w>
porcent aje</w>
fic ados</w>
sour ce</w>
h armon
Ar ab
interpre tación</w>
weap on</w>
Pe ace
ob l
estructur as</w>
ad ju
raz ón</w>
Ár abe</w>
see k</w>
complain ts</w>
fem ale</w>
ic anos</w>
e li
defini ción</w>
E cu
pr or
apart ado</w>
ver se</w>
so ve
rec ently</w>
inten ded</w>
sob er
com mittee</w>
efici encia</w>
tain s</w>
mini steri
Soci ales</w>
exper im
sugg ested</w>
remain ed</w>
inclu sive</w>
examin e</w>
R oma</w>
adv ice</w>
monit or</w>
8 00</w>
entr y</w>
constitu yen</w>
on ic</w>
nacion alidad</w>
S ci
C. 5</w>
J ord
main tain</w>
tas k</w>
fi j
refuge e</w>
te ci
dur ación</w>
construc tion</w>
go ods</w>
peque ñas</w>
ner ships</w>
eni or</w>
yp es</w>
t í
rais ing</w>
jurisdic ción</w>
Coun tries</w>
mejor a</w>
ve hí
implic ations</w>
solu tion</w>
egr o</w>
th an
anc y</w>
b ru
er adic
Ir án</w>
Al em
st age</w>
prepar e</w>
mitte es</w>
s írv
sig a</w>
qu ía</w>
reg lament
peligr o</w>
com es</w>
ot ed</w>
in ing</w>
S T
ol d</w>
six th</w>
aro und</w>
C. 3</w>
resul ting</w>
intern o</w>
cl ari
ap point
palestin os</w>
integr ado</w>
conclu sions</w>
m end
C ent
cl early</w>
volunt ad</w>
econom ies</w>
sanc tions</w>
j ef
próxim o</w>
solici ta</w>
conclu sion</w>
aj a</w>
acon teci
téc nicas</w>
E rit
go al</w>
des ech
punish ment</w>
Jo int</w>
de struction</w>
ten ía</w>
hab ida</w>
En g
compl et
agu ar
p sy
merc ados</w>
com mod
movi lización</w>
diversi ty</w>
sec und
Au th
re clu
ag ain</w>
ag o</w>
u se
beli ev
u el
oc ur
8 9</w>
atri bu
vi v
st o
estableci dos</w>
des h</w>
ve hic
Ir an</w>
Administr ation</w>
w ast
ac tivos</w>
afec tados</w>
impro vement</w>
pro curement</w>
dol e</w>
tivi dad</w>
speci fic
re des</w>
Mi gr
0 .
f ra
author ized</w>
Tur k
re si
S R
anc ement</w>
expl or
consequ ences</w>
In terior</w>
discus sed</w>
disponi bles</w>
mo tivo</w>
con voc
reg res
un il
sho p</w>
agr ade
ex presión</w>
know n</w>
i k
contr act</w>
peti ción</w>
y ond</w>
cap ítulo</w>
9 9</w>
198 9</w>
i i</w>
sen si
p ha
capaci ties</w>
langu ages</w>
egu e</w>
Cha ir</w>
sci entific</w>
deliber aciones</w>
bas ada</w>
conten ido</w>
du ty</w>
as y
t ex
inv ent
sup ply</w>
success ful</w>
ne t</w>
EN T
ob ia</w>
t le</w>
bien estar</w>
it aria</w>
ho y</w>
d raf
difíci l</w>
ed onia</w>
tel e
consu mo</w>
te enth</w>
preci so</w>
inter gubernamentales</w>
reci ente</w>
li sh</w>
reco very</w>
desast res</w>
M ac
lar s</w>
human o</w>
C .1</w>
aproxim adamente</w>
bas s
deman da</w>
f th</w>
invit a</w>
entr ada</w>
ant ly</w>
in fec
mej ores</w>
G re
etap a</w>
d an</w>
Bang la
Apo yo</w>
Ir lan
transpar encia</w>
int eg
defin ed</w>
est én</w>
kin d</w>
pres ence</w>
Lí bano</w>
fo rest
determin e</w>
su stitu
b ack
comun es</w>
reti r
Armen ia</w>
P lan
represent ed</w>
enferme dades</w>
plan o</w>
represent ación</w>
ú nicamente</w>
achiev ement</w>
en ch</w>
accoun tability</w>
Irlan da</w>
des pli
lan dia</w>
cas i</w>
ev ent</w>
ser án</w>
de al</w>
cre ated</w>
Ó N</w>
cru cial</w>
adv oc
H R</w>
solid ar
democr atic</w>
des af
urg ent</w>
CR C</w>
Lati na</w>
lead ers</w>
máxim o</w>
terrori stas</w>
E D</w>
ni tion</w>
nin th</w>
é s
agu e</w>
Isl ámica</w>
p .m.</w>
refle j
desarroll ar</w>
si r
profes sional</w>
téc nico</w>
Bangla desh</w>
co ver</w>
Ambi ente</w>
be yond</w>
exhor ta</w>
abl ed</w>
u d</w>
z as</w>
Coordin ación</w>
bi lidades</w>
mani fi
tras l
vic ti
Protec ción</w>
Associ ation</w>
im parti
au tores</w>
im per
reserv a</w>
elec ted</w>
a h</w>
elec ción</w>
appro aches</w>
Alem ania</w>
invol vement</w>
vi ven</w>
Al ban
appro xim
sh aring</w>
av ances</w>
pos sibility</w>
K az
ten ga</w>
ámbit os</w>
asi lo</w>
man u
g ed</w>
prepar ar</w>
tas as</w>
inclu yen</w>
7 ,
Commun ity</w>
at e
z e</w>
difficul ties</w>
focu sed</w>
stre am
alim entos</w>
multil aterales</w>
ar ch
altern ative</w>
Bra sil</w>
7 00</w>
conting entes</w>
part nerships</w>
E E
desech os</w>
c are
amb os</w>
fin ance</w>
ocup ación</w>
plac ement</w>
V ene
venci ones</w>
con cluding</w>
su pr
W est</w>
ar los</w>
0 ,
requi res</w>
Fis c
mínim o</w>
si co</w>
int oler
cal cul
d años</w>
O m
garanti z
Nu clear</w>
r ene
com pu
dem and</w>
Ter ritory</w>
extranj ero</w>
ri a</w>
E th
estratég ico</w>
olog ía</w>
ví n
introduc tion</w>
Vene z
N ai
Rev .1</w>
ton om
in ning</w>
cu y
it ment</w>
re cuer
religi ón</w>
sh ops</w>
Par lamento</w>
inter i
il licit</w>
y cl
est ern</w>
def ence</w>
el ación</w>
defini tion</w>
M iddle</w>
hosp it
observ adores</w>
Sud á
ur os</w>
st en
au tom
Fr ench</w>
Sudá frica</w>
so res</w>
ue la</w>
Pop ular</w>
v .</w>
pha se</w>
jurí dicas</w>
ést e</w>
wi se</w>
l ity</w>
O ther</w>
se x</w>
lit er
celebr ar</w>
z one</w>
Pak istan</w>
conduc to</w>
lu ch
str ong
b .</w>
Fin anci
Pak istán</w>
memb ership</w>
transpar ency</w>
deten idos</w>
abs ence</w>
PNU MA</w>
canti dad</w>
pap er</w>
ef ficient</w>
st oc
tend rá</w>
c entre</w>
esti on
document ación</w>
comb in
ac tivamente</w>
suministr o</w>
di eron</w>
cal end
prop io</w>
seg uro</w>
rob i</w>
Coordin ation</w>
oc al</w>
Nai robi</w>
equip os</w>
de cen
r s</w>
Polic ía</w>
E nerg
apo ya</w>
v eces</w>
rel and</w>
F OR</w>
go la</w>
depend ent</w>
uni vers
instrum ent</w>
Mon ten
stres sed</w>
en juici
Asoci ación</w>
mo vement</w>
có mo</w>
le ave</w>
olog y</w>
N ic
I reland</w>
B ul
se en</w>
CO M
dis par
meas ure</w>
tion ing</w>
fir m</w>
est ados</w>
Ter r
appro val</w>
constitu tional</w>
ministeri al</w>
M in
may ores</w>
famili ar</w>
ci os</w>
expres ó</w>
Económ ica</w>
udge tary</w>
an unci
posi bilidades</w>
ex pedi
di str
Sr i</w>
tim ely</w>
trans mit
approxim ately</w>
í os</w>
An gola</w>
S lo
resp al
pay ment</w>
en com
min d</w>
matri monio</w>
orden ación</w>
ex pul
E g
t am
recog nition</w>
relation ship</w>
permit e</w>
de d
sk ills</w>
l ater</w>
re au</w>
Ro om</w>
Vi ol
Tur quía</w>
im posed</w>
Ger many</w>
targ et</w>
recur so</w>
pro voc
Govern ing</w>
lo ss</w>
ac ep
audi t</w>
S I
re to</w>
AN D</w>
ter cer
asy lum</w>
progres o</w>
idi onal</w>
eigh th</w>
V ol
don ors</w>
D ru
specific ally</w>
R I
buds man</w>
ste p</w>
Ecu ador</w>
confer encia</w>
writ ten</w>
in os</w>
tic amente</w>
our n
evalu aciones</w>
v ements</w>
téc nicos</w>
abier ta</w>
i se</w>
U ru
0 0
sevent h</w>
rest re</w>
cel l
nuestr os</w>
gobern anza</w>
g al</w>
agricul tural</w>
net work</w>
examin ado</w>
visi t</w>
exten ded</w>
U S</w>
Cul tural</w>
Auth ority</w>
plan ned</w>
Subcom isión</w>
Co sta</w>
prop ia</w>
occu pied</w>
ent reg
religi on</w>
palab ra</w>
qu ali
end ers</w>
im prison
su b</w>
Em baj
extra ordinario</w>
ser vers</w>
Fac ultativo</w>
recru itment</w>
com pared</w>
destin ados</w>
Reg lamento</w>
plic ación</w>
pertin ente</w>
c es
ac ted</w>
9 00</w>
clar amente</w>
prest aciones</w>
Uru gu
Sal v
a pl
An nex</w>
anu ales</w>
Braz il</w>
al eza</w>
Com unidad</w>
gener ally</w>
p ág
ic amente</w>
ó p
Ex amen</w>
al i</w>
oper ating</w>
Terr oris
10 .
dic has</w>
val ores</w>
ap ru
encarg ados</w>
estr ic
com pri
lead ership</w>
dom és
ul ares</w>
work shops</w>
llam amiento</w>
per cent
h emos</w>
priv adas</w>
ac tively</w>
f el
second ary</w>
cur red</w>
B ei
ac knowled
bas es</w>
comm ercial</w>
Monten egro</w>
M I</w>
mand ates</w>
alcan z
acro ss</w>
ac om
prim aria</w>
x en
fa ir</w>
at ure</w>
lleg ar</w>
hon our</w>
específic as</w>
laun ched</w>
sex o</w>
ent endi
Ob je
fu ente</w>
lí mit
bro ad</w>
ac lar
ap s</w>
p si
siv os</w>
j ing</w>
tur as</w>
obstá culos</w>
N ep
c au
contr ato</w>
inten ción</w>
it arias</w>
8 ,
ativ amente</w>
Venez uela</w>
charg e</w>
Erit rea</w>
rad io</w>
L as</w>
u ega</w>
desarroll ados</w>
di jo</w>
Portu gal</w>
de posi
Ag enda</w>
h ome</w>
consolid ación</w>
P O
actu alidad</w>
challeng e</w>
desplaz ados</w>
Agr icul
it enci
Económ icos</w>
g er</w>
it ario</w>
enh ancing</w>
under take</w>
ex pen
ambi ental</w>
dich os</w>
t esti
Bei jing</w>
en os</w>
public ación</w>
supr a</w>
asign ación</w>
198 8</w>
civili ans</w>
al um
R ules</w>
Cro ati
delin cuencia</w>
T h
deb idamente</w>
Leban on</w>
s w
é m
an n
mode lo</w>
emple ados</w>
ch o</w>
prepar ado</w>
ai re</w>
aten der</w>
desempeñ ar</w>
contribu ting</w>
c ali
h and</w>
concep t</w>
assess ments</w>
conven tions</w>
tom ando</w>
sec tori
aconteci mientos</w>
un to</w>
descri bed</w>
fisc al</w>
ast ern</w>
despli egue</w>
mic ro
reflec t</w>
ord ers</w>
escue la</w>
dom in
destin o</w>
Jur í
H ab
clos ely</w>
fí sica</w>
pu er
ar ri
ide as</w>
en as</w>
Lan ka</w>
low er</w>
rati fication</w>
cr ímenes</w>
Urugu ay</w>
mon th</w>
grow ing</w>
propó sito</w>
at s</w>
celebr ará</w>
abo li
conci encia</w>
L OS</w>
z ed</w>
ins ur
pend ing</w>
cre ado</w>
ap pointed</w>
min e</w>
no gr
ata forma</w>
trabaj ar</w>
k ra
re formas</w>
ch apter</w>
comple ta</w>
inf ancia</w>
ri dad</w>
posteri ormente</w>
V er
Parli ament</w>
p ese</w>
conjun ta</w>
dic amente</w>
registr ation</w>
gen oci
man do</w>
P ública</w>
strength ened</w>
com ercial</w>
ser ies</w>
T u
L egal</w>
Nor uega</w>
siti o</w>
U R
beg inning</w>
A t
ilíci to</w>
UNO DC</w>
document ation</w>
con vin
consider ación</w>
efec tivos</w>
is mo</w>
respon der</w>
v ital</w>
ec a</w>
S we
m ac
li k
PR ES
Discrimin ación</w>
con tiene</w>
shor t</w>
sing le</w>
z ation</w>
ex port</w>
administr ativas</w>
nation ality</w>
so on</w>
mas s</w>
is m</w>
me tod
Sy stem</w>
lig ro
organiz ational</w>
e .</w>
pa ña</w>
institu tion</w>
pl ay
intern a</w>
As es
empres a</w>
coordin ated</w>
salv aguar
Tur key</w>
dis fru
publi shed</w>
We ap
investig ations</w>
com isión</w>
reli eve</w>
fav or
mobiliz ation</w>
M ad
hi bi
guarante e</w>
previ stas</w>
mé dico</w>
ta rea</w>
ampli ar</w>
e y</w>
y endo</w>
represent ation</w>
B ret
V III</w>
c raft</w>
recuer da</w>
st ar
integ ridad</w>
fi li
ti r</w>
inclu sion</w>
determin ed</w>
spon s
compet ent</w>
dirig entes</w>
trat ar</w>
pro ve
recogniz ing</w>
ín dole</w>
plen aria</w>
Strateg y</w>
Su iza</w>
ri ó</w>
escol ar</w>
contr a
Qu in
immedi ate</w>
nam ely</w>
neg ative</w>
indic ate</w>
comi siones</w>
democr acia</w>
accord ingly</w>
ac ogi
li ve</w>
podr án</w>
op h
mod alidades</w>
ti se</w>
contrat os</w>
Nep al</w>
bas ado</w>
estableci ó</w>
O D
territori es</w>
use ful</w>
deal ing</w>
f f</w>
promul g
fi el
reduc ed</w>
pri mer
rati ficación</w>
E M</w>
natur aleza</w>
Sec ond</w>
comb ating</w>
min ority</w>
democr acy</w>
e red</w>
tradi cionales</w>
enh anced</w>
s ent</w>
ur ban
al ta</w>
disast er</w>
br ind
Es lo
9 ,
it és</w>
Palestin e</w>
gr atu
percent age</w>
St at
Polític os</w>
P resu
Pers onal</w>
hop e</w>
géner os</w>
Presid encia</w>
Bu reau</w>
funcion ario</w>
pres erv
review ed</w>
Si ria</w>
inform ar</w>
hon or</w>
. m</w>
Est atuto</w>
respon d</w>
Ne ther
a fir
ho st</w>
fav o
reci entes</w>
of rece</w>
is s
ar lo</w>
sh ow
c tion</w>
pow er
Nether lands</w>
n on
bil lion</w>
lan d
anteri ormente</w>
u do</w>
urg ed</w>
lik ely</w>
b os
ac cu
ís ticas</w>
empha sis</w>
concret e</w>
dese o</w>
Bul g
1 2.
corrup ción</w>
destin adas</w>
g ol
mi si
un .org</w>
adju st
er á</w>
fi sh
ab solu
am ended</w>
Polic y</w>
So steni
m ó
Preven ción</w>
repercu siones</w>
Oper aciones</w>
grad u
Z e
exper tise</w>
conex as</w>
U kra
d ang
S e</w>
Refu ge
g as</w>
represent a</w>
Chi ef</w>
lin ed</w>
deb ían</w>
ex ha
C I</w>
occup ation</w>
1 1.
v enta</w>
pres s</w>
C H
Ch amb
restric ciones</w>
an im
kno w</w>
solu ciones</w>
c ep
um s</w>
SR .
términ os</w>
b ack</w>
haci endo</w>
al ong</w>
trans l
mé dicos</w>
adolesc entes</w>
cooper ate</w>
por nogr
liz ar</w>
cons enti
disminu ción</w>
z be
he sión</w>
en unci
of f</w>
T anz
exist ence</w>
Uni versity</w>
parti ci
prison ers</w>
resum en</w>
mar k</w>
au tonom
H o
po día</w>
encamin adas</w>
R ica</w>
pe ligro
caus ed</w>
Jef e</w>
ev olución</w>
applic ations</w>
mi c</w>
apar i
migr ant</w>
pen ales</w>
estim ates</w>
t ypes</w>
B ah
indis pens
C P
to ols</w>
in fer
y our</w>
duc tion</w>
spe ak
particip ated</w>
saf e</w>
muestr a</w>
pro mu
ov a</w>
succ ess</w>
pa in</w>
compl ej
realiz adas</w>
constitu te</w>
po st
0 .000</w>
ti tu
ol d
re medi
lead ing</w>
ec h</w>
2 12</w>
ide a</w>
cuad r
Ad junto</w>
struc tures</w>
me an
A L
D H</w>
isl and</w>
Nor way</w>
B aj
é l
cont act</w>
C ru
plac es</w>
sti pul
respons able</w>
Su per
subsequ ent</w>
end ing</w>
reclam aciones</w>
atori as</w>
declar ation</w>
sírv anse</w>
un ic
ac eler
de mor
israel íes</w>
ill ing</w>
aliment aria</w>
prest ando</w>
pro puesto</w>
á bit
carg a</w>
F I
resul ted</w>
C s</w>
créd ito</w>
long er</w>
b ul
conserv ación</w>
victi m</w>
Sosteni ble</w>
hol ding</w>
in form</w>
ob servers</w>
se de</w>
en de
Minister ial</w>
est é</w>
ww w
ari al</w>
rec ep
collec tion</w>
corrup tion</w>
s enior</w>
difer encias</w>
compon ent</w>
aut ó
d ri
compan ies</w>
att acks</w>
A D
gu a</w>
human a</w>
ent ra
de sign</w>
amend ments</w>
Rel at
an no
ver ing</w>
logr os</w>
gro ss</w>
S E
beli eve</w>
sent ence</w>
marri age</w>
S wit
follow ed</w>
accu sed</w>
vehí culos</w>
proced a</w>
emi siones</w>
Sec ción</w>
emphasiz ed</w>
su frag
Supre me</w>
CO P</w>
confid ence</w>
rati fied</w>
adecu ado</w>
don or</w>
In du
cons ent</w>
main ly</w>
of reci
caus es</w>
cour ses</w>
fi l</w>
Mini sters</w>
high ligh
últim a</w>
un idades</w>
tom ó</w>
alleg ations</w>
Swit zer
sensibi lización</w>
expres sion</w>
estudi antes</w>
c ause</w>
sh own</w>
www .
h abl
E strateg
S B
reduci ng</w>
Quin ta</w>
expres s</w>
Om budsman</w>
Nor th</w>
Switzer land</w>
S ist
rene w
hi c</w>
Offic er</w>
di fun
w ords</w>
imprison ment</w>
cl ave</w>
enfr ent
conduc ta</w>
Cont rol</w>
as o</w>
et c</w>
pro duce</w>
im pedir</w>
car re
ambi a</w>
un ity</w>
é sta</w>
Fuer za</w>
dol lars</w>
ation ally</w>
solu tions</w>
hac er
E gi
anis h</w>
Direc tor
bi o
Am bass
encuentr an</w>
tr am
pre ad</w>
perman entes</w>
itu d</w>
institu ción</w>
audit oría</w>
am er
Ministr os</w>
determin ados</w>
ho c</w>
preocup a</w>
prueb a</w>
estrech a</w>
statis tical</w>
fiel ds</w>
work shop</w>
par li
gr anted</w>
organ s</w>
Tran si
áfic a</w>
f ase</w>
avo id</w>
m ult
bir th</w>
Egi p
estim aciones</w>
ad era</w>
medi um</w>
emb ol
Salv ador</w>
adv ance</w>
pu ty</w>
is tics</w>
UNID O</w>
Mar co</w>
alleg ed</w>
b o</w>
amenaz as</w>
produc to</w>
Weap ons</w>
pre val
Ze al
pr o</w>
segu irá</w>
particip ating</w>
me tros</w>
accep ted</w>
W estern</w>
consider ing</w>
R ed</w>
ter cera</w>
b om
concret os</w>
cro ss</w>
sh ared</w>
M ONU
experi encias</w>
pr ud
integr ity</w>
Eng lish</w>
str ain
separ ate</w>
ty pe</w>
requ er
ér cito</w>
pas o</w>
reproduc tive</w>
F amili
f en
d ou
an i
Egip to</w>
tr ust</w>
f lo
propor ción</w>
consenti miento</w>
U zbe
acom pañ
S ah
su gi
insur ance</w>
z can</w>
sust ancias</w>
ear li
aw are</w>
U cr
c ar</w>
Au tor
obst ac
Vic e
hou se
In f
anno un
ven ia</w>
G h
visi tas</w>
B en
Baj os</w>
reas on
air craft</w>
present es</w>
af fairs</w>
recor d</w>
Is lands</w>
Zeal and</w>
ac tiva</w>
eng aged</w>
categ ory</w>
UNO PS</w>
ass ess</w>
qu into</w>
perpe trat
av anz
he ad</w>
ac tivo</w>
compon ente</w>
re alidad</w>
c ycl
perió dicos</w>
adecu adas</w>
est atuto</w>
indu stry</w>
marke ts</w>
lit e</w>
fo rest</w>
Elimin ación</w>
Territori es</w>
ad re</w>
Ucr ania</w>
remain ing</w>
estat ales</w>
compar ación</w>
priv ada</w>
As sistance</w>
Ac tivi
pregun tas</w>
M er
partici par
Cor r
re un
Presu puesto</w>
pen as</w>
D o
apl ica</w>
pon en</w>
0 ,000</w>
realiz ada</w>
enti dad</w>
comen z
collec tive</w>
P obl
electr onic</w>
po d
proc ur
DE L</w>
pl eg
Hait í</w>
Z el
empr endi
ra ise</w>
comi en
mo del</w>
administr ativos</w>
dissemin ation</w>
organiz ada</w>
s é
ne w
I M
T hi
s ure</w>
introduc ción</w>
im par
b anc
preci os</w>
Bulg aria</w>
ec e</w>
is on</w>
de sigu
candi datos</w>
t ada</w>
creci ente</w>
coun ter</w>
resid entes</w>
Cy pr
parti da</w>
F ir
p untos</w>
dam age</w>
re integration</w>
escrit o</w>
v uel
enci ones</w>
Cypr us</w>
par as</w>
luch ar</w>
de teri
al ways</w>
fer ing</w>
reli ef</w>
ic ally</w>
employ ed</w>
u t
celebr adas</w>
min es</w>
draw n</w>
cont acto</w>
mort alidad</w>
Mor oc
labor al</w>
gi ble</w>
volunt arias</w>
conjun tamente</w>
appoint ment</w>
de p
se ven</w>
human idad</w>
regi stered</w>
threat s</w>
permiti r</w>
pro hí
racis mo</w>
Oper ations</w>
penal ty</w>
adquisi ción</w>
W A</w>
ad ing</w>
O f
high est</w>
of recer</w>
ata ques</w>
Ambass ador</w>
interpre tation</w>
deteri or
spe aking</w>
ONU DI</w>
respec tivamente</w>
si ete</w>
con ocer</w>
l ess
de tain
ti eth</w>
pu ts</w>
fin d</w>
segu ido</w>
sch em
OI T</w>
IL O</w>
Exper ts</w>
P ow
Obje tivos</w>
li bri
fi ght</w>
ener se</w>
ju eces</w>
identi dad</w>
demo gr
ci cl
Is las</w>
des pleg
depend encia</w>
Mac edonia</w>
trans form
Chi pre</w>
ust ed</w>
ap hic</w>
at form</w>
Cro acia</w>
il eg
anti cip
he adquarters</w>
ris ks</w>
er ve</w>
reconoci endo</w>
elimin ate</w>
Del ito</w>
re forms</w>
infer i
i b
accoun ts</w>
reas on</w>
manu fac
Fr amework</w>
u b
er y</w>
siv amente</w>
Boli via</w>
Eg yp
ul ations</w>
op ciones</w>
hog ares</w>
Sen egal</w>
Jerusal em</w>
ad visory</w>
S am
eci a</w>
trabaj an</w>
Egyp t</w>
Corr .1</w>
h ec
pre sta</w>
bil aterales</w>
visi ts</w>
ha z
pa rece</w>
decen io</w>
semin arios</w>
observ ación</w>
ís tica</w>
m entos</w>
correspon de</w>
clos ed</w>
nei gh
func tion</w>
nes ses</w>
mu tual</w>
mit ad</w>
específic os</w>
itu res</w>
10 5</w>
idi oma</w>
Es paña</w>
H on
desempe ño</w>
abar ca</w>
M ilit
set ting</w>
Uni versidad</w>
a per
bar ri
Ori ental</w>
respec tively</w>
comple to</w>
re pe
allow ed</w>
Direc ción</w>
elec om
categ ories</w>
Ital ia</w>
l amentos</w>
pro du
mor al</w>
Prosecu tor</w>
cion ar</w>
func tioning</w>
em en</w>
present ada</w>
com ité</w>
rendi ción</w>
Fi fth</w>
B e
h and
des erti
I n</w>
S pain</w>
Zel andia</w>
palab ras</w>
Estrateg ia</w>
no ven
Pro ce
ra zon
wel come</w>
dra w</w>
Su ecia</w>
ro man
un less</w>
Relat ora</w>
t ítulo</w>
neigh b
pre gn
immedi ately</w>
elem ento</w>
as unto</w>
ú nico</w>
men udo</w>
aprob adas</w>
Seg un
esti ones</w>
cer ca</w>
ot org
intern ationally</w>
den omin
norm s</w>
oc ta
at ar</w>
HC HR</w>
propi os</w>
M old
legisl ativas</w>
créd itos</w>
op tions</w>
li ves</w>
sex uales</w>
pen itenci
S an</w>
ari amente</w>
record s</w>
ir án</w>
present ados</w>
Me di
contribu ted</w>
logr ado</w>
lo o
I X</w>
indic ó</w>
incorpor ación</w>
campa ña</w>
in cen
víctim a</w>
T e
E valu
I I
lu z</w>
ábit at</w>
arg um
Nic ar
vi ajes</w>
m as</w>
Alban ia</w>
racis m</w>
ac qui
crip ción</w>
S T</w>
si ght</w>
n or</w>
ar ts</w>
hab ría</w>
si tes</w>
requi ere</w>
ot a</w>
a der</w>
recur ri
P AR
Nor thern</w>
Autor idad</w>
identi fication</w>
jud ic
parti dos</w>
L A
alum nos</w>
recor ded</w>
po der
bro ad
C li
O HCHR</w>
F amily</w>
sh el
miti g
st ly</w>
amb as</w>
ten ían</w>
cas h</w>
aé reo</w>
tas ks</w>
tr ater
10 9</w>
ológ icas</w>
po se
Fir st</w>
lí nea</w>
w eb
co pi
S ing
aument ado</w>
integr ada</w>
appe ar
adecu ados</w>
Uzbe k
ú til</w>
enjoy ment</w>
pérdi da</w>
observ ed</w>
char acter
com ent
fin dings</w>
k es</w>
1 20</w>
man ag
ar rest</w>
ant a</w>
pr ensa</w>
consum ption</w>
teach ers</w>
preven ting</w>
as sum
trater restre</w>
N E
ativ ely</w>
prosecu tion</w>
In ter</w>
es enciales</w>
R om
resid encia</w>
fu ego</w>
out comes</w>
ent ered</w>
P MA</w>
M E
guarante es</w>
amend ment</w>
avail ability</w>
Ital y</w>
un it</w>
law y
K yo
ad her
z ca</w>
tend encias</w>
interven ción</w>
elimin ation</w>
embar az
compati ble</w>
ap li
ap are
restric tions</w>
reit era</w>
ro ga</w>
targe ts</w>
Kyo to</w>
sou ght</w>
comple x</w>
Dec ade</w>
com ités</w>
Chair person</w>
in cum
substan tial</w>
expend itures</w>
so spec
as k</w>
qu id
H RC</w>
ec os</w>
stat u
for o</w>
fund ament
dat ab
fir me</w>
fab ric
h y
hubi era</w>
ag g
C ER
require ment</w>
St atis
S ex
tec n
M ant
dis cre
Refu giados</w>
Pop ulation</w>
v an</w>
fun ded</w>
A sistencia</w>
V ice</w>
ver ificación</w>
for um</w>
s indic
r on
fin ally</w>
b en</w>
ic ano</w>
Mold ova</w>
exten d</w>
respon ses</w>
dis ability</w>
ad ded</w>
subsequ ently</w>
low s</w>
siv ely</w>
hog ar</w>
mort ality</w>
enterpri ses</w>
fre cuencia</w>
j e</w>
them atic</w>
habit antes</w>
magistr ados</w>
const ante</w>
d ados</w>
Ukra ine</w>
2 5
Croati a</w>
exig e</w>
per s</w>
nom in
pérdi das</w>
re forz
reign ty</w>
present adas</w>
identi ty</w>
m últi
consid ers</w>
N am</w>
re jec
bos ques</w>
mis mos</w>
surve y</w>
it arian</w>
cr ític
increas ingly</w>
cam p
con tains</w>
govern ing</w>
ON U</w>
jud ge</w>
popul ations</w>
i op
S TA
public aciones</w>
carg os</w>
Embaj ador</w>
li quid
st and</w>
Eth iop
perpe tr
sigui ó</w>
c á
sober anía</w>
Swe den</w>
st an</w>
psy ch
M D
Form s</w>
elabor ado</w>
De ci
DA W</w>
si l
sup plies</w>
regul ation</w>
desaf íos</w>
Pro vi
Con tr
mo tiv
udi cial</w>
mal os</w>
de lic
ex posición</w>
ad vi
recogniz es</w>
P al
li sted</w>
afr icanos</w>
ejer cer</w>
im pu
Chamb er</w>
emerg ing</w>
Gh ana</w>
ac commod
m om
cometi dos</w>
sove reignty</w>
posi ciones</w>
candi dates</w>
conven i
formul ation</w>
conex os</w>
fail ure</w>
car b
arreg los</w>
agricul tura</w>
f requ
ac cid
De puty</w>
equit able</w>
m ing</w>
th ing</w>
Hab it
mult i</w>
CE DAW</w>
endor sed</w>
Fisc al</w>
ex ecutive</w>
P ot
du ties</w>
C had</w>
sci ence</w>
b in
L eg
sec ure</w>
M emb
ab usos</w>
soci o</w>
Hait i</w>
pro long
superi ores</w>
perspec tive</w>
o cho</w>
pro s
Pro ced
m acro
aliz ado</w>
volum en</w>
aprovech ar</w>
Sist ema</w>
f it
cont ar</w>
bl o
al mac
enmi enda</w>
Vi et</w>
valu es</w>
vín culos</w>
comple tion</w>
Tech nical</w>
consider ablemente</w>
visi ta</w>
vi ll
S P
fen ó
ar ily</w>
t ting</w>
que o</w>
di g
suc e
estim a</w>
estig os</w>
mejor amiento</w>
Vice presid
autó nom
comb usti
op ening</w>
indispens able</w>
ad hesión</w>
tr ends</w>
contr acts</w>
Azerbai y
discus s</w>
ex p
Tor ture</w>
eng age</w>
iduci ario</w>
subra y
est s</w>
H ábitat</w>
compon entes</w>
ver sión</w>
cicl o</w>
humanit arias</w>
Refuge es</w>
enc ar
cre ating</w>
stri es</w>
t ando</w>
entendi miento</w>
s mo</w>
subsidi ary</w>
r ying</w>
al most</w>
Tech nology</w>
determin ado</w>
ne as</w>
r ían</w>
protec ted</w>
op tion</w>
realiz ation</w>
abi liz
A sian</w>
cometi do</w>
o ther
de port
Mar ru
produc ed</w>
sist ant</w>
Nicar agua</w>
indic an</w>
con stru
ajust e</w>
inde ed</w>
Marru ecos</w>
expres ses</w>
bá sica</w>
sub programme</w>
T ec
fac ed</w>
ob tain</w>
fi re</w>
previ ously</w>
Habit at</w>
com mission</w>
custo dy</w>
numer osas</w>
aplic ables</w>
N P
j ourn
T S</w>
Thi rd</w>
highligh ted</w>
alloc ated</w>
ful fil</w>
ins ulares</w>
aph ical</w>
in tim
as pir
d eni
estudi ar</w>
ci dad</w>
prostitu ción</w>
Dec enio</w>
ampli ación</w>
ati c
IA EA</w>
wel fare</w>
examin ation</w>
Mu jeres</w>
ho od</w>
net works</w>
di vul
de tained</w>
F und
Res our
preocup aciones</w>
Arab ia</w>
G reat</w>
rech az
lin ked</w>
leg ally</w>
mer cur
ever y
Le ona</w>
determin adas</w>
compl y</w>
de res</w>
associ ations</w>
af ía</w>
ent ed</w>
credi t</w>
campa ign</w>
destac a</w>
CON F
Pr inci
ei ght</w>
ed it
per fec
Y emen</w>
g es</w>
continu ar</w>
qui en</w>
sug er
particip an</w>
am s</w>
con vers
cont ent</w>
intern ally</w>
adel ante</w>
off er</w>
israel í</w>
ar las</w>
mejor as</w>
depart amentos</w>
fic aciones</w>
xi li
see king</w>
repar ación</w>
shor t
to o</w>
asses sed</w>
sub programa</w>
su spec
proced entes</w>
Proced ure</w>
á menes</w>
formul ó</w>
to c
power ment</w>
wh om</w>
budge tary</w>
numer osos</w>
bas a</w>
tur ing</w>
án sito</w>
aliz e</w>
O M</w>
asi a</w>
di v
g ica</w>
ur y</w>
Azerbaiy án</w>
ded or</w>
y ed</w>
be aring</w>
re afirm
M a
Li b
eng agement</w>
encontr ar</w>
M ay
A plicación</w>
al entar</w>
aplic able</w>
alis m</w>
2 6
abl ing</w>
O P
preven tive</w>
re miti
Indi genous</w>
ir ía</w>
Prim er</w>
garant ía</w>
arm adas</w>
al re
Mant enimiento</w>
cons agr
limit aciones</w>
ai l</w>
up dated</w>
T E
f t</w>
aprob ados</w>
ari sing</w>
en vis
t estigos</w>
T ER
Al g
. U
Le one</w>
conform ity</w>
hici eron</w>
we alth</w>
ac ade
Polític a</w>
strong ly</w>
prelimin ary</w>
en se</w>
ab uso</w>
dru gs</w>
gr ant</w>
discrimin atory</w>
Human itarian</w>
án ico</w>
thir ty</w>
juici os</w>
s av
fic ations</w>
defin e</w>
Res earch</w>
estableci das</w>
ést os</w>
com pil
Memb ers</w>
export aciones</w>
at tribu
adap tación</w>
initi ated</w>
earli er</w>
less ons</w>
alloc ation</w>
adop te</w>
es cas
OI EA</w>
ti tudes</w>
unic aciones</w>
com mittees</w>
so und</w>
agricul ture</w>
Tor tura</w>
e .
Sp ace</w>
términ o</w>
semin ario</w>
necesi tan</w>
edi fici
ma xim
competi tion</w>
pe faci
di as</w>
en mend
com missions</w>
juven ile</w>
depart ments</w>
public ations</w>
draf ting</w>
nation als</w>
re integración</w>
enti re</w>
EE .U
recogniz e</w>
electró nico</w>
di endo</w>
Pobl ación</w>
conven ed</w>
enmi endas</w>
il and</w>
Prim era</w>
rest o</w>
exha us
co verage</w>
re an
numer ous</w>
hac en</w>
P hi
pendi ente</w>
Mon tre
Intern al</w>
inter rog
S ur
alist s</w>
adopt en</w>
pefaci entes</w>
mar ine</w>
fronter as</w>
mon ey</w>
public ation</w>
ocur ri
affec t</w>
F ourth</w>
liber ty</w>
en su
reserv ations</w>
coun ter
múlti ples</w>
futur as</w>
resid ence</w>
ever th
everth eless</w>
out standing</w>
Gr an</w>
at a</w>
ach ing</w>
t un
apropi adas</w>
afec tadas</w>
contro versi
constitu cional</w>
previ sta</w>
Est onia</w>
export ación</w>
n evertheless</w>
Est adís
industri a</w>
ent on
empl az
other wise</w>
fav our</w>
produc tive</w>
excep ción</w>
particul ares</w>
norm a</w>
Azerbai jan</w>
reconcili ation</w>
prom p
solici tar</w>
prostitu tion</w>
accoun ting</w>
g ing</w>
expec t
targe ted</w>
im puls
ases in
dela y</w>
E ti
ur as</w>
pay ments</w>
Moroc co</w>
Pro y
abog ado</w>
ar d
aper tura</w>
et tl
198 0</w>
system atic</w>
maxim um</w>
suministr os</w>
promo vi
enton ces</w>
Supre mo</w>
des g
pod ían</w>
l am
cier tas</w>
ed ing</w>
pár rs</w>
con taining</w>
proces sing</w>
ur sos</w>
n ar
E qui
of fered</w>
estu vi
negoci ación</w>
is t</w>
Pri me</w>
present ation</w>
Montre al</w>
erradic ación</w>
independi entes</w>
hist ór
G ol
pti mo</w>
in her
én dose</w>
hom bre</w>
disponi bilidad</w>
encour aging</w>
Bel gi
su al</w>
ad ém
reproduc tiva</w>
cul p
19 67</w>
pag os</w>
ú s</w>
r ace</w>
to ur
libri o</w>
S ta
compe ten
me tas</w>
ciud ad</w>
cl e
inst ance</w>
F aci
administr ativo</w>
pe d
ocup ado</w>
compon ents</w>
meth od
ú s
c art
so sten
re afir
nombr amiento</w>
ra í
signific antly</w>
deb emos</w>
Princi ples</w>
s el</w>
de z</w>
Qu estions</w>
Mo vi
main tained</w>
sim pli
tom ado</w>
es sion</w>
firm a</w>
en abling</w>
mis es</w>
judici ary</w>
firm ado</w>
re afirma</w>
over sight</w>
lat ter</w>
corri entes</w>
ár abe</w>
int el
criter io</w>
tr ó
calend ario</w>
tr ánsito</w>
bri ef
dise ases</w>
ot or
resul ta</w>
vehic les</w>
ológ icos</w>
rele ase</w>
secund aria</w>
coordin ar</w>
dirig idas</w>
for th</w>
Gen der</w>
wish es</w>
as entamientos</w>
ma estr
ist as</w>
o il</w>
perpetrat ors</w>
rev it
er ta</w>
urg ente</w>
ti les</w>
Tra ining</w>
cl asi
efici ente</w>
employ ees</w>
Do ha</w>
eng th</w>
conce sión</w>
wee k</w>
f arm
ap rendi
n ame</w>
recib en</w>
hop ed</w>
tion ally</w>
dign idad</w>
respec tivos</w>
examin a</w>
F ri
inmediat amente</w>
ur b
For ces</w>
afec tan</w>
iz e</w>
fisc ales</w>
mar ily</w>
oper acional</w>
in jur
religi osas</w>
reco pil
mé dica</w>
loc ation</w>
clar o</w>
ic als</w>
compren sión</w>
invit es</w>
ob le</w>
li mit</w>
ocup an</w>
Fi lip
oun d
col s</w>
st art</w>
ac adém
re al
ri se</w>
vivi endas</w>
min ors</w>
PRES ID
mar cos</w>
represent an</w>
noven o</w>
co los</w>
legitim ate</w>
difer encia</w>
at ura</w>
wast e</w>
D en
dign ity</w>
hacer lo</w>
amoun ts</w>
ail y</w>
f á
Fi eld</w>
ar rested</w>
conven tion</w>
Ar tí
im pres
Phi lip
cier tos</w>
ic ations</w>
Q atar</w>
campa ñas</w>
Civi les</w>
examin ando</w>
Eti op
detail s</w>
eradic ation</w>
Presid enta</w>
Ira q
co p
protec ting</w>
Etiop ía</w>
franc és</w>
U .</w>
hi ri
ar ti
ing ing</w>
a deci
wish ed</w>
satisfac tion</w>
nolog ía</w>
ro und</w>
organis mo</w>
expen ses</w>
glob alization</w>
prepar atory</w>
expan sion</w>
conven ios</w>
speci fied</w>
detain ees</w>
olu tion</w>
Bar b
In ici
suppor ts</w>
sex to</w>
M O
Fo od</w>
consider arse</w>
em ed</w>
ACNU DH</w>
ay os</w>
agr adeci
elec tri
Jama ica</w>
lear ning</w>
experi ences</w>
deten ido</w>
x ed</w>
th ly</w>
E qu
aprob ar</w>
D omin
exis t</w>
bá sico</w>
siv as</w>
car rying</w>
Inf ancia</w>
dic t
pedi do</w>
subjec ted</w>
inte rested</w>
hol ds</w>
Super visión</w>
pur ch
recon oc
diplom atic</w>
s urg
pri s
respe tar</w>
au to
Regi str
Mal ta</w>
excep t</w>
com port
pri marily</w>
tic ul
extra ordin
direc tion</w>
recon strucción</w>
Administr ativos</w>
S ea</w>
In iti
sec toral</w>
pro per</w>
extradi ción</w>
leg ítim
enfo ques</w>
D in
tend encia</w>
conden a</w>
par lament
t ent
sig an</w>
supervis ar</w>
ame works</w>
ac o</w>
fo und
selec ted</w>
f ri
To k
quím icos</w>
ak h
rest abl
L este</w>
ob tained</w>
ver b
B rit
et c.</w>
B asi
jo b</w>
15 0</w>
oper ación</w>
cuy os</w>
nuestr as</w>
y eron</w>
perten eci
encuentr a</w>
ni al</w>
mas a</w>
establ ez
ve ci
an cial</w>
safegu ards</w>
con seguir</w>
ac compan
quisi era</w>
min ing</w>
al eg
Fin ancial</w>
acc eler
A P</w>
sustain ed</w>
conclu ir</w>
facilit ating</w>
re ad</w>
Pu e
Mon go
propor tion</w>
deb ida</w>
denunci a</w>
high ly</w>
só li
Leg isl
pow ers</w>
igu almente</w>
incid ents</w>
expres ar</w>
des apari
formul ada</w>
unil ateral</w>
am ar
in mun
ha vi
Territori o</w>
sustan tivo</w>
ciud ades</w>
T ha
B iss
Stat us</w>
Mo z
198 6</w>
A N</w>
intern acion
arm ado</w>
M ul
st ance</w>
Pro hibi
cycl e</w>
Philip p
prepar ing</w>
Gr an
Biss au</w>
ju z
pu si
qu anti
campa ign
regul atory</w>
con duci
utiliz ando</w>
reason able</w>
b ab
esfuerz o</w>
fe lici
staf f
i ans</w>
en l
S h
x emb
ION ES</w>
f lows</w>
13 .
EE.U U.</w>
prohib ited</w>
pro spec
pron unci
bec om
reg lamentos</w>
i .
un employment</w>
loc ated</w>
M ov
geogr aphical</w>
wh y</w>
decre ase</w>
sol amente</w>
lleg ado</w>
un te
ub ic
fi gu
ju ez</w>
st ations</w>
almac en
t arse</w>
substan ces</w>
est amos</w>
a er
play ed</w>
adquisi ciones</w>
e amiento</w>
con strain
ri t</w>
justi fic
ad mis
Peace keeping</w>
í rit
law ful</w>
there by</w>
speak ers</w>
c ár
compro b
esper anza</w>
qu ej
administr ativa</w>
norm al</w>
Reg ulations</w>
H O</w>
organiz ado</w>
ar la</w>
si mi
hel ic
ament ary</w>
n un
Sp anish</w>
ful fil
ret os</w>
ou gh</w>
medi ano</w>
un able</w>
autor ización</w>
ap reci
clos ure</w>
decl ared</w>
nolog ical</w>
whe re
mi a</w>
re embol
reconcili ación</w>
emis sions</w>
Congres o</w>
preven tiva</w>
pl anos</w>
f all
ad ero</w>
proporcion a</w>
Dru gs</w>
vent ud</w>
them e</w>
red acción</w>
uni form
prove edores</w>
írit u</w>
l en
contr aí
UNA MI
des empleo</w>
recall ed</w>
ci miento</w>
in e
C z
main taining</w>
caracter ísticas</w>
ef t</w>
design ated</w>
fr ameworks</w>
bin ding</w>
mer idional</w>
Pro c
Per ú</w>
be havi
oc curred</w>
veri fication</w>
semin ars</w>
ver d
jef es</w>
recibi ó</w>
municip al</w>
mo ve</w>
sal e</w>
ár abes</w>
as sist
ab st
E .</w>
octa vo</w>
esp íritu</w>
as en</w>
ocu par
main stream
Dec reto</w>
at al</w>
10 1</w>
br inging</w>
atten ded</w>
coher encia</w>
tram it
In de
9 63</w>
permit an</w>
d aily</w>
gi ving</w>
Leban ese</w>
ocup a</w>
llev a</w>
ten go</w>
Observ er</w>
dur as</w>
ch ec
Ases or</w>
investig ar</w>
Per son
fig ure</w>
CC C</w>
n ations</w>
l ado</w>
Mon it
patrocin adores</w>
k ina</w>
interi m</w>
198 7</w>
circul ated</w>
Pro fes
dis abled</w>
N AT
perió dicamente</w>
cier to</w>
Ar ge
&apos; Ivoire</w>
l eft</w>
i. e.</w>
reiter ates</w>
ú nica</w>
S af
agg reg
Arge lia</w>
ag gres
Peo ples</w>
Lu xemb
ain s</w>
Per u</w>
leg ales</w>
settl ements</w>
extre m
tuvi eron</w>
ma kes</w>
in c
básic as</w>
n s</w>
og o</w>
lear ned</w>
inform a</w>
e ing</w>
organiz ar</w>
alist as</w>
oca siones</w>
a .m.</w>
accept able</w>
Iraq i</w>
nutri ción</w>
or adores</w>
hear d</w>
obstac les</w>
Ethiop ia</w>
Sta ff</w>
guarante ed</w>
espaci ales</w>
nun ca</w>
As sistant</w>
din ero</w>
b ol
necesi t
muni ciones</w>
jun ta</w>
ex plan
s pi
Congres s</w>
affec ting</w>
atic ally</w>
ne z</w>
g .</w>
sal vo</w>
U S
cust om
disast ers</w>
bel ong
Fin landia</w>
Bur kina</w>
h all
controversi as</w>
indic ar</w>
nutri tion</w>
de pri
associ ation</w>
bl an
St atu
S ou
Mongo lia</w>
inten tion</w>
Res pon
C op
cons on
F aso</w>
qu il
oc cidental</w>
ar les</w>
1 1
Movi miento</w>
Vol unt
usu arios</w>
refu gi
em powerment</w>
recei ving</w>
to x
per mit</w>
enti ty</w>
h t
du plic
ap p
Filip inas</w>
L D
confirm ed</w>
ac compli
ro om</w>
campaign s</w>
R um
prohibi tion</w>
E astern</w>
adopt ada</w>
o red</w>
permit a</w>
Moz ambi
or e</w>
Belar ús</w>
incorpor ar</w>
incid entes</w>
ref er</w>
l as
Proce di
produci do</w>
coordin ate</w>
sé ptimo</w>
IO S</w>
res e
to ol</w>
Mozambi que</w>
K ar
exten sion</w>
sub regionales</w>
H am
a i</w>
examin ed</w>
viol ated</w>
O ficial</w>
detall ada</w>
Y ear</w>
afr icana</w>
uni versi
destin ado</w>
voc ational</w>
lan z
Tr ust</w>
B udgetary</w>
bo o
pres cri
charg es</w>
remuner ación</w>
fac ult
C A</w>
ste in</w>
refle ja</w>
defici encias</w>
cambi ar</w>
ci encia</w>
moder n
j i</w>
primer os</w>
ul tim
e. g.</w>
neighb our
hab iendo</w>
P I
D urban</w>
th y</w>
realiz an</w>
fin alidad</w>
Jerusal én</w>
identi fying</w>
cl aim
chem ical</w>
llev ado</w>
A d</w>
he ads</w>
pr ést
Fin land</w>
aplic ado</w>
armon iz
consist e</w>
Cent ro
gi ó</w>
distin gu
cu bri
p hen
ad u
Artí culo</w>
d re
back ground</w>
vac antes</w>
inv a
spi rit</w>
in fl
tor ia</w>
ke ep</w>
domés tica</w>
CA T</w>
utiliz ado</w>
rean ud
con vi
ent er</w>
atten d</w>
C ar
ra in</w>
pursu e</w>
man o</w>
ow ned</w>
li ti
E r
B él
complain t</w>
D j
Z ambia</w>
arbitr ary</w>
cre ados</w>
Inici ativa</w>
estat al</w>
I ÓN</w>
fu el</w>
w om
c ad
exist ente</w>
faci ng</w>
agríco las</w>
estableci da</w>
de ly</w>
def en
o fer
Alg eria</w>
Initi ative</w>
N et
Ho c</w>
s m</w>
Bél gica</w>
OS CE</w>
198 5</w>
b ús
remedi es</w>
l d
reaffirm s</w>
amar ca</w>
wi dely</w>
Z im
priv ados</w>
en jo
de si
em por
E N</w>
ti ci
exam ples</w>
ow nership</w>
OM S</w>
i ra
14 .
perspec tivas</w>
Cz ech</w>
cl assi
revis ado</w>
il egal</w>
aph y</w>
abier to</w>
solicit antes</w>
govern ments</w>
enci ación</w>
posteri or</w>
consider ó</w>
top ic</w>
competen ce</w>
pa recer</w>
Pro jec
mar on</w>
l ate</w>
NG O</w>
pri vi
im pe
identi ficación</w>
li ability</w>
ét nicas</w>
propi as</w>
C ES
clar a</w>
adul tos</w>
tur n</w>
demostr ado</w>
an zar</w>
lig encia</w>
a sist
destac ó</w>
sem ana</w>
sosteni bles</w>
10 2</w>
reclam ación</w>
it h</w>
af for
comp any</w>
flexi ble</w>
disciplin ary</w>
col óg
Ad di
hag a</w>
sub si
v ía</w>
Belgi um</w>
act ú
resol ve</w>
re don
pli ci
Ár abes</w>
li m
encarg ada</w>
Europe o</w>
sustain ability</w>
Pol onia</w>
int ly</w>
z aje</w>
hist ory</w>
re form
vulner abilidad</w>
Elec toral</w>
impro vements</w>
ser vi
transpar ent</w>
san eamiento</w>
previ a</w>
conson ancia</w>
Rec om
man ual</w>
C T
D I
inform ado</w>
celebr a</w>
S AS</w>
a ña</w>
re tras
hag an</w>
ac ta</w>
ex ámenes</w>
subra ya</w>
emp los</w>
garanti za</w>
Fuer zas</w>
trans mitted</w>
te ams</w>
ci ng</w>
ch air
at ent
juris prud
M ic
t elecom
mencion ados</w>
Def ensa</w>
internacion almente</w>
san itation</w>
Cu arta</w>
m ur
soci edades</w>
convers aciones</w>
10 8</w>
cl av
l la</w>
mis mas</w>
alre dedor</w>
equi librio</w>
ológ ico</w>
qui era</w>
financi ar</w>
benefici o</w>
Segun da</w>
reg ards</w>
tu red</w>
transi t</w>
struc tural</w>
Sci entific</w>
ta x</w>
Equi po</w>
E L</w>
an aliz
pre dic
N ami
simi lares</w>
intim id
Din amarca</w>
aplic ando</w>
extradi tion</w>
2 3
fail ed</w>
al de
jo intly</w>
de g
lan to</w>
cumpli do</w>
declar ó</w>
us ers</w>
0 s</w>
límit es</w>
NP T</w>
extern a</w>
ac um
tuvi era</w>
sosteni bilidad</w>
dispu tes</w>
Su b</w>
deal t</w>
fo ster</w>
Zim bab
e uro
schedul ed</w>
adolesc ents</w>
CER D</w>
sem anas</w>
aliment ación</w>
construc tive</w>
enjo y</w>
oca sión</w>
cu entes</w>
hiri ya</w>
actu ar</w>
numb ers</w>
imp unity</w>
L E
alis mo</w>
Com b
Rec ursos</w>
deg ree</w>
Belar us</w>
Jama hiriya</w>
asisti r</w>
consult ative</w>
G H
complain ant</w>
mer cen
Statu te</w>
ejecu tar</w>
efec tivamente</w>
Un der</w>
sat el
regul arly</w>
L et
ma il</w>
en ship</w>
att ached</w>
selec ción</w>
Dec ree</w>
bús queda</w>
i ed</w>
ad ver
1 11</w>
ar le</w>
il es</w>
coordin ating</w>
R econ
prest ado</w>
le o</w>
e ties</w>
ens ayos</w>
Al ta</w>
reiter ated</w>
con fisc
estrech amente</w>
s anci
pes ca</w>
at tend
mencion adas</w>
F NU
organiz ó</w>
sent encia</w>
differ ences</w>
1 10</w>
ep ide
P úbl
raí z</w>
Resour ces</w>
profes sion
Subcom mittee</w>
super ar</w>
agre sión</w>
cre ó</w>
invest ments</w>
H ou
sho w</w>
po dido</w>
ti pi
aplic an</w>
2 4
fem en
certi fic
re ales</w>
S U
re mos</w>
Hun g
an i</w>
distr ito</w>
ej emplos</w>
Terroris m</w>
agre e</w>
web site</w>
a ded</w>
ten stein</w>
ac red
mo str
advoc acy</w>
mar ks</w>
depend ence</w>
T ail
participar on</w>
Li ech
G EN
de o</w>
mu til
achiev ements</w>
10 3</w>
a p</w>
inst ancia</w>
Ben in</w>
o re
sol di
Hon duras</w>
T raf
salvaguar dias</w>
minister ios</w>
Liech tenstein</w>
198 2</w>
recon struction</w>
hu bo</w>
inclu ya</w>
mil es</w>
reaffirm ing</w>
pre mises</w>
adap tation</w>
exten sive</w>
su r</w>
arm amentos</w>
el ement</w>
pudi eran</w>
di ez</w>
Zimbab we</w>
N P</w>
inter venciones</w>
m ach
sol dados</w>
spo ke</w>
imp acto</w>
mainstream ing</w>
datab ase</w>
prepar ativos</w>
espaci al</w>
E mi
apru eb
sto od</w>
Tail andia</w>
recon ocer</w>
trabaj ando</w>
chang ed</w>
as p
Mov ement</w>
re ply</w>
tró leo</w>
re views</w>
imp acts</w>
f ocal</w>
deli vered</w>
imp unidad</w>
á ticamente</w>
n aciones</w>
lig ence</w>
circul ación</w>
deploy ed</w>
Philipp ines</w>
ul traterrestre</w>
ch es</w>
perteneci entes</w>
it ales</w>
Pol and</w>
Ac coun
ent revi
Bret aña</w>
0 5</w>
S I</w>
L og
Ter cera</w>
S S</w>
P R</w>
separ ación</w>
M us
limit ado</w>
preci s
Coordin ator</w>
lo ok</w>
sec tions</w>
pros per
abog ados</w>
observ er</w>
o p</w>
train ed</w>
ci ties</w>
trans misión</w>
fronter iz
veci nos</w>
rap id</w>
men s
dispu te</w>
acus ado</w>
inici ado</w>
tro ops</w>
10 .00</w>
Princip ios</w>
em in
re port
0 1</w>
so cor
co vering</w>
Ci encia</w>
apare ci
wi des
agríco la</w>
desplaz adas</w>
Activi dades</w>
observ ando</w>
ira qu
wom an</w>
th u
u tr
di visión</w>
IP SAS</w>
hosp ital</w>
an ni
investig ate</w>
sti c</w>
E U</w>
par ent</w>
fab eti
I R
as signed</w>
form ula</w>
inici ar</w>
2 50</w>
presupuest arias</w>
pa pers</w>
L B</w>
mon to</w>
gr ati
innov ative</w>
St and
contr ary</w>
mar c
distribu ted</w>
humanit arios</w>
sectori ales</w>
vi aje</w>
tem pr
pro cl
assi sting</w>
pl ed
Cap aci
men o</w>
n ever</w>
F EM</w>
consecu ción</w>
ende av
Monit oring</w>
re ven
ag ot
con tain</w>
al ed</w>
ati zación</w>
agrade cer
manifi esto</w>
mat r
n ine</w>
stres ses</w>
expan ded</w>
Cambo ya</w>
P ap
j eron</w>
constrain ts</w>
repatri ación</w>
figu res</w>
Pl ataforma</w>
EN T</w>
Energ y</w>
ur s</w>
contr ario</w>
G ab
le t</w>
ION S</w>
suf fering</w>
E mer
present an</w>
O u
condi tion</w>
fenó meno</w>
ot s</w>
geogr áfica</w>
ci ales</w>
work ed</w>
charg ed</w>
N orm
envis aged</w>
10 6</w>
10 4</w>
M ar</w>
ec o
UNI FEM</w>
op ción</w>
individu ales</w>
ld wide</w>
inferi or</w>
incorpor ated</w>
as sur
mand ated</w>
vent aj
noti ficación</w>
escu ch
a ul
staff ing</w>
Indu stri
acog ida</w>
l er</w>
announ ced</w>
acum ul
Pow er</w>
ist a</w>
prest an</w>
pri mero</w>
contribu ido</w>
hist oria</w>
expul sión</w>
prop ag
cuid ado</w>
fá ci
con se
lic encia</w>
Nami bia</w>
tempor al</w>
ac quisi
comb ined</w>
as s</w>
C M
Tha iland</w>
ráp ida</w>
vers ary</w>
matern al</w>
Su peri
necesi ta</w>
E R</w>
pil ot</w>
az mente</w>
tech nological</w>
mod alities</w>
ne ar</w>
welcom ing</w>
pr ices</w>
n ada</w>
reaffirm ed</w>
futur os</w>
E sp
re present</w>
coun sel</w>
alo j
rati ficado</w>
Par agu
acc ur
em poder
H U
ish ment</w>
provin cial</w>
socor ro</w>
wit nesses</w>
enjuici amiento</w>
satisfac er</w>
nu eve</w>
acred it
con cili
pl ying</w>
convenci ones</w>
Cor rup
inmedi ato</w>
Cons ult
ant ec
hab rá</w>
liter acy</w>
fit ri
Den mark</w>
CONF .
resu el
cer tain
Ali anza</w>
out lined</w>
ing ü
psi cológ
se p
efic azmente</w>
bo und
posteri ores</w>
of obia</w>
vo to</w>
offic er</w>
bas adas</w>
roman íes</w>
sy m
as su
oph obia</w>
plaz os</w>
Procedi miento</w>
ocup ados</w>
appe als</w>
Tec nología</w>
independi entemente</w>
pl ur
15 .00</w>
fac to</w>
pudi era</w>
deci di
di strict</w>
trasl ad
tex tos</w>
ish ed</w>
al tos</w>
t ú
val id
in si
urban as</w>
sub mit
Slo v
desg los
adopt ó</w>
ou ter</w>
utiliz ados</w>
integr ar</w>
instruc ciones</w>
Li bia</w>
realiz ó</w>
mater na</w>
tend rán</w>
with draw
Cu estiones</w>
í n</w>
presu puestos</w>
realiz ando</w>
der i
lin k
ét nico</w>
produc t</w>
s ement</w>
In dependent</w>
emi ti
requi sito</w>
sensi tive</w>
P un
teach ing</w>
Ch eca</w>
advant age</w>
posi tiva</w>
col oc
actu aciones</w>
ileg ales</w>
deb ati
de ep</w>
cont empl
as ci
T éc
e e</w>
believ es</w>
in strucción</w>
est re</w>
etap as</w>
mo ther</w>
añ ad
cu la</w>
e k</w>
Mal ay
bor n</w>
los ses</w>
cifr a</w>
psych ological</w>
co erci
sat é
ex terior</w>
p .m</w>
belong ing</w>
solidar idad</w>
of recen</w>
solidar ity</w>
electró nica</w>
B ri
consequ ently</w>
en orm
du da</w>
execu tion</w>
sig lo</w>
fí sic
demor a</w>
secu estr
equit ativa</w>
realiz a</w>
control led</w>
cap abilities</w>
an ch</w>
an alizar</w>
aci o</w>
MONU C</w>
Prepar atory</w>
Ap pe
solici tado</w>
resum ed</w>
allow ance</w>
te red</w>
cli ma</w>
accompan ied</w>
subsidi arios</w>
phen om
pe tróleo</w>
wor ldwide</w>
sufrag ar</w>
consci ente</w>
et ary</w>
ne utr
extr aj
1 12</w>
min or</w>
puls ory</w>
suel dos</w>
com ment</w>
bur den</w>
kil led</w>
en rol
euro pe
fronter a</w>
Turk ish</w>
chang ing</w>
recib idas</w>
Jef es</w>
mon thly</w>
C aja</w>
pos al</w>
transfer red</w>
T ask</w>
entra ñ
reg re
Brit ain</w>
identi ficar</w>
tot alidad</w>
ent as</w>
chem icals</w>
B as
an ian</w>
inter fer
method ology</w>
j er
1 st</w>
human ity</w>
pro medio</w>
consider an</w>
disfru te</w>
inqui e
10 7</w>
pri mor
p ack
peri ods</w>
mag n
fi que</w>
reafir mando</w>
A ño</w>
cuesti on
sup plement
hi jo</w>
accep t</w>
coun sel
ol der</w>
sal do</w>
priv ación</w>
F ound
Coordin ador</w>
dis appear
cu á
mé todo</w>
rap e</w>
expres aron</w>
F P</w>
compet ente</w>
alcan zado</w>
or adora</w>
o v</w>
deliber ations</w>
cam ps</w>
B er
ej ército</w>
con fron
hac erse</w>
con gr
apropi ado</w>
Cambo dia</w>
Par t</w>
ingres o</w>
tar dar</w>
enci ng</w>
ráp ido</w>
ens or</w>
direc ted</w>
limit ación</w>
hom es</w>
pacífic a</w>
pr ice</w>
vi able</w>
s a
gen u
solicit ó</w>
prohí be</w>
hou se</w>
F C</w>
G E
W HO</w>
S P</w>
L AS</w>
privi leg
B .
é tica</w>
st án</w>
le res</w>
camp amentos</w>
tro op</w>
nor te</w>
incre mento</w>
aliz ada</w>
Famili a</w>
par al
er tura</w>
in cumplimiento</w>
har m</w>
ier on</w>
Mal asia</w>
er ies</w>
benefici arios</w>
man tiene</w>
aus encia</w>
ac tores</w>
específic amente</w>
appe ar</w>
aument ó</w>
We b</w>
descri p
resid ent</w>
inspec ción</w>
T ay
t i</w>
D egr
an e
au g
ate ful</w>
distribu ir</w>
aqu ellos</w>
deci dido</w>
public ado</w>
reserv ation</w>
Superi or</w>
expl ained</w>
pol lu
I gu
MINU R
flo or</w>
Y outh</w>
rol es</w>
S C</w>
utiliz an</w>
sim ult
pro gre
tr end</w>
f all</w>
metod ología</w>
se res</w>
aliz ing</w>
bi r</w>
dre w</w>
cont empor
present ara</w>
g estion
C C</w>
disponi ble</w>
show s</w>
ro r</w>
lu ego</w>
for tun
alis t</w>
S w
PA D</w>
ent amiento</w>
continú a</w>
spons ors</w>
anni versary</w>
proporcion ado</w>
ari time</w>
li sts</w>
sup one</w>
adjust ment</w>
Comision ada</w>
beg an</w>
O N</w>
prác ticos</w>
m ess
extre me</w>
estratég ica</w>
in sufficient</w>
mini stries</w>
vulner ability</w>
pose edores</w>
ENT E</w>
ret ro
tr ate</w>
requi eren</w>
dise ño</w>
enterpri se</w>
it able</w>
un es</w>
F iduciario</w>
Paragu ay</w>
O PS</w>
lit tle</w>
am p
gr ateful</w>
ic en</w>
inci so</w>
baj os</w>
G obiernos</w>
aport an</w>
ploy ment</w>
el led</w>
Found ation</w>
genoci dio</w>
fac ts</w>
depri ved</w>
lin k</w>
per form</w>
2 n
Constitu tional</w>
I .</w>
consid ere</w>
1. 000</w>
enl ace</w>
fer s</w>
Profes sional</w>
pot encial</w>
recurri r</w>
com position</w>
relacion ada</w>
dest ro
pris ons</w>
r an
cob ertura</w>
S el
org á
T ú
de stru
a ison</w>
Net work</w>
ins cripción</w>
compren de</w>
in ser
Jord ania</w>
G ener
UNMI K</w>
depend encias</w>
Projec t</w>
por ting</w>
Li thu
aprendi zaje</w>
l ar</w>
plant ea</w>
t est</w>
re estructur
in ju
P ER
ec os
selec tion</w>
constitu tes</w>
mar a</w>
1 14</w>
j ob
pl ement</w>
dé ci
tal leres</w>
defen sores</w>
li za</w>
interven tions</w>
sav ings</w>
E quality</w>
1 16</w>
Pro lifer
tour ism</w>
reconoci ó</w>
vi o</w>
am par
15 .
an y
de pl
o a</w>
sanci on
limit s</w>
intro duce</w>
es cal
op ened</w>
asp ecto</w>
K y
LD Cs</w>
Pl atform</w>
Cul turales</w>
ga p</w>
tam poco</w>
Jord an</w>
v el</w>
f ile</w>
I S</w>
wee ks</w>
colon ización</w>
program ación</w>
S toc
sid es</w>
intoler ancia</w>
ex plici
Administr ativo</w>
interven tion</w>
a plaz
do ing</w>
acce der</w>
nam es</w>
fav our
ob e
anti gu
Re li
bli ot
he re
conjun tas</w>
comprome tido</w>
Develop ing</w>
M echanis
Treat ment</w>
cum plan</w>
rele ased</w>
invol ve</w>
cent ury</w>
agu as</w>
focu sing</w>
f la
en ses</w>
1 30</w>
re me
UN D
e i</w>
dese en</w>
combusti ble</w>
Part nership</w>
empres arial</w>
v end
budge ts</w>
Igu aldad</w>
defin ir</w>
autor a</w>
Com prehensive</w>
O U
depen de</w>
com plic
at ra
2n d</w>
p ati
Ex cell
Def ence</w>
pan el</w>
divul gación</w>
a un</w>
ev ent
im mun
pen sion</w>
plem ento</w>
gn ed</w>
recall s</w>
limit ada</w>
G ar
de a
bas ados</w>
ed entes</w>
cor to</w>
acquisi tion</w>
Exper t</w>
ari s</w>
relev ance</w>
soldi ers</w>
prepar ations</w>
att ack</w>
alg ún</w>
Promo ción</w>
Tú nez</w>
Malay sia</w>
máxim a</w>
provinci as</w>
re im
NE PAD</w>
sever e</w>
Intern a</w>
du al</w>
coment arios</w>
l or
ali an</w>
acces sible</w>
lin ks</w>
com pulsory</w>
exp and</w>
dispon er</w>
Con solid
Viol ence</w>
re aching</w>
prelimin ar</w>
at r
div or
Plan ning</w>
recl usos</w>
gui de</w>
ment ación</w>
vot os</w>
reg la</w>
1 15</w>
r um
F .</w>
for os</w>
vé anse</w>
program ming</w>
fin ding</w>
bo ys</w>
sup on
W el
e uros</w>
Estadís tica</w>
abs or
mencion ado</w>
c as</w>
C U
d ul
Fin ancing</w>
labor ales</w>
es en</w>
cust oms</w>
SO M</w>
ap elación</w>
semin ar</w>
K h
tot almente</w>
acep tación</w>
serv ed</w>
esti pul
vi l</w>
Turk men
cum pl
ra za</w>
re ve
top ics</w>
ment ally</w>
serv ing</w>
cont actos</w>
In cre
urg encia</w>
contr actual</w>
agr av
UN R
EC H
permiti do</w>
conven ción</w>
modific ar</w>
an fitri
E C</w>
Hun gr
repatri ation</w>
ti ally</w>
suf fered</w>
ex ports</w>
ro p
oblig atoria</w>
pacífic os</w>
reduci do</w>
Rum ania</w>
altern ativas</w>
Com ún</w>
aplic aciones</w>
ma si
dur ation</w>
Hungr ía</w>
se ar
s la
deci dir</w>
pu la</w>
1 13</w>
posi tivos</w>
tro p
tercer os</w>
present aron</w>
me t
deman ds</w>
than k</w>
M ecanis
beli ef</w>
a fron
actu ación</w>
ten ción</w>
contr ati
utiliz ation</w>
up date</w>
u a</w>
accept ance</w>
qu estion
tech ni
CN. 9</w>
behavi our</w>
cooper ar</w>
norm ativa</w>
pas s
val or
den eg
S an
re str
con cre
g ama</w>
a o</w>
elev ado</w>
ráp idamente</w>
citiz enship</w>
trans actions</w>
al quil
O IOS</w>
reg las</w>
científic os</w>
beg in</w>
de masi
r un</w>
siz e</w>
vig entes</w>
Proy ecto</w>
cam ino</w>
Oc cu
demonstr ated</w>
Ex c
ab road</w>
est ará</w>
g aps</w>
cen so</w>
re plies</w>
contamin ación</w>
re ú
destac ar</w>
cometi das</w>
tre ated</w>
fom ent
sp here</w>
shi p
T uni
favo reci
inst e
ventaj as</w>
Cul tura</w>
exclu sión</w>
actualiz ada</w>
proced ural</w>
attemp t</w>
vi sto</w>
baj a</w>
J udicial</w>
Industri al</w>
particip ado</w>
ent abl
appe ared</w>
Statis tics</w>
a fili
chil d
explo sivos</w>
inst all
finan ced</w>
convic ted</w>
as e
adv ancement</w>
integr ate</w>
aceler ar</w>
neces si
al one</w>
S O</w>
UNAMI D</w>
aw i</w>
bro ader</w>
cl ear
sec ciones</w>
conduc ting</w>
job s</w>
le vi
op ti
modific aciones</w>
n av
U n</w>
vigil ar</w>
particip ó</w>
M AN
fortal eci
cur ri
gr ade</w>
F R
Vicepresid ente</w>
extranj era</w>
particip en</w>
Sec tor</w>
am i</w>
reim bur
let ters</w>
Com mon
1 18</w>
ann ex
ed or</w>
li der
inv o
pag ar</w>
mi ze</w>
prob able</w>
t aron</w>
C L
g g
Common wealth</w>
las ting</w>
repres ents</w>
qued an</w>
é stas</w>
ap el
art es</w>
Sou thern</w>
migr atorios</w>
ti ous</w>
cip i
in adequate</w>
May or</w>
ecos y
cer r
vig ente</w>
reconoci do</w>
compet encias</w>
ampli as</w>
bre ve</w>
ang e</w>
comien zo</w>
im pul
under taking</w>
equi libr
convenci onales</w>
registr ado</w>
pers onales</w>
y l</w>
simil arly</w>
Lu cha</w>
respec tivas</w>
F re
inste ad</w>
cru el</w>
loc ations</w>
termin ado</w>
Excell ency</w>
Add .2</w>
quali fied</w>
n ation</w>
Hung ary</w>
un ded</w>
proporcion ada</w>
cu ant
wides pread</w>
concret amente</w>
Investig ación</w>
titul ada</w>
gener ación</w>
Audit ores</w>
G reci
sum amente</w>
correspon d
A P
ó n
esti pula</w>
control s</w>
b at
Con tribu
IN G</w>
i ght</w>
í ti
fi gh
1 22</w>
enferme dad</w>
ci one</w>
Investig aciones</w>
re presión</w>
Greci a</w>
loc ked</w>
legisl ativo</w>
Of ficial</w>
intoler ance</w>
evid ente</w>
invit ó</w>
e ta</w>
soci eties</w>
di ag
H ong</w>
hab ido</w>
cl aus
1 17</w>
D ay</w>
en ví
sistem ática</w>
recomm end</w>
almacen amiento</w>
escol ares</w>
Mechanis m</w>
agradeci miento</w>
pon ga</w>
repres enting</w>
M ag
vis er</w>
le tr
ac tas</w>
pro puso</w>
av anzar</w>
bi ological</w>
transport ation</w>
llev ó</w>
y ana</w>
inter medi
en umer
re y</w>
w age</w>
B L
Audit ors</w>
W TO</w>
reme dy</w>
st ages</w>
lat est</w>
Fi ji</w>
UN IT
ac king</w>
k ly</w>
tri b
bi d</w>
Rom ania</w>
invit ation</w>
mo .</w>
vo ting</w>
Exc mo.</w>
Fin al</w>
di am
Com m
In d
ard ous</w>
v ar
requ esting</w>
tr ue</w>
agradecer ía</w>
bit ra
Est udi
profun da</w>
trans national</w>
tempr ana</w>
detall es</w>
adop ting</w>
consolid ated</w>
ter as</w>
K ong</w>
formul ado</w>
empoder amiento</w>
CE P
m esa</w>
grad ual</w>
estableci mientos</w>
R ío</w>
ét nicos</w>
star ted</w>
re peti
some ter
li stas</w>
coher ente</w>
trans acciones</w>
mínim a</w>
ad mini
h id
comport amiento</w>
believ ed</w>
m adre</w>
í s</w>
Kaz aj
im puestas</w>
A M
Promo tion</w>
C ab
Un idad</w>
lam enta</w>
des centr
sh r
ob ras</w>
específic a</w>
moder n</w>
inter gubernamental</w>
Energ ía</w>
form ed</w>
o vi
d oble</w>
Con tin
direc to</w>
Palestin ians</w>
sub stance</w>
aggres sion</w>
UNR WA</w>
Boli vari
bec ame</w>
uni que</w>
d y
dirig ido</w>
N LB</w>
de ad
T aj
cl á
manag ers</w>
aplic arse</w>
tr u
Kazaj stán</w>
dur adera</w>
ig a</w>
tele visión</w>
gen ital</w>
et as</w>
B ase</w>
dis capaci
consider ables</w>
autonom ía</w>
toler ancia</w>
t el</w>
reflec ts</w>
exclu sivamente</w>
u l</w>
can c
logr ados</w>
pron to</w>
Kaz akh
control es</w>
MI T
s or
prést amos</w>
int elec
comprome ti
Dj ib
deserti ficación</w>
desast re</w>
Traf ficking</w>
Kazakh stan</w>
o y</w>
i de</w>
tur ismo</w>
indic ates</w>
at tr
Strateg ic</w>
aw ay</w>
bal anced</w>
an dum</w>
bu en</w>
under ing</w>
V .
T ogo</w>
in ali
ins cri
pri mir</w>
super vision</w>
algun o</w>
inst ó</w>
al y
over come</w>
lec tual</w>
aud i</w>
O L
señal ado</w>
T he
m ed</w>
bl oc
signific a</w>
ver sion</w>
introduci r</w>
aci ng</w>
trad uc
7 0
proce der</w>
Milit ary</w>
muestr an</w>
S tu
ed a</w>
íti mo</w>
consider ations</w>
Evalu ación</w>
rel atively</w>
fic ada</w>
dou b
ag reg
acti tud</w>
so f
orient ed</w>
out i</w>
coher ence</w>
armon ización</w>
w ri
st ems</w>
for ums</w>
hear ing</w>
jo ined</w>
d am</w>
de centr
schedul e</w>
in migrantes</w>
faci lity</w>
bu enas</w>
organiz e</w>
S audi</w>
198 1</w>
descri be</w>
modi ficación</w>
z os</w>
dea ths</w>
influ ence</w>
ton el
ís tico</w>
larg ely</w>
in human</w>
alist a</w>
ajust es</w>
st able</w>
cur s
ces ación</w>
W G
on o</w>
ex emp
A .
o port
emphasiz es</w>
ac tor</w>
AC IÓN</w>
a isl
adequ ately</w>
az go</w>
14 0</w>
inspec tion</w>
dev oted</w>
sen se</w>
gr am</w>
le av
degrad ing</w>
197 3</w>
d or
cont ents</w>
seg uros</w>
sear ch</w>
ener gé
s ac
conserv ation</w>
prom oted</w>
ad misi
registr os</w>
g ave</w>
ne y</w>
13 73</w>
pre jud
provinci a</w>
obst acu
erradic ar</w>
colon i
Fr an
Mecanis mo</w>
z an</w>
sufici entemente</w>
su d
Gre ece</w>
llev an</w>
ampli amente</w>
qu ic
13 8</w>
san ds</w>
b s</w>
pres sure</w>
c ame</w>
proto colo</w>
dis advant
de le
l ying</w>
n y
manifest aciones</w>
all á</w>
determin ing</w>
profession als</w>
ro w
se as</w>
equ ally</w>
S mall</w>
P N
im pedi
experim ent
d ot
urg entes</w>
bal ances</w>
citiz en</w>
estadís ticos</w>
entreg a</w>
is tic</w>
concre to</w>
extr ap
de ca
retur ned</w>
acknowled ged</w>
ciudad anía</w>
m us
en ér
nom bres</w>
t ;</w>
P aris</w>
penal ties</w>
cuadr agésimo</w>
á reas</w>
ju bil
pres sion</w>
TA R</w>
Djib outi</w>
assist ed</w>
ec en</w>
pres os</w>
declar a</w>
OM C</w>
i .</w>
withdraw al</w>
re du
pas sed</w>
Director a</w>
in king</w>
preocup ado</w>
asu m
cont abilidad</w>
IC T</w>
vari ety</w>
I l
extrap resu
estu vo</w>
enforc ed</w>
vi s</w>
toler ance</w>
traf fic</w>
miti gación</w>
pre ten
extrapresu puest
Inter gubernamental</w>
con dem
firm emente</w>
servi r</w>
po p
dis posal</w>
des movilización</w>
er ous</w>
Saf ety</w>
rel ativamente</w>
consolid ar</w>
IN TER
thou sands</w>
conc ur
L itu
Ad v
fic a</w>
18 2</w>
te sis</w>
A D</w>
man age</w>
trans mit</w>
ad verse</w>
T R
Lithu ania</w>
sospec h
pror r
1 19</w>
preci o</w>
aliz ados</w>
equ ity</w>
fe asi
1 25</w>
mi d</w>
g ases</w>
exist encias</w>
d less</w>
gu il
des c
as a</w>
min er
K ir
bitra je</w>
Fis cal
en en</w>
de priv
re vision</w>
apli quen</w>
au xili
consider aciones</w>
increas es</w>
h un
see kers</w>
mant eng
Mi x
regar dless</w>
Em ployment</w>
197 8</w>
seri ously</w>
198 4</w>
fo re
C AR
r ent</w>
rest res</w>
acces sion</w>
Arm ed</w>
O versi
contr adic
Tanz anía</w>
Oversi ght</w>
1 23</w>
proces amiento</w>
c ódigo</w>
lawy ers</w>
as sign
Tanz ania</w>
fo reign
t enth</w>
coordin adores</w>
bi os</w>
N at
Conven tions</w>
cu ente</w>
Sel f</w>
fri end
Litu ania</w>
Fin ance</w>
razon able</w>
fisc alización</w>
extrem ely</w>
k o</w>
quím icas</w>
li ban
G i
t ack
org ánico</w>
acade mic</w>
visi ted</w>
observ ar</w>
invit ación</w>
formul aron</w>
convin ced</w>
mal e</w>
excep tion</w>
bo ok</w>
dis aggreg
re struc
F CCC</w>
movi miento</w>
d ada</w>
pe t
ac tiv
schem e</w>
ri d</w>
16 .
proto col</w>
lleg ó</w>
anci es</w>
O OPS</w>
he al
establec en</w>
larg est</w>
A MI
15 3</w>
movi mientos</w>
IN F
Sci ence</w>
inter ino</w>
sent enced</w>
guar di
Str ength
J ud
every one</w>
ro se</w>
hist or
t amiento</w>
resol ved</w>
restric ted</w>
part ner</w>
constitu ted</w>
defini tiva</w>
agr ado</w>
pre sidi
lig eras</w>
interpre t
oport una</w>
acept ar</w>
E L
si le</w>
en comi
estim ate</w>
aprueb a</w>
Provi sional</w>
St an
tic ally</w>
Fiscal ía</w>
ass ment</w>
conting ent</w>
volunt arios</w>
di ri
re mit
hubi eran</w>
Soci ety</w>
regres o</w>
present ará</w>
movi lizar</w>
es sive</w>
house holds</w>
Ch in
Barb ados</w>
so tros</w>
en den</w>
UNMI L</w>
wri ting</w>
Confer encias</w>
pres un
Mus li
Par ís</w>
O C
ati zation</w>
man aged</w>
s outh</w>
18 0</w>
19 49</w>
inclu y
fac ultativo</w>
encom end
p aci
entr ó</w>
permit en</w>
inici ó</w>
fic ó</w>
educ ativo</w>
acus ados</w>
difun dir</w>
z ones</w>
1 21</w>
Fri day</w>
plan i
aport aciones</w>
lider azgo</w>
ent re
o sis</w>
air space</w>
Pot encia</w>
Prolifer ation</w>
I .
experi enced</w>
ofer ta</w>
report edly</w>
O fici
i li
S itu
perform ed</w>
la h</w>
Eslo venia</w>
ju sta</w>
L at
record ar</w>
pl anti
OS SI</w>
e be</w>
ht t
Del in
extern os</w>
peri o
as ing</w>
ten emos</w>
áfic os</w>
conclu de</w>
X I</w>
Ni vel</w>
o posición</w>
estim ación</w>
des apareci
eni os</w>
Oper ation</w>
alcanz ados</w>
ilíci tos</w>
CES PA
fu tura</w>
man os</w>
3 3
jo in</w>
Tri bun
I C</w>
B us
d otación</w>
E AN</w>
urg e</w>
congr at
li bres</w>
Jurí dica</w>
S ettl
valu able</w>
ri onal</w>
ter restres</w>
banc os</w>
den es</w>
decl ine</w>
tonel adas</w>
facilit ación</w>
crit o</w>
fuer an</w>
t ables</w>
vir tu
ast er</w>
inv oc
patri monio</w>
oper ate</w>
I N</w>
sou thern</w>
B ot
apru ebe</w>
consul tores</w>
subra yó</w>
posi tivo</w>
ern es</w>
extranj eras</w>
antec edentes</w>
introduci ng</w>
multi ple</w>
continu ous</w>
Agricul ture</w>
deca de</w>
el l
becom ing</w>
nei ther</w>
H is</w>
vi ernes</w>
la id</w>
func tional</w>
inici o</w>
fel t</w>
l unes</w>
i ous</w>
religi osos</w>
inmediat a</w>
apropi ados</w>
co vers</w>
celebr aron</w>
ani vers
ar idad</w>
Ex pl
si ri
jef e</w>
gr ants</w>
accommod ation</w>
not as</w>
in migración</w>
atu res</w>
hab erse</w>
suel en</w>
hel ped</w>
A tl
h ará</w>
trasl ado</w>
L ocal</w>
co de</w>
es clav
S cho
nor th</w>
fac ultades</w>
cart as</w>
cho ice</w>
cualqui era</w>
ev acu
Mon day</w>
Inter governmental</w>
eco sistemas</w>
Pue blo</w>
no sotros</w>
Mo ham
h arm
intensi ficar</w>
co inci
sal ary</w>
tor no</w>
Slo venia</w>
Gu yana</w>
1 ,000</w>
conf identi
m entar</w>
indic ado</w>
some times</w>
aument ando</w>
Si x
gener ation</w>
copi es</w>
D ía</w>
ul terior</w>
colec tiva</w>
A udi
c asi
coun ci
r al</w>
sugg estions</w>
señal aron</w>
XX I</w>
cuent an</w>
gast o</w>
com posed</w>
W o
bi ó</w>
revis ar</w>
per miso</w>
O n</w>
de see</w>
es pañ
C á
per taining</w>
Sex ta</w>
á s</w>
recopil ación</w>
cob r
for th
perió dicas</w>
continu ation</w>
ta x
conjun ction</w>
AS EAN</w>
Afgh an</w>
dep th</w>
Tok el
eleg idos</w>
científic a</w>
im poner</w>
ar di
ór denes</w>
alleg edly</w>
candi dat
recibi eron</w>
tr ag
pro ved</w>
satel lite</w>
primor dial</w>
e re
pot enci
Cam ero
fabric ación</w>
dific ult
A de
17 .
ar rest
b ast
selec cion
naci miento</w>
medi cin
di señ
pen siones</w>
ing ton</w>
có ny
ve y</w>
difíci les</w>
conci enciación</w>
Ch em
bu ques</w>
ex pir
Cli mate</w>
or ation</w>
D ER
seg ment</w>
su ales</w>
auth ors</w>
ST A</w>
el ling</w>
ti sh</w>
ch ing</w>
expres sing</w>
13 4</w>
review ing</w>
en on</w>
employ ers</w>
cre e</w>
elec tor
custom ary</w>
norm ativo</w>
wi der</w>
aus pi
infr a</w>
N ar
i ii</w>
Ro ja</w>
adv anced</w>
har assment</w>
degrad ación</w>
e ous</w>
dedic ado</w>
afirm ó</w>
Con di
U r
dom ici
Mon ter
suf fici
bi ológica</w>
P res
extre ma</w>
ex tend
n ación</w>
depriv ation</w>
al levi
agr up
sob re
ét nica</w>
W h
link ages</w>
H el
mencion ar</w>
legisl ativos</w>
fish ing</w>
W FP</w>
formul ated</w>
distin ción</w>
char ac
R ES
anivers ario</w>
inform aciones</w>
3 7
out reach</w>
T E</w>
D .
distin ction</w>
ar te
cel es</w>
minister ing</w>
rel ate</w>
desempeñ an</w>
xen ofobia</w>
pro puestos</w>
en shr
stres s</w>
propi ci
permiti rá</w>
conver ti
conjun tos</w>
neighbour ing</w>
barri ers</w>
combati entes</w>
rem ote</w>
requi ring</w>
ordin arios</w>
li bre
fic adas</w>
fund amente</w>
stipul ates</w>
reclu tamiento</w>
tercer o</w>
religi osa</w>
res titu
carre ra</w>
C NU
G EF</w>
red ac
cu anti
ban k</w>
PRESID ENTE</w>
rejec ted</w>
laun ch</w>
ev o</w>
esper amos</w>
per cep
Feder ativa</w>
ob ra</w>
co ast
audit a</w>
equ idad</w>
Plan ificación</w>
vehic le</w>
ordin ary</w>
ter a</w>
ur s
j as</w>
e tu
asu mir</w>
inici ales</w>
correspon ding</w>
C al
Norm as</w>
judg ement</w>
com mit</w>
Com mittees</w>
lit oral</w>
at mo
desempe ña</w>
htt p</w>
fi xed</w>
adecu adamente</w>
1 24</w>
clá usu
acc or
H R
C P.
cri ses</w>
SB I</w>
ca sion</w>
ag en</w>
integr ados</w>
par ental</w>
Monter rey</w>
r acion
we ak
it age</w>
degrad ation</w>
direc tos</w>
civi liz
st or
Inspec ción</w>
K i
prior itarias</w>
ab udgetary</w>
M edit
ar r
Uzbek istán</w>
in stances</w>
Ind ígenas</w>
dirig idos</w>
deriv ados</w>
remo val</w>
periodi stas</w>
pr ór
projec ted</w>
hel ping</w>
u de</w>
viol ent</w>
Occu pied</w>
Consul tivo</w>
tri m
UNI TAR</w>
corpor al</w>
po cos</w>
z ing</w>
mus ul
Is land</w>
Gu idelines</w>
1 60</w>
em an
F DI</w>
R io</w>
reglament ación</w>
Tokel au</w>
infr ing
s ay</w>
d año</w>
16 9</w>
sw ana</w>
T NP</w>
Arm as</w>
r ami
ne o</w>
norm ativas</w>
comm ended</w>
b orders</w>
Tuni sia</w>
ali anzas</w>
I MI
Person as</w>
ma kers</w>
Pro duc
sel s</w>
b era</w>
Chin ese</w>
continu a</w>
Ch ange</w>
muni tion</w>
pro fundamente</w>
observ ador</w>
comunic ado</w>
phenom enon</w>
C a
reconoci dos</w>
ev es</w>
sectori al</w>
cam po</w>
mo thers</w>
contribu ye</w>
expres ado</w>
charac ter</w>
GEN ER
counsel ling</w>
3 8
planti lla</w>
conclu ido</w>
la stly</w>
convin o</w>
T a
dej ar</w>
G U
bo ard</w>
áfic as</w>
art h</w>
Integr ated</w>
correspon da</w>
t ari
revis ada</w>
un lawful</w>
encamin ados</w>
mo vements</w>
pr ene
prest e</w>
oc casion</w>
op position</w>
3 4
estratég icas</w>
invent ory</w>
S anta</w>
pon dr
de mobilization</w>
bi an</w>
perfec cion
MA N</w>
ins ol
sim ple</w>
T D</w>
w a</w>
prác tico</w>
over view</w>
pl ataforma</w>
favor able</w>
adopt ando</w>
Cam er
Director ate</w>
disaggreg ated</w>
próxim os</w>
asc end
aqu í</w>
Ac ade
per juicio</w>
enti ende</w>
mach in
flexi bilidad</w>
matern idad</w>
ak ia</w>
maestr os</w>
previ o</w>
n a
Lib yan</w>
mal aria</w>
ber cul
Mal í</w>
corpor ate</w>
3 6
v aqu
subjec ts</w>
m adres</w>
en al</w>
ocupar se</w>
es ses</w>
av y</w>
Mal awi</w>
ata que</w>
in su
ban ks</w>
Oper ación</w>
reun ir</w>
vaqu ia</w>
ep t</w>
consider ando</w>
new ly</w>
war r
próxim a</w>
A y
usu ally</w>
límit e</w>
lit es</w>
impar cial</w>
trad ing</w>
dise ase</w>
pu do</w>
transfer s</w>
under stand</w>
Princip al</w>
reli able</w>
bound ary</w>
SB STA</w>
fa ith</w>
Cop enh
qu iz
adjust ments</w>
lin e
15 5</w>
ple ased</w>
B R
5 .000</w>
sign ing</w>
apropi ada</w>
testi mon
Camer ún</w>
sent ences</w>
peligro sos</w>
destin ada</w>
expres amente</w>
ad ministering</w>
fi es</w>
proce ed</w>
result antes</w>
ve je
Stoc k
h ard</w>
xen ophobia</w>
pen sión</w>
de mand
presid entes</w>
e ply</w>
brief ing</w>
refer ring</w>
1 28</w>
pornogr afía</w>
tri p</w>
ren der</w>
libre mente</w>
av ance</w>
lo st</w>
b ill</w>
Tay ik
ar ías</w>
g y
Man ual</w>
consum id
por ted</w>
mi se</w>
Col on
aer on
ín dice</w>
doc tr
gu ía</w>
Fund ación</w>
me ta</w>
m ap
puer to</w>
18 .
a e</w>
wor d</w>
posi tivas</w>
adul ts</w>
13 2</w>
cre encias</w>
or idad</w>
favour able</w>
197 0</w>
fil ed</w>
pusi eron</w>
os amente</w>
un anim
tend ría</w>
as set</w>
A B
pas ar</w>
dis placement</w>
sub sist
indemn iz
X V</w>
adquiri r</w>
out puts</w>
def end
bercul osis</w>
uni ons</w>
Tayik istán</w>
ain t</w>
explan ation</w>
allow ing</w>
oc asi
f le
Bot swana</w>
f low</w>
Stan ding</w>
respec ted</w>
PRO FOR</w>
ap plies</w>
genoci de</w>
present arse</w>
encar cel
de eply</w>
journ alists</w>
Centro africana</w>
sid ades</w>
exclu sion</w>
com is
0 3</w>
La o</w>
oc e
juven iles</w>
UN PROFOR</w>
restr ing
tele vision</w>
establez ca</w>
negoti ation</w>
Par ti
constitu cionales</w>
inter institucional</w>
encu esta</w>
deni ed</w>
He ads</w>
transpar ente</w>
in idad</w>
dedic ated</w>
ne arly</w>
degrad antes</w>
AC IONES</w>
Form as</w>
t enerse</w>
vol ver</w>
re min
consult ants</w>
in suficiente</w>
bo und</w>
annu ally</w>
demasi ado</w>
Mo del</w>
limit ar</w>
invit e</w>
acept able</w>
Migr ation</w>
am as</w>
th or
hist ori
ade lanto</w>
reuni ó</w>
Camero on</w>
Mal i</w>
M r
de muestra</w>
refi eren</w>
see ks</w>
buil t</w>
per secu
incre mentar</w>
cuy as</w>
asign ados</w>
man dat
deb er</w>
af firm</w>
A U</w>
pu pil
ab ast
Th urs
arm y</w>
co tic</w>
ar ity</w>
Cru z</w>
rendi miento</w>
consolid ation</w>
accompli sh
al k
intelec tual</w>
noti fication</w>
C air
Constitu cional</w>
instruc tions</w>
sustan tivos</w>
satisfac tori
a .m</w>
in humanos</w>
war ning</w>
dang er</w>
s pread</w>
memor ando</w>
im migration</w>
public ó</w>
extr abudgetary</w>
pl us</w>
st ation</w>
parli amentary</w>
B udge
afec ta</w>
re place</w>
Thurs day</w>
li ghts</w>
fr an
tu los</w>
ju eves</w>
in debido</w>
pornogr aphy</w>
dis curso</w>
con g
H ol
k i</w>
Wel fare</w>
im port</w>
sugi rió</w>
efectu ar</w>
Sam oa</w>
ster ing</w>
m em
separ ado</w>
S audita</w>
fi able</w>
ap plying</w>
P uer
pupil s</w>
impul so</w>
compri sing</w>
ve li
su ici
expl íci
al co
de mos</w>
not ably</w>
delin cuentes</w>
peque ña</w>
Six th</w>
canti dades</w>
present en</w>
promovi endo</w>
mitig ation</w>
M aj
recei p
RI GH
Agricul tura</w>
1 26</w>
parti do</w>
sur vi
adquiri da</w>
pon erse</w>
appe ars</w>
in aug
haz ardous</w>
tar de</w>
conven tional</w>
constitu ir</w>
prest ó</w>
in equ
W ed
reg ret
u t</w>
fish eries</w>
ot es</w>
rel ative</w>
oc casi
contribu yen</w>
de emed</w>
for cing</w>
U se</w>
provin ces</w>
fil es</w>
W ash
contro ver
L iga</w>
fi quen</w>
L ond
k ept</w>
acce si
com pañ
cl aimed</w>
b is</w>
dev ast
ar ra
B on
asign ado</w>
schem es</w>
suspen sión</w>
reflec ting</w>
contra ven
Maur it
Jo han
i ties</w>
off enders</w>
crit os</w>
viv encia</w>
Wash ington</w>
poli cial</w>
bas ándose</w>
sove reign</w>
s cen
ar gu
po table</w>
utiliz arse</w>
transi tional</w>
reestructur ación</w>
re vel
Cair o</w>
dis mis
re ver
intern as</w>
A h
propó sitos</w>
ab uses</w>
Op en</w>
ofici almente</w>
dela ys</w>
def enders</w>
S ar
transmiti r</w>
incid encia</w>
respon ding</w>
canc ías</w>
rati fy</w>
finan zas</w>
Program as</w>
E j
larg a</w>
uti liza</w>
medic amentos</w>
prejud ice</w>
A ru
e tr
house hold</w>
clu ster</w>
Intern acionales</w>
evalu ate</w>
ne tas</w>
u ally</w>
of fers</w>
harmon ization</w>
Bri tish</w>
casti go</w>
Le ague</w>
fin e</w>
MI S
etu din
dig ital</w>
fre ely</w>
neg ativas</w>
e la</w>
tex ts</w>
n an</w>
autónom os</w>
emple adores</w>
restruc turing</w>
al erta</w>
g ri
fec has</w>
t ario</w>
C D
o dio</w>
mode los</w>
C S
spe ak</w>
in compatible</w>
Ri bera</w>
import ación</w>
déci mo</w>
examin ará</w>
cuant ía</w>
accoun table</w>
provi sionales</w>
Mr s.</w>
Mad ag
asc ar</w>
expul sion</w>
leav ing</w>
Proto cols</w>
transmit ting</w>
G DP</w>
ham bre</w>
limit ations</w>
enér g
Madag ascar</w>
G é
vig ésimo</w>
Uzbek istan</w>
mejor ado</w>
Con sen
organiz ing</w>
vill age</w>
re cipi
lev ant
enti als</w>
Mer idional</w>
insi sti
I cel
Eslo vaquia</w>
gener ar</w>
t esting</w>
cubri r</w>
redon da</w>
im puesto</w>
an g</w>
ses sional</w>
form ar</w>
tall er</w>
am pl
pre c
der og
success fully</w>
O s
transfer encias</w>
é anos</w>
inter acción</w>
demonstr ate</w>
someti do</w>
ag ents</w>
dec ades</w>
of rec
concep tos</w>
forth coming</w>
servici ng</w>
obten idos</w>
ici o</w>
gratu ita</w>
flexi bility</w>
amoun ted</w>
el ine</w>
prev ail
it ec
br in
ac ked</w>
surve ys</w>
under stood</w>
consu etudin
contin ente</w>
sum as</w>
asses sing</w>
P s</w>
ten tion</w>
16 2</w>
unte ers</w>
li veli
Sub .2</w>
chi pri
MA M</w>
ciudad ano</w>
re ality</w>
as ser
ION AL</w>
14 1</w>
blan queo</w>
Tu es
m artes</w>
aport ar</w>
pat rul
fo rests</w>
Con duc
13 5</w>
intel lectual</w>
fulfil ment</w>
N eg
polici ales</w>
li es</w>
Tues day</w>
r os</w>
pon iendo</w>
Budge t</w>
prosecu tors</w>
sistem áticamente</w>
pop ular</w>
R ot
equival ent</w>
an ese</w>
1 29</w>
competi tive</w>
h ara</w>
vi das</w>
GENER AL</w>
AT ION</w>
ari zación</w>
E M
cu arta</w>
control ar</w>
rati ficar</w>
segu ía</w>
conten idas</w>
im puestos</w>
F MAM</w>
IT R
eli gible</w>
Prepar atorio</w>
n ó
comb at
Yugosla v</w>
Wo ods</w>
pri siones</w>
Maur iti
il lu
Consolid ación</w>
proper ly</w>
Gé ner
1 .1</w>
facilit ated</w>
statu te</w>
Pun ishment</w>
entre prene
a ida</w>
hospit ales</w>
prór roga</w>
tw are</w>
ses s
sub venciones</w>
supplement ary</w>
colabor ar</w>
dr icos</w>
enshr ined</w>
acogi ó</w>
meth od</w>
1 27</w>
show ed</w>
environ mentally</w>
197 9</w>
Polític as</w>
EN TA
nuev amente</w>
col es</w>
Terroris mo</w>
disadvant aged</w>
14 5</w>
vo y</w>
5 7
0 7</w>
Medi das</w>
F A</w>
b es</w>
13 3</w>
sindic atos</w>
in puts</w>
issu ance</w>
ev ol
draw ing</w>
hol der</w>
machin ery</w>
4 8
bio diversity</w>
o th
beg un</w>
clari fication</w>
dissemin ate</w>
20 20</w>
Bret ton</w>
par cial</w>
edifici os</w>
mar inos</w>
bien nial</w>
techni ques</w>
ma p</w>
Slov akia</w>
pi ez
suje tos</w>
purch ase</w>
harm ful</w>
Re duction</w>
mandat ory</w>
S á
extrapresupuest arios</w>
ren unci
altern atives</w>
pág inas</w>
h i</w>
refer s</w>
es forz
et ario</w>
compu t
ain ing</w>
M ater
concret a</w>
P I</w>
4 6
Taj ik
esper ar</w>
separ ation</w>
evalu ations</w>
glob alización</w>
ad judic
stoc k</w>
coast al</w>
O tros</w>
aloj amiento</w>
Wed nes
Maur icio</w>
cul tiv
bul o</w>
S aint</w>
M os
ér coles</w>
Ad viser</w>
re an</w>
fal lo</w>
pursu ed</w>
conveni ente</w>
15 7</w>
to p</w>
mi ércoles</w>
influ encia</w>
pre siones</w>
198 3</w>
acord ado</w>
Johan nes
vir ti
sigui endo</w>
G s</w>
cru eles</w>
Wednes day</w>
Johannes bur
ju ventud</w>
c en</w>
eleg ir</w>
S ha
especi alistas</w>
Tajik istan</w>
tern s</w>
democr ática</w>
te or
Te am</w>
per mitted</w>
Observ ación</w>
mercur io</w>
1. 2</w>
S te
F u
Ac ting</w>
incorpor ate</w>
deli ver</w>
distr itos</w>
Cy pri
benefici aries</w>
renew ed</w>
J e
pa re
la undering</w>
R ome</w>
5 ,000</w>
dang erous</w>
s qu
the id</w>
s m
musul man
elabor ation</w>
d ow
str ength</w>
cul min
rec aud
A n</w>
iz ing</w>
explor e</w>
ITR AL</w>
orient aciones</w>
al tar</w>
ar chi
su itable</w>
sub missions</w>
id ing</w>
O EC
fer a</w>
est án
establish es</w>
UNC ITRAL</w>
estu pefacientes</w>
boo ks</w>
E speci
Ar bitr
expl ot
des favoreci
attribu table</w>
histor ical</w>
resid ents</w>
Addi s</w>
bu l</w>
educ ativos</w>
inter action</w>
un fortun
interi or</w>
Un ida</w>
escas ez</w>
Des erti
so red</w>
volum e</w>
en em
call ing</w>
regar ded</w>
2 2
zon o</w>
Ch ri
E f
D MI</w>
RIGH TS</w>
character istics</w>
im posición</w>
R ad
presid ential</w>
cá l
pes qu
sof tware</w>
ke t</w>
cel eb
E l
anticip ated</w>
Let onia</w>
abiliz ation</w>
alquil er</w>
direc tores</w>
pat terns</w>
sus ci
our g</w>
C la
Maurit ania</w>
PI B</w>
ir a</w>
apoy ando</w>
cap able</w>
prorr ate
attemp ts</w>
figh ting</w>
an sw
comenz ó</w>
ob vi
correspon den</w>
juz g
procl am
negoti ating</w>
Transi tional</w>
objec t</w>
li ance</w>
mercur y</w>
direc tor</w>
uni on</w>
elector ales</w>
A s</w>
anfitri ón</w>
un ding</w>
a por
estadís tica</w>
Tr inidad</w>
someti dos</w>
fif tieth</w>
ro w</w>
industri ales</w>
b id
Financi ación</w>
Parti cip
sub paragraph</w>
eleg ido</w>
1 31</w>
a ero
li aison</w>
est able</w>
in curred</w>
limit ation</w>
c ant
al go</w>
Puer to</w>
ampar o</w>
2 35</w>
5 9
0 9</w>
jurisprud encia</w>
Dis abilities</w>
so sti
propor tion
CNU DMI</w>
h und
int ent
sep tent
uti lidad</w>
li ke
foreign ers</w>
bru tas</w>
An ti
C. 4</w>
mencion ada</w>
or nos</w>
ígen a</w>
mer cancías</w>
específic o</w>
star ting</w>
autoriz ado</w>
en ough</w>
compren der</w>
per ci
3 9
dres s</w>
T ru
Dru g</w>
rest aur
actu alización</w>
u res</w>
mejor ando</w>
friend ly</w>
a b</w>
Peace building</w>
d é</w>
democr ático</w>
pon gan</w>
can cel
sigui era</w>
in habit
stre am</w>
con fin
Proc ess</w>
CR P
record ó</w>
he avy</w>
gen es</w>
Sá hara</w>
men os
Mauriti us</w>
plante an</w>
p adre</w>
sign ature</w>
ep h
4 7
Pap ua</w>
Lat via</w>
orient ation</w>
Bang k
sim ply</w>
mi x
re placed</w>
Cro ss</w>
B an</w>
arrang ement</w>
Mi embro</w>
14 3</w>
sti mul
anti personal</w>
Sal ón</w>
en dum</w>
b er</w>
D roga</w>
gi ene</w>
0 6</w>
recib ida</w>
mar ked</w>
Q aida</w>
spon sored</w>
sustan tivas</w>
v ías</w>
te la</w>
form at</w>
desigu aldad</w>
Mad rid</w>
13 .00</w>
fronteriz os</w>
men tion</w>
Indi an</w>
vac ancy</w>
Bangk ok</w>
mar ítim
dé fici
fe es</w>
municip ales</w>
frequ ently</w>
ex acer
actu ally</w>
memor andum</w>
consider ado</w>
o to</w>
desapari ciones</w>
Inv est
vi aj
regi ster</w>
convic tion</w>
in tr
lic encias</w>
ser ían</w>
encarg adas</w>
illu str
gran ting</w>
adi e</w>
Inspec tion</w>
p age</w>
197 4</w>
S EC
sufri do</w>
observ ance</w>
larg er</w>
L es
U l
14 2</w>
ug g
incen tivos</w>
ch ann
produc tividad</w>
super fici
cl ase</w>
13 7</w>
intro du
uni ver
profun di
suger encias</w>
wit ness</w>
v áli
ab ar</w>
deta il</w>
C ambi
Jurí dicos</w>
im os</w>
Cap .</w>
ul e</w>
13 6</w>
municip alities</w>
e asi
pre pa
ine ering</w>
fa x</w>
at arios</w>
t ó
stoc ks</w>
custo dia</w>
tel ef
reg ímenes</w>
deserti fication</w>
demostr ar</w>
Transi ción</w>
res or
18 .00</w>
lo cu
ar sen
volunt ario</w>
summ ari
estratég icos</w>
ejecu tivo</w>
ven ido</w>
prest en</w>
direc tas</w>
out put</w>
terrori sta</w>
gi ves</w>
a hor
Est u
re pa
entra ña</w>
cont acts</w>
A O</w>
ad d</w>
cumpl en</w>
r adic
coher ent</w>
her rami
there to</w>
As sess
bru to</w>
par á
perpe tu
mobiliz e</w>
enfrent an</w>
L im
neg ativos</w>
conven ing</w>
produc tivity</w>
mu gg
Is su
dese aría</w>
expan ding</w>
wast es</w>
ID B.
gui ded</w>
S ch
Educ ational</w>
occu r</w>
miti gar</w>
TI C</w>
S ession</w>
pres untos</w>
brind ar</w>
amp ;</w>
& amp;</w>
Settl ements</w>
fabeti zación</w>
mean ing</w>
acogi endo</w>
b on
h im
regul ated</w>
explo sive</w>
cion almente</w>
bu enos</w>
w at
recomend ar</w>
nor thern</w>
femen ina</w>
dis cu
produci r</w>
preced entes</w>
declar ations</w>
M ej
Proto colos</w>
hospit als</w>
continú e</w>
r an</w>
excep tional</w>
tal ks</w>
tin e</w>
19 .
str ugg
observ ancia</w>
cu bi
C ity</w>
e astern</w>
pres ents</w>
ejecu ciones</w>
co u
plante adas</w>
particip a</w>
genu ine</w>
éc tr
I G
oblig ado</w>
201 6</w>
equival ente</w>
h us
Mul til
buil dings</w>
conduci ve</w>
tri ed</w>
cro s
13 9</w>
marg en</w>
se ized</w>
pror ro
po ca</w>
san itaria</w>
16 6</w>
grav edad</w>
corri ente</w>
STA H</w>
subsidi os</w>
MINU STAH</w>
infra estructuras</w>
v es
ejecu tivos</w>
po deres</w>
15 1</w>
e ts</w>
Estu pefacientes</w>
Docu mentos</w>
educ ativas</w>
ot ogr
ant emente</w>
c av
Docu mento</w>
ám bulo</w>
ou red</w>
lawy er</w>
AC T</w>
cooper ative</w>
Rel ations</w>
hí dricos</w>
analy tical</w>
stor age</w>
ce re
0 8</w>
noti ce</w>
me an</w>
Ej ército</w>
relacion ado</w>
li f
proporcion ó</w>
pi e</w>
ti tle</w>
pollu tion</w>
innov ation</w>
est ere
r acional</w>
instal ación</w>
fal le
cu tting</w>
C re
Subcom ité</w>
obten ción</w>
incid ent</w>
asign ar</w>
fin almente</w>
He ad</w>
Delin cuencia</w>
ste re
a ya</w>
fund amento</w>
relation ships</w>
injur y</w>
Pl en
respon ded</w>
fundament almente</w>
pre ve
verb al</w>
curr ic
av es</w>
S emin
there on</w>
edifici o</w>
in put</w>
admisi bilidad</w>
congrat ul
multil ater
pregn ant</w>
p ic
conven idos</w>
centr ado</w>
te m</w>
G RA
desplaz amiento</w>
form ato</w>
est ad
inter rup
be ar</w>
D u
n adie</w>
Comb at</w>
peti ciones</w>
proporcion an</w>
ú tiles</w>
desglos ados</w>
de ud
de t
Ky r
pregn ancy</w>
ad mi
UNMI S</w>
Commun ications</w>
appropri ation</w>
elev ada</w>
ma xi
Ofici ales</w>
aclar ar</w>
is ol
clari fy</w>
them es</w>
el o</w>
197 5</w>
question n
farm ers</w>
óp ter
favor ables</w>
3 rd</w>
ari ales</w>
Kyr gy
equit ativo</w>
entr usted</w>
apli que</w>
mean ing
at titudes</w>
asc endi
anex os</w>
stere ot
stipul ated</w>
receip t</w>
lim pi
be ings</w>
an álo
consign ación</w>
great ly</w>
ap ur</w>
Re sid
B ag
commod ity</w>
reci be</w>
el éctr
er án</w>
obje tos</w>
sal ario</w>
necessi ty</w>
com partir</w>
m uro</w>
exi ón</w>
or ally</w>
provi ders</w>
tow n</w>
SI L</w>
ases ores</w>
pi den</w>
helic ópter
allow s</w>
formul ate</w>
inhabit ants</w>
enunci ados</w>
trans formación</w>
reembol so</w>
centr ales</w>
duc ción</w>
propor cione</w>
S .</w>
seg reg
201 7</w>
refle jan</w>
modi ties</w>
ef s</w>
occup ying</w>
consul tiva</w>
UNO MI
than ks</w>
Ri ght</w>
ir regular</w>
admis sible</w>
abast ecimiento</w>
constru ir</w>
re emplaz
transl ation</w>
ilíci tas</w>
alco ho
obten ido</w>
The ir</w>
Mo de
d ando</w>
her itage</w>
MD Gs</w>
S trip</w>
naci dos</w>
ex cel
M uni
prev én</w>
14 4</w>
tim a</w>
observ ation</w>
l ap
trans curri
Cor por
An ti</w>
innov ación</w>
complement arias</w>
ag os</w>
de ren</w>
peace building</w>
amer icana</w>
lo ad</w>
arbitr al</w>
suspec ted</w>
D D</w>
suffici ently</w>
199 0s</w>
estere oti
Con flic
S A</w>
incen tives</w>
cri men</w>
g encia</w>
sec t</w>
Pan am
manten ido</w>
Com p
IC OM</w>
preci sa</w>
exper to</w>
w r
lin ing</w>
de tri
n es</w>
apor e</w>
Sing apur</w>
consist s</w>
T IC
legisl ativa</w>
Sing apore</w>
whe reas</w>
th ings</w>
inju red</w>
cul turas</w>
incre ment
macro economic</w>
ac cred
OEC D</w>
ob taining</w>
Incre ased</w>
Fre ed
obstá culo</w>
res erve</w>
G ro
kil ó
p ices</w>
enrol ment</w>
dimen sions</w>
ur go</w>
oper ative</w>
so li
F ol
E str
abar c
acti tudes</w>
emphasiz e</w>
sin er
opini ons</w>
vol vi
as sembly</w>
muer tes</w>
p ages</w>
inqui ry</w>
U E</w>
titul ares</w>
detec ción</w>
rec tores</w>
pa rec
ch ap</w>
sup pli
L O</w>
realiz aron</w>
proto colos</w>
er t</w>
preserv ar</w>
conden ados</w>
Mix to</w>
univer sidades</w>
objec tion</w>
accur ate</w>
deriv adas</w>
kil om
f iduci
resi li
bre ach</w>
volunt aria</w>
Y P</w>
Faci lit
hac ía</w>
As entamientos</w>
contra er</w>
tor turas</w>
k en</w>
medi ación</w>
discapaci tados</w>
Prohibi tion</w>
ju sto</w>
E arth</w>
er te</w>
apporte urs</w>
st ay</w>
llev ando</w>
Is landia</w>
c el</w>
aus pices</w>
14 7</w>
magn itud</w>
ac re
E CO
hin d</w>
qued ado</w>
recomend ado</w>
fo rese
suje ción</w>
es pos
sal aries</w>
mundi alización</w>
Environ mental</w>
he aded</w>
bus car</w>
Est ab
CAR ICOM</w>
descrip ción</w>
M E</w>
pack age</w>
Human itarios</w>
LA C</w>
Coun ter</w>
impl ant
m aritime</w>
enter ing</w>
14 6</w>
norm almente</w>
avi ones</w>
asisti eron</w>
tot ales</w>
libr os</w>
ECH OS</w>
matri mon
impuls ar</w>
t ome</w>
aspec t</w>
hun ger</w>
man aging</w>
expan sión</w>
anal ític
Sah ara</w>
Develop ed</w>
encarg a</w>
int ento</w>
pre ámbulo</w>
bas an</w>
Un a</w>
tr ack</w>
e ter</w>
remo ción</w>
ed y</w>
form an</w>
l ingü
acqui red</w>
w ill
renew able</w>
N A
liber alización</w>
Assess ment</w>
compati bles</w>
nú m.</w>
oc éanos</w>
cli entes</w>
rati on
ocasi on
4 9
industri es</w>
ís ticos</w>
conver tido</w>
pos session</w>
be hind</w>
óm ica</w>
norm ativos</w>
icul um</w>
reduc tions</w>
interfer ence</w>
tor ney</w>
explic ar</w>
0 2</w>
Scho ol</w>
ar ro
trad uci
consult ar</w>
reven ue</w>
IN F</w>
V al
author ization</w>
facilit ation</w>
ak a</w>
view ed</w>
elabor ando</w>
thou ght</w>
exacer b
punish able</w>
lo ans</w>
DER ECHOS</w>
C as
aj o</w>
expl ain</w>
f illing</w>
super vi
ilíci ta</w>
g ains</w>
Ac c
de sir
id ly</w>
rel ates</w>
infr acciones</w>
elimin ating</w>
am munition</w>
n ur
in discrimin
conden ado</w>
k u
15 6</w>
curr ency</w>
al ter
nu al</w>
2. 000</w>
vill ages</w>
there of</w>
ac tivas</w>
b and</w>
tuvi eran</w>
concep ts</w>
under lying</w>
great est</w>
A line
li c</w>
har d
explic ación</w>
Cambi o</w>
pl atform</w>
5 th</w>
w ai
défici t</w>
decre to</w>
where by</w>
ó vil</w>
Organiz ed</w>
rest antes</w>
org an</w>
justi fied</w>
inv olu
G .</w>
o la</w>
A bu
Registr o</w>
carb on</w>
Rec ords</w>
efec tivas</w>
Ou ter</w>
15 2</w>
di das</w>
al dades</w>
Territori os</w>
A vi
an e</w>
contin ent</w>
pres erve</w>
cier ta</w>
P C</w>
D a
Ali mentación</w>
Can adi
FNU AP</w>
hosti lidades</w>
Pro cur
Seg u
li ons</w>
extr ad
2 .1</w>
bus in
bliot eca</w>
auspi cios</w>
M at
ser s</w>
W ar</w>
arch iv
tramit ación</w>
sex os</w>
C. 6</w>
lin gu
op on
enc ab
Mode lo</w>
compr a</w>
individu os</w>
Icel and</w>
pri ori
Ger man</w>
G obern
not able</w>
T ES</w>
vot es</w>
tel eph
sp ent</w>
municip ios</w>
vincul ante</w>
le a</w>
cont ex
sust anci
prác ticamente</w>
Pro vin
declar ado</w>
Trans port
in s</w>
vali d</w>
AMI SOM</w>
uc tu
Luxemb ourg</w>
desigu aldades</w>
Gre ek</w>
propi cio</w>
C l
2 42</w>
li abilities</w>
co he
ai red</w>
registr ados</w>
fáci l</w>
Ch apter</w>
mutu ally</w>
collec ted</w>
15 4</w>
differ ence</w>
inter locu
he ading</w>
oblig atorio</w>
gi bles</w>
so cav
estim ado</w>
presupuest arios</w>
ab sten
jurí dicamente</w>
siti os</w>
stres sing</w>
cor reo</w>
matr icul
II .
olog ías</w>
IC YP</w>
di man
dep ó
bar re
proce de</w>
par all
sosten ido</w>
Gener ales</w>
197 7</w>
gener ated</w>
rein ser
K ab
D A</w>
UNF ICYP</w>
ic ation</w>
OC DE</w>
mul tin
conclu yó</w>
W il
combat ants</w>
Le ast</w>
or ar</w>
distin c
ap titudes</w>
in equality</w>
esclav itud</w>
ó l
found ation</w>
terrori sts</w>
refer ente</w>
p la</w>
Direc trices</w>
CC PR</w>
mon o
mens aje</w>
colon ial</w>
sufici encia</w>
detall e</w>
in sist
deri ved</w>
españ ol</w>
D om
Soci edad</w>
ins pir
ent ary</w>
cop y</w>
v ec
V ig
quej as</w>
septent rional</w>
con tienen</w>
qu arter</w>
Ni ños</w>
termin ación</w>
C o</w>
re almente</w>
wh at
liber alization</w>
In teri
ch e</w>
pro pose</w>
Ver de</w>
Públ ico</w>
afec tado</w>
Ci entífic
M ed
ad miti
pres um
T RA
consi deren</w>
Ar my</w>
ti t
rati o</w>
f ill</w>
ci alidad</w>
dimen sión</w>
oblig ed</w>
a fi
Com unicaciones</w>
stric ts</w>
Sex ual</w>
prosecu tor</w>
C er
ampli os</w>
log is
AC. 109</w>
prior itario</w>
ben ch
mess age</w>
pág ina</w>
compu ter</w>
S ES
15 40</w>
clos ing</w>
Ex tern
Cu ban</w>
imp one</w>
B ou
th o
plaz as</w>
adv ances</w>
Gi br
envi ó</w>
e able</w>
cred it
controver sia</w>
ín t
intensi fy</w>
af gan
min or
est y</w>
Kir gu
there in</w>
Recon cili
end an</w>
ter dam</w>
Emer gency</w>
acord ó</w>
15 8</w>
bec as</w>
pos ing</w>
kiló metros</w>
I A</w>
cier re</w>
gener ate</w>
shel ter</w>
19 60</w>
unt amente</w>
exist s</w>
dispon en</w>
dimen siones</w>
recru ited</w>
is la</w>
hec has</w>
ge o
la m</w>
broad cas
assum ed</w>
Interi m</w>
D OS</w>
punish ed</w>
So lid
e v</w>
5 8
Ci ud
Basi lea</w>
h at
vivi r</w>
consider amos</w>
n one</w>
oblig ados</w>
agricul tores</w>
alde as</w>
stand ardi
utiliz ed</w>
Bas el</w>
Esp acio</w>
Ar ms</w>
po demos</w>
bom b
m atic</w>
indic ator</w>
traduc ción</w>
reconoci das</w>
revis adas</w>
al fabetización</w>
W P.
retir ada</w>
experim ental</w>
consequ ence</w>
rap idly</w>
m í
arbitr ation</w>
ent ender</w>
ari se</w>
in cur
su puesto</w>
Ad op
determin ada</w>
alent ó</w>
4 4
S .
monit ored</w>
con o
prohibi t</w>
dimen sion</w>
cuadr os</w>
estric tamente</w>
Gu am</w>
tem áticos</w>
ad eras</w>
sen o</w>
Multil ateral</w>
ind ígena</w>
MINUR SO</w>
l ength</w>
ir o</w>
construc tivo</w>
caracter iz
particip atory</w>
trabaj a</w>
Géner o</w>
en acted</w>
ge t</w>
al arm
Trans national</w>
Condi ción</w>
Cá mara</w>
prospec ts</w>
plem ente</w>
inter cambiar</w>
ing ness</w>
sal dos</w>
logis tical</w>
involu cr
i bid</w>
objec ts</w>
clud es</w>
14 8</w>
r un
cum ple</w>
Issu es</w>
tan gible</w>
rec re
call e</w>
registr ada</w>
asesin ato</w>
adul t</w>
trop as</w>
pres untamente</w>
interes ado</w>
Aline ados</w>
Regi on</w>
ens ing</w>
universi ties</w>
gestion ar</w>
in k</w>
Se ñ
deleg ados</w>
priori tiz
prescri bed</w>
embaraz o</w>
clasi ficación</w>
permit s</w>
Co ali
will ingness</w>
er ved</w>
re dress</w>
Bi en
vi deo</w>
en ar</w>
T ierra</w>
comen zar</w>
empe z
copi as</w>
pre domin
exc essive</w>
admis sibility</w>
Per i
respe ten</w>
Pan ama</w>
estruc tural</w>
Rot terdam</w>
2 51</w>
inali enable</w>
Gen oci
www. un.org</w>
elabor ó</w>
Coun try</w>
desarroll ado</w>
neg ativa</w>
direc tivo</w>
secret ario</w>
ensu red</w>
suspen ded</w>
sy n
dev ices</w>
stoc k
sto p</w>
represent ados</w>
curric ula</w>
vi abilidad</w>
satisfac tory</w>
sm all
clear ance</w>
I V
in seguridad</w>
m ot
CH A
10 ,
consi sti
re placement</w>
hec ha</w>
Bu il
disappear ance</w>
Gibr altar</w>
Or der</w>
di dos</w>
reiter ó</w>
H ar
tam año</w>
system atically</w>
re arms</w>
en ables</w>
le siones</w>
om is
grav emente</w>
Panam á</w>
matern ity</w>
sub tema</w>
Se e</w>
Pri v
lí neas</w>
i gh
ol es
financi ados</w>
go ce</w>
rig en</w>
fuer te</w>
helic op
D r.</w>
Su plemento</w>
convi ene</w>
aw ard</w>
tic es</w>
remuner ation</w>
formul an</w>
veje cimiento</w>
termin ation</w>
primer as</w>
figur aban</w>
Di strict</w>
s mo
ch aired</w>
dis charge</w>
cum pla</w>
admini stered</w>
Democ r
B hu
an des
connec ted</w>
alis tic</w>
comun itarios</w>
at ro
k g</w>
acceler ate</w>
revi st
Adv ancement</w>
ex puls
tu berculosis</w>
u es</w>
assur ances</w>
su plement
í proc
ar y
ar bitraje</w>
hou ses</w>
conce der</w>
B ill</w>
J S
ubic ación</w>
sugi ere</w>
CR P.
Yugosla va</w>
im pose</w>
oth o</w>
saté lite</w>
deten idas</w>
orden amiento</w>
UN U</w>
14 9</w>
consi sting</w>
carb ono</w>
su y
renov ación</w>
persist ent</w>
repercu sión</w>
promp t</w>
depart ment</w>
con figur
invent ario</w>
p uni
di stricts</w>
ta il
desc endi
2. 2</w>
promul gación</w>
log ística</w>
cul tures</w>
at tain
stric tly</w>
s un
promu eve</w>
in et</w>
forest ales</w>
bien al</w>
t wel
Ali gned</w>
ñ ez</w>
form ation</w>
targ eting</w>
Me asu
h ot
0 4</w>
anu almente</w>
19 61</w>
w ant</w>
5 6
necess arily</w>
cár celes</w>
per mí
mo un
atori al</w>
l ag
detall ado</w>
16 5</w>
Strength ening</w>
with standing</w>
si c</w>
pará metros</w>
subsist ence</w>
Al liance</w>
Vig il
signific ativa</w>
industri as</w>
á rea</w>
cle an
un di
t ab
re affirm</w>
mob ile</w>
Luxemb urgo</w>
curr iculum</w>
gener almente</w>
rel at
o zono</w>
es cap
integr ating</w>
Ad olesc
enví o</w>
empr ender</w>
For tal
oc curr
draf ted</w>
A tom
eradic ate</w>
reserv es</w>
mi lici
Represent atives</w>
á neas</w>
ci as</w>
trans nacional</w>
lo t</w>
desaf ío</w>
dist or
pl acing</w>
be red</w>
ter n</w>
Res olution</w>
sosti ene</w>
sigu ieron</w>
depend ing</w>
op in
sh ing</w>
rec íproc
indic ating</w>
oun id
ev an</w>
emphasiz ing</w>
Bi ological</w>
é fon
20 8</w>
der ly</w>
ret orno</w>
reiter ate</w>
ac oso</w>
b ra
prepar ando</w>
meth o
desapari ción</w>
dur able</w>
in evit
ste ad
si les</w>
pi dieron</w>
Atom ic</w>
ri es</w>
fí sico</w>
design ado</w>
gi es</w>
CHA IR
compl ace</w>
religi ones</w>
Arab ic</w>
compl ement</w>
hosti lities</w>
Est abl
h ence</w>
tradi cional</w>
parall el</w>
or almente</w>
ap point</w>
Mag istr
S a
enti eth</w>
termin ar</w>
Administr ator</w>
p el
unil aterales</w>
P ris
Les otho</w>
Consult ative</w>
Corrup tion</w>
explici tly</w>
mis sing</w>
fin ds</w>
Arm adas</w>
men suales</w>
enh ancement</w>
at ac
R am
proto cols</w>
Com mer
fi s
Observ adores</w>
clos er</w>
16 1</w>
ar re
prob ablemente</w>
mutu o</w>
prosecu te</w>
telecom unicaciones</w>
mínim as</w>
prepar ó</w>
comen zado</w>
K am
197 1</w>
polic y
di vision</w>
avi ón</w>
pro seguir</w>
prev ented</w>
proporcion ando</w>
dec enios</w>
Statis tical</w>
S G
Fr on
sequ ía</w>
inter active</w>
ampli ado</w>
A I</w>
on line</w>
deleg ates</w>
vín culo</w>
nombr amientos</w>
refi ri
proporcion en</w>
peque ño</w>
fur n
consul t</w>
cu art
con memor
movi lidad</w>
discre p
asu mi
prom esas</w>
cu ales
conse jos</w>
electró nicos</w>
initi ate</w>
exist ed</w>
19 2</w>
sub s
no ci
de ep
ning uno</w>
forest al</w>
deterior o</w>
FI L</w>
par am
f ear</w>
ar ticul
tri als</w>
destro yed</w>
teleph one</w>
progres sive</w>
s mugg
imparti al</w>
A C</w>
17 0</w>
ill ance</w>
habit ual</w>
WG .
medi ados</w>
or ación</w>
inaug ur
Ha ya</w>
o í
ser vir
Pu eblos</w>
UNI FIL</w>
M ain</w>
20 .
15 9</w>
vincul ados</w>
regre ts</w>
ref used</w>
probl em
Appe als</w>
program s</w>
meaning ful</w>
OD A</w>
conven e</w>
rein force</w>
ám ico</w>
vari edad</w>
tel éfon
Inde pendiente</w>
H ai
es bo
ti n</w>
armoniz ar</w>
S ol
inva sion</w>
á ne
incid ente</w>
so la</w>
trat an</w>
s tico</w>
asegur arse</w>
fr ame</w>
encab ez
sent encias</w>
pre dec
limit ados</w>
cár cel</w>
rest oration</w>
ess or</w>
fl uctu
L and</w>
superfici e</w>
orient adas</w>
ministr os</w>
Sup plement</w>
Oc e
cap ita</w>
neces ariamente</w>
permiti ría</w>
empe ño</w>
dol ogies</w>
sh a</w>
ar m</w>
An dor
previ as</w>
197 6</w>
im migrants</w>
appoint ments</w>
apar theid</w>
er amente</w>
puer tos</w>
land locked</w>
in oc
re voc
preval ence</w>
s end</w>
heal thy</w>
Invest ment</w>
Fr ente</w>
T i
inva sión</w>
def ender</w>
concer ted</w>
exclu ded</w>
or gi
uni versity</w>
co ali
m iddle</w>
habl ando</w>
mi liti
ass aul
lic en</w>
cam p</w>
J I
penitenci ario</w>
di era</w>
et res</w>
cl as
in estabilidad</w>
promp tly</w>
threat ened</w>
iraqu íes</w>
inten sive</w>
Re fer
examin ara</w>
provin ce</w>
cl ases</w>
mob ility</w>
pas s</w>
human as</w>
Liber t
contin ental</w>
mal trato</w>
sk a</w>
misi les</w>
trans mission</w>
complement ary</w>
Gu ide</w>
kilom etres</w>
Pro curement</w>
y er</w>
discrimin atorias</w>
Faci lity</w>
UN IS
dispon ga</w>
consist ently</w>
safegu ard</w>
medi ation</w>
po cas</w>
Financi ero</w>
g ain</w>
collec t</w>
físic as</w>
li stic</w>
últim as</w>
dese an</w>
CA P</w>
tu de</w>
p ó
document ed</w>
Activi ties</w>
diver se</w>
mode ls</w>
adopt arse</w>
continu o</w>
OS E</w>
not withstanding</w>
crític a</w>
fa ther</w>
enti tl
demogr aphic</w>
bri ef</w>
eg ación</w>
reimbur sement</w>
hand ling</w>
rit mo</w>
cad ena</w>
bri d
emerg encies</w>
gen it
ce ase</w>
19 51</w>
Estr atég
regim es</w>
employ er</w>
sub región</w>
reduc ciones</w>
sub ordin
centr a</w>
en coun
Evalu ation</w>
Wor kers</w>
occasi ons</w>
manifest ó</w>
mutu amente</w>
d ating</w>
tion ed</w>
pro poner</w>
veri ficar</w>
cuales quiera</w>
addres ses</w>
inici almente</w>
resi du
Organiz ations</w>
peligr os</w>
sti g
consolid ate</w>
claim ant</w>
permiti ó</w>
P over
ma ster</w>
unfortun ately</w>
impar cialidad</w>
loo king</w>
in jer
ex cell
ase fire</w>
Pover ty</w>
h aps</w>
telef ó
pror rog
5 3
urb ana</w>
emple os</w>
i e</w>
ak es</w>
execu tions</w>
2 13</w>
ro ot</w>
peligro sas</w>
Fin anzas</w>
we red</w>
budge ting</w>
prohibi r</w>
metho dologies</w>
sim plemente</w>
B I
per haps</w>
PRO GRA
ei ved</w>
estad ounid
P OR</w>
G R
prest ará</w>
conce de</w>
attend ance</w>
compar able</w>
blo queo</w>
ater n
Measu res</w>
2 27</w>
sub sistencia</w>
succ e
f light</w>
me ant</w>
dis capacidades</w>
pil oto</w>
competi tividad</w>
liber ación</w>
absolu te</w>
dow n
Ex cel
su ya</w>
f f
ex teriores</w>
en abled</w>
int entos</w>
subsi dies</w>
bi ológicas</w>
cap it
doub t</w>
de ple
pos ure</w>
F AR
investig ated</w>
tr aum
depen den</w>
16 7</w>
exce ed</w>
C B</w>
produci ng</w>
regul ación</w>
or dered</w>
difer ente</w>
integr ante</w>
remo ve</w>
Domin ican</w>
atori es</w>
C R</w>
is las</w>
Recom end
tw entieth</w>
H .</w>
exten sión</w>
or ro</w>
neg lec
ho ods</w>
analy se</w>
bre v
coordin ada</w>
bir ths</w>
expres adas</w>
Organiz ada</w>
pat tern</w>
T A</w>
pen etr
mar ino</w>
loo ked</w>
credi bility</w>
manifi esta</w>
depen d</w>
estudi ando</w>
X II</w>
C IC
Stand ards</w>
Au xili
consul tivo</w>
co ti
lament ablemente</w>
e fin
r ich</w>
cl o
At ómica</w>
ho sted</w>
po sesión</w>
re r</w>
gr áfico</w>
ver siones</w>
Conven ios</w>
acqui re</w>
margin alized</w>
entr ar</w>
centr arse</w>
explor ation</w>
secu red</w>
descri ption</w>
bl emente</w>
hici era</w>
Un ity</w>
Trans port</w>
W ater</w>
Basi c</w>
recib an</w>
colon ization</w>
import aciones</w>
desi re</w>
acept ado</w>
me rely</w>
decre ased</w>
pos sibilities</w>
obstacu liz
Cli mático</w>
inst ancias</w>
pas ó</w>
Form er</w>
us er</w>
mo stly</w>
incid ence</w>
detec tar</w>
su presión</w>
am end</w>
segu irán</w>
pron ta</w>
expl ica</w>
cho ose</w>
bas arse</w>
sum mit</w>
Capaci tación</w>
oc ol
cl ean</w>
efin gs</w>
B al
H ague</w>
ten sion</w>
w ent</w>
submit ting</w>
sin cer
signific ance</w>
coordin ator</w>
Pen sion</w>
conven io</w>
2 11</w>
her idos</w>
continu idad</w>
cere mon
Bah amas</w>
invol ves</w>
Equ al</w>
OR M
sion able</w>
vi stas</w>
et es</w>
super vivencia</w>
gener aciones</w>
vi les</w>
explor ación</w>
cap ability</w>
ó lo
In st
under lined</w>
firm s</w>
mil lions</w>
1 ª</w>
assu me</w>
K iv
refer endum</w>
J .</w>
le ve</w>
fiduci arios</w>
Musli m</w>
la y</w>
remo ved</w>
G C.
I t
incum b
Sur in
len gua</w>
accoun ted</w>
I d
recep ción</w>
lev anta</w>
complej idad</w>
2 18</w>
trat ando</w>
consagr ados</w>
concentr ación</w>
má n</w>
enmend ada</w>
can o</w>
stre et</w>
diplom ática</w>
bre ak
coordin ador</w>
ar ding</w>
under mine</w>
impu gn
a is</w>
scho ol
In human</w>
Con trat
ir regul
it i</w>
min oría</w>
R A</w>
sal arios</w>
fr ac
enfr enta</w>
el derly</w>
conten idos</w>
aport e</w>
UNIT A</w>
concep tual</w>
observ ado</w>
acus aciones</w>
v ini
y i
F PNU
manteng a</w>
credi bilidad</w>
FPNU L</w>
Prosecu tion</w>
m al</w>
extr ater
ue los</w>
transl ated</w>
ad misión</w>
comple jo</w>
r atos</w>
ou se</w>
trabaj adoras</w>
sub stitu
embaraz adas</w>
restabl ecer</w>
indic ador</w>
con de
financi ado</w>
sub region</w>
statu tory</w>
pro ve</w>
telecom mun
like wise</w>
Cul ture</w>
ren dered</w>
constitu ción</w>
ent ren</w>
no thing</w>
udi ciales</w>
et ín</w>
real icen</w>
16 4</w>
cre emos</w>
in security</w>
com parti
T ai
un g</w>
proce eds</w>
off set</w>
in no
Br anch</w>
ten siones</w>
2 20</w>
ex posure</w>
20 1</w>
hat red</w>
ren o</w>
decl are</w>
l uc
destac ando</w>
ar an
exig encias</w>
OS ACT</w>
pro genit
reclu sión</w>
compar ison</w>
ref rain</w>
M og
ma ñ
consumid ores</w>
EC A</w>
5 4
sustitu ción</w>
pro f
compar ative</w>
E .
inde fin
llam amientos</w>
tion ers</w>
sla very</w>
bri efings</w>
ori al</w>
2 48</w>
k illing</w>
2 37</w>
norm ally</w>
af fili
Log istics</w>
i entes</w>
B Y</w>
atribu ciones</w>
li able</w>
b a
electri cidad</w>
col eg
conclu ye</w>
prevail ing</w>
h ear</w>
extrater ritori
aport ación</w>
corpor ations</w>
inf ant</w>
50 .000</w>
resum e</w>
det enciones</w>
PR ST</w>
ing en
iraqu í</w>
complement aria</w>
am ents</w>
Con junto</w>
appro ve</w>
lec tura</w>
requi site</w>
t omen</w>
Add. 3</w>
en ri
cuá les</w>
re marks</w>
continú an</w>
Bon n</w>
serv ants</w>
contrati stas</w>
gu ro
HU MAN
surve illance</w>
a ver
reci én</w>
ver dad</w>
dev olución</w>
18 3</w>
dist ancia</w>
inter rum
Liber ación</w>
duplic ation</w>
D e</w>
plen arias</w>
conten ida</w>
extraj udicial</w>
qui ero</w>
an tic
N acionales</w>
ri guro
exig en</w>
17 2</w>
descri ben</w>
busin esses</w>
Def ensor</w>
con fe
cuestion ario</w>
2 1.
F D
strugg le</w>
vali dez</w>
in side</w>
hol m</w>
continu ará</w>
g estiones</w>
emprendi das</w>
repe ated</w>
d rought</w>
A z
produc tores</w>
estructur ado</w>
us al</w>
2 10</w>
mutu a</w>
marri ed</w>
correc t</w>
titu de</w>
lí deres</w>
ar i</w>
it ative</w>
certi ficado</w>
Em ple
govern ed</w>
examin aron</w>
Contr acting</w>
decre e</w>
jun tos</w>
descentr alización</w>
Ju ven
ang ular</w>
16 3</w>
dr inking</w>
alcoho l</w>
Or din
de vi
Jo h
J ourn
suel e</w>
exig ir</w>
in struction</w>
N ag
18 9</w>
ocup ar</w>
ord ing</w>
san itarios</w>
imper ative</w>
fron t</w>
w on
de ce</w>
palestin a</w>
Ju ventud</w>
subsi dio</w>
bast ante</w>
incorpor ado</w>
prelimin ares</w>
estereoti pos</w>
present ations</w>
S CO</w>
com modities</w>
m ad</w>
Reli ef</w>
Andor ra</w>
profes ores</w>
Emi ratos</w>
compil ation</w>
Señ or</w>
G ambia</w>
desarroll ando</w>
demor as</w>
En vi
19 9</w>
di da</w>
suf fer</w>
cen sus</w>
Ef fec
M óvil</w>
proces ales</w>
ad vers
in direct</w>
w illing</w>
vo z</w>
suf ren</w>
L .1</w>
presid ency</w>
minu tos</w>
survi val</w>
Rw and
vi ene</w>
contr actors</w>
2 14</w>
te en</w>
mo ving</w>
mañ ana</w>
in vi
fo unded</w>
under sco
c ast
metod ologías</w>
competi tiveness</w>
emprendi do</w>
el aciones</w>
arbitr aria</w>
197 2</w>
ti me
encoun tered</w>
inspec ciones</w>
ur in
ad mission</w>
Al i</w>
emple ado</w>
im possible</w>
ni st
prohib its</w>
oportun o</w>
pr en
establish ments</w>
admi sible</w>
Surin ame</w>
In dependence</w>
s en</w>
cu ali
v able</w>
garanti ce</w>
apoy ado</w>
Vigil ancia</w>
están dar</w>
minu tes</w>
produ jo</w>
afec t
inclu yendo</w>
RE P
prepar ados</w>
prepar atorio</w>
disminu ido</w>
olu cion
ga ther
Financi era</w>
E U
17 3</w>
uti licen</w>
reflej ar</w>
facilit ado</w>
caus ados</w>
ínt egr
se ats</w>
inquie tud</w>
fo stering</w>
Stock holm</w>
reinser ción</w>
pe ren</w>
exclu sively</w>
Pen as</w>
Offic ers</w>
on ga</w>
s ín
design ación</w>
any one</w>
substan tially</w>
siri o</w>
encu estas</w>
Secret ary
asoci adas</w>
In clu
pro ven
se ve
com po
ur gency</w>
lab ores</w>
Govern mental</w>
v encia</w>
facilit a</w>
casti g
tion ary</w>
doc entes</w>
c ír
T om
im partir</w>
v as</w>
O l
investig ating</w>
gir l</w>
solu cionar</w>
occup ational</w>
determin ó</w>
transmit e</w>
trad u
conde mn
L ista</w>
Administr ador</w>
dis puestos</w>
y m
de cent</w>
Qu ím
int ends</w>
Ter reno</w>
umb res</w>
m id
defin ing</w>
focu ses</w>
ali ens</w>
m esas</w>
com eter</w>
work load</w>
per cent</w>
grad ing</w>
d uly</w>
IN ST
Est ocol
Chem ical</w>
desplaz amientos</w>
Mog ad
NU D</w>
adi ción</w>
T ION</w>
accid entes</w>
estim ó</w>
Estocol mo</w>
s ales</w>
enem y</w>
Trat os</w>
ecosy stems</w>
T areas</w>
cuer po</w>
ad hi
fra ud</w>
2 3.
log ístico</w>
am es</w>
cas a</w>
as y</w>
inte ligencia</w>
aleg aciones</w>
ke ts</w>
intel ligence</w>
presupuest ario</w>
especializ ado</w>
coloni ales</w>
H y
rel atives</w>
guil ty</w>
científic as</w>
estruc turales</w>
v ent</w>
main stream</w>
con stat
expect ations</w>
obje ciones</w>
oles cent</w>
contribu irá</w>
or iz
Hou se</w>
27 0</w>
re z</w>
re bel
10 0.000</w>
Wor k</w>
rec all</w>
fi sh</w>
ser bios</w>
Cypri ot</w>
Bien estar</w>
Recom mend
J os
w id
comm and</w>
17 5</w>
En ti
investig adores</w>
diag no
Ap elaciones</w>
care er</w>
calend ar</w>
Hi gh
brin da</w>
leg e</w>
integr antes</w>
visi t
raci st</w>
pun tu
cláusu la</w>
Emi rates</w>
wh en
Ci tiz
forz adas</w>
envi ar</w>
Qu é</w>
benef ited</w>
án do
inclu yó</w>
ru ta</w>
s am
l es
const ant</w>
cu t</w>
sal ida</w>
const antemente</w>
reclam ante</w>
mutil ación</w>
K in
ent end
Audi t</w>
prorro gar</w>
ir ían</w>
quej a</w>
Degr ading</w>
mit s</w>
contraí dos</w>
ten di
suspen sion</w>
excep ciones</w>
Téc nica</w>
r uso</w>
d able</w>
Deci sion</w>
se where</w>
inclu ía</w>
g ained</w>
At torney</w>
pro min
P AC
w ages</w>
com et
pro me
param ilit
wish ing</w>
o u</w>
caus ado</w>
el sewhere</w>
abandon o</w>
2 26</w>
s par
hom ici
ex ped
ígen es</w>
l le</w>
Degr ad
r ental</w>
IM F</w>
Turkmen istán</w>
R ob
o ting</w>
k ill
Di versidad</w>
ingen ier
Bus iness</w>
pri mi
character ized</w>
y ac
re deployment</w>
s cre
lo d
hid ro
18 1</w>
gu es</w>
án dol
re pu
exerci sed</w>
V é
th ink</w>
claus ura</w>
arbitr arias</w>
urg ently</w>
speak er</w>
depart amento</w>
regres ar</w>
destac aron</w>
cap itales</w>
ide z</w>
ir respective</w>
segu ían</w>
ettl ement</w>
presupuest ación</w>
aut én
ci ted</w>
when ever</w>
out line</w>
gener ations</w>
vi de
cor reg
16 8</w>
estuvi eron</w>
red ness</w>
18 5</w>
endeav our</w>
ca recen</w>
submit s</w>
Pow ers</w>
Sah aran</w>
ap a
all í</w>
Docu ment</w>
Hai ti
fin alized</w>
budge ted</w>
anti c</w>
1 2,
len gu
ag grav
sugg est</w>
prior itaria</w>
deten er</w>
accor ded</w>
sum ario</w>
revi se</w>
e ños</w>
C N</w>
ti s</w>
mur der</w>
p eso</w>
I O</w>
stan ds</w>
relat ores</w>
w o
preserv ation</w>
Buil ding</w>
Nar cotic</w>
B DE</w>
parti d
Canadi an</w>
promu evan</w>
mom entos</w>
or o</w>
consist ency</w>
sustan tiva</w>
tempor ario</w>
contribu yan</w>
pro pon
3 5
hab itu
compl ex
care fully</w>
ex posiciones</w>
establez can</w>
negoti ated</w>
17 1</w>
vent aja</w>
Proc eso</w>
I Z
er ror</w>
Secret aria</w>
Mar ino</w>
br anch</w>
Cu ad
Cal edonia</w>
introduci do</w>
Cent er</w>
agrade ce</w>
examin an</w>
desir able</w>
igu ales</w>
bre ak</w>
inver n
Oc ean</w>
restabl ecimiento</w>
Milit ar</w>
Cu st
found ations</w>
co di
cl an
3 .1</w>
socio económico</w>
ali vio</w>
Organiz aciones</w>
mul ta</w>
fronter iza</w>
credi ble</w>
accomplish ments</w>
expres ando</w>
dead line</w>
eng aging</w>
seve rely</w>
cum ul
refer encias</w>
formul ating</w>
pan de
comm emor
retras o</w>
Sub sidi
predic table</w>
mom ent
traf fic
thor ough</w>
A um
solicit ante</w>
se ems</w>
f our
en qui
divi siones</w>
consuetudin ario</w>
inter cultural</w>
im posible</w>
afirm ación</w>
EC E</w>
En voy</w>
A rea</w>
COM MIT
read iness</w>
fe atures</w>
compren den</w>
tra in</w>
k er</w>
op tional</w>
ex changes</w>
prosecu ted</w>
jubil ación</w>
disposi tiva</w>
letr ada</w>
fin aliz
co sa</w>
Secretary General</w>
convoc adas</w>
persist entes</w>
form ally</w>
17 4</w>
refer ences</w>
H .
tem áticas</w>
paci entes</w>
juven il</w>
O ut
C ur
Jos é</w>
integr adas</w>
Cru el</w>
questionn aire</w>
initi ally</w>
compri ses</w>
U ti
tr o</w>
and ante</w>
decentr alization</w>
17 7</w>
rul ing</w>
manufac ture</w>
PR E
en force</w>
acces sibility</w>
fij ado</w>
f ai
at as</w>
Rad io</w>
OU A</w>
ret ained</w>
fol le
UN DA
v ast</w>
tr á
qu ite</w>
estableci endo</w>
electri city</w>
certi d
2 41</w>
a head</w>
1 1,
il u
des vi
com part
autoriz ados</w>
s ports</w>
is s</w>
strong er</w>
mini sters</w>
estim ados</w>
emple ador</w>
sospech osos</w>
movi liz
con oc
psicológ ica</w>
Li br
r i</w>
p acífico</w>
desempeñ ado</w>
comun itaria</w>
a yo</w>
inci tación</w>
d ará</w>
re fuerz
sol ely</w>
cál culo</w>
man der</w>
pro of</w>
amer icano</w>
O AU</w>
conc eb
Pl urin
reconoci da</w>
2 ,000</w>
reconoc en</w>
dou ble</w>
an ds</w>
corpor ales</w>
certi ficación</w>
sch ol
produc en</w>
abor tion</w>
vig or
vac cin
tecn ológica</w>
2 43</w>
aeron aves</w>
CR IC</w>
hor iz
I tem</w>
nist ía</w>
mitig ate</w>
eng ineering</w>
Respon sible</w>
í d</w>
certific ate</w>
facilit e</w>
dela yed</w>
crit as</w>
of fering</w>
M en
U mo
mer its</w>
Am end
2 2.
quin ta</w>
Ab u</w>
guar da</w>
Sur vey</w>
encom ia</w>
concer tado</w>
afron tar</w>
est aría</w>
Con gol
im ports</w>
B T</w>
chann els</w>
vuel o</w>
ali gn
O C</w>
pro gram</w>
re fin
2 33</w>
á nicos</w>
complet ely</w>
st u
US D</w>
caus ing</w>
Umo ja</w>
him self</w>
din ámica</w>
consider ably</w>
up dating</w>
tori o</w>
or ama</w>
li an</w>
í amos</w>
rest ore</w>
vehí culo</w>
realiz ed</w>
U .
I F
Institu tions</w>
t u</w>
dis closure</w>
suel o</w>
firm ly</w>
examin ing</w>
S enior</w>
radi o
aten diendo</w>
cuá l</w>
ocurri dos</w>
inci t
aboli tion</w>
certi fication</w>
be res</w>
im pa
Pu bl
A G
acus ación</w>
exist a</w>
Fisc alización</w>
Z aire</w>
trim estre</w>
én dum</w>
Represent antes</w>
du los</w>
en or
Som ali</w>
alloc ate</w>
tack le</w>
infr acción</w>
rap idez</w>
contempor ary</w>
medi r</w>
lear n</w>
limit a</w>
Ab y
difficul ty</w>
19 1</w>
n amic</w>
leg alidad</w>
fic an</w>
gener ating</w>
er ías</w>
M ENT</w>
v it
asoci ado</w>
h ur
D F</w>
clar idad</w>
b rech
enor me</w>
Es cu
ver á</w>
A W
ri que
me d
enri qu
per misos</w>
ist s</w>
asci ende</w>
preven tivas</w>
legítim a</w>
t ons</w>
Min orities</w>
figur aba</w>
k m</w>
Re ducción</w>
P or</w>
tem ático</w>
comb ate</w>
3. 2</w>
ot o
deb idas</w>
cir cl
col um
refer entes</w>
fra ude</w>
entabl ar</w>
T ema</w>
otor ga</w>
Qu e</w>
deb ajo</w>
especi es</w>
on ization</w>
en cum
Form ación</w>
os en</w>
Trans nacional</w>
arr end
domici lio</w>
trá mit
ov en</w>
19 0</w>
preci se</w>
wor th</w>
organiz ados</w>
co o
l esa</w>
m ates</w>
asign aciones</w>
Gu ía</w>
comunic ó</w>
Parli amentary</w>
advi sers</w>
secret arías</w>
liban és</w>
i v</w>
contamin antes</w>
lo se</w>
vis as</w>
dr am
determin a</w>
2 º</w>
su res</w>
Estab li
e ast</w>
Aby ei</w>
se iz
enérg icamente</w>
suel do</w>
L o
hus band</w>
de por
transform ation</w>
inc endi
ade n</w>
V ir
ric h
infl ation</w>
incum be</w>
w ards</w>
F MI</w>
hop es</w>
T w
mini mi
high light</w>
design ados</w>
af ore
candi date</w>
mon et
dri ven</w>
divi ded</w>
dis puesta</w>
ci almente</w>
vol ati
realiz arse</w>
de colonization</w>
aprovech amiento</w>
2 40</w>
o rest</w>
Kirgu istán</w>
indemniz aciones</w>
expect ativas</w>
Po st</w>
As pec
qued ó</w>
fra se</w>
pl ant</w>
on da</w>
us a</w>
facilit en</w>
defini tions</w>
afore mentioned</w>
presupuest aria</w>
con cier
O D</w>
t ests</w>
reuni rse</w>
mer os</w>
camp amento</w>
vincul adas</w>
invern adero</w>
certain ty</w>
Corrup ción</w>
13 ,
explic ó</w>
celebr arán</w>
50 ,000</w>
decl ined</w>
cul tivos</w>
preten de</w>
ori entar</w>
10 0,000</w>
cro w
conex o</w>
ag ente</w>
signific ativo</w>
est er
ari z
anti les</w>
abar can</w>
4 3
const antes</w>
est ando</w>
escas a</w>
n ab
reti rement</w>
man tienen</w>
opti mi
re in</w>
pro fit</w>
Reg las</w>
em po
dro p</w>
Er adic
Presid entes</w>
Pot encias</w>
ret ain</w>
converti rse</w>
ven cy</w>
Envi ado</w>
combin ación</w>
M SIL</w>
D ES
var ones</w>
dis h</w>
colec tivos</w>
aseg ure</w>
it as</w>
Auxili ar</w>
a parte</w>
coti di
In humanos</w>
M .</w>
18 7</w>
muni tions</w>
estabi lización</w>
infl ación</w>
injur ies</w>
perfeccion amiento</w>
sensibi lizar</w>
secuestr o</w>
du plicación</w>
po orest</w>
peti tion</w>
W AS</w>
declar ar</w>
. .</w>
s low</w>
COMMIT TE
are mos</w>
P V.
restric ción</w>
cam pos</w>
raci ales</w>
mant end
plante amiento</w>
audi encia</w>
priv acy</w>
conoci do</w>
entrevi st
UN TA
prest ados</w>
or i</w>
ex posed</w>
cuid ados</w>
Reg ist
wr ong
bom bar
avanz ado</w>
cel lan
institu tion
autonom y</w>
aqu ellas</w>
20 3</w>
ob serve</w>
encamin ada</w>
ro c
retur ne
llev aron</w>
inferi ores</w>
ultim ately</w>
provinci ales</w>
extre mis
enh ouse</w>
aum enta</w>
ap én
20 6</w>
alloc ations</w>
comunic arse</w>
Tai w
am o</w>
l act
Gol an</w>
per c
real ice</w>
du das</w>
ri sing</w>
ali en</w>
annex es</w>
s ly</w>
COMMITTE E</w>
sec uring</w>
CE DE
f ases</w>
Pre st
confirm ó</w>
despleg ados</w>
ner gies</w>
con fes
su m</w>
F ur
1. 3</w>
Degrad antes</w>
correc ciones</w>
contr acting</w>
simult ane
rang ing</w>
consum er</w>
consign aciones</w>
Domin icana</w>
ensu res</w>
realiz e</w>
re os</w>
L T
bas eline</w>
ECO WAS</w>
dy namic</w>
cellan eous</w>
pursu ing</w>
repe at
ped ag
mal nutrition</w>
bor ne</w>
19 8</w>
v uelos</w>
especializ adas</w>
pa recen</w>
appreci ated</w>
Dis aster</w>
Emple o</w>
exist ía</w>
inclu yan</w>
ful filling</w>
pertin encia</w>
complex ity</w>
ten sions</w>
fl ag
condem ned</w>
sal ir</w>
s ala</w>
quic kly</w>
fi de
em isión</w>
or n
S at
classi fication</w>
un employed</w>
tribun als</w>
h our</w>
1. 5</w>
18 6</w>
19 4</w>
eni endo</w>
ch el
separ ados</w>
san ción</w>
plant ear
applic ant</w>
BR E</w>
trans action</w>
HUMAN OS</w>
Austr alian</w>
PAR A</w>
reas entamiento</w>
kill ings</w>
prom otes</w>
histori c</w>
autoriz ada</w>
Kiv u</w>
we ight</w>
norm ative</w>
des colonización</w>
Gol án</w>
Appe al</w>
presid encia</w>
O ne</w>
Confer ences</w>
speci es</w>
efici entes</w>
ch osen</w>
han ds</w>
forc ement</w>
continu ó</w>
adher ence</w>
C are</w>
re b
pre cau
awar ded</w>
consider aba</w>
Volunt ary</w>
respal do</w>
ec as</w>
Audit oría</w>
ES CAP</w>
aspir aciones</w>
app rais
sh ment</w>
naci mientos</w>
forz oso</w>
feasi ble</w>
Kuwa iti</w>
D D
guarante eing</w>
estab iliz
alde a</w>
visi tar</w>
interven ir</w>
JI U</w>
ro ads</w>
Re habilit
Mon etary</w>
Di versity</w>
Di alogue</w>
Raci sm</w>
inform aron</w>
defini ciones</w>
des pr
B a
colabor ando</w>
cap az</w>
pati ents</w>
al ú
fre ez
Fol low</w>
19 63</w>
inter regional</w>
Lib ya</w>
Bah rein</w>
dej ado</w>
st op
work place</w>
materi as</w>
clas ses</w>
adher irse</w>
2 4.
resid ente</w>
emi go</w>
penitenci arios</w>
Gu bern
resor t</w>
f iduciario</w>
than ked</w>
sugg estion</w>
parlament arios</w>
Viol ations</w>
fi rearms</w>
we ak</w>
organis ations</w>
man tuvo</w>
elabor ated</w>
allow ances</w>
dispar ities</w>
Me dia</w>
I R</w>
EN CI
nombr ado</w>
acompañ ados</w>
o cul
aliz adas</w>
propag anda</w>
employ ee</w>
T est</w>
M é
shi ft</w>
intensi fic
n ings</w>
conven ido</w>
piez as</w>
efec tú
en emigo</w>
Br un
moment um</w>
condi cion
guid ing</w>
barre ras</w>
exis ti
pl as
f ór
public ly</w>
extern as</w>
suje to</w>
op posed</w>
al ber
2 22</w>
im position</w>
4 th</w>
benefici arse</w>
enjoy ed</w>
comun itario</w>
li b
Chri sti
prohibi ting</w>
dam ages</w>
analy ses</w>
ad junto</w>
fru str
col or</w>
arm ada</w>
recep tores</w>
grati tude</w>
Deserti fication</w>
inmun idad</w>
especi e</w>
ofici os</w>
pa u
Mic ron
enti ally</w>
universi t
m m</w>
18 4</w>
it ary</w>
adelant os</w>
repatri ados</w>
CE PA</w>
examin ados</w>
ni ña</w>
interpre ted</w>
cont emp
reafirm ó</w>
main tains</w>
sus pendi
cl in
organiz adas</w>
Muni cip
bal e</w>
Im migration</w>
Cru eles</w>
le ts</w>
administr aciones</w>
sugg ests</w>
extraj udiciales</w>
est arán</w>
ref usal</w>
indic ation</w>
des t</w>
sírv ase</w>
aé rea</w>
K im
17 6</w>
men sual</w>
er ce</w>
er rá
B ol
CEDE AO</w>
CO R
dis mo</w>
fis sile</w>
T el
per sistencia</w>
Kyrgy z
cu b
se em</w>
saté lites</w>
ad i</w>
su primir</w>
forest ación</w>
convoc ar</w>
anunci ó</w>
afr icano</w>
feder ales</w>
denomin ado</w>
inspec tions</w>
cum bre</w>
H u
contr acep
S im
Cuad ro</w>
20 5</w>
Rus sia</w>
C lu
tot all
cl ass</w>
í cula</w>
f res
religi ons</w>
trans nacionales</w>
tradi ciones</w>
proced ente</w>
res ettlement</w>
17 8</w>
ódi gos</w>
ur ch</w>
t aciones</w>
Conflic t</w>
Vic tims</w>
fór mu
ali vi
Legisl ative</w>
exclu sive</w>
C art
refugi ado</w>
preced ing</w>
elabor ate</w>
2 15</w>
or ph
emerg ed</w>
fronter izo</w>
Kyrgyz stan</w>
prorrate o</w>
pec es</w>
D am
Wor k
casti gos</w>
v als</w>
gi as</w>
sh ar
Vol unteers</w>
separ ately</w>
w est</w>
L ES</w>
L ev
si bly</w>
han ded</w>
19 69</w>
inv esti
resol ving</w>
negoci ar</w>
immun ity</w>
encum bered</w>
cri tici
ce asefire</w>
prepa redness</w>
Sub secretario</w>
ex puestos</w>
re t</w>
f o</w>
18 8</w>
Rwand an</w>
w oun
10 .000</w>
ve to</w>
so il</w>
envi ado</w>
mon ta
per judiciales</w>
sur ro
Reg lament
fulfil led</w>
cal cula</w>
Pen siones</w>
emple adas</w>
defini tivo</w>
archiv os</w>
registr y</w>
sy nergies</w>
UNA MA</w>
dis rup
Bolivari ana</w>
ilu str
ex pi
contribu tes</w>
2 30</w>
perspec tives</w>
Bolivari an</w>
examin arse</w>
mencion a</w>
legítim os</w>
ev alú
Ro und</w>
calcul ated</w>
2. 3</w>
Journ al</w>
polic ías</w>
ver bale</w>
second ly</w>
rati fying</w>
econom ically</w>
implement ación</w>
Turkmen istan</w>
é ticos</w>
ne to</w>
atent ados</w>
colec tivo</w>
científic o</w>
gu en</w>
fel l</w>
Log ística</w>
regul ate</w>
cred entials</w>
complej as</w>
Ordin ance</w>
forest ation</w>
garanti zado</w>
gather ing</w>
ad olescent</w>
Micron esia</w>
me teor
di l
v est
P D</w>
í fer
legitim idad</w>
er ly</w>
sóli da</w>
extend ing</w>
eth ics</w>
ne ws</w>
cu án
gener alizada</w>
aplic adas</w>
apoy ó</w>
Ad quisi
fin alizar</w>
Syri a</w>
condi cional</w>
smugg ling</w>
announ c
d um
avi ly</w>
al tas</w>
T ob
red obl
muer tos</w>
disposi tivos</w>
coordin ado</w>
confidenti al</w>
cum bres</w>
G M</w>
refi rió</w>
proceed ing</w>
20 9</w>
aspir ations</w>
deman das</w>
po seen</w>
I D</w>
in certid
Ap plic
manufac turing</w>
S hi
presid ente</w>
T elecom
wi fe</w>
Ir anian</w>
PO L</w>
log istics</w>
Sw az
respon dió</w>
an ean</w>
satisfac toria</w>
respon d
won dered</w>
n esty</w>
as equi
20 2</w>
Afr icano</w>
tom adas</w>
previ amente</w>
preval encia</w>
pan orama</w>
B ali</w>
up grading</w>
r apporteurs</w>
institu cion
S ir</w>
rig e</w>
S he
d éc
Libr ary</w>
atmo sphere</w>
CESPA P</w>
musulman es</w>
tit ular</w>
Bi ológica</w>
repeat edly</w>
siner gias</w>
Ver ificación</w>
S oc
laun ching</w>
Medit err
comm ends</w>
Ko rean</w>
sal as</w>
suje tas</w>
lanz amiento</w>
Sub división</w>
M ah
14 ,
constitu ido</w>
ri s</w>
próxim as</w>
perform ing</w>
especializ ada</w>
4 5
elev enth</w>
ér f
A prob
2. 5</w>
conf ía</w>
exis tir</w>
E X
sol e</w>
N O
gre enhouse</w>
í v
Mediterr anean</w>
comunic ar</w>
solici tan</w>
vi eron</w>
L aw
reiter ar</w>
sec c</w>
adju sted</w>
por tu
Inter institucional</w>
sa w</w>
aclar aciones</w>
ori an</w>
justi fication</w>
elev ados</w>
g t;</w>
PO L
& gt;</w>
20 7</w>
abor to</w>
mul ticul
acc eded</w>
w ording</w>
culp ables</w>
funcion ar</w>
gi o</w>
s pending</w>
pág .</w>
eg os</w>
with draw</w>
A R</w>
inher ent</w>
Q U
ut most</w>
b ing</w>
D raft</w>
entrevi stas</w>
Vé ase</w>
er to</w>
baj as</w>
tradi tions</w>
ofici osa</w>
someti das</w>
19 48</w>
read ing</w>
hi pó
Presid ents</w>
CO P.
contrat ar</w>
end arm
T re
recib idos</w>
religi oso</w>
me z
oper an</w>
justi ficar</w>
empres ariales</w>
Bah rain</w>
N A</w>
Ejecu ción</w>
pro te
mob ili
absolu ta</w>
fortaleci endo</w>
pi ci
go zan</w>
at uras</w>
assign ment</w>
democr áticas</w>
Kar ab
i res</w>
incit ement</w>
firm ó</w>
cred enciales</w>
UNOMI G</w>
MONU SCO</w>
serv es</w>
CEP E</w>
Re form</w>
obje ción</w>
Pri son</w>
ali anza</w>
inequ alities</w>
execu ted</w>
comien zos</w>
5 5
acknowled ging</w>
Em pres
pu s</w>
ONU CI</w>
par cialmente</w>
pursu it</w>
2 17</w>
comerci alización</w>
R ural</w>
15 ,
Sr p
entreprene ur
2 60</w>
there after</w>
cul tivo</w>
sum mits</w>
se emed</w>
poten tially</w>
SA DC</w>
l t;</w>
& lt;</w>
M AR
vi ve</w>
ra se</w>
2 25</w>
abst enciones</w>
reve aled</w>
de marc
legitim acy</w>
ofici oso</w>
indis i</w>
Regi ón</w>
Des colonización</w>
2 54</w>
suministr ar</w>
inform ativa</w>
emi gr
2 16</w>
speci alists</w>
substan ti
altern ativa</w>
maestr o</w>
conven idas</w>
F M
pat h</w>
adi estr
Br indisi</w>
prosper idad</w>
verd ad
dedic ada</w>
mom ent</w>
clar as</w>
T ali
Segun do</w>
sufri miento</w>
CON V
op i
Ser ious</w>
quali fications</w>
lag unas</w>
gan do</w>
2 21</w>
o zone</w>
Reglament ación</w>
sp ite</w>
Reg ulation</w>
port al</w>
Comi siones</w>
ólo gos</w>
sensi tiz
al em
R em
com mission
Tribun ales</w>
re alistic</w>
ug es</w>
ex hibi
ent ail
Kab ul</w>
afec tar</w>
l óg
c asu
habl ar</w>
intimid ación</w>
asum ido</w>
2 36</w>
impl ica</w>
ag eing</w>
public ará</w>
N ote</w>
mant enerse</w>
UN S
l mente</w>
interrum p
detec tion</w>
TI V
p ace</w>
Ul traterrestre</w>
su pre
im piden</w>
obe dece</w>
out set</w>
á tri
affor dable</w>
evid ent</w>
Srp ska</w>
man eras</w>
de muestran</w>
UNO CI</w>
diam antes</w>
dirig ir</w>
arm ar
Pro per
telecommun ications</w>
complement arios</w>
Rel ated</w>
T ab
harmon ized</w>
I L</w>
manifest ations</w>
conver sion</w>
pled ges</w>
a part</w>
forese en</w>
de beres</w>
D rogas</w>
un acceptable</w>
desfavoreci dos</w>
j ar</w>
mon etary</w>
In tel
demo li
cóny uges</w>
pir acy</w>
Inspec tor</w>
vot antes</w>
mini mize</w>
diversi ficación</w>
s al</w>
13 25</w>
antic en</w>
Soc orro</w>
provi sion
di ed</w>
otor gar</w>
disappear ances</w>
recipi ent</w>
ch an
complement ar</w>
acknowled ges</w>
ves sels</w>
mo tion</w>
ec tos</w>
psi co
hipó tesis</w>
mas sive</w>
de fer
28 .
continu ity</w>
organiz aron</w>
b rit
cap aces</w>
tur b
sh e
herrami entas</w>
Ag encia</w>
hu érf
En h
R ico</w>
Or den
Gran ting</w>
apprais al</w>
RA W</w>
exerci sing</w>
inclu irá</w>
wit nes
visi tó</w>
facilit ando</w>
depend s</w>
Sw iss</w>
O n
En carg
utiliz adas</w>
suppli ers</w>
co ster
mill ón</w>
innov adores</w>
he res</w>
19 3</w>
par to</w>
17 9</w>
Ad option</w>
injer encia</w>
imparti ality</w>
F alk
imper io</w>
er ving</w>
Addi tional</w>
t yp
Cust oms</w>
oc k</w>
avi ación</w>
produc tiva</w>
Prohibi ción</w>
perten ecen</w>
prior itarios</w>
X III</w>
enseñ anzas</w>
ES C
here with</w>
addi tionally</w>
c ódigos</w>
under took</w>
pre ver</w>
rec alc
mobiliz ing</w>
hab rían</w>
Cab inet</w>
separ ated</w>
constitu tion</w>
Di álogo</w>
excep tions</w>
Hou sing</w>
excep to</w>
conc es
3 50</w>
2 28</w>
attend ing</w>
univers ales</w>
ol onization</w>
debati r</w>
intimid ation</w>
des embol
advant ages</w>
Is lam</w>
recur rent</w>
fe eding</w>
combin ation</w>
expres sly</w>
vac ancies</w>
l leve</w>
coment ario</w>
razon ables</w>
pet rol
dese qui
Expl o
Colon ial</w>
stake holder</w>
inst ability</w>
certain ly</w>
vi enen</w>
i on</w>
tem per
concer tados</w>
ur bano</w>
modific ado</w>
arch itec
certi ficados</w>
gradu ally</w>
pun ish</w>
Volunt arios</w>
administr ar</w>
des cent</w>
pa sivo</w>
Regist er</w>
mo ved</w>
wat ers</w>
constitu ía</w>
retur ning</w>
firm ar</w>
conver sión</w>
ci na</w>
e armar
ic anas</w>
nav egación</w>
w anted</w>
sem an
Dec olonization</w>
non governmental</w>
becom es</w>
soli d</w>
asci enden</w>
asign a</w>
Congol ese</w>
Tri al</w>
f a</w>
abandon ar</w>
A id</w>
siz ed</w>
mencion ó</w>
Haiti an</w>
amoun ting</w>
3 .000</w>
atra er</w>
difer enci
sol em
prim a</w>
ho ja</w>
d adas</w>
co t
post pon
extraordin ary</w>
com parte</w>
Con serv
innov adoras</w>
fe ed
Proper ty</w>
up s</w>
ar as</w>
concer tación</w>
tur ning</w>
tru th</w>
reti ro</w>
hon or
INST RAW</w>
Conduc t</w>
reanud ación</w>
apén dice</w>
Atl antic</w>
sus pici
Sup pression</w>
con ec
circunst ancia</w>
to gr
Int oler
ez ca</w>
Genoci de</w>
part ly</w>
á l
S u</w>
s car
mi s</w>
suppor tive</w>
ni ght</w>
y ah</w>
6 8
appe aled</w>
suy as</w>
ari ats</w>
OD M</w>
inst aur
deterior ation</w>
fall s</w>
liveli hoods</w>
hy dro
exhor tó</w>
appreci ate</w>
vi dad</w>
Ge ogr
2 66</w>
urb anos</w>
perman ecer</w>
territori ales</w>
ini str
aum entos</w>
s fera</w>
di su
Portu gu
Or g
F ree</w>
pro mis
ap pen
sk il
sem ej
red und
contribu yó</w>
sh ap
excep cionales</w>
gre en</w>
Tru ste
returne es</w>
vot ar</w>
4. 2</w>
Bos ni
transcurri do</w>
parti al</w>
G ul
invit ados</w>
ecosy stem</w>
profun do</w>
counci ls</w>
C S</w>
amb ular</w>
ag a</w>
emis sion</w>
A F
con du
ap parent</w>
spo uses</w>
institu tos</w>
O t
conden as</w>
al ej
mant eniendo</w>
Comm on</w>
f oc
Of f
Transport e</w>
EN D
liquid ación</w>
Mar shall</w>
mutil ation</w>
NAT IONS</w>
19 6</w>
distribu ido</w>
jun tas</w>
Aru sha</w>
dedic ación</w>
L agos</w>
tr ying</w>
29 6</w>
M emor
An nual</w>
hu el
esti mul
invo ked</w>
vin as</w>
pondr á</w>
inclu sivo</w>
MI N
Falk land</w>
2 32</w>
stri ke</w>
Pro gres
chec k
contr arrest
al ban
ultim ate</w>
estim ular</w>
19 5</w>
preocup ada</w>
pre ambular</w>
glob ales</w>
19 7</w>
prosper ity</w>
ES TA
ocup ante</w>
attribu ted</w>
what ever</w>
1. 0
rein forcing</w>
fortal ec
enti rely</w>
uniform e</w>
ur ía</w>
Be ir
An aly
horiz on
complet ar</w>
cuid ad
geogr aphic</w>
time table</w>
br an
of re
minister io</w>
ag ro
i ble</w>
energé tica</w>
deni al</w>
fac tos</w>
classi fied</w>
af ro
pa ying</w>
oce ans</w>
IC A</w>
Beir ut</w>
actu ando</w>
A si
ir an
comun itarias</w>
encu entren</w>
W at
spar e</w>
HU MAN</w>
testi go</w>
discipl ina</w>
reform ar</w>
Min orías</w>
Mer c
á nica</w>
re alities</w>
Pal ais</w>
tri c</w>
cas as</w>
assum ption</w>
mercen arios</w>
spo use</w>
in mates</w>
matrimon ios</w>
Reli gi
Cap ital</w>
tu tela</w>
justi ficación</w>
disciplin arias</w>
dic es</w>
r le</w>
menos cab
brech a</w>
oper ated</w>
in viol
ess ation</w>
observ aron</w>
audit orías</w>
am ation</w>
apoy an</w>
inform ativas</w>
w er</w>
Kim ber
perio dic
intensi ficación</w>
ESC WA</w>
def ensor</w>
arti ll
apart ados</w>
Mal vinas</w>
ases or</w>
on e
Ar ticles</w>
cop ia</w>
2 ª</w>
viv os</w>
isl ands</w>
Il licit</w>
assur ance</w>
answ er</w>
gan ancias</w>
anti concep
jurisprud ence</w>
fronteriz as</w>
ru s</w>
Ch ern
muestr as</w>
co des</w>
squ are</w>
ec o</w>
al tura</w>
inver tir</w>
can nab
2 69</w>
ca í
Com mitted</w>
di d
subray aron</w>
ater ía</w>
datab ases</w>
I ED</w>
aprob aron</w>
adv ancing</w>
stereot ypes</w>
E T
frequ ent</w>
ari ans</w>
g l
br as</w>
arte factos</w>
vi sible</w>
pu tting</w>
Nig er</w>
contribu y
A T</w>
indic aron</w>
compro mise</w>
le ader</w>
arri ved</w>
por tion</w>
suce sión</w>
mal nutrición</w>
motiv ated</w>
re course</w>
D on
concili ación</w>
emerg encias</w>
10 ,000</w>
justi fy</w>
inter cambi
proteg idas</w>
acept ables</w>
ess entially</w>
Segu imiento</w>
administr adores</w>
respon de</w>
teach er</w>
facilit ada</w>
combusti bles</w>
Sar aj
N í
spe ech</w>
En sure</w>
proteg idos</w>
ass ure</w>
diversi fication</w>
carre teras</w>
diag nó
excep cional</w>
distinc t</w>
dict amen</w>
acompañ ado</w>
FAR DC</w>
seg ura</w>
it ual</w>
mó sfera</w>
Saraj evo</w>
vel e</w>
ter restre</w>
Produc tos</w>
pre mi
Mat ters</w>
Or gan
st ating</w>
forz ada</w>
L and
di ario</w>
op en
viol ate</w>
cre a</w>
dis proportion
comm erce</w>
communic ate</w>
cat aly
gar anticen</w>
emp os</w>
e h</w>
tow ns</w>
publi cidad</w>
mani pul
easi ly</w>
comput adoras</w>
ú menes</w>
fla gr
deci da</w>
Se y
Anti gua</w>
os ting</w>
llev adas</w>
I T</w>
work er</w>
testimon y</w>
registr aron</w>
medi ción</w>
enorm es</w>
Bo dy</w>
co tics</w>
condi tional</w>
ati n
aplic ará</w>
visi ting</w>
itu de</w>
in admissible</w>
examin en</w>
dissemin ated</w>
thir ds</w>
mar ítimo</w>
em e</w>
promulg ado</w>
kin ds</w>
apoy en</w>
propi et
Fortal ecimiento</w>
20 4</w>
ful ness</w>
aum ente</w>
neutr al</w>
16 ,
Chern ob
circul ar</w>
pil lars</w>
facult ad</w>
añ adi
dificult ad</w>
ch r
satis fied</w>
Stu dies</w>
an ot
orient ado</w>
im pide</w>
re ds</w>
4 .1</w>
ro oms</w>
incorpor ation</w>
produc ers</w>
contribu yendo</w>
tradi tion</w>
pro file</w>
incorpor ating</w>
Ó r
warr ant</w>
IC RC</w>
FI D</w>
in suficientes</w>
2 53</w>
im presión</w>
per juicios</w>
recl asi
op ina</w>
feasi bility</w>
pat rol
leg almente</w>
ev ic
def end</w>
ce ased</w>
trans boundary</w>
Gubern amentales</w>
p ita</w>
d ato</w>
publi ci
nov edades</w>
summari zed</w>
Registr ar</w>
eli gi
destac ado</w>
Tali ban</w>
6 87</w>
contr actor</w>
histór ica</w>
falle ci
crític as</w>
huérf anos</w>
2 58</w>
sustitu ir</w>
parti ally</w>
modern ización</w>
perió dica</w>
o par
comprendi das</w>
consci entes</w>
Neg oci
IP CC</w>
t ants</w>
mo dif
inter views</w>
afec ten</w>
ocurri do</w>
obstac le</w>
ari edad</w>
ter ror</w>
Estratég ico</w>
é u
antigu o</w>
p tima</w>
ã o</w>
stud ent</w>
investig ative</w>
anti gua</w>
reg ula</w>
Chernob yl</w>
di etas</w>
parti das</w>
D anish</w>
dis bur
ro ots</w>
encontr aban</w>
at u</w>
six tieth</w>
pil ares</w>
inquie tudes</w>
Stand ard</w>
a .
at titude</w>
ad vis
P atri
abi lización</w>
viol entos</w>
neg ativamente</w>
SI ÓN</w>
establec erse</w>
RE TA
stock pil
cre ando</w>
ad j
enfr entar</w>
r w
cannab is</w>
verd adera</w>
Raci smo</w>
ad mitted</w>
r as
hear ings</w>
ab ell
perman eci
ar nos</w>
renov ables</w>
correc tions</w>
exerci ses</w>
est anc
Pr ac
I P</w>
P U
revit alización</w>
dimen sional</w>
Fur ther</w>
ende ud
H osp
defin es</w>
li ved</w>
result aron</w>
cl í
3. 3</w>
collabor ative</w>
do y</w>
efectu ado</w>
Pro fe
sustan cial</w>
L it
su primi
Barb uda</w>
con virti
UNA MSIL</w>
adap t</w>
Fo rests</w>
t sun
sc ep
Observ ador</w>
exhaus tiva</w>
cumpli endo</w>
new s
mínim os</w>
propi edades</w>
con firm</w>
limpi eza</w>
suspec ts</w>
Famili es</w>
ter ap
e los</w>
P F
amend ing</w>
pay able</w>
Viol encia</w>
Copenh agen</w>
respal dar</w>
UN MO
lingu istic</w>
fore stry</w>
sust ain</w>
act ment</w>
rest os</w>
ez can</w>
restric tion</w>
lleg ada</w>
IC T
hund reds</w>
B ru
seri amente</w>
ci encias</w>
Med ical</w>
fal los</w>
qued ar</w>
prest ada</w>
enjuici ar</w>
invent arios</w>
tw ice</w>
al tamente</w>
inno cent</w>
dispar idades</w>
arri ba</w>
defin ido</w>
mon eda</w>
mens ajes</w>
ir itual</w>
eth eless</w>
CESPA O</w>
deci siva</w>
IMI S</w>
G az
sancion ar</w>
rendi r</w>
convenci da</w>
col d</w>
. 3</w>
nombr ar</w>
perpetr ated</w>
non etheless</w>
inform ara</w>
cobr ar</w>
altern ativo</w>
tri parti
ay an</w>
re tention</w>
Ali mentos</w>
d arse</w>
Mon etario</w>
eg et
Mon t
per judic
llam ado</w>
bi ot
Extern al</w>
en vejecimiento</w>
afec tada</w>
P equ
S i</w>
Kimber ley</w>
tem or</w>
wee kly</w>
inter cambios</w>
vincul antes</w>
vo ice</w>
ser vid
ó gen
present aciones</w>
mis cellaneous</w>
17 ,
ten or</w>
quiz ás</w>
usu al</w>
doc ente</w>
Situ ation</w>
Audit or</w>
UNC CD</w>
Ní ger</w>
revist e</w>
adver ti
dis pens
ab und
discipl ine</w>
qui ere</w>
hi giene</w>
X X</w>
resid ential</w>
avi ation</w>
helicópter os</w>
Supre ma</w>
repar ation</w>
assaul t</w>
land mines</w>
fir maron</w>
au str
attemp ted</w>
secret ariats</w>
adopt ara</w>
direc tivos</w>
concer ni
wel l
ven ida</w>
u ge</w>
communic ated</w>
C FC</w>
th res
w ing</w>
ak ar</w>
fall ing</w>
Esp aci
sub ven
alivi ar</w>
desempeñ ando</w>
Con sid
tí tulos</w>
de bi
in ete</w>
clar os</w>
Proy ectos</w>
tecn ológicos</w>
facilit ó</w>
Con feder
Lond on</w>
H. E.</w>
solici te</w>
Fran ja</w>
CEP AL</w>
Un der
SEC RETA
la v
e asy</w>
divi sions</w>
Freed om</w>
uni form</w>
evalu ating</w>
de l
é tico</w>
favor ablemente</w>
recíproc a</w>
proporcion ados</w>
Escu ela</w>
estableci eron</w>
A du
aport es</w>
autoriz ar</w>
attain ment</w>
3 38</w>
quin qu
RE L
pl ays</w>
id ó
subray ar</w>
frag ment
Ap pro
je opar
actu alizar</w>
modi fied</w>
til ity</w>
w all</w>
tr uly</w>
pas sing</w>
deb ilit
A ir</w>
palestin as</w>
sec ret</w>
g one</w>
at mósfera</w>
m unities</w>
gradu almente</w>
Inst ancia</w>
in flic
Cap ítulo</w>
trat aba</w>
mor ning</w>
re za</w>
vali osa</w>
k id
correg ir</w>
Ór gan
cin di
acc ru
bi om
E D
EC LAC</w>
col our</w>
ari ties</w>
differ enti
commit ting</w>
per mission</w>
est aciones</w>
skil led</w>
óp tim
mó viles</w>
o k
mod alidad</w>
ir s</w>
deport ation</w>
Integr ation</w>
perc eived</w>
diplom áticos</w>
re strain
fin alización</w>
extre mi
advi se</w>
absten tions</w>
Vi vi
G O
señal an</w>
signific ativamente</w>
P P
6 th</w>
some ter</w>
respon sive</w>
excell ent</w>
X en
redu jo</w>
de als</w>
cóny uge</w>
detall adas</w>
Copenh ague</w>
som al
S ION</w>
depart ure</w>
Croati an</w>
r rog
eder á</w>
destin ation</w>
regul ating</w>
preocup an</w>
bus c
leg ality</w>
al li
Par tido</w>
fil ing</w>
Ap elación</w>
small er</w>
ci tar</w>
Especi ales</w>
Coordin ating</w>
Bi blioteca</w>
with drawn</w>
uti l
twel fth</w>
result ante</w>
Id enti
ID AD</w>
recaud ación</w>
fenó menos</w>
cre ada</w>
spons oring</w>
origin ally</w>
ic k</w>
er ial</w>
ten encia</w>
sh owing</w>
contrat a</w>
vini eron</w>
plem ents</w>
explici t</w>
testi monio</w>
magistr ado</w>
accesi bilidad</w>
par ame
clan destin
secund arias</w>
offici ally</w>
conserv ar</w>
pre trial</w>
indic ación</w>
Sud anese</w>
exce siva</w>
Moham ed</w>
D IS
remin ded</w>
g er
s ul
cli ents</w>
int ér
li sting</w>
shor tly</w>
deci sivo</w>
celebr ados</w>
entr en
á s
defend ant</w>
ami st
P .1</w>
con gol
aisl amiento</w>
B ak
pers egu
s enci
físic os</w>
R P</w>
n en</w>
un preced
ban king</w>
leg ítimo</w>
ber g</w>
veri fy</w>
explíci tamente</w>
vi rus</w>
intér pre
valid ity</w>
loc ally</w>
incluy era</w>
parlament aria</w>
procur ar</w>
pres sing</w>
am érica</w>
Uti lización</w>
PRES ENTA
sex ually</w>
val u</w>
tu s</w>
C. 12</w>
mé dicas</w>
Estudi os</w>
IM O</w>
centr ó</w>
h o</w>
diplom áticas</w>
trans fronterizos</w>
CO 2</w>
27 6</w>
mu e
al ties</w>
umb ral</w>
abar car</w>
solici ten</w>
dist ur
vi sual</w>
oportun amente</w>
Kin sh
pro xim
plani ficar</w>
p atern
R ES</w>
in directly</w>
atr as
coo peren</w>
consci ence</w>
fe wer</w>
enorm ous</w>
iz ar</w>
R oy
correspond encia</w>
manif estado</w>
fr ía</w>
Kinsh asa</w>
re side</w>
min ed</w>
de struc
construc tiva</w>
pendi x</w>
child hood</w>
F or</w>
Adquisi ciones</w>
2 38</w>
roman í</w>
cour age</w>
sp heres</w>
profun das</w>
G uer
redac tar</w>
diri gió</w>
in capacidad</w>
acce de</w>
luc ro</w>
fe e</w>
chipri ota</w>
dol lar</w>
com ings</w>
2 34</w>
20 .000</w>
refiri éndose</w>
Alban ian</w>
inmediat as</w>
armon ía</w>
UNA MI</w>
UNMI T</w>
co pe</w>
result ar</w>
clari fied</w>
unpreced ented</w>
prin t</w>
Let ter</w>
sh ares</w>
2 64</w>
2 23</w>
utiliz ada</w>
ul ación</w>
equilibr ada</w>
adquiri do</w>
re misión</w>
asesin atos</w>
appropri ately</w>
traduci do</w>
1, 0
registr ó</w>
asi s</w>
resum ption</w>
the red</w>
sur gi
L. 2</w>
ten ure</w>
pregun tó</w>
consider ará</w>
bench marks</w>
est ación</w>
defin idos</w>
cooper ativas</w>
adher ido</w>
invest ors</w>
sud oriental</w>
b att
bran ches</w>
as entamiento</w>
ow ed</w>
equip ped</w>
dele ted</w>
O ver
pir atería</w>
pre mat
complej os</w>
en aje</w>
affec ts</w>
G AN
Tu valu</w>
ológ icamente</w>
evol ving</w>
pri sion
carre tera</w>
assi fication</w>
E labor
G N
orient ados</w>
noti cias</w>
2 49</w>
institu tes</w>
p abell
Consen sus</w>
ph ases</w>
insol vencia</w>
et te</w>
nomin ated</w>
im previstos</w>
Estudi o</w>
short comings</w>
6 7
L R</w>
on ing</w>
auxili ares</w>
advi sed</w>
2 47</w>
ini o</w>
compr end
particip ando</w>
public ar</w>
fi red</w>
Tribun als</w>
si bles</w>
re activ
ent almente</w>
presid enciales</w>
ish u</w>
deneg ación</w>
tribu te</w>
sur viv
ev olution</w>
N y
propos es</w>
deport e</w>
im agen</w>
invit ar</w>
ch ain</w>
exclu siva</w>
culp able</w>
Joh n</w>
ali gned</w>
Princip ales</w>
D estruc
san itarias</w>
reven ues</w>
pe día</w>
Pro gram</w>
celebr ando</w>
produ jeron</w>
st ro
n ul
someti da</w>
dur aderas</w>
Al mat
in suficiencia</w>
avanz ada</w>
rol l</w>
miner ales</w>
R ed
Go al</w>
ti tud</w>
añad ido</w>
a th
O TA
indi cios</w>
contin gency</w>
án im
19 66</w>
ata ñ
ne ta</w>
de pendientes</w>
Os lo</w>
Atl án
A be
fabeti smo</w>
pled ged</w>
qu al
preci sión</w>
cual it
N ú
sistem ático</w>
pol y
X IV</w>
speci fy</w>
acept ó</w>
Amend ment</w>
2 31</w>
ud as</w>
cl ause</w>
a ret
univers ality</w>
undersco red</w>
protec tive</w>
discrimin atorio</w>
au x</w>
tr ast
invol unt
U L
Públ icas</w>
lec ciones</w>
registr adas</w>
jurisdic ciones</w>
2 52</w>
inform áticos</w>
p ill
t ali
inter activo</w>
antigu os</w>
under lines</w>
quiz á</w>
adu an
Migr ant</w>
preve ía</w>
atri c</w>
Dec .
Almat y</w>
ci ans</w>
ded ores</w>
parli ament</w>
dro p
counter ing</w>
concentr ation</w>
vis a</w>
quanti ty</w>
proporcion ará</w>
inde x</w>
sur ance</w>
Ag ainst</w>
que remos</w>
mobiliz ed</w>
Ade lanto</w>
tend rían</w>
ac knowledge</w>
Mogad ishu</w>
margin ados</w>
consi st</w>
18 ,
compri se</w>
aé reas</w>
abo ren</w>
histór ico</w>
contrati sta</w>
pl ed</w>
propag ación</w>
2 46</w>
permí tas
consider ados</w>
AC. 105</w>
andes es</w>
annex ed</w>
a ven
2 44</w>
ap átri
Cart ag
Roy al</w>
An nan</w>
I AL</w>
O tras</w>
de bió</w>
27 .
ro tación</w>
In strum
pertin ent</w>
V anu
transpar entes</w>
juz gar</w>
R onda</w>
certific ates</w>
beli efs</w>
Pro duction</w>
enfr entamientos</w>
extraterritori al</w>
2 6.
fre cuentes</w>
colabor adores</w>
a qui
st abilization</w>
vi an</w>
ous ness</w>
Cartag ena</w>
pic ture</w>
2. 4</w>
plant ear</w>
medi anas</w>
enti ary</w>
UNID AS</w>
inspec tores</w>
lan des
cooper ating</w>
author ize</w>
Re al</w>
break down</w>
ide al</w>
Di str
sobre vol
Pue do</w>
Promo ver</w>
pre curs
k ind
he avily</w>
Sey chel
In te
re acción</w>
progenit ores</w>
Acade my</w>
á tr
restitu ción</w>
appropri ations</w>
permítas eme</w>
reembol s
consul ted</w>
plante ado</w>
Dis capacidad</w>
dec en</w>
jurisdic tions</w>
es hi
re fuer
autoriz a</w>
poin ting</w>
Des ast
6 9
K of
M aritime</w>
M ER
sal ud
re rs</w>
re distribución</w>
J ean</w>
Gr en
2 24</w>
man uales</w>
ff s</w>
m ales</w>
Ab dul
ho listic</w>
3 ,000</w>
div as</w>
Vanu atu</w>
sex ta</w>
audi encias</w>
preserv ación</w>
l i</w>
id s</w>
h app
confid encial</w>
su pl
It alian</w>
A OD</w>
vari aciones</w>
bal lot</w>
accesi bles</w>
com puesto</w>
bi rse</w>
errá neo</w>
autonom ous</w>
seg uras</w>
marri ages</w>
cip e</w>
ap par
manag erial</w>
L akes</w>
académ icas</w>
bene ficial</w>
attr act</w>
Res olución</w>
íntegr amente</w>
per turb
oc ean</w>
ow ners</w>
cen sos</w>
I v
promu even</w>
INF ORM
C lo
Eradic ation</w>
quic k</w>
off ender</w>
contraí das</w>
pen sions</w>
cír culos</w>
colon os</w>
M IC
L ist</w>
Fund amental</w>
S il
Add .4</w>
l ant
c essation</w>
sign s</w>
en sic</w>
argum entos</w>
SA T</w>
exce eding</w>
f otogr
des cu
deli vering</w>
2 5.
socio económica</w>
MI SIÓN</w>
aprob ara</w>
E T</w>
evalu ated</w>
Acade mia</w>
potenci ar</w>
elec t</w>
effici ently</w>
care ce</w>
wa it
divor ce</w>
descendi entes</w>
actualiz ado</w>
CIC R</w>
2 19</w>
re sistencia</w>
ap enas</w>
pre escolar</w>
coloc ación</w>
tax es</w>
v eget
llev ará</w>
IT C</w>
a ther</w>
Seychel les</w>
é ano</w>
retro vir
con seguido</w>
Ab original</w>
rop ic</w>
fo rec
anci anos</w>
UN AIDS</w>
po l</w>
J ane
D eb
impres cindi
sol ve</w>
col le
examin adas</w>
Ser b</w>
2 65</w>
prohib ido</w>
To dos</w>
Jane iro</w>
socio económicos</w>
exist an</w>
univers alidad</w>
e jo</w>
UNMI SS</w>
high lights</w>
bi l</w>
UNDA F</w>
priv atización</w>
no tion</w>
trans acción</w>
applic ants</w>
óp icas</w>
tox ic
N ota</w>
practi tioners</w>
í tulos</w>
promulg ated</w>
Mal divas</w>
gr ab
epide mic</w>
UND CP</w>
CA C</w>
actu arial</w>
exc ess</w>
L .</w>
re tención</w>
assu red</w>
Presid ential</w>
per si
or ship</w>
depart mental</w>
prim arias</w>
llev en</w>
Fac ult
F IC
marke ting</w>
cá pita</w>
Kof i</w>
vig encia</w>
argu ed</w>
soci ally</w>
Atlán tico</w>
privileg es</w>
resum idas</w>
7 7
actú an</w>
ton nes</w>
cl eares</w>
Lond res</w>
o este</w>
Accoun t</w>
as hi
Est atal</w>
y u
glob ally</w>
sex u
reú ne</w>
mi de</w>
ier an</w>
excel ente</w>
continu ado</w>
áne amente</w>
Re ports</w>
compl aci
pr ag
matr ícula</w>
cuart el</w>
extr acción</w>
arm a</w>
regre t</w>
psi qui
plant as</w>
ac or
A M</w>
pro ven</w>
segu ida</w>
feed back</w>
refer éndum</w>
coordin ators</w>
Consen so</w>
concentr ated</w>
chi ef</w>
Ge orgi
Ste ering</w>
Acuer dos</w>
Gu ar
eth ical</w>
dó lar</w>
teléfon o</w>
cultiv ation</w>
Johannesbur g</w>
siv es</w>
V el
confidenti ality</w>
milici as</w>
efectu ados</w>
Work shop</w>
Sah el</w>
e las</w>
celebr arse</w>
fe el</w>
Gran des</w>
in und
resum ida</w>
acre edores</w>
B ro
event ual</w>
negoti ate</w>
aw ai
De tall
caus ar</w>
estric to</w>
rec ti
ament arians</w>
espaci os</w>
sup plement</w>
ku wait
ta wa</w>
rele ases</w>
un paid</w>
Nat ural</w>
es casos</w>
preced ente</w>
nation ally</w>
Excel encia</w>
il o</w>
alu dismo</w>
ment ales</w>
Bu enos</w>
I g
proc ura</w>
ah ari
examin ations</w>
revit alization</w>
il literacy</w>
endeav ours</w>
s ess</w>
fer ti
acep ta</w>
suspec t</w>
fij ar</w>
affirm ed</w>
surro unding</w>
ab duc
19 68</w>
priv atization</w>
advers ely</w>
valor ación</w>
ph rase</w>
vol unte
e as</w>
celeb re</w>
witnes sed</w>
cr ó
transmiti ó</w>
repa ir</w>
sir ve</w>
parame ters</w>
A k
dissemin ating</w>
Capaci ty</w>
noti fied</w>
wor thy</w>
hubi ese</w>
cor te</w>
virtu e</w>
convic ción</w>
orient ada</w>
o w</w>
pl ants</w>
dedic adas</w>
fo ot
inst amos</w>
pre juicios</w>
congratul ate</w>
environ ments</w>
t amos</w>
est ad</w>
fáci lmente</w>
fr uc
accid ents</w>
Ab k
empl ear</w>
L E</w>
D akar</w>
uni fied</w>
P age</w>
cons ular</w>
equi voc
ejecu tado</w>
anal fabetismo</w>
conten ía</w>
un accompanied</w>
thir teenth</w>
sub programas</w>
sal am</w>
dum ping</w>
redon das</w>
en rich
Swe dish</w>
favo recer</w>
retir ar</w>
dispon ía</w>
comm entary</w>
cost umbres</w>
as h</w>
bomb as</w>
Nu cleares</w>
st one</w>
M ain
ti empos</w>
Cap e</w>
signific ativos</w>
medicin es</w>
interlocu tores</w>
aero puerto</w>
abri r</w>
se las</w>
identi fic
ten sión</w>
poli tici
stat eless</w>
school ing</w>
19 ,
A ires</w>
dev ol
con exión</w>
valu ation</w>
Ab aba</w>
bi o</w>
administr adora</w>
appear ance</w>
complet amente</w>
Program mes</w>
revi siones</w>
chipri otas</w>
intensi fied</w>
Detall ada</w>
Corpor ation</w>
earmar ked</w>
ad s
provoc ado</w>
j oven</w>
le sia</w>
dedic ados</w>
académ icos</w>
ac aba</w>
so stu
im á
inter dependencia</w>
discre tion</w>
respe tando</w>
Ade lant
ligh tly</w>
agot an</w>
Brun ei</w>
expedi entes</w>
conveni encia</w>
complej a</w>
4. 3</w>
for war
Regi stry</w>
imá genes</w>
im ag
Abe ba</w>
ME s</w>
re primir</w>
Ot tawa</w>
hi ja</w>
succ ession</w>
es or</w>
collec ting</w>
Mon aco</w>
sci enti
pa reci
di ves</w>
minor itarios</w>
inter institucionales</w>
ari zation</w>
O B
advoc ate</w>
AC ION</w>
regi on
educ ativa</w>
mercen aries</w>
er ation</w>
continú en</w>
ín dices</w>
ob sol
cr a</w>
respec ting</w>
estuvi eran</w>
Johannesbur go</w>
struc tured</w>
autoriz adas</w>
Z ona</w>
f lights</w>
Mal dives</w>
salvaguar dar</w>
ch ers</w>
acu te</w>
or ti
reconoc emos</w>
pos sibly</w>
fu ese</w>
repar aciones</w>
counci l</w>
TI ES</w>
don aciones</w>
adopt an</w>
N om
C B
scep ti
a a</w>
efec tividad</w>
M M</w>
design ar</w>
convic tions</w>
R adi
w eg
confisc ation</w>
C F
pres enting</w>
g reco
diagnó stico</w>
MA NUD</w>
expres ada</w>
toc ante</w>
bus ca</w>
su scepti
claim ants</w>
ber y</w>
fre cu
man kind</w>
Gul f</w>
ch e
tecn ológico</w>
guar der
M enos</w>
In migración</w>
1. 4</w>
hi er
neglec t</w>
ejecu tiva</w>
tion ment</w>
aument aron</w>
tempor ales</w>
tradi ción</w>
PNU FID</w>
recei ves</w>
noti fic
g ü
fi scal
monit ors</w>
encarcel amiento</w>
set tled</w>
persist ente</w>
Br us
produc tivo</w>
her idas</w>
Tob ago</w>
Re forma</w>
convenci do</w>
Com mander</w>
ES A</w>
spe ed</w>
allevi ation</w>
é poca</w>
indic ative</w>
ma la</w>
S ER
Distr ito</w>
m 2</w>
den dum</w>
mó dulos</w>
insol vency</w>
import e</w>
Liber ation</w>
inclu irse</w>
orgá nica</w>
lo an</w>
reconoci eron</w>
reci ba</w>
cab al</w>
Dis pu
incum ben</w>
en v
OI C</w>
2 55</w>
gh ly</w>
SU R</w>
signific ado</w>
pudi eron</w>
é ticas</w>
tor tur
disminu yó</w>
UNIT ED</w>
CC W</w>
P L
O P</w>
A ri
acumul ación</w>
enc ement</w>
P Y
per dido</w>
ES T
Ac cra</w>
Establi shment</w>
fórmu la</w>
Medit erráneo</w>
cuanti t
cl or
Pal acio</w>
Di ario</w>
reli ance</w>
gratu it
estableci era</w>
divor cio</w>
consult arse</w>
ant elación</w>
N a
abord a</w>
Re per
trabaj ador</w>
ambi entalmente</w>
CT BT</w>
ejer ce</w>
dismis sed</w>
Juven ile</w>
C T</w>
anticoncep tivos</w>
socio económicas</w>
consider aron</w>
c ív
Investig ation</w>
util ice</w>
port fo
A ir
transfer ir</w>
ish ing</w>
en actment</w>
yac entes</w>
ar idades</w>
ll enar</w>
Adelant ados</w>
measu red</w>
cooper ando</w>
fe ature</w>
sur face</w>
suje ta</w>
presidi do</w>
min d
mic ro</w>
bien venida</w>
doc tors</w>
epide mia</w>
con vend
M ón
shel ters</w>
cep tion</w>
Portugu ese</w>
un known</w>
aud its</w>
ab on
vig ation</w>
net working</w>
adap ted</w>
So vie
Brus sels</w>
previ sible</w>
comm encement</w>
establec erá</w>
[...]
