<s>
<pad>
</s>
<unk>
the
of
,
and
.
to
in
a
for
on
@-@
that
)
(
by
with
as
/
be
is
;
its
at
or
was
United
it
&quot;
are
from
Nations
which
an
:
Committee
their
this
&apos;s
not
General
have
has
all
had
been
States
international
also
other
rights
were
report
development
should
will
countries
under
Council
would
such
human
including
State
resolution
national
women
information
1
Assembly
support
work
Government
Convention
children
implementation
Secretary
session
-
activities
Commission
made
2
law
against
those
A
they
per
measures
one
into
article
more
these
between
through
any
country
3
there
system
well
International
we
programme
I
his
new
organizations
Rights
meeting
cooperation
Republic
draft
social
security
economic
number
cent
Conference
efforts
$
may
out
resources
who
paragraph
non
he
provide
order
level
during
services
assistance
ensure
right
regional
4
up
members
5
persons
Security
Development
public
further
Mr.
issues
no
some
provided
party
use
education
financial
process
two
programmes
within
health
but
people
Human
b
Special
Group
10
decision
time
could
particular
Office
legal
if
6
areas
only
first
years
relevant
shall
protection
based
period
need
following
related
adopted
training
developing
being
management
held
staff
take
than
action
taken
them
political
year
can
must
regard
review
December
situation
7
C
policy
child
The
community
parties
agenda
since
accordance
reports
over
recommendations
respect
so
while
established
among
part
however
peace
access
effective
special
Organization
cases
capacity
continue
about
8
15
where
President
our
both
most
violence
12
Programme
Member
9
many
&apos;
provisions
working
view
institutions
role
important
groups
technical
when
basis
progress
E
d
nuclear
appropriate
National
present
item
necessary
consideration
case
30
Social
before
budget
11
said
Act
2005
set
Board
14
June
Africa
world
general
three
2006
same
gender
local
20
concerned
possible
global
policies
18
meetings
without
specific
2008
data
full
ation
make
Parties
Court
13
discrimination
million
s
delegation
proposed
un@@
World
available
2010
2007
16
area
see
after
2009
Economic
each
African
2004
population
authorities
&#91;
&#93;
society
include
framework
increase
e
particularly
July
upon
considered
needs
bodies
submitted
account
note
military
participation
place
civil
continued
various
group
trade
given
police
promote
noted
high
issue
developed
region
sector
European
conflict
end
required
Law
building
document
ing
sustainable
age
legislation
2011
South
Ministry
17
Secretariat
levels
Fund
humanitarian
21
conditions
additional
importance
second
addition
2003
agencies
2000
concerning
October
re@@
S
Working
19
field
poverty
used
whether
project
total
provision
address
current
November
Department
criminal
representatives
care
status
requested
S@@
31
2002
term
September
No.
her
plan
resolutions
person
establishment
adoption
family
requirements
projects
therefore
Governments
Rapporteur
Mission
do
II
private
Women
25
context
personnel
contained
Protocol
2001
concern
Union
Action
May
future
22
above
question
attention
operations
requests
request
relating
March
2012
towards
weapons
statement
Affairs
mandate
1995
force
monitoring
governmental
regarding
24
able
impact
Declaration
1994
taking
indigenous
major
received
23
justice
third
agreed
January
domestic
approach
means
1999
organization
control
comprehensive
several
subject
coordination
victims
representative
armed
principles
treatment
1998
t
1996
rule
service
ed
member
way
entitled
increased
procedures
result
fully
rules
1997
existing
April
she
High
especially
consider
Executive
environment
UNDP
responsibility
included
life
costs
inter
according
Code
mechanisms
expressed
New
now
in@@
reporting
provides
implement
strengthen
results
ate
26
terms
standards
providing
27
improve
decisions
change
cultural
did
2013
obligations
practices
making
strengthening
systems
due
annex
because
B@@
employment
government
what
1993
administrative
contributions
environmental
fact
my
very
28
land
Advisory
different
M@@
agreement
para
how
Palestinian
addressed
follow
--
trafficking
problems
long
ated
section
funds
cost
assessment
reported
acts
technology
recent
risk
response
sexual
N@@
prevention
T@@
ting
Arab
amount
application
violations
free
Constitution
29
notes
procedure
establish
es
consultations
post
promotion
P@@
actions
i
February
still
lack
peoples
decided
F
thus
Covenant
G@@
men
example
five
significant
equality
key
small
develop
50
regular
matters
challenges
responsible
crime
another
income
commitment
Service
Criminal
main
laws
committed
school
does
August
secretariat
detention
mission
disarmament
even
forces
called
water
four
food
al
initiatives
documents
practice
Centre
annual
s@@
dialogue
D@@
behalf
terrorism
own
common
reform
P
planning
organized
pursuant
statements
priority
5@@
strategy
official
c
F@@
court
individual
certain
equipment
rate
forms
like
communities
prevent
A@@
awareness
America
least
growth
K@@
recommendation
help
foreign
principle
delegations
East
basic
H@@
although
production
HIV
funding
agreements
research
labour
involved
letter
date
L@@
purpose
Commissioner
missions
previous
instruments
already
operational
might
R@@
serious
form
treaty
aimed
approved
workers
promoting
freedom
III
focus
Israel
implemented
Ms.
Representative
6@@
torture
Minister
ers
facilities
objectives
adequate
carried
steps
implementing
currently
recommended
Article
Iraq
supported
living
er
list
needed
Director
joint
biennium
7@@
position
financing
de
refugees
having
issued
matter
reduction
office
stated
discussion
strategies
quality
ensuring
articles
Justice
affected
schools
judicial
evaluation
posts
plans
large
arrangements
proposals
60
recommends
act
took
girls
partners
facilitate
together
Treaty
every
equal
line
ating
greater
good
achieve
Tribunal
informed
authority
rural
8@@
Chairman
meet
dis@@
self
OF
study
individuals
Division
analysis
Plan
AIDS
undertaken
THE
early
strategic
guidelines
arms
prepared
families
Geneva
interest
40
medical
independent
best
ations
performance
dated
Charter
k@@
better
officials
young
property
fundamental
space
limited
essential
conduct
offices
investment
informal
problem
assist
crimes
ethnic
peacekeeping
compliance
Central
expected
proposal
protect
past
referred
nature
proceedings
centres
experts
Permanent
primary
last
recognized
give
knowledge
day
communication
yet
opportunities
overall
W@@
enhance
connection
clear
officers
fifty
B
paragraphs
functions
Russian
Child
understanding
aspects
months
provisional
exercise
conducted
become
reference
market
light
Federation
increasing
contribute
effect
Children
mechanism
C@@
potential
energy
negotiations
China
2014
manner
territory
evidence
others
us
preparation
Agency
communications
natural
ts
author
Democratic
Bank
citizens
ted
body
Israeli
six
integrated
?
below
48
Protection
integration
changes
UNICEF
benefits
periodic
institutional
y@@
contribution
less
led
alia
next
found
Kingdom
E@@
administration
business
e@@
questions
o@@
9@@
Asia
climate
active
former
goals
exchange
1992
y
abuse
state
views
commitments
submit
concerns
Panel
often
calls
Millennium
enforcement
courts
processes
transfer
opportunity
media
objective
internal
t@@
substantive
circumstances
Trade
text
items
open
presented
crisis
51
*
experience
table
fourth
direct
purposes
religious
outcome
52
course
resource
days
disabilities
participate
multilateral
identified
war
legislative
until
indicated
Health
regions
positive
mentioned
vote
Agreement
d@@
remain
interests
Information
entities
please
estimated
final
55
you
conference
achieved
tion
regulations
sessions
Management
49
throughout
drug
D
revised
educational
point
participants
higher
Sudan
enable
reduce
combat
improving
whose
UNCTAD
Public
maintenance
material
Summit
35
remains
put
infrastructure
UNHCR
%
58
operation
57
situations
language
ongoing
tions
value
low
sectors
Institute
Europe
effectively
Global
wish
Unit
safety
return
Forum
civilian
forward
benefit
art
33
To
death
wide
furthermore
despite
allow
Meeting
effects
prior
physical
investigation
32
economy
Education
ability
welcomed
intergovernmental
specialized
far
discussions
Canada
voluntary
Cooperation
rates
introduced
governance
then
59
61
g@@
34
53
elections
him
effectiveness
IV
Civil
45
claims
Report
Discrimination
done
vulnerable
Services
comments
housing
initial
65
36
ways
b@@
en@@
effort
indicators
responsibilities
hours
activity
62
applied
cannot
100
initiative
sources
l@@
observations
developments
Review
recalling
relation
People
priorities
power
York
welcomes
expert
elements
guidance
jurisdiction
scope
asked
summary
using
parents
J@@
collaboration
47
relations
extent
racial
p@@
universal
much
Political
establishing
permanent
displaced
54
64
close
Federal
56
includes
37
violation
Crime
bring
itself
signed
receive
de@@
materials
youth
travel
continuing
Caribbean
Islamic
range
fifth
compensation
American
Japan
poor
critical
Optional
peaceful
judges
methods
G
ent
aid
apply
Force
63
ant
lead
NGOs
emergency
1991
offences
39
stakeholders
improved
obligation
achieving
h
require
UN
Party
scale
distribution
call
prison
V@@
determination
O@@
Foreign
sixty
invited
similar
h@@
follows
addressing
Non
exploitation
consultation
encourage
opinion
adopt
directly
plenary
share
treaties
I@@
UNEP
transition
brought
ally
Support
identify
Peace
Regional
continues
Administrative
44
great
66
delivery
Environment
Implementation
applicable
46
Elimination
creation
twenty
whole
detailed
themselves
majority
38
41
n@@
f@@
supporting
Labour
2015
r@@
events
difficult
trial
core
Persons
ates
appreciation
transport
pay
consensus
just
encourages
Disarmament
th
paid
debt
Korea
capital
Headquarters
border
once
noting
associated
encouraged
assets
offence
states
Pacific
k
met
re
structure
Police
Congo
settlement
reasons
threat
ded
m
Goals
rather
technologies
moreover
urban
Latin
a@@
R
outside
statistics
either
France
balance
today
67
central
urges
UNFPA
42
1990
practical
create
temporary
positions
al@@
culture
Afghanistan
concluded
ad
Mexico
partnership
43
debate
fund
illegal
takes
submission
Cuba
aim
reflected
origin
consistent
on@@
standard
play
agency
covered
studies
efficiency
respective
All
involving
strong
ch@@
points
external
Prevention
o
completed
conferences
traditional
designed
units
bilateral
minimum
anti
st@@
criteria
claim
proliferation
complete
inter@@
sufficient
forty
Z@@
terrorist
expenditure
li@@
raised
few
conflicts
actors
appeal
Vienna
an@@
regime
factors
election
rehabilitation
products
average
Syrian
freedoms
students
minorities
India
parts
independence
team
stability
decides
carry
Section
reached
Sustainable
source
68
weapon
seek
female
complaints
4@@
recently
intended
suggested
remained
Bosnia
advice
1,@@
1@@
entry
maintain
monitor
task
refugee
construction
goods
raising
down
implications
Countries
resulting
around
sixth
c@@
conclusions
l
clearly
grounds
economies
sanctions
conclusion
goal
committee
punishment
destruction
Joint
again
improvement
procurement
personal
U@@
Iran
serve
consequences
Administration
discussed
am@@
u
owing
build
contract
capacities
languages
Chair
scientific
77
duty
successful
T
supply
Herzegovina
A.
th@@
co
recovery
formal
Y@@
defined
presence
10@@
achievement
accountability
created
democratic
urgent
event
ans
leaders
ninth
deal
p.m.
professional
ly
cover
beyond
Australia
net
involvement
approaches
0@@
Add.1
elected
sharing
possibility
2,@@
difficulties
focused
alternative
partnerships
concluding
requires
3@@
placed
demand
Territory
solution
introduction
ended
Community
illicit
defence
definition
ence
French
phase
Middle
Rwanda
als
West
membership
Other
stage
transparency
absence
efficient
Pakistan
subregional
b.
paper
migration
sex
70
Coordination
instrument
stressed
leave
movement
measure
approval
Ireland
timely
approximately
w@@
payment
recognition
relationship
later
skills
imposed
target
u@@
Room
.@@
Germany
loss
Governing
audit
asylum
eighth
donors
specifically
written
step
am
seventh
agricultural
visit
ous
represented
extended
network
planned
occupied
religion
Authority
compared
recruitment
AND
Yugoslavia
en
ab@@
keeping
Annex
generally
Brazil
air
ance
p
operating
sub
z@@
leadership
workshops
forced
actively
secondary
commercial
mandates
ri@@
across
honour
launched
broad
prepare
Association
challenge
enhancing
undertake
home
centre
civilians
hold
deployment
Lebanon
real
Rules
contributing
assessments
concept
conventions
described
Nuclear
reflect
closely
hand
ratification
lower
growing
Re@@
month
constitutional
ground
appointed
chapter
Parliament
strengthened
registration
beginning
documentation
short
single
nationality
mass
soon
organizational
institution
coordinated
published
Turkey
investigations
export
2@@
pre
guarantee
representation
ment
inclusion
determined
competent
System
at@@
recognizing
immediate
namely
indicate
as@@
negative
accordingly
Agenda
useful
Somalia
Strategy
dealing
territories
reduced
ar@@
live
combating
minority
democracy
authorized
enhanced
80
M
sent
finance
disaster
percentage
Second
Palestine
hope
reviewed
respond
half
billion
urged
known
ti@@
emphasis
host
Bureau
Netherlands
69
amended
determine
sh@@
expertise
concrete
Legal
occupation
Chief
Cultural
along
cooperate
know
v@@
prisoners
caused
applications
estimates
types
Kuwait
tools
participated
your
C.
success
constitute
el
leading
off
island
places
subsequent
Norway
contact
declaration
migrants
Policy
come
US
ents
resulted
longer
90
victim
i@@
observers
inform
ative
m@@
collection
component
senior
corruption
attacks
companies
amendments
design
gross
believe
sentence
g
marriage
followed
accused
over@@
emphasized
se@@
ratified
200
confidence
donor
mind
consent
mainly
Supreme
courses
causes
Ministers
allegations
expression
shown
actual
reducing
express
fair
Switzerland
words
imprisonment
Officer
dollars
solutions
Al
University
statistical
granted
workshop
avoid
organs
advance
medium
reach
fields
alleged
participating
accepted
North
considering
shared
face
cross
Weapons
integrity
separate
type
reproductive
English
insurance
Western
UNIDO
ill
aware
times
aircraft
affairs
record
engaged
category
assess
Guinea
trust
markets
remaining
industry
forest
Territories
Zealand
cause
collective
series
electronic
di@@
raise
Kosovo
Assistance
model
dissemination
safe
ings
ments
reintegration
damage
always
relief
ro@@
Cyprus
appointment
seven
registered
threats
75
penalty
highest
Ambassador
interpretation
Operations
3,@@
speaking
se
find
el@@
Islands
fight
Experts
im@@
headquarters
risks
ILO
eliminate
reforms
accounts
reason
ary
paras
advisory
ses
visits
Egypt
Framework
function
&apos;@@
mutual
setting
respectively
allowed
categories
territorial
functioning
Prosecutor
ity
Fifth
tive
welcome
Spain
ar
unless
Indonesia
immediately
site
n
internationally
...
norms
options
records
it@@
contributed
holding
In
racism
lives
industrial
identification
likely
recorded
OHCHR
Northern
tasks
cash
L
seen
enjoyment
observed
nor
findings
18@@
arrest
teachers
consumption
In@@
preventing
prosecution
existence
entered
le@@
outcomes
counter
guarantees
amendment
availability
ad@@
j@@
Italy
unit
Liberia
elimination
restrictions
sought
targets
complex
crucial
Chairperson
substantial
expenditures
structures
me
red
Decade
birth
Family
requirement
co@@
Inter
electoral
side
lo@@
sub@@
Roma
funded
First
finally
Colombia
extend
ors
added
subsequently
responses
disability
mortality
thematic
old
enterprises
forum
Ukraine
Croatia
Vice
identity
considers
migrant
increasingly
contains
governing
survey
judge
populations
kind
Sweden
N
supplies
Argentina
Internet
Forms
et
regulation
considerable
recognizes
listed
emerging
Chamber
sovereignty
candidates
formulation
failure
Deputy
equitable
sed
ding
endorsed
executive
duties
multi
Sierra
secure
science
4,@@
Gaza
Population
Haiti
press
perspective
13@@
completion
values
he@@
opening
IN@@
contracts
discuss
engage
trends
Technical
or@@
creating
COP
Torture
subsidiary
almost
Refugees
protected
realization
produced
300
V
indeed
expresses
subprogramme
faced
obtain
15@@
previously
v.
est
commission
custody
highlighted
VI
allocated
fulfil
base
pending
Habitat
welfare
examination
networks
Asian
detained
mental
IAEA
linked
Technology
comply
Third
associations
Great
campaign
eight
sion
73
back
inclusive
internally
offer
er@@
seeking
Burundi
assessed
content
whom
budgetary
Procedure
too
bearing
aged
preventive
Ch@@
updated
arising
si@@
conformity
Jerusalem
strongly
preliminary
discriminatory
thirty
drugs
Leone
socio
Members
initiated
earlier
allocation
sound
acting
pointed
lessons
agriculture
ants
juvenile
departments
drafting
committees
competition
72
commissions
nationals
entire
recognize
convened
Humanitarian
5,@@
Indigenous
coverage
numerous
publications
aims
money
publication
Internal
marine
affect
liberty
zone
reservations
residence
outstanding
etc
Fourth
500
nevertheless
tr@@
otherwise
favour
reconciliation
accounting
Azerbaijan
prostitution
targeted
CN.4
delay
14@@
.1
payments
ou@@
Morocco
systematic
maximum
Space
f
containing
ex@@
processing
ap@@
offered
presentation
Prime
encouraging
om@@
race
components
IC@@
significantly
maintained
instance
ical
enabling
judiciary
Questions
19@@
oversight
latter
diseases
vehicles
uses
closed
release
Principles
wishes
forth
Research
perpetrators
charge
1.@@
diversity
um
IS@@
employees
hoped
name
71
week
oil
invites
limit
road
minors
start
rise
Training
legitimate
ul@@
par@@
dignity
ators
amounts
waste
arrested
go
Gender
convention
details
eradication
ac@@
Al@@
protecting
wished
satisfaction
Field
expenses
globalization
preparatory
expansion
detainees
specified
supports
original
round
le
learning
exist
man
ties
experiences
carrying
subjected
interested
diplomatic
Nigeria
except
primarily
direction
Food
proper
city
engagement
il@@
mine
selected
ator
alization
vital
ine
obtained
job
Chile
ag@@
safeguards
examine
UNESCO
sustained
facilitating
proportion
highly
sea
read
powers
incidents
ak@@
ra@@
credit
76
cycle
preparing
regulatory
prohibited
El
pl@@
flows
unemployment
Status
located
decrease
why
geographical
productive
stations
be@@
substances
thereby
speakers
drawn
Peacekeeping
Financial
Darfur
De@@
unable
Spanish
Sea
400
Regulations
declared
x
Control
decide
emissions
mis@@
6,@@
theme
es@@
op@@
recalled
Serbia
maintaining
designated
frameworks
binding
Drugs
occurred
verification
seminars
move
74
attended
giving
daily
Lebanese
Observer
ic@@
nations
circulated
interim
disabled
&apos;Ivoire
left
reiterates
i.e.
is@@
ol@@
ed@@
settlements
makes
Peru
principal
L.@@
learned
heard
a.m.
Austria
obstacles
sites
guaranteed
Ethiopia
Iraqi
Assistant
7,@@
em@@
Staff
affecting
Forces
Côte
disasters
95
Georgia
po@@
association
intention
sale
Congress
receiving
permit
qu@@
empowerment
v
entity
Guatemala
campaigns
confirmed
prohibition
room
Peoples
refer
here
la
coordinate
ever
tool
extension
examined
violated
C.2
Penal
vocational
Budgetary
Myanmar
charges
Year
e.g.
des
ons
Eastern
78
hoc
identifying
chemical
,000
Finland
background
spirit
heads
keep
attend
pursue
2.@@
owned
Timor
complaint
enter
arbitrary
ages
federal
head
85
facing
fuel
CRC
employed
O
Algeria
reaffirms
remedies
widely
UN@@
.2
examples
ownership
governments
Czech
topic
competence
pre@@
Kenya
late
turn
liability
resolve
83
Belgium
history
improvements
transparent
ur@@
sustainability
600
ha@@
though
transmitted
teams
D.
Trust
sanitation
Hoc
draw
regards
grant
transit
Racial
extradition
failed
jointly
sing
users
tax
Initiative
Scientific
dealt
Universal
disputes
foster
0.@@
scheduled
reasonable
Ad
adolescents
VII
FAO
enjoy
constructive
played
numbers
impunity
degree
complainant
Uganda
Sub
Belarus
Statute
consultative
structural
regularly
81
attached
Decree
Under
coordinating
96
reiterated
king
differences
factor
Subcommittee
investments
79
82
show
UNODC
pa@@
agree
website
advocacy
figure
C.5
achievements
Terrorism
reconstruction
reaffirming
Ombudsman
premises
legally
extensive
adaptation
element
spoke
mines
database
con@@
reply
mainstreaming
reviews
delivered
impacts
Poland
Philippines
Coordinator
sections
16@@
observer
trained
ve
C.3
97
rapid
dispute
troops
ter
covering
17@@
woman
Movement
investigate
assigned
produce
98
innovative
distributed
contrary
assisting
never
res@@
contain
Resources
93
stresses
nine
expanded
constraints
figures
suffering
envisaged
worked
out@@
incorporated
mandated
1989
8,@@
staffing
An@@
announced
Monitoring
la@@
combined
94
pilot
technological
EU
Thailand
focal
modalities
welcoming
99
NGO
near
prices
under@@
reaffirmed
counsel
represent
pro@@
witnesses
88
84
87
per@@
C.1
outlined
Denmark
me@@
officer
mail
appeals
Power
bringing
91
bl@@
mobilization
district
ality
Armenia
92
maternal
Energy
outer
Ad@@
grave
company
product
sensitive
teaching
believes
NPT
mother
losses
psychological
p.m
belonging
solidarity
deep
consequently
let
execution
Independent
controlled
capabilities
lines
Preparatory
resumed
allowance
worldwide
minor
comment
killed
3.@@
burden
AN@@
monthly
transferred
Turkish
chemicals
methodology
Task
humanity
Britain
st
periods
accept
Bangladesh
9,@@
older
deliberations
rape
camps
option
directed
homes
price
Cambodia
Rev.1
vision
troop
Costa
ni@@
WHO
appear
resident
te
house
.4
explained
reservation
floor
Nairobi
trend
radio
shows
89
700
sponsors
anniversary
ir@@
began
insufficient
extreme
adjustment
ministries
vulnerability
AC@@
location
enterprise
grateful
little
86
Sri
ES
deprived
perform
facts
composition
K
Constitutional
Co@@
prisons
ot@@
man@@
link
800
Professional
constitutes
r
selection
00
interventions
savings
tourism
ks
opened
limits
standing
ty
af@@
ones
test
Ecuador
LDCs
gap
weeks
doing
intervention
names
Platform
involve
released
Jordan
focusing
Ministerial
H
century
budgets
Com@@
Equality
mo@@
sets
Treatment
pension
recalls
Comprehensive
acquisition
relevance
preparations
attack
soldiers
Expert
arts
compulsory
accessible
expand
reaching
links
Developing
Youth
Defence
Malaysia
programming
finding
Angola
customs
seminar
boys
served
look
guide
rest
Project
ship
Financing
serving
topics
900
repatriation
CD
suffered
alized
exports
charged
Planning
roles
ob@@
Beijing
1988
duration
Partnership
ci@@
demands
thank
Montenegro
belief
utilization
ho@@
acceptance
severe
update
behaviour
Violence
Venezuela
transactions
citizenship
begin
OIOS
sectoral
run
size
demonstrated
abroad
replies
gaps
sive
treated
attempt
procedural
condition
U
convicted
financed
Uruguay
advancement
integrate
alone
broader
conducting
Portugal
jobs
ling
ON
bi@@
posed
ah
letters
Y
represents
lasting
coming
inadequate
undertaking
similarly
instead
Excellency
locations
qualified
Hungary
widespread
Di@@
nation
aries
ministerial
controls
panel
intolerance
born
Southern
societies
recommend
Official
representing
works
Mechanism
ban
TO
biological
transportation
Auditors
remedy
latest
stages
WTO
voting
invitation
ec@@
Romania
requesting
cities
true
Day
adopting
transnational
consolidated
ending
started
believed
end@@
formed
orders
modern
substance
municipal
aggression
Network
Palestinians
became
Eritrea
managers
UNRWA
reflects
Nepal
Promotion
Lanka
vi@@
Kazakhstan
indicates
balanced
changing
oral
unilateral
Statistics
supervision
overcome
Interior
deployed
Ex@@
away
harm
version
considerations
relatively
Strategic
oriented
SR.@@
coherence
hearing
forums
Trafficking
joined
Rica
gr@@
schedule
advantage
facility
organize
sp@@
deaths
largely
influence
Military
inhuman
no@@
emphasizes
212
adequately
Ar@@
trans@@
ds
fire
inspection
devoted
degrading
sense
lands
contents
UNOPS
promoted
gave
conservation
Q@@
com@@
Greece
pressure
came
Con@@
determining
professionals
equally
citizen
returned
acknowledged
penalties
stable
assisted
withdrawal
passed
introduce
ure
variety
enforced
20@@
ma@@
tolerance
ati@@
traffic
disposal
thousands
manage
adverse
transmit
0
sts
Lithuania
1st
Saudi
search
equity
AT@@
Foundation
ne@@
AS@@
Paris
revision
Safety
increases
Small
regardless
ably
seekers
seriously
2nd
accession
RE@@
lawyers
Oversight
tenth
mid
Conventions
extremely
academic
visited
Armed
convinced
exception
embargo
male
ving
Self
ICT
scheme
Employment
largest
En@@
sentenced
to@@
everyone
protocol
ev@@
constituted
partner
integral
Salvador
Red
ph@@
estimate
Mar@@
contingent
str@@
12@@
fied
rose
households
writing
managed
south
CO@@
ten
Friday
J
so@@
Tanzania
airspace
Part
experienced
reportedly
performed
Finance
ying
Proliferation
ER@@
CEDAW
papers
HRC
conclude
ago
up@@
tic
son
ready
join
z
res
valuable
drew
é@@
decline
Operation
operate
southern
mi@@
firm
introducing
multiple
continuous
becoming
decade
neither
laid
functional
His
covers
felt
Science
grants
accommodation
non@@
AR@@
fall
zones
helped
north
choice
X
Monday
Intergovernmental
Agriculture
salary
code
ideas
Slovenia
St@@
sometimes
copies
generation
1,000
4.@@
suggestions
composed
Corr.1
gas
gh@@
su@@
pertaining
conjunction
continuation
den@@
ist
ational
fying
depth
ic
allegedly
bo@@
Afghan
satellite
tory
der
fi@@
segment
On
authors
expressing
reviewing
employers
customary
wider
advanced
sign
harassment
disciplinary
deprivation
ves
formulated
fishing
linkages
outreach
relate
distinction
sions
neighbouring
barriers
requiring
remote
stipulates
Macedonia
rejected
launch
Bulgaria
vehicle
for@@
corresponding
judgement
commit
Committees
Bolivia
fixed
crises
fication
degradation
ness
instances
GEF
projected
helping
removal
unique
cl@@
Climate
violent
Occupied
commended
borders
Tunisia
cruel
phenomenon
ay@@
mothers
Senegal
Chinese
character
counselling
lastly
bank
PR@@
120
war@@
unlawful
occasion
movements
demobilization
inventory
moral
opposition
W
ya
60@@
disaggregated
Directorate
Pro@@
overview
mining
um@@
Integrated
subjects
ch
board
urge
corporate
say
newly
banks
usually
Libyan
ological
acceptable
disease
Guidelines
trading
understand
transfers
reliable
id@@
adjustments
pleased
signing
sentences
administering
proceed
Kyoto
wage
xenophobia
ked
referring
briefing
col@@
lost
bill
Rio
adults
lists
ge@@
favourable
filed
Change
word
displacement
outputs
unions
explanation
Society
allowing
respected
Mo@@
applies
deeply
flow
genocide
journalists
exclusion
television
Standing
faith
negotiation
dedicated
Heads
nearly
denied
Add.@@
consultants
annually
asset
bound
hi@@
Se@@
Ac@@
built
seeks
ari@@
Model
army
Cameroon
consolidation
instructions
notification
dependent
a.m
ters
warning
spread
min@@
extrabudgetary
immigration
contractual
parliamentary
replace
station
danger
Thursday
provincial
WFP
te@@
pornography
tri@@
closure
applying
pupils
comprising
notably
Albania
fo@@
Mali
mitigation
Migration
appears
os@@
conventional
hazardous
import
fisheries
deemed
provinces
relative
Sixth
kept
try
claimed
Welfare
schemes
Moldova
reflecting
offenders
sovereign
transitional
changed
Island
abuses
delays
defenders
responding
ratify
ze
household
prejudice
evaluate
offers
strict
cluster
harmonization
freely
define
Use
texts
restructuring
fiscal
speak
Mrs.
accountable
leaving
web
transmitting
Protocols
expulsion
ful
ang@@
nutrition
limitations
GDP
organizing
Uzbekistan
village
Nam
normal
successfully
demonstrate
testing
decades
agents
forthcoming
servicing
League
flexibility
Ghana
amounted
understood
surveys
assessing
reality
fulfilment
intellectual
Tuesday
ently
prosecutors
equivalent
pi@@
ement
competitive
forests
ATION
us@@
Budget
eligible
Inter@@
Yugoslav
ret@@
properly
facilitated
statute
supplementary
enshrined
showed
method
restricted
environmentally
disadvantaged
Punishment
inputs
issuance
drawing
machinery
ach@@
begun
clarification
disseminate
Gu@@
biodiversity
biennial
harmful
purchase
techniques
27@@
mandatory
alternatives
refers
Open
Slovakia
separation
map
evaluations
coastal
Adviser
pursued
Reduction
Wednesday
0,000
Nicaragua
Tajikistan
9.@@
IT@@
permitted
DP
tors
deliver
Acting
incorporate
renewed
beneficiaries
Chad
laundering
é
Rome
av@@
dangerous
strength
elaboration
5,000
stand
ter@@
British
suitable
establishes
submissions
Viet
Team
AL@@
attributable
historical
residents
ent@@
fe@@
interaction
top
alize
calling
regarded
volume
literacy
characteristics
RIGHTS
presidential
UNCITRAL
atory
ain
anticipated
sides
stock
ast@@
patterns
explore
capable
attempts
fighting
negotiating
ordinary
Yemen
object
Transitional
alizing
fiftieth
cor@@
subparagraph
idea
mercury
union
incurred
liaison
foreigners
starting
enough
flexible
VIII
au@@
6.@@
Disabilities
friendly
i.
@
Peacebuilding
heavy
resolved
signature
Process
replaced
simply
Latvia
arrangement
ke
Mauritius
orientation
ir
w
marked
ov@@
sponsored
format
mention
vacancy
Local
fees
actually
frequently
IN
memorandum
register
conviction
granting
observance
Drug
larger
ex
placement
witness
page
detail
5.@@
accompanied
Inspection
municipalities
ka
Cross
desertification
stocks
As@@
holders
output
gives
contacts
coherent
thereto
mobilize
alities
SBI
convening
1967
expanding
productivity
stress
guided
occur
wastes
Ab@@
Montreal
SBSTA
Session
parent
meaning
ering
explosive
ances
northern
fl@@
declarations
mon@@
hospitals
exceptional
add
Settlements
talks
Arabia
presents
eastern
tes
genuine
buildings
pose
conducive
tried
ii
seized
sur@@
invite
Indian
ging
lawyer
Educational
cooperative
storage
analytical
TA@@
port
notice
innovation
pollution
cutting
Doha
title
incident
mean
relationships
EC@@
26@@
injury
responded
thereon
pregnant
input
Head
appropriation
pregnancy
Estonia
Combat
clarify
themes
Relations
farmers
29@@
entrusted
attitudes
bear
stipulated
receipt
beings
ace
greatly
commodity
3rd
necessity
PA
orally
providers
formulate
inhabitants
allows
ously
occupying
thanks
Communications
translation
heritage
ge
observation
150
MDGs
peacebuilding
Their
Strip
suspected
sufficiently
we@@
balances
incentives
ely
1990s
sect
consists
whereas
rel@@
injured
things
ia
obtaining
Increased
macroeconomic
San
enrolment
dimensions
emphasize
operative
ps
opinions
assembly
105
inquiry
101
chap
pages
sec@@
going
objection
accurate
Singapore
Right
12.@@
breach
ay
Prohibition
stay
Anti
auspices
OECD
har@@
Qatar
headed
salaries
hard
Malta
package
ST@@
entering
reserve
maritime
Counter
aspect
hunger
Bissau
managing
appeared
acquired
vis
renewable
track
behind
possession
interference
reductions
ology
industries
1986
Developed
authorization
revenue
facilitation
loans
punishable
thought
explain
gains
relates
Jamaica
eliminating
ammunition
ines
currency
villages
thereof
EC
underlying
greatest
concepts
X@@
e.
whereby
platform
Leste
hospital
continent
proved
carbon
City
Im@@
Li@@
Outer
ve@@
tu@@
Records
tables
Organized
5th
Iceland
FOR
spent
votes
valid
liabilities
Ma@@
Greek
mutually
Luxembourg
collected
Chapter
heading
facto
difference
German
fine
stressing
generated
Assessment
combatants
terrorists
foundation
inequality
28@@
derived
Earth
CERD
copy
Least
Sahara
8.@@
quarter
1987
propose
parental
As
liberalization
963
War
obliged
fill
prosecutor
aw@@
message
EN@@
ited
closing
computer
advances
ana
intensify
Commonwealth
therein
Cuban
Army
mer@@
generate
shelter
exists
via
recruited
assumed
punished
Interim
ships
102
none
az@@
era
indicator
os
consequence
rapidly
Environmental
uni@@
arise
Basel
arbitration
Emergency
monitored
fac@@
prohibit
gi@@
05
dimension
Ban
un.org
length
participatory
enacted
Durban
penal
preserve
logistical
objects
Burkina
adult
universities
prospects
Faso
fy
prescribed
permits
willingness
redress
ten@@
ING
excessive
alism
eg@@
admissibility
108
Panama
ums
ensured
suspended
devices
bur@@
replacement
clearance
tribunal
disappearance
Le@@
systematically
Arms
maternity
get
Region
Transnational
den
stop
organ
remuneration
ratio
chaired
discharge
administered
ism
termination
ai@@
award
connected
et@@
See
accelerate
software
assurances
Mongolia
OSCE
houses
curricula
Order
impose
1985
consisting
wor@@
School
persistent
District
prompt
department
districts
strictly
cultures
110
Issues
ce
Aligned
111
Mozambique
targeting
necessarily
ali@@
11.@@
103
No
Country
subsistence
ese
reaffirm
want
ven@@
integrating
pe@@
mobile
Advancement
drafted
ences
eradicate
Representatives
reserves
depending
formation
Strengthening
indicating
aging
emphasizing
reiterate
OR@@
ry
are@@
hostilities
complement
Biological
ID@@
hence
parallel
DE@@
Arabic
appoint
ies
Administrator
explicitly
finds
enhancement
missing
Atomic
protocols
Resolution
ched
closer
Consultative
prosecute
unity
AL
SA@@
prevented
ders
Co
division
els
ture
delegates
ization
dates
consult
gu@@
Corruption
initiate
existed
online
COM@@
curriculum
ard
destroyed
telephone
fear
trials
impartial
progressive
interactive
ow@@
Saint
Zambia
regulated
refused
regrets
meaningful
convene
CE@@
reinforce
IPSAS
Appeals
programs
invasion
1980
ency
ess@@
frame
restoration
appointments
Supplement
immigrants
landlocked
prevalence
ta@@
healthy
Sal@@
concerted
UNIFIL
excluded
pri@@
middle
Main
send
ha
des@@
104
threatened
promptly
university
camp
file
intensive
province
106
do@@
mobility
1982
&amp;
complementary
transmission
kilometres
ODA
consistently
safeguard
Sector
mediation
Liechtenstein
collect
ah@@
gain
Bill
diverse
models
father
att@@
reimbursement
notwithstanding
ically
handling
cease
Statistical
emergencies
Benin
employer
Procurement
Facility
demographic
brief
occasions
10.@@
addresses
regimes
Honduras
consolidate
cur@@
claimant
Par@@
Jamahiriya
unfortunately
looking
ED
executions
root
budgeting
methodologies
perhaps
Activities
attendance
Electoral
UNIFEM
meant
flight
acy
absolute
master
durable
ei@@
Evaluation
enabled
doubt
subsidies
investigated
exceed
Workers
producing
Measures
ordered
limitation
remove
twentieth
air@@
250
births
analyse
Zimbabwe
pattern
looked
credibility
depend
atic
hosted
SE@@
Organizations
marginalized
acquire
ged
secured
description
Dominican
exploration
desire
merely
decreased
possibilities
ery
mostly
amend
Sh@@
incidence
choose
Former
ish
clean
FDI
submitting
went
summit
coordinator
significance
involves
Pension
Tr@@
capability
ME@@
underlined
user
rely
millions
Guide
assume
que
removed
firms
Basic
accounted
Hague
ty@@
undermine
Standards
112
Poverty
Inhuman
Muslim
RA@@
ale
elderly
du@@
street
zing
ng
Equal
30@@
translated
Euro@@
hal@@
les
Prosecution
subregion
statutory
107
likewise
rendered
prove
nothing
ke@@
insecurity
ory
Transport
proceeds
hatred
exposure
x@@
refrain
comparison
Branch
form@@
Alliance
briefings
comparative
Unity
slavery
normally
killing
prevailing
bed
AP@@
liable
offset
infant
approve
ite
corporations
gener@@
remarks
Qu@@
servants
bro@@
Logistics
ail@@
duplication
malaria
surveillance
Culture
businesses
og@@
BY
inside
Industrial
repeated
struggle
pen@@
drought
married
correct
Mu@@
governed
decree
50@@
drinking
Th@@
tor@@
hear
imperative
instruction
presentations
tical
compilation
suffer
commodities
MONUC
indirect
willing
census
rich
referendum
contractors
moving
ep@@
survival
Water
bu@@
00@@
ing@@
CH@@
ized
competitiveness
encountered
impossible
Man@@
prohibits
admission
establishments
Contracting
Namibia
Land
CP@@
minutes
UR@@
Independence
Investment
seats
fostering
exclusively
mat@@
anyone
substantially
Stockholm
Officers
urgency
acted
investigating
114
occupational
Q
girl
CON@@
ward
decent
ani
ass@@
116
intends
Governmental
od@@
focuses
defining
our@@
workload
percent
aliens
duly
IX
enemy
ecosystems
fraud
0,@@
ned
intelligence
ong
relatives
guilty
tangible
zed
expectations
mainstream
justified
130
da
recall
cons@@
Cypriot
command
eb@@
fish
ics
career
11@@
emb@@
Relief
makers
calendar
racist
benefited
constant
115
A.@@
Degrading
eng@@
Emirates
corporal
suspension
gained
her@@
wages
Paraguay
wishing
elsewhere
rental
ade
UNMIK
VI@@
characterized
redeployment
Decision
cr@@
Audit
hy@@
exercised
speaker
urgently
Chemical
irrespective
think
cited
whenever
ne
generations
outline
sphere
endeavour
submits
capita
IMF
24@@
finalized
budgeted
suggest
lay
accorded
Powers
ES@@
murder
Attorney
town
preservation
Saharan
the@@
113
consistency
CAT
cut
UNC@@
Narcotic
ori@@
Document
negotiated
carefully
NEPAD
branch
ECA
desirable
ens
SC
ends
foundations
credible
sion@@
accomplishments
deadline
severely
engaging
IA@@
tor
formulating
predictable
thorough
IM@@
seems
Bo@@
readiness
Envoy
features
q@@
optional
prosecuted
exchanges
train
PA@@
presidency
SecretaryGeneral
formally
references
tic@@
initially
Work
comprises
decentralization
questionnaire
ruling
enforce
manufacture
Cruel
accessibility
retained
vast
electricity
ahead
stronger
sports
ministers
ess
109
Rec@@
viable
Area
solely
quite
OAU
double
proof
ask
abortion
Item
C.@@
certificate
engineering
delayed
offering
mitigate
CO
2,000
merits
car@@
imports
channels
118
completely
causing
himself
considerably
manual
Responsible
updating
restore
realized
program
firmly
disclosure
examining
work@@
certification
40@@
abolition
tackle
allocate
Judicial
contemporary
difficulty
learn
generating
Senior
TION
bar@@
_
Institutions
utilized
Ocean
ber@@
ping
TI@@
122
ved
For@@
tons
Somali
Building
117
Am@@
ibid
advisers
Su@@
Canadian
east
Parliamentary
husband
transformation
spe@@
inflation
hopes
Minorities
highlight
candidate
driven
divided
ECE
CN.9
aforementioned
definitions
declined
1.2
plant
Car@@
decolonization
CONF.@@
tin@@
retirement
50,000
tests
UNAMID
retain
profit
USD
ef@@
ements
injuries
munitions
100,000
poorest
worth
slow
IP@@
satisfactory
privacy
fu@@
exposed
So@@
ech@@
ots
dr@@
autonomy
ultimately
au
allocations
COMMITTEE
securing
annexes
rising
alien
ranging
contracting
ensures
consumer
Golan
baseline
realize
malnutrition
dynamic
pursuing
appreciated
fulfilling
complexity
condemned
tensions
quickly
unemployed
ON@@
classification
tribunals
applicant
transaction
ECOWAS
An
historic
promotes
normative
killings
weight
hour
chosen
species
+
adherence
awarded
est@@
hands
Conferences
borne
Add.2
feasible
guaranteeing
patients
CC@@
Kuwaiti
grade
Monetary
classes
workplace
Disaster
un
Libya
resort
thanked
suggestion
Follow
weak
roads
firearms
elaborated
allowances
disparities
employee
Diversity
RC
shift
mar@@
guiding
Violations
Appeal
all@@
publicly
Voluntary
opposed
Racism
organisations
momentum
SP
imposition
ren@@
ra
140
enjoyed
F.
prohibiting
damages
analyses
Test
gratitude
House
gar@@
4th
ins
ESCAP
interpreted
maintains
Desertification
ST
suggests
Mal@@
refusal
indication
ane
Dialogue
ver@@
Australian
fissile
seem
138
NLB
inspections
genital
1.1
70@@
religions
119
resettlement
ban@@
preceding
elaborate
emerged
Immigration
exclusive
class
Kyrgyzstan
wealth
125
separately
handed
Russia
Fiji
resolving
ceasefire
preparedness
extrajudicial
digital
immunity
No@@
Pl@@
Volunteers
ns
Rwandan
soil
fulfilled
ners
west
contributes
Ap@@
synergies
Bolivarian
iz@@
id
calculated
123
Legislative
secondly
ratifying
ta
verbale
economically
Turkmenistan
credentials
regulate
perspectives
books
fell
Business
tan@@
gathering
precise
Survey
tw@@
adolescent
registry
CA@@
Mi@@
extending
tel
1981
Round
juveniles
smuggling
One
Syria
confidential
sum
proceeding
ethics
aspirations
wife
manufacturing
logistics
Victims
wondered
em
ind@@
down@@
rapporteurs
upgrading
1973
182
atmosphere
repeatedly
Iranian
Togo
CA
launching
commends
hu@@
Conflict
Ordinance
performing
eleventh
IS
ur
multi@@
1373
video
greenhouse
atives
ther@@
adjusted
dual
justification
7.@@
saw
holds
acceded
sole
wording
25@@
spending
Ro@@
withdraw
inherent
rec@@
utmost
Mediterranean
121
traditions
tically
ru@@
reading
Korean
Presidents
Z
news
Draft
inform@@
incitement
assignment
ina
153
inequalities
executed
acknowledging
Library
oc@@
pursuit
01
cu@@
FCCC
thereafter
HR
seemed
summits
potentially
serves
09
Bahrain
Care
aci@@
revealed
legitimacy
specialists
hor@@
MA@@
1984
moment
www.@@
qualifications
path
Serious
spite
1978
realistic
sales
ches
rent
declare
ozone
Hong
detection
outset
evident
affordable
pace
ports
telecommunications
harmonized
pledges
manifestations
unacceptable
conversion
apart
tur@@
Djibouti
simple
Regulation
ageing
Prison
minimize
monetary
piracy
1949
viewed
died
180
recipient
disappearances
acknowledges
vessels
motion
Related
massive
continuity
ak
observe
lies
ant@@
Granting
appraisal
exercising
fit
Base
depends
suppliers
Sexual
impartiality
Kong
UNMIL
and@@
Reform
herewith
Additional
additionally
undertook
Note
Adoption
UNOCI
mobilizing
separated
Customs
constitution
exceptions
Cabinet
attending
ASEAN
recurrent
intimidation
advantages
expressly
combination
reas@@
vacancies
FR@@
stakeholder
certainly
instability
ot
enti@@
gradually
ud@@
punish
descent
indispensable
moved
Colonial
waters
ov
returning
eni@@
nongovernmental
solid
ls
becomes
wi@@
Swiss
Decolonization
Congolese
wanted
134
amounting
Barbados
Haitian
sized
extraordinary
turning
truth
partly
Trial
P.@@
supportive
wh@@
appealed
Conduct
ner
deterioration
Suppression
appreciate
tel@@
hydro@@
Genocide
livelihoods
Dis@@
23@@
Mis@@
Sub@@
ai
Register
returnees
partial
Center
councils
ecosystem
Lao
124
documented
apparent
spouses
emission
night
Property
NATIONS
ste@@
mutilation
trying
ces
invoked
fr@@
comparable
MO@@
strike
XI
08
green
ultimate
AC.@@
AS
attributed
whatever
reinforcing
ble
vers
Pe@@
entirely
prosperity
aphic
FI@@
tly
geographic
OS@@
paying
ars
classified
oceans
denial
timetable
debates
spare
HUMAN
Housing
assumption
realities
inmates
spouse
operated
Atlantic
atively
sessional
CR@@
06
ced
CI@@
adi@@
Articles
islands
answer
assurance
codes
square
Committed
databases
Guyana
advancing
stereotypes
tures
frequent
jurisprudence
ancy
putting
ases
portion
arrived
compromise
leader
Illicit
motivated
recourse
justify
essentially
hab@@
teacher
Common
Ensure
speech
assure
Niger
diversification
anti@@
10,000
distinct
ular
iii
Free
Annual
169
ment@@
stating
ESCWA
160
tion@@
communicate
violate
towns
UNITAR
easily
low@@
tively
ning
testimony
worker
disseminated
Bar@@
thirds
kinds
comes
inadmissible
CC
visiting
preambular
pillars
Bi@@
commerce
satisfied
AD@@
Web
incorporating
rooms
producers
incorporation
warrant
compar@@
mark
Or@@
Body
Matters
poses
profile
defend
incompatible
feasibility
ICRC
summarized
ker
contractor
transboundary
128
155
partially
Monterrey
132
interviews
obstacle
Mor@@
investigative
Me@@
student
sixtieth
ghts
shed
attitude
seas
admitted
hearings
ma
exercises
corrections
Tokelau
bul@@
roots
Registrar
lived
tered
defines
Danish
Further
collaborative
aphy
adapt
front
fin@@
http
confirm
suspects
pr@@
amending
ill@@
payable
sustain
ours
000
linguistic
restriction
Forests
hundreds
1.5
om
twice
founded
forestry
innocent
TD
nonetheless
Malawi
perpetrated
cold
retention
Copenhagen
weekly
ped
OP@@
miscellaneous
describe
voice
ms
ice
PS
126
Botswana
micro@@
Pri@@
residential
External
aviation
discipline
attempted
secretariats
landmines
reparation
communicated
assault
falling
Families
2.1
H.E.
Per@@
UNCCD
GE@@
divisions
Si@@
easy
uniform
ation@@
evaluating
US@@
tics
attainment
JIU
wing
plays
modified
truly
Final
cas@@
ring
Journal
secret
morning
committing
permission
skilled
deportation
sm
ECLAC
colour
perceived
FA@@
advise
abstentions
Standard
resume
pro
responsive
UNPROFOR
excellent
deals
placing
6th
flo@@
departure
regulating
Croatian
destination
legality
smaller
twelfth
withdrawn
sen@@
Kar@@
originally
wall
showing
sponsoring
explicit
RI@@
officially
pretrial
speci@@
reminded
Coordinating
clients
listing
shortly
Po@@
SP@@
Sudanese
Integration
defendant
Medical
verify
locally
und@@
135
banking
validity
pressing
sexually
Taliban
Situation
NA@@
off@@
bis
XV
145
pur@@
indirectly
enormous
fewer
conscience
ama
counter@@
spheres
2.2
childhood
dollar
clarified
Albanian
unprecedented
Trans@@
tension
129
appropriately
Mon@@
resumption
benchmarks
tenure
AM@@
investors
branches
equipped
deleted
owed
Letter
affects
shares
141
Washington
evolving
CS@@
print
institutes
phases
cope
nominated
127
shortcomings
Os
ately
advised
fired
London
162
proposes
tribute
evolution
def@@
revenues
aligned
chain
colonial
Tribunals
Consensus
33@@
For
ists
inalienable
133
ash@@
contingency
Cairo
Goal
pledged
stood
ang
universality
underscored
pol@@
protective
rol@@
specify
clause
Aid
ler
underlines
Studies
concentration
parliament
Samoa
ba
countering
quantity
drop
Cor@@
acknowledge
hand@@
consist
dri@@
comprise
il
Amendment
ished
annexed
ching
pertinent
ened
1,0@@
certificates
beliefs
ata
07
200@@
stabilization
picture
intern@@
bas@@
authorize
cooperating
rem@@
breakdown
Bu@@
heavily
Madagascar
appropriations
37@@
consulted
pass
jurisdictions
izing
UNO@@
Migrant
extr@@
holistic
Sub.2
ballot
managerial
autonomous
marriages
attract
beneficial
offender
moun@@
Italian
pensions
sup@@
quick
3,000
cessation
owners
Production
ocean
exceeding
LA@@
Eradication
signs
Program
delivering
EM@@
evaluated
men@@
1979
land@@
efficiently
ile
divorce
ential
2020
plus
taxes
index
ust
La@@
can@@
elect
solve
Woods
131
Serb
ro
applicants
app@@
practitioners
notion
promulgated
Rev@@
highlights
por@@
2.5
excess
epidemic
LE@@
assured
departmental
Presidential
Against
argued
socially
privileges
Maritime
tonnes
Lakes
itation
ables
j
globally
Bretton
1983
fa@@
List
NE@@
regret
Freedom
concentrated
UNDCP
coordinators
proven
chief
eth@@
cultivation
ethical
Academy
Steering
accede
confidentiality
MI@@
wards
sure
render
feel
Johannesburg
negotiate
Account
marketing
unpaid
supplement
elling
nationally
hom@@
36@@
examinations
bases
revitalization
endeavours
illiteracy
affirmed
PC
suspect
surrounding
UNDAF
adversely
phrase
143
privatization
witnessed
repair
parameters
disseminating
38@@
notified
Workshop
ize
releases
virtue
serv@@
ack@@
Ps
plants
congratulate
ko
dro@@
environments
accidents
unified
thirteenth
na
unaccompanied
gen@@
ore
Addis
CN@@
commentary
235
irregular
137
medicines
TE@@
142
Be@@
stateless
UNAIDS
Aboriginal
schooling
embr@@
constitu@@
art@@
feedback
136
intensified
Manual
earmarked
valuation
zation
Swedish
ver
Ababa
fies
discretion
ests
collecting
GENERAL
arbitral
compatible
mercenaries
advocate
arization
succession
Capacity
respecting
mu@@
structured
flights
Registry
Programmes
acute
possibly
Maldives
Page
convictions
confiscation
presenting
Monaco
sis
claimants
pres@@
Sec@@
mankind
Royal
tation
neglect
receives
Ri@@
council
monitors
settled
lab@@
edi@@
speed
Commander
alleviation
indicative
.org
C.4
insolvency
Trinidad
34@@
loan
139
03
Mauritania
sti@@
Sa@@
UNITED
Sha@@
reliance
Air
Tri@@
ast
char@@
tional
dismissed
bio@@
ths
SA
enactment
popular
Ban@@
measured
Bangkok
feature
Palais
à
Madrid
surface
151
shelters
Portuguese
doctors
TH@@
Personal
hon@@
unknown
IMO
audits
lets
Liberation
adapted
commencement
networking
Juvenile
stands
ame
radioactive
airport
radiation
Pre@@
Investigation
1974
gathered
arrears
Brussels
of@@
powerful
loc@@
arrival
ishing
eventually
fail
careful
avoiding
apportionment
Tobago
inconsistent
PRESIDENT
Gulf
accommodate
western
frequency
20,000
fer@@
He@@
prosecutions
Capital
centred
notify
wherever
settings
told
revisions
Establishment
166
ca@@
Province
ethnicity
harmony
interdependence
perpetrator
aiming
Papua
IL@@
expedite
maximize
ple
Acts
legisl@@
02
OIC
unauthorized
Cape
2016
patient
reinforced
E.@@
IDB.@@
coordinates
aside
endorses
pu@@
ats
Judge
10,@@
hosting
IG@@
Multilateral
Lu@@
tracking
Domestic
144
Bosnian
excluding
Presidency
Accounting
crops
MINUSTAH
residing
programmatic
credits
standardized
ITC
supplied
fertility
intent
traditionally
At@@
yah
Personnel
demonstration
Serbs
Istanbul
revise
Election
commenced
decisive
fax
recording
Un@@
Opportunities
NATO
sport
Governor
draws
LA
associate
awards
looks
CTBT
organic
predic@@
harmonize
arrests
messages
preference
encies
medi@@
book
Jewish
UNMIS
false
surplus
females
ading
judgements
ong@@
Col@@
147
ades
argument
Japanese
leads
installation
1970
Contributions
ption
1975
Cs
slightly
analysed
meets
qualitative
don@@
break
tal@@
At
Ben@@
influ@@
146
nur@@
Natural
lawful
SMEs
broadly
deploy
workforce
lowest
decentralized
eds
han@@
analysing
04
chlor@@
client
asing
accelerated
-@@
Sir
processed
tioned
Har@@
2017
write
attain
arm
abolished
restrict
IF@@
Norwegian
filled
Des@@
1.3
CHAIRMAN
I.@@
utilize
ju@@
bre@@
fragile
threaten
OU@@
distinguished
intersessional
CDM
156
discussing
shortage
entail
Ko@@
settlers
152
Hall
uphold
contrast
misconduct
mixed
continuously
robust
individually
Courts
Qaida
zero
Works
Level
encing
militia
coercive
civic
Rem@@
row
Speci@@
accredited
inf@@
Conventional
kindly
CARICOM
patrol
Rule
micro
metres
developmental
subprogrammes
Sam@@
Chairs
proactive
profound
prisoner
helicopter
INF
AI
incumbent
Arbitration
Soviet
uncertainty
architecture
Af@@
deb@@
survivors
challenging
concludes
cent@@
addendum
tend
154
limiting
fifteenth
Data
Serbian
UNU
distor@@
nationwide
screening
quota
objec@@
GM
check
prolonged
installations
cargo
threshold
relocation
Ni@@
sw@@
stri@@
discriminate
Slovak
ga
instituted
tend@@
sa
PRO@@
issuing
AMISOM
violating
methyl
alist
Reconciliation
Detention
grow
designate
heart
gradual
boards
sk@@
Colombian
independently
Insurance
detainee
Refugee
Prevent
empowered
q
fast
Closed
depleting
242
playing
UNFICYP
Agreements
48@@
Civilian
goes
comprised
obvious
tariff
running
arguments
IR@@
port@@
kg
introductory
ber
emergence
restrictive
Gabon
buyer
participant
Aspects
accreditation
alleviate
Centres
illegally
Reports
pool
C.6
convey
158
ail
ala
visa
abduction
ets
G.
suicide
Gr@@
isolation
ambi@@
constantly
livelihood
ACC
chapters
CCPR
fate
9th
shing
collectively
3.2
oring
asi@@
attaches
1977
returns
qui@@
breaches
aring
Puerto
Communication
148
democratization
diplomacy
reg@@
Du@@
unencumbered
deferred
questioned
plan@@
peer
nineteenth
8th
1540
reflection
57@@
consolidating
projections
Study
worst
teenth
Dr.
ll@@
disappeared
confinement
inde@@
awaiting
Practices
measurement
ins@@
13.@@
157
vari@@
eligibility
attained
Enforcement
3.1
7th
demonstrations
mindful
ach
guardian
strive
reunification
segments
ue
mid@@
safeguarding
alternate
properties
confident
ick
missile
exemption
resilience
clinics
voted
entrepreneurship
AC.109
Minimum
receivable
faces
furniture
sters
tives
Post
deficiencies
15.@@
Outcome
lease
Analysis
slow@@
SU@@
Mine
ecological
files
specialist
Guam
designing
halt
industrialized
Zone
persistence
Tax
neighbours
39@@
eding
COUNCIL
ordin@@
parliamentarians
distance
sal@@
ws
patrols
ought
Liberian
broadcast
EA
methodological
Rotterdam
virtually
El@@
2.3
149
meanwhile
deficit
moratorium
unanimously
inst@@
CB@@
mere
unnecessary
counterparts
Holy
WP.@@
cour@@
Shi@@
crossing
sponsor
Go@@
ket
onal
broadcasting
alignment
accord
forensic
Muslims
MINURSO
correspondence
251
Agricultural
Statement
afford
weaknesses
Industry
Near
periodically
ster
clarity
CT@@
165
sincere
debtor
AC
commend
sc@@
IMIS
Resident
agrees
inability
wood
earnings
Destruction
simultaneously
rotation
contradic@@
Gazette
Enforced
Gibraltar
assumptions
pat@@
missiles
SI@@
ali
od
infection
falls
post@@
licence
ev
expect
medicine
Treaties
www.un.org
aver@@
qualification
desired
profession
illness
politics
ingly
ell@@
EL@@
Church
wrongful
operates
Americas
appendix
possess
marginalization
HR@@
water@@
Democracy
161
damaged
expense
liquidation
Crimes
extra
disrup@@
holder
settle
1980s
ara
&gt;
casualties
208
flag
tortured
IDF
Dec@@
chronic
oun@@
reiterating
debris
dev@@
reserved
politically
Ru@@
ish@@
persecution
gro@@
certified
pillar
printing
back@@
47@@
GR@@
Ti@@
cap@@
fourteenth
probably
quantitative
turned
It
ER
vary
Communities
criterion
159
equ@@
ath@@
portfolio
Argentine
14.@@
arm@@
CP.@@
Aviation
ays
vers@@
condemns
College
sending
1961
Liaison
phased
mm
lu@@
stimul@@
reconnaissance
ou
192
170
interrogation
licensing
lacking
earliest
clearing
To@@
TS
deliberate
ari
respects
agg@@
1971
ol
explanations
int@@
dic@@
Cre@@
=
&lt;
reproduced
ham@@
Brazilian
confirmation
quantities
flu@@
han
commence
linking
recon@@
automatically
inquiries
shipment
enables
tioning
dropped
Hel@@
sian
Peaceful
marital
ack
contingents
Coalition
Lo@@
updates
Border
objections
acks
communiqué
ek
spec@@
comp@@
Lesotho
designation
genetic
elled
regretted
preferred
expendable
ce@@
upcoming
publish
toxic
ref@@
overseas
ease
affirmative
Solidarity
temporarily
ple@@
grown
SS
inspectors
CIS
Organisation
totalling
design@@
abl@@
chairmanship
DC
Systems
exclude
voluntarily
cards
law@@
helpful
dangers
je@@
wounded
acking
ills
Ho@@
go@@
doctor
1976
lin@@
enrolled
tradition
highlighting
completing
Islam
adding
With
magnitude
Ethics
adhere
policymakers
eable
Is@@
Seminar
abandoned
Pr@@
mor@@
Recommendations
fairly
Resource
intend
treat
167
modernization
intercultural
orphans
streamlining
Sch@@
del
substitute
wil@@
immunities
varied
Res@@
panels
ered
tious
213
refer@@
UNCDF
Plenary
adequacy
infections
proceeded
weak@@
visible
Commercial
quanti@@
Pen@@
segregation
tuberculosis
San@@
exceeded
guideline
val
renew
GC.@@
Chambers
1951
Governance
supervisory
UNFCCC
reverse
4.2
conceptual
imposing
ap
Chairmen
227
volunteers
OM@@
logical
explosives
rer
ys
thinking
cat@@
Rural
Number
list@@
Ministries
scientists
Radio
clothing
besides
apartheid
creditors
PAR@@
Chemicals
renewal
restitution
consumers
Table
ourselves
emp@@
endorsement
alcohol
ea
aching
sixteenth
directives
GU@@
leg@@
prerequisite
ound@@
occurring
tains
proclaimed
conten@@
library
foreseen
studied
Stabilization
1.15
arrange
ear@@
applicability
cells
embodied
reasonably
ton
underp@@
affirms
H.
Baghdad
entr@@
referral
Te@@
Fi@@
bridge
inception
164
Georgian
imply
contributors
Groups
postponed
creative
Accounts
der@@
Inspectors
preserving
seventeenth
institute
Tu@@
Moscow
bor@@
211
ian
218
km
interregional
rs
11,@@
18.@@
fications
cell
finalize
marking
trainers
4,000
roster
replied
STATES
sel@@
smooth
soci@@
Bahamas
lan@@
neutral
destin@@
systemic
tragic
consultant
Br@@
Practice
accident
modules
attacked
explored
exemptions
creditor
MENT
201
River
inventories
AG@@
220
formula
entitlement
Promoting
Fundamental
align
measuring
ruled
enders
Subcommission
183
shel@@
threatening
supplemented
172
6,000
reception
san@@
Rehabilitation
Marine
diversion
directors
Rom@@
filing
Fo@@
aking
163
tre@@
237
ICC
instalment
prominent
3.3
UNITA
realizing
entitlements
Jo@@
Rel@@
eliminated
judgment
XII
audited
248
males
posted
helicopters
empower
1960
accomplished
colleagues
boundaries
hot@@
categor@@
circled
Professor
infected
impetus
bing
ascertain
contexts
Urban
tro@@
declining
Operational
210
freeze
belong
teen
tain@@
chair
Tourism
entrepreneurs
diamonds
189
communicable
save
circulation
arch@@
Port
Verification
hundred
DA
childcare
porting
overdue
Bel@@
operators
Commerce
custodial
disclosed
tobacco
tested
ambitious
173
approves
quarterly
socioeconomic
commensurate
precisely
Ham@@
condi@@
coercion
hostile
isolated
expeditiously
totally
satisfy
informing
22@@
CMP
OC
attribu@@
forwarded
Ag@@
complemented
enting
brings
refuse
199
nominations
Bonn
complied
divi@@
consular
workplan
cy
Ba@@
Participation
13,@@
helps
apparently
cooperatives
aling
thousand
ki
PRST
pil@@
invest
dry
TA
sting
Citizens
Uses
afforded
deposit
QU@@
214
head@@
cancellation
immigrant
describes
psychiatric
amb@@
policymaking
resistance
recipients
indi@@
interesting
steady
milit@@
impede
Armenian
DI@@
humankind
Add.3
correctional
identical
Hy@@
lodged
ri
cians
Certain
ening
stimulate
spo@@
shipping
aph@@
commun@@
publishing
choices
ger
collaborate
rejection
visual
proposing
fee
dict@@
sity
narcotic
12,@@
PO@@
oper@@
STA@@
IOM
elec@@
briefed
dismissal
sl@@
here@@
valued
1972
eradicating
direc@@
J.
challenged
Young
175
implies
laboratory
pan@@
seat
Egyptian
freight
2.4
subscri@@
appreciates
hazards
cont@@
si
bat@@
eighteenth
signatories
vested
Belize
oning
Corporation
PP@@
inher@@
computers
gs
positively
L.1
Ali
tl@@
libraries
venue
Access
acceding
incomes
AT
communal
timing
remind
psych@@
Vi@@
tra@@
claiming
CEB
Periodic
wai@@
che@@
tribal
undermined
grass
din@@
4.1
dependence
urg@@
tain
ae
remand
58@@
Response
overcoming
scourge
amnesty
atal
II.@@
trafficked
168
image
Pur@@
181
226
tackling
Oman
exhausted
br@@
Mogadishu
textbooks
185
ran@@
solving
Gambia
blood
expelled
enquiry
Transfer
270
weather
physi@@
Ivorian
171
beneficiary
Suriname
demining
substantiated
Andorra
ise
rou@@
universally
easier
navigation
Abuse
exploring
tful
municipality
1.4
benefiting
encouragement
Combating
compatibility
Senate
urbanization
Role
respondents
19.@@
expectancy
arbitr@@
agent
Azerbaijani
amongst
174
abide
channel
Conservation
upgrade
That
shot
Dispute
gn@@
typically
immunization
177
Christian
Higher
cam@@
SO
Moroccan
fuels
tou@@
49@@
Em@@
removing
interview
seller
Ukrainian
IDPs
hardship
PARTIES
syn@@
investigators
Goods
correction
Na@@
17.@@
ined
Principal
carries
kers
apo@@
nomination
agendas
requisite
rers
GS
compiled
successive
assi@@
ED@@
farming
14,@@
vit@@
Provide
3.5
4.5
translate
cancer
Counsel
Home
tendency
rations
MENTS
multilateralism
Freedoms
Mexican
reaction
failing
preferential
RES@@
restraint
Judiciary
Ge@@
revi@@
passage
orial
We@@
facilitates
undertakings
gather
multinational
ght
Bal@@
241
ase
preamble
inheritance
cre@@
avoided
rein@@
deny
Contr@@
equi@@
Catholic
installed
complementarity
fel@@
lying
hereinafter
MA
there@@
gravity
huge
fers
Ethiopian
243
15,@@
fic@@
Cons@@
hygiene
vacant
Exploitation
perception
Bhutan
wel@@
flagrant
thly
flying
CRIC
arian
ner@@
saving
CHAIRPERSON
IC
allegation
deciding
Up@@
OD@@
petition
SADC
impeded
aj@@
successor
unded
CST
U.S.
archives
Verde
parliaments
233
MEETING
paramount
commonly
191
EN
Socialist
short@@
centr@@
Umoja
eline
admissible
everything
ious
ig@@
solved
incentive
confined
controlling
occurs
inappropriate
intermedi@@
readily
GE
ada
ok
iv
newspapers
Caledonia
Informal
Take
recosting
ron@@
pic@@
gone
tim@@
ees
Views
creates
FROM
somewhat
continental
ath
Uni@@
visibility
190
handled
geo@@
taught
Indonesian
variance
profits
Abu
accelerating
millennium
UNDOF
reads
remittances
bromide
criminals
endorse
announcement
mineral
compl@@
experiencing
modest
calculation
AP
ca
AB@@
origin@@
High@@
44@@
commented
sequ@@
perpetu@@
chairs
voters
routes
activists
Compensation
escalation
executing
187
suf@@
civilizations
pos@@
Scheme
unlikely
confrontation
super@@
argues
crop
coexistence
oned
predecessor
printed
aftermath
instruc@@
eness
240
bel@@
finalization
platforms
Ter@@
203
MIS@@
procuring
oted
blockade
16.@@
una
signatory
overcrowding
206
esting
cau@@
upper
succeeded
lifting
Plurinational
.3
mapping
194
rests
Embassy
imported
personality
acquiring
interrelated
norm@@
Subsidiary
appointing
occurrence
condemn
scenario
ental
consulting
Sy@@
semi
chairpersons
Question
Press
If
tot@@
Abyei
govern@@
CCW
abilities
186
devote
GO@@
extremist
Meetings
SR@@
Bas@@
cast
narrow
consisted
intervene
advocated
oversee
cohesion
identifies
CP
ories
deposited
Procedures
streamline
administrations
deposits
succeed
198
Mer@@
suspend
fresh
mentally
devastating
gases
expects
long@@
depl@@
4.3
interpreters
Afro
ining
CB
seizure
verified
terminated
Guiding
aggravated
56@@
microfinance
native
Stat@@
16,@@
conscious
studying
checks
Intelligence
sold
empl@@
chance
preci@@
Provisional
AU
Media
REPORTS
Substances
184
205
sible
doctrine
hol@@
statutes
pul@@
linkage
rebel
ians
Stockpiling
Equatorial
Virgin
passing
with@@
guards
taxation
pon@@
directions
IFAD
17,@@
norm
neighbour@@
coun@@
NO@@
arities
José
fallen
dead
Friends
ut@@
ury
substitu@@
defendants
tens
eu@@
199@@
lie
broken
ains
grades
resi@@
St.
transl@@
176
arose
Sur@@
defer
attach
222
Intolerance
seizures
aggregate
detect
BU@@
è@@
attempting
lending
remainder
ceased
imprisoned
OR
demonstrates
CD@@
determines
Zaire
178
Ageing
Promote
ley
broaden
AF@@
ft
speedy
PV.@@
59@@
CE
boundary
spiritual
usual
concentrate
aded
formerly
ICSC
sy@@
undoubtedly
multidisciplinary
versions
progressively
regrettable
mobilized
infrastructures
abi@@
sample
188
CRP.@@
accuracy
IES
hampered
215
ao
usefulness
Bur@@
1963
fre@@
enact
hi
val@@
meantime
upheld
cru@@
clauses
delete
Disability
Light
entails
counsel@@
veto
arti@@
derog@@
graduate
aire
Taiwan
director
Adolescents
prevail
refin@@
AN
backlog
tal
satellites
less@@
modification
phenomena
Ser@@
celebr@@
accessing
inflicted
negatively
aqu@@
vendors
SO@@
orbit
legislature
something
230
Protec@@
owner
module
competencies
ide@@
visitors
ids
vol
extremism
cooperated
toward
seriousness
named
scene
vo@@
licences
cal@@
openness
Mater@@
cli@@
OL@@
IA
BiH
stereotyp@@
exacerbated
King
Hu@@
educate
crimin@@
deci@@
s.@@
209
pandemic
notable
pressures
foregoing
und
ores
automatic
202
steadily
fairness
Eritrean
selective
attaining
route
obstruc@@
Aliens
innovations
arranged
Whole
adi
1969
varying
ested
guardianship
lacked
supplementing
geared
outlines
car
answers
constituting
Inspector
terror
elementary
Arabs
literature
capture
UNAMA
auditors
uranium
commissioned
Cur@@
panellists
guardians
istic
briefly
INSTRAW
feeding
renovation
ade@@
Organic
estate
earthquake
factual
207
indiscriminate
dumping
accomplishment
ira
lose
sensing
unde@@
kets
UK
summer
vessel
inserted
rapporteur
cleansing
researchers
wid@@
thing
pain@@
Objec@@
Approach
evacuation
Private
sibility
Accord
merit
foremost
IONS
passport
quotas
corrected
cycles
sign@@
D.@@
Sami
suppression
Gar@@
Don@@
lic@@
parti@@
wa
collec@@
Austrian
ented
Cas@@
undermining
propaganda
disproportionate
Be
really
ric@@
nutritional
30,000
policing
Missions
217
plight
afternoon
restored
va
circulate
any@@
Credentials
scholarships
destroy
audio
sick
waiting
anticip@@
earned
illustr@@
Bali
Polish
traffickers
accompanying
multisectoral
Ay@@
exploited
abused
225
roll
Progress
MT@@
criminalization
NP@@
uring
overwhelming
Blue
216
254
ib@@
Chi@@
driving
221
1,500
vac@@
Facilit@@
replic@@
doubts
divide
carrier
fails
Ur@@
ate@@
investing
stockpiles
ligh@@
van
1948
banning
236
eless
recover
favoured
diligence
Directive
MAR@@
undue
260
wars
recruit
websites
COP.@@
coast
psychosocial
193
Comoros
regul@@
179
farm
MONUSCO
DI
tailored
livestock
gold
Cl@@
protest
invested
UNOMIG
Ju@@
Kivu
abolish
ulation
govern
fashion
mitigating
turing
complicated
sight
illustrated
SH@@
magistrates
regulates
modifications
Ou@@
Controller
Line
clusters
ense
detrimental
MDG
ges
chi@@
armaments
contracted
usage
OS
dynamics
handle
restoring
indications
warranted
ole
func@@
Equ@@
alongside
read@@
tial
cop@@
228
white
militias
1325
demanded
dra@@
Solomon
Offices
urging
refoulement
aces
Recovery
gan@@
orship
assign@@
groupings
alarming
select
Mines
Belgrade
block
wa@@
escape
notifications
ignored
packages
ranking
Micronesia
pledge
Dutch
19,@@
CL@@
Ste@@
coupled
Kabul
degrees
assuming
thirdly
10th
Any
terminology
participates
vol@@
presumption
hou@@
county
guard
Competition
ATIONS
conciliation
extraterritorial
18,@@
HC@@
agers
hazard
oys
350
altern@@
necessit@@
person@@
protracted
modify
appropriated
beaten
oy@@
conc@@
CS
seventy
coalition
Prince
thoroughly
á@@
196
unequal
forming
physically
195
bol@@
agu@@
currencies
risen
river
deputy
parity
Disabled
Twenty
overarching
Marino
exhibi@@
anda
mountain
5.2
successes
Recommendation
character@@
ship@@
OP
ino
0.7
Procurator
conform
ens@@
hate
hit
1.6
197
eous
Brindisi
Chargé
compensate
&apos;affaires
provoc@@
recycling
Increase
saying
Tokyo
footing
arity
Compact
unfair
repairs
unclear
adjudic@@
fruitful
accepting
deforestation
Os@@
arrive
Srpska
remnants
contaminated
Inquiry
enacting
Ber@@
aun@@
fines
rationale
ame@@
employ
cul@@
unchanged
raw
Cu@@
exact
M.
card
accumulation
Trustees
culmin@@
leisure
sustaining
Antigua
Judges
Compliance
utilizing
impeding
Swaziland
complainants
vulnerabilities
supplier
domain
determin@@
bus
IPCC
personally
insi@@
232
dies
Do@@
interrog@@
permanently
comm@@
Por@@
266
maps
Sup@@
PE@@
Memorandum
pel@@
nationalities
utility
sustainment
OAS
instrumental
hin@@
reject
War@@
visas
initiation
ams
Enhanced
drive
fron@@
synergy
advocates
explo@@
Reporting
plant@@
planet
Executives
296
financially
bulk
circl@@
consecutive
insofar
set@@
Er@@
differentiated
my@@
joining
CM@@
activ@@
protects
Ozone
sees
Investigations
ug@@
extends
optimal
enh@@
high@@
distinc@@
redeployed
indictment
5.1
Landlocked
gaining
Falkland
20.@@
68@@
204
Life
reclassification
Rico
Arusha
moder@@
tile
shocks
tended
dif@@
lot
misuse
bills
affiliated
newspaper
ami
Ku@@
XIII
ain@@
WG.@@
Kh@@
memory
Bra@@
adjust
rit@@
manager
liber@@
small@@
UNV
Super@@
kidnapping
Vincent
uc@@
delegate
marks
DEVELOPMENT
nation@@
founding
enforcing
TR@@
adj@@
ano
Company
269
stic
ord@@
Mag@@
struc@@
manuals
Khartoum
star@@
bloc@@
reliability
deadlines
tac@@
DA@@
2.6
CF
dy
ser
bri@@
conditional
contravention
paramilitary
promising
promise
routine
clashes
interpretative
oblig@@
dramatic
FARDC
actuarial
sentencing
stric@@
condemnation
alike
Registration
shape
shi@@
ung
This
sensitization
spectrum
assignments
friends
tom@@
retro@@
253
Ne@@
20,@@
abducted
SECURITY
Auditor
ICEF
ass
contamination
incomplete
solici@@
TH
edly
resid@@
obviously
EM
Correc@@
Beirut
ques
exporting
vian
stake
cannabis
ware@@
countermeasures
23.@@
commission@@
Empowerment
IO@@
elaborating
Ethnic
purchasing
Narcotics
sexes
pursuance
specially
accrued
258
Xenophobia
blo@@
calcul@@
yield
unlike
inspec@@
president
ef
John
minimal
les@@
cumulative
EX@@
inviting
There
enc@@
Sarajevo
Marshall
Bri@@
Ram@@
nets
analy@@
adopts
eh
Moun@@
won
offensive
IT
ils
Effective
deteriorating
esti@@
eventual
lic
Chernobyl
avi@@
mal@@
publicity
ran
Market
mic
portal
constructed
path@@
FA
Republika
VER@@
arises
patri@@
predictability
aps
21.@@
Traffic
justi@@
sco@@
conf@@
residual
runs
progres@@
spring
frustr@@
emanating
yan
Religious
ony
Bah@@
La
annotations
lengthy
Karabakh
influenced
lift
disposition
detected
announcements
procur@@
CONVENTION
confiscated
Fifty
ishment
500,000
687
Front
presently
discriminated
UL@@
ministry
pregnancies
four@@
Kyrgyz
feder@@
yl
ton@@
evictions
recommending
reforming
provider
3.4
tionally
remedial
interviewed
IP
Ver@@
suspicion
artillery
Malvinas
ual
46@@
concentrations
prioritize
Dem@@
Develop
educated
pleasure
recruiting
sor@@
exit
adviser
criticism
Green
actor
UNAMSIL
legacy
rain
Federated
neg@@
TCDC
summaries
book@@
cri@@
ames
Nos.
arsenals
ena
intentional
dered
24.@@
dead@@
ow
Campaign
Enterprise
Barbuda
black
compile
expeditious
valid@@
Mob@@
Contracts
arg@@
penitentiary
ér@@
Op@@
Observ@@
Sales
foot@@
measurable
injec@@
lia
suit
lers
Sen@@
Cypriots
breastfeeding
observes
imbalances
During
stand@@
prof@@
happened
adjournment
ordnance
sharp
Defense
opium
unconditional
twelve
laboratories
ris@@
whatsoever
4.4
ox@@
inci@@
remarkable
asserted
viability
Lucia
undertakes
weigh@@
DR
Hospital
tasked
Understanding
rational
signatures
spoken
dialogues
AWG
depended
Oceans
synthesis
alisation
petroleum
reveal
electrical
Pol@@
Abkhazia
ani@@
338
tun@@
acqu@@
Road
verifiable
peacekeepers
sum@@
pe
profiles
Electronic
escal@@
aug@@
conce@@
voter
therapy
termin@@
constituent
5.3
ful@@
sively
alised
unt@@
codification
chains
UNMEE
emotional
generous
persist
recovered
ranks
demonstrating
Bak@@
scenarios
XX@@
desk
reorganization
occasi@@
iness
Summary
CO2
Rapporteurs
234
replacing
artistic
Olympic
ard@@
generic
empowering
fit@@
Liber@@
reat@@
223
importing
8,000
differential
tertiary
confirms
ee
Produc@@
instructed
rooted
ash
238
GHG
occupations
sym@@
hiring
Estonian
barrier
PB@@
duplic@@
med
raises
yle
purely
INTERNATIONAL
drivers
deliber@@
tragedy
Lan@@
assists
criminalize
concurr@@
dependency
lor@@
ety
Kimberley
Effects
rarely
scrutiny
hostage
precursors
264
ome
200,000
narcotics
fullest
invo@@
247
vigil@@
ures
276
SW@@
images
54@@
Adop@@
interdependent
Associations
Tim@@
vent
younger
distribute
Improved
underlining
impediments
hid@@
Inclu@@
abortions
Algerian
MS
249
devi@@
Mohamed
lion
count
verbatim
ica
phere
5.5
worship
Fisheries
simplified
diver@@
embarked
Trusteeship
C.12
Offences
Mad@@
commits
UNAMI
exacerb@@
Timorese
costly
unsustainable
psychotropic
pas@@
initiating
ire
Commissions
harmonizing
overlap
231
banned
UNMIT
tru@@
detec@@
cuts
Kinshasa
2,500
prosecuting
stopped
imper@@
ICCPR
B.@@
magaz@@
connec@@
S.@@
morbidity
not@@
expensive
rigorous
Her@@
Art.
delegated
schedules
kit
Laws
252
Min@@
erosion
politici@@
246
plur@@
expressions
Grenadines
yers
encompass
HS
Def@@
specifies
labor
CI
Policies
sla@@
exhaustive
fol@@
Sciences
6.5
Crescent
purchased
L.2
class@@
za
organised
liberation
tanks
rehabilit@@
RES
deems
Ken@@
commemoration
arized
rank
Almaty
ounce
Refer@@
Kashmir
244
UPR
ARTICLE
importantly
Fin@@
Major
DE
na@@
permitting
precarious
Tuvalu
SR
Certi@@
acc@@
224
tentative
mit
transferring
sensitivity
wives
laun@@
cian
ESA
attainable
volatile
akes
Oslo
centralized
Direc@@
evidenced
PL@@
ey
dist@@
yp@@
feed
sanction
bottom
ership
Application
Mac@@
disclose
habit@@
steering
Glob@@
Bar
1.7
precedence
219
red@@
breaking
lectures
rog@@
error
bs
insul@@
Sports
1966
theft
cel@@
pretext
quest
AC.105
awa@@
capit@@
Finnish
vendor
euros
ini@@
receivables
broch@@
volunteer
67@@
intermediate
Dec.@@
berg
depar@@
optimi@@
archi@@
ć
vic@@
interface
ground@@
Sol@@
Economy
consultancy
Cartagena
Entity
reparations
22.@@
ature
fled
MI
Under@@
reco@@
265
Annan
Mil@@
Vanuatu
jo@@
film
atrocities
advertising
situated
robbery
Two
subjec@@
Boards
subparagraphs
AM
yearly
migr@@
clearer
bar
WG@@
ems
hinder
II@@
players
15,000
timber
eli@@
travelling
ney
B.
samples
oting
kits
insert
ree
ax@@
infectious
whereabouts
ial
2.7
lifest@@
confer@@
Ak@@
ja
allot@@
blocks
undergoing
69@@
affiliation
insured
scre@@
EP
station@@
Jean
Continue
DP@@
symbol
ouring
charter
Nordic
Equalization
mit@@
defamation
confronted
ove@@
colon@@
Prepar@@
accru@@
intr@@
ti
electric
approving
reside
Kam@@
converted
bi
mix@@
ene
alu@@
lays
gl@@
fer
triennial
getting
anything
precedent
differ
Confederation
Pact
conducts
cyber@@
dominant
ader
Jud@@
smo@@
multilingu@@
UNMISS
affirming
li
debts
Seychelles
sation
ener@@
bo
boost
stance
sanitary
fortieth
discovered
regrettably
diamond
jeopardi@@
fluctuations
Paper
ich@@
Can@@
Belgian
Offenders
posing
1.8
Add.4
ague
taining
skill
&apos;a
BO@@
devise
affirm
Reg@@
medic@@
mode
closures
ón
academia
appearance
brother
ides
authorizes
decreasing
Commitment
overtime
convers@@
concessions
competen@@
tremendous
circum@@
Chan@@
sen
Autonomous
disorders
Over@@
Ha
53@@
multidimensional
Watch
unliquidated
organisation
forcibly
accessed
tongue
denomin@@
IV@@
May@@
column
Ir@@
selling
migratory
imbalance
accumulated
grew
Amer@@
crip@@
presumed
Amnesty
Organizational
streets
atri@@
Kofi
repression
estim@@
commanders
stream
confront
Advoc@@
Strengthen
bling
compelled
lap@@
Han@@
UNDG
The@@
accommodated
im
7,000
lateral
credited
floods
midterm
Discipl@@
extensively
Cir@@
ero@@
noteworthy
recreational
evolved
7.5
1968
a.i.
Israelis
guar@@
catch
sional
XIV
locate
childbirth
judg@@
RB@@
Buenos
Risk
comprehensively
ACABQ
disproportionately
quarters
ition
PR
apped
Aires
cycl@@
dismant@@
Seabed
united
clu@@
cornerstone
Sk@@
imp@@
demanding
gre@@
adds
HRI
healthcare
tripartite
Tor@@
ceremony
bus@@
standardization
litem
ken
trou@@
suspicious
terminate
Money
repercussions
reli@@
255
RU@@
distinguish
SECRETARY
underline
35@@
las
Dakar
persu@@
Kur@@
scarce
administer
Coun@@
documentary
Fu@@
mal
Janeiro
Spe@@
ab
extradite
Ottawa
ody
acti@@
prop@@
tsunami
sell
ster@@
conveyed
Its
Cambodian
Income
wal@@
attracting
interfere
convergence
Pal@@
40,000
bon
lacks
strikes
captured
siveness
door
differenti@@
corrective
sciences
shortfall
Consideration
shells
allocating
Appointment
Applications
77@@
commerci@@
essence
dedication
phone
facilitator
Brunei
olutionary
solar
restricting
approached
Forest
desi@@
agr@@
indic@@
tionality
RA
aboli@@
edition
Citizenship
complying
ensuing
thirtieth
implic@@
lear@@
relied
pollutants
UNT@@
MISSION
DATED
arisen
disturbing
kinder@@
LDC
bulletin
ices
AU@@
device
big
rounds
defec@@
Cro@@
SD
pain
homeless
undergo
Contact
Overseas
245
freezing
questioning
reconsider
239
Directors
ceiling
Accra
revolution
tank
Sahel
spaces
Sport
28.@@
adjacent
WORK
tings
disregard
yesterday
deli@@
finalizing
hectares
violates
consequent
275
dominated
TRA@@
centers
cler@@
fic
Pat@@
LRA
shipments
tural
Sheikh
289
assistant
accurately
ori
compound
Provisions
machine
infants
contraceptive
worse
neutrality
Agencies
š@@
Nu@@
handbook
rationalization
283
qualify
curb
publici@@
crow@@
promulgation
deliberately
lit@@
invoke
mas@@
itable
aced
grati@@
pack@@
thers
six@@
cho@@
imminent
obstetric
SAT
bon@@
eration
Maori
incommunicado
rev@@
void
wrong@@
checkpoints
interrup@@
faster
scaling
certi@@
Black
absolutely
peri@@
emerge
generators
CPC
rest@@
collaborating
therhood
surpri@@
journ@@
ideal
assem@@
backgrounds
L.
protests
Reintegration
correctly
assaul@@
upbringing
accepts
demarcation
advocating
enforceable
conscientious
icans
Providing
metal
materi@@
Exercise
Provision
Pan@@
worthy
break@@
27,@@
Cent@@
ater
orderly
ba@@
clarifying
confronting
bled
originating
Ny@@
Pet@@
inning
veget@@
DEC@@
Prisoners
intra
NA
ambass@@
Disappearance
conveni@@
compliments
Jordanian
operation@@
asive
ries
Maintenance
preschool
geogr@@
Reserve
ologists
cocaine
Language
premi@@
believing
Malaria
fathers
yes
prob@@
Impact
anis@@
272
Hungarian
Hon@@
Wel@@
ID
declares
261
fleet
bid@@
ni
hum@@
placements
supporters
6.2
Sanctions
6.3
volunte@@
ction
Departments
fran@@
superior
D.C.
congratulations
Truth
tations
clubs
streamlined
benchmark
stemming
elessness
dissolution
volatility
ey@@
§
305
TC
nic@@
Vo@@
reprisals
refuge
win@@
upholding
expedi@@
Magistr@@
competing
repeal
adors
escorted
DS
practised
diagnosis
perceptions
margin
lization
esc@@
preferences
Sar@@
tracing
amed
Pres@@
self@@
mercenary
ODS
modality
Guard
timeliness
triangular
TIVE
ols
deceased
resolu@@
vice
Fish
aggravating
asking
arbitrarily
rocket
shortages
Mc@@
circumstance
itely
clarifications
cancelled
Fr@@
azi
bot@@
bilingual
envisages
Az@@
exploit
bid
fighters
familiar
256
bodily
atics
congres@@
hel@@
ortium
ratios
gun@@
follow@@
229
reimbur@@
Construction
continu@@
depositary
top@@
solitary
alists
objectivity
450
bombs
pend@@
Punish
ineffective
scales
multicultural
compens@@
outbreak
aya
akh@@
xes
ODP
DO@@
ites
wave
conferred
burdens
&apos;aretz
hear@@
deserved
totalled
effected
compliant
ICAO
Gi@@
Requ@@
excellence
Cel@@
peacefully
enjoys
securities
culturally
decrees
supervise
Grenada
XVII
Grand
ser@@
pollu@@
definitive
precautionary
correspond
repatriated
mechan@@
ardi@@
repeat
ased
transform
observing
Ki@@
magistrate
hun@@
institutionalized
munition
ac
iz
LD@@
Frente
chron@@
cast@@
subnational
employing
SUBMITTED
engine@@
interven@@
recti@@
Stocks
factions
broadening
Series
Tonga
evacu@@
demilit@@
irreversible
widest
removals
wake
annum
6.1
questionnaires
ater@@
Extension
EST@@
262
reputation
Commissioners
prospective
Adaptation
Sim@@
destructive
xed
vaccination
Crisis
Palau
graduation
di
animal
Cal@@
struck
symposium
ET@@
28,@@
expectation
rebuilding
RECORD
reconci@@
retaining
abandonment
Laundering
bureau
stat@@
Drought
implied
cid@@
rescue
trav@@
When
du
Elections
Cha@@
surge
SubCommission
Lusaka
BL@@
woun@@
found@@
declaring
contributor
Intellectual
CER@@
politicians
ME
albeit
Conclu@@
theory
irs
tle
FMCT
2.8
ENCE
auditing
Tenth
oto@@
tured
condemning
2.45
Slavery
ora
Time
Main@@
filling
audience
Abidjan
intentions
Engineering
corpus
avail
combine
ami@@
immun@@
Supply
infringement
align@@
revo@@
colonialism
promotional
ich
may@@
tieth
chart
flag@@
enrichment
Dj@@
olution
herself
plas@@
principally
Out@@
safer
Command
Populations
ep
Governors
sy
comb@@
Es@@
prompted
alty
Strategies
separ@@
win
LD
Areas
subsidi@@
adapting
che
Ca@@
interactions
elo@@
unresolved
colleges
projec@@
Transit
tiz@@
catastrop@@
variations
lifted
practicable
varies
IPU
strengths
LOS
spend
259
Concer@@
describing
22,@@
silence
je
Thir@@
aerial
deserve
263
21,@@
Reconstruction
Ombudsperson
subsidy
confessions
By
teenage
apprehen@@
S.
257
accomplish
donations
gh
irrigation
couples
know@@
lor
compounded
fri@@
Vic@@
Regular
Ph@@
foreigner
26.@@
dam
compu@@
Fight
af
PN@@
WMO
humili@@
staffed
Covenants
stries
exi@@
contested
deduc@@
ez
1267
slum
interpretations
simultaneous
Darussalam
23,@@
sto@@
tices
dom@@
eing
Euro
alling
utilities
disciplines
surrender
oes
umbrella
292
prospect
prev@@
lesser
exported
celebration
prerog@@
Air@@
invitations
tering
TV
horizontal
toler@@
cleared
pays
conver@@
expiration
Schools
Reper@@
implici@@
ASSEMBLY
Technological
interrupted
mir
Greenland
uneven
furthering
aux
Andean
Guatemalan
JS@@
60,000
és
confession
AR
tran@@
Tajik
Irish
orphan@@
mise
vicinity
intense
prevalent
titles
firm@@
detriment
Documents
Appro@@
defending
deported
Such
ye
caring
specifici@@
tariffs
craft
supervised
directive
stories
subsection
behavi@@
lock
likelihood
jeopardize
nom@@
minute
I.
Establish
Partnerships
meth@@
288
compli@@
deputies
tening
articulated
Pre
ITU
exceeds
285
opposite
multipli@@
provo@@
dom
Hazardous
widening
xenophobic
amphetamine
rail@@
alled
neglected
encompasses
alls
economics
biotechnology
Turks
Bermuda
Christi@@
societal
3.6
ock
Total
sufficiency
configuration
graduates
1,200
chair@@
affor@@
microcredit
absent
cleaning
essors
inflic@@
RI
Advice
match
notic@@
confusion
inqui@@
Exchange
educators
competi@@
disadvantage
ily
1958
UNLB
stipul@@
naval
dramatically
volumes
284
intensity
1964
incorporates
alistic
Southeast
revising
season
pay@@
pharmaceutical
econom@@
pers
instig@@
secret@@
problematic
perfec@@
footnote
lob@@
1970s
selecting
Saf@@
replying
Assistants
furn@@
adverti@@
25.@@
K.
ICPD
atized
Cities
280
peak
Multi@@
marry
preclude
jure
omission
automation
ero
CCF
travelled
indefinite
FCs
suited
well@@
vals
redouble
laying
absor@@
corri@@
compounds
persist@@
XVI
rup@@
implements
involuntary
manufactured
bad
adap@@
peninsula
understands
NATION
proud
FM@@
Ahmed
sophisticated
urs
rowing
dismantling
Classification
cleaner
ö@@
fruit
nings
unanimous
anthropogenic
bly
endanger
revit@@
seize
osp@@
brid
Transparency
ü@@
vering
exempt
Peruvian
tropical
brackets
administr@@
rot@@
gradu@@
commending
sical
Age
exer@@
Ger@@
Claims
humane
collabor@@
Labor
preferable
deter
Drafting
lend
certainty
Settlement
pronounced
jec@@
Nauru
pled
maturity
accusations
viol@@
peacemaking
pluralism
ik@@
petitions
lah
Posi@@
ult
bal@@
reproduction
wrong
Decisions
EL
noble
Santiago
sheets
enced
URE
guides
INF@@
425
ideals
institutionalization
validation
stabiliz@@
outlining
ace@@
fiable
penetr@@
0.5
pp.
Mah@@
tail@@
REL@@
metric
asy@@
rati@@
unforeseen
4.6
OB@@
365
governorates
ous@@
án
containers
sch@@
alliances
Point
Suppress
Intern@@
290
virus
inspired
facilitators
21st
encompassing
Ash@@
templ@@
technically
2.30
don
bail
lo
abstain@@
happen
posi@@
holidays
nursing
firstly
failures
summari@@
hereby
rough
rig@@
Wit@@
dow@@
industrialization
Quartet
posters
deepening
foreseeable
Nor@@
nu@@
assistants
UNIDIR
gent
incremental
box
occupy
practi@@
FPA
denying
Hamas
subsidized
constructively
Ef@@
Val@@
errors
presiding
unexploded
bargaining
ici@@
tiveness
ised
UNA@@
acknowledgement
passengers
country@@
chan@@
doubled
efs
mil@@
refurb@@
11th
Ama@@
appreci@@
ored
landing
Non@@
searches
care@@
quadrennial
CU@@
Nation
GC
answered
agro
inaugur@@
insur@@
ist@@
symbols
institution@@
web@@
Councils
80@@
White
acclamation
Resolutions
29,@@
leverage
recreation
MERCOSUR
abduc@@
disparity
milestone
SAR
Tra@@
specifications
BR@@
tened
moderate
inevitably
Philippine
commendable
irregularities
Funds
reformed
286
shelf
abo@@
supposed
erving
12th
Corpor@@
Wil@@
privileged
Migrants
pione@@
preceded
circular
gri@@
deepen
compelling
harmonious
airports
farms
prime
unfortunate
withdrew
ICCD
pour
CRP.1
dose
GN@@
Somal@@
diplomats
conceived
motivation
aquifer
petitioner
authorizing
Tehran
Based
expiry
ising
punitive
fragmentation
Romanian
SESSION
Il@@
gratis
uk@@
enquired
broadcasts
ratifications
L.3
Prisons
Men
tied
spatial
25,000
holdings
00,000
happy
UD@@
caregi@@
Hebron
CF@@
frames
mix
Weapon
rous
exporters
News
stam@@
injustice
clandestine
Institutional
NAP
criminalized
Arbitrary
tary
ence@@
bonds
alizes
pragmatic
agreeing
particul@@
Future
zes
slave
locked
rid
9,000
XL@@
aggressive
EE@@
squ@@
ota
pressed
ion@@
Observation
francs
efficiencies
explosions
chambers
Good
267
deline@@
payroll
WIPO
aka
MOP
Abuja
ority
cin@@
Oper@@
backs
prevents
Guarante@@
Delhi
arriving
predominantly
vir@@
Cam@@
confirming
mem@@
rightly
explains
impression
deliveries
registers
a.@@
304
287
presum@@
churches
....
reconcile
MINURCAT
transi@@
metals
discrepancies
FD@@
Hol@@
Wales
exchanged
Provincial
orm@@
explaining
DPRK
honoured
impediment
Ra@@
pieces
vertical
ITEM
detentions
hired
dispatch
academics
Lead@@
jurisdictional
exert
sav@@
gered
CTC
caution
Ha@@
Documentation
bian
Continental
modes
underscores
manifest
ven
part@@
INTERPOL
teri@@
tax@@
DD@@
constrained
die
disruption
privately
harsh
Yearbook
settling
rendering
Rati@@
rebels
Altern@@
281
1514
Transboundary
ean
Cluster
Unions
repetition
Disappearances
forecast
wo@@
rare
Occup@@
news@@
GH@@
FOR@@
nurses
finances
disputed
offshore
24,@@
freshwater
attend@@
hardly
Treasury
driver
materiel
reinforcement
domination
fec@@
explosion
MD@@
discontinued
suggesting
invaluable
shorter
inflows
delimitation
Especially
juridical
deletion
po
ign@@
entailed
minerals
corporation
slight
ura
collapse
basically
modern@@
inv@@
1965
transformed
prioritized
by@@
LAC
professions
deal@@
opposing
reat
Atlas
Add.5
reclassi@@
Heritage
tories
NU@@
passports
AGENDA
naturally
imposes
Kor@@
Physical
classifications
bomb
entirety
acies
corrupt
Gal@@
On@@
happen@@
domin@@
inary
heroin
EU@@
reconven@@
connections
UNI@@
Inalienable
ached
transported
capitals
Respect
mag@@
bureaucr@@
Str@@
lec@@
exhaustion
stag@@
Observatory
sheet
Twelfth
venture
43@@
kes@@
globe
narrative
enriched
cur
ez@@
KP
Vietnamese
friendship
Referendum
Early
collaborated
subordinate
tled
tivity
ces@@
Cayman
ine@@
Kigali
Symposium
band
quar@@
dé@@
preferably
XX
expired
1,5@@
diction
heightened
advising
acing
CM
Consolidated
Dag
Identification
dor@@
4.8
PU@@
underscore
dras@@
Coordin@@
Volunteer
purview
TE
Authorities
defin@@
ó@@
Del@@
habeas
stigma
jury
occup@@
historically
Marriage
perpetr@@
coal
coup
signal
FS
25,@@
PRE@@
prescribes
commu@@
regionally
268
threatens
assemblies
Diplomatic
279
Supplementary
organiz@@
devised
manipul@@
Evidence
synthe@@
everywhere
spreading
cement
adic
ff
What
breaks
sers
inviolability
66@@
else
Associate
idable
316
Sat@@
striving
popul@@
Thai
ANT
XXI
stringent
frozen
anian
promises
Collabor@@
mediate
announce
customers
Ta@@
respec@@
talk
ows
peas@@
deficiency
lev@@
1950
buffer
iron
ga@@
Rican
Census
matrix
numer@@
367
undergone
Abkhaz
anc@@
fold
constituencies
steri@@
ups
uncertainties
congratulated
differing
obsolete
iting
stolen
Ms
promised
connectivity
bir@@
GNP
bin@@
strugg@@
surg@@
suppress
dal
breast
int
warrants
Hammarskjöld
acqui@@
resour@@
indebted
Montserrat
impaired
Master
incarcer@@
otic
sponsorship
dental
sake
discourage
rub@@
ficiency
litigation
eighty
encumbered
los
leaves
neighbourhood
massacres
Constitu@@
voices
277
Inspectorate
ideological
scan@@
eries
4.7
preconditions
Bou@@
PAs
Goma
trauma
ray
undocumented
ayan
ENT@@
eco
liz@@
righ@@
ender
choosing
contraven@@
pli@@
bin
seas@@
7.3
main@@
senti@@
sedi@@
guilt
rulings
Wi@@
alp@@
Chech@@
spokes@@
train@@
compensable
battalion
Naqurah
Faculty
cludes
Arctic
90@@
deserves
depend@@
protections
vig@@
hindered
fam@@
recurrence
aks
formats
antiretroviral
etary
motions
300,000
commander
criminality
observ@@
eminent
á
Hou@@
natal
Asylum
grantor
provisionally
reason@@
phen@@
ert
Nationality
1.9
civilization
unequivocal
uncertain
Tunis
nes@@
punishments
26,@@
invalid@@
ren
Case
8.5
PI@@
Mari@@
administrators
ration@@
Consultation
Tur@@
cer@@
siz@@
domes@@
concep@@
bias
proportionality
Satellite
assertion
5.6
gravely
cell@@
practically
affili@@
Sah@@
multifaceted
premature
fa
retired
ales
Units
soft
750
Part@@
conserv@@
Schedul@@
°
pensionable
minister
CISG
asser@@
accords
Fa@@
awar@@
proximity
regi@@
arily
wrote
prohibitions
arena
catalytic
aker
withdrawing
treat@@
frank
CFC
awa
forg@@
ERP
classi@@
demobilized
beg@@
ousness
Includes
Bulgarian
respondent
Pa@@
Stand@@
explanatory
2.9
lodge
simplification
populated
discour@@
execute
í@@
3.7
Eng@@
tourist
buy
č@@
Nation@@
ombudsman
hamper
Anguilla
assign
Gro@@
transform@@
deriving
urban@@
inspected
refusing
array
Medium
transmit@@
identi@@
TED
prejudices
Secretaries
key@@
contemplated
Delegation
concise
fil@@
ul
278
dismis@@
Television
import@@
arest
LES
hospitality
tability
calm
counts
273
ared
Amen@@
catalyst
underrepresented
14th
interpret
Eigh@@
DF
arri@@
theoretical
silent
deeper
sou@@
soldier
stream@@
arid
UNAMIR
kes
exc@@
liquidity
atures
supreme
sery
EG@@
prioritization
Crown
combining
Sao
devast@@
stone
boarding
stored
consum@@
295
Restrictions
30,@@
alert
customer
NH@@
Five
ballistic
teach
Sin@@
remedi@@
educating
log@@
alo@@
doz@@
que@@
ét@@
replenishment
display
dropout
statelessness
new@@
Brig@@
reposi@@
iles
Rest@@
tual
theatre
shoul@@
Minority
traum@@
nour@@
ads
supplements
zon@@
armoured
PERMANENT
restrain@@
dioxide
Airport
movable
Cla@@
lian
CSCE
cantons
contends
music
dec@@
rap@@
282
custom
299
begins
Cle@@
hospit@@
disadvantages
concurred
AD
Tal@@
rang@@
routinely
GA
virtual
incur@@
achiev@@
unilaterally
1,8@@
indivisible
thy
Proce@@
ić
accommod@@
Angolan
Pan
concession@@
aut
1946
someone
UNDER
Substantive
destabilizing
Tunisian
avo@@
ff@@
WC
pou@@
exchanging
inser@@
1945
investor
counties
Exploration
bureaux
escor@@
OTHER
ji
Improving
testi@@
permissible
CFCs
nee
sewage
petrol
ut
thrust
extensions
whe@@
Africans
discretionary
doc@@
pricing
deteriorated
ares
diffusion
16th
Mohammed
load
justifiable
Term
church
precondition
prefec@@
view@@
fertiliz@@
junior
injur@@
Cy@@
Challenges
intensification
induced
vigorously
stockpile
deploying
faith@@
tery
testify
Renew@@
minimizing
organisms
Paul
ema
flew
avenues
bears
signment
borrowing
repe@@
uti@@
reaches
destroying
pivotal
pir@@
Berlin
Instrument
couple
enter@@
video@@
Patri@@
illustrate
Soci@@
tigh@@
Caicos
Long
logy
distress
Continu@@
prevailed
duc@@
L.4
Gra@@
MSP
summ@@
wisdom
45@@
comfor@@
brut@@
ION
Ve@@
Fs
exactly
Vocational
WITH
1962
TNCs
scheduling
Psychotropic
5.4
reminder
temperature
IAL
1954
CN
Jews
sexuality
Kan@@
15th
articul@@
sacrific@@
27.@@
ployment
radical
kh@@
journalist
minimi@@
Revised
controversial
UNMO@@
alleges
Mental
TRI@@
nul@@
burg
cart@@
specifying
lubricants
meteor@@
inscribed
massacre
Baltic
restim@@
rebuild
professionalism
R.
responds
influx
274
protection@@
preserved
Dam@@
Nov@@
Damascus
fur@@
Ninth
UNOSOM
backed
condolences
whilst
wedlock
examines
Shelf
contraception
predomin@@
motiv@@
ignore
hostility
Firearms
severity
publicize
mism
13th
quo
attractive
liter@@
intentionally
stipulate
rice
Primary
litres
dering
persisted
xi@@
attracted
unding
bribery
Opinion
ku@@
rex@@
ase@@
ounced
ageous
strongest
interact
Den@@
tine
experimental
deep@@
eu
motor
purchases
interpreter
cing
55@@
thou@@
cultiv@@
XVIII
enlargement
impressive
logistic
alter
Towards
survi@@
fossil
intervals
Handbook
brutal
Bro@@
Algiers
Arrangements
courage
England
struction
chamber
GSP
Neighbouring
impro@@
Mutual
distribu@@
disco@@
SGB
Kir@@
favourably
Amman
revitalize
Officials
officio
shar@@
Performance
Camp
SAICM
Index
carriage
pesticides
identities
complications
Ensuring
hurric@@
solemn
seabed
Lord
UNSOA
warfare
euro
291
undermines
repres@@
SNA
photographs
warming
trips
window
CAS
While
avoidance
sol@@
Mas@@
refu@@
antly
invalid
formul@@
unrest
Host
Establi@@
Turk@@
Helena
prefer
reversed
1,7@@
homeland
dig@@
clinical
brokering
emigr@@
Childhood
SIDS
fugi@@
obligatory
ogical
Request
ratione
roughly
∙
XIX
constraint
ninety
deterr@@
ascertained
Observers
Assi@@
POPS
privilege
employ@@
inal
promin@@
animals
8.3
UNISPACE
BDE
concer@@
bombing
fellowship
assassination
desirability
CERs
derive
78@@
dre@@
shaping
advisable
biggest
Persistent
271
Responsibility
Transition
lege
Growth
Land@@
apart@@
sit
voiced
criminalizing
Consider
crew
Eleventh
Gener@@
handic@@
cataly@@
sud@@
sh
1955
hood
17th
punishing
counted
3.8
noon
earn
Hom@@
miles
KFOR
vigorous
64@@
imag@@
Tog@@
rown
hoods
expiring
18th
judged
stimulating
trip
unrestricted
radi@@
worsening
Municipal
kidn@@
1,6@@
7.2
operator
enumerated
sensitize
producer
bet@@
compensated
criticized
prosperous
Economics
shes
1701
ini
Introduction
authenti@@
SOCIAL
fears
seeds
milk
Learning
seeing
presid@@
aqui@@
asserts
CR
commencing
remin@@
LEG
unjust
comment@@
firing
complained
Pollutants
Institution
anal@@
proclamation
sing@@
extraction
cy@@
enlarg@@
diversified
HIPC
entrepreneurial
Travel@@
audiences
rockets
distributing
aggreg@@
ayed
forcing
passenger
Inte@@
innocence
backstopping
conform@@
Mos@@
tenant
DPI
unlawfully
Unlawful
universalization
endangered
kin@@
abstr@@
outsourcing
Majesty
abund@@
Preventive
err@@
diagno@@
yan@@
aids
20th
depreci@@
www.un@@
diagnostic
pool@@
ationally
aria
opti@@
aying
FC
safeguarded
crossed
fle@@
blind
prospec@@
profit@@
addiction
Concluding
lar@@
ules
chiefs
domici@@
contraceptives
relying
upgraded
democracies
ote
tender
FDLR
201@@
az
eved
oppose
Commodities
dep@@
pointing
Commun@@
anonym@@
attorney
registering
eviction
trainees
Bet@@
lethal
usting
warplanes
adoptions
Lat@@
youths
muse@@
ican
diminished
eve
met@@
victimization
hire
Deposi@@
origins
ICA
logging
Khan
adhered
1,9@@
aa
ranges
titude
dire
Nicosia
wit@@
builds
bienniums
reforestation
drawdown
L.7
asi
fered
ility
oth@@
Prosecu@@
Kal@@
damaging
RS
ida
ises
Infrastructure
quoted
Club
gation
compete
openly
unfounded
etc.
Employ@@
Telecommunication
asts
jour@@
360
typical
entrance
rejects
intimid@@
UNAVEM
alter@@
Wal@@
Societies
than@@
bans
mos@@
iding
dependants
belongs
overseeing
rating
demoli@@
advis@@
ok@@
corrigendum
mg
defe@@
Nigerian
fifteen
develops
techni@@
Pu@@
distur@@
recruits
chers
99@@
unci@@
PFOS
deficits
deployments
Interpol
7.1
tribes
Chairpersons
subregions
disbursement
302
Ds
ISU
poorly
forefront
stones
09@@
polling
unutilized
cle@@
marginal
Kiribati
proportional
ll
Lim@@
narrow@@
cher
anced
sanctioned
disposed
Khali@@
diversify
circul@@
vaccines
fire@@
GIS
endang@@
aer@@
Multi
REPRESENTA@@
selectivity
bal
potenti@@
unhindered
widows
rehabilitate
io
renov@@
differ@@
exceptionally
computerized
smugg@@
ben@@
stigmatization
contradiction
Lima
ained
troop-
understandings
ply
oul
Aruba
rafts
Au@@
incoming
reluctant
79@@
moves
thir@@
recession
Boli@@
indicted
Dar@@
EF@@
Collec@@
nonproliferation
19th
corresponds
rostrum
ials
treating
suit@@
MC
reveals
overlapping
scarcity
CESCR
concession
memorandums
pedag@@
Temporary
Fif@@
addic@@
Proposed
epidemi@@
poppy
brothers
prenatal
impasse
Equipment
Horn
endeav@@
sampl@@
Disengagement
ype
eye
pal@@
mist@@
summarizes
nes
Uzbek
dat@@
hope@@
Vision
cogniz@@
waiver
atmospheric
ose
discus@@
null
expires
precursor
ther
Investigate
CN.15
ral
puts
unsatisfactory
Cri@@
envisage
sizing
Explo@@
eighteen
annul@@
penditure
L.6
nomin@@
behavioural
330
illnesses
cant@@
investigator
DD
ponents
recognised
ISAF
fifty@@
V.
default
sorties
organizes
prone
cular
hen@@
associates
dh@@
alis@@
critici@@
ever@@
landscape
extradited
mac@@
priv@@
consuming
conflicting
probation
boat
Opening
301
addling
cum@@
allies
fai@@
recurring
morals
retaliation
ennial
Fol@@
maximizing
negotiable
Collective
carriers
Maj@@
298
emi@@
practise
IV.@@
AH@@
poli@@
proportionate
lici@@
discharging
Paulo
Caucasus
simplify
poly@@
outlook
treas@@
mies
standpoint
ECONOMIC
kill
lever@@
sin
L.8
mean@@
Geographical
AB
wholly
petitioners
alleviating
refined
Award
unsafe
Poor
87@@
dou@@
onian
wind
29.@@
curtail@@
accept@@
inhumane
elev@@
Prohibitions
abusive
III.@@
DES@@
POPs
divor@@
characteristic
phasing
disbursements
duction
polymetallic
vide@@
adoptive
303
sickness
lectu@@
labelling
expire
citing
sister
hur@@
sinks
percentages
Wor@@
Innov@@
onto
mined
cription
Ev@@
relies
publi@@
abandon
Paragraph
veness
arial
absorbed
Probl@@
graded
postpone
nominate
resignation
Biodiversity
them@@
Opportunity
invoices
tow@@
caught
ho
interior
paternity
Pos@@
warned
edit@@
Hi@@
NAM
L.5
PROGRAMME
expropri@@
enjoying
quali@@
000,000
appearing
tier
torial
saf@@
variables
extor@@
unreasonable
ICTs
celebrate
dispers@@
diverg@@
loride
Ah@@
finished
appro@@
shor@@
294
contr@@
gendarmerie
Antilles
genuinely
forfe@@
Facilitation
matic
ski
Ibid
shortfalls
raped
Juba
ICTY
revoc@@
additions
attachment
WOR@@
40,@@
assert
Projects
fellowships
intercountry
sic@@
contacted
oti@@
alleging
itude
depletion
nominal
bridging
Sha
absorb
evolve
Ali@@
LE
P.
Muse@@
mentoring
symposi@@
share@@
concentr@@
reminds
verifying
Da@@
losing
band@@
accoun@@
boy
continually
Have
Counsel@@
cab@@
Lis@@
entren@@
belonged
olds
enters
cia
CN.3
centuries
Mur@@
vo
poorer
illa
doub@@
310
wind@@
Hun@@
knew
question@@
equival@@
fishery
compiling
produces
perv@@
Implementing
Havana
earth
Those
radar
swit@@
ogr@@
consensual
293
SI
Orig@@
drome
320
secrecy
gency
authoritative
ards
sharply
e.@@
Ros@@
UNMOVIC
Tome
tar@@
bil@@
inet
deterrent
asy
12,000
mod@@
Guidance
Ugandan
Notes
mand@@
Micro@@
tely
Hassan
sun@@
Contribu@@
groundwater
ext
scholars
bomb@@
wat@@
forcible
Forestry
PM
defen@@
erup@@
Civilizations
atu@@
USA
ä@@
prescri@@
tec@@
ashed
aggress@@
Movements
verdict
therapeutic
retri@@
viewing
Wastes
repatri@@
stores
Burundian
dele@@
Extradition
naturalization
Tlatelolco
impa@@
297
cluding
KO
interlocutors
fellow
chose
itted
hemis@@
401
oms
improper
Effec@@
dispatched
6.7
discharged
everyday
autical
ORGANIZ@@
uma
leges
PER@@
Nacional
films
Acc@@
chances
wise
toxicity
POL@@
sac@@
Export
unjustified
deposi@@
oa
exempted
devising
MATTERS
Adv@@
3,500
Antarctic
pression
Legislation
..
ardo
oph@@
Fellowship
queries
weap@@
forbidden
L.9
DAC
Travel
cripts
inconsistencies
4.9
wait
sid@@
stor@@
6.6
but@@
Lab@@
Displaced
road@@
channelled
plaintiff
operationalization
hub
Nutrition
BER
mes
trad@@
censuses
bond
R.@@
gers
Länder
CHILD
brig@@
unusual
disbursed
ç@@
versus
Experiencing
supplying
landmark
enses
critically
mark@@
Principe
authoris@@
Pay@@
grand@@
unconstitutional
pha@@
ball
alliance
Hotel
inspir@@
levi@@
dressing
immense
fraudulent
cou@@
argu@@
crossings
Leg@@
mainstreamed
proscri@@
!
CH
Entebbe
conclu@@
Accoun@@
goodwill
toll
outgoing
trees
biased
iced
6.4
infringed
dwellers
optimize
MS@@
system@@
drafts
shifts
Cook
PIC
unds
Secondary
sugar
porters
unidentified
rez
prioritiz@@
BA
construed
approaching
Mat@@
IB@@
Preventing
commemorate
9.5
integr@@
TER@@
ell
OCHA
lump
Net@@
dispose
Comment
ECOSOC
arten
negligence
ologically
X.
motives
Sum@@
odi@@
sincerely
hs
calculations
aled
Wall
fore@@
ion
displayed
deem
subordin@@
proportions
5.7
Albanians
Scotland
forge
warmly
fed
85@@
Delivering
custom@@
stationary
Street
electronically
Encour@@
Municip@@
warm
loy@@
dwellings
beds
10.30
sho@@
bridges
trucks
OPCW
programmed
fortun@@
hardware
prepares
institu@@
writ@@
supervising
GB@@
communicating
passive
dus
IAS@@
Metohija
defences
deni@@
infring@@
babies
Nagorny
tis
Injur@@
ova
reciprocal
newborn
sk
ordering
Seventh
Inform@@
Ari@@
pra@@
exhib@@
Mediation
bidding
Shar@@
Mus@@
fore
shifting
expen@@
tends
isons
311
weakness
intensifying
Honourable
anga
tomorrow
meals
ović
engine
Prostitution
Particip@@
profiling
vici@@
tak@@
blat@@
escap@@
Dominica
gues
stabilize
ward@@
margins
las@@
consci@@
differently
Enhancing
abolishment
Meteorological
Mak@@
gly
waste@@
auth@@
refine
manufacturers
It@@
baselines
truck
contempt
Stud@@
experim@@
ago@@
88@@
impairment
juncture
construct
exist@@
Dise@@
arching
307
Single
atomic
309
directing
Ouagadougou
stering
merger
burning
admit
gan
dlife
homicide
editorial
Cooperative
needy
insist@@
Helsinki
gy@@
vaccine
pros@@
child@@
Names
Balkans
vi
gg@@
yielded
David
Relationship
repealed
justices
Arts
positioning
Semitism
philosophy
overri@@
Set
ane@@
Kitts
assumes
expan@@
geospatial
Sund@@
Colonel
gang
UNISFA
turnover
tours
stan@@
ambiguous
308
stem
grouped
Organiz@@
Peter
endemic
START
policemen
Forty
Dr@@
TIONS
yn@@
fid@@
counterpart
sort
argue
trans
crude
gue
SITU@@
Harmonized
intersectoral
ET
AC.26
quot@@
logic
Kampala
arrang@@
lig@@
Venez@@
Sab@@
plit
yiel@@
Bon@@
tedness
Pristina
murders
prerequisites
ambul@@
Indivi@@
layer
tox@@
reciprocity
checked
descriptions
Nevis
revert
jur@@
abbrevi@@
kan
sist@@
Orthodox
aki
femin@@
striking
prudent
pornographic
dy@@
aspir@@
sul@@
lasted
diminish
racially
entation
feeling
ita
disagreement
trusts
daughter
IGAD
restrial
cooperates
sem@@
interdisciplinary
furnished
OL
piece
SPEC@@
altered
Rw@@
murdered
paral@@
complies
impover@@
stepped
98@@
delicate
Tech@@
modelling
Dangerous
defer@@
í
ham
Invest@@
oration
yles
ress
ush
bes
resor@@
Negotiating
Fem@@
Affecting
CONFER@@
liness
Improvement
Eight
liaise
reduces
Minors
torate
2,0@@
FGM
chairman
rol
50,@@
kno@@
yo
stockpiling
Involuntary
Knowledge
Vol
Ecuadorian
periodic@@
PF@@
responsiveness
holi@@
elu@@
L.10
306
XXIX
gui@@
FP
Ed@@
Quality
alteration
FO@@
correspond@@
Three
forec@@
fundamentally
Yemeni
Bil@@
fabric
mortar
criptions
pron@@
exhibition
550
Us
oppression
artificial
specialization
profession@@
mentioning
ECOMOG
Lithuanian
ords
opt
says
973
CN.7
frontier
oma
exo@@
Bir@@
N.
ventures
ffee
dish
localities
Living
inclu@@
ural
Fern@@
skin
env@@
parking
ARY
Minsk
tre
creativity
liberties
infl@@
shad@@
atings
LO
WP
fled@@
embed@@
Initi@@
Rob@@
Priv@@
Indicators
editing
ium
acade@@
fish@@
Broadcasting
CP.7
reluctance
autumn
tori@@
exha@@
380
Columbia
917
sanc@@
concessional
ancements
V.@@
estr@@
nesses
optimum
Complaints
Codification
prostitutes
derogation
Icelandic
Carlos
borrow@@
Bos@@
UNSMI@@
monopoly
handicapped
itarian
fires
Pitcairn
SPIDER
gies
2018
machines
acceler@@
uniformed
ts@@
County
measurements
sitting
L.11
inevitable
remuner@@
altogether
ega
Best
manifestation
BC
ICTR
swift
9.3
ffer@@
Form@@
charitable
paradigm
MU@@
leaflets
trigger
festiv@@
chairing
CMP.1
ideology
ão
tackled
entries
superiority
forestation
Monrovia
RECOMMENDATIONS
trusted
inous
liberal
corrobor@@
simpli@@
appropriateness
diarrho@@
transforming
obligated
memor@@
swif@@
New@@
possessing
primacy
ky
tireless
Ow@@
22nd
Claimant
candidat@@
Deci@@
With@@
expel
IR
IU@@
Rad@@
Chilean
smoking
fat@@
husbands
alive
assimil@@
ona
DIS@@
hierarchy
blan@@
Ontario
Reproductive
illiterate
RESOLU@@
ignor@@
Malian
manifested
yer
flown
encounter
applau@@
NI@@
ston
cite
UM
ym@@
Facilities
lla
God
Luis
insisted
substantiate
sums
basi@@
deprive
E.
312
democratically
fragment@@
food@@
illustrates
farm@@
vague
Immun@@
raft
6.8
lat@@
319
accompany
dry@@
underdevelopment
E4
apping
dest
ogen@@
Far@@
08@@
impacted
distingu@@
adv@@
Older
Chadian
discrimin@@
UNOMIL
induction
Sir@@
ml
diverted
gren@@
elap@@
trainings
ania
secretary
318
etr@@
record@@
react
posting
confron@@
25th
balancing
emed
underground
canc@@
incite
menting
Deputies
redund@@
5.8
looting
Dissemin@@
testimonies
itary
Friend@@
Shabaab
incumb@@
broad@@
disorder
boats
L.15
opi@@
constitutionality
onwards
wi
1244
intra@@
Prosecutions
WA
biomass
Encourage
impres@@
clinic
evidentiary
afflic@@
Where
omissions
downward
reimbursements
interpreting
decreases
atus
Maz@@
anes
harb@@
sympathy
Course
pping
immunodeficiency
Juan
fostered
Consultations
nition
convert
ADOP@@
Plans
fix@@
surveyed
EF
Anti@@
lawfulness
steel
wear
Sand@@
Spo@@
inc@@
acquitted
symp@@
GA@@
DH
Particularly
forecasting
restorative
END@@
Which
Oil
amin
schoolchildren
human@@
excuse
delinquency
zi@@
neonatal
Rs
manifestly
van@@
ming
umb@@
Principality
construc@@
Beings
sia
atric
M.@@
Associated
1,800
push
heating
capaci@@
MYFF
catering
shooting
Ahmad
informative
radiological
ie
Demobilization
licensed
broadened
automated
cotton
translating
Identi@@
evalu@@
Annex@@
dor
Bud@@
globalized
ayer
ses@@
praised
inhal@@
Dou@@
sulph@@
Dom@@
Guin@@
reactions
apportioned
life@@
Respon@@
São
coinci@@
morality
1,600
demolition
frag@@
Agreed
Publications
variances
addenda
propag@@
SD@@
photogr@@
23rd
medium-
ffs
SPLA
guns
Jammu
propri@@
outdated
Phase
Alma
revol@@
Nature
representations
torneys
postponement
spon@@
Fran@@
requisi@@
Bodies
cross@@
egr@@
Migr@@
enly
checkpoint
maltreatment
humans
lows
nutri@@
Radi@@
bread@@
depleted
helpl@@
ss
coven@@
Basi@@
rationalize
s.
effic@@
VA
measles
3.9
polygamy
Immunities
Extraordinary
aspora
315
retirees
contributory
MAN@@
mistreatment
89@@
Disposal
Bujumbura
mann
Sign@@
ue@@
detain
pror@@
gangs
telecommunication
debated
2030
46th
L.16
embark
empir@@
resorting
export@@
L.18
stan
Material
reimbursed
verbal
Jan@@
checklist
Pakist@@
Bay
procured
comparability
7.6
Manager
Methods
iled
servant
accomplic@@
judic@@
tra
IONAL
ods
Times
COVEN@@
TT
Ceasefire
bab@@
Mul@@
Contin@@
1874
Bre@@
Insolvency
sistance
appren@@
weakened
organis@@
tiers
Excessively
anxi@@
rain@@
estos
siege
tolerated
technicians
inhabited
UNIKOM
offs
tho@@
toral
GAT@@
doms
mine@@
Pollu@@
cens@@
oun
terminal
endeavoured
Jurists
ather
SED
hypo@@
retraining
60,@@
Safeguards
unregulated
scrupul@@
POPR@@
assassin@@
Limits
costing
grievances
Cass@@
Comple@@
#
Ituri
possessed
lawfully
architec@@
conditionally
ARD
seed
demonstrators
introduc@@
Eradicate
Joseph
ancestral
past@@
Consum@@
keen
tour@@
Republics
Law@@
egal@@
pupil
earn@@
hotel
restruc@@
4.30
gun
Croats
broadest
dimin@@
graphic
97@@
Rev.2
remember
Toxin
congratul@@
CCA
ght@@
rail
Reco@@
Belaru@@
strife
insist
coping
SG
convicts
casu@@
Tan@@
eship
governorate
Islan@@
modernize
eyes
340
Sources
amparo
worrying
Supporting
thre@@
essively
container
Girls
UNTAC
battle
inasmuch
annot@@
313
Accords
Colonialism
REPOR@@
Francophonie
Ful@@
Hussein
IH@@
separati@@
Strait
experiments
liqui@@
evening
ange
bold
descendants
ā@@
rements
bombar@@
numbered
&apos;t
Lawyers
asb@@
inated
strides
backdrop
Fon@@
Bor@@
ville
ICAL
1959
gniz@@
time@@
discount
326
Bedou@@
doctrines
520
CAR@@
75@@
rich@@
strengthens
understand@@
uniform@@
wee@@
flee
Managing
cen@@
Corps
Mel@@
sens@@
forc@@
Tit@@
1000
famili@@
wan
compromised
Smuggling
314
●
HKSAR
Gen@@
appe@@
Worst
EZ
loads
Mandate
respiratory
unduly
Wilson
zo
commemorative
Organs
stuffs
itting
harvest
assig@@
bit@@
Conditions
monum@@
publican
MENTA@@
yl@@
pa
sable
feelings
veter@@
appor@@
winter
survive
scal@@
solicitation
Inf@@
Inv@@
polio
presi@@
Colom@@
sibly
Technologies
URAL
11.30
este@@
thood
bility
extern@@
Struc@@
region@@
96@@
nal
eping
GATT
ults
Enh@@
prise
ophy@@
Cap
ek@@
olu@@
Ji@@
coral
entable
trig@@
clas@@
Targ@@
Nicar@@
FIC@@
Quds
Archi@@
imparti@@
Valley
She@@
vement
fru@@
Jakarta
317
barr@@
pum@@
bun@@
ger@@
dela@@
Sp@@
anci@@
vis@@
Commit@@
7.4
Pleni@@
Edit@@
sias@@
acked
conv@@
lling
Holocaust
PLEMENTA@@
endosulf@@
UP@@
LC
Debt
LCA
Que@@
8.1
76@@
ECH@@
lio
phones
Alex@@
Literacy
ital
Has@@
Privi@@
Transport@@
after@@
Telecommunications
ops
Naz@@
sky
mort@@
licit
325
Lake
We
Needs
pestici@@
ampi@@
L.14
Ibrahim
fen@@
ck
Amend@@
8.2
Achi@@
Medici@@
intru@@
1737
Kafr
promo@@
RO
HO
tetr@@
dest@@
MINUGUA
rifl@@
tude
repa@@
Punt@@
oner
Expan@@
mate
intim@@
Vill@@
who@@
vinci@@
shops
wei@@
L.12
NP
anten@@
Med@@
1957
lass
appar@@
uelan
ide
visi@@
Dat@@
Cau@@
Gh@@
650
dit
L.19
Fair
WH@@
infringe
Iber@@
patrol@@
L.13
Terroris@@
equip@@
endor@@
sensitiz@@
TEC
recogn@@
XXVI
Regul@@
LM
NAS@@
Slo@@
63@@
Santa
ny
Bulletin
lis
Lou@@
ficient
DISCRIMI@@
reti@@
hard@@
ann@@
receip@@
CES
Gor@@
stem@@
1718
eman@@
ITS
deton@@
Teach@@
noti@@
activi@@
Residual
cost@@
hic
Geogr@@
Tuberculosis
memb@@
L.17
Dar
strateg@@
•
Negoti@@
Mit@@
aler@@
NC@@
altitudes
LT@@
judici@@
Fl@@
lip@@
Elimin@@
infan@@
digni@@
PI
step@@
alogue
Parli@@
thu@@
ffic@@
consign@@
shif@@
65@@
harv@@
Manufac@@
328
anth@@
margin@@
pun@@
06@@
yright
ball@@
rah
din
Eco@@
ACT
reserv@@
stic@@
Sil@@
eded
Hist@@
consul@@
Bad@@
boo@@
acquisi@@
TIES
Gre@@
annex@@
timel@@
lod@@
07@@
HCFC
vill@@
Cap@@
Hal@@
Riyadh
M23
see@@
coo@@
dress
alem@@
ito
5.9
oll
ghter
SPT
MF@@
rejec@@
nel
sil@@
Kaz@@
986
gal@@
ENT
ando
tting
IPF
FM
Gene@@
Man
mer
FIR
olog@@
ensu@@
ung@@
tis@@
shr@@
outs
perform@@
Ini@@
Salvad@@
Flem@@
Add.6
ONUB
Arch@@
Meth@@
spir@@
Mic@@
cantonal
ki@@
abst@@
admit@@
Jabal
attle
Cont@@
Rab@@
milest@@
BT
compendi@@
Char@@
satis@@
vigor@@
Bern@@
simul@@
earning
indefin@@
discrep@@
ej@@
conve@@
she@@
busin@@
FNL
ante
LO@@
unequivoc@@
arding
GNSS
Abdul@@
Bangui
Nas@@
bra@@
ICJ
HCH
Sult@@
concur@@
harm@@
Religi@@
POLISARIO
Consul@@
affirm@@
1612
atis@@
watch
Ka@@
issu@@
ati
Tar@@
HABITA@@
reactiv@@
L.20
ž@@
eti@@
MIN@@
EEC
marke@@
coca
transfer@@
Kab@@
Fer@@
aggrav@@
MN@@
adher@@
deri@@
flow@@
WG
use@@
ison
Rap@@
antor
Sharif
Zagreb
Hiz@@
expatri@@
Jen@@
7.8
Recog@@
emia
IAN
KO@@
guerri@@
tants
Harmon@@
Est@@
OI@@
jus
embar@@
buds@@
envi@@
Analy@@
IZ@@
BINU@@
aBDE
Bus@@
fund@@
reign@@
iland
surro@@
plements
atorial
IDA
aw
MD
bad@@
370
posite
depri@@
Lomé
broadcast@@
JI
Pil@@
Dal@@
custodi@@
journal
Sul@@
indict@@
alg@@
decl@@
UNMIBH
infra@@
glob@@
group@@
Je@@
adul@@
resili@@
ether
cho
HA@@
Regi@@
Canal
CN.17
323
346
Sw@@
neighb@@
73@@
TN@@
passes
Ky@@
Examin@@
Abdul
COP@@
ION@@
Wa@@
CT
Edi@@
Cat@@
aro@@
ouf
chil@@
chi
Gali
Š@@
387
amp@@
Michael
enda
XXV
Hyogo
Boutros
Compu@@
.00
circu@@
IL
Thomas
661
teen@@
7.7
Antonio
Integr@@
colle@@
bil
ingu@@
ker@@
reaffirm@@
pared
375
alli@@
Abdullah
standardi@@
Mem@@
ied
Buil@@
Legisl@@
tap@@
Ya@@
roc@@
EULEX
complic@@
contin@@
Tom@@
ambigu@@
iro
iture
1956
Monit@@
Id@@
333
auditor
dings
UNOWA
promulg@@
Moder@@
ples
AWACS
8.6
prosecu@@
Guer@@
postal
exclu@@
repor@@
radic@@
Park
UNDA@@
raf@@
incl@@
ana@@
embarg@@
uro@@
kin
nar@@
TP@@
verbales
Strength@@
bienni@@
satisfac@@
intangible
mir@@
negoti@@
321
aches
Represent@@
sustain@@
spar@@
avy
incid@@
Rev.@@
335
Chang@@
327
indivi@@
PH@@
atories
commemor@@
ø@@
ris
1947
stula
6.9
Khmer
Charles
ISO
pension@@
log
rom
ROM
Shel@@
ê@@
dar@@
lib@@
Dili
wan@@
DDT
UND@@
just@@
tag@@
fundament@@
internation@@
preclu@@
03@@
ofluorocar@@
estici@@
Resid@@
Martin
jun@@
Mach@@
30.@@
ONUSAL
persecu@@
Noti@@
tech@@
Town
Dispu@@
Pi@@
orbit@@
dynam@@
ja@@
9.1
Fun@@
Martínez
351
dens@@
supervis@@
Beth@@
BWC
authoriz@@
RT@@
destabiliz@@
sile
nec@@
AA
SB@@
ask@@
Suc@@
segreg@@
meaning@@
SY@@
terrible
RP@@
infr@@
Tam@@
verse
Robert
where@@
Visi@@
eld
IOC
Had@@
nex@@
Bene@@
cus
ACE
ole@@
multilater@@
ket@@
variable
infer@@
nically
Kon@@
Muni@@
001
Work@@
renew@@
EP@@
HF
Distribu@@
achment
enrol@@
comprehen@@
JS1
sin@@
CULT@@
oba
L.22
sc
CRP.2
equit@@
atl@@
420
sta@@
322
Rodríguez
lim@@
impl@@
abled
rid@@
Emer@@
Aung
Rou@@
Bamako
Ori@@
dum@@
hic@@
diplom@@
intel@@
UNPOS
test@@
actu@@
coast@@
yu@@
precau@@
draw@@
Ref@@
7.9
L.21
atten@@
Save
execu@@
legiti@@
wered
heed
ML@@
Vil@@
plied
González
plementing
ras@@
2050
L.23
servers
bles
Kis@@
Dim@@
Lin@@
gram@@
Francisco
enqui@@
atr@@
ender@@
SPLOS
ateral
CN.6
336
Raj@@
vibr@@
349
vigation
Ke@@
vaccin@@
gible
Compar@@
dem@@
signi@@
TO@@
ko@@
Torres
genous
neo
Ob@@
Tru@@
324
fun@@
Carri@@
nit@@
dil@@
ESCR
respon@@
aba
Doc@@
ceremon@@
seri@@
Scot@@
empha@@
AC.96
Memb@@
compromis@@
forth@@
REC@@
Ramallah
eth
shop
valu@@
textiles
alleg@@
restaur@@
real@@
rested
MINUSMA
dea@@
Deb@@
ONU@@
lov@@
haz@@
CFA
Ass@@
let@@
De
354
vec@@
337
ub@@
modif@@
329
ford
mara
P.1
forwar@@
deliver@@
stead@@
507
nouvelles
awi
Juven@@
prefabric@@
ust@@
BER@@
poten@@
OF@@
alties
alk@@
improvi@@
Concili@@
Leon@@
accumul@@
Proces@@
Aq@@
resear@@
bilater@@
Deleg@@
vil
subven@@
biom@@
Sta@@
Afgh@@
reign
ono
RO@@
Triparti@@
ick@@
incre@@
enshr@@
mini@@
RY
Pent@@
Comp@@
OSS
index@@
itment
attr@@
INCL@@
temper@@
bord@@
UNF@@
ip@@
345
contempl@@
Aboli@@
Extr@@
griev@@
Filip@@
diversi@@
ï@@
LTTE
Requi@@
Iraq@@
Categ@@
lam@@
ticul@@
familiari@@
SAR@@
332
TER
ECO
eques
prot@@
347
mitted
Barcelona
hex@@
ITY
cit
confisc@@
Sing@@
TRAC
habitual
tum
second@@
ingredi@@
AI@@
Juris@@
UNTAES
ight
ording
Subregional
fluctu@@
amin@@
comple@@
len@@
oud
Wol@@
pot@@
Manila
Jan
kil@@
empli@@
Eli@@
tiary
Of@@
zi
Econom@@
impair@@
UNMIH
kov
sted
426
Tari@@
Execu@@
lions
Cooper@@
duci@@
ander
probable
asu@@
Alber@@
civiliz@@
aga
acteri@@
Elec@@
án@@
Tamil
old@@
sement
Shanghai
POL
74@@
James
Sali@@
Pretoria
approxim@@
Muhammad
ARC
Defin@@
Conse@@
Bat@@
ave
Investig@@
facie
Demogr@@
prima
other@@
1952
rech@@
yo@@
scar@@
SFOR
eman
mad@@
Macao
Plan@@
Pun@@
Program@@
drop@@
Wast@@
Nep@@
MP
pendix
334
348
mics
497
Audiovisual
chec@@
Fre@@
fal@@
Av@@
406
reflec@@
Ambass@@
shap@@
duce
mises
Fal@@
ado
9.2
stances
rigi@@
UNA0@@
chr@@
otor@@
simi@@
Dayton
440
san
850
bet
nial
ancies
lities
Princi@@
Bol@@
COOPER@@
430
exped@@
neutr@@
Norm@@
XXVII
exp@@
Bien@@
560
Nagorno
ycl@@
ink
princi@@
tras@@
settl@@
ape@@
402
preced@@
POS@@
CORE
initi@@
86@@
XXVIII
repu@@
indeb@@
L.24
ascer@@
grav@@
410
Concep@@
George
UNTAET
periodici@@
Institu@@
417
JA@@
356
cohe@@
ám@@
Tashkent
ere
PROTEC@@
Flo@@
ud
ika
Fri@@
chann@@
Add.7
USAID
339
battali@@
avier
dau@@
esel
Taylor
−
desper@@
scholar@@
Ol@@
asses@@
Ankara
restric@@
331
prud@@
jo
tries
reneg@@
Indi@@
intergener@@
epide@@
Nav@@
SID@@
366
isa
tric
Dev@@
Enter@@
versal
05@@
sements
multimedia
Vir@@
extric@@
sour@@
Oce@@
And@@
Rep@@
ensing
discer@@
inhibi@@
XXIII
ald
lavonia
antic
dly
posses@@
autom@@
Cartogr@@
isol@@
Vol@@
auxili@@
84@@
364
fe
Agr@@
Bosni@@
contain@@
PNTL
L.29
él@@
sat
hall@@
INFORM@@
tex@@
DG@@
anch@@
impe@@
preside
sex@@
tray@@
Py@@
gres@@
SIS
correc@@
dar
Islam@@
aca
415
prescribe
432
tar
OC@@
UNPREDEP
GEN@@
357
mar
428
school@@
c.@@
DM
Gab@@
950
SER@@
deser@@
Mes@@
avily
rebel@@
SE
situ
plu@@
registr@@
com
curr@@
Kin@@
docu@@
tas@@
Pot@@
Apartheid
ández
convoy
Srebrenica
dam@@
pares
complement@@
bic@@
sives
352
tica
PCN
Niño
OV
gar
FAR@@
ato
polar
Pra@@
fav@@
metropolit@@
MIC@@
Tob@@
Provid@@
fabric@@
nam@@
esa
contro@@
344
GBIS
Sustain@@
distr@@
voc@@
ht@@
arly
mutandis
pus
UNP@@
itative
ario
Develop@@
94@@
mutatis
ella
review@@
induce
355
eng
341
RCD
phil@@
iv@@
COL@@
enunci@@
visor
audiovisual
Radio@@
Publi@@
OM
UNIC@@
460
lum@@
Budapest
ologies
terr@@
intercep@@
deterior@@
Oli@@
sus@@
edul@@
pp@@
5935
L.26
assur@@
alim@@
WG.6
som@@
BLE
L.25
Cour@@
8.4
F.@@
tab@@
solemn@@
gen
bios@@
Ki
stered
eties
amid
conceptu@@
394
PP
extremi@@
377
FE@@
cot@@
ei
Faro@@
nob@@
atar
moon
Kas@@
ues
Jer@@
ango
subver@@
bah
Maria
disast@@
ere@@
educ@@
insectici@@
amo
poli
prox@@
sociocultural
won@@
Hab@@
Jab@@
ester
pharm@@
onic
Ker@@
nik
REDD
deplorable
proc@@
CRPD
iling
Tre@@
house@@
372
appen@@
470
destitu@@
83@@
Chri@@
advant@@
nov@@
414
456
Applic@@
abri@@
SL@@
run@@
Prac@@
343
codi@@
ope
bert
Conven@@
net@@
Mai
lif@@
cellaneous
carb@@
480
ourg
publics
ror
Laur@@
occu@@
coincide
encom@@
Nic@@
MEE@@
practic@@
rele@@
Arafat
mam@@
Ren@@
PO
rob@@
advi@@
utu
390
selec@@
Neg@@
BI@@
Vul@@
favour@@
fauna
374
stems
further@@
TIN@@
lex
Wh@@
T.
DC2
Focu@@
Kyi
aye
perc@@
conserve
Omar
631
Eurostat
sear@@
cruel@@
zen
Bush
inspi@@
otes
Shu@@
Langu@@
DIS
Beit
fratern@@
tant@@
509
organ@@
modi@@
til@@
elle
9.30
L.27
AC.51
PD
ji@@
ands
protest@@
dispu@@
pose@@
Popular
onia
373
diploma
reinser@@
UNIO@@
simil@@
PAL@@
succe@@
shima
vel@@
rd
412
accus@@
Sav@@
rami@@
OPS
Balk@@
ported
ité
Mayor
LAN
horiz@@
Issu@@
one@@
Invent@@
UNMISET
itures
hop@@
eland
L.38
CIC@@
ín
Charg@@
Sect
sa@@
Á@@
imagin@@
evic@@
Arbitr@@
instal@@
scrutin@@
tu
shore
Sor@@
falsi@@
Territorial
youn@@
sali@@
Sad@@
DH@@
reconfigur@@
488
recycl@@
Interpre@@
342
353
oce@@
ophobia
thres@@
Indu@@
363
Ci@@
Audi@@
inten@@
show@@
Journ@@
REP
delic@@
roller
Trop@@
99.@@
ear
emolum@@
anni@@
fi
ais
,@@
abad
duran
ook
Dur@@
dating
oles@@
Statu@@
Cab@@
relieve
Men@@
eva
Ng@@
EUFOR
32,@@
play@@
witnes@@
95@@
422
Fe@@
362
vable
susceptible
flexi@@
Kisangani
emancip@@
liger@@
04@@
Abdel@@
413
Fil@@
liquid@@
exhum@@
Hus@@
phy@@
parad@@
ication
insti@@
Bin
ua
avail@@
accidental
Bougainville
Gl@@
liti@@
Tel@@
Bai@@
CG@@
COR@@
deriv@@
385
gain@@
mi
inging
stry
legitim@@
408
Mam@@
Pierre
delinqu@@
SB
405
anom@@
ayo
med@@
substanti@@
ür@@
358
JEC@@
pow@@
L.28
elop@@
tained
L.32
earmar@@
mayor
orian
MICIVIH
detail@@
Malay@@
scienti@@
mel@@
ification
overwhel@@
investig@@
Bom@@
vić
accu@@
UNSCOM
disturb@@
381
Sel@@
akh
Consolid@@
ond@@
ept@@
475
yen
GEO
361
AMIS
eda
Ox@@
orient@@
ante@@
Astron@@
dedic@@
jan
Coton@@
obe@@
usal
368
sha
tioner
SCO
L.34
refriger@@
Pedro
Revit@@
aim@@
Oc@@
decentr@@
457
andi
sent@@
Met@@
Hen@@
kh
bre
Mitrovica
heigh@@
incrimin@@
dur@@
Mun@@
TIC@@
clos@@
gather@@
Montevideo
peti@@
371
gio
psychi@@
colonization
503
Postal
mot@@
487
INTER@@
ISAR
540
423
cardi@@
AV@@
kilom@@
Christ@@
ene@@
Ben
XXX
mits
Loc@@
intoler@@
Flor@@
Sou@@
Suu
necessi@@
2025
consu@@
379
GL@@
Tun@@
prevail@@
Gbagbo
Organis@@
grading
Mahmoud
suspen@@
inas
RACIAL
Recom@@
bom@@
Dep@@
Lit@@
unders@@
cus@@
HU@@
celer@@
Sour@@
715
10.15
Yam@@
tish
Kra@@
UNS@@
Labor@@
Kom@@
33,@@
Civi@@
389
diabetes
Consult@@
concili@@
ola
setia
ocal
Cz@@
Tall
Rus@@
mani@@
infiltr@@
defender
TP
Kim
Dubai
bio
par
418
472
osting
Enti@@
ISBA
credi@@
portun@@
BA@@
nogr@@
clan
386
Congres@@
mun@@
ag
Mek@@
hib@@
enumer@@
hang
Eur@@
ferti@@
391
Mir@@
369
Luanda
absten@@
alcoho@@
1503
oro
G.@@
1907
Pop@@
465
416
pec@@
Jal@@
acu@@
sures
SN@@
L.30
procure
convin@@
heter@@
cob@@
PCP
INA
annu@@
Ga@@
rais@@
mode@@
10.10
pson
Six@@
L.39
359
urches
horri@@
schol@@
Mano
sim@@
act@@
SG@@
Wind@@
conven@@
Nag@@
mas
det@@
fering
García
pent@@
Iz@@
pati@@
enza
dul@@
382
411
represent@@
ception
hierarch@@
Miguel
Naj@@
Multin@@
Interregional
pursu@@
aven@@
409
indemn@@
HRW
435
situ@@
sabot@@
Reserv@@
eses
392
vic
stockpil@@
dres@@
L.31
CPT
LAS
machin@@
defini@@
ello
Rumaysh
fet@@
inking
REP@@
disaggreg@@
Clinton
FER@@
fulness
add@@
L.36
inciner@@
perfluor@@
refrig@@
metad@@
restr@@
fif@@
REG@@
Urugu@@
entials
oon
Cust@@
34,@@
pet@@
extingu@@
charging
1624
graves
Miner@@
prin@@
Aer@@
stro@@
arra@@
CPR
Mostar
oni
veri@@
H.@@
35,@@
530
N.@@
478
TF
honor@@
abs@@
Raf@@
rever@@
Kel@@
sine
510
fem@@
TING
ria
Hg
TOR@@
candi@@
436
raz@@
Guant@@
Santos
L.37
aus@@
persi@@
L.40
oi
Dani@@
visory
397
Add.8
psycho@@
evid@@
Mandela
Lam@@
iti@@
mic@@
philosoph@@
lus
MAT@@
anu@@
Cop@@
defi@@
378
Yas@@
cred@@
mates
PaperSmart
lin
ities
751
fulfil@@
Incre@@
ores@@
VIII.@@
BD
presti@@
Bek@@
Govern@@
mur@@
421
visu@@
én@@
detr@@
cable
Kad@@
oven
plement
abling
denunci@@
376
Les@@
395
polic@@
enz@@
.asp
Pérez
effec@@
U.S.C.
Psy@@
Nobel
Mart@@
LP
dilig@@
pled@@
ITA@@
439
1572
É@@
suc@@
fluor@@
Medi@@
Richard
398
Profes@@
APR@@
pecuni@@
California
Elabor@@
L.35
ADMINISTR@@
kness
ond
1820
agon@@
homosexu@@
ager
tin
Mayi
idi
Armen@@
heric
ime
403
383
versary
Om@@
Mohammad
arsenal
auster@@
cogens
IPTF
arr@@
onga
Auth@@
escu@@
produc@@
ela
Majlis
convic@@
Abbas
L.42
asa
happ@@
KH@@
Restric@@
earthqu@@
coali@@
458
stigm@@
aments
excav@@
computer@@
Valencia
404
490
CCP
pulsory
disper@@
Toler@@
venes
ó
alum@@
Prin@@
Mosul
harmon@@
Fac@@
olo
Marg@@
gov.@@
Pin@@
aç@@
433
384
Freetown
Rabat
Cher@@
780
RE
Serge@@
477
licen@@
compil@@
L.43
suici@@
Lic@@
brief@@
Kabila
invari@@
endu@@
eshi@@
author@@
ench
L.33
sey
every@@
W.@@
Serv@@
Ltd
36,@@
Ly@@
omin@@
ament
ONUMOZ
GO
dez
auti@@
osa
remitt@@
Gom@@
agro@@
brac@@
eph@@
Beng@@
shoc@@
bench@@
occurr@@
rey
PK@@
individu@@
knowled@@
asting
sharia
445
victimi@@
Pelindaba
ession
Ul@@
Peri@@
ACP
Limited
pur
regulari@@
38,@@
512
versa
429
Alfonso
manag@@
444
resum@@
CAN@@
cem@@
boy@@
stly
388
CRP.3
Tbilisi
materiae
37,@@
addres@@
Mou@@
Laden
Kou@@
Khal@@
424
Chair@@
monopoli@@
substan@@
aise
missible
SM
Nami@@
407
Jersey
REN@@
bullah
reuni@@
John@@
answ@@
erie
William
fon@@
Mom@@
fare
natur@@
Ang@@
ired
dimensional
Kordof@@
501
Victoria
search@@
NG@@
Bukavu
454
521
Ok@@
438
propon@@
aily
lac@@
Pas@@
reci@@
acces@@
603
L.41
Kum@@
atically
feed@@
urb@@
198@@
residu@@
419
rit
himi
431
ATIV@@
Knesset
1353
FF
prene@@
rement
446
Manuel
cep@@
MIL@@
olescent
psy@@
Monten@@
wast@@
yi
eria
ensic
40.@@
itentiary
Fel@@
rescin@@
eum
Sla@@
Bash@@
iza
angu@@
Iv@@
devol@@
Van
eset@@
483
·
imperi@@
bibliogr@@
sta
Hum@@
LAR@@
My@@
efully
L.44
NG
ille
Jac@@
bisex@@
Phy@@
437
But@@
Fron@@
ska
L.45
50.@@
EUR@@
486
stock@@
Dubl@@
astron@@
sistant
inaugural
Kurdist@@
KU@@
Progres@@
bay@@
LR
did@@
result@@
Maputo
ño
eo
39,@@
1521
Bun@@
implement@@
ld
L.49
mali@@
485
atah
ulty
Quebec
Jama@@
cher@@
reto
teach@@
Van@@
overcrow@@
ingo
irrepar@@
OMS
Lev@@
.htm
Haj@@
inviol@@
Silva
acro@@
506
748
mo
forti@@
VIOL@@
minent
660
interlocu@@
Sharm
NAT@@
Prelimin@@
heal@@
eting
eradic@@
Nasi@@
sess
lei
edy
W.
sm@@
Mongo@@
OEWG
448
confes@@
Antar@@
recl@@
quin@@
SPLM
yar@@
393
JS2
SIS@@
year@@
contag@@
TERRITOR@@
princip@@
rique
Sent@@
ule
idi@@
Cruz
genic
devalu@@
arer
insula
UA
442
Kat@@
Interven@@
vin@@
L.48
Nelson
453
Mechanis@@
aphical
Uti@@
513
dos
tese
plem@@
rero
492
396
Og@@
O.
Gir@@
sal
campaign@@
DU@@
insepar@@
igu@@
induc@@
L.46
acco
455
Indic@@
son@@
443
ilization
Mary
Bunia
div@@
605
éd@@
presup@@
DCP
ensor
Wat@@
some@@
Vladi@@
MP@@
OPA@@
illing
ula
Din@@
peace@@
quisi@@
dens
conti@@
Universi@@
CONF.157
aves
Nk@@
Ade@@
Aristide
anim@@
allah
AF
flora
tible
Brazzaville
divid@@
gam@@
impu@@
Rah@@
OD
467
Quito
469
1559
stopping
m2
pol
radios
Inc
tina
addi@@
decep@@
1929
481
toxic@@
mart
Islamabad
Paz
aly@@
Mill@@
EV@@
AZ@@
Shari@@
lati@@
admini@@
siv@@
elector@@
matrimonial
Vit@@
liquidated
Andr@@
bag@@
110.@@
vand@@
econ@@
NTB
ovic
GRA@@
427
inte@@
umba
471
combat@@
ram@@
CAC
Kol@@
fili@@
nity
instrum@@
sar
Moz@@
Prefer@@
SUB@@
bis@@
abo
Hari@@
concomit@@
var@@
document@@
2019
anza
L.50
asci@@
aj
oured
IS3.@@
Phnom
476
VAL@@
Tas@@
ancill@@
557
Ombuds@@
mess@@
Es
consequ@@
Aw@@
pesos
repris@@
864
reactor
rying
Bish@@
459
451
508
Actu@@
compro@@
NT@@
allow@@
regres@@
Perspec@@
Plaza
justici@@
expul@@
Ara@@
Jes@@
Mi
Intranet
Paragu@@
sig@@
calibre
Kuala
EX
525
MONUA
asp
interministerial
IPEC
HFC
SEN@@
manu@@
466
km2
ampu@@
462
640
multicultur@@
casting
PAR
720
Lumpur
subtotal
Armisti@@
perin@@
cad@@
report@@
Rafah
Avi@@
Mold@@
King@@
CMW
agement
Hamb@@
GI@@
Tw@@
cartogr@@
causal
Gil@@
DO
SERV@@
iss@@
CAP
Human@@
insu@@
Polisario
dispens@@
Penh
Shab@@
Metro@@
predec@@
484
MINURCA
afi@@
Bang@@
recom@@
figh@@
Hern@@
452
505
multimodal
uli
dia
dial
listic
yed
gest@@
Nd@@
434
463
Khan@@
L.47
amer@@
399
t.
Mé@@
lity
Yu@@
L.53
49,@@
inspector
entail@@
emen
polit@@
yond
Oceanogr@@
adop@@
op.
posal
FIN@@
epis@@
464
Jam@@
ATED
Luka
479
emerg@@
CCD
ogo
depriv@@
Zenica
extin@@
manufactu@@
eter@@
Kash@@
abilization
amorro
Le
eras
muni@@
Fur@@
UNMIN
counci@@
nat@@
474
potable
DEVELOP@@
sic
inscri@@
hind@@
precep@@
CCA@@
Edu@@
Banja
theat@@
AW@@
Fla@@
Jur@@
shan@@
Zanz@@
elem@@
panel@@
stop@@
Bay@@
Gendarm@@
salu@@
lan
atization
Wo@@
staf@@
ouse
punish@@
£
12.30
forese@@
embl@@
565
literate
Gaz@@
Meh@@
batt@@
mitig@@
Declar@@
aliz@@
tivi@@
Semipalatinsk
iri
tam@@
surviv@@
ped@@
482
Challeng@@
XXII
Oblig@@
kilogram@@
pris@@
Proced@@
JU@@
Poli@@
SU
aran@@
sson
entu@@
ele
prote@@
Fasher
fiel@@
pies
lag@@
del@@
artic@@
TRAN@@
468
Mod@@
onization
supervi@@
Bogotá
clear@@
Ngu@@
advers@@
447
Add.10
Mich@@
sever@@
498
abi
532
recal@@
.int
493
Kazak@@
PCB
Rakh@@
733
PEC@@
Green@@
FICSA
urities
hepatitis
enko
Say@@
pez
now@@
subs@@
kov@@
emis@@
Baranja
Cou@@
Daw
Brun@@
éri@@
Pro
Bio@@
public@@
otte
514
adu@@
Nah@@
essor
m3
1953
eder@@
ardu@@
mill@@
onds
CN.10
amba
Alberta
ico
akia
reform@@
ois
FL@@
Gs
IMI@@
44,@@
trage@@
temporal
ded@@
demogr@@
reconcili@@
Provin@@
CNDP
LAR
libri@@
CN.5
Shan@@
forbid@@
gement
lad@@
tedly
Ric@@
nan
Chiapas
537
491
contamin@@
clamation
emin@@
usu@@
Amar@@
kly
ith
cel
Franç@@
Deli@@
hegem@@
jina
led@@
494
Panam@@
advert@@
OzL.Pro@@
abro@@
converti@@
dispar@@
Robinson
Crit@@
Katanga
Procur@@
hali
LI@@
449
aud
barg@@
rees
teleph@@
quer@@
EB@@
ug
6B
Viet@@
uri
VIC
502
511
515
wich
Camero@@
Koso@@
ë
consult@@
fashi@@
mom@@
pdf
glos@@
Festiv@@
bola
489
abor@@
clo@@
ires
dedere
dol@@
Alas@@
Obama
BES
Citiz@@
Hay@@
545
amentarians
625
Fiscal
imana
Add.9
CW
ocar@@
resol@@
innov@@
portfo@@
MB
hat@@
Psych@@
Palermo
warm@@
synerg@@
María
ROD@@
pudi@@
INF.@@
pes
surve@@
arians
441
demonstr@@
tiv@@
Yokohama
const@@
correspon@@
promp@@
Franci@@
returne@@
auge
UNIPSIL
regener@@
har
org@@
Comb@@
Sus@@
oto
hero@@
Pap@@
coer@@
allo
Tuz@@
cog@@
519
Feder@@
quarter@@
basa
blind@@
ampli@@
Situ@@
Superint@@
MES
Crimin@@
ught
Alep@@
mentation
retire
Democraci@@
aur@@
Eide
CN.@@
Santo
amble
Prev@@
strain@@
46,@@
admir@@
egu@@
agua
anz@@
aint
Nigel
43,@@
TL
Som@@
ima
Jorge
pass@@
issé
su
fra@@
reun@@
anno@@
PARTIC@@
descend@@
confid@@
actment
paci@@
ventil@@
aud@@
etu@@
enem@@
cord
rescu@@
hag@@
Amor
ré@@
ween
replen@@
Sig@@
tranet
UNIS@@
orities
mize
rene@@
cong@@
invi@@
Vice@@
arter
health@@
Nar@@
TI
draf@@
wom@@
PERSON@@
nical
emo@@
Haiti@@
program@@
tility
oy
itu@@
homosex@@
sand
Canadi@@
Acade@@
pes@@
redness
48,@@
tum@@
inferior
electro@@
dissemin@@
photograp@@
pharmaceu@@
regret@@
recru@@
cro@@
aris
erous
peculi@@
nor@@
planes
ador
open@@
Libre@@
Arrang@@
inscribe
bec
cubi@@
fan@@
dilu@@
vez
dial@@
dign@@
cha
ake
reproduce
earch
Tanz@@
intran@@
supra
jar
oh@@
extrad@@
atol@@
entially
erce
FINANCI@@
electron@@
facilit@@
jeopar@@
RT
estion
fis@@
obl@@
Servici@@
SES@@
mobili@@
far@@
prison@@
financi@@
Hor@@
ADA
Gran@@
num@@
Eg@@
sat@@
recei@@
Superior
uci@@
tus
93.@@
virtu@@
aco
aul@@
Instrum@@
mutil@@
rera
Environ@@
reve@@
prolong@@
ñ@@
tent@@
DER@@
Vie@@
believ@@
democr@@
cables
icul@@
plagu@@
Australi@@
capacit@@
provi@@
RIGH@@
iculum
Rot@@
lar
Mont@@
essation
reless
outsour@@
Ze@@
ose@@
ettlement
power@@
FU@@
lish
spr@@
assess@@
98.@@
én
Gol@@
tioners
nucl@@
enrich@@
event@@
marri@@
Viol@@
Len@@
Tow@@
aban@@
Audit@@
rigor@@
rul@@
aper
â@@
ADI
DIN@@
eter
requ@@
typ@@
Seg@@
MM
lum
Paper@@
enforc@@
dici@@
tern@@
oria
keepers
JI@@
anship
Marrakech
ore@@
therap@@
ary@@
Design@@
amor@@
ette
ili
aggres@@
inic
triple
misu@@
kid@@
ashi@@
oriz@@
exploded
Integral
uld
echnology
bacteri@@
caf@@
nado
supervisor
Dan@@
maximi@@
resu@@
recep@@
unda
dan@@
ITU@@
alle
ilo
deploy@@
tiles
scep@@
Delin@@
rum@@
supre@@
SION
Semi@@
trag@@
CES@@
Exper@@
PAC@@
eigh@@
op
surance
Regist@@
CRP@@
asp@@
autop@@
och@@
ude
gal
aron
exig@@
frequ@@
aining
acas
clean@@
leaf@@
38.@@
mosqu@@
Excell@@
ARTIC@@
job@@
Maurit@@
heres
sibilities
metr@@
eted
ament@@
Publ@@
irrever@@
sevent@@
recog@@
excu@@
Eth@@
calibr@@
socio@@
sess@@
Jar@@
DC@@
MAR
manship
llas
amend@@
meg@@
aja
thal
enj@@
ough
sidi@@
Mand@@
ameworks
Counci@@
amen@@
IDH
block@@
nin@@
Los
topo@@
figu@@
reconstitu@@
belong@@
quinqu@@
MAS
gens
adequ@@
experiment@@
discipl@@
Mani@@
esses
lingu@@
fairs
TES
paramilit@@
Virg@@
INST@@
secu@@
sensi@@
outh
install@@
barre@@
genoci@@
MINUS@@
coc@@
ancement
contra@@
asis
Aru@@
vast@@
conting@@
communic@@
inos
cere@@
Clo@@
archiv@@
hus@@
quad@@
ord
tempor@@
wri@@
extra@@
curric@@
expect@@
Bag@@
Haz@@
idd@@
demarc@@
colum@@
sly
resist@@
Guatemal@@
remo@@
lapse
Resi@@
Estim@@
neum@@
erti@@
ided
ña
Intro@@
clari@@
rop@@
irre@@
tracted
mus@@
commit@@
BIEN@@
configur@@
itec@@
Conflic@@
Lum@@
Cul@@
associ@@
Marra@@
oci@@
Geo@@
descrip@@
registrar
usur@@
soli@@
Esti@@
qual@@
interpre@@
purch@@
SOS
tele@@
tici@@
Diplom@@
adre
conson@@
suspici@@
bands
neglec@@
complain@@
itas
scour@@
Natur@@
subsi@@
ashk@@
eno
preserv@@
Syri@@
roman@@
atic@@
itiner@@
electri@@
constr@@
.ht@@
amos
Fund@@
Bot@@
BI
ult@@
redou@@
mol@@
ego
legi@@
bru@@
Emi@@
scen@@
ik
iti
lights
plat@@
qué
parall@@
OBSERV@@
ashes
Educ@@
MT
wn
Premi@@
recuper@@
Assess@@
ili@@
Kiv@@
lug@@
albe@@
ennium
univers@@
hist@@
TU@@
lom@@
premedit@@
alloc@@
kra@@
Int@@
197@@
FON@@
EE
pill@@
das
impar@@
Bul@@
oxide
sieg@@
cub@@
induci@@
Olym@@
Stra@@
sur
renunci@@
ld@@
aster
caus@@
SOM
illu@@
eli
procu@@
transpar@@
OE@@
Marri@@
asc@@
letes
compan@@
Presid@@
enorm@@
accomplish@@
COM
erly
present@@
ont@@
lik@@
ech
arma
Rwand@@
Apo@@
assu@@
explor@@
postpon@@
Real
ESTI@@
SEC@@
precipit@@
incul@@
rendi@@
abudgetary
Experi@@
awai@@
medicin@@
OG
indiscrimin@@
obvi@@
Tox@@
contex@@
Stan@@
spectr@@
repeti@@
asure
neo@@
OPER@@
c.
Kit@@
tise
Cred@@
inver@@
Rum@@
nia
chem@@
premis@@
Gon@@
guez
arte
verage
Child@@
SIL
energ@@
pti@@
reven@@
adres
desh
osci@@
NATIONAL
esto
derly
deleg@@
arded
adolesc@@
Hez@@
FID
exam@@
physic@@
patern@@
prefer@@
Jun@@
vul@@
abe
acon@@
Intensi@@
Sev@@
locu@@
ete
enas
Pel@@
CHIL@@
pin@@
ret
Ordin@@
control@@
Ot@@
prohibi@@
tem@@
mos
resp@@
ypes
Depart@@
reme@@
consi@@
MSIL
Post@@
fir@@
Andor@@
Asi@@
maj@@
industri@@
manufac@@
Unid@@
vie@@
DER
Imp@@
0s
anomal@@
guil@@
gendarm@@
congreg@@
Der@@
fusion
text@@
superi@@
otos
Arm@@
Stre@@
Luc@@
illance
narr@@
macro@@
elabor@@
nolog@@
MIC
breast@@
recap@@
fear@@
ENTION
enci@@
DOS
Sud@@
stro
Cr@@
modal
Administr@@
benef@@
quic@@
Year@@
ospatial
encoun@@
success@@
Cancún
mono@@
Bhu@@
Ö@@
invoc@@
eros
60.@@
lands@@
focu@@
sper@@
otr@@
ologi@@
2004@@
tas
ira@@
dal@@
mind@@
ñez
UNR@@
kill@@
constrain@@
ú
ladi@@
ropic
rad@@
atori@@
eenth
affec@@
bere@@
mes@@
ako
forest@@
disbur@@
kind@@
deport@@
esty
prolifer@@
persever@@
Maur@@
Riy@@
Willi@@
MER@@
inti@@
plic@@
anta
Appoint@@
isl@@
Off@@
combin@@
homici@@
elitis
gasol@@
assment
voy
ste
wed@@
niv@@
verdic@@
Ž@@
Industri@@
uer@@
radio@@
Reli@@
neys
tionary
rom@@
Thom@@
elo
los@@
perman@@
abandon@@
solu@@
Mauriti@@
exhaus@@
Phi@@
Mapu@@
withdraw@@
igh@@
amen
erto
ould
Crimea
Director@@
indu@@
esp@@
pak@@
Sem@@
rella
{
olec@@
}
confirm@@
Canc@@
acknowled@@
decre@@
oth
estu@@
sincer@@
nucle@@
apprais@@
tram@@
retali@@
Ped@@
2008@@
mul@@
cooper@@
usti@@
fici@@
emite
Ib@@
AMI@@
Gul@@
Abu@@
bran@@
pist@@
PEN@@
will@@
rep@@
edor
contrast@@
fro@@
reclam@@
exemp@@
sionable
rea
stre@@
undi@@
sten@@
Guar@@
thered
prim@@
evol@@
ÑO
recu@@
wis@@
Broad@@
Let@@
through@@
coti@@
tes@@
salv@@
Azer@@
ept
Provi@@
semin@@
cer
aero@@
U.@@
enta
cos
Lagos
length@@
verb@@
arious
ARR@@
mé@@
ancing
prehen@@
copi@@
cicl@@
declar@@
nav@@
dich@@
pag@@
ú@@
tudes
Stoc@@
yi@@
Condi@@
culp@@
sust@@
tabl@@
Paragrap@@
suring
asia
sar@@
anogr@@
emblies
plainti@@
Ami@@
Bam@@
Projec@@
orti@@
charg@@
entary
tribu@@
propi@@
PBDE
IG
communi@@
bres
Chil@@
Dru@@
stein
Expl@@
fall@@
spre@@
udi@@
bit
proces@@
hole
junc@@
pers@@
Hai@@
onales
marily
check@@
commod@@
conflic@@
dic
inva@@
brid@@
plying
eles
lav@@
congru@@
alin@@
var
buil@@
mn@@
Hav@@
CNDH
Evalu@@
particip@@
rat
erv@@
fiduci@@
Conduc@@
Ce@@
Cli@@
Nin@@
Sant@@
catast@@
mission@@
insol@@
ticated
ogi@@
fom@@
Inspec@@
acter@@
iss
imas
con
preten@@
moratori@@
invent@@
ington
OEC@@
▪
habitu@@
develop@@
Aug@@
dispat@@
compart@@
prostitu@@
ég@@
uno
etal
Octa@@
expec@@
Sist@@
aval@@
enga
anas
vered
argo
odeficiency
drog@@
realiz@@
nab@@
flagrante
Affec@@
oris@@
exten@@
bery
aran
agre@@
armament
Tai@@
dan
obst@@
Bog@@
Ris@@
complex@@
ë@@
refi@@
statis@@
soever
ilit@@
nei@@
demo@@
atro@@
mitte@@
sensible
vas
osex@@
lites
metallic
propor@@
PAN
eta
oride
sophis@@
MIT@@
ny@@
ESCO
Afr@@
skil@@
Vel@@
clave
row@@
anthropo@@
disposi@@
ór@@
tari@@
Day@@
ras
unanim@@
igno@@
pion@@
ente
Río
Nat@@
Fir@@
Log@@
gol@@
atoria
Europe@@
Lib@@
achi@@
Barb@@
PROGRAM@@
usa
lej@@
desc@@
plau@@
agan
OzL.@@
TIV@@
junta
arro@@
gir@@
citiz@@
fo
cav@@
Electr@@
34.@@
DEL
Sex@@
etings
aired
afr@@
specific@@
tan
Fis@@
oing
Libr@@
unción
ía
nas
Gin@@
ware
param@@
ido
precip@@
Ethiop@@
uro
edes
enjo@@
Hand@@
corner@@
mob@@
emor@@
mide
apters
aires
ESTA@@
Azerbaij@@
CONF@@
ô@@
Bangla@@
hibi@@
rafting
ault
him@@
Capaci@@
arth
claves
Georgi@@
AO
ause
urity
lize
abar@@
theast
signation
rov@@
Red@@
Pak@@
rin@@
Open@@
Neighb@@
concret@@
Interministerial
Satel@@
trate
fes@@
umber
Clu@@
Sé@@
Lt@@
a-
Tab@@
SAS
vent@@
Dist@@
rend@@
Budge@@
extradi@@
MINIS@@
ambl@@
complet@@
FN@@
aco@@
Measu@@
Revolucion@@
plementary
istan
condu@@
Centro
reas
iliz@@
dang@@
ár@@
Solici@@
spi@@
siti@@
Comité
anos
uda
irrig@@
Prohibi@@
sympa@@
vid@@
Comm@@
auto@@
Norte
gab@@
Sic@@
manifest@@
ascend@@
tall@@
jar@@
carpe@@
Instituto
ariats
ONG
ourable
debilit@@
ONU
Č@@
Pla@@
supr@@
beli@@
PROVIS@@
alla
larg@@
studi@@
eme
Cot@@
supplement@@
retribu@@
Tour@@
Para
Cay@@
ros
line@@
ern@@
estion@@
theore@@
proportion@@
dot@@
viv@@
ré
prior@@
aso
Prof@@
protagon@@
ales@@
monopo@@
plen@@
reit@@
exhor@@
Sci@@
33.@@
r.
ministering
essness
mut@@
hog@@
gui
CIP@@
Sr@@
hund@@
Safegu@@
Ig@@
osis
Erit@@
PLE@@
eron
moment@@
hac@@
Chin@@
Secret@@
cancell@@
indul@@
yar
Ecuad@@
grow@@
ponder@@
SON
Gonz@@
conscienti@@
ė@@
Isl@@
Zel@@
map@@
facti@@
eso
utiliz@@
cultur@@
Autonom@@
ext@@
quil@@
Cum@@
mascul@@
allevi@@
parame@@
Ibra@@
org
imal
coher@@
remark@@
envis@@
territori@@
perten@@
ş@@
septi@@
ás
prag@@
inhabit@@
Stu@@
Organ@@
Hosp@@
Tay@@
mia
agues
ERO
Domin@@
Revi@@
atial
Corr@@
Semin@@
NO
ier@@
Yok@@
sab@@
bered
remit@@
sob@@
premat@@
spheric
š
stitu@@
ficial
succ@@
ahu@@
util@@
arc@@
Salv@@
MO
Adolesc@@
relat@@
ropo@@
Jord@@
Blan@@
arta
issance
pic
cancel@@
RAC@@
strian
matr@@
consolid@@
entieth
expl@@
enfr@@
inferi@@
RP
amar@@
encum@@
ldwide
Bhut@@
jam@@
fin
ning@@
aper@@
ío@@
protec@@
depor@@
enhouse
Opini@@
mens@@
ocul@@
estructur@@
HUMAN@@
recur@@
ata@@
ORM@@
Ciudad
Esp@@
monogr@@
Tha@@
exas
estions
aden
omen
General@@
pare@@
PROVISIONAL
AGEN@@
idical
nership
Zimbab@@
plies
insec@@
artifici@@
thor@@
ester@@
titu@@
lam
UNIT@@
LIC@@
Nec@@
priori@@
impul@@
cano
reproduc@@
Moham@@
stitution
aleg@@
Claim@@
ploy@@
massac@@
Davi@@
eventu@@
idly
ern
stricts
compo@@
havi@@
euro@@
Afro@@
Qui@@
Multil@@
omas
oso
ív@@
Inst@@
a.
evo
lares
movi@@
IO
Sob@@
conspir@@
lucr@@
color
Cer@@
unilater@@
Cru@@
amation
retroviral
gel
infra
dendum
nine@@
vial
Iri@@
ğ@@
withstanding
versi@@
Lati@@
arte@@
1.0@@
biot@@
trop@@
Liberación
libr@@
policy@@
Quin@@
ulations
egal
ias
tos
lon@@
Ukraini@@
aza
vements
elimin@@
Mex@@
exoner@@
Marco
nun@@
Found@@
Humanos
ethni@@
ACS
Philip@@
dru@@
utr@@
veloci@@
trat@@
zer@@
Derechos
OSE
raci@@
odwill
aceu@@
Thi@@
Tes@@
full@@
polygam@@
paradig@@
tern
Djib@@
uel@@
brin@@
Var@@
regim@@
cate
loo@@
foc@@
cip@@
Burundi@@
profes@@
echan@@
Hid@@
reb@@
emat@@
til
metho@@
bill@@
dio
enna
bai@@
IFA@@
une
siles
Ñ@@
excep@@
Pueblo
anto
IDER
TOS
extre@@
Bru@@
sein
xim@@
pendi@@
tem
grad@@
fraud@@
Liter@@
Bed@@
enes
landscap@@
Pow@@
repeat@@
delin@@
Consid@@
sof@@
aine
cio
pedi@@
35.@@
thorou@@
reciproc@@
Degrad@@
eves
parte
CEE
ced@@
lact@@
Franco@@
luc@@
Obli@@
atis
Kim@@
oum
divul@@
tiously
favor
instructor
PRES@@
destro@@
promis@@
TAR
MAN
CLP
apor@@
SUR
turb@@
č
ativity
gran@@
TEN@@
favorable
mobiliz@@
vera
TIC
gn
Mej@@
COMMIT@@
hect@@
fisc@@
sto
Zeal@@
invest@@
tico
Francis@@
‛
anot@@
audit@@
gé@@
eci@@
suscepti@@
wer
agos
seg@@
Hot@@
obsol@@
singular
SIDA
mercen@@
tines
Oficial
Monte@@
aiga
inhab@@
Colum@@
tia
call@@
ICT@@
mando
evan
vestock
ías
infil@@
friend@@
stu@@
mil
sano
tamine
ć@@
DAS
hwater
Unidad
lightly
hered@@
adver@@
manders
ariat
olen
doctr@@
fruit@@
UNTA@@
alias
Mar
Nú@@
juven@@
Secretary@@
patrimon@@
Casa
grab@@
obic
coerci@@
hara
adir
unic@@
militi@@
critic@@
Cambodi@@
ende@@
orn@@
quet@@
ideline
pile
ö
demon@@
carg@@
staff@@
Tokel@@
elemental
giene
undering
bah@@
IOS
stron@@
wr@@
foreg@@
atern@@
ebr@@
ingual
unes
nica
MEs
..@@
provision@@
CONTR@@
uros
erci@@
omi@@
dad
corrup@@
robu@@
fail@@
philos@@
Addi@@
chel@@
Practi@@
flagr@@
point@@
entre
veli@@
i.@@
electr@@
alian
Pit@@
Stock@@
revel@@
ettl@@
Esco@@
enri@@
Argen@@
commend@@
sas
bas
ploma
Polici@@
star
IED
eget@@
sels
Scho@@
Associ@@
sexu@@
prece@@
casi@@
appearances
HCHR
confi@@
recogniz@@
nez
pied
verti@@
examin@@
rador
quantit@@
Adu@@
nologies
Ç@@
jas
URA
promot@@
arsen@@
cumul@@
disadvant@@
enty
confidenti@@
ECO@@
aten@@
minu@@
Las
tsun@@
ratic
irregul@@
honor
fla@@
autonom@@
lesbi@@
mis
opsis
É
prescho@@
tably
bene@@
ptions
Angol@@
Surin@@
Pes@@
congol@@
Recon@@
Mov@@
audi@@
ulf@@
CEP@@
pered
Equi@@
Polic@@
vali@@
nic
Dut@@
Peru@@
NAC@@
éc@@
mán
CIS@@
tro
μ@@
JO
Solid@@
sul
lle
maxi@@
warr@@
ually
sacri@@
entreprene@@
percep@@
acta
Sym@@
suy@@
Franc@@
CRIMI@@
encia
antes
ş
ende
adel@@
ará
U.
juris@@
graf@@
hep@@
UM@@
jud@@
eco@@
multiplic@@
emas
tention
ı@@
etic
Alto
civi@@
octa@@
langu@@
Finn@@
incenti@@
vivi@@
Abdu@@
you@@
EAC
Nob@@
Libert@@
fide@@
llo
controversi@@
Jef@@
Sur
gado
perpe@@
disciplin@@
Rene@@
isure
bliogr@@
Martí@@
rent@@
bli@@
ray@@
htt@@
ís
categ@@
tutor
Moroc@@
basic@@
apl@@
trech@@
opini@@
solid@@
sam@@
PACE
resur@@
rean
aum@@
Add@@
sede
sé@@
recomm@@
Egypti@@
inval@@
mayo
oj@@
statu@@
cas
Vin@@
volum@@
mend@@
Í@@
tom
MF
plac@@
easi@@
Tran@@
vehic@@
Wed@@
incendi@@
tino
Oriental
confin@@
sir@@
sci@@
vising
ateg@@
Merc@@
ener
Georg@@
concord@@
HK@@
Brazili@@
Mini@@
pend
misti@@
‒
fficul@@
Fundación
bureau@@
victi@@
Fisher@@
oles
Nig@@
urin@@
és@@
Sey@@
vency
Kaf@@
Relation@@
pren@@
cé@@
SOCI@@
reignty
tware
alta
metro@@
conduc@@
stereot@@
optim@@
Taj@@
calend@@
SECRETA@@
freez@@
dico
stoc@@
Subcom@@
nos
rio
anted
prec@@
UNID@@
gram
unas
extraterritori@@
sored
rought
ï
MY@@
propos@@
ORGAN@@
genit@@
religi@@
accur@@
frac@@
atin@@
úl
histori@@
onas
cac@@
lining
Atl@@
gur@@
stres@@
truc@@
nergies
Impro@@
Baj@@
OIT
goz@@
salam
Incorpor@@
Justi@@
lite
publique
coloni@@
asse
environ@@
involunt@@
erial
astern
baj@@
mili@@
IPC
cros@@
amil
Ş@@
Cart@@
Pris@@
estig@@
bud@@
obli@@
Universidad
pregn@@
redistribu@@
mad
Nai@@
destruc@@
TERR@@
eived
measur@@
MINU@@
atroci@@
adhe@@
chang@@
claim@@
indis@@
undi
íos
ovi@@
Centr@@
Vicente
carri@@
vables
sep@@
degrad@@
mandat@@
NU
Nico@@
Colon@@
VIS@@
meta
infec@@
aptitudes
dific@@
desp@@
Prom@@
neigh@@
Blu@@
deca@@
Person@@
puls@@
aida
apa@@
Tok@@
jer@@
adic@@
Arab@@
endi@@
LB
ermo
Swaz@@
acent
mina
DIC@@
alth
auto
Inten@@
STA
phon@@
terri@@
charac@@
posure
aret@@
tremend@@
reten@@
sual
Hung@@
iga
interfer@@
crimen
Asociación
Nutri@@
BH
anja
parli@@
discre@@
reiter@@
lead@@
Vu@@
fraudul@@
dean
akar
how@@
embodi@@
expend@@
usan
ogram@@
vel
plain@@
rus
ben
implant@@
thr@@
Manu@@
TEC@@
aeron@@
faci@@
PAD
arbit@@
zona
dis
contempor@@
Gibr@@
pread
Tribun@@
ios
yana
Cin@@
bul
Oz@@
habilit@@
certain@@
forma
ción
udicial
sus
Gaceta
Muham@@
bos@@
Lom@@
credit@@
º
bia
mittees
ío
Nom@@
Democr@@
maxim@@
CCC
proced@@
añ@@
condemn@@
procre@@
enciales
atiz@@
Meteor@@
entes
å@@
à@@
debi@@
GUA
Mr@@
Johan@@
servi@@
bra
barri@@
este
jor@@
exce@@
trim@@
agen
mera
medium@@
thodox
estra
admi@@
emer@@
namic
nio
quid@@
entitl@@
ás@@
Ü@@
aband@@
ingen@@
brev@@
ENCIA
cussions
ully
Peace@@
earth@@
itance
benefici@@
speak@@
Banco
matricul@@
gara
Exc@@
Inde@@
kav@@
patr@@
ITOR@@
Alta
appropri@@
multin@@
adian
campes@@
bec@@
angular
istics
gned
Truste@@
ús
Commission@@
U.S.@@
gin@@
offen@@
OTA@@
TÍ@@
urs@@
announ@@
PREDE@@
Zim@@
Promo@@
ign
EAN
powering
etas
Abkhaz@@
moratoria
CDI
¶
opon@@
Negro
eleg@@
atu
Fellow@@
enon
concre@@
auspici@@
pment
Ó@@
ä
reper@@
än@@
stir
culpable
anish
Karab@@
idan
YP
traffic@@
ovina
Paul@@
orio
buf@@
CONV@@
eto
refoul@@
extraordin@@
intensi@@
RAE
adhi@@
Sá@@
Volunte@@
Assist@@
è
arios
acep@@
dé
Alg@@
requisites
humanit@@
etes
WIT@@
ultim@@
Ä@@
Dub@@
mittee
Peo@@
ind
magistr@@
Ins@@
tali@@
felici@@
nen
lined
tonom@@
pertin@@
incipi@@
schem@@
pis@@
corpor@@
irreversi@@
lament@@
por
miting
ophobic
orno
amas
sectorial
mant@@
ł@@
uds
ouvelles
volunt@@
SON@@
amarca
akarta
reover
abies
Antil@@
acio
umer@@
TERS
uela
effici@@
Respec@@
Memor@@
Ind@@
THER
~
ICM
swana
Mujer
intly
jus@@
Diario
acho
zar
canal
Yor@@
antic@@
eft
controver@@
orado
gos
respond@@
itan
Terr@@
Inqui@@
rennial
Slov@@
Montre@@
Con
ikh
ateful
inte
semi@@
▸
pos
Å@@
pover@@
stain@@
alco@@
arrest@@
zan
Su
Uzbe@@
genes
đ@@
ateness
mach@@
pop@@
arias
ECHA
overlap@@
evit@@
comput@@
versity
Bulg@@
Paci@@
Joh@@
Yugosla@@
Movimiento
ocol@@
VEN@@
atim
edo
diri@@
eño
Tuni@@
obste@@
ocaust
Mode@@
vio
ă@@
proven@@
foul@@
Docu@@
Second@@
omis@@
string@@
aban
cipe
Montser@@
problem@@
amento
convo@@
sio
retrovir@@
Catho@@
Nuevo
SGP
ugg@@
oble
atra@@
clandestin@@
cumulation
constru@@
menti@@
UNAMI@@
kara
adju@@
ans@@
amphe@@
zonas
interes@@
Tele@@
ale@@
Partido
efings
jurisprud@@
Este
itual
recommend@@
alc@@
manif@@
Adap@@
gast@@
iden@@
Hammar@@
kering
corrob@@
Compet@@
nological
orgi@@
ads@@
İ@@
primordial
Ecu@@
logis@@
cir@@
imprison@@
lars
stria
anese
Nueva
eres
proxim@@
Ces@@
Programa
gou
fiting
tera
Discrimin@@
emaking
invit@@
accompan@@
py
udo
amoun@@
onel
mutu@@
telecom@@
pap@@
fum@@
Pau@@
ength
Libertad
estre
Chem@@
schedul@@
inund@@
SEG@@
offici@@
Dos
toman
embol@@
ongan
deple@@
ONUCI
Alem@@
matrimon@@
clin@@
DAW
volati@@
─
conden@@
pier@@
explic@@
fur
alde@@
Democ@@
²
frica
pero
Consider@@
Summ@@
accid@@
Pier@@
Parti@@
Tot@@
limit@@
Teher@@
cion@@
hos
̓
Mujeres
troop@@
try@@
Europa
alist@@
dologies
uries
assification
peac@@
bera
extraj@@
horizon@@
reduc@@
atering
ń@@
compet@@
consecu@@
Unión
Abe@@
suspec@@
tob@@
Abi@@
agas
oros
ager@@
udici@@
tó@@
ITR@@
Famili@@
logi@@
sel
assan
testimon@@
ğ
orph@@
rety
sica
bric@@
bean
rios
primi@@
Sanc@@
bien@@
tien@@
adjun@@
www@@
convoc@@
erta
Schem@@
deo
tod@@
café
traf@@
dise@@
éci@@
Indone@@
sos
ír@@
matri@@
atom@@
phenom@@
ė
SET
ados
esia
mee@@
illas
andia
figur@@
tir
sang@@
atura
ticl@@
HCR
zos
aflu@@
Raci@@
metal@@
aí@@
Jerusal@@
SEM@@
peso
casion
Alianza
transport@@
mercur@@
orama
amic
Kig@@
.U@@
Estr@@
trib@@
Mog@@
ista
Lithu@@
ADO
aftern@@
Intel@@
TC@@
ECHO
atitis
aré
poster@@
ín@@
togr@@
Brit@@
jos
Guardia
adora
CON
Registr@@
enal
rein
abu@@
æ@@
recre@@
Haya
î@@
sidy
gratuit@@
2n@@
Ø@@
Cabo
Carta
restitu@@
telef@@
acus@@
endo
Campa@@
CHA@@
umen
Deport@@
úl@@
reluct@@
DCI
excus@@
roup
vey
Conserv@@
eza
Ugan@@
tul@@
exterior
dable
gil
sana
stru@@
arlo
sico
Elena
10.00
gust@@
fab@@
Proper@@
preven@@
osing
Dang@@
vida
plici@@
Proto@@
miner@@
sedes
Federación
tenor
Infra@@
lid@@
□
ativ@@
dum
reo
Smart
expres@@
anse
atos
&apos;af@@
anium
ganis@@
inici@@
Familia
gü@@
demor@@
roga
ligence
lez
Sre@@
tero
Comisión
jing
nance
ANCI@@
bano
Cari@@
Desarrollo
Minas
ulterior
aut@@
gratu@@
lidays
Abid@@
esqu@@
Auxili@@
URA@@
oners
õ@@
cow
Destruc@@
ñas
Mant@@
Falk@@
Vivi@@
cali@@
estruc@@
sands
CHA
ece
clav@@
Renov@@
DEV@@
attain@@
since@@
terns
tales
fruc@@
iran@@
plement@@
fair@@
Janu@@
Refu@@
Ivo@@
esta
intan@@
mej@@
Uru@@
inso@@
eas
sil
nuevo
Belgi@@
Twel@@
suspend@@
Tec@@
china
lleg@@
offic@@
converg@@
gani
mass@@
compati@@
curs@@
Yemen@@
Substan@@
Escu@@
tenance
ü
solicit@@
halla
ento
aten
maras
stos
tially
CIM
reds
immedi@@
aab
tack@@
SOC
MENT@@
orge
mano
equivoc@@
defens@@
puer@@
Occidental
pici@@
rá@@
GAN@@
Kimber@@
Afghan@@
ación
Santi@@
imo
termine
independ@@
Bret@@
orative
peo@@
help@@
vest@@
osla@@
innoc@@
SAL
QUE
ést@@
onda
jubil@@
osen
Tali@@
Free@@
contra
Ley
Soc@@
₤
request@@
ogar
conci@@
Gran
Defensoría
verg@@
assist@@
pronunci@@
Bagh@@
Mauricio
Implement@@
seve@@
consensu@@
m.
adjust@@
Isra@@
orable
magn@@
eply
teb@@
ños
antec@@
oub@@
math
entro
argum@@
zco
espe@@
repar@@
Consejo
Austr@@
relev@@
ál@@
estable
aras
limp@@
ALES
sala
Pé@@
Compens@@
Micron@@
compe@@
UE
Vé@@
respir@@
detri@@
eces
CEI
stat
sero@@
Igu@@
caza
Vene@@
Jos@@
poin@@
Acción
ctic
Đ@@
Internacional
hosp@@
acer
ī@@
diab@@
Luxemb@@
Fiscalía
abar
Granada
uly
undoub@@
apeutic
itos
PROB@@
Pueblos
centen@@
Sept@@
outi
Bei@@
esca@@
Turkmen@@
rado
submit@@
Treat@@
consider@@
Traf@@
Cair@@
orrow
◦
Plen@@
civili@@
cipi@@
Proc@@
mea
Caribe
pretend@@
concede
novi@@
prelimin@@
evolu@@
conjun@@
uras
ē@@
Tomé
Lus@@
ém@@
Ú@@
LEX
ww@@
faires
abon@@
Princip@@
amentary
RECOMMEND@@
ember
2.0@@
Taiw@@
Recommend@@
acia
а
eca
Fas@@
mento
Tempor@@
º@@
atas
Vida
Gren@@
idance
PNA
Rey
inevit@@
udit@@
arme
Cen@@
usas
CEDE@@
fil
refl@@
metro
cial
gua
celeb@@
tionment
sove@@
neon@@
obia
CEPA
opera
guer@@
provid@@
applic@@
Nación
Puer@@
upul@@
reim@@
inste@@
agricul@@
insk
Cali@@
enia
hael
Elev@@
uen
ficar
vos
Leb@@
ieran
1.9@@
remn@@
jer
MOZ
\
armon@@
Defensor
proclam@@
arla
unto
Exist@@
lubric@@
primer
Atlántico
Ć
apar@@
fres@@
Asy@@
adas
gibles
amia
Comun@@
Defensa
Agre@@
ambia
ariz@@
americana
ougou
ahar@@
ári@@
iba
1.5@@
Switzer@@
○
dir
trab@@
vesti@@
Habit@@
lamentable
libert@@
basel@@
idad
México
Justicia
disu@@
commensur@@
dimen@@
valor@@
pliance
toc@@
ités
‐
sider
Procuraduría
Confer@@
terroris@@
acum@@
0.000
kina
Isla
ejo
otas
Misiones
USA@@
austo
1.8@@
Feb@@
essel
Chamb@@
Pers@@
acat@@
dices
ería
・
zel@@
Aliment@@
encour@@
method@@
CCI
aquel
1.4@@
alej@@
Ví@@
Ministerio
g.
measu@@
condol@@
jö@@
gov@@
spaper
Carib@@
Estudios
о@@
α
Brasil
entre@@
arse
Swit@@
ghai
acom@@
creen
boli@@
stere@@
Croati@@
Swe@@
Milit@@
adopt@@
Ejército
Civiliz@@
persona
1.7@@
Grupo
Ira@@
Reforma
algo
intro@@
Sin
ajo
Palacio
apro@@
mu
takings
ã@@
requi@@
½
bale
suppor@@
oxi@@
adores
monit@@
overn@@
noci@@
ónica
seiz@@
Mix@@
а@@
tir@@
Nel@@
experi@@
ç
bol
incit@@
Weap@@
obra
especi@@
ativa
anía
orer
contribu@@
costa
combustible
Público
banda
Estado
suffici@@
accred@@
acl@@
Roy@@
sugg@@
inju@@
años
rean@@
detain@@
hec@@
prom@@
nias
wish@@
ría
Guerra
PRK
otho
ún
cannab@@
nico
icos
vidence
bir
mares
Exerci@@
eran
otogr@@
merc@@
racis@@
Public@@
HAB@@
pañ@@
uso
ón@@
Corrup@@
guiar
ogies
zeg@@
Dios
Herzeg@@
Indígenas
dote
Commer@@
refr@@
stre
1,2
visit@@
ONUC
turi
dó@@
budge@@
idas
prehensive
Buj@@
ilu@@
PMA
100.000
Settl@@
vé@@
Migu@@
xen@@
armar@@
ø
Norweg@@
izo
América
dram@@
Faci@@
recurr@@
investi@@
Vig@@
Nº
brevi@@
Sistema
inali@@
excel@@
esco@@
acto
ampl@@
imen
tado
lant@@
dox@@
Latino@@
hay
pod@@
Rehabilit@@
tura
avía
ENTA@@
mechanis@@
FIDA
forcement
zada
β
República
1.6@@
ocu@@
psi@@
rw@@
Ucr@@
flic@@
vivo
holm
contemp@@
edad
Libre
lap
Latina
hran
ICOM
stas
Tierra
wait@@
uran@@
Armadas
tard@@
pd@@
assin@@
Mesa
ADES
rar
Propor@@
Eradic@@
diarr@@
vice@@
ð@@
Unidas
exper@@
sembly
apur
contrario
Rumay@@
egan
apest
Berm@@
enterpri@@
ﬁ@@
redon@@
opre@@
coordin@@
emos
emen@@
require@@
cotics
ác@@
haya
sobre
dulo
asta
tutela
SCN
Mundo
Octob@@
elas
basan
receptor
ECON@@
ś@@
acer@@
titular
estar
Offici@@
apporte@@
ū@@
asen
Apri@@
reduci@@
cay@@
adjourn@@
pens@@
nerg@@
extend@@
Congol@@
9.00
accompli@@
stud@@
Trabajadores
GEI
vista
solidar@@
Escuela
tores
spons@@
FEM
reland
oler@@
ecos
naissance
bound@@
exerci@@
mundo
ń
OMI
IDS
Portugu@@
provinci@@
Cuad@@
Exces@@
Vigil@@
swi@@
ígena
Pob@@
1,1
itali@@
Kiri@@
oural
pala
Oportunidades
Medio
aju@@
posteri@@
stig@@
oca@@
Aviación
git@@
Derecho
rique@@
Junta
Colegio
TAD
CCT
censu@@
IPO
revis@@
ECOM@@
especial
descri@@
ahari@@
coles
Stockpil@@
minas
Seychel@@
grande
pau@@
decen@@
Län@@
aé@@
armoniz@@
tranqui@@
amental
mainstream@@
CORD
tara
ted@@
dialo@@
е@@
Tier@@
tiva
agü@@
†
Recu@@
certific@@
trater@@
great@@
¹
Investigación
acre@@
Luna
Subsidi@@
abouts
País
verd@@
cup@@
icana
SOA
Sala
enjoy@@
perturb@@
ř@@
Nos@@
®
pula
erve
Perform@@
ebra
endas
espir@@
Organización
amina
umn
vend@@
Recover@@
Appe@@
Ej@@
Confeder@@
Febru@@
col
́
2,2
ritori@@
erra
tit@@
weg@@
CHAIR@@
llu@@
ţ@@
opar@@
Nos
actualiz@@
dice
finan@@
PY@@
aguar@@
ourn@@
13.15
reclu@@
orest
estral
gendum
epers
Transi@@
Naur@@
MDL
Icel@@
municip@@
ismo
CEPAL
vivir
mall
1,3
PRESENTA@@
anzas
bidity
Movi@@
panorama
vicul@@
OLU@@
lea
р@@
camp@@
inoc@@
egos
Corporación
nex
Fore@@
moud
Thurs@@
libre
arán
Academia
Educación
foreign@@
Ä
genuin@@
indispens@@
andums
enica
incar@@
fique
ODM
unpreced@@
paragrap@@
desg@@
Investigaciones
tima
MINISTR@@
tradi@@
lesias
apu@@
minor@@
paradi@@
Sociales
prolon@@
ves@@
recy
hind
aren
Salud
ECONO@@
Demob@@
Aper@@
Ε@@
arre@@
Coordinadora
ÍA
audi
gubern@@
partes
ypti@@
PAO
â
anon@@
Pru@@
subsist@@
RAW
ý
Anguil@@
inco@@
luor@@
Dirección
Un
sores
afro@@
Fondo
adoras
ouvel@@
Fuerzas
icals
aña
ESC@@
Si
Monter@@
mujeres
sile@@
.000
aje
icano
anch
Promoción
soldi@@
inistr@@
Anu@@
Armas
triparti@@
Bougain@@
NUD
Hay
ecas
Registro
WAS
año
ahor@@
MITTED
phonie
rector
simo
proce@@
logr@@
Aero@@
eren
otra
Niños
esen
udge@@
Fuego
Proyecto
coloc@@
Defens@@
alber@@
Camer@@
bilit@@
pie
Misión
tras
izar
Solidaridad
vistas
Democrá@@
bodi@@
ebe
atem@@
bili@@
Indemn@@
Palestin@@
anterior
publica
ength@@
ications
proto@@
Ivoire
mater@@
ę@@
mites
cidental
esec@@
omon
Perú
Kuwa@@
Egi@@
tivo
polici@@
altar
disproportion@@
superfici@@
miti@@
Italia
ligr@@
cic@@
11.00
ps@@
trato
reza
COMMITTE@@
α@@
OCA@@
ō@@
Democrática
mero
Activi@@
abila
prepar@@
paul@@
domicili@@
Offic@@
fér@@
erved
edas
cron@@
Fortal@@
adura
Nacion@@
limin@@
plano
Mercado
titudes
España
Política
plica
Fom@@
Salas
Tajik@@
Neigh@@
Telecom@@
gover@@
ingl@@
cera
acias
ô
CONSE@@
Interi@@
locales
Agua
venida
toge@@
OEA
Telecommun@@
idos
Boletín
Juventud
prefi@@
rase
mum
tres
favo@@
reau
heg@@
Tail@@
å
consist@@
depur@@
tiner@@
ą@@
core@@
nea
responder
Todos
Ö
Ð@@
gola
Ð
Pública
noc@@
Preven@@
Atom@@
Contra
Đ
deg@@
dless
tenstein
immen@@
desarrollo
Kof@@
Coronel
mala
emente
elis
concern@@
Darus@@
hora
RIO
ething
4,5
shment
adera
Superi@@
habi@@
Centro@@
amily
finaliz@@
prac@@
15.00
12.00
gestion@@
retur@@
ficada
sibi@@
Canad@@
ǧ
Ital@@
ò@@
н@@
Persist@@
Se
Sociedad
ól@@
Empresa
orias
Coali@@
monet@@
deserti@@
encement
entos
favor@@
5,5
Comercio
rote
interi@@
Niñez
quiz@@
и@@
Territori@@
olly
RECOMM@@
Policía
mec@@
✓
bios
16.30
ū
aliment@@
Abogados
áb@@
ě@@
Democracia
universi@@
ă
volver
atmo@@
endos@@
Ï@@
hiri@@
Oriente
invol@@
ministeri@@
ensa
Uzbek@@
when@@
Age@@
giers
vea
ministr@@
demand@@
Trabajo
esas
condem@@
˚
orny
Nether@@
evertheless
PNB
necess@@
Braz@@
causa
facult@@
írit@@
diag@@
acar@@
consen@@
alista
anean
rama
saldo
auten@@
CLD
miento
incen@@
icas
accep@@
stake@@
cara
cional
alent@@
porte@@
comings
erro@@
entales
Familiar
û@@
Fomento
confec@@
dely
corpo@@
narco@@
plaza
apos@@
с@@
Cypr@@
bolivi@@
Tema
pluri@@
2,3
Fiduci@@
fera
seman@@
aseg@@
derechos
lanz@@
tí@@
dures
14.30
Jurídica
Ł@@
Seguridad
inno@@
Belar@@
scho@@
establish@@
leav@@
Aby@@
americano
pasar
bien
γ
along@@
congrat@@
oriental
En
OTR@@
Apoyo
refle@@
aciones
Independencia
mez@@
zbe@@
Jap@@
nuevos
Ár@@
ongs
amiento
vencia
ņ@@
aspec@@
dela
nación
bercul@@
nology
2,5
Observatorio
nium
solo
bá@@
PRESID@@
abre
atuto
pleg@@
prohi@@
18.00
empo
esté
Econ@@
Judici@@
Republi@@
cen
integ@@
Tú@@
pó@@
tribun@@
ÓN
ecosy@@
correg@@
1.000
extradit@@
poor@@
ASSEMBL@@
Portu@@
yun@@
conse@@
Interna
Sindic@@
olonization
Srp@@
16.00
Sr.
ativo
Militar
viser
entific
Americana
Hammarsk@@
OCI
atir
twel@@
ezas
perspec@@
encontr@@
Wednes@@
istr@@
herein@@
subterr@@
FMI
rigor
solem@@
Know@@
paz
campesinos
alto
grandes
Extern@@
tada
ESPEC@@
Panamá
5.000
ticos
ı
2.000
Protección
nist@@
notables
Voc@@
tawa
Xen@@
Strateg@@
Príncipe
Grow@@
estad
Autor@@
brech@@
Σ@@
oras
6.000
feasi@@
doy
Sovie@@
certainties
bern@@
ENCI@@
Refuge@@
Género
Sudan@@
puedo
50.000
osas
organiza
Autónoma
Cooperación
casus
Κ@@
GENER@@
armada
teza
Kord@@
Seguro
opin@@
Á
detención
ž
Ambi@@
mistreat@@
posterior
Secretaria
Estatal
precurs@@
ù
absolu@@
boa
ases@@
Cypri@@
aun
Asociaciones
ő@@
dios
Ś@@
algun@@
valu
ļ@@
Extra@@
Ć@@
Convenciones
desir@@
entiary
aría
brit@@
1,5
Monro@@
Estu@@
1,4
Corte
aretz
±
paso
etres
Comunidad
obten@@
Especial
prosper@@
diam@@
ā
amili@@
fig@@
Agencia
ecu@@
Cultura
Comunicación
jes
tela
clud@@
Tercer
Memoria
fuentes
Servicios
alcan@@
Asoci@@
Consen@@
Liga
proper@@
13.00
endos
Coven@@
fos@@
indon@@
lenti@@
Que
Islas
Ciudad@@
Estudio
umbr@@
Fuerza
perpetua
foros
Infancia
³
atac@@
acción
Procurador
ň
Una
marinas
Foro
А@@
targ@@
llos
ries@@
angered
Alban@@
egro
indone@@
ingness
nom
Primer
È@@
lech@@
juni@@
dox
rese@@
multifac@@
effor@@
√
embre
Violencia
haci@@
asol@@
redi@@
deserv@@
banes
repre@@
excell@@
acel@@
aca@@
ishu
privileg@@
Exterior
ß@@
medit@@
Pret@@
inton
rescent
castig@@
KOM
2,4
volvi@@
Wash@@
familia
Financi@@
sí
Chern@@
Aspec@@
ganiz@@
cual
dura
Unidos
olum@@
Lucía
inson
Comandante
haz
depart@@
enl@@
Resolu@@
ensur@@
coopera
recurso
Æ@@
Secretaría
probl@@
ģ@@
elow
Confederación
edores
produci@@
ê
Bá@@
establ@@
Organizaciones
alban@@
Brus@@
inta
POR
sola
juez
Egyp@@
eler@@
OMC
roqu@@
Energ@@
♦
criter@@
❏
deren
puni@@
smo
jöld
3.000
arto
rás
iten
extrater@@
guila
uctu@@
cra
ledge
Forest@@
adh
Colec@@
ň@@
siri@@
colom@@
Apar@@
tame
vit
usar
Socorro
Kazakh@@
antar@@
Ambiente
efec@@
aníes
extrem@@
acred@@
Tues@@
reflexi@@
ª
Araf@@
Treas@@
apareci@@
syst@@
erian
firme
cellan@@
RESUM@@
ANTE
Segu@@
ñ
Naciones
jurisdic@@
Socialista
pornogr@@
3,5
deste
Honorable
Č
Habana
Comis@@
10.000
aguas
Myan@@
estab@@
estat@@
Amigos
sumo
×
dares
preco@@
matern@@
Gé@@
link@@
Aé@@
΄
tora
ís@@
cito
с
PYME
portu@@
turno@@
［
Instituciones
17.00
Minister@@
suppli@@
］
isra@@
estas
bras
Permanente
canti@@
cada
20.000
impugn@@
atorio
Ukra@@
bati
ulti@@
Generales
ý@@
pora
Cuando
labor@@
representa
refuge@@
PERSON
œ@@
OMM
Integración
Atención
Segundo
entrepreneur@@
¨
sima
ayos
elos
Américas
TPCE
sami
simultane@@
zas
yac@@
ų
quía
Kyrgy@@
leo
oung
much@@
Recursos
tros
tró@@
orig@@
Ė
uct@@
Acuerdo
humanos
guid@@
unil@@
ancia
zaje
consulta
Rodrí@@
raí@@
hiriya
д@@
Servicio
tida
Fines
Agricul@@
Encu@@
1,6
clar@@
ambos
itaria
pali@@
Ayuda
Ó
afir@@
dej@@
juntas
Empleo
Gonzá@@
ї@@
UNIP@@
Leban@@
boles
mayor@@
‟
ggest
abes
sito
valle
ã
asal@@
Resour@@
casas
regar@@
guardi@@
Distrito
stanbul
Espacio
Adolescencia
ficio
udos
gencia
presidi@@
sibles
respons@@
BRE
Por
azón
Ciencias
selves
Cá@@
Hait@@
Ι
toxici@@
prisión
к@@
dole
gama
talla
acor@@
Ø
acional
ß
turas
Musli@@
IDAD
ví@@
л@@
numb@@
obje@@
.m
VEM
fes
∑
Pitcair@@
casa
Políticas
Fuer@@
marc@@
austr@@
óm@@
vale
licenci@@
ENTA
adie
plaz@@
ŭ@@
Kyo@@
Departamento
empr@@
feb@@
Latinoamericano
ghly
Modelo
strong@@
raza
Vivienda
uge
espon@@
icio
robo
nota
ì@@
acen
м@@
в@@
©
gran
oner@@
■
Vanu@@
iop@@
OIM
Comunidades
ENTO
hubi@@
Cuer@@
Kyrgyz@@
oría
Atlán@@
Fisc@@
.m.
Centros
А
cido
torio
advoc@@
bast@@
derecho
Ι@@
Estados
abaj@@
sino
Salom@@
rece
erte
Presidente
е
faz
suya
taria
В@@
governor@@
eños
Prest@@
Coalición
Kyr@@
Azul
entra@@
afron@@
jord@@
relation@@
suma
Supre@@
Perman@@
Ê@@
note@@
posiciones
aville
sost@@
ejecución
comi@@
inculp@@
segu@@
rogas
depen@@
mería
delegado
reros
imos
30.000
eje
ciones
hí@@
OSSI
personas
ǧ@@
1,7
alidad
nó@@
Línea
orden@@
admis@@
Naqura
nerships
culpa
Biss@@
sula
ķ@@
ólica
pagos
cargos
IDAS
Código
enmi@@
Rumania
Resistencia
Caja
teo
iddle
Fronteras
Supremo
Lisboa
progenit@@
т@@
rá
ڤ
ativas
demos
Económica
sociales
Knes@@
multa
freed@@
¢
fue
hech@@
Asamblea
ź
ð
manos
Facultad
usal@@
Volunt@@
sión
Jóvenes
efin@@
perio@@
multisectorial
ié
ż@@
Competencia
defensa
MEE
autor@@
enos
sug@@
preval@@
má@@
queda
trafamili@@
Ries@@
yug@@
Complain@@
gios
ľ@@
Quarte@@
palestin@@
ambular
nacional
Toda
pecu@@
incorpor@@
umbura
CEPE
˗
deten@@
vot@@
Comunic@@
adero
dica
futur@@
remain@@
dedi@@
chas
п@@
cá@@
wides@@
alcal@@
Igualdad
Empres@@
azgo
Oficina
Especi@@
Juntas
Hungr@@
increas@@
afin@@
ellas
competencia
apatri@@
sectori@@
pico
hoy
Philipp@@
erit@@
reclusión
vivos
Mundial
vender
recer
ulares
Bangk@@
Industria
eneral
MAM
idades
Ô@@
interpret@@
Común
Información
Ecuatorial
challeng@@
4.000
deman@@
arle
Particul@@
Envi@@
taba
usted
obras
indígenas
ENTE
Penitenci@@
trata
apel@@
noven@@
Población
teci@@
pant@@
PROFOR
gesti@@
¸
previ@@
fí@@
marg@@
ím@@
pueblos
€
américa
afore@@
Urbano
agad@@
liveli@@
symb@@
aliente
abed
tá@@
deplor@@
С@@
′
tivos
patria
acab@@
noctur@@
culo
upo
Bienestar
Convención
VIH
dosis
Plataforma
β@@
íes
у@@
dido
prome@@
Liech@@
día
Comercial
Aristi@@
comités
visibles
Common@@
Т@@
caj@@
Freed@@
PROGRA@@
Infantil
ján
publ@@
ricos
acion@@
Cuerpo
CION
proceed@@
Trabaj@@
б@@
estudi@@
toria
recen
compon@@
há@@
aties
antisem@@
Facult@@
encad@@
fica
Técnica
ariado
Televisión
Org@@
ITRAL
ística
codific@@
dias
curred
allan@@
itario
strial
ilst
steni@@
suelo
inio
goce
pivot@@
masi@@
ferro@@
afía
estro
hase
acos
Migraciones
entidad
Lucha
ueb@@
lawy@@
DMI
crit@@
ĝ@@
Humano
niños
Operación
alega
ática
tación
whel@@
ingres@@
apon@@
alice
nicas
lifer@@
и
Ń@@
Presidencial
visión
Prevención
distri@@
Eti@@
hecho
^
Constitucional
ĸ@@
Meto@@
Iniciativa
Α@@
uales
equidad
él
colombi@@
yester@@
americanos
íg@@
datab@@
abiliz@@
6,5
teros
;
justicia
bure@@
áfico
íci@@
abril
amente
Tierras
500.000
MINUR@@
Formación
mesa
lí@@
esos
tido
К@@
ticias
Ü
atro
sario
15.000
degre@@
Señ@@
Tashk@@
Personas
occur@@
aní
hayan
1º
arqu@@
exis@@
franco
includ@@
Comi@@
ús@@
Pelind@@
provin@@
Internacionales
ò
Statis@@
velar
‑
Enl@@
Madag@@
Naqu@@
І@@
Prim@@
mujer
Å
Poder
ología
◊
olución
Estatuto
cosa
fá@@
astos
Mónaco
lista
liza
seno
Gobierno
aisl@@
Τ@@
gia
conduce
0,5
hoja
õ
guerra
violencia
Provinci@@
Empresas
Î@@
Pacífico
dren
banc@@
ativos
Cuarto
Espaci@@
Alfon@@
ticle
1,9
meas@@
Coordinación
25.000
200.000
0,7
prepa@@
entar
Milenio
Racismo
strucción
déci@@
positivos
icanas
Mozambi@@
TCP@@
Segunda
amientos
Intoler@@
Cambio
defensores
delito
Abog@@
otropic
ˋ@@
Е@@
Técnico
Shaab
estic
Periodi@@
quinas
pagan
Fiscal@@
custo@@
orías
fondo
cili@@
isión
Región
Ķ@@
9.000
Umo@@
Ş
mora
protección
óg@@
guro@@
europe@@
tener
huel@@
№
inicio
strength@@
icanos
sensibi@@
ARIO
sico@@
Centroamérica
intersectorial
sober@@
utic
00.000
2º
eligi@@
amorti@@
islas
Excel@@
Ã@@
OUA
accord@@
Abk@@
equilibr@@
curri@@
comunidades
menores
й
más
Tortura
cias
Estudi@@
artes@@
У@@
Proceso
Ambiental
plani@@
enton@@
marina
gando
tú@@
Alimentos
aparte
daba
ugosla@@
Ε
fiscales
Zona
egación
verde
Corona
prest@@
París
versión
mientos
negoci@@
Juristas
haps
enten
elop
arrol@@
̆
lesa
ǎ@@
Dominicana
soph@@
libres
Ç
UNMI@@
Bolivariana
О@@
ampar@@
Verdad
tema
cán@@
7,5
viron@@
siva
1.100
tubre
vini@@
MERCO@@
Informe
andes@@
signific@@
internacional
vaca
Decreto
Hacienda
eos
Enlace
conduci@@
likeli@@
bass@@
franc@@
2,6
todos
Califor@@
iente
colo
Sede
familias
‡
progenitor
Libro
só@@
Menores
jueces
appoint@@
Administrativo
Congreso
ETN
agreg@@
Ampli@@
Materia
intér@@
Ľ@@
Financiera
produ@@
penas
1,8
ajeros
Α
endencia
pla
unte@@
Grandes
dado
libertad
ecos@@
oport@@
ambas
haber@@
alidades
Víctimas
buen
，
ο@@
idera
venci@@
ún@@
threat@@
interna
dón
Equipo
Migración
È
Transporte
hipo@@
ź@@
arías
Š
deduci@@
genera
Lí@@
aldad
lesia
Smugg@@
traz@@
terrori@@
guatem@@
tendi@@
о
Х@@
Comités
я
CAPI
Gestión
ţ
7.000
strum@@
defici@@
osos
etheless
dives
Independiente
satisf@@
hospital@@
comun@@
género
stico
Garanti@@
úr@@
jorn@@
llam@@
través
Armon@@
hito
mugg@@
Abeba
antir@@
Todas
≤
Capacitación
Cambo@@
Genoci@@
propio
ecer
dades
univer@@
piez@@
endum
lado
liance
empres@@
broadcas@@
contrat@@
appear@@
jera
announc@@
Políticos
14.45
sexuales
з@@
Presu@@
1.200
₡
routin@@
sening
obier@@
pupil@@
salud
trabajo
inconsist@@
Tecnología
sewhere
alización
queo
comparables
enales
ī
Estratég@@
taller
quen
pueblo
haber
Telecomunicaciones
teras
ellos
recibo
menor
І
Refugiados
Ens@@
gráfico
seria
Orgánica
furb@@
cero
mias
asum@@
Ingen@@
Administración
Consejos
histor@@
vulner@@
eventos
increment@@
►
argument@@
encias
12.000
tivas
Pequ@@
municipios
essive
pasa
orcio
endan
①
40.000
suel@@
luch@@
militar
absorber
Saraj@@
Organismos
Relaciones
funcionario
Â@@
capa
opio
niñas
venido
satel@@
ernes
1.500
Funci@@
Drogas
Laboral
erías
peque@@
orden
niñez
urales
DEVEL@@
jardin@@
congr@@
istas
Estadística
sias
ʻ@@
asoci@@
zado
ё
М@@
Ś
Argelia
barrios
cidad
Conferencia
Ο@@
Ingenier@@
poder@@
ofre@@
Orden
Primera
Francia
gados
difi@@
tario
grama
Interamericana
tangibles
comport@@
llama
Pobreza
minister@@
mente
ocer
Gabinete
Pacto
hoso
Canadá
Medit@@
reste
docum@@
misi@@
≥
Ases@@
В
hogares
│
Pue@@
Mediterr@@
edonia
Diálogo
Transpar@@
comunitarios
Iglesia
ofluor@@
Enseñanza
Extranj@@
enor@@
atividad
alud
oren
Médicos
enar
rumb@@
materia
apas
áli@@
Palestina
Gobern@@
barrio
plom@@
ajuste
ejer@@
Senado
penal@@
Aplic@@
Interinstitucional
culos
garantías
respe@@
islam
educación
explici@@
agrap@@
servici@@
Civiles
tares
especiales
Como
ĺ@@
ág@@
como
información
¥
untos
250.000
）
privi@@
vive
indag@@
Menor
Instancia
Presidencia
Deserti@@
etap@@
г@@
entor@@
Tlatel@@
bulo
cológ@@
espacial
toras
vivienda
seguir
vino
quem@@
Damas@@
Agrícola
vigor
iban
Respons@@
٬
Prolifer@@
Situación
Comisiones
adolescencia
60.000
Litoral
naci@@
apun@@
nada
Parlamento
adolescentes
veci@@
percent@@
ď@@
territoriales
servicios
canadi@@
300.000
µ@@
sociedad
CNU@@
exac@@
sabe
Cô@@
aterra
ů@@
autob@@
Independientes
indígena
tratan
valor
Públicas
itarias
discu@@
agres@@
Alimentaria
ogé@@
Cámara
▫
jef@@
trafamiliar
justific@@
peru@@
División
ġ@@
Salomón
delegados
redu@@
entras
mí
mex@@
Trata
②
empos
urch
Uniform@@
Ingres@@
Ż@@
alza
atorios
defend@@
cambio
escuela
madu@@
pida
tróleo
quebr@@
reforma
Í
pública
logía
Emergencia
hija
inequ@@
ónico
alismo
cier@@
ciudadanía
migrantes
Occu@@
poder
japon@@
anteri@@
ológico
welcom@@
Parlament@@
Discapacidad
Campaña
efic@@
casación
IOL@@
̶
enen
Interamericano
occidental
Ñ
yera
Directora
acía
alre@@
cuar@@
Brigada
cina
tasa
indios
idores
dida
Naturales
iales
toría
Mult@@
Turismo
explan@@
fij@@
política
acce@@
laboral
accor@@
partida
what@@
Agricultura
Profe@@
PARA
SEGUR@@
PNUD
antías
¼
siga
Especiales
fabri@@
yendo
Vigilancia
oeste
íritu
ť
ogia
debo
musulman@@
prescripción
tesis
Obras
cust@@
Ocho
medidas
aison
Grupos
Médico
Asistencia
ą
enario
remos
С
empo@@
Aum@@
recipi@@
Roja
Я
difer@@
centros
Pobl@@
ĭ@@
ocho
ﬂ@@
ificación
Inteligencia
oqui@@
Economía
Guía
ascar
Faja
Pover@@
Económico
Antár@@
considera
argen@@
2.500
meras
2,7
fellow@@
enero
proceso
Erradic@@
indisi
Planificación
ő
incum@@
Caim@@
previa
enum@@
clan@@
áu@@
ĕ@@
ě
ficking
udas
arresto
antil
Р@@
▾
pita
Polonia
Estrategia
Quinta
copia
Golfo
Ë@@
※
diversidad
andos
memoria
uelos
ACNUR
Sáhara
agreb
Estadís@@
fuer@@
TNP
Mitrov@@
aduría
neas
Γ@@
juicio
Reglamento
◙
salvo
grado
Almat@@
pareci@@
∕
seguridad
otros
Marrak@@
guía
ł
decir
mavera
assum@@
hagan
unities
colonos
″
fas
19º
Bagdad
tener@@
Africana
Periódico
̄
mesas
‰
desaparecidos
Alimentación
instaur@@
ì
déc@@
Día
sean
juici@@
áne@@
acord@@
Comunicaciones
perpetrat@@
Leona
iniciar
sosti@@
circ@@
alizado
GTE
Acceso
productiva
precur@@
áfica
compri@@
seph
З
й@@
argel@@
î
sistema
Exteriores
aduci@@
ólicas
ahora
potestad
Nota
egue
questionn@@
grupos
ciales
comunidad
estabiliz@@
47º
examen
venia
orro
plazas
Integrado
expi@@
isla
￥
з
modo
tér@@
migrante
tareas
alistas
eamiento
Nuev@@
Jurídico
Barcel@@
150.000
Sostenible
estand@@
Д@@
cotic
Terrorismo
amparados
neta
guardia
delitos
3.500
invali@@
PIB
vía
7.500
Públicos
FIL
multil@@
Beir@@
ficación
☐
COMIS@@
áctica
estrateg@@
tamos
ánsito
˝
RIG@@
ían
sint@@
hosti@@
ticas
Corea
vivencia
Energía
buena
Asociado
Tratado
Є@@
tería
Vietnam@@
Premio
presión
blo
À
Ingl@@
Legislativa
tensión
sionales
Contral@@
angani
seguro
comité
¡
letr@@
esclav@@
ġ
UIT
agrado
ficado
Autónom@@
Sistemas
coster@@
fabeti@@
almente
atras@@
Codi@@
uden
xemb@@
algo@@
pied@@
Actividades
defensor
extremis@@
cimiento
expir@@
directrices
13º
Rodr@@
δ
cula
Biblioteca
ж@@
atención
Lista
И@@
yente
derech@@
aliza
normas
digna
ь@@
amentales
Bahrein
Económicos
ا@@
siones
determinación
mú@@
pide
Medios
partic@@
tase
rurales
concreto
comunic@@
ileg@@
among@@
bilisi
ciencia
empresas
Constitución
civiles
línea
pefaci@@
educativo
encial
padre
almac@@
earli@@
democrática
reos
Discriminación
centra
Ν@@
Evaluación
Propiedad
discapaci@@
gendarmería
deportes
Tecn@@
ánica
к
estioned
hogar
Ğ@@
corta
Espaciales
seis
drogas
Ejecutivo
ancial
Tráfico
responsables
becom@@
olvi@@
dropo@@
económico
señor
Asuntos
didas
municipales
capié
Espacial
guarante@@
uría
ό@@
itarios
acaba
Naturaleza
Ín@@
quete
acciones
¿
anzar
anul@@
éfon@@
ministros
cabal
habitantes
Estratégico
regionales
¤
carec@@
estado
rige
Géner@@
garant@@
pasado
unos
serie
CICR
parlament@@
dominio
cédu@@
ĺ
ribu@@
rusa
γ@@
encomi@@
Coordinador
Nacionales
permit@@
comis@@
oficial
Ciencia
Δ@@
andum
≡
Orden@@
visita
comit@@
Enseñ@@
ercial
tomas
Т
Financiero
thern
tej@@
vaya
Comerci@@
titul@@
enth
1.800
่
formas
emphasiz@@
Países
cía
like@@
Reconciliación
SECUR@@
uges
entación
nicos
atorias
cios
futuro
comuni@@
cultura
repen@@
POLIS@@
presenta
nual
rigen
enden
ajes
foment@@
rara
lidad
П@@
comercio
rán
deres
permanente
días
reserva
gente
Penitenciario
ч
Téc@@
acceso
Suprema
segur@@
desde
públicos
infantil
mundial
2.400
ecia
Económ@@
tráfico
Profesional
Agríco@@
inserción
Organismo
identidad
identific@@
．
OCDE
observaciones
población
arles
formación
highligh@@
castigo
campo
Distr@@
sometido
¾
abilidad
Kinsh@@
artes
catal@@
Ū@@
cuenta
ainst
riego
mentar
Droga
Seminario
tierras
COUNC@@
Europea
ecto
nivel
50º
crupul@@
20º
ù@@
anual
gestión
Ī@@
ligro@@
т
modific@@
entas
Parte
garanti@@
funcionarios
Transportes
blanco
soberana
Filipinas
Trat@@
Degr@@
Ř@@
igualdad
notific@@
ficas
miso
culturales
Inali@@
achos
enship
Análisis
ización
Proyectos
zcan
sanción
sidades
arreg@@
embal@@
discapacidad
ﻉ
sivo
óp@@
lín
continuos
incau@@
р
ǎ
poblaciones
Bienes
bajo
cair@@
pande@@
Culturales
antiles
lanto
coordina
Ţ@@
Resolución
Apertura
safegu@@
bonos
Privado
capacitados
Β
conforme
ponen
asumi@@
erse
OAC@@
Insol@@
ё@@
ancos
ę
procedimiento
descendientes
ẩ@@
ộ
sigu@@
ů
jurisdicción
Mogadiscio
у
confe@@
hier@@
programa
monta@@
daban
ع
placer
1.700
400.000
Bogot@@
básica
Haci@@
aleza
productivos
Desastres
ĭ
resal@@
ocur@@
resul@@
alivi@@
estudios
autónomas
afec@@
estadísticos
espec@@
altas
alizada
PERMAN@@
jero
Reconcili@@
À@@
presu@@
tierra
fronter@@
ítimo
puertos
italiano
irse
combustibles
MONU@@
К
Semipal@@
Mejoramiento
Europeo
improvis@@
indica
bedu@@
apporteurs
Ministro
Regionales
ínim@@
esper@@
petrol@@
tenga
comet@@
robi
➢
vela
ticles
limpia
encu@@
Inici@@
1.400
RETA@@
voz
latino@@
enciado
tividad
Ý
dwell@@
inversión
tortura
Mogad@@
Υ@@
foro
poca
ཾ@@
ེ@@
declaración
universit@@
torno
Hacia
Ministr@@
consuetudin@@
tud
Johannes@@
Encuesta
ísima
Ĭ@@
nueva
ército
vulnerables
Ciud@@
8.000
escolar
pone
populares
Nivel
gica
fuente
ciudadano
odio
fiscal@@
feel@@
ل@@
pena
asociaciones
ŝ
olesc@@
neto
Mixta
explotación
escuelas
Puedo
lejos
atent@@
ible
cita
̍
limpi@@
Tribunales
sindical
eares
hasta
comunitarias
hubo
Programas
③
Х
musul@@
terrorismo
Gubernamentales
juzgados
urbano
implica
÷
Tecnológico
3ª
habilitación
áctico
Patrimonio
Nuevas
RELATIV@@
atinsk
madres
empe@@
ogía
demanda
éu@@
Β@@
udiciales
ingü@@
supl@@
amentos
Sra@@
caso
ambientales
ád@@
Locales
cual@@
apelación
cifras
fuerte
económica
dinam@@
（
pilar
ítulos
communicado
≈
Recuperación
telecommun@@
Liban@@
comercial
salarial
convenio
OACI
invalu@@
mayores
negra
＄
étr@@
falta
paga
Documentos
impedi@@
Ő@@
palab@@
Objetivo
verific@@
educativos
bilidad
transporte
niño
Aplicación
agrav@@
Señor
administrativo
punto
̵
suje@@
Plenario
reno
Ň@@
Inversiones
servicio
sigan
dada
cancías
instancia
tipo
firma
ш@@
abell@@
12º
plane@@
Alemania
registro
convi@@
corred@@
ética
Producción
echanis@@
鲜@@
Negocios
ི@@
Rehabilitación
attemp@@
ħ@@
policía
ы@@
Científic@@
ístico
origen
preso
suyo
espacio
investigación
saharau@@
marca
Rectores
Principios
ы
④
25º
passeng@@
Transparencia
intermedia
constante
Incluye
pobreza
Construcción
alizados
Anual
Emple@@
cuadr@@
nacion@@
sido
crec@@
imum
faltas
Prácticas
calle
朝@@
íco@@
Electró@@
rle
Gubern@@
prevención
obstac@@
prepara
Guatem@@
achem@@
someter
alimentaria
económicos
retroc@@
ísticos
disappear@@
carácter
机@@
Hebr@@
refugi@@
bitra@@
sotros
Móvil
éctr@@
Reunión
bienestar
dirig@@
amigos
leves
Þ@@
ِ@@
llev@@
Representantes
trimestral
unfortun@@
violaciones
libros
responsable
noticias
afirm@@
ʼ
Comisionado
Ž
Conjunto
Cuenta
tempr@@
acog@@
Į@@
nacimiento
infancia
ambiente
tados
toma
Sociedades
buque
Protocolo
igual@@
nombre
recor@@
dismo
κ
Ejecu@@
oportunidad
Derech@@
Aspectos
constitucional
Ğ
denuncia
Cumpli@@
leche
ĸ
cuencia
dores
ursos
CIÓN
vech@@
mí@@
entren
Ministros
desgr@@
promoción
prensa
Jane@@
ánea
2ª
合@@
significativo
Normas
ritory
Ï
países
instru@@
público
escen@@
械@@
octubre
apru@@
Bosques
Otros
ŕ@@
otro
Participación
targe@@
fomento
stán
economía
documentos
1.300
respeto
ċ
tuales
EPU
maestro
ícula
ι@@
⋆
atend@@
acuerdo
cionalidad
vaqu@@
Inversión
apliquen
abog@@
guen
atég@@
Chernob@@
М
apli@@
helic@@
perspectiva
metros
ʺ
febrero
lazos
cree
garantía
ancias
tecnología
Polític@@
ecuatori@@
Territorio
ʺ@@
filip@@
】
verdad
ỹ
Hábitat
íferos
izados
deber
ísticas
tendencia
sibilidad
ε
OOPS
cerrado
objetos
Compro@@
meridional
capaces
Ciudades
Η@@
ĉ@@
fuerza
ojos
interro@@
reposición
concesión
Bukav@@
【
puestos
objeto
consejos
社
informes
difficul@@
proteg@@
migración
estad@@
tercer@@
♢
ilegal
ȯ@@
Prueb@@
intervención
jurídica
arnos
ˮ
australi@@
estables
˙
pese
ν@@
legales
disid@@
sistem@@
Berlín
Militares
alquil@@
mínimo
genu@@
independiente
redes
Sanidad
antía
oficio
Apelación
producción
sentencias
patrimonio
exión
anón@@
queja
Ouagad@@
х@@
itud
intencional
có@@
40º
participación
española
menos
ropa
Deporte
Ű@@
Ronda
rostr@@
venta
cuotas
estructurales
desempeño
Enfoque
ológicas
ṧ@@
я@@
ч@@
integra
naturales
ordinario
Plurinacional
actos
Ministerios
posible
contexto
aturas
sistencia
Humanitaria
riesgo
ejecutivo
estudiar
comunicado
cautelares
tratos
Jurídicos
constat@@
Ă@@
Delito
efectiva
ر@@
endrá
Año
Cumbre
profesionales
ż
Coleg@@
figura
unidades
medida
deven@@
hacia
ambién
║
Función
★
ínt@@
introdu@@
tonel@@
yugosla@@
abuso
21º
╵
principales
н
misiones
Fondos
discriminación
masa
ō
encuentro
jóvenes
pue@@
joven
voluntad
homicidio
víctimas
cols
milenio
industria
sín@@
compromiso
constitucionalidad
seguros
ǔ@@
Declaración
Pequeños
auxiliar
Ο
联@@
capacidades
Н@@
ofobia
Inspección
mentales
durante
víctima
dedu@@
Mecanismo
Palestino
pró@@
┘
presos
parlamentos
preventiva
detenidos
duras
posición
detenido
pago
limpio
pieza
patrones
parcial
recomend@@
Μ@@
asuma
ovisual
medios
tipi@@
易@@
exto
negros
carcel@@
retos
deber@@
Aseg@@
会@@
profesional
ي@@
Plurin@@
Ofici@@
ciudades
conducta
Bolivari@@
ardous
Obje@@
veno
reglament@@
salario
cuya
Món@@
financier@@
operaciones
ÿ@@
publicaciones
贸@@
tenido
Oversi@@
16º
dedores
oportunidades
consideren
humano
audiencias
ǿ@@
desalojos
fianza
regula
jurisdiccional
puerto
Suiza
empre
Reducción
Descolonización
medio
reales
liban@@
turismo
droga
τ
centro
englob@@
inmediata
ű@@
Estadísticas
κ@@
extrap@@
Altas
democracia
bibliot@@
futura
entend@@
cripción
apare@@
partidos
Americanos
principio
evaluación
saneamiento
combusti@@
Mosc@@
henes
Lond@@
disciplinario
terdam
Creación
Arge@@
niega
acogida
protagonistas
evitar
hace
lesiones
ciud@@
ninguna
￠
Velar
activa
mediación
sentencia
salas
aplic@@
meza
lamenta
aborda
están
alleng@@
hijos
piel
adultos
tuvi@@
Unida
└
̂
Groen@@
humanidad
delegaciones
fth
apoyo
ϕ@@
cata@@
todas
entidades
discapacidades
voto
STAH
nuevas
somos
ONUSOM
daño
enfo@@
importante
ensay@@
már@@
ř
Negoci@@
Penas
prestados
extinción
ígenes
frente
」
áticas
atario
ί@@
ingüe
cadenas
Directrices
ceder
ﬃ@@
ICYP
beb@@
ubicación
Cambi@@
Ģ@@
ífic@@
Suplemento
averigu@@
juvenil
israel@@
darse
óviles
elig@@
ʼ@@
regulación
ў@@
sensibles
Objetivos
Ā@@
pices
Ⅰ
trast@@
organización
acordada
Bajos
sustitu@@
tonio
adecuada
Documento
gias
inmuebles
enciones
puesto
ј@@
̀
Aduan@@
Todo
forestal
doméstica
Rusia
instrucción
irme
silencio
Contencioso
malos
diga
nutrición
̌
eléctrica
Capítulo
asociación
terap@@
Estab@@
cuentan
ộ@@
átr@@
íd
Níger
Anguila
institucional
salarios
Б@@
tarjeta
Finanzas
relación
Provincia
tulos
escl@@
mostr@@
brenica
participativa
ític@@
desastres
⇒
Presidenta
disi@@
prevenir
bros
Reconstrucción
Tokio
arización
Entidad
ع@@
efectos
gación
actividades
terrorista
lengua
ό
aport@@
ítim@@
ológicos
azer@@
Adopción
capacitación
agropecu@@
altec@@
diversas
munities
descu@@
ánico
sumar@@
dictamen
transición
viola
Contrat@@
Jefes
lugar
marco
cuales
「
％
papel
dictada
básicos
caminos
procesos
Xenofobia
necesidades
integración
habl@@
primero
О
aquí
transparentes
extranjería
adería
ش@@
Coloni@@
ético
captur@@
Д
establecida
Tratados
cuidar
ί
Ê
Cuentas
ŕ
portunities
Órgano
ś
Responsabilidad
sudan@@
español
muestra
apre@@
eslo@@
éx@@
Funcionarios
función
ítima
folle@@
cubana
ACION
extrema
fácil
cuerpo
encioso
protege
abogado
coleg@@
deta@@
adicional
aderos
leres
ayud@@
recall@@
Vír@@
compañía
capaz
rango
contrato
Contratos
ornos
ӓ@@
hacer
goza
ológica
perjuicio
camino
abast@@
Tlat@@
petróleo
İ
ulta
ígen@@
intent@@
pequeña
→
cautela
migratoria
neos
debida
Edad
administra
ponga
Adjunta
negr@@
átri@@
asentamientos
férica
ς@@
Convenio
decomis@@
Conservación
┌
vincul@@
historia
sanitario
casti@@
Granad@@
empleo
forzada
obligaciones
gobierno
armados
chamb@@
prueba
┐
exposiciones
positivo
generales
alcance
región
privado
CCAAP
Partes
tanto
Africano
puesta
juicios
Intelectual
PNU@@
norte
común
evento
elección
grupo
presa
apporteur
independencia
situación
22º
actitudes
enio
estere@@
adolescente
tiene
aloj@@
ặ
Legislación
órganos
indicadores
provisionales
Sección
otras
óvil
mixto
Fortalecimiento
empleado
ofen@@
urgente
neces@@
agente
inmin@@
entrega
θ
ċ@@
pleno
λ
empresa
partici@@
autoridad
Tratamiento
negar
Documentación
viene
Mundi@@
ứ@@
Ŭ@@
recursos
fronterizos
sirvan
Ejecutiva
COMIT@@
representante
terroristas
ť@@
viles
Desarme
bueno
Integrada
rió
bliot@@
juzg@@
bandas
Olím@@
traduc@@
pase
subaltern@@
Sín@@
compañ@@
bitr@@
þ@@
banco
requir@@
motivos
σ
quiera
secreta
internacionales
tadas
Número
mediante
Presupuesto
actores
chino
combate
afili@@
noventa
subsequ@@
Consejero
Técnicos
Relat@@
cambios
comisarías
Ē@@
mandato
africana
Anuario
χ
Franja
fundamentos
Tecnológica
áficas
tome
investigaciones
descendi@@
cierto
parto
caí@@
instituciones
ámica
ACAB@@
ь
landes@@
frontera
Ú
Litu@@
construcción
datos
oportun@@
Decenio
mixta
puntu@@
bienes
hipotec@@
cione
Greci@@
introduci@@
Ética
ratific@@
Explotación
cubano
Indon@@
adopción
librio
yec@@
throu@@
soberanía
Adaptación
burgo
corrupción
determina
Salón
consid@@
detenida
mundi@@
suman
adaptación
Conjunta
íti@@
ardín
mentos
disciplinaria
Financieros
arriba
multilingü@@
Delitos
aclar@@
omento
político
riesgos
11º
arbitraria
acusaciones
cese
padres
departamentos
comprome@@
abord@@
drás@@
muerte
relacionada
nunca
asociada
estuvo
olucion@@
declara
Grecia
vol.
N.º
clima
contracep@@
margen
privación
coadyu@@
antime
manera
uega
Ǧ@@
voluntario
temprana
ordinaria
ofer@@
endente
anticipada
orios
Esclav@@
válidos
Arbitraje
privados
dictámenes
fiscalía
ц@@
prestación
altos
colectivos
curso
zados
mérit@@
Productos
preferencial
OTAN
promul@@
comunitaria
posesión
alerta
ȏ@@
Ј@@
Ní@@
representación
Enfer@@
Ór@@
julio
órgano
territorio
公@@
especializada
activación
constancia
religiosa
pensión
↔
beneplácito
4.500
FNUAP
empor@@
Contaduría
inicial
integridad
direcciones
Relator
provinciales
deben
cierre
instrumentos
documentado
finales
testimonios
fronteras
septiembre
institucion@@
propuesta
sidad
peligro@@
Diversidad
indocumentados
artículo
dato
denes
humanitario
aplicación
productivo
estudien
asesoramiento
aplicar
Datos
Õ@@
Nece@@
intimidación
TRABA@@
técnica
국
民@@
ٱ
Parlamentaria
coacción
주@@
ífer@@
Qué
demandante
Penales
forci@@
salud@@
enfer@@
abrevi@@
finanzas
compensación
vele
enuncia
mixtos
ilegales
expulsión
duda
colaboradores
religioso
profesiones
dicos
impresos
reformas
migratorias
everth@@
siempre
mejoramiento
partir
clubes
digitales
verificación
ACIÓN
estiones
causas
д
fuerz@@
escol@@
identificación
э@@
،
Г@@
audiencia
comision@@
militares
conex@@
cono@@
estaciones
gobern@@
autorización
리@@
circunstancias
espaciales
globalización
bomba
productos
reconstrucción
Μ
siglo
deud@@
queremos
Enmi@@
pobl@@
golpe@@
juventud
desarrol@@
∼
ámbulo
administración
imá@@
Fundamentales
marzo
apremi@@
familiares
daría
activo
cambi@@
Л@@
después
efecto
Asesor
asignación
pugn@@
progreso
nadie
podrán
trabajadores
atales
Mediterráneo
proyecto
interinstitucional
ducción
varones
teniendo
gasolina
áneos
і@@
guardias
ྭ
gratuito
Ȼ@@
Forzadas
nuestro
pár@@
ج@@
validez
1.600
ཾ
و@@
Nucleares
ེ
л
hijo
ésimo
Adjunto
Régimen
salida
África
Ն
materna
solidaridad
emergencia
itales
dulce
ecnología
Embajada
eficaces
г
PARTES
erán
alú@@
matrícula
putados
viviendas
estigos
lamentos
amenaza
paración
taciones
involu@@
contar
actividad
incluye
cualquier
teor@@
multicul@@
guerras
testigos
prácticas
blanqueo
relativas
única
clínica
médico
conciliar
adicionales
incumplimiento
escolares
ecimiento
procedimientos
Convenios
ampliado
Desarrol@@
confianza
ministerio
análisis
inclusión
Ź@@
normales
ierra
veres
obligatorios
establi@@
penales
censo
extraordinaria
razonable
desplazadas
expuls@@
DESARROLLO
estimación
perfeccionamiento
condicion@@
م@@
sitio
puede
Recomendaciones
informa
cuy@@
Ribera
subsistencia
Procedimientos
técnico
Amnistía
powerment
amnistía
̃
capacidad
ấ
presiones
aislados
avance
suspensión
primordi@@
ו
ע
ecológicos
establecimientos
hesión
écimo
aldades
establecimiento
retención
plazos
violación
exclusión
traficantes
Irlan@@
falsa
UNOMI@@
Ě@@
Consultivo
OCAH
Envejecimiento
Erradicación
Oportun@@
ningún
puestas
respet@@
onía
libro
cumple
segura
ˊ
ˊ@@
fórmula
indered
ayuda
prohib@@
aéreo
Δ
57º
ྃ
mutan@@
⑤
diferenciado
cuerpos
Básicos
tando
combatientes
carta
Respuesta
cosas
adeci@@
trabaj@@
merced
ོ@@
tercera
confiscación
reparación
comparti@@
alizar
Examen
Quím@@
senci@@
peligroso
cumplimiento
informativa
áficos
destru@@
edades
tramit@@
antigua
Helsin@@
ratos
Londres
ю
razón
х
щ@@
ficados
bunal
extranjeros
parámetros
comunicación
ísimo
eministr@@
Mercantil
Ā
Revisión
condicional
legislativo
apari@@
decenal
dependiente
estadística
minera
aremos
traspaso
regal@@
agrup@@
û
armado
conflicto
sionistas
europeo
presente
concurso
vinculante
Reglament@@
ejecu@@
partí@@
unidad
14º
calidad
celebración
proyectos
tarias
basen
normativa
moción
mismas
humana
contestar
directo
Estrateg@@
secretaría
dese@@
ourth
Nivel@@
impunidad
también
Hacer
asumir
Representante
inocu@@
ŏ@@
étnica
į
partido
cans@@
opone
disciplina
į@@
ē
nacionales
ciudadanos
ronda
َ@@
inidad
nología
ilícitas
carrera
̧
autor
Ф@@
didos
Enfo@@
patrullas
tarea
Propi@@
Presidentes
ministro
entra
adém@@
artesan@@
Funcion@@
trabajador
ambleas
sexualidad
demográfico
ínsula
previsión
mulo
depuración
қ@@
licencia
Anex@@
Conflictos
tortur@@
empleadas
todo
ـ
desaparición
marino
liberación
cár@@
entan
estamos
Unido
racismo
dedor
Ν
Apelaciones
tarios
escrit@@
Libia
oración
vacaciones
presencia
acionales
ibles
claro
Clima
periodi@@
ulación
ocupados
rse
Ginebra
fondos
corte
corre@@
jurídicas
penitenciaria
áticos
ferio
reconocimiento
Consolidación
tratado
desarrollar
tnam@@
saber
funcion@@
largo
tenencia
nú@@
régimen
visitas
artill@@
compatibilidad
transnacionales
policial
asisti@@
ACNUDH
Я@@
sufragio
subterráneas
trabajar
12ª
falle@@
vecinos
urbana
inas@@
cuadri@@
icales
estratégico
extranjera
urgo
Medidas
hambre
ỷ
elecom@@
viven
53º
química
disturbios
guarder@@
Ejecución
Auditores
culto
injusti@@
enfrent@@
estipul@@
acumul@@
cadena
ϊ@@
agricultura
tó
misión
Presentación
ruta
facilite
casi
decis@@
hombre
tiendas
existe
profunda
Siria
demora
vías
mapa
Referéndum
Marru@@
法@@
valer
portugu@@
marítimo
será
parec@@
sustent@@
Artí@@
suyos
comprend@@
desigu@@
políticas
ơ@@
Π
luz
agrupación
계@@
plemento
comprador
externa
mejores
organizaciones
Π@@
国@@
absoluta
Leyes
vencion@@
planti@@
apunt@@
iniciativa
indirecta
audita
esperanza
muy
habla
공@@
μ
prision@@
lingü@@
업@@
Voluntarios
undersco@@
Ġ@@
experiencia
ancianos
기@@
ación@@
dista
cuer@@
ə@@
lobal
llegar
decisiones
Haití
piedra
MICI@@
continente
asign@@
oradora
mander
educativas
sueldo
irá
convenci@@
dejar
propia
limpieza
ilícito
residencia
subsan@@
Cómo
enseñ@@
érf@@
solicitudes
umbres
神@@
aciَn
Jurí@@
精@@
toda
meno
ل
mue@@
presentaron
veje@@
в
participar
dece
está
Mixto
dicas
rescate
ámbito
ventas
Climático
sfera
น
docente
procesal
ĩ
profesion@@
resultados
elecciones
cosec@@
Ď@@
Marítima
Ⅱ
Ė@@
consolidar
juegos
Gobiernos
院
dificultades
人@@
lugares
reconocen
tienen
Estambul
zando
muebles
servir@@
prestan
semillas
territorios
hidro@@
ʽ@@
Ⅰ@@
denuncias
cuidados
Autoridad
̈
mínimos
práctica
delit@@
ȯ
traslado
gastos
orgul@@
calles
desconocido
empleadores
resistencia
eficaz
45º
最@@
asesores
Poderes
limitadas
controlada
ingreso
omisión
高@@
funcionamiento
becas
casos
cinco
constitucionales
Decisiones
buenos
Apoyar
estándares
bancario
intelectual
recurre
sabi@@
selección
indicado
redonda
conoce
vigilada
emitir
조@@
Ò@@
éndo@@
tivamente
tarjetas
quedan
vicultura
esor
reproductiva
temas
comprensión
선@@
empresariales
múltiples
factos
certificados
retorn@@
Promover
։
regulares
ų@@
≧
δ@@
fronterizo
crear
莲@@
河@@
司
apore
patro@@
Mejora
burocr@@
extensión
metod@@
ologías
Científico
Ж@@
excesivamente
demás
pandemia
soport@@
Ħ@@
puentes
Œ@@
▲
ecen
forense
mínim@@
Decisión
convergencia
seres
Ņ@@
cumpli@@
Administradora
agot@@
Б
련@@
하@@
Menos
ة
retorno
comerci@@
회@@
사
profesor
ficadas
apreci@@
procedi@@
administradora
comunicar
formada
Asentamientos
alizadas
cálculo
Û
inváli@@
expresar
judi@@
previamente
facultades
enfermos
sociedades
ordinarios
plique
﴾
idelines
Ǘ@@
eficacia
ệ@@
compren@@
14ª
landia
administrativas
testigo
privacidad
ǒ@@
gasto
aritime
mapas
pongan
rutin@@
azerbai@@
mercad@@
Ô
desigualdades
1ª
mercaderías
experto
sivas
efectividad
tarde
considere
posibilidad
ámicas
Dependencia
encuesta
Ensayos
vulnerabilidad
dría
aline@@
bilingüe
escri@@
libre@@
Tlatelol@@
해@@
Pequeñas
운@@
관@@
ỳ
armoni@@
regre@@
yó
pedagóg@@
resuel@@
incluir
normativas
ONUDD
problemas
ŭ
sahar@@
golpe
aguarda
exit@@
electrónica
ácticos
struir
impulso
adaptado
radiodifusión
Л
puntos
⑪
㎢
itismo
deneg@@
Contacto
embarc@@
紊@@
亂
上@@
Ⅲ
Azerbai@@
comercialización
teoría
gentes
無@@
Estupefacientes
pesqueros
peces
básico
⑩
⑧
智
ồ@@
partidaria
Cuá@@
usos
premios
Р
Auxiliar
cursos
modalidad
sanitarias
Legislativo
acidad
somet@@
éano
letin
armonía
弱@@
sicos
beneficiarse
ฉ
condición
Capacidad
accion@@
niveles
bajos
límites
socioeconómica
diferencia
compr@@
能@@
gozar
力
约@@
inación
presentaciones
guarda
的@@
Õ
internados
necesario
sólidas
representantes
為
obligación
icen
renu@@
conformidad
etapas
adulto
cortes
̒
diplomáticos
cáncer
行@@
deja
institutos
Ý@@
sufici@@
diplomático
reacción
Enteb@@
tiempo
rehabilitación
자@@
발@@
성
compra
retir@@
규@@
창
levant@@
력@@
원@@
abiertos
privadas
madera
propósito
朱@@
lucha
dricos
Hí@@
奎@@
comisiones
primavera
parlamento
enios
laudo
expediente
국@@
Facultativo
우@@
defendi@@
Reconoci@@
tecnológico
penitenci@@
부
Й@@
σ@@
∗
critos
ٍ@@
delincuentes
개@@
昌
홍@@
urbanos
Minorías
afirman
salvaguardia
biodiversidad
Adquisiciones
oportuna
lización
ด
alcanzar
ก
승@@
응@@
ท
원
오@@
학@@
철
vídeo
fraude
ocen
식
expresado
razones
guarderías
compartida
무
Е
papeles
Infraestructura
；
洪@@
承@@
武
construyendo
omisiones
parque
Eslo@@
imiento
최@@
춘@@
vulneración
álisis
departamental
가@@
buscar
árboles
iendo
operadores
hubieran
jurídicos
votación
46º
aisladas
expansión
fortal@@
Territorios
₩
leer
centrales
Anexo
tentativa
Ե@@
demostr@@
cubierto
Ҳ@@
п
。
batall@@
ш
gratuita
PNU
malnutrición
sensibiliz@@
د@@
operativa
parlamentarias
renta
ت
ю@@
ц
Centrales
dignidad
gratitud
Ա@@
Ք@@
críticos
acept@@
reconoce
Ǵ@@
personales
criminales
ო
ȼ@@
Г
femen@@
preventivos
ф@@
monio
instar
optimizar
prisiones
recepción
carbur@@
penitenciario
debido
sumario
secreto
ʿ@@
ṣ@@
Դ
sancionar
importancia
recluso
Ն@@
Կ
fase
Į
realización
arlos
limitar
ptima
parece
forzadas
restringir
Э@@
Γ
ب@@
м
ر
ן
法
mutua
asistencia
环@@
球@@
律@@
评@@
论
ʻ
ه@@
aulas
intereses
quinto
adecuación
Humanitario
integrar
programas
‧
同@@
中@@
NIÑO
ámenes
antipersonal
inmuno@@
universidades
修@@
nuestros
aprendizaje
creciendo
tardía
fusión
jeros
matriz
energética
Gbag@@
改@@
rutas
与@@
positiva
Colabor@@
mejora
rearms
mortales
justo
Organizada
Excelencia
convenido
prometido
entemente
unido
aldea
añad@@
estableciendo
literatura
ofici@@
atentado
invier@@
verano
infantería
ي
cubierta
llega
acoge
funcional
mejor
Seguimiento
Fiscalización
culpabilidad
esencial
prometi@@
física
terapia
brindan
tims
conde@@
estipulado
cumplir
indicadas
nombres
elaboración
participativo
diario
crímenes
maron
círculo
IONES
Directiva
scepti@@
modificación
divulgar
revelar
contenido
divulgación
moderna
Magistrados
И
blancos
unificada
pronto
ejercicio
profe@@
terrestre
consumidores
inmen@@
aludismo
ặ@@
práctico
última
dictamin@@
subprograma
cautel@@
suces@@
úbl@@
Ľ
estructural
postura
forzado
desplazamiento
Líbano
sangre
cerrada
móvil
ρ@@
υ@@
ε@@
doméstico
Gobernador
ódigos
52º
Afgan@@
mismos
mejorar
tenemos
porque
competitividad
sólo
servid@@
conyugal
Fortalecer
inversiones
arrendamiento
financiero
firmes
menos@@
cabe
previsiones
custodia
educativa
aprob@@
⅓
Belice
paña
donde
áneo
⅔
ención
utilización
reglamentación
quiero
ÿ
diversos
posium
ínico
ímenes
ahorro
bió
llamamiento
Adquisi@@
Durante
prisioneros
crecimiento
cidentales
pequeños
deuda
infantiles
netas
mó@@
▀
establecer
reservas
periodistas
agravi@@
Repúbl@@
ataque
Cartag@@
veces
plante@@
eficiente
contratos
τ@@
ánicas
diálogo
servir
secas
conveniente
presidente
votar
disposición
reducción
unilaterales
totall@@
etudin@@
Jerusalén
tomar
doctrina
jurisprudencia
étnico
huir
consumo
apropiado
vínculo
æ
Icelan@@
cerr@@
Deportes
armadas
alestin@@
definitiva
aduan@@
venciones
18º
17º
objetivo
entreg@@
ático
Comisionados
Directivo
Genocidio
Asesora
tuvo
Inmigración
omiso
flexibilidad
presentes
norma
deba
homicidios
Ǧ
reactivación
ducir
equilibrio
culas
bassy
Ρ@@
impart@@
umbral
activos
helicop@@
arrend@@
⌂
espaci@@
inventario
recuperación
Є
nacer
partidas
Jefa
Reino
sexo
naciones
refleje
consenso
Francesa
principios
divisas
apoyando
restante
litoral
mucha
Supervisión
condenadas
conexiones
exiones
sostenible
tecnologías
vitales
tecnológicas
estern
brasile@@
disponi@@
ferencia
cotiz@@
móviles
interés
desech@@
agentes
distin@@
erras
Secretario
Administrativos
difamación
aderas
upos
arbitraje
conciliación
socioeconómicos
tropas
organizados
antigu@@
ministeriales
fuertes
resolver
haiti@@
secundario
preparatorio
beas
Finlandia
españ@@
jada
pedidos
serbia
emple@@
judiciales
izado
cesión
exclusivo
comerciales
secretos
reconocer
decidido
Septentrional
adoptar
puedan
aridad
compone
aceite
tolerancia
miras
Página
úmenes
adopte
anteriores
tomen
afecte
considerarán
plazo
forzosos
ĉ
creciente
delincuencia
organizada
energía
capitales
Tareas
procedente
pertinente
inmigración
documentación
formulada
morales
distintos
convicción
enseñanza
decomiso
intolerancia
←
mañana
Ĺ@@
ག@@
refun@@
ཚ@@
aportes
coloniales
Miembros
remedio
supedit@@
existencia
presuntamente
preparatorios
anex@@
fracaso
impidan
permanentemente
logro
consolidado
esclare@@
histórico
análogos
razon@@
geográfico
inquie@@
composición
demográfica
estrales
oír
Oficiales
metas
inspectores
domésticos
Semiti@@
informática
vayan
migratorios
provincia
limite
Có@@
colec@@
plomo
ཽ
ཽ@@
Lituania
limita
titulares
⋅
ECHOS
espíritu
gestiones
marítima
̷
procl@@
imputado
consideran
fuga
Sosteni@@
mundialización
consenti@@
urgentes
detección
sustantiva
inocentes
fenómeno
Curso
opiniones
éndose
terrenos
torias
siete
superiores
ratificar
especializados
confesión
fechas
beneficio
flagrantes
aplicable
instancias
trabajadoras
interrum@@
jurisdicciones
causados
Islámico
Ÿ@@
ONUSIDA
matriculación
ASAM@@
multinacionales
adquisi@@
labores
elementos
desarrollados
candidato
ཛ@@
baja
Inmun@@
cami@@
diplomacia
bastante
pesqu@@
aplicada
favorables
totalidad
realizado
refugiados
causar
legalmente
lectual
álo@@
encarcelamiento
privada
colectivo
agraria
procesados
Internos
estancia
consejeros
ྱ
ྨ@@
ས@@
Teherán
HUMANOS
preocupación
expresa
aliados
capacitar
privilegi@@
beneficiarios
histórica
actualización
étnicos
raciales
consolidación
favore@@
desalo@@
propios
forzados
regla
reconocía
vuelto
reconoció
cubre
mineras
desafíos
afgan@@
minería
ĳ@@
clor@@
sospecha
detenidas
ajena
poner
DERECHOS
zación
trayectoria
iritual
cuent@@
informó
futuras
agrícola
sexos
tampoco
tomada
registrada
tár@@
tenía
Consultiva
último
contrarias
posteriores
relator
vigilar
ཻ@@
supervisar
económicas
preventivo
noviembre
contratista
cuentas
Brazz@@
rendición
contrata
mantenerse
liquidación
autores
horas
pobres
caja
ocasi@@
injer@@
Preparación
ĝ
pues
problema
muro
sivos
érica
propietarios
diputados
consultar
presuntos
colegios
Gales
™
ϕ
conducto
costumbre
∈
sanciona
precisión
cuanto
distas
extraordinarias
INTERNACIONAL
φ@@
plantilla
plena
dinámica
cumbres
ĕ
miembro
fuego
Químicas
Prohibición
mantel@@
Ⅳ
４
⑥
１
₂
impacto
prove@@
fija
patente
liberi@@
estadounidense
constituye
israelí
palestino
asuntos
mantenimiento
Chechenia
Afganistán
voluntaria
∆
dispuesto
álogo
párrafo
comentarios
ㆍ
ㆍ@@
lóg@@
hábeas
Ϊ@@
junio
catastr@@
interpretación
número
ubic@@
hablan
endarm@@
abilidades
decreto
mercados
violenta
∘
coyuntura
deficiente
autonomía
concertada
Estatutos
estudia
ninguno
alguno
erá
Desertificación
Impuestos
Aduanas
financia
clá@@
Ň
concier@@
condiciones
celebrados
hombres
Asesoramiento
excepcionales
separado
éste
duración
establece
según
señala
estima
legislación
sesion@@
Magistrado
fecha
domicilio
notificó
diagnóstico
ǘ@@
autónoma
genéticos
avanzada
operativo
55º
migraciones
cuad@@
tradicional
obligado
ּ
פ@@
cuantía
ג
ב
א
ק
צ
Ⅱ@@
señ@@
escalada
miedo
perciben
últimos
contacto
sitios
ertura
Auditoría
vacunación
Logística
concepción
ُ@@
subsidiario
crédito
medio@@
cometer
51º
temos
cerca
individuales
comunicaciones
presentar
Resoluciones
sirvi@@
б
IÓN
internamiento
óx@@
castigos
cámaras
deteri@@
órdenes
pasando
ه
alimentos
consultas
documento
cooperación
transfi@@
esquema
encomend@@
cometido
violar
menoscabar
navegación
garantizada
zó
incluso
carre@@
alimentación
ambul
Copenhague
crónica
ciencias
inmedi@@
crítica
comunitario
vinculados
estimul@@
trafic@@
valores
educar
beneficiado
provech@@
carburos
flexibles
cere
puente
deportación
cuarta
uranio
ј
Vicepresid@@
adoptarán
pesc@@
vecino
dedicada
costas
aborígenes
ambiental
cionales
parentales
transferencias
residentes
plaguici@@
representaciones
rode@@
analiza
versas
despr@@
fó@@
reducir
Cuarta
aproxim@@
43º
leve
énfasis
financieros
incorporación
acerca
guatemaltec@@
perfil
crean
sufrag@@
existir
canales
docentes
suele
extraordinario
ciudadana
ế@@
embros
manejo
ingeniería
Químicos
estrategias
mático
asesinato
‹
AOD
plataforma
algunas
partiendo
consideración
máximo
embarazo
cuid@@
fallo
IDADES
cuestion@@
resto
quería
asunto
ándose
aporte
estuviera
mientras
desplazados
ả@@
ّ@@
recientes
síntesis
Reglas
negocios
tantes
afectadas
perspectivas
Informes
abierto
Contabilidad
país
Monetario
entamente
unión
incorporados
convivencia
cláusula
cláusulas
presupuesto
estratégicos
aspectos
modelo
Delincuencia
forz@@
urbanas
escas@@
aprobar
pacíficas
reestructuración
exportadores
televisión
apertura
mo.
reconciliación
Mecanis@@
sindicato
Otras
sindicatos
artoum
aparición
theid
anexos
Artículo
meros
Conducta
stancias
equilibrado
ecológicamente
apropiación
artí@@
Reglamentación
idioma
ítulo
recab@@
ű
calificado
Preparatoria
anuales
pocas
democráticas
voluntarios
intención
comunicada
exige
cibern@@
abando
cubri@@
bús@@
traduce
ausencia
libertades
sirven
directivos
documentados
Condición
atarios
ocupación
Transición
perfiles
médicas
licencias
incapacidad
subsidios
racionalización
sanitaria
matem@@
explot@@
haciendo
basada
َn
conmemor@@
diez
primeros
íqu@@
abogados
combati@@
trámites
afortunadamente
primer@@
Colaboración
dependencia
envejecimiento
informativo
tarje@@
Fomentar
etapa
actuando
atender
operación
pués
posee
Permanentes
fijo
～
prerrog@@
nuev@@
simult@@
Mogadis@@
promover
concertación
Φ@@
Φ
manteniendo
cifra
bloques
previas
continuo
perteneci@@
ultades
ió
mensur@@
Noruega
ológ@@
ά
búsqueda
RECOM@@
reorganización
afías
54º
dominación
41º
patrocinio
Gastos
legislativa
ramas
maternidad
Marinos
Κ
vinculada
técnicos
amenazas
Copenh@@
RECOMEND@@
tulo
convenios
alarm@@
orador
pesca
cerci@@
exced@@
procede
vinas
Meridional
reca@@
estime
particulares
coordinación
primera
diversa
estatuto
diera
graduados
moviliz@@
ilícita
aviación
Orgánico
único
restres
corredores
suspendi@@
lenguaje
partid@@
sensibilización
escoger
actas
理@@
管@@
入@@
出@@
vigilancia
estric@@
sinceramente
dirigida
estatales
gubernamentales
asentamiento
muer@@
∴
destac@@
amist@@
⁄
tará
enfoque
andés
ǽ@@
controla
Pactos
mecanis@@
sindic@@
conservar
ο
diman@@
responsabilidad
及@@
び@@
extremo
sinergia
Ỳ
supervisión
retras@@
fallos
propias
establecerse
indebida
dilación
pruebas
así
esfera
estudio
難@@
minado
democracias
mult@@
jefes
orientaciones
peticion@@
petición
aportar
deberá
coerción
定
認@@
antrop@@
