<s>
<pad>
</s>
<unk>
de
la
,
y
el
en
.
los
a
que
las
del
se
para
)
con
por
un
(
al
sobre
una
su
/
no
;
o
como
&quot;
Naciones
Unidas
:
sus
es
ha
entre
Estados
más
General
desarrollo
lo
derechos
Comité
países
también
Comisión
e
informe
período
Consejo
han
medidas
@-@
contra
información
resolución
actividades
internacional
sesiones
humanos
artículo
derecho
Estado
todos
parte
Asamblea
este
personas
Gobierno
programa
aplicación
1
niños
proyecto
Secretario
servicios
otros
recursos
sin
apoyo
si
respecto
2
así
Convención
programas
fin
A
son
%
organizaciones
otras
sistema
seguridad
mujeres
ese
asistencia
trabajo
párrafo
República
internacionales
durante
Grupo
esta
nacional
3
cuestiones
años
país
todas
cooperación
dólares
miembros
particular
Internacional
dos
está
situación
personal
relación
ser
Derechos
además
ado
Sr.
Conferencia
ar
protección
paz
nacionales
nivel
Seguridad
4
había
proceso
esa
Presidente
cuenta
5
examen
-
general
todo
conformidad
desde
políticas
mediante
b
capacidad
debe
ante
ados
Oficina
esos
armas
Especial
informes
ó
Desarrollo
an
ada
cada
adas
tema
cuestión
número
puede
marco
salud
antes
labor
Humanos
era
esas
ya
casos
6
Ley
cuando
decisión
educación
partes
presente
diciembre
materia
mayor
atención
mujer
política
forma
10
social
caso
Organización
le
7
C
recomendaciones
tiene
participación
Programa
sido
datos
grupos
están
disposiciones
gestión
esfuerzos
acceso
reunión
violencia
año
hacer
lugar
vez
condiciones
tanto
instituciones
según
necesidades
proyectos
pueden
Partes
8
ley
base
población
deben
millones
fue
hasta
15
normas
documento
Miembros
gastos
comunidad
importante
manera
ando
12
hecho
objetivos
9
Mundial
regionales
pero
sesión
nota
discriminación
Trabajo
arse
importancia
resultados
medio
2005
in@@
as
ación
necesidad
junio
2006
mejorar
órganos
promover
tres
aron
especial
tienen
algunos
acuerdo
30
2008
menos
sector
posible
organismos
Junta
os
África
11
problemas
14
20
pertinentes
evaluación
virtud
embargo
sociedad
ejecución
funcionarios
mundial
vida
región
18
presupuesto
2007
tiempo
Unidos
d
civil
2009
&#91;
2010
gubernamentales
fecha
grupo
&#93;
habían
relativas
bien
2004
El
Tribunal
delegación
medios
autoridades
re@@
uso
financiación
I
zonas
capacitación
julio
total
reuniones
ejemplo
Nacional
plan
Ministerio
organización
mandato
mundo
estos
13
16
siguientes
horas
después
igualdad
sea
decisiones
sociales
operaciones
objetivo
representantes
sólo
legislación
Social
mantenimiento
necesario
ará
nucleares
Secretaría
2011
pobreza
víctimas
coordinación
principios
cabo
gobiernos
plazo
objeto
gran
Parte
2003
libertad
octubre
promoción
otra
creación
especialmente
mismo
2000
La
Unión
anexo
acción
aumento
lograr
noviembre
Fondo
práctica
toda
hay
Departamento
arreglo
función
efectos
debería
principales
prácticas
ni
des@@
fondos
2002
empleo
septiembre
cual
garantizar
estas
uno
otro
sostenible
declaración
aba
trata
17
ello
21
establecer
persona
Misión
regional
medida
31
19
II
procedimientos
cumplimiento
género
investigación
justicia
nuevo
establecimiento
Protocolo
ara
puestos
mecanismos
lucha
2001
policía
mayo
aunque
responsabilidad
marzo
resoluciones
Asuntos
2012
locales
Declaración
1995
niño
nuevas
25
hace
equipo
E
muy
relacionadas
obligaciones
funciones
edad
respuesta
1994
enero
dice
tipo
contexto
22
técnica
pública
actos
haya
1999
prevención
asimismo
primer
ellos
les
cualquier
público
DE
dentro
consultas
examinar
económico
1998
24
iniciativas
calidad
documentos
1996
formación
control
cuanto
carácter
especiales
instrumentos
cambio
algunas
comercio
tal
sigue
celebrada
abril
1997
sistemas
23
véase
varios
centros
indígenas
Código
presentación
aplicar
expertos
pueblos
aprobación
representante
refugiados
eran
primera
adopción
importantes
utilización
formas
incluidos
teniendo
productos
Acción
administración
muchos
PNUD
preocupación
conflictos
nombre
puesto
falta
económica
u
observaciones
adoptar
tener
papel
Carta
posibilidad
leyes
colaboración
Relator
ingresos
Convenio
esferas
2013
Nueva
artículos
empresas
frente
Pacto
bajo
ía
Europea
estado
seguimiento
Sra.
comunicación
1993
nuevos
acuerdos
reducción
terrorismo
relativa
S
establecido
fuerzas
Penal
esfera
aspectos
acerca
Nº
menores
podría
días
generales
26
arán
jóvenes
siguiente
mayoría
S@@
debido
relacionados
principio
territorio
América
dar
asegurar
aban
violaciones
Centro
27
financieros
delitos
tras
propuesta
aciones
misiones
secretaría
aumentar
Constitución
interés
contribuciones
pide
facilitar
continuación
delito
28
tecnología
siendo
febrero
actual
problema
procedimiento
fundamentales
propuestas
comunidades
cargo
lista
orden
mejor
reducir
producción
segundo
aún
estrategia
sino
fueron
desarme
incluso
temas
zona
análisis
A@@
consecuencia
aran
progresos
discapacidad
agosto
cumplir
seguir
Israel
5@@
M@@
ambiente
momento
eficaz
sentido
aría
mi
adoptadas
cuatro
plenamente
tratados
sean
detención
enseñanza
recomienda
29
elaboración
conflicto
diálogo
reforma
50
consecuencias
T@@
fines
servicio
resultado
sexual
estudio
planes
penal
familia
da
provisional
largo
puedan
considera
bienes
delegaciones
i
judicial
cinco
alto
incluida
curso
bienio
ámbito
incluidas
varias
poder
comunicaciones
preparación
nueva
6@@
debate
niveles
Económico
figura
sección
recomendación
prestar
crear
militares
referencia
B@@
haber
deberían
hacia
obstante
planificación
conocimientos
oficiales
pueblo
relaciones
compromiso
mecanismo
texto
P@@
cuales
III
local
tales
determinar
crecimiento
último
ían
entidades
enfoque
ejercicio
será
opinión
ayuda
cuadro
serie
7@@
estrategias
diversos
Asia
Iraq
párr
efecto
civiles
misión
aprobó
presentado
VIH
relativo
Representante
ales
P
crisis
valor
autor
conjunto
Consultiva
oficinas
hayan
ahora
supervisión
dispuesto
meses
Plan
figuran
agua
demás
Corte
trabajadores
proteger
niñas
Sur
solución
directrices
tribunales
dado
terreno
procesos
fundamental
hombres
régimen
fuera
solicitud
diversas
Alto
asuntos
poner
prestación
riesgo
sectores
necesarias
Medio
fortalecer
8@@
Tratado
párrafos
miras
eficacia
División
oportunidades
privado
actualmente
F
modo
ciudadanos
necesarios
donde
principal
estudios
asociados
declaraciones
escuelas
Federación
Permanente
financiera
misma
Paz
60
aprobado
G@@
participantes
libre
cosas
ellas
presentar
políticos
do
través
mientras
relativos
disposición
realizar
futuro
reconocimiento
D@@
Ministro
transporte
mantener
esto
familias
Ginebra
fortalecimiento
titulado
integración
últimos
concepto
SIDA
señaló
militar
correspondientes
o@@
N@@
períodos
&apos;
negociaciones
económicos
pueda
Europa
Administración
oficial
proporcionar
conferencias
asesoramiento
fomento
toma
interesados
tortura
China
nos
funcionamiento
amos
cuentas
día
qué
podrá
pidió
diferentes
ninguna
Reino
guerra
40
regiones
sí
participar
Justicia
L@@
observa
respeto
c
agentes
anterior
nuclear
vigor
Milenio
amplia
competencia
elementos
eliminación
previsto
C@@
situaciones
consiguiente
porque
r@@
t@@
públicos
sería
tasa
K@@
existentes
experiencia
graves
origen
al@@
economía
2014
obtener
Servicios
Director
compromisos
Comisionado
seis
Mujer
donantes
Democrática
superior
F@@
violación
incluido
*
obligación
9@@
final
adicionales
decidió
dicho
ente
inglés
anual
conclusiones
ayudar
iniciativa
contratación
cabe
UNICEF
saber
culturales
R@@
actividad
financieras
vista
básicos
apoyar
1992
cambios
adoptado
podrían
favor
elecciones
vigilancia
transición
económicas
condición
respecta
determinación
categoría
Acuerdo
segunda
°
finales
marcha
Rusia
muchas
energía
armados
siempre
material
trabajos
tribunal
anteriores
estaba
B
?
establece
48
nuestra
Sudán
insta
siguen
espacio
jurídico
ª
explotación
causa
inter@@
orientación
intercambio
H@@
común
¿
intereses
prevé
partir
fondo
circunstancias
proliferación
Unido
hizo
elaborar
distribución
adores
endo
Cumbre
fuerza
mercado
dificultades
contribución
jurídica
espera
drogas
presentó
ningún
costos
tan
1º
todavía
órgano
posibles
nuestro
correspondiente
No
E@@
s@@
alcance
tráfico
opiniones
unos
internos
motivos
pena
prevenir
investigaciones
51
métodos
señala
ción
minorías
Instituto
informó
UNCTAD
52
político
independiente
territorios
fuentes
entes
decir
públicas
distintos
evitar
autoridad
independencia
Países
prioridades
ACNUR
alcanzar
minas
solicitudes
amplio
indicadores
infraestructura
Foro
an@@
solo
Canadá
reconoce
conforme
dicha
materiales
denuncias
k@@
instrumento
carta
criterios
IV
satisfacción
difusión
realización
di@@
55
incluir
punto
b@@
humanitaria
2.@@
reglamento
49
indica
constituye
especializados
tratamiento
ta
incluye
to
prohibición
Información
tercer
z@@
junto
contribuir
Niño
fomentar
financiero
existe
naturales
dispone
acoge
profesional
propiedad
miembro
lugares
58
1990
57
pesar
eron
realizados
construcción
con@@
posición
oportunidad
Ejecutivo
mucho
costo
sub@@
formulación
causas
plena
tareas
tengan
Derecho
beneplácito
tratado
tecnologías
escala
central
padres
refiere
Cooperación
gobierno
Corea
suma
g@@
extranjeros
abordar
centro
instalaciones
d@@
Organismo
evaluar
35
inversiones
encargado
York
Sala
celebró
llevar
infantil
juicio
estar
comerciales
Dependencia
riesgos
asociaciones
rurales
ex
Japón
pruebas
alienta
eficaces
dirigida
Banco
cuyo
dirección
c@@
61
eliminar
recordando
i@@
59
quienes
recibir
formular
concretas
prioridad
quincuagésimo
permanente
n@@
hijos
at@@
53
im@@
--
ador
grandes
deberá
en@@
das
sanciones
oficina
muerte
pues
principalmente
recibido
Desarme
combatir
efectiva
l@@
ido
65
éxito
45
debía
Reunión
62
efectivo
33
Ejecutiva
1991
Caribe
Relaciones
ar@@
competentes
él
humanitario
igual
ci@@
mundiales
100
inversión
Bosnia
D
Los
votación
pago
O@@
32
menor
estructura
de@@
observó
reforzar
Comercio
34
cursos
Servicio
amiento
desea
64
ti@@
tierras
g
necesaria
orador
a@@
pasado
ables
Sede
asociación
estaban
Africana
36
47
54
factores
Mesa
Afganistán
56
emergencia
vulnerables
logro
celebración
vivienda
amenaza
responsables
63
respuestas
gracias
ana
institucional
utilizar
transferencia
judiciales
jurídicos
periódico
adecuada
Educación
Congo
ella
defensa
distintas
tuvo
sexagésimo
2015
prisión
1.@@
tomar
pobres
conclusión
inicial
existen
hincapié
universal
J@@
libertades
decide
adicional
ad@@
pregunta
ciones
destrucción
37
resolver
realizado
Francia
racial
consenso
estadísticas
Salud
economías
tos
Norte
climático
acciones
considerar
p@@
operacionales
propone
India
Cuba
arían
categorías
señalar
Pacífico
ONG
profesionales
México
expresa
registro
39
cultura
rehabilitación
revisión
ordinario
hechos
U@@
tipos
palestino
LA
c.
66
co@@
am@@
deuda
Occidental
ario
Exteriores
garantías
Informe
ac@@
particularmente
tenido
mandatos
entorno
inclusión
Gestión
migrantes
formuladas
deberán
cuarto
responsabilidades
su@@
tratos
presencia
as@@
on@@
able
consulta
ir
requisitos
recientemente
ida
examinó
cifras
beneficios
oficiosas
cultural
recomendó
recuperación
í@@
cuya
aprobada
adelantados
estabilidad
directamente
tierra
interesadas
familiares
perspectiva
celebrado
V@@
idiomas
confianza
composición
46
cuotas
grave
Palestina
En
44
alguna
poblaciones
m@@
habla
conocimiento
comprendido
grado
Oriente
actuales
indemnización
pequeños
h@@
Herzegovina
razones
esencial
reservas
Australia
capital
er@@
presenta
buena
Viena
41
Expertos
pleno
porcentaje
ex@@
aria
red
interpretación
suficiente
ab@@
razón
Árabe
idas
Al
67
definición
j@@
apartado
38
3.@@
eficiencia
ambientales
Sociales
arios
constituyen
nacionalidad
duración
queda
pequeñas
idos
jurisdicción
mejora
v@@
Irán
4@@
peligro
velar
interno
palestinos
integrado
f@@
voluntad
próximo
solicita
Rwanda
técnicas
debates
tenía
habida
u@@
mercados
ano
1@@
A.
42
establecidos
Z@@
afectados
B.
redes
y@@
disponibles
motivo
43
expresión
capítulo
ri@@
deliberaciones
basada
contenido
bienestar
hoy
difícil
consumo
preciso
intergubernamentales
reciente
desastres
aproximadamente
ase
demanda
invita
entrada
mejores
etapa
encia
transparencia
Apoyo
estén
Líbano
comunes
previstos
ón
enfermedades
representación
únicamente
Irlanda
plano
casi
serán
or@@
68
máximo
terroristas
Islámica
Latina
desarrollar
art
técnico
Yugoslavia
exhorta
Ambiente
per@@
institucionales
Coordinación
Add.1
autores
Protección
reserva
elección
Alemania
viven
avances
tenga
ámbitos
asilo
preparar
tasas
incluyen
anos
multilaterales
alimentos
contingentes
3@@
desechos
ocupación
ambos
Brasil
mínimo
daños
extranjero
estratégico
amente
directa
religión
Parlamento
º
observadores
den
Sudáfrica
trato
e@@
jurídicas
éste
celebrar
existencia
conducto
Pakistán
detenidos
77
PNUMA
cantidad
diversidad
tendrá
vi@@
documentación
activamente
suministro
seguro
propio
10@@
equipos
apoya
veces
Policía
é@@
cómo
mayores
acto
expresó
posibilidades
Económica
matrimonio
ordenación
Asociación
permite
suficientes
4.@@
Turquía
Y
recurso
progreso
conferencia
evaluaciones
técnicos
abierta
ica
nuestros
gobernanza
examinado
Y@@
Subcomisión
propia
palabra
ina
extraordinario
Facultativo
destinados
Reglamento
pertinente
humano
claramente
prestaciones
Popular
petición
anuales
Comunidad
tas
Examen
dichas
valores
encargados
in
llamamiento
me
O
hemos
activos
privadas
primaria
llegar
específicas
siga
Somalia
sexo
fuente
obstáculos
contrato
intención
desarrollados
dijo
it@@
consolidación
actualidad
desplazados
Económicos
ambiental
dichos
unas
publicación
delincuencia
Las
modelo
preparado
ico
atender
Kuwait
encias
desempeñar
tomando
acontecimientos
Re@@
despliegue
escuela
destino
física
ch@@
crímenes
propósito
celebrará
conciencia
70
creado
trabajar
reformas
completa
posteriormente
infancia
pese
conjunta
comercial
Noruega
sitio
Pública
ilícito
estados
global
consideración
efectivos
I@@
responder
contiene
Discriminación
administrativas
osa
supra
empresa
interna
comisión
es@@
médico
li@@
tarea
ampliar
6.@@
recuerda
integridad
dirigentes
tratar
índole
plenaria
Suiza
R
comisiones
democracia
podrán
modalidades
contratos
basado
estableció
ratificación
familiar
naturaleza
W@@
poco
tradicionales
ro@@
almente
Políticos
géneros
er
Presidencia
funcionario
Siria
informar
Estatuto
recientes
ofrece
ob@@
anteriormente
deseo
alta
corrupción
destinadas
repercusiones
Operaciones
V
Prevención
conexas
debían
honor
capacidades
representa
Se
restricciones
soluciones
5.@@
términos
haciendo
médicos
adolescentes
disminución
relieve
ándose
resumen
podía
encaminadas
Jefe
evolución
penales
Regional
oriental
realizadas
Adjunto
responsable
debidamente
reclamaciones
alidad
sírvanse
án
israelíes
alimentaria
prestando
propuesto
conservación
Sostenible
previstas
arias
80
esté
diferencias
puesta
humana
logros
vehículos
proceda
emisiones
Sección
última
tomó
sede
sensibilización
si@@
estudiantes
Internet
ó@@
H
Quinta
conducta
mar
impedir
200
mes
ésta
Fuerza
encuentran
permanentes
institución
90
auditoría
Indonesia
Guinea
determinados
Ministros
preocupa
prueba
estrecha
un@@
com@@
web
fase
estimaciones
r
amenazas
producto
seguirá
arlos
asignación
tercera
concretos
experiencias
l
Egipto
Liberia
proporción
consentimiento
sustancias
clave
pre@@
visitas
Bajos
pro@@
presentes
ag@@
Marco
activa
2@@
quinto
UNFPA
venta
componente
realidad
periódicos
estatuto
Eliminación
Ucrania
estatales
comparación
privada
preguntas
Presupuesto
penas
aplica
realizada
entidad
alización
pendientes
Haití
administrativos
organizada
introducción
precios
candidatos
carga
creciente
é
puntos
escrito
69
luchar
Kosovo
celebradas
contacto
mortalidad
laboral
voluntarias
conjuntamente
humanidad
permitir
racismo
dio
adquisición
Federal
ofrecer
ataques
empleados
ONUDI
DEL
respectivamente
siete
conocer
adecuado
migración
Objetivos
identidad
jueces
Chipre
Islas
Croacia
reconociendo
Delito
opciones
hogares
trabajan
ap@@
presta
bilaterales
parece
decenio
seminarios
OIT
corresponde
mitad
específicos
or
idioma
desempeño
abarca
completo
España
Argentina
presentada
rendición
comité
Dirección
Italia
crédito
Zelandia
palabras
Estrategia
Suecia
Relatora
estructuras
título
rá
elemento
asunto
único
menudo
aprobadas
cerca
Universidad
propios
legislativas
créditos
Oriental
bases
sexuales
presentados
arlo
logrado
indicó
ven@@
campaña
incorporación
par@@
víctima
ent@@
luz
viajes
habría
requiere
Autoridad
le@@
real
alumnos
afirma
tenían
adecuadas
ambas
aéreo
línea
aumentado
integrada
adecuados
útil
N
pérdida
0@@
te
prensa
LOS
9.@@
considerable
esenciales
residencia
fuego
cor@@
CP
unidades
tendencias
intervención
reitera
PMA
comités
bi@@
foro
hubiera
firme
Colombia
Refugiados
ad
est@@
Asistencia
verificación
...
Al@@
hogar
frecuencia
magistrados
habitantes
constante
exige
pérdidas
presentadas
bosques
75
mismos
publicaciones
Embajador
cargos
soberanía
elaborado
desafíos
malos
exposición
africanos
ejercer
icos
cometidos
conexos
arreglos
agricultura
7.@@
enta
abusos
Gaza
superiores
8.@@
ocho
cont@@
volumen
aprovechar
ONU
escolar
contar
enmienda
vínculos
ul@@
considerablemente
visita
Sistema
Personal
estima
Ivoire
mejoramiento
ativa
adhesión
tar
residentes
va
componentes
ciclo
humanitarias
Sierra
legal
ores
Côte
entendimiento
adora
paso
sión
icas
oso
determinado
Con@@
cometido
indican
ajuste
Marruecos
básica
Central
Burundi
VI
form@@
numerosas
aplicables
em@@
insulares
ol@@
estudiar
prostitución
Decenio
ampliación
s
puso
preocupaciones
az@@
Fiscal
determinadas
Leona
18@@
destaca
continuar
quien
Mujeres
participan
adelante
israelí
mejoras
departamentos
reparación
subprograma
procedentes
formuló
numerosos
Azerbaiyán
t
encontrar
Aplicación
integral
aplicable
adoras
garantía
armadas
Mantenimiento
Primer
limitaciones
aprobados
testigos
hicieron
abuso
establecidas
éstos
exportaciones
Política
adaptación
adopte
OIEA
ir@@
sta
término
necesitan
seminario
Tortura
reintegración
electrónico
enmiendas
T
Población
Primera
hacen
.@@
k
on
adopten
fronteras
300
ría
múltiples
futuras
apropiadas
afectadas
observación
constitucional
prevista
exportación
industria
excepción
norma
particulares
ur@@
m
Nigeria
solicitar
Gran
gener@@
CN.4
abogado
apertura
basa
suministros
partidos
entonces
podían
ciertas
Supremo
párrs
os@@
negociación
siguió
erradicación
independientes
hombre
disponibilidad
reproductiva
unidad
pagos
metas
multilateral
ciudad
administrativo
partida
ocupado
Hábitat
rse
nombramiento
debemos
tomado
firma
firmado
reafirma
corrientes
ones
árabe
criterio
calendario
tránsito
resulta
IN@@
secundaria
coordinar
dirigidas
asentamientos
urgente
ativas
concesión
reciben
dignidad
respectivos
examina
inmediatamente
afectan
operacional
religiosas
médica
fiscales
versión
claro
comprensión
ocupan
pa@@
viviendas
13@@
marcos
representan
noveno
so
Ar@@
diferencia
arlas
hacerlo
Serbia
ciertos
pro
campañas
examinando
Civiles
Presidenta
electoral
movilización
Etiopía
francés
14@@
om@@
organismo
convenios
sexto
considerarse
ACNUDH
activo
detenido
aprobar
básico
Austria
Supervisión
Infancia
Chile
respetar
alentar
ic@@
reconstrucción
Administrativos
extradición
73
enfoques
OS
tendencia
condena
pone
anti@@
supervisar
ero
químicos
operación
cuyos
nuestras
encuentra
masa
conseguir
quisiera
concluir
UNESCO
denuncia
igualmente
expresar
Darfur
rural
formulada
sustantivo
Territorio
ciudades
ot@@
armado
utilizando
esfuerzo
Timor
Interior
seguido
EE.UU.
reglamentos
z
solamente
llegado
el@@
estamos
adquisiciones
juez
esperanza
administrativa
organizado
super@@
mediano
autorización
72
siones
reconciliación
arla
preventiva
planos
proporciona
Congreso
redacción
cre@@
proveedores
desempleo
características
Georgia
meridional
recibió
jefes
is@@
árabes
á@@
Perú
octavo
espíritu
In@@
Civil
Decreto
coherencia
permitan
ocupa
tengo
investigar
Asesor
asen
lado
fi@@
periódicamente
cierto
Guatemala
única
gubernamental
Argelia
legales
básicas
informa
organizar
ocasiones
oradores
espaciales
nunca
dinero
mi@@
municiones
salvo
Finlandia
controversias
indicar
occidental
usuarios
h
ías
hora
miento
Filipinas
eficiente
adoptada
permita
Belarús
incorporar
.000
incidentes
Kenya
cu@@
producido
séptimo
rán
eso
G
subregionales
Uganda
tivo
Movimiento
detallada
destinado
C.2
600
0,@@
15@@
remuneración
deficiencias
refleja
500
ciencia
primeros
habiendo
realizan
finalidad
Jerusalén
19@@
L.@@
llevado
aplicado
consiste
Artículo
ería
vacantes
71
doméstica
utilizado
Myanmar
creados
estatal
Iniciativa
existente
agrícolas
establecida
ra
Oficial
Bélgica
privados
ativo
perspectivas
revisado
ilegal
abierto
solicitantes
consideró
alizar
posterior
identificación
étnicas
propias
sigan
mos
clara
adultos
An@@
demostrado
destacó
semana
sostenibles
reclamación
haga
Árabes
re
encargada
Europeo
Polonia
vulnerabilidad
saneamiento
consonancia
previa
informado
celebra
VII
factor
etc.
exámenes
hagan
subraya
garantiza
dependencia
mencionados
internacionalmente
Cuarta
sociedades
conversaciones
fiscal
alrededor
Fuerzas
mismas
equilibrio
financiar
beneficio
Segunda
Equipo
similares
Dinamarca
aplicando
qu@@
Defensa
Racial
cumplido
declaró
límites
externa
sostenibilidad
dan
semanas
alimentación
ocasión
76
actuar
car@@
tivos
asistir
Recursos
ejecutar
efectivamente
selección
búsqueda
Universal
FAO
pedir
prestado
ensayos
estrechamente
pesca
ve
mencionadas
organizó
D.
sentencia
mental
raíz
superar
agresión
creó
podido
aplican
reales
tu@@
distrito
ejemplos
participaron
fic@@
instancia
ren
salvaguardias
ministerios
hubo
incluya
C.5
Alta
armamentos
pudieran
diez
intervenciones
pas@@
M
soldados
impacto
preparativos
espacial
Tailandia
reconocer
trabajando
la@@
OMS
AS
osas
impunidad
naciones
circulación
ultraterrestre
tr@@
pertenecientes
Bretaña
Tercera
separación
limitado
visión
abogados
transmisión
C.3
vecinos
acusado
iniciado
Principios
74
Ciencia
agrícola
desplazadas
f
observando
Actividades
territorial
anas
presupuestarias
iniciar
monto
10.00
humanitarios
viaje
ant@@
95
consecución
patrocinadores
federal
manifiesto
Camboya
io
85
repatriación
ver
Plataforma
presentan
fenómeno
geográfica
il@@
na
individuales
contrario
notificación
acogida
prestan
contribuido
primero
expulsión
historia
cuidado
sur
licencia
rápida
necesita
ja
debida
Ch@@
media
1989
futuros
ratificado
socorro
400
enjuiciamiento
nueve
satisfacer
C.1
convenciones
inmediato
habrá
sustitu@@
78
ari@@
idea
eficazmente
pedido
posteriores
Bangladesh
voto
basadas
romaníes
plazos
Procedimiento
ocupados
independientemente
pudiera
ideas
Tecnología
Mar
textos
altos
83
urbanas
Des@@
15.00
adoptó
resto
Armenia
utilizados
integrar
instrucciones
go
Libia
realizó
materna
tendrán
Cuestiones
Alianza
presupuestos
ati@@
realizando
ver@@
étnico
requisito
Checa
actuaciones
positiva
ilegales
ativos
instrucción
etapas
id@@
cifra
retos
solidaridad
ofrecen
electrónica
av@@
duda
siglo
demora
equitativa
realiza
analizar
indispensable
solicitado
clima
subsidiarios
petróleo
sufragar
consciente
sueldos
frontera
recibidas
Jefes
st@@
exterior
Caja
us@@
ec@@
gu@@
ta@@
identificar
totalidad
promedio
consideran
disfrute
inferior
reafirmando
Año
ú@@
hijo
81
privación
método
Coordinador
expresaron
ni@@
Rev.1
alcanzado
competente
oradora
ejército
hacerse
saldo
apropiado
ingreso
lleva
tardar
rápido
and
pacífica
tivas
Angola
82
solicitó
prohíbe
temporal
irse
campamentos
96
norte
incremento
Eritrea
incumplimiento
Malasia
vía
beneficiarios
mantiene
ausencia
específicamente
aumentó
inspección
800
distribuir
aquellos
á
decidido
hu@@
publicado
rec@@
ora
79
inform@@
tores
utilizan
metodología
seres
presentara
disponible
luego
Familia
continúa
col@@
proporcionado
supone
Comisionada
ma@@
prácticos
aje
97
estratégica
agenda
poseedores
requieren
diseño
Nairobi
Fiduciario
muestra
inciso
bajos
Gobiernos
is
aportan
genocidio
considere
enlace
ed@@
98
termin@@
presión
pres@@
potencial
mon@@
recurrir
17@@
relacionada
ga
cobertura
1.000
inscripción
comprende
Jordania
dependencias
aprendizaje
plantea
900
Sri
talleres
EL
defensores
reconoció
idad
Ecuador
aspecto
Di@@
tampoco
Culturales
gan@@
miles
programación
intolerancia
acceder
Administrativo
eros
Lanka
conjuntas
comprometido
cumplan
van
deseen
empresarial
L
aguas
autora
definir
tica
depende
88
Igualdad
Montenegro
divulgación
Portugal
Pro@@
industrial
limitada
basados
92
corto
aun
algún
Túnez
máxima
93
provincias
combustible
comentarios
osos
91
disponer
trate
éndose
preliminar
reclusos
16@@
Interna
Promoción
votos
regla
87
tiva
véanse
Venezuela
mencionado
laborales
84
Estadística
apelación
totalmente
aceptación
99
foros
contactos
op@@
urgencia
tuviera
raza
permitido
convención
modificar
Com@@
examine
Superior
stas
obligatoria
pacíficos
reducido
alternativas
aplicaciones
Hungría
Común
Rumania
decidir
terceros
presentaron
positivos
trans@@
tación
actuación
cooperar
és
normativa
contr@@
ten
LAS
mano
elevado
rápidamente
científicos
reglas
gama
vigentes
camino
benefici@@
opción
estará
contaminación
destacar
cometidas
Beijing
Costa
Proyecto
actualizada
exclusión
visto
baja
participado
explosivos
Cultura
1988
700
acelerar
secciones
modificaciones
94
vigilar
der@@
participó
Vicepresidente
extranjera
participen
of
tó
Uruguay
pagar
Un
quedan
éstas
migratorios
res
reconocido
vigente
competencias
parecer
amplias
breve
comienzo
convencionales
amientos
iz@@
registrado
personales
respectivas
San
terminado
ay@@
sa
Lucha
tur@@
concretamente
generación
titulada
Nepal
Auditores
tado
sumamente
estipula
enfermedad
represión
Grecia
Investigación
legislativo
subregional
evidente
invitó
CRC
89
habido
res@@
Investigaciones
sistemática
almacenamiento
escolares
agradecimiento
EN
qui@@
actas
propuso
avanzar
llevó
original
Excmo.
radio
agradecería
IC@@
profunda
temprana
detalles
formulado
empoderamiento
establecimientos
étnicos
listas
coherente
transacciones
mínima
mesa
comportamiento
madre
ia
impuestas
ficación
lamenta
específica
intergubernamental
Energía
doble
directo
dirigido
se@@
aplicarse
-@@
Kazajstán
duradera
televisión
considerables
86
ES
autonomía
tolerancia
exclusivamente
logrados
pronto
controles
ak@@
préstamos
desertificación
desastre
turismo
K
buen
alguno
instó
asi@@
señalado
acta
significa
introducir
auto@@
proceder
Evaluación
ven
armonización
SR.@@
n
pi@@
inmigrantes
individual
AN@@
buenas
modificación
ajustes
cesación
ACIÓN
Unidad
multi@@
seguros
registros
Rica
provincia
erradicar
Mecanismo
ares
llevan
ampliamente
protocolo
manifestaciones
allá
Río
Mar@@
entrega
estadísticos
asegur@@
concreto
nombres
ciudadanía
cuadragésimo
so@@
declara
presos
preocupado
Directora
contabilidad
OMC
gr@@
estuvo
mitigación
dis@@
Intergubernamental
firmemente
servir
desmovilización
relativamente
212
consolidar
precio
existencias
du@@
apliquen
consideraciones
pag@@
Tanzanía
procesamiento
código
usos
coordinadores
me@@
tuvieron
Lituania
Mayor
razonable
fiscalización
químicas
orgánico
eg@@
observar
invitación
formularon
movimiento
dada
llegó
establecen
OOPS
movimientos
interino
v
ma
ang@@
definitiva
ligeras
probable
oportuna
agrado
aceptar
aprueba
ento
adamente
voluntarios
hubieran
regreso
presentará
movilizar
Conferencias
París
facultativo
entró
permiten
De@@
inició
Salvador
acusados
difundir
educativo
ficar
aportaciones
liderazgo
Potencia
oferta
posiciones
Fiscalía
regul@@
Eslovenia
justa
recordar
externos
tenemos
OSSI
Red
ER@@
Nivel
oposición
dió
estimación
Bulgaria
alcanzados
ilícitos
futura
I.
at
dotación
terrestres
bancos
libres
toneladas
facilitación
fueran
patrimonio
apruebe
consultores
subrayó
Jurídica
positivo
extranjeras
antecedentes
similar
ética
viernes
AL
lunes
religiosos
au@@
apropiados
inmediata
celebraron
inicio
ret@@
jefe
notas
inmigración
haberse
jo
suelen
hará
traslado
cartas
facultades
cualquiera
20@@
ecosistemas
nosotros
mientos
intensificar
torno
indicado
aumentando
agrav@@
colectiva
Día
señalaron
cuentan
gasto
ere
revisar
permiso
desee
Sexta
recopilación
periódicas
elegidos
científica
imponer
órdenes
recibieron
gi@@
fabricación
nacimiento
pensiones
concienciación
difíciles
3,@@
buques
ra@@
formula
inclusive
ulterior
limitación
cree
normativo
end@@
hi@@
degradación
dedicado
Roja
afirmó
ten@@
man@@
Senegal
biológica
extrema
étnica
legislativos
mencionar
distinción
aniversario
informaciones
ter@@
Albania
desempeñan
propuestos
xenofobia
í
permitirá
nación
conjuntos
ordinarios
reclutamiento
tercero
Macedonia
religiosa
reg@@
primordial
carrera
PRESIDENTE
esperamos
Federativa
gar@@
Planificación
te@@
iniciales
asumir
equidad
Normas
litoral
desempeña
adecuadamente
natural
Bolivia
conclu@@
Pueblo
reflej@@
integrados
pen@@
Inspección
prioritarias
moral
Uzbekistán
obra
dirigidos
derivados
obras
periodistas
Consultivo
pocos
bilateral
ventajas
reglamentación
dieron
daño
normativas
TNP
alianzas
ve@@
continua
profundamente
observador
comunicado
Personas
reconocidos
.1
contribuye
expresado
campo
Indígenas
concluido
plantilla
convino
dejar
pol@@
corresponda
revisada
encaminados
Armas
preste
11.@@
estratégicas
1980
práctico
plataforma
mejor@@
adoptando
próximos
entiende
aquí
perjuicio
flexibilidad
maternidad
maestros
previo
infra
Malí
madres
oc@@
ocuparse
ataque
ha@@
reunir
considerando
UNOPS
Operación
ru@@
próxima
límite
imparcial
pudo
co
the
apropiada
Camerún
euros
mar@@
af@@
Corr.1
peligrosos
destinada
expresamente
w@@
resultantes
5.000
pensión
pornografía
libremente
avance
J
constitu@@
índice
guía
positivas
creencias
tendría
adquirir
urgentes
Tayikistán
tados
min@@
presentarse
pasar
Centroafricana
establezca
constitucionales
interinstitucional
encuesta
transparente
degradantes
Formas
favorable
Chad
insuficiente
demasiado
limitar
CI@@
adelanto
reunió
Nam
demuestra
refieren
volver
alent@@
cost@@
incrementar
cuyas
asignados
deber
rendimiento
intelectual
Moldova
sustantivos
arle
limit@@
AC@@
inhumanos
mo
Constitucional
memorando
meta
nada
publicó
Viet
ce
Ministerial
gen@@
afecta
lo@@
Fundación
jueves
indebido
discurso
sugirió
Arabia
efectuar
cooper@@
Saudita
separado
atribu@@
impulso
delincuentes
pequeña
proporcionada
cantidades
presenten
promoviendo
Add.@@
ancia
Agricultura
adquirida
Ex@@
x
tarde
constituir
prestó
financi@@
contribuyen
Ghana
cal@@
120
asignado
IS@@
Liga
suspensión
ba
pe@@
evalu@@
policial
basándose
emos
utilizarse
reestructuración
enc@@
entos
internas
propósitos
oficialmente
transmitir
incidencia
finanzas
larga
utiliza
Kyoto
Programas
medicamentos
he
UNODC
netas
60@@
27@@
verse
Internacionales
castigo
negativas
autónomos
empleadores
alerta
fechas
cambi@@
modelos
importación
Ribera
odio
décimo
examinará
ca@@
cuantía
provisionales
12@@
U
erse
enda
hambre
entreg@@
vigésimo
mejorado
Meridional
Eslovaquia
generar
distribu@@
impuesto
examin@@
redonda
X
formar
transferencias
interacción
taller
sometido
conceptos
obtenidos
gratuita
mo@@
continente
sumas
E.
blanqueo
Nicaragua
ciudadano
martes
aportar
policiales
poniendo
sistemáticamente
vidas
controlar
cuarta
seguía
ratificar
mal@@
contenidas
ér@@
Ab@@
impuestos
FMAM
coordin@@
Preparatorio
centr@@
prisiones
Consolidación
ministerial
sos
hospitales
prórroga
subvenciones
colaborar
acogió
nuevamente
Terrorismo
Medidas
taron
AR@@
gas
sindicatos
suficientemente
Políticas
abilidad
za
alizado
edificios
parcial
marinos
sujetos
Yemen
extrapresupuestarios
páginas
vo
sivos
concreta
esperar
ita
globalización
12.@@
4,@@
alojamiento
Otros
Roma
sivas
fallo
conveniente
miércoles
ud@@
influencia
acordado
ato
siguiendo
crueles
juventud
elegir
especialistas
10.@@
democrática
Observación
mercurio
asign@@
Su@@
distritos
bles
ponga
cin@@
esti@@
Mauricio
Estonia
eren
orientaciones
5,@@
estupefacientes
sal@@
ajust@@
ología
educativos
escasez
Unida
po@@
pronunci@@
vol@@
viol@@
imposición
VIII
Cruz
Letonia
alquiler
directores
apoy@@
29@@
apoyando
tor
PIB
actores
comenzó
corresponden
fr@@
electorales
anfitrión
estadística
sometidos
zca
industriales
Financiación
ka
aci@@
elegido
áreas
jurisprudencia
cl@@
CNUDMI
utilidad
brutas
mencionada
específico
mercancías
autorizado
comprender
can@@
actualización
mejorando
Santa
integr@@
democrático
pongan
tadas
potable
abord@@
recordó
algo
Sáhara
plantean
padre
facilit@@
estable
Miembro
antipersonal
Salón
elimin@@
um@@
Droga
destin@@
recibida
sustantivas
vías
desigualdad
28@@
municipales
considerado
fe
to@@
desapariciones
13.00
licencias
serían
encargadas
aire
sufrido
incentivos
productividad
clase
indi@@
HRC
sugerencias
15.@@
tri@@
ña
@
Cap.
Jurídicos
XXI
custodia
regímenes
demostrar
Transición
dé
enfrent@@
inas
be
voluntario
estratégicos
International
ejecutivo
presten
directas
terrorista
venido
Montreal
entraña
18.00
cumplen
bruto
enfrentan
negativos
ali@@
desearía
am
mitigar
brindar
presuntos
dic@@
acogiendo
trat@@
buenos
nutrición
recomendar
femenina
producir
precedentes
Protocolos
1967
continúe
exclu@@
ular
observancia
Qatar
ejecuciones
planteadas
participa
obligado
negoci@@
Ac@@
equivalente
margen
sanitaria
corriente
gravedad
subsidios
infraestructuras
ejecutivos
poderes
AS@@
Estupefacientes
educativas
Documentos
Jamaica
Documento
manual
aj@@
hídricos
relacionado
proporcionó
instalación
racional
ca
Subcomité
obtención
vari@@
asignar
finalmente
Delincuencia
fundamento
inos
fundamentalmente
edificio
ah@@
centrado
uc@@
convenidos
ii
desplazamiento
formato
pie
enti@@
entar
consign@@
nadie
peticiones
Doha
proporcionan
útiles
desglosados
elevada
Oficiales
aclarar
erá
Ejército
favorables
equitativo
aplique
ponen
anexos
EN@@
0.000
consignación
recibe
actu@@
objetos
compartir
salario
.2
asesores
edades
enunciados
transformación
reembolso
centrales
medi@@
proporcione
reflejan
consultiva
indic@@
Leste
TIC
abastecimiento
construir
división
obtenido
ilícitas
dando
ro
dad
nacidos
regular
mu@@
incorpor@@
prevén
Malta
innovación
complementarias
utiliz@@
ende
funcion@@
val@@
define
mantenido
precisa
experto
tor@@
CO@@
Singapur
legislativa
culturas
0.@@
complement@@
obstáculo
invit@@
CE@@
actitudes
muertes
titulares
enci@@
detección
rectores
exi@@
lleg@@
realizaron
protocolos
preservar
desempeñ@@
condenados
Mixto
universidades
et@@
derivadas
voluntaria
hacía
gue
Asentamientos
contraer
torturas
discapacitados
justo
mando
mediación
CEDAW
Islandia
llevando
magnitud
cumpli@@
quedado
recomendado
sujeción
pr@@
mundialización
buscar
pl@@
descripción
ne@@
26@@
Humanitarios
impu@@
zar
normalmente
asistieron
aviones
totales
impulsar
exten@@
libros
tome
compar@@
expansión
encarga
intento
preámbulo
ticos
remoción
actitud
forman
0
liberalización
organiz@@
núm.
océanos
clientes
juicios
convertido
normativos
Una
explicar
crimen
difun@@
consultar
tando
Inter@@
elaborando
DERECHOS
gases
ilícita
basan
1986
infracciones
condenado
trabaj@@
activas
ficada
tuvieran
explicación
manos
déficit
decreto
6,@@
restantes
Cambio
aprovech@@
OR@@
efectivas
Territorios
cierta
2.000
hostilidades
FNUAP
150
Alimentación
cur@@
auspicios
tramitación
sexos
compra
individuos
Bissau
denunci@@
vinculante
prácticamente
declarado
Modelo
Registro
municipios
propicio
desigualdades
ama
remos
registrados
fácil
obligatorio
estimado
presupuestarios
jurídicamente
sitios
DE@@
investig@@
correo
procede
sostenido
ES@@
sectoriales
lig@@
concluyó
OCDE
esclavitud
referente
Generales
Mongolia
tada
Directrices
mensaje
detalle
español
963
quejas
septentrional
Provisional
contienen
radi@@
terminación
realmente
tura
afectado
acept@@
Sociedad
consideren
dimensión
amplios
prioritario
presidentes
Comunicaciones
cubrir
página
directos
En@@
supervis@@
DP
Niños
impone
ismo
envió
controversia
plazas
1987
acordó
becas
Burkina
kilómetros
tin@@
eras
cierre
gar
Mozambique
Web
disponen
dimensiones
hechas
reclu@@
isla
irán
ig@@
Público
Mu@@
bu@@
Basilea
consideramos
obligados
Faso
adap@@
agricultores
aldeas
13.@@
jan
podemos
traducción
reconocidas
revisadas
alfabetización
retirada
Zambia
entender
Espacio
supuesto
UN@@
determinada
7,@@
alentó
ponerse
cuadros
vivir
estrictamente
Ombudsman
temáticos
constructivo
trabaja
gan
tras@@
indígena
AL@@
aptitudes
seno
Condición
intercambiar
ización
saldos
Cámara
bar@@
observ@@
cumple
uni@@
arm@@
registrada
asesinato
ayud@@
8,@@
calle
interesado
Alineados
presuntamente
tropas
Electoral
gestionar
tes
Género
un.org
embarazo
clasificación
delegados
ena
comenzar
copias
respeten
estructural
reserv@@
elaboró
desarrollado
negativa
directivo
prefer@@
amparo
representados
viabilidad
Africa
inseguridad
hecha
reiteró
tamaño
gradual
ura
lesiones
idades
gravemente
subtema
líneas
financiados
influ@@
ice
Tierra
conviene
rigen
fuerte
Suplemento
formulan
arts
primeras
figuraban
goce
cumpla
Panamá
ejecu@@
comunitarios
tico
mor@@
arbitraje
aliz@@
conceder
usted
sugiere
Yugoslava
satélite
detenidas
ordenamiento
carbono
renovación
101
repercusión
cambiar
inventario
ori@@
promulgación
logística
promueve
remiti@@
forestales
interior
bienal
105
anualmente
cárceles
Durban
vital
detallado
Pe@@
parámetros
ce@@
significativa
industrias
área
DI@@
ou@@
Luxemburgo
generalmente
partido
v.
ozono
envío
emprender
ár@@
cat@@
siguiera
desafío
transnacional
1985
sostiene
siguieron
Gu@@
OSCE
sh@@
atura
clasi@@
retorno
acoso
preparando
Q@@
desaparición
pidieron
físico
designado
complace
religiones
evit@@
tradicional
oralmente
terminar
Jamahiriya
RE@@
unilaterales
eng@@
mensuales
orient@@
Observadores
Es@@
sin@@
habit@@
probablemente
mutuo
telecomunicaciones
mínimas
Ad@@
preparó
alcanz@@
comenzado
avión
cali@@
proseguir
proporcionando
decenios
sequía
ampliado
comunic@@
nombramientos
vínculo
pequeño
proporcionen
esper@@
Est@@
movilidad
fu@@
promesas
consejos
electrónicos
Ju@@
fal@@
ninguno
encomi@@
deterioro
forestal
confi@@
Armadas
import@@
mediados
oración
sob@@
crucial
don@@
yan
ev@@
ej@@
vinculados
istas
consult@@
patrocin@@
pusieron
variedad
ye
armonizar
incidente
CA@@
Independiente
asegurarse
tratan
ño
cárcel
limitados
sentencias
orientadas
superficie
Se@@
necesariamente
empeño
ministros
permitiría
demostr@@
17.@@
sola
previas
concentr@@
ino
be@@
fer@@
invasión
of@@
ins@@
ban@@
hablando
ing@@
penitenciario
inestabilidad
iraquíes
examinara
clases
Pueblos
ai@@
humanas
Zimbabwe
maltrato
misiles
smo
AD@@
ala
represent@@
discriminatorias
disponga
Haya
pocas
físicas
Financiero
últimas
desean
adoptarse
hor@@
continuo
crítica
verbal
dur@@
entemente
ritmo
cadena
bas@@
modific@@
reducciones
subregión
por@@
manifestó
Honduras
centra
mutuamente
proponer
verificar
exig@@
cualesquiera
alismo
inicialmente
contempl@@
compens@@
atorio
Benin
peligros
permitió
imparcialidad
eb@@
empleos
urbana
peligrosas
Finanzas
garantiz@@
prohibir
simplemente
inici@@
Liechtenstein
prestará
ticas
bloqueo
Pr@@
subsistencia
reforz@@
piloto
competitividad
discapacidades
liberación
explic@@
exteriores
1982
intentos
POR
biológicas
Namibia
ju@@
dependen
cas@@
admisibilidad
102
9,@@
suya
regulación
diferente
integrante
PA@@
present@@
extensión
for
ov@@
islas
coordinada
108
expresadas
br@@
Organizada
defin@@
marino
manifiesta
estudiando
consultivo
lamentablemente
calcul@@
Sal@@
Atómica
ñ@@
posesión
Convenios
centrarse
entrar
hiciera
gráfico
irá
reciban
experiment@@
importaciones
aceptado
Climático
instancias
concede
pasó
detectar
supresión
seguirán
explica
pronta
basarse
declar@@
TA@@
señal@@
Capacitación
heridos
SA@@
continuidad
convenio
111
supervivencia
generaciones
exploración
sol@@
pendiente
fiduciarios
abandon@@
Co@@
complejidad
levanta
lengua
recepción
30@@
tratando
consagrados
concentración
Tr@@
enmendada
diplomática
coordinador
justific@@
250
vistas
PR@@
conden@@
minoría
enfrenta
contenidos
salarios
110
ber@@
observado
acusaciones
OS@@
mantenga
credibilidad
FPNUL
impuls@@
admisión
complejo
hall@@
trabajadoras
embarazadas
indicador
restablecer
ampli@@
financiado
especi@@
constitución
realicen
creemos
tensiones
encontr@@
dades
OSE
destacando
suministr@@
exigencias
dej@@
OSACT
afía
consumidores
detec@@
sustitución
llamamientos
reclusión
atribuciones
electricidad
concluye
aportación
Car@@
detenciones
iraquí
complementaria
micro@@
Conjunto
lectura
Principal
103
tomen
cuáles
continúan
dir
contratistas
recién
devolución
distancia
verdad
sel@@
viable
cia
contenida
plenarias
dese@@
quiero
exigen
Nacionales
describen
cuestionario
validez
continuará
continu@@
emprendidas
gestiones
combatientes
productores
UNEP
estructurado
Final
mutua
IPSAS
líderes
IX
certificado
examinaron
descentralización
quen
exigir
suele
Rec@@
prest@@
ficados
ocupar
coloc@@
sanitarios
proyec@@
palestina
UNIFEM
subsidio
bastante
incorporado
preliminares
estereotipos
provoc@@
estudi@@
ami@@
Emiratos
profesores
desarrollando
demoras
Señor
procesales
ll@@
Móvil
CERD
sufren
us
minutos
Defensor
oral
hoc
00@@
adi@@
mañana
Juventud
metodologías
EC@@
emprendido
onales
arbitraria
inspecciones
empleado
reo
oportuno
apoyado
garantice
estándar
produjo
incluyendo
preparados
Vigilancia
preparatorio
disminuido
bo@@
utilicen
facilitado
reflejar
causados
per
inquietud
Financiera
reinserción
CA
record@@
ind@@
Penas
designación
encuestas
sirio
erán
asociadas
MONUC
hon@@
labores
expres@@
106
conduc@@
facilita
docentes
impartir
solucionar
determinó
104
rían
transmite
Administrador
dispuestos
Lista
Terreno
cometer
fac@@
desplazamientos
mesas
revis@@
adición
accidentes
Estocolmo
Tratos
yen
Tareas
cuerpo
logístico
alegaciones
inteligencia
presupuestario
acer@@
especializado
coloniales
científicas
estructurales
pu@@
normal
constat@@
casa
objeciones
contribuirá
F.
esen
eni@@
serbios
CD
ble
investigadores
Apelaciones
design@@
eci@@
guar@@
Bienestar
port@@
brinda
integrantes
cláusula
forzadas
enviar
incluyó
Qué
ruta
constantemente
reclamante
salida
mutilación
und@@
og@@
prorrogar
irían
AT@@
priv@@
queja
contraídos
excepciones
solicit@@
ruso
incluía
mat@@
refer@@
Liberación
oras
Técnica
causado
abandono
Turkmenistán
100.000
Diversidad
dido
án@@
Á@@
arbitrarias
clausura
departamento
sivo
destacaron
regresar
capitales
imparti@@
seguían
presupuestación
tar@@
estuvieron
carecen
ficado
zcan
05
18.@@
allí
CE
inci@@
atorios
prioritaria
detener
sti@@
sumario
inspir@@
relatores
2,@@
neg@@
promuevan
momentos
dot@@
sustantiva
temporario
contribuyan
cri@@
establezcan
exposiciones
traslad@@
osamente
introducido
agradece
examinan
iguales
ológica
Proceso
restablecimiento
describe
socioeconómico
alivio
proporcion@@
expresando
+
rel@@
referencias
ah
defender
retraso
Secretaria
post@@
solicitante
dr@@
divisiones
consuetudinario
112
afirmación
imposible
oper@@
multa
yeron
comprenden
atos
des
Organizaciones
jubilación
Militar
dispositiva
letrada
reuni@@
convocadas
tenerse
ficadas
persistentes
Paraguay
ática
temáticas
pacientes
cosa
juvenil
integradas
endan
respal@@
Cu@@
fijado
estableciendo
107
autorizados
OUA
estimados
empleador
sum@@
sospechosos
censo
psicológica
pacífico
desempeñado
comunitaria
incitación
arles
ata
dará
Hong
cálculo
peso
orden@@
reconocida
ños
etas
reconocen
corporales
certificación
producen
tecnológica
aeronaves
alu@@
ast@@
facilite
UNMIK
qued@@
habitual
ID@@
quinta
avi@@
guarda
produci@@
encomia
concertado
brind@@
afrontar
estaría
vuelo
dinámica
cam@@
vehículo
Bi@@
ñas
atendiendo
cuál
ocurridos
vot@@
acusación
exista
Fiscalización
Kong
trimestre
suelo
Representantes
infracción
rapidez
medir
limita
legalidad
Le@@
asociado
claridad
alizados
enorme
asciende
permisos
legítima
preventivas
eno
figuraba
anza
administr@@
apreci@@
ias
Reducción
temático
fij@@
debidas
combate
aclar@@
áticas
referentes
fraude
je
entablar
all@@
otorga
der
debajo
especies
fin@@
Transnacional
domicilio
Por
Ma@@
organizados
asignaciones
vio
comunicó
X@@
contaminantes
libanés
secretarías
Formación
Guía
determina
lesa
enérgicamente
sueldo
agreg@@
Que
incumbe
deci@@
Sub@@
designados
ge@@
Tema
dispuesta
realizarse
aprovechamiento
Kirguistán
indemnizaciones
expectativas
otorg@@
quedó
frase
faciliten
MA
CN.9
presupuestaria
reunirse
Mo@@
C.@@
campamento
vinculadas
invernadero
alidades
16.@@
Corrupción
explicó
celebrarán
cultivos
orientar
pretende
conexo
Base
agente
significativo
FMI
fund@@
aceptable
abarcan
fun@@
constantes
114
estando
escasa
ológicas
mantienen
116
CON@@
Reglas
promo@@
NEPAD
Potencias
convertirse
Presidentes
Enviado
combinación
asegure
varones
colectivos
Auxiliar
Inhumanos
regres@@
estabilización
inflación
envi@@
experimental
perfeccionamiento
sensibilizar
secuestro
duplicación
aparte
declarar
200@@
que@@
aremos
Control
restricción
colabor@@
campos
raciales
planteamiento
audiencia
prestados
cuidados
avanzado
aquellas
conce@@
encaminada
inferiores
llevaron
admiti@@
ático
provinciales
aumenta
comunicarse
CONF.@@
130
amento
realice
director
dudas
ológico
fases
acional
confirmó
desplegados
man
Degradantes
correcciones
eses
ide@@
consignaciones
ai
imos
UNAMID
fica
hospital
especializadas
vuelos
parecen
transmiti@@
Dominicana
existía
incluyan
pertinencia
Add.2
14.@@
salir
emisión
separados
no@@
Fiji
HUMANOS
reasentamiento
sanción
VI@@
autorizada
Golán
descolonización
Empleo
presidencia
PARA
eficientes
continuó
lidad
consideraba
gui@@
respaldo
mer@@
Auditoría
aspiraciones
figur@@
plani@@
forzoso
nacimientos
aldea
visitar
intervenir
CU@@
noti@@
informaron
definiciones
colaborando
capaz
formal
valor@@
sur@@
muestran
flexible
dejado
materias
aleg@@
Bahrein
adherirse
115
sufrag@@
residente
penitenciarios
fiduciario
parlamentarios
Judicial
mantuvo
acompañados
nombrado
piezas
convenido
enemigo
barreras
cuanti@@
q@@
contrat@@
externas
sujeto
Q
sec@@
exhor@@
diera
beneficiarse
ep@@
comunitario
identi@@
adjunto
liber@@
increment@@
receptores
diri@@
sala
113
especie
inmunidad
oficios
.4
adelantos
repatriados
examinados
niña
reafirmó
Sh@@
organizadas
Crueles
carg@@
administraciones
extrajudiciales
estarán
armada
sírvase
MI@@
tel
aérea
mensual
Mon@@
CEDEAO
persistencia
cru@@
Togo
satélites
suprimir
convocar
discrimin@@
africano
anunció
federales
denominado
cumbre
Cuadro
tom@@
COM@@
tradiciones
procedente
transnacionales
refugiado
prorrateo
peces
castigos
aplic@@
didos
negociar
Subsecretario
expuestos
susci@@
enviado
ubicación
perjudiciales
NLB
od@@
abri@@
calcula
118
Pensiones
archivos
definitivo
én@@
reclam@@
CEPA
fil@@
33@@
examinarse
menciona
legítimos
for@@
genital
Bolivariana
policías
10.000
implementación
atentados
científico
colectivo
neto
Logística
complejas
garantizado
109
pan@@
consider@@
legitimidad
sólida
generalizada
aplicadas
apoyó
finalizar
et
altas
muertos
coordinado
dispositivos
cumbres
motiv@@
refirió
122
Djibouti
demandas
poseen
ista
presidente
and@@
respondió
bol@@
revoc@@
1970
satisfactoria
repercu@@
34@@
tomadas
prevalencia
Africano
previamente
invoc@@
CESPAP
rige
De
musulmanes
Biológica
sinergias
ío
Verificación
acompañ@@
sujetas
deposi@@
lanzamiento
Subdivisión
117
salas
constituido
próximas
UE
sobre@@
37@@
especializada
prob@@
divi@@
entr@@
confía
existir
1981
As@@
comunicar
solicitan
vieron
reiterar
secc
aclaraciones
1973
elevados
1373
aborto
Interinstitucional
itos
culpables
70@@
ona
funcionar
presiones
pág.
recuper@@
panorama
entrevistas
Véase
bajas
oficiosa
sometidas
contratar
recibidos
religioso
operan
justificar
titular
ach@@
empresariales
Ejecución
fortaleciendo
absoluta
puestas
gozan
democráticas
firmó
credenciales
38@@
objeción
alianza
conserv@@
comienzos
tarse
parcialmente
yó
comercialización
cultivo
Ni@@
CEPE
ho@@
abstenciones
oficioso
vive
facto
suministrar
informativa
Descolonización
atac@@
coinci@@
alternativa
ME@@
convenidas
poli@@
maestro
Región
prosperidad
dedicada
claras
sufrimiento
compatible
lagunas
aport@@
Reglamentación
car
rev@@
color
Tribunales
origin@@
Comisiones
afectar
hablar
hab@@
asumido
intimidación
Segundo
publicará
mantenerse
implica
proteg@@
Ultraterrestre
impiden
obedece
Pre@@
visi@@
maneras
www.@@
demuestran
diamantes
dirigir
CP@@
complementarios
tim@@
lu@@
itas
deberes
oro
desfavorecidos
cónyuges
1978
nu@@
votantes
diversificación
36@@
Drogas
otorgar
complementar
1984
hipótesis
ov
organizaron
herramientas
cion@@
capaces
ord@@
Socorro
extr@@
incluirá
MA@@
facilitando
visitó
utilizadas
millón
innovadores
analiz@@
parto
Barbados
182
injerencia
imperio
140
aviación
138
Prohibición
pertenecen
prioritarios
logr@@
Agencia
enseñanzas
productiva
códigos
prever
cul@@
mir
habrían
acredit@@
excepto
ONUCI
Manual
universales
pedi@@
debatir
Diálogo
comentario
lleve
razonables
RA@@
XI
concertados
modificado
pon@@
certificados
urbano
administrar
Voluntarios
siva
pasivo
celebr@@
_
constituía
firmar
conversión
1ª
navegación
puerto
ascienden
asigna
én
abandonar
diendo
nas
mencionó
atraer
public@@
dadas
UNMIL
comparte
innovadoras
gobern@@
concertación
retiro
reanudación
apéndice
amenaz@@
hoja
conec@@
circunstancia
ne
50.000
FCCC
suyas
3.000
exhortó
permanecer
urbanos
aumentos
contribuyó
excepcionales
territoriales
africana
votar
transcurrido
inst@@
invitados
profundo
153
condenas
institutos
180
manteniendo
liquidación
combin@@
1949
distribuido
oci@@
ON@@
dedicación
vers@@
vincul@@
program@@
Industrial
Transporte
disminu@@
compr@@
125
CO
entrañ@@
119
ODM
inclusivo
pondrá
estimular
preocupada
globales
ense
juntas
Guyana
19.@@
ocupante
uniforme
AC.@@
completar
anía
ministerio
energética
acumul@@
actuando
reto
encuentren
123
aras
comunitarias
testigo
disciplina
reformar
Minorías
mercenarios
matrimonios
justificación
disciplinarias
brecha
auditorías
observaron
fique
apoyan
informativas
intensificación
yendo
apartados
defensor
asesor
resid@@
casas
25@@
2ª
ganancias
alej@@
copia
muestras
cionales
altura
invertir
ecto
subrayaron
Vi@@
aprobaron
inclu@@
nombr@@
vivos
artefactos
indicaron
anunci@@
sucesión
malnutrición
conciliación
do@@
emergencias
conci@@
intercambi@@
protegidas
Seguimiento
mente
administradores
revel@@
tem@@
responde
facilitada
signific@@
pos@@
protegidos
combustibles
Su
carreteras
http
excepcional
tutela
acompañado
dictamen
segura
terrestre
vele
fiquen
Productos
actualiz@@
ficaciones
tra@@
forzada
iii
renov@@
diario
crea
Cas@@
garanticen
121
publicidad
computadoras
decida
llevadas
grav@@
produce
OM@@
registraron
medición
enormes
ocasion@@
aplicará
examinen
apoyen
marítimo
promulgado
Fortalecimiento
aumente
gri@@
resuel@@
facultad
anc@@
dificultad
orientado
impide
intent@@
gestion@@
nicos
má@@
50@@
contribuyendo
P.@@
aw@@
01
insuficientes
impresión
perjuicios
opina
legalmente
AM@@
novedades
Gubernamentales
destacado
th@@
histórica
críticas
transform@@
24@@
huérfanos
sustituir
contra@@
modernización
ego
periódica
comprendidas
cos
conscientes
Monterrey
explot@@
viene
afecten
ocurrido
antiguo
mis
oblig@@
Estratégico
antigua
determin@@
dietas
regula
partidas
encontraban
pilares
inquietudes
comparti@@
Frente
violentos
negativamente
endi@@
Tokelau
establecerse
creando
enfrentar
arización
verdadera
ong
renovables
arnos
áticos
deneg@@
revitalización
Racismo
iría
resultaron
dida
p
TD
efectuado
sustancial
Z
cap@@
eta
TO
Observador
cumpliendo
exhaustiva
CC@@
mínimos
propiedades
hacer@@
ASEAN
limpieza
derog@@
habl@@
elev@@
respaldar
ko
preval@@
restos
llegada
notable
seriamente
ciencias
fallos
quedar
prestada
enjuiciar
inventarios
doy
enfer@@
altamente
DA@@
disparidades
definido
cr@@
moneda
CESPAO
mensajes
arriba
CN@@
decisiva
rendir
sancionar
convencida
entales
nombrar
alternativo
Violencia
informara
cobrar
foment@@
Monetario
Malawi
darse
XV
llamado
afectada
envejecimiento
hidro@@
134
emente
Cor@@
temor
intercambios
vinculantes
Alimentos
UNITAR
presentaciones
quizás
Trans@@
Man@@
docente
reviste
Níger
quiere
higiene
moder@@
helicópteros
adoptara
160
directivos
Suprema
aliviar
desempeñando
títulos
claros
1.0@@
tecnológicos
facilitó
solicite
Proyectos
acus@@
Franja
169
atr@@
favorablemente
ético
recíproca
pens@@
ter
IED
aument@@
proporcionados
establecieron
autorizar
cab@@
Si
subrayar
actualizar
efectu@@
palestinas
atmósfera
Bar@@
gradualmente
propici@@
ques
trataba
Capítulo
corregir
valiosa
Instancia
itario
estaciones
aprob@@
edi@@
móviles
modalidad
diplomáticos
finalización
señalan
significativamente
registr@@
he@@
ear
Puerto
redujo
someter
cónyuge
ega
restring@@
detalladas
retir@@
CEPAL
ológicos
124
Copenhague
ens@@
Samoa
preocupan
citar
constru@@
CAT
Apelación
one
resultante
recaudación
creada
fenómenos
Biblioteca
contrata
tenencia
Especiales
testimonio
magistrado
accesibilidad
popular
Escuela
secundarias
conservar
indicación
excesiva
ambi@@
UNPROFOR
decisivo
celebrados
23@@
Ri@@
j
aislamiento
físicos
legítimo
exce@@
explícitamente
incluyera
procurar
tenor
Lagos
Utilización
pes@@
médicas
debati@@
centró
diplomáticas
transfronterizos
abarcar
umbral
soliciten
atorias
oportunamente
cripción
planificar
estimó
doc@@
155
A.@@
Botswana
juntos
cooperen
correspondencia
manifestado
fría
constructiva
cios
romaní
Per@@
Adquisiciones
profundas
dirigió
luch@@
redactar
incapacidad
lucro
refiriéndose
Medi@@
IA
inmediatas
armonía
atoria
resultar
imper@@
felici@@
nor@@
equilibrada
adquirido
utilizada
asesinatos
remisión
traducido
registró
preguntó
considerará
compatibles
cooperativas
estación
adherido
definidos
autom@@
sudoriental
Lu@@
tramit@@
asentamiento
20.000
impugn@@
piratería
complejos
128
ef@@
GENERAL
Sector
É@@
carretera
parti@@
orientados
noticias
insolvencia
imprevistos
dirig@@
auxiliares
espec@@
participando
publicar
fican
presidenciales
consagr@@
asumi@@
denegación
export@@
deporte
imagen
invitar
exclusiva
Principales
sanitarias
pedía
celebrando
produjeron
132
Estudios
duraderas
sent@@
sometida
devast@@
insuficiencia
avanzada
conven@@
minerales
Estudio
añadido
afect@@
indicios
viaj@@
neta
precisión
sistemático
Partido
aceptó
discriminatorio
Cairo
muro
transport@@
lecciones
registradas
jurisdicciones
informáticos
interactivo
antiguos
quizá
preveía
Públicas
proporcionará
curs@@
Adelanto
queremos
tendrían
Madagascar
marginados
tic@@
aéreas
Washington
histórico
contratista
propagación
Am@@
considerados
formul@@
ito
rechaz@@
Otras
debió
rotación
estr@@
numer@@
bis
juzgar
difer@@
transparentes
enfrentamientos
Ronda
Kar@@
frecuentes
dedic@@
insisti@@
colaboradores
domin@@
puertos
plantear
medianas
UNIDAS
inspectores
procur@@
denomin@@
veri@@
Promover
zo
Puedo
progenitores
reacción
restitución
permítaseme
Mi@@
planteado
autoriza
Si@@
UR@@
permiti@@
Discapacidad
1,@@
redistribución
Me@@
manuales
prepar@@
destru@@
Sub.2
recibi@@
sexta
preservación
tal@@
confidencial
audiencias
variaciones
accesibles
AOD
tempor@@
compuesto
íamos
men@@
unilateral
seguras
Verde
académicas
x@@
íntegramente
promueven
ajes
Resolución
contraídas
anim@@
círculos
preten@@
amentos
colonos
sion@@
argumentos
Woods
ang
Im@@
EM@@
socioeconómica
aprobara
cent@@
despleg@@
Qaida
potenciar
carece
actualizado
apenas
resistencia
colocación
preescolar
llevará
CICR
conseguido
ancianos
fundament@@
conocido
examinadas
geo@@
126
prohibido
existan
socioeconómicos
universalidad
alizada
privatización
transacción
199@@
acu@@
Maldivas
Nota
culpable
Bretton
extra@@
retención
primarias
capaci@@
lleven
metros
simple
cápita
vigencia
resumidas
actúan
bur@@
are
Londres
mal
CH@@
1979
reúne
continuado
excelente
bio@@
cuartel
oeste
matrícula
extracción
Academia
plantas
debilit@@
20.@@
Í@@
seguida
Consenso
referéndum
Acuerdos
esbo@@
dólar
Todos
teléfono
red@@
efectuados
milicias
gast@@
celebrarse
acreedores
resumida
2020
causar
estricto
Estatal
espacios
den@@
escasos
precedente
Grandes
Excelencia
162
mentales
procura
zado
acepta
fijar
RP
valoración
celebre
transmitió
sirve
hubiese
convicción
corte
salv@@
orientada
dedicadas
instamos
1983
prejuicios
Mauritania
Gar@@
descri@@
imp@@
fácilmente
emplear
141
acia
interrog@@
analfabetismo
ón@@
ejecutado
contenía
subprogramas
redondas
favorecer
turas
disponía
retirar
costumbres
bombas
Nucleares
rea
tiempos
aqu@@
significativos
interlocutores
tido
udi@@
aeropuerto
abrir
Atlántico
iendo
convoc@@
identific@@
conexión
ine
tensión
mas
administradora
completamente
revisiones
Detallada
nicas
bro@@
SE@@
provocado
Lao
académicos
dedicados
Addis
joven
interdependencia
agrup@@
respetando
acaba
agotan
compleja
conveniencia
expedientes
imágenes
reprimir
ban
interinstitucionales
minoritarios
educativa
Trinidad
ACION
continúen
Abeba
índices
pareci@@
ema
estuvieran
Johannesburgo
ficó
Po@@
Papua
autorizadas
endas
salvaguardar
duplic@@
.org
fuese
reconocemos
129
reparaciones
adoptan
donaciones
efectividad
ani
designar
MANUD
expresada
diagnóstico
tocante
busca
Zona
cio
tecnológico
Menos
Inmigración
ejecutiva
complet@@
aumentaron
temporales
PNUFID
tradición
encarcelamiento
persistente
simpli@@
heridas
ingres@@
productivo
convencido
reduci@@
época
133
ú
135
importe
módulos
incluirse
orgánica
127
empleadas
reconocieron
reciba
incumben
aloj@@
pudieron
significado
C.4
éticas
alizadas
disminuyó
cabal
acumulación
destac@@
perdido
fórmula
Mediterráneo
clor@@
oy@@
Distrito
esp@@
estableciera
divorcio
consultarse
antelación
vigil@@
fax
ambientalmente
ejerce
trabajador
aborda
anticonceptivos
regi@@
socioeconómicas
consideraron
utilice
transferir
icamente
mala
Adelantados
llenar
cooperando
manten@@
conform@@
sujeta
presidido
bienvenida
stos
epidemia
estructur@@
previsible
económicamente
establecerá
representado
publicados
adiestramiento
apart@@
sancion@@
desp@@
combinados
argumento
const@@
235
levant@@
americana
145
Mónaco
incertidumbre
desplaz@@
pagado
Reforma
Bu@@
recabar
abolición
moviliz@@
obliga
Madrid
No@@
yo
añadir
ago
expuestas
deliber@@
patrocinado
persecución
Bangkok
ejercicios
go@@
entornos
separ@@
óptimas
exhaustivo
ejecutando
obje@@
ilustr@@
peri@@
NACIONES
existían
interes@@
acreditación
ads@@
áfica
edición
ratificó
adoptará
SI@@
Palacio
autoriz@@
1974
aduanas
Ay@@
etc
anticip@@
marina
particip@@
entrevist@@
regularmente
Comandante
detenida
prima
acionales
deja
Bruselas
aborígenes
CR@@
pat@@
adopta
Contribuciones
fundadas
geográficas
planeta
pautas
agresiones
intern@@
desprende
patrullas
interpre@@
compensación
incompatible
propietarios
séptima
conoce
acog@@
Par@@
secu@@
vinculación
tro@@
contempla
provisión
alistas
13.15
fuertes
1960
ingeniería
homenaje
buque
nocivas
logró
elevadas
lin@@
prisioneros
intersectoriales
hom@@
reafirmar
Estambul
funciona
elevar
recuperar
poner@@
garantizan
ces
instal@@
tradicionalmente
leg@@
habilit@@
proponen
abog@@
asisten
IDB.@@
modos
escol@@
abon@@
disminuir
Tabago
vacaciones
suscri@@
Ro@@
negativo
rebeldes
je@@
respete
ecológicamente
Jurídico
adjunta
finaliz@@
gratuitamente
131
dispens@@
tivamente
uro
barrios
auxiliar
uniformes
aga
reform@@
muerto
marc@@
llev@@
exponen
esperaba
St@@
Desastres
elaborados
dañ@@
consta
ocurre
practic@@
ín
recogida
abarc@@
pasando
Órgano
escrita
ces@@
Diario
Orden
encarar
Pri@@
solicitada
tamente
San@@
pobl@@
opon@@
ventaja
sus@@
143
interrogatorio
anterioridad
adaptar
Estadísticas
Contratantes
delictivas
hallar
PRO@@
localidades
siquiera
Qu@@
semestre
marítima
taciones
cob@@
marido
aplazar
explicaciones
aus@@
formulario
TI@@
incluían
guen
manifestación
ron@@
Golfo
MINUSTAH
equilibrado
ONUSIDA
actúa
Científico
capítulos
caus@@
manejo
2016
adoptaron
Instituciones
riqueza
comprendidos
contractuales
norm@@
memoria
adquiri@@
almacen@@
itaria
junta
Li@@
huelga
comunicados
merece
Cuenta
infantiles
disfrutar
intermedio
escolarización
Nuevo
142
subrayando
retras@@
racionales
robo
torio
académico
voluntariamente
137
añad@@
Real
sim@@
1975
136
Ordenanza
agr@@
proclam@@
Aumento
OTAN
Vivienda
consultivas
proveedor
4.000
Obras
ocul@@
UNMIS
estimadas
ulteriores
contraído
migratorias
sto
peores
democratización
ios
armoniz@@
Vicepresidentes
cabalmente
sumado
PROGRAMA
asisti@@
Príncipe
complementa
situadas
democráticos
aprecio
166
adopt@@
reunido
municipal
asoci@@
sufrimientos
eles
imponen
europeos
transfer@@
chino
presentaran
ech@@
ras
Mundo
proyecciones
adoptados
Profesional
ONU@@
escritas
estuviera
lec@@
realidades
21.@@
2017
verdaderamente
anuncios
racistas
colabora
habrán
depósitos
arresto
agrupaciones
Seminario
cerr@@
SOBRE
compañías
orgánicas
Commonwealth
nombrados
guardan
confirma
empr@@
11@@
retrasos
GE@@
candidato
Ru@@
juveniles
Directivo
fe@@
extremadamente
caracteriz@@
tan@@
denominada
aportado
indicaba
toman
controlada
resultas
rob@@
ruega
consejo
icen
amnistía
torias
convendría
151
aporte
inadmisible
acogemos
Preparatoria
llevarse
definen
flu@@
rar
Pl@@
emple@@
abordarse
Cabo
concertar
pabellón
Permanentes
paludismo
gió
rió
llega
exención
contener
rango
35@@
139
ini@@
Experto
dominio
Centros
diman@@
aparición
entabl@@
pró@@
arma
encaminado
obtenida
nacido
voz
prestarse
obtenidas
ayudará
confidencialidad
completos
representadas
perfeccion@@
tribu@@
poca
int@@
eligió
Gabón
atiz@@
nico
40@@
talibanes
cuestion@@
Independientes
excesivo
coercitivas
manifest@@
autorizó
influir
expedición
presentando
constituían
sores
LA@@
calificación
juego
mucha
ao
OMI
encontraba
sas
fija
determine
módulo
mantengan
her@@
emplazamientos
IA@@
retro@@
continental
predomin@@
indirectamente
cientos
domésticos
sectorial
segu@@
Palestino
Bosques
rechazo
frecuente
deseamos
someterlo
cobr@@
suerte
correcta
acoger
decente
trabajado
sugerencia
CARICOM
G.
vídeo
are@@
LES
Asesoramiento
ándoles
sustancia
transfi@@
prohibi@@
preferencia
coherentes
comprobar
Emergencia
indicadas
144
mostr@@
pregun@@
tipi@@
has
estadounidenses
signatarios
reglamentaciones
pasos
Integrado
orgánicos
señaladas
apoyamos
aproxim@@
realizará
promueva
apelaciones
000
diplomacia
produzcan
Gabinete
atribuye
brevedad
provenientes
Informes
redund@@
reafirm@@
profesión
acordados
usar
C.6
ronda
organiza
contraria
error
consolid@@
confer@@
ult@@
ejecutivas
inf@@
estricta
preocupante
suspendi@@
compatibilidad
devuel@@
fuer@@
conf@@
sólido
acogieron
viajar
cripciones
demandante
imprescindible
enumerados
ACIONES
59@@
reemplaz@@
adaptarse
personalidad
remesas
reanudar
seleccionados
áficos
añadió
descenso
INF
pedidos
preparatoria
ahorro
encarg@@
bibliotecas
ablemente
realiz@@
contables
abiertas
introdujo
resuelto
Ham@@
objetiva
Para
ánica
sabe
plenario
simultáneamente
rector
Fomento
facilitará
emergentes
6.000
solicitados
edor
transi@@
extraordinarias
reseña
racionalizar
aprovechando
ev
147
referirse
Tratados
lan@@
vulnerable
1977
Integración
reclamantes
acab@@
146
IONES
convencidos
MDL
Encargado
23.@@
manifestaron
arsenales
ran
concedido
tendientes
sab@@
reci@@
ilegalmente
san@@
tuberculosis
golpe@@
promulgó
242
instructores
stat@@
inocentes
ren@@
tel@@
tend@@
refugio
consecu@@
art@@
esc@@
castigar
elec@@
jornada
externo
limitadas
ment@@
electrónicas
AC.109
fronterizos
AMISOM
auditores
abordan
franc@@
provincial
CCPR
equival@@
aturas
funcional
protege
Sudoriental
alternativos
ibíd
oficio
mención
it
mara
Tráfico
verdadero
implic@@
progresiva
desarrolladas
CAC
156
refería
encima
aparatos
suyo
tora
unificado
aspir@@
MM
integran
libro
radic@@
Mal@@
COMISIÓN
bir
suspender
diligencia
Inversiones
directriz
UNFICYP
autónomo
ascendía
fec@@
dijeron
152
tir
soport@@
vel@@
vulner@@
violado
enmendado
22.@@
ejercen
Ambiental
ate
Situación
Cuarto
Gobernador
WP.@@
1540
intensific@@
dict@@
alber@@
154
socav@@
expuesto
indispensables
racionalización
potenci@@
definidas
individuo
ejecutan
marginación
absoluto
comprador
lament@@
americanos
institu@@
remitir
apátridas
ensayo
respondieron
formado
contemporáneas
pa
11º
reforzado
CCI
tomaron
emitió
Análisis
MINURSO
str@@
frecuentemente
cen@@
lanz@@
comprob@@
ór@@
Bel@@
ubic@@
emb@@
ampliando
Interamericana
perpetr@@
dimanantes
medicina
sólidos
ster@@
discriminatoria
subordin@@
Bo@@
informática
afirmar
inundaciones
encial
excesivamente
comerci@@
compartida
produc@@
potenciales
consistente
afiliados
irregular
gente
indicados
primas
obe@@
arbitral
toria
resultó
fl@@
lograrse
document@@
precursores
www.un.org
bancarias
plas@@
notar
Estabilización
Guam
agu@@
aplicarán
emas
Nu@@
viables
Libertad
desaparecidas
enden
presidencial
cláusulas
accesible
inmunidades
158
situado
00
inco@@
corren
incorporarse
Plenario
apo@@
deleg@@
candidaturas
dispon@@
expedi@@
institucion@@
promulgar
esencialmente
CLD
precisamente
notables
describir
soci@@
adquiridos
TE@@
limitarse
informará
prohibidos
Gibraltar
remite
cambiado
suprimi@@
números
controladas
251
ofrecido
usa
daba
depósito
fide@@
representar
toras
empezado
madera
urbanización
repeti@@
02
ak
impres@@
pacíficas
íes
otorgamiento
infecciones
corporal
bast@@
conocidos
ez
dispar@@
alista
marinas
confirmar
respondido
francos
data
vinculado
celebran
Migración
complic@@
fran@@
abstenerse
confirmado
presuntas
negocios
imparte
digital
ocupándose
asist@@
presunta
1961
vuelto
fecundidad
inaceptable
48@@
llam@@
notificaciones
Rotterdam
costas
insumos
CP.@@
bilidad
inalienables
quién
cancel@@
Legislativa
banco
gh@@
sumarias
infección
honorarios
sanitario
desplegar
recibiendo
denunciar
enciales
157
Rights
prepare
ajusta
grados
abi@@
estipul@@
posiblemente
conocida
licitación
EL@@
ani@@
represalias
Aprobación
traduc@@
históricos
Con
encarcel@@
Ser@@
ser@@
reflexión
calcular
condicion@@
psicológico
ayudado
diseñ@@
148
mono@@
surgido
03
felicita
capacitar
yera
exenciones
transmisibles
constituidas
complemento
complementario
ofrec@@
Ko@@
cau@@
señalando
Dis@@
reduciendo
detallados
experimentado
arrest@@
Lesotho
control@@
1,5
ece
elabor@@
públicamente
ST
racimo
ICA
cero
57@@
mobiliario
adoptaran
aseguren
Ciudad
sostuvo
Cercano
vic@@
citado
recomend@@
costa
preparada
delictivos
fiables
celebraría
proced@@
Reconciliación
alter@@
Organismos
distinto
multiplic@@
situada
situ@@
pul@@
Número
estancamiento
pensamiento
So@@
FA@@
ocupar@@
bordo
harán
rup@@
12º
orios
innovaciones
I.@@
39@@
egos
apartheid
repuesto
volvió
presentarán
garantizados
desglos@@
profundidad
resulte
preparatorias
Tom@@
Migraciones
ofreció
Océano
fortaleci@@
enjuici@@
Minas
netos
alentando
ota
canales
unanimidad
énfasis
bus@@
emplazamiento
contamin@@
Decisión
trág@@
encomend@@
mencion@@
limitan
éticos
reiter@@
urgentemente
cional
entrado
dedican
Or@@
sis
1971
ín@@
centrar
reforzando
har@@
vivían
149
ater@@
Pobreza
dol@@
ger@@
integrarse
avanzando
hicieran
vectores
aumenten
208
representaban
empresarios
Marino
recopil@@
promesa
emitido
creo
convertir
matriculación
TA
edit@@
requer@@
fa
ONUDD
indirecta
normalización
declarada
converti@@
Global
165
.00
dependerá
result@@
Dr.
ordinaria
perpetrados
sign@@
postura
expone
renovable
distinta
arraig@@
ocur@@
supuestamente
fungibles
encabez@@
dirigirse
situados
bal@@
entas
taba
sistemáticas
ascendieron
temática
bos@@
residen
obtuvo
estoy
mencionan
senci@@
planta
concepción
adversos
asumidos
provi@@
judicatura
enunci@@
hostigamiento
participante
ace
excombatientes
parlamentarias
trastornos
anal@@
vac@@
GU@@
promulg@@
encuentre
cohesión
atentamente
J.
resultan
contextos
eléctrica
lejos
sistém@@
funcionan
192
1976
zación
ciclos
doctrina
firmes
ejerci@@
prosiga
raciones
pusiera
crecientes
demográfica
descentr@@
inscritos
boletín
aré
Fondos
IT@@
posterioridad
críticos
informada
préstamo
colombi@@
Br@@
centrará
omiso
forzado
respe@@
170
tienden
transcurso
aceptables
din@@
AP@@
prolongada
161
penetr@@
Arbitraje
ciento
implantación
anuncio
trienal
ordenar
dificult@@
octava
senti@@
parlamentos
nutri@@
ricos
niñez
XII
garantizando
examinada
constancia
biodiversidad
accidente
moratoria
ard
contrarrestar
cuidadosamente
Cuando
industrializados
trámites
esposa
prohibiciones
goz@@
sufrir
contradic@@
Cuotas
perjudic@@
europeo
colegas
acorde
consagrado
expediente
entrañan
06
droga
correc@@
pose@@
1951
localidad
acordaron
ocupada
Centroamérica
SC
inten@@
oria
159
critos
prometi@@
generado
reiv@@
ade@@
apl@@
kg
puerta
celebren
macroeconómicas
excluidos
guerras
expresiones
ei@@
estables
Mor@@
Economía
registrar
presunto
adu@@
asistentes
extraordinarios
escuch@@
firm@@
deudas
acontecimiento
Bagdad
condu@@
concierne
Coalición
atentado
amigos
aya
obtenerse
contribuiría
ístico
cionar
incluyeron
jur@@
compañía
46@@
multianual
sospechoso
contribu@@
condenadas
normales
desempleados
RI@@
medianos
lenguas
ventas
fundamentos
deseos
aparecen
fiable
traz@@
libr@@
H.
dan@@
227
1.1
destacan
prohíben
colectivas
exceso
47@@
estimada
impedi@@
ogr@@
subvención
utilizó
213
Fines
equip@@
Moscú
impuesta
creen
ed
remuner@@
plataformas
ascendió
pedagóg@@
somos
legítimas
oportunas
Recomendación
actualizados
COP
ric@@
contribuya
órbita
Poblaciones
verá
folletos
éxitos
ariamente
culos
LE@@
incurri@@
tabaco
enmendar
conoc@@
secreto
enumeran
llegaron
Ti@@
iza
agencias
mand@@
exhaus@@
enmend@@
haci@@
renunci@@
eti@@
Conjunta
finalizado
plur@@
mil
esperanzas
ill@@
autócton@@
ayudando
abar@@
aviso
fomentando
Por@@
francesa
eco
ene
restric@@
Ciencias
OCI
positivamente
pertenencia
Bahamas
PC
ite
formulen
morales
costeras
cáncer
creer
tercios
ajustarse
lingüísticas
publica
académica
detenidamente
Pequeños
elabore
estimul@@
sen@@
preparara
lici@@
blanco
dirige
Mer@@
sirven
fronteriza
enter@@
dictado
UNU
211
mentos
constituyó
culmin@@
cargas
FR@@
afec@@
minería
UNITA
tividad
financiadas
abarcar@@
novena
falleci@@
PA
nica
dedicar
congel@@
mac@@
167
informal
llevada
pasajeros
Res@@
década
padecen
forzados
metro
estim@@
ratific@@
Har@@
distribuye
eda
arte
macroeconómica
IM@@
iales
tercio
soberano
cuota
desplegado
dependiente
Sam@@
Add.3
criminales
recomendadas
conducir
recor@@
planteó
Andorra
gir@@
agotado
IP@@
tratarse
insiste
ecológica
compromete
productivos
Omán
autor@@
moción
coordinadas
ENT@@
financiamiento
reunificación
sorpr@@
PRST
eli@@
australi@@
cotidiana
obstaculiz@@
civilizaciones
biológicos
convinieron
mantendrá
atri@@
alcanzó
escaso
materi@@
cartera
reembols@@
correctamente
aco@@
aco
Gambia
218
acabar
milenio
contrabando
distribuyó
Cómo
concerniente
encontrado
acreedor
remotas
internamiento
ki
lamentable
ólica
Multilateral
errores
utilizaron
calificados
nea
obligadas
previ@@
Bonn
abund@@
atañe
Directiva
metilbromuro
dieran
pareja
hal@@
contravención
constituida
coordinados
ejecutados
emitir
cabeza
direcciones
haría
Belice
fon@@
representaba
bo
aporta
embarazos
estudie
S.@@
Sha@@
24.@@
hí@@
Oportunidades
distin@@
extremistas
ajustar
africanas
redoblar
Suriname
1.500
248
helicóptero
ativamente
pensar
visit@@
terrenos
rwandeses
oma
noche
zan
escri@@
completado
220
eres
Faja
organ@@
alega
realista
empezó
Trata
reanud@@
ocurri@@
organizando
237
201
firmaron
requerido
ESTADOS
interpretarse
ducir
Luna
modernos
L.1
somalíes
juzgados
pier@@
subsidiario
operativos
aprender
09
SS
M.
bió
cer@@
intensifique
legisl@@
Democracia
decidi@@
ofertas
mit@@
ay
ileg@@
indique
sica
diplomático
GR@@
certific@@
universitarios
europea
comprend@@
sedes
detrimento
GC.@@
supuestos
ibles
prolongado
llegue
malaria
gozar
Is@@
siguieran
Ali
consideradas
aplicada
transfronterizo
adoptarán
enunciadas
Insulares
ejemplares
vinculada
pasa
asegura
penitenciaria
hallan
prestara
silvicultura
Objetivo
excluir
164
capacitados
exactitud
sustancialmente
CIÓN
dist@@
Rel@@
amistad
proporcionaron
organizan
José
sust@@
Decisiones
desarrolla
conexa
mode@@
ira
aceptadas
complementariedad
1972
183
estipulado
estrictas
mapas
acion@@
conceptual
abiertos
merecen
blemente
ezca
intervienen
facilitan
congelación
tecnológicas
bl@@
consolidado
expir@@
Conducta
centrándose
10,@@
equivalentes
210
automáticamente
correspondan
04
flexibles
otorgado
enseñ@@
asequibles
ún
Solidaridad
plant@@
administrados
World
revista
convicciones
terminó
fijo
asesin@@
TE
Ali@@
frustr@@
encomendado
172
201@@
cá@@
199
suce@@
introduci@@
ascend@@
diarios
cron@@
recer
IS
deba
decía
214
obligada
189
incompatibles
aéreos
ase@@
propon@@
síntesis
respalda
beneficiado
fijación
descubri@@
Embajada
13º
agre@@
reiterando
sustanciales
incendios
Establecer
bres
Espacial
bri@@
28.@@
respondiendo
jera
alrededores
tribales
rein@@
cuán@@
Tercer
progresivamente
quiera
persisten
jud@@
informativo
resolverse
experimentales
equivale
apareci@@
pot@@
uras
inscribirse
PU@@
circular
163
fallecimiento
W
prepara
intersectorial
enal
cercan@@
introducidas
not@@
plaza
Técnico
residuos
empe@@
270
dici@@
supon@@
Altas
productivas
proces@@
CEI
regulan
patria
tre@@
FDI
homólogos
lización
dia
El@@
gando
perfil
determinan
Contralor
capa
rlo
hacinamiento
AI
egue
DH
manifestar
generalizado
Atención
escuchar
CFC
cons@@
um
volvi@@
enlaces
aceler@@
Caledonia
Sch@@
enunciado
Erradicación
disturbios
deficiente
personalmente
let@@
sa@@
formule
amb@@
visado
grande
intérpretes
CAPI
suponen
injustific@@
participe
seleccion@@
demográficas
etnia
Orgánico
consideraban
Ministra
Víctimas
efectuó
comparten
acordadas
destruir
tud
incursiones
uranio
producirse
confirmación
propiciar
refuerzo
trató
candidatura
penitenciarias
isl@@
dictar
prorrogó
Pan@@
Zaire
rehenes
quedaron
reproducción
Human
vol.
Iglesia
multilateralismo
173
vis@@
eventos
08
fijados
crítico
ofreciendo
fiscalía
abe
adop@@
soberana
exigencia
correctivas
promovi@@
supre@@
oría
lit@@
condicional
absorción
precis@@
giendo
llamada
inversores
indicaciones
contratados
laboratorio
EA
produzca
microfinanciación
atas
ER
progresivo
causadas
río
renta
Boletín
examinarán
cualit@@
cuali@@
top@@
30.000
prorrate@@
seleccionar
orio
reco@@
iba
encarecidamente
confiscación
desvi@@
evidentemente
encar@@
FNUDC
desglose
reunieron
Plurinacional
ponder@@
macro@@
Agua
dosis
cadenas
suc@@
entendi@@
XX
aumentará
Industria
moderna
herramienta
respondan
ejercer@@
orales
175
CDI
deriv@@
Cont@@
uales
deudor
rit@@
Bhután
alquil@@
compuesta
226
Desertificación
diseñar
Comités
fisionable
q
cese
evacuación
tutor
alcohol
recur@@
configuración
construc@@
po
doméstico
ali
desaparecidos
necesi@@
quinquenal
FI@@
fundada
haiti@@
quin@@
descritas
ayuden
alentador
móvil
Enlace
rem@@
destacados
afganos
indiquen
181
interesada
dictó
remunerado
An
empezar
Salas
presunción
Kivu
versiones
agotamiento
convirti@@
til
llamadas
paradero
actúen
cuerpos
aisl@@
benefician
empeñ@@
renu@@
SP
teór@@
D.@@
II@@
nav@@
reúnen
permitía
Senado
mares
coacción
gara
185
semanales
posee
prece@@
señalados
imperativo
Nor@@
existiendo
erró@@
restaur@@
restabl@@
enfermos
Pacíficos
reduce
permanencia
gación
gratuito
168
cometen
Adjunta
nacionalidades
desviación
cesión
efectuadas
confisc@@
deportación
ezcan
vesti@@
liza
dependientes
lla
ecer
notific@@
interrupción
pormenoriz@@
análogas
endeudados
centrada
muchachas
temporalmente
permitiera
identificado
responda
quer@@
inv@@
resúmenes
lab@@
Abu
ulares
acompañada
sostenida
reducida
persegu@@
exportadores
criminal
juzg@@
valioso
vendedor
Negocios
emin@@
anci@@
171
RC
arrend@@
arroj@@
OIM
241
ticamente
prerrogativas
49@@
ajusten
culto
colonial
tina
vacunación
situ
Americanos
encontrarse
segregación
involucr@@
enses
Mej@@
creci@@
escal@@
bil@@
contrarias
perfeccionar
mostró
guarderías
congole@@
opin@@
Ki@@
menoscab@@
encargará
estadounidense
Consul@@
promovido
bre
poder@@
biblioteca
ministeriales
CRIC
liz@@
ieron
Humano
baj@@
décima
visitantes
asistió
interesante
cha
sospechosas
fusión
desigual
243
receptor
cuid@@
acom@@
consisti@@
someter@@
flagelo
aquel
174
suplentes
ocu@@
reorganización
Umoja
tangibles
tradu@@
levantamiento
corre
2,5
177
laboratorios
significativas
233
corrección
milit@@
profesion@@
reconoci@@
sali@@
For@@
desarrollan
có@@
PV.@@
establec@@
paridad
ándole
orgul@@
internamente
plaguicidas
Abyei
provocar
via
socios
favoreci@@
Inspectores
concer@@
rle
EX@@
perpetua
inser@@
env@@
nombró
ST@@
arrendamiento
dejó
disparos
notificado
visados
1.2
bonos
decidida
prohíba
depend@@
12,@@
mostrado
reafirmaron
violó
diaria
entenderá
sible
eder@@
iniciación
CI
foc@@
27.@@
Direc@@
problemática
ch
44@@
itud
secuestr@@
animales
restringir
queden
invocar
58@@
propaganda
perturb@@
servirá
trabajen
balance
II.@@
Bienes
ros
pli@@
percepción
PAR@@
Tri@@
Jo@@
masiva
salvar
toler@@
ganado
imparciales
The
men
simplificar
tripul@@
croatas
prohibida
mancomun@@
Val@@
ratificados
aplaz@@
OP@@
considerada
CON
191
recae
tab@@
2.1
perder
gn@@
aclaración
respald@@
patri@@
residuales
publicada
240
Químicas
asegurando
retirado
ari
FIDA
gratitud
reconozca
incluirán
ciertamente
calificaciones
190
rechazó
procediera
agro@@
noción
mec@@
conmemor@@
continuamente
confirm@@
grab@@
designadas
sem@@
sac@@
=
divul@@
UNO@@
habitualmente
centran
exacta
depuración
suscrito
apoye
crearon
sever@@
consultor
tutores
CM@@
forzosos
subsiguientes
potenciación
INF@@
adiciones
iv
contingente
serio
Página
japon@@
FNUOS
Ben@@
teleobservación
restrictivas
ulación
divisas
añade
ham@@
ible
Integrada
TIV@@
respet@@
parejas
reclasificación
fluctuaciones
supervisa
citada
reiteraron
pesquera
traspaso
localización
lizar
erían
Min@@
carcel@@
renovar
Menores
obligar
llevados
secundario
erta
impedido
femenino
consumidor
desfavorecidas
fici@@
arro@@
lio
capacitado
preferencias
programáticas
ás
fracaso
Aduanas
portal
Químicos
distingu@@
Micronesia
vali@@
enfrentamiento
CRP.@@
disparidad
az
esforz@@
monedas
Turismo
Sa@@
1963
vit@@
ale
coordina
modificada
187
informados
comparecer
preci@@
aliment@@
virus
arg@@
ts
pedimos
ben
afirmaciones
cionalmente
ordinarias
Ecuatorial
14.30
ol
modernas
ayudan
deriva
aboli@@
extremismo
privilegios
Ética
comprome@@
vitales
Du@@
prefi@@
confiere
paga
singular
aplicados
opone
cidad
ofrecimiento
cometan
someterse
suici@@
separadas
aca
203
destinatarios
liquidar
Comoras
interrump@@
llegan
clínicas
EC
ahí
aplicabilidad
amin@@
206
inju@@
agradecer
ug@@
198
demográfico
psico@@
53@@
contó
transfronteriza
AB@@
petrol@@
precisos
cosec@@
utilizarán
estancia
comenzará
Americana
aeronave
propugn@@
escap@@
abarque
continuos
renovado
ame@@
Participación
Sindic@@
Subsidiario
consum@@
ascendencia
son@@
Mad@@
Taiwán
radiactivos
sp@@
descanso
quil@@
determinará
idó@@
comisarías
disolución
seguiría
enviados
requerirá
perci@@
imperi@@
suman
abortos
Naturales
aderas
Abjasia
dispongan
prolong@@
municipio
invitado
perfiles
descrito
adi
prec@@
Poder
apoyará
empez@@
cultiv@@
subsahariana
surg@@
lesion@@
caja
iraní
ri
antir@@
dez
186
sindicales
Ú@@
obstaculizar
lactancia
gado
pretexto
herencia
notablemente
solicitaron
recon@@
ecen
niega
vacante
Hu@@
miti@@
salvaguardia
rap@@
anul@@
tramitar
activistas
promul@@
escuchó
conductas
aportes
incorporen
222
crean
crianza
194
contribuyeron
refleje
posibilit@@
subvencion@@
participaran
programático
combati@@
compilación
La@@
quede
dinámico
daría
flagrante
Her@@
asesorar
lia
rutas
operativo
rechaza
extraordinaria
Media
ton
aa
enen
ambul@@
aceleración
permanecen
1969
entendido
stre
crito
figurar
Vic@@
explo@@
aliza
contribuy@@
Fu@@
au
Grupos
ental
ligeramente
ea
izar
procurando
condenó
americano
telefónicas
intensidad
comparables
clandestin@@
necesitaban
previsiones
homicidio
BL@@
concurso
establecía
habituales
mot@@
proporcionara
Niñez
UNAMA
mejore
estabilizar
pandemia
comprobación
esperan
Solici@@
ocupe
separada
derivan
descendi@@
débiles
IOS
libras
considerara
parecía
redac@@
permitirán
brevemente
entero
eman@@
agot@@
afianzar
previsión
Extranj@@
sudan@@
vaya
educacionales
incre@@
regulares
Vírgenes
par
remit@@
amplió
viola
entan
piden
restante
Mercantil
pel@@
utilizará
financia
subyacentes
tram@@
espero
faltas
Bali
215
inalienable
500.000
sangre
ore
vayan
nicamente
43@@
equilibr@@
184
educar
Brindisi
oriz@@
capit@@
introduc@@
176
identificados
apremi@@
Septentrional
inmunización
refi@@
iniciaron
Ayuda
contaba
censos
jar
codificación
restauración
universalmente
fianza
ándolos
contratado
recurri@@
subsanar
err@@
56@@
Asiático
conocen
folleto
178
ME
may@@
goza
judíos
lenguaje
testimonios
trasladado
230
emprendi@@
veto
dotar
fronterizas
Rico
ayudó
confesiones
dedica
vial
OC
breves
comenzaron
personalidades
ógen@@
Srpska
NU@@
declarados
suponer
SEGURIDAD
repatri@@
fortal@@
silencio
Todas
US
preparará
188
COP.@@
Bra@@
07
deportivas
pidiendo
declararon
il
1948
paralelamente
Recomendaciones
interpretar
corri@@
química
Pres@@
alla
vincular
Abogados
reemplazar
cohetes
deforestación
cuente
XIII
referirme
desper@@
abordado
205
estadístico
UNOMIG
emplear@@
reflejen
incur@@
eva
Karabaj
consisten
MONUSCO
DC
209
pasaporte
illa
gos
hermano
aten@@
edores
coalición
Cachemira
interponer
dom@@
concertada
visibilidad
mapa
reposición
aparentemente
Belgrado
siente
patrocinio
alim@@
apare@@
actúe
2.500
velando
inscri@@
digno
tarjetas
sami
defini@@
renuncia
informen
supervivientes
Adoptar
basó
exponer
Kabul
202
cerrada
originales
preventivo
yentes
resiliencia
stico
existi@@
formularios
Contencioso
260
11,@@
procesar
comportamientos
ayude
pida
refuerzan
concret@@
agilizar
Defensoría
negó
feder@@
valer
fortalecido
paralelo
deterior@@
ánicos
IO
MAR@@
eleg@@
Facultad
Santo
sacar
Swazilandia
exced@@
Extern@@
izado
ono
ajustan
exit@@
8.000
terminología
concluya
potestad
instar
207
aparece
secuestros
ejemplar
estrechos
piedra
endos
verano
adquiridas
instaron
seguridades
series
financian
profesor
ponía
titul@@
notificar
Comunicación
OL@@
epidemi@@
calificado
comenz@@
felicitar
ole@@
29.@@
icanos
ow@@
hid@@
celdas
inde@@
recopilar
hito
plan@@
convenientes
especialización
garantizada
Socialista
recurriendo
asignadas
depositario
DESARROLLO
implement@@
sostener
transformar
217
inte@@
225
intentar
254
ash@@
Marshall
hospit@@
fomenta
osci@@
ola
comprometidos
216
ím@@
anotaciones
Form@@
amplitud
Cr@@
Eslovaca
estimar
Vicente
apel@@
Libertades
administradoras
seguimos
Federados
prohibidas
ou
sirva
concentraciones
concesiones
estatutos
erto
necesiten
señ@@
tización
telefónica
vend@@
jos
paramilitares
Radio
selec@@
socavar
autónoma
violan
reglamentarias
écimo
abrió
directivas
corta
Jerusalem
incorpora
221
1325
Ber@@
difi@@
despli@@
tomarse
cel@@
satisfactoriamente
kuwaitíes
colaborado
reos
correspondía
internados
pal@@
ry
236
infr@@
intercultural
ases@@
Anual
negado
característica
triparti@@
premat@@
core@@
alarm@@
coincide
orar
reglament@@
Malvinas
explícita
funcionales
cerrado
escaños
dados
anes
comp@@
Salomón
deban
ejecut@@
ofrezca
intensi@@
profes@@
Jóvenes
ear@@
Edi@@
escuchado
68@@
ALES
grecochipriota
AG@@
constituiría
INFORMES
promoverá
guardias
Aviación
implant@@
ici@@
haber@@
atenu@@
colectivamente
respeta
Poderes
acelerado
practicar
Marítima
firmas
ik@@
traum@@
hacían
exacerb@@
ayudas
encu@@
adjun@@
sólidas
alcal@@
350
bancarios
espos@@
anu@@
bru@@
requerida
tables
marcado
procederá
empír@@
hermanos
usuario
PARTES
agos
discursos
13,@@
implicación
profundizar
involucrados
revisados
defi@@
Comercial
Seg@@
diálogos
deport@@
wa
ilo
inserción
afro@@
delincuente
Ag@@
Asesora
facult@@
Hab@@
remitió
vul@@
traficantes
WG.@@
exc@@
Nos
Libre
demostró
multisectorial
morbilidad
Beirut
servido
amer@@
DCI
estiman
ur
Development
26.@@
columna
Contabilidad
compil@@
teléfonos
preven@@
OEA
200.000
esbozo
25.@@
hacemos
terremoto
tase
fracas@@
promulgada
ól@@
nov@@
sobrevivi@@
otor@@
rla
reasignación
disciplinarios
anzas
óptima
pis@@
266
gé@@
enumeradas
retirarse
terapia
asiento
PYMES
disciplinaria
relator
difamación
varía
Ilícito
Ter@@
Arusha
Er@@
fér@@
Ministerios
representativo
aplicó
probabilidad
uda
raz@@
vuelta
jas
buscan
cincuentenario
busc@@
contempor@@
Datos
propusieron
aceptada
modificó
228
anex@@
requería
aporten
cancelación
193
arbitr@@
Tokio
maternoinfantil
sirvi@@
pilar
179
populares
7.000
pesado
infractores
naci@@
paternidad
2.2
continuara
Elección
NO@@
licenci@@
propietario
enormemente
intensificado
apoyaron
acumulado
adelantado
adic@@
energéticos
Falkland
Rey
expuls@@
ist@@
concili@@
adhi@@
Bur@@
296
mantend@@
socialmente
conlleva
ENCIA
15º
ICEF
encargan
metod@@
consagra
gal@@
atraves@@
retiró
audi@@
absor@@
ejecuta
reproductivos
mercantil
gratuitos
referido
directiva
desarroll@@
Ram@@
rum@@
w
señales
Cam@@
facultado
didas
Técnicos
km
contenedores
cer
0,7
suel@@
Amigos
anuncia
NE@@
meteor@@
inversionistas
sentar
pasaron
TS
captura
delimitación
IO@@
repetidas
disfru@@
elaboren
motivación
constituya
usti@@
cara
redactado
emitida
egip@@
dil@@
facilidades
diarias
lar
incendi@@
recom@@
facciones
tarias
revitalizar
fundaciones
logre
interfer@@
232
protegen
critic@@
aun@@
abolir
Ny@@
terceras
Institu@@
compensar
ras@@
deton@@
aderos
ininterrump@@
loc@@
2º
recoge
aumentan
justifica
demandado
Hol@@
dignas
condi@@
contractual
salen
Inspector
pir@@
cias
suprim@@
Sarajevo
ocupen
reun@@
cliente
interven@@
pesc@@
demarcación
ascendían
duc@@
compuestos
salud@@
opio
serias
áficas
dirigente
decretos
MIS@@
prontitud
cálculos
DA
delegado
portu@@
patrulla
CS
269
aduci@@
eh
comprometen
peligroso
brindan
Seguir
Cat@@
emis@@
enumer@@
masivas
lam@@
crita
trámite
trasladar
vuelva
racista
artes
196
Islámico
cubano
concier@@
domicili@@
verde
itales
propiamente
197
tipifica
denunciados
Cuá@@
inflig@@
anfitriones
gran@@
estarían
15.000
especifica
Gr@@
artillería
contratante
enviarse
tej@@
inherentes
sor@@
compartidos
contabiliz@@
decenal
redact@@
Jartum
687
someti@@
psicosocial
comienza
afrodescendientes
intencion@@
toxic@@
Residente
partidarios
violar
ing
prepararse
signatura
monetarias
emiti@@
necesitaba
demográficos
Índico
Prestar
analíticos
sig@@
fiabilidad
did@@
person@@
minuci@@
195
trabas
FARDC
voc@@
involunt@@
inculp@@
registran
CONSEJO
provech@@
precoz
cerciorarse
operadores
ahorros
yente
remediar
Kimberley
CC
acusadas
Infantil
genu@@
funcionando
destitu@@
representó
proporcionadas
detalladamente
pronunciado
progre@@
imperante
transmitía
compras
abl@@
publicaron
horario
indebida
incid@@
efectuaron
acogido
Telecomunicaciones
bor@@
centrados
afiliación
fructífer@@
él@@
trabajaban
prior@@
poseer
peticion@@
Creación
secundarios
cívica
jubilados
Geogr@@
Em@@
recuer@@
conceder@@
Rom@@
celebrara
sucede
añ@@
cuantit@@
lav@@
afron@@
correspondi@@
tí@@
conc@@
somet@@
destruc@@
imiento
informativos
geográfico
aprecia
Envejecimiento
informático
part@@
verán
residi@@
tir@@
tomará
IR@@
conmemoración
desequilibrios
tes@@
Barbuda
autónomas
XX@@
caminos
tortur@@
sil@@
oí@@
Lucía
genera
IP
domésticas
calculado
1.200
reputación
verific@@
esencia
S.
prelación
Be@@
incondicional
ampliada
juzgado
metales
Voluntarias
concentrarse
lactantes
berg
realizara
meras
colec@@
satisfactorio
teras
casti@@
reside
cita
253
culpabilidad
Trabajadores
cimiento
40.000
agradeció
revisten
258
analítico
UNAMSIL
requieran
disciplinas
sindicato
admisible
castig@@
sumaron
carencia
Chernobyl
divulgar
contenga
Periódico
núcleo
trasc@@
Tu@@
preparadas
demostración
comisaría
rechazar
Mixta
Tra@@
report@@
aguar@@
educ@@
presidi@@
porcentajes
rog@@
asumió
válida
Constitu@@
Ba@@
IL@@
sucesivo
Ge@@
aterri@@
apelar
ideal
Ban@@
transmitido
Fronteras
ciudadana
omisión
Cuestión
aeropuertos
Nagorno
adjudic@@
tóxicos
Enfoque
Confederación
ofreci@@
ales@@
obligatorias
distinguir
Reserva
deportes
asignó
much@@
SA
vacunas
han@@
habilitación
prolongados
colaboró
representada
embaj@@
204
dispositivo
desminado
confesión
migraciones
Administr@@
abre
E.@@
adeud@@
relacion@@
planteados
multas
contengan
ceremonia
elas
ENTO
atar
45@@
procedió
quebrant@@
enviaron
Militares
ulteriormente
Conexas
concebido
cubierta
semejante
INSTRAW
Cri@@
alentado
esparcimiento
deste
tiz@@
estrecho
fronterizo
Interparlamentaria
XIV
sibles
hi
pe
mercaderías
sens@@
gieron
radiación
discrepancias
Women
dispuso
sinergia
puntual
sist@@
bieron
memorandos
permanentemente
Antigua
cannabis
avanz@@
decidieron
repetición
surgir
tarios
renunciar
samente
ez@@
básicamente
predecesor
afirman
aprendidas
mejoren
trigésimo
desequilibrio
AN
murieron
ingresar
PAO
descritos
ENTE
extraídas
ke
comprometida
proporcional
Aplic@@
afirmaron
338
Es
racion@@
ancias
justi@@
16º
CCT
permanec@@
recti@@
interval@@
ficarse
decomiso
ure
aplazamiento
simplificación
válido
adecu@@
insistió
Asociaciones
Preven@@
diferenci@@
invalidez
describió
intenciones
identificadas
Mohamed
cuándo
drás@@
imposibilidad
señalaba
concedió
puntualmente
dependiendo
semejantes
afi@@
indu@@
basaba
incautación
onia
RES
dispuestas
saluda
perpetu@@
áneos
Norm@@
veget@@
ística
EP
compren@@
17º
atrocidades
revisó
ua
ordenó
ge
sospecha
icul@@
reembolsos
estacion@@
transfronterizas
formulados
matanzas
mérit@@
PN@@
fundamentado
SAT
incluyente
irregularidades
proven@@
percib@@
conseguidos
iban
antiguas
archivo
evacu@@
entrenamiento
autén@@
Guerra
tratará
donación
frag@@
67@@
hubiesen
care@@
individu@@
Redacción
letra
explosión
semi@@
14º
intensa
asignan
limpio
tec@@
recíproc@@
disciplinario
disminuyendo
inequívoc@@
continuaron
refugiadas
nat@@
evalú@@
sufr@@
ánea
tragedia
convocación
fabric@@
pase
C.12
vent@@
lento
14,@@
11ª
plante@@
entraron
prescripción
PO@@
constituyendo
ocupadas
Comunidades
Ampli@@
tratamientos
pare@@
habló
indirectos
interpret@@
movi@@
Sob@@
Del@@
coexistencia
parientes
observan
concienciar
devengados
MO@@
inminente
nacion@@
L.2
up@@
ocupó
informarle
Colegio
IPCC
provisionalmente
Sec@@
afirmado
Kinshasa
neutr@@
enciones
Tuvalu
ignor@@
sospec@@
At@@
resol@@
L.
che
obtengan
United
producidos
stro
BI@@
parental
Ciudad@@
mascul@@
puntu@@
3.1
apatridia
Lo@@
beb@@
276
atrás
ong@@
Ho@@
herman@@
juz@@
INTERNACIONAL
video@@
discapacitadas
estímulo
lógica
SADC
presidida
aborden
socio@@
lar@@
dec@@
Ul@@
UNMIT
parlamentaria
península
ál@@
ropa
generan
impulsado
absolutamente
marginales
Publicaciones
UNAMI
Bak@@
unión
ass@@
procurará
adolescencia
Col@@
cuenten
Go@@
daban
allan@@
ć
Cap@@
ándolo
entrará
flujos
ofrezcan
permitieron
mero
dro@@
ION
óp@@
1966
centro@@
15,@@
sup@@
Az@@
Tes@@
neo
mayor@@
éndo@@
cuant@@
alemán
soberanos
CB
SU@@
historial
esforzarse
viv@@
Granadinas
profundi@@
exhortamos
caracteriza
ecológico
derivada
condados
necesitamos
recomi@@
desmilit@@
reanuda
sensibilidad
convergencia
ído
averigu@@
cubri@@
marítimas
tá@@
recoger
sabemos
Dec.@@
asigne
naturalmente
neutralidad
tiv@@
CO2
ofrecía
lanzó
pertenece
necesitarán
vici@@
interregional
vería
satisfactorios
54@@
aer@@
recab@@
mencionaron
zas
brindado
causada
Tratamiento
Oslo
noctur@@
Auditor
objetividad
238
obsol@@
intimidad
contribuirán
enviada
264
variante
incrementado
afirmativa
contribuyentes
CT@@
adolescente
tesis
fotografías
rlos
enas
entrevista
indicando
hol@@
Mé@@
ísticos
Kh@@
deliberadamente
Bas@@
SESIÓN
aceptados
sindical
reparto
Inclu@@
acel@@
Annan
Fiduciaria
tratadas
discusión
autosuficiencia
Detención
ayer
interrogatorios
anticipos
creadas
basta
optar
realizarán
DO
llas
249
Don@@
primario
inmuebles
integrales
incorporan
MI
circuns@@
referían
234
Pu@@
captur@@
precisas
Intolerancia
Mater@@
Janeiro
Sexual
produciendo
necesitará
223
peor
refuerce
AC.105
tario
opinó
comprometieron
Aé@@
Enmienda
adaptados
angular
Sistemas
Sahel
AF@@
protejan
emigr@@
conceb@@
Soviética
prag@@
geográficos
reanudó
explotar
li
20º
redobl@@
reunidos
Cartagena
marroqu@@
empeoramiento
estándares
remitido
22@@
247
proceden
anda
Presidencial
69@@
Ger@@
aplicaba
equi@@
reúnan
Anti@@
Establecimiento
enviadas
maoríes
variables
Almaty
moderno
discriminatorios
intensifiquen
QUE
Marinos
Jean
Empresa
distribuidos
pasan
tarifas
Enseñanza
Convenciones
Anexo
Add.4
enriquecimiento
colaboran
ratificaciones
cercano
afines
convocatoria
comprometió
responden
refuercen
Soci@@
escritos
Copresidentes
procesal
Cultural
252
mera
recaud@@
consignados
largos
participativo
procurado
aquél@@
protegido
relacionan
MINUEE
cabría
manipulación
Ibíd
EST@@
13ª
sustento
dispu@@
consulares
escalas
centradas
digna
14ª
231
demasi@@
asa
egr@@
Deci@@
Mejorar
meros
discuti@@
pos
proponía
indiscriminados
taban
244
sindic@@
ogía
Vanuatu
anunciado
IB@@
ib@@
tentativa
66@@
sensibles
12ª
argen@@
envergadura
inherente
Penitenci@@
Ur@@
indiscrimin@@
preferible
ví@@
permit@@
tribus
SESIONES
Dec@@
auténtica
firmados
incautaciones
simposio
llamados
varían
afirmando
Seychelles
246
justas
georgi@@
CD@@
abandonado
elaboraron
inaugur@@
ampar@@
eca
anz@@
Kofi
satisf@@
Premio
empleada
entretanto
ólogos
aplicara
ab
violaron
posi@@
tele@@
TPCE
LO
investigando
sticos
Ne@@
recogen
reconocía
creencia
igual@@
cerrar
sufrió
famili@@
acc@@
dictada
previsibles
rlas
imparten
nic@@
causan
químico
cuestionarios
C.
denunciado
lograron
citados
Ku@@
UNMISS
XIX
sincero
impartió
Migr@@
ecológicos
ejerza
intrínsec@@
PS
Contratos
equit@@
sionales
mantuvieron
beneficiario
asta
estall@@
comunicaron
islámica
orado
Este
inclusiva
combinado
encomendó
contramedidas
Observatorio
manufac@@
oto@@
ayudaría
hectáreas
Legislativo
conceden
constituirá
multinacional
esclavos
invitará
dictámenes
patentes
excluye
especificar
occidentales
completas
laudo
SIIG
224
ti
til@@
ocurrió
queo
agas
rep@@
Adolescencia
punible
bec@@
esqu@@
padeci@@
Buenos
fotogr@@
Facilit@@
US@@
agradeci@@
glob@@
castigado
reparar
denegar
mad@@
Misiones
amina
asal@@
soli@@
croata
buscando
SECRETARIO
Campaña
autoevaluación
Tor@@
Línea
consultoría
refugios
muer@@
secret@@
265
escucha
bel@@
1968
Mil@@
odi@@
consistía
norte@@
comparativas
Administrativa
delic@@
Xenofobia
Blan@@
SG
conocidas
afili@@
decenas
inspeccion@@
entregar
obstaculizan
biotecnología
discu@@
lej@@
tero
contable
decret@@
Fundamentales
revolución
GEI
alimentarios
Dakar
agradezco
Nación
articul@@
respetan
encomió
Part
iente
psiquiátr@@
lleguen
219
logísticos
entradas
destinar
18º
interpretaciones
cuar@@
erlos
exigía
insistir
May@@
subray@@
77@@
decimo@@
caída
prim@@
ás@@
demor@@
mercen@@
Memorando
celebramos
combates
XVII
acordes
plique
rech@@
obtuvieron
caracterizado
ardu@@
dispers@@
prenatal
acogen
OR
invier@@
pronunció
Criminal
asimil@@
equitativas
justificado
centraron
60.000
culo
hurac@@
disfrutan
arquitectura
Brunei
Rehabilitación
etos
reveló
introductoria
precisar
reflejado
pur@@
razonablemente
tempr@@
ariz@@
Ver@@
table
darle
ideales
necesitados
ba@@
neos
vo@@
AM
dor@@
rest@@
óg@@
sper@@
ejercido
dispararon
severas
Armon@@
Especi@@
resal@@
dictadas
teoría
atend@@
recomendaron
FECHA
endencia
mantuviera
décadas
olución
condenar
protesta
Aires
entación
incisos
mex@@
correcto
prestaron
bloque@@
voluntariado
perten@@
mostraron
jubil@@
QU@@
Oce@@
Magistrado
em
recep@@
enriqu@@
golpe
dif@@
cámaras
rero
Ottawa
Pol@@
transmitirle
R.
disu@@
definitivamente
onía
aconsej@@
estuvi@@
reit@@
reconstruir
Gra@@
sumarse
desproporcionada
concord@@
pobre
CL@@
land
monetaria
Ha@@
Granada
facilitaría
históricas
diputados
analítica
idénticas
examinaran
presentaría
Cop@@
quedará
terror
sensible
Agrícola
Inteligencia
14.45
umbr@@
enví@@
guardia
fisible
avanzados
respon@@
He@@
encargó
lor@@
esforzándose
permítame
Ak@@
retener
otas
Accra
adver@@
radiodifusión
recibían
carteles
defendi@@
agradecer@@
avanzadas
00.000
aranceles
K.
atravi@@
Genocidio
Un@@
idi@@
inicie
inicia
diseñado
menoscabar
menester
extraer
cuadri@@
adelant@@
titud
forense
acerc@@
compartido
experim@@
probabilidades
inmunodeficiencia
idoneidad
casadas
jamás
atario
lógico
condado
alarmante
rechazado
asistido
ducción
UL@@
19º
abu@@
fuere
deten@@
1950
escenario
intentado
liter@@
efectuada
taria
anta
autob@@
vejez
Propiedad
alice
diversi@@
designada
Gaceta
industrialización
presentase
Deb@@
migrante
ác@@
John
tipificados
ADA
rent@@
discre@@
TR@@
administrado
evolucion@@
ane
subsidi@@
inver@@
ustedes
fruto
D.C.
tiende
ús@@
reclasi@@
colonialismo
excelencia
ami
Macao
prosigue
Cumplimiento
iraníes
infecciosas
Post
depender
acordar
procedi@@
cuadrados
SO@@
influyen
propicias
acondicion@@
Democrá@@
landés
escati@@
multinacionales
reiteramos
RESUMIDA
darles
Delitos
actuado
conformes
inhumano
previsibilidad
superávit
digitales
EPU
289
matriz
Azul
motor
Regionales
refriger@@
partiendo
secreta
Entidad
reseñ@@
constituyan
ore@@
reclamar
ept@@
registra
continuas
formales
di
aliento
definida
paciente
255
jes
contratantes
Dom@@
PRESENTADOS
miedo
Deportes
3.2
ejerzan
cristi@@
promet@@
incorpore
marca
ribereños
Rev@@
densidad
Hi@@
apellido
administrador
actor
Kam@@
aretz
275
suelos
convocó
abstengan
entran
analiza
págs.
minoritarias
suspen@@
hábit@@
requiera
30.@@
desalojos
atin@@
16ª
aportó
irlo
iglesias
computadora
empres@@
dinares
reflexionar
enio
implíci@@
450
mí
administra
coopera
sico
supervisores
traducir@@
Sar@@
Au@@
coordenadas
consultivos
Sim@@
copresidentes
tun@@
anot@@
preocupando
confidenciales
elo
derro@@
inyec@@
blo@@
ü@@
ton@@
Excelentísimo
sistemáticos
donante
sirios
deserción
portátiles
participaban
consignar
termina
pondrán
12.00
iz
constar
modifica
líci@@
sirvan
16,@@
Tonga
tamos
aprueben
reas
15ª
plantearon
turco
suplementaria
europeas
xi@@
fera
declaradas
vienen
próximamente
intermediarios
ester@@
marítimos
tent@@
corchetes
283
XVI
17ª
energías
PAC@@
persiste
azón
facilitador
potencia
condenada
deficiencia
encabezada
Verdad
Prácticas
acreditadas
sul@@
reproduce
apunt@@
profesiones
obtienen
DIRIGIDA
áb@@
Mc@@
expresan
seria
239
reconozcan
BR@@
áu@@
banda
examinaría
olu@@
ezas
transcurridos
tela
comenzaría
protec@@
insto
envíos
sto@@
pagan
extremo
64@@
amenazan
ben@@
satisfactorias
dista
Palau
adecuación
25.000
3,5
305
generadores
reunirá
landes@@
importadores
comun@@
hel@@
pronunciarse
firmada
Procuraduría
aceite
sugerido
extender
estipuladas
desgr@@
cocaína
explosiones
pares
éd@@
implicados
flujo
cabida
manej@@
awa
Amnistía
Association
monogr@@
artesan@@
245
uses
surgen
atribuirse
candidatas
sinceramente
9.000
dulce
mm
microempresas
sanidad
desventaja
revise
albaneses
272
matriculados
erías
estudiara
despido
PAN
colaboren
orcio
Gales
semillas
beneficien
vir@@
AR
ísticas
nacer
consignan
uniform@@
marse
permitiendo
sing@@
validación
atra@@
OACI
estudiado
IDAD
carencias
emisoras
entregado
abarcaba
ance
concursos
inadecuada
genéticos
orías
Ocho
bat@@
castiga
pasaportes
supera
Curso
quedaba
periodo
liberar
atu@@
Administradora
oponen
consolidada
educadores
dejan
sidad
encontró
52º
verbales
UN
Observ@@
reafirmamos
ahor@@
ke@@
saludable
direc@@
llevarán
indemniz@@
sia
reproduc@@
activ@@
universalización
psicológicos
legado
sincer@@
vean
complacido
Integral
discreción
bio
fortalezca
facturas
Colaboración
50º
TIC@@
impart@@
atro@@
suministrada
anse
formulando
cometi@@
dest@@
reconoc@@
cumplirse
congres@@
realistas
rápidos
261
ocupaban
rendi@@
negligencia
mezqu@@
problem@@
penalización
Electró@@
cier@@
hiri@@
previos
compl@@
RES@@
conduci@@
vecindad
eliminado
áctica
Lusaka
patente
manifestantes
ís@@
cabía
idén@@
To@@
violentas
sucesos
tributación
servidores
cruce
descendientes
atis@@
perjudicial
jerárqu@@
Observaciones
jerarquía
permitieran
citadas
universidad
utilizaban
plantearse
adjudicadora
Contacto
lingüística
ferencia
comprar
cho
explíci@@
salvaguar@@
sufridos
leer
adul@@
conceda
olvidar
localizar
sen
Patri@@
1.4@@
intermediación
aplicaran
nes
Cuerpo
satisfac@@
forjar
Experta
recicl@@
servidumbre
conciliar
respetu@@
cruciales
retira
idóneas
contradicción
tsunami
256
programadas
tam@@
intenta
ses@@
explorar
Escocia
PRE@@
adhieran
favore@@
prorro@@
itarias
salarial
suplementarios
š@@
orígenes
Ori@@
crónica
oce@@
deseados
incomunicación
PER@@
ESA
ratifiquen
anticipada
Pat@@
51º
titularidad
traducir
peligrosa
velen
desmantel@@
vivi@@
18ª
impugnar
Actu@@
ices
lanzado
Ap@@
ambici@@
rol@@
respons@@
sufre
cad@@
comport@@
MD@@
pagadas
55@@
vuelve
bancario
1,2
precep@@
ash
fauna
Examinar
alum@@
originalmente
Discriminaciones
emprendió
elogió
Bal@@
cial
contemplados
11.00
recibirá
zaje
itali@@
asum@@
human@@
arancelarias
Comun@@
progenitor
icanas
defens@@
desapareci@@
fuesen
aborde
OU@@
quieren
PL@@
Antár@@
ul
emplean
interministerial
centenares
consignado
procesados
logren
our@@
promot@@
conducido
sufrieron
incorporando
elem@@
curr@@
podamos
gasolina
complementan
liquidez
clubes
ero@@
indivi@@
legislaciones
fundación
incans@@
1.5@@
Nuclear
cuidar
prorrat@@
prorrog@@
indicada
usu@@
dedicarse
Darussalam
publican
detallan
antemente
revela
resulten
insuficientemente
acen
literales
fomenten
nocivos
crimin@@
ónica
intensificando
confusión
med@@
circ@@
stru@@
garantizará
paralelas
velocidad
Humanitario
perpetrado
corpus
reúna
desempeñe
Interamericano
ORGANIZ@@
forenses
permanecido
catalizador
vulneración
Han@@
abordó
Teherán
cido
IF@@
percibir
eter@@
Uni@@
229
afirmativo
GTE
transportes
tomara
ejerciendo
campesinos
asignada
llamar
epígrafe
impartido
262
hered@@
brig@@
alle
explican
optimi@@
fur@@
saben
orias
consigo
strucción
ich
som@@
ö@@
pozos
recu@@
incum@@
solucion@@
simul@@
Aspectos
formulara
cli@@
integren
afirm@@
municipalidades
rehabilitar
intimid@@
PRESIDENTA
AC
incluiría
batallón
pondría
valora
Naqura
constructivas
fragmentación
intermedi@@
triangular
fall@@
desembolsos
raíces
recibirán
variación
sacri@@
perman@@
dilación
autorice
musulmana
Arm@@
dónde
susceptibles
acrec@@
Prestación
diariamente
circul@@
OMM
sobrevolaron
soborno
Cuentas
78@@
17,@@
trope@@
tino
brasile@@
Mundi@@
acuer@@
levantar
requeridos
Estratég@@
Encuesta
Resistencia
áneo
afiliadas
pertenec@@
fortalec@@
292
analizando
ain@@
matricul@@
elaborara
Rural
nutricional
planteaba
Gastos
jeran
franco
carbón
1267
bienales
erosión
cant@@
elogi@@
inti@@
consiguientes
aparato
ajenas
sosten@@
ae
deficientes
pluralismo
enfoc@@
ocupará
protestas
proyección
convencional
escen@@
cualificados
unda
pasada
Sol@@
china
volúmenes
mil@@
inocencia
logía
cometa
ficando
conozcan
recalc@@
instaurar
reducirse
1964
plá@@
aka
estime
è@@
288
inexistencia
mejorarse
ordenamientos
Te@@
259
observamos
we@@
comprobados
uti@@
finalizó
263
armonizado
expuso
País
ler
frágil
Asi@@
enten
eventual
ner@@
estudien
sentimiento
exactamente
Pi@@
estigmatización
Rectores
eje
dura
egro
18,@@
63@@
recib@@
colocar
milicia
notificó
oficiosos
ced@@
actuarial
accion@@
concertadas
atras@@
1958
auto
recogidas
subrayado
54º
espiritual
HCFC
arizados
guías
forz@@
albergues
microcrédito
Chi@@
tipificación
construido
someta
gradu@@
Groenlandia
257
Repertorio
prolon@@
estrictos
precaria
elaboradas
var@@
valid@@
otorgan
generados
dría
Nombramiento
Abidján
uros
Tur@@
soldado
300.000
relevantes
recolección
afganas
parlamentario
ung
contado
potencialmente
elig@@
educacional
GNUD
subtemas
unt@@
análoga
Hí@@
respir@@
Red@@
ي@@
Secret@@
Ob@@
necesitadas
ultim@@
menos@@
descart@@
cursillos
prove@@
Ahmed
terapéu@@
Bermudas
FIC@@
yeran
Provincia
Hel@@
cem@@
extiende
extraterritorial
andés
serbia
285
decididamente
satis@@
sicotrópicas
opinaron
sivamente
ue
Penitenciario
Sustancias
modernizar
convocado
damos
afrontan
TRABA@@
facilitara
CONVENCIÓN
continuada
refirieron
comparecencia
fidedigna
FPA
Científicos
excus@@
Estudi@@
4,5
litigios
facultativos
vini@@
aportando
284
.3
ases
asignen
cómplic@@
Aprob@@
conexiones
hostiles
moderación
desempeñó
viviendo
financiada
preserv@@
Nauru
lazos
claves
prudente
ORM@@
Francesa
resum@@
Santiago
fortalezcan
mostrar
perfectamente
CTPD
comete
únicos
acepte
primavera
sucesivos
sím@@
prestaba
impresos
bar
planteada
inviolabilidad
íos
asesor@@
convirtió
425
bra
Reuniones
agregar
facilitadores
can
áfico
bandas
sud@@
yu@@
Revisión
distribuyeron
Nations
sugirieron
tipificar
traslados
paralela
B.@@
compañ@@
Mah@@
transmiten
explor@@
negar
infring@@
resultaba
ho
Gal@@
insti@@
280
365
Cuarteto
transmitida
aliente
Super@@
tera
Pap@@
OC@@
rusa
suicidio
especificaciones
aclamación
CRP.1
comandantes
inscrito
quisiéramos
imponerse
usan
contará
pesqueros
And@@
energético
ardo
esposo
Ŷ@@
supuesta
ocupaciones
gratu@@
UIT
relevancia
autorizaciones
superado
devol@@
solicitadas
llevaba
ecas
pusieran
desarrollen
dedi@@
impul@@
diversificar
decididos
somete
individualmente
habi@@
brindó
Garantizar
Velar
humill@@
encuentro
pico
congru@@
detalla
ordenado
transferido
OD@@
Impuestos
canadienses
Vicepresidenta
juegos
Coordinadora
acusada
alegación
L.3
dica
círculo
climáticos
asume
opera
categór@@
esfuerza
Medios
comprendida
negarse
turcochipriotas
usas
restitu@@
abandonados
Os@@
vie@@
Privado
preparan
facilidad
vender
prostitu@@
pactos
terci@@
290
torturado
extend@@
AT
Tecnológica
lev@@
señal
camiones
Aruba
trataron
desarrollarse
extranjería
evidentes
didáctico
reiteradamente
elegidas
demos
cami@@
dignos
79@@
involucradas
fab@@
tribuna
aprobará
institucionalización
ICCD
aline@@
ferrocarri@@
HRI
escrit@@
19ª
we
comunica
reglamentarios
hostilidad
egu@@
suces@@
TRA@@
presupuestadas
prevea
verti@@
líder
Isla
IN
vuelvan
Adicional
éndolo
reflejaba
fir@@
participativa
estrales
comuniquen
halla
cadá@@
cuantitativos
hospital@@
JS@@
analizan
muebles
plenos
prolongadas
unido
subterráneas
provocó
dióxido
Sil@@
Conclu@@
motivados
Je@@
cantones
Ci@@
conten@@
dominación
embar@@
ulti@@
SP@@
certeza
corresponder@@
Hebrón
cotiz@@
polio
XVIII
reanu@@
iro
británicos
convierta
estimulantes
desventajas
psic@@
chil@@
clasificaciones
IV@@
cub@@
consul@@
reciclado
ofrecerá
afecte
lentitud
ánico
ém@@
Saint
GO@@
comandante
demand@@
válidas
Empoderamiento
automatización
iniciada
adjudicación
pesada
pudi@@
tomarán
MERCOSUR
predeci@@
aud@@
distinciones
eslo@@
Conse@@
XL@@
rer
distribuirá
impuso
acudir
temporarios
traten
ame
coment@@
ascenso
rin@@
denominados
revisando
asu@@
Centrales
solid@@
Memoria
restringido
Caimán
deplora
alentadores
nómadas
1514
pañ@@
cív@@
unificación
Competencia
estilo
Add.5
diligencias
liberi@@
espectro
enos
unes
contenían
adversas
exclusivo
cumplieran
injusticia
degradante
sep@@
kuwaití
hum@@
80@@
análogos
alguien
atribuir
reflejo
ampliarse
acho
lat@@
resumi@@
minimizar
53º
presentaba
puertas
transportar
placer
Américas
calendarios
anulación
def@@
bin
Delhi
duradero
burocr@@
arbitrariamente
adeudadas
esquema
MINURCAT
286
válidos
rique@@
Afr@@
Elaborar
&lt;
refuerza
prorrogado
colon@@
VNU
mol@@
ponían
indefin@@
vas
aulas
consistir
libanesas
ue@@
gráficos
Mari@@
pluri@@
Ve@@
parentales
Hammarskjöld
desi@@
evalúa
Ha
transgre@@
Dag
ocupando
ámicos
civilización
abrevi@@
Represent@@
2.3
corrobor@@
suspendido
atribución
Balcanes
Oper@@
parlamento
reglamentario
comprobado
4.1
ascensos
contrarios
eléctricas
resume
INTERPOL
prepararon
adjuntos
&gt;
Abuja
rati@@
proporcionalidad
sedi@@
imagin@@
matanza
gencia
Cooper@@
evento
burgo
componen
restaurar
operativas
evitando
ard@@
antiles
lap@@
Fi@@
vigilando
1.8@@
abarcado
sustitúyase
recomendados
balísticos
ecológicas
prosiguió
anto
indicaban
Reg@@
negociado
AD
afirmaba
Indemnización
Children
reten@@
mutil@@
películas
neo@@
sint@@
atent@@
brit@@
calentamiento
rá@@
gocen
acce@@
DEC@@
afectaban
sk@@
287
alcanza
publicarán
1965
ajo
read@@
arra@@
dejando
proximidad
indebidamente
yo@@
fisc@@
304
montos
OMPI
11.30
desempeñen
desmantelamiento
agregado
parec@@
determinantes
monum@@
secretario
ecuatori@@
cercanos
reguladores
bomba
entablado
respaldado
privilegi@@
radiaciones
destruido
Adolesc@@
plaz@@
surjan
Alimentaria
hubiere
tuvi@@
celda
persist@@
UNIDIR
proporciones
econom@@
emplea
tard@@
proteja
designó
primacía
ariedad
TOS
equipamiento
Elec@@
cibern@@
Proliferación
enem@@
Kigali
ie
causó
quedaban
distinguido
provecho
Shi@@
antecede
armamento
líqu@@
Atlas
ers
célu@@
asent@@
instauración
abajo
patrull@@
Montserrat
efectúa
máximos
solar
efectuarse
SI
asuman
zó
1.3
admitir
únicas
robu@@
contaban
Disposiciones
adopciones
65@@
verificable
recomendada
deduci@@
ándolas
copatrocin@@
automática
conducción
termine
enales
Watch
recaudar
ves
elaborará
Cal@@
267
funcione
55º
jurisdiccionales
tranqui@@
preve@@
281
ET@@
sufridas
determinante
introdujeron
Humanitaria
Damasco
10.30
mejorará
realizaban
0,5
sumaria
evidencia
atendidos
reforzamiento
afianz@@
Local
Radi@@
millas
destinatario
entenderse
Nuevas
elemental
revelan
bit@@
adaptado
naturalización
nex@@
asequible
devolver
emen@@
clausur@@
enérg@@
Diplom@@
reduzcan
heroína
stir
reca@@
bienios
óptico
irlos
erit@@
tará
Uniform@@
arr@@
vuel@@
empobreci@@
revistas
requerían
deseaba
perseguir
recesión
atiende
316
monta@@
ándola
democr@@
dificulta
Goma
elaborada
comience
obvi@@
expulsar
suger@@
aduan@@
dedicó
incluyeran
uer@@
reiteradas
expan@@
21º
estipulados
calles
Mogadiscio
cumplían
1,3
Pactos
envía
iten
requeridas
1.7@@
conmemorar
configur@@
IMI@@
violando
Mus@@
presa
sirias
asistan
audiovisuales
367
46º
Islam
perdieron
elabora
refrend@@
cobro
dictamin@@
iv@@
recogidos
innovador
Clasificación
alban@@
Juan
incentivo
Plan@@
gustaría
comerciantes
Cen@@
comparar
vea
constitucionalidad
regresado
provocados
planteamientos
compone
eos
cula
extremos
teatro
ensa
Infraestructura
Sat@@
valiosas
750
convocada
automóviles
1.6@@
obligatorios
éndoles
abrig@@
obstétrica
87@@
extensa
ier@@
ocasi@@
estrechas
organizará
alicen
expropi@@
ogar
jeron
sospech@@
aclor@@
ácticos
comprometerse
Hamas
Hom@@
Len@@
Autónom@@
dios
margin@@
operativa
hen@@
sumo
unánime
Presentación
bacteri@@
áridas
dispondrá
establecerán
adura
favorece
Establ@@
preventivos
jord@@
ólicas
Can@@
puls@@
GA@@
indag@@
corre@@
aprendi@@
here@@
elogia
comparativa
resist@@
zada
turca
atarios
endeudamiento
atacar
regularidad
marginadas
multidisciplinario
ku@@
catástrofes
éxo@@
hici@@
agravado
impedimentos
Cons@@
ESPEC@@
necesitaría
concentra
manifiestamente
probar
cursar
representaron
Anguila
itarios
Vo@@
85@@
Facultativos
suizos
DOS
Hospital
lic@@
BRE
litros
excluidas
DER@@
ficios
aplicaban
complicaciones
arizada
publicadas
Reconstrucción
respectivo
fijada
comprenda
plurianual
advierte
DD@@
PRES@@
asegurado
castigados
Incluye
contrarrest@@
confron@@
subregiones
rechazada
divor@@
Básicos
prefec@@
canadiense
antías
otorgante
Relatores
ficas
cumplía
aislados
permitirse
enérgica
279
árboles
admite
expresamos
celer@@
otoño
recalcó
absolu@@
ubicados
49º
Inversión
grecochipriotas
Contribu@@
viudas
Viceprimer
carpe@@
delictiva
ARTÍCULO
268
ova
retorn@@
ela
corrup@@
monit@@
contraven@@
permitirían
1.9@@
copatrocinadores
aprobarse
formalmente
comparable
femeninas
Caicos
reubicación
Procedimientos
nórdicos
Fuego
refun@@
maquinaria
bul@@
Tecnológico
conced@@
impartida
descuido
atendidas
fan@@
Acceso
reafirmado
Inmun@@
Suministros
cas
puni@@
lubricantes
Seguro
sufriendo
Adaptación
acuci@@
recinto
deplor@@
277
emp@@
proyecta
4.2
secretarios
Ocupado
cuidad@@
abordando
agraria
partos
deni@@
mantener@@
Vuestra
respetado
mensur@@
ide
controlados
desaparecido
Elena
Bou@@
legitim@@
riego
escog@@
Juntas
argel@@
Famili@@
analizó
Edad
vin@@
alimenti@@
gio
indefinida
sancionado
escolaridad
consegu@@
antigüedad
especificados
llevaban
Cir@@
90@@
desarrolló
bil
ánimo
deliberada
produ@@
indul@@
valiosos
periodista
č@@
ofrecidas
Consider@@
medio@@
19,@@
vencia
ayudarlos
Continu@@
Fortalecer
99@@
caban
Separación
munición
peren
continuarán
madurez
Av@@
rera
Ste@@
Sen@@
rescate
reciprocidad
fraudul@@
ous@@
dificultan
convivencia
alo@@
Empresas
nan
endente
iga
ell@@
solicitaba
aler@@
irregulares
mediana
Viceministro
compartimos
mineras
OI@@
exigirá
temperatura
investigador
trasladados
coordinando
16.30
Pen@@
pretend@@
surgi@@
armoni@@
otorgada
pacto
discrep@@
paralelos
fijadas
colegios
umb@@
falsas
plantear@@
itiner@@
lares
udos
ED@@
llo
correspon@@
islámicos
pin@@
privacidad
equ@@
vino
Parlament@@
demostrada
aplicaron
intencional
onas
propag@@
már@@
vemos
reduzca
vela
reglamentar
consuetudinarias
requeriría
piensa
ús
LP
Públicos
alizando
lítem
impidan
UNAMIR
mixto
unificada
aso
dirigen
sabido
hablan
distorsion@@
británico
decl@@
fabricantes
cubanos
Coordin@@
DES@@
resarci@@
manifiestas
reactivación
cruel
egación
ji
ile
impresion@@
interrelación
uma
Identi@@
derivado
reducen
presentaban
aumentaría
Guardia
combinar
impida
fallecido
deje
eza
sometió
fortalecerse
uk@@
Cla@@
siles
provocación
decidirá
levante
PNB
embarcaciones
anunciar
débil
Mag@@
eléctricos
inmediatos
convinc@@
síndrome
saharau@@
íntegra
278
aridad
prohib@@
referendo
desnutrición
Régimen
Ingenier@@
granadas
subsiguiente
catástrofe
pido
Conservación
disuasión
islámico
puente
tantos
artís@@
tanques
indemnizar
estudian
Meteor@@
atizar
salariales
pent@@
Proces@@
L.4
papeles
paci@@
recurrido
sirvió
oqui@@
elegida
otorgue
mixtas
ans
mán
eo
primordialmente
embajadores
preparatorios
segmentos
ran@@
1946
inmensa
12.000
resi@@
inevitable
refin@@
separar
intr@@
inglesa
debieron
comprometer
Documentación
genér@@
tóx@@
OP
auspici@@
ultimar
frenar
trabajó
Apoyar
recreativas
intelectuales
reglamentaria
vice@@
acos
agrupación
selectiva
aparente
limpi@@
mezcla
V.
encarcelados
signaturas
Presupuest@@
relaciona
establecieran
Tierras
sinopsis
asuma
3.500
extraditar
requerir
recluso
ek
áneas
informales
agan
malas
diga
confirman
comision@@
pod@@
presid@@
convenga
jer@@
simultánea
cumplió
Resoluciones
firmeza
privilegio
Prisiones
manutención
EM
recalcar
frágiles
gol@@
lados
MIN@@
Juristas
WG@@
caracter@@
cristianos
gü@@
mentalidad
refu@@
és@@
trimestrales
CIM
jurado
concebir
llevara
consistentes
suponía
dotado
273
todox@@
visibles
informando
lanzados
17.00
SE
incluy@@
282
vivan
adquiere
sex@@
id
idores
Ash@@
cesante
reiterado
minera
islam
suspende
masas
Berlín
Mohammed
1962
muse@@
implantar
barrio
299
teros
Comerci@@
comunicará
desestimó
Mas@@
falsa
desestabiliz@@
cubana
considerarán
percep@@
rescisión
surgimiento
ajustado
remedio
minu@@
universitaria
onal
1954
archiv@@
acord@@
intérprete
Proporcionar
patrones
entrevistó
delicada
rara
migratoria
conmu@@
prescri@@
Intelectual
multisectoriales
Como
mociones
andesa
abiertamente
fragment@@
deseado
1,4
comunicada
rw@@
facilitaron
confiamos
proclamación
iniciarse
felicitó
enjuiciamientos
vale
GC
Tomé
Ejecutivos
suscitado
ever@@
Dar
resolvió
interdependientes
Movi@@
ramas
ratione
aprovechen
estimaba
PYME
hago
Contaduría
optimizar
Asegurar
adhirió
1,6
FD@@
infectadas
causando
costumbre
aní
SR@@
persu@@
libaneses
sustent@@
bancaria
Límites
recalca
justificada
Procurador
últimamente
sustr@@
UNA@@
Educ@@
ingo
dependía
insatisfac@@
arc@@
añádase
ventaj@@
izo
acompañadas
ko@@
desacuerdo
Convencionales
tropiezan
evaluado
prevaleci@@
emprend@@
contag@@
zos
Penales
adher@@
obligatori@@
Urbano
Compro@@
sano
vigor@@
introducidos
afectando
Foundation
prestarán
seleccionado
neutral
gendarmería
inaceptables
cione
CION
Kirguisa
confirmaron
prospección
prestarles
sidades
Estrategias
acreditados
20,@@
295
preocupaba
protegida
Inst@@
RT@@
ić
tipificado
peru@@
asambleas
repar@@
plementos
electró@@
indicativa
vacío
dial@@
Magistr@@
auténtico
perteneciente
idamente
manufactu@@
alentaron
ísimo
enuncian
polimetálicos
plic@@
alcancen
Intern@@
confiado
ate@@
proporcionarles
SGB
1945
velará
met@@
encau@@
bombardeos
destruidas
auten@@
insist@@
www.un@@
mis@@
boletines
mado
expulsados
esforzado
opi@@
reforestación
atienden
veno
complacida
Adopte
complicidad
Law
logísticas
asol@@
amplíe
precipit@@
sequías
struc@@
UNSOA
cesar
88@@
reaccionar
9.00
inevitablemente
Centro@@
asamblea
tuviese
sucesivas
embarg@@
interregionales
rigurosamente
universitario
estructurada
cuarteles
dumping
fijos
Adopción
ibilidad
serios
agravi@@
respectiva
75@@
flora
introduciendo
controver@@
mediciones
1.300
beneficiar
fundado
Ejecu@@
ánicas
mejoró
fí@@
comprendi@@
partidaria
afgano
om
IZ@@
Científic@@
superposición
hierro
tropicales
largas
violenta
mina
Abi@@
injer@@
Artículos
arroz
úr@@
transmita
demuestre
pornogr@@
paradig@@
convenci@@
UNISPACE
ONUSOM
velara
1701
cubre
democracias
proteccion@@
rios
impusi@@
convierte
degrad@@
solicitando
Mercado
•
ultramar
aban@@
comprometi@@
borrador
desech@@
encuestados
ocupaba
ejercida
correspondían
conoci@@
exigido
transformaciones
asesinados
reestructur@@
osidad
suyos
distribuyen
exacto
medit@@
POL@@
cautelares
Inglaterra
competitiva
amplía
impedimento
observarse
torios
inación
depositado
ED
entend@@
limpias
ican
SBI
azi
atizado
destina
construyendo
intensas
Nom@@
cupos
Ó@@
gua
Labor@@
escu@@
implementar
disminuyeron
orería
AP
vecino
enuncia
1,8
Prepar@@
merc@@
preferencial
CSCE
critas
ratifique
Profesor
291
visible
vulnerabilidades
274
PNA
Espaciales
audit@@
acces@@
incau@@
incorporó
confec@@
PERÍODO
56º
múltiple
decisivas
masac@@
radica
sín@@
Capacidad
porteador
Sud@@
litigio
REC@@
seleccionadas
quej@@
discutir
innovadora
horizontal
protegerse
cubiertos
dific@@
portavoz
duplicaciones
Majestad
sentimientos
1955
firmar@@
tida
encomendadas
stren
distor@@
discriminaciones
verbalmente
coronas
ojos
escasas
Gobernanza
Kir@@
remotos
estrés
hún@@
57º
ratificada
L.7
alcanzaron
DI
virtu@@
invitaciones
Naturaleza
acuífero
sufri@@
logrará
comenzando
documentar
3.3
40.@@
Club
cuencas
equipar@@
subaltern@@
IG@@
liberados
instru@@
puntualidad
etiquetado
Principado
line@@
cometieron
armonizadas
pasados
versa
ogé@@
valorar
demuestren
descubrir
someterá
llos
codific@@
íg@@
instalado
turcochipriota
noru@@
Inv@@
plomo
Antillas
eve
alizas
participarán
alizan
jef@@
recarg@@
premi@@
Hum@@
coeficiente
POPS
National
regresan
otorgó
1,7
intervengan
forzosa
creciendo
dolor
lanzaron
recre@@
figuren
estudia
alimentarias
yaci@@
turcas
Turcas
ecosistema
serviría
lingüísticos
fem@@
toxínicas
consu@@
factible
prestaran
introdu@@
mixta
amist@@
concentrar
rumbo
enfrentarse
interesa
Gobernadores
decer
encargaría
rode@@
guatemaltec@@
plen@@
presupuest@@
Exist@@
medicin@@
mg
suspend@@
tantes
reros
facilitados
emitidos
Explotación
nen
bol
ail@@
yacente
ates
jardines
concur@@
Public@@
apreciación
determinarse
apunta
extinción
Olím@@
Jefa
menoscabo
zando
competitivas
enjuiciados
Alentar
alcanzarse
ign@@
prudencia
toxicidad
infrin@@
razon@@
Familiar
progresar
reducirá
cualitativos
definitivas
homicidios
departamental
aduaneros
multicultural
Cáucaso
23ª
360
aguarda
somalí
esclare@@
1.600
doce
Géneros
letrado
sumideros
diferenciado
seriedad
culminación
sucesor
CAR@@
montañas
expuesta
semanal
perturbaciones
exceder
UNAVEM
concedida
entorpec@@
vanguardia
Alem@@
entrañar
itan
debidos
há@@
vertical
escalada
nódulos
cay@@
cina
extraterritoriales
preocup@@
Financi@@
acuíferos
20ª
pliquen
evaluando
imputado
cuenca
advertencia
fortalecerá
Nicosia
Argel
realizaran
our
formulará
Litoral
enriquecido
Desarrol@@
ocupacional
ague
Leyes
irreversible
cicl@@
resur@@
ingenieros
provid@@
ocurrir
especificado
enerse
cho@@
balanza
exija
Inici@@
KFOR
Hacienda
segmento
CIP@@
contrast@@
zadas
concentrado
rot@@
mutuos
competi@@
amenazados
ESTA@@
ordenada
cid@@
despr@@
enios
cip@@
concernientes
preced@@
trayectoria
servirán
Pa@@
fusiones
recibo
profundos
docum@@
Referéndum
progres@@
actualizadas
rom@@
adquieran
resultaría
analfab@@
conviertan
47º
Comisionados
extendido
tropezado
participará
justifican
271
Sanidad
obtiene
remitirse
sucedido
Laboral
General@@
española
aportados
fomentan
redujeron
blancos
ot
mora
puramente
COMIS@@
ac
extradit@@
debi@@
inauguró
Lima
caza
CN.15
políticamente
ox@@
señalarse
estand@@
liberaciones
determinen
NA
Kiribati
decis@@
informan
nominal
expresados
proporcionaran
indis@@
nomin@@
1.400
Forest@@
Ensayos
Paulo
ún@@
diverso
oceánicos
anteproyecto
delictivo
Revolucion@@
violento
reemplazo
igu@@
2.0@@
pesquerías
dominante
ómicas
ocup@@
manifiest@@
egan
L.6
noventa
resuelta
achos
aceptan
unificados
Mejora
formada
serbias
proporcionarán
geogr@@
solemne
descripciones
Bah@@
primarios
pronó@@
herido
preocupados
concep@@
Resumen
obtenga
hija
leche
Además
explotaciones
FDLR
entren
omisiones
Ozono
proporcionarse
óptimo
ende@@
consi@@
1.800
Honorable
determinaron
nómina
descu@@
paul@@
aplicaría
gram@@
sar
necesite
congratula
sigui@@
jeros
ículas
recordará
extensas
PI@@
votaciones
acogi@@
incl@@
ion@@
sufragio
iniciadas
Bol@@
metodológicas
asignaron
acarre@@
X.
montañosas
git@@
avenencia
alegando
HFC
preso
patr@@
modifique
eños
Kal@@
Negociación
atmosfér@@
Sé@@
instando
pertenecer
creará
negación
óm@@
aguda
L.8
preguntarse
Ammán
mater@@
programado
Pesca
felicitaciones
parque
desempeñará
especificadas
ION@@
necesitarían
pagados
ASAMBLEA
EE.UU
adyacentes
comidas
blindados
och@@
romper
PP@@
past@@
instaur@@
Inform@@
Oficinas
302
obli@@
serbio
Brit@@
Depart@@
permaneci@@
expiración
emigración
alist@@
98@@
utilizaba
22ª
ensay@@
publique
revelar
presidir
hijas
aja
law
rentabilidad
negros
UP@@
22º
kh@@
APR@@
Institute
suministrado
dam
secretos
ibid
portugu@@
rápidas
ene@@
certi@@
Encarg@@
Th@@
planteando
Aero@@
acelerada
proyectiles
destacada
difundi@@
ubicado
adir
prosigan
embr@@
Interpol
ambicioso
L.5
Coronel
piedras
intenso
distribuya
5.1
fuga
sid@@
narcotráfico
neum@@
evolu@@
desví@@
SAICM
atrasados
jorn@@
reclusas
Do@@
urg@@
long@@
suscita
ski
fle@@
encuentros
advirtió
mé@@
respetarse
intentando
ante@@
IDAS
sugieren
76@@
Nece@@
competir
inhal@@
Kat@@
bél@@
consecutivos
modificarse
correr
Nivelación
acordada
sabi@@
fósiles
aliados
fen@@
periodicidad
revi@@
debatiendo
rigurosa
interviene
arancel@@
aur@@
incul@@
asignando
flota
Desapariciones
Continental
decidiera
eño
km2
ener
lograrlo
etnias
prosper@@
UNI@@
arrastr@@
ADO
mani@@
supr@@
aisladas
coadyu@@
enérgicas
actualizaciones
etario
indios
telefó@@
juntamente
fabricar
ori
frutos
icano
deportivos
estudió
coleg@@
guardar
N.º
21ª
RELATIV@@
tarjeta
partidario
prometido
interro@@
subnacional
onga
rinde
partici@@
mantenía
redactarse
vinieron
persigue
....
Prueb@@
nucle@@
sividad
preside
ferro@@
agradecemos
excedentes
obedeció
ofrecidos
ayo
SG@@
puentes
sumini@@
debiera
deberíamos
adormidera
poster@@
301
40º
liti@@
anón@@
aplazado
azerbaiy@@
CN.3
repetidamente
permitirles
música
Delincuente
asiáticos
Med@@
precaución
alentamos
orm@@
pun@@
debatió
debilidad
nul@@
punibles
indocumentados
capturas
xenófob@@
confin@@
milímetros
plac@@
concederá
oír
330
usado
emprendida
neonatal
legisladores
realzar
áticamente
reas@@
fructífera
Ros@@
Codificación
ombudsman
representativa
basar
Colec@@
Facilitar
afortunadamente
enar
permaneció
suplementarias
forzar
provoca
unilateralmente
abo@@
transmitidas
agregó
conduce
prescribe
Locales
desarrollada
PNU
eguen
Comis@@
298
filiales
alizarse
precoces
brinde
Preparación
coerción
desalentar
deb@@
congreg@@
controlado
delante
finalice
infl@@
signos
diversa
cimientos
bilingüe
CCAAP
1.100
destacadas
simposios
puedo
Euro@@
Den@@
transferidos
turcos
beneficia
elegirá
perciben
ONUHábitat
Corporación
73@@
carecían
Jud@@
89@@
flete
crec@@
incitar
asociada
16.00
pensionable
cooperado
residenciales
tarlos
Deber@@
entamente
tugurios
logra
bruta
tuales
invirti@@
seguidamente
selectividad
303
raventa
encabezado
dinamismo
PR
organizarse
delicado
anular
Hassan
CONF@@
310
320
pó@@
leve
credi@@
visual
alientan
Sir
Oc@@
Hacia
dedores
poliomielitis
incorporados
fa@@
Rodríguez
filip@@
limpia
sentado
Autor@@
basará
Aumentar
especific@@
inocu@@
latino@@
agü@@
apropiación
estimaron
UNT@@
bi
investiguen
L.9
reacciones
solos
Sy@@
multilingü@@
Fa@@
ofensivas
ocasionados
agropecu@@
fundar
pec@@
horizon@@
defectos
picos
colección
penetrando
Efectos
25ª
alumno
estudiarse
New
tudes
Contr@@
ines
ph@@
quem@@
psicológ@@
RECOMENDACIONES
contaminados
ides
oportunos
permanece
401
Construcción
Pal@@
perjudicar
llevaría
inc@@
ut@@
almacenes
comprendía
contestar
Sk@@
progresado
convenir
22,@@
Durante
interpretativas
aprovecha
investigado
deseaban
absorber
Volunt@@
evolucionado
escru@@
Tlatelolco
descrita
calibre
pil@@
enajenación
REL@@
deudores
desembolso
Crear
portugués
Sab@@
ejecutó
granjas
sumar@@
Ou@@
desesper@@
aut
causaron
reestructurar
vi
MU@@
Habana
Cha@@
aquella
Report
encontraron
Hacer
encargarse
ID
gentes
darán
invocado
lan
acepten
TCPMF
secas
endrá
indicio
oba
SID@@
yugosla@@
dejaron
instalar
drá
adjuntar
aseguró
seguirse
Elaboración
5.2
entu@@
indudablemente
comprendan
fijó
APLIC@@
procesado
paquete
Embajadora
graduados
competitivo
Länder
NA@@
señor
apoyados
emocional
rusos
culpa
lah
ote
catastr@@
48º
TER@@
fundan
embarazada
disid@@
catal@@
RAE
proveer
demandantes
acentu@@
presion@@
aves
REG@@
voces
elo@@
amenazadas
optado
extre@@
alza
considero
secuestrados
inscritas
brida
sugerir
Alma
sibilidad
74@@
tomamos
sost@@
especialista
Entebbe
transmitirá
precisan
UNMOVIC
aportaron
inauguración
resolver@@
sostienen
telef@@
IONALES
brut@@
laborables
depreci@@
sch@@
Nav@@
ícito
nob@@
SGP
transmit@@
organice
24ª
nado
Cuerno
Human@@
restrin@@
pesqueras
conyugal
297
injusti@@
compete
Metohija
afronta
reforzada
brindando
difundido
N.
arial
venci@@
Helsinki
1,1
25º
software
basen
radar
integ@@
PROVISIONAL
asientos
multidimensional
amo
aumentara
Dem@@
presupuestados
rez
superioridad
vencimiento
reclutados
suplementario
ajenos
acogerse
destinan
espiritu@@
vivido
Sin
fábricas
acar@@
amor@@
FM@@
neas
iniciará
redoble
ofrecían
expul@@
retroc@@
adaptadas
4.3
cualificado
Simposio
bombardeo
Financieros
supervisando
carreras
convo@@
45º
Municip@@
selectivas
normalizado
arbitrarios
BLNU
pion@@
veres
unida
pedían
meramente
condujo
Bos@@
consideraran
emplaz@@
gab@@
FINANCI@@
97@@
Micro@@
elaboran
Ari@@
6,5
ejecutadas
Mogadishu
recurre
depor@@
perpetradores
asiste
internacion@@
crearse
5,5
num@@
Ártico
Organiz@@
programáticos
Consultas
tropieza
aero@@
íferos
dispusiera
inspec@@
aníes
OPA@@
censura
computad@@
impactos
Civilizaciones
recogido
Dominica
pak@@
confe@@
utilizaran
evalúe
superfici@@
porcentuales
ont@@
mortales
promovió
m2
garantizadas
dico
Británicas
propicia
Sur@@
impreso
Fr@@
Ries@@
Mur@@
marcada
usados
eliminando
desplegadas
quo
incumb@@
históricamente
analizado
admisibles
parciales
anga
jurisdiccional
dal@@
disfruten
oponerse
len@@
Asociado
ingü@@
endém@@
Pet@@
análogamente
cumpliera
cambiantes
obligaron
enciación
efectúan
abstención
RESOLU@@
Somal@@
privar
aza
Khali@@
cobrado
farmacéuticos
bon@@
David
Anuario
euro
canal
generalizadas
preparen
Pristina
ideología
subje@@
sexualidad
ilidad
siglos
compet@@
Casa
estacionamiento
4.500
asesora
dri@@
entra
doctrinas
coerci@@
Luis
aki
atividad
294
comprobó
&amp;
Empres@@
antisemitismo
Peter
uniformidad
atraso
retiraron
stán
tratara
opresión
Instrumento
ferio
ation
hos
Cesación
Muse@@
oa
dinámicas
análogo
empl@@
ham
sembr@@
RP@@
erlas
entre@@
juristas
expulsado
Tar@@
vietnam@@
44º
7,5
supondría
cultur@@
deseable
lí@@
duras
apreciar
desintegración
ré@@
escuchará
afiliarse
miseria
abast@@
actuó
resueltos
resuelva
temos
invertido
ocupantes
REP@@
pacíficamente
faz
argo
prosiguiera
Recuperación
crip@@
formularse
camas
inscribir
impidió
paliar
grama
Neerlandesas
Sem@@
50.@@
desemboc@@
sancionados
ofrecieron
extraí@@
ax@@
INA
Consejos
Materia
edoras
PCN
inváli@@
inequívoca
UNISFA
alemana
3ª
desplegando
obligan
tas@@
sitúa
barrera
oído
Producción
aí@@
yan@@
atmosférica
excluido
1.700
informadas
estanc@@
birse
etíopes
Columbia
cast@@
trabajará
clan@@
Deporte
farmacéu@@
introduce
carecía
CIC@@
artistas
bloques
arri@@
Religi@@
titula
Cl@@
documentales
saque@@
eludir
invari@@
reforzarse
OTR@@
sagr@@
Independencia
dicos
III.@@
Carlos
une
organizadores
riguroso
departamentales
formatos
58º
desarrol@@
mias
compendio
boy@@
sesion@@
Vele
presupuestado
293
ponencias
estalli@@
estipulan
Médicos
silvestres
incipientes
aterales
amenazado
bombarde@@
Op@@
negocio
correg@@
imperantes
Da@@
prontamente
expedido
enciado
advers@@
niegan
injusto
siria
inquie@@
equivoc@@
311
regulado
surgiendo
importar
all
tre
by
ly
antropógenas
rub@@
acas
ocasionado
inmun@@
inadmisibilidad
sustituido
ministro
ejes
Menor
Forces
cédu@@
plane@@
requi@@
obstacu@@
sensibiliz@@
maximizar
flo@@
áctico
309
Kampala
sana
tomas
96@@
proporcionaba
XXIX
correccionales
iniciados
improvisados
concebidos
Sanciones
550
Equ@@
Progres@@
reste
PB@@
falsificación
muest@@
chas
supuso
creíble
Centre
tese
confirmada
implicaciones
cometiendo
efectúe
subdesarrollo
L.10
tardía
centre
2,2
asegurará
NO
pant@@
abstu@@
Rob@@
Kitts
Síndicos
explicado
experimentos
inquietante
Rem@@
instituir
CNU@@
Libro
extrapresupuestarias
predic@@
Dios
signi@@
ríg@@
aspiración
atañ@@
lanzar
Cook
búl@@
23,@@
inadecuadas
sustanci@@
diseñados
IDADES
altern@@
AC.26
Forzadas
felicitarlo
SBSTA
normalizados
hidrocarburos
regal@@
recordatorio
facultados
deduzcan
380
60.@@
973
BU@@
meteorológicos
satisface
41º
crónicas
Diputados
rehabilit@@
Sudan@@
olvid@@
premios
huir
Dj@@
lesión
ANTE
exhortaron
42º
amables
apoyada
inte
consuno
sostenidos
Nevis
excelentes
posibilitar
recortes
akarta
Completa
instado
ston
italiano
interrelacionados
limite
ficio
ólo@@
privativas
arbit@@
Fern@@
victimización
desembols@@
Reintegración
barri@@
puer@@
artísticas
detuvo
recomendaba
IV.@@
insistencia
dores
CP.7
CMP.1
energéticas
concuerda
estro
Prest@@
demolición
dejen
43º
dram@@
Integr@@
START
esclarecer
recog@@
hemis@@
satisfecho
CN.7
APROB@@
prot@@
ét@@
fre@@
fomente
reglamentada
zados
Intensi@@
Negro
consolidados
ticias
psíqu@@
adquieren
contraviene
decisivos
mería
letr@@
prestaban
dieci@@
procre@@
apro@@
localmente
empezando
Ra@@
Minsk
SH@@
DIC@@
divid@@
Conflictos
negociada
21,@@
amortigu@@
308
subsisten
vivo
estereotip@@
colmar
desconfianza
307
pri@@
remunerados
ítim@@
tomaran
competitivos
estrechar
presidió
detectado
guardería
ilustra
Ingres@@
prome@@
Estatutos
indone@@
ocausto
Uagadugú
ub@@
Contra
relevante
amparados
Respuesta
sal
elaborarse
atribuida
golpes
vos
pati@@
andeses
mixtos
musulmanas
ner
comprometan
FA
reduciría
$
vecin@@
hábitat
917
espe@@
horarios
anfetamínico
estabiliz@@
expensas
consejeros
sistem@@
Esclav@@
procl@@
JO
casación
desconocido
surge
mediadores
gest@@
verdaderos
250.000
estudiará
reorientación
agésimo
rio
sienten
suplente
E4
Propor@@
preparase
solían
albanés
figure
particularidades
engañ@@
cubiertas
exhibi@@
aclaró
Televisión
favorecen
adería
voló
dicen
argument@@
Indi@@
cono@@
Transparencia
congoleños
ović
mutu@@
desencaden@@
ayudarán
constitutivos
aportadas
cartografía
empoderar
aca@@
detall@@
provocan
implican
cac@@
GA
creatividad
Parlamentaria
ris@@
Salv@@
Mant@@
Brigada
militantes
char@@
Maz@@
hipotec@@
wi@@
2018
solteras
cortes
Cul@@
im
estudiante
sic@@
entrañaría
volati@@
cuadr@@
decepcion@@
att@@
supedit@@
Monrovia
CCW
juici@@
akh@@
murió
Enfer@@
hojas
23º
ríos
estigma
rasgos
Expl@@
condolencias
L.11
pasen
Certi@@
deliberar
Sociedades
vigilada
Ah@@
sentir
logrando
paquetes
solas
llama
2.4
2,6
sobrevol@@
Af@@
Combatir
sufragados
forestación
trafamiliar
consistió
perpetú@@
prestigio
rastreo
Canal
ardín
atendido
agres@@
regulador
imponga
imprevistas
ÍA
traduce
entrañaba
Contratación
Exterior
paguen
realizaba
expedir
gesti@@
Bon@@
corredores
esterilización
2,4
procuran
proporcionaría
infligidos
had
real@@
reunida
contemplan
piel
escrupul@@
mir@@
tú@@
non
representativos
enseñar
centrando
estad@@
ponentes
divergentes
socava
tácticas
ECOMOG
306
exportar
biomasa
ubicadas
desglosadas
tant@@
ire
150.000
bot@@
lamentó
liquid@@
infringido
prac@@
region@@
ocultar
especifican
cometió
L.15
arre@@
Liban@@
ries@@
Médico
infantería
protagonistas
7.500
recluidos
Glob@@
2.400
arrecifes
OCAH
repetir
preservativos
UNOMIL
empeor@@
ayudarles
lati@@
discrecional
porcentual
isa
eto
poligamia
Ontario
aduaneras
Khan
intermedia
marcas
Aduan@@
onamiento
PFOS
fórmulas
proceder@@
izados
ónico
practican
notificará
activación
acaban
P.
correspons@@
irme
tienda
SITU@@
Apertura
abrumadora
maniobras
ceder
merced
83@@
homosexuales
cautela
acat@@
filas
Internos
tér@@
éci@@
caj@@
cautel@@
Viol@@
deciden
ram@@
1244
filiación
alemanes
gun@@
fábrica
Pitcairn
tac@@
completó
constituciones
alterar
rigor
apa@@
pendi@@
grabaciones
inaugural
alcantar@@
cataliz@@
proclamó
confiar
procedido
controla
lluvias
colaborará
Fomentar
denominadas
sk
Muni@@
maestr@@
Entendimiento
revisara
hábeas
apre@@
fusion@@
recurrentes
introduzcan
tran@@
observadas
compartan
desarrollar@@
costeros
tarán
pedirá
Shabaab
PIC
optimismo
Il@@
Paul
aparecer
excepcionalmente
afectó
ítimo
contrariamente
perjud@@
atales
garantizara
ític@@
BDE
admit@@
tiendas
Jammu
posean
inadmisibles
ísima
culminó
rado
representaciones
pieza
mann
sional
concesionario
stan@@
Nacion@@
induci@@
reconocerse
acumulados
perpetradas
gro@@
expreso
amen@@
Refer@@
leves
312
insurgentes
jada
infectados
masculino
diciendo
arbitrario
319
alimenticia
electos
atrasos
usando
divide
interacciones
318
quedarán
ROM
separati@@
Ev@@
mosqu@@
hostil
eco@@
ish@@
oner@@
gible
atlántica
reaccion@@
UNSMI@@
emitidas
ener@@
roman@@
exhortar
lidades
tari@@
quería
Funcionarios
residual
quinas
cruces
descuento
ajena
turistas
derecha
fundamentadas
comunique
lac@@
procedencia
responder@@
conjunción
diferenciadas
L.18
vertimiento
disuadir
aplicarlas
genes
irla
insostenible
austrí@@
inadecuado
segundos
filosofía
emprendidos
implicadas
américa
promin@@
Shaab
24º
27,@@
radio@@
denunció
aprovecho
extor@@
preocupantes
migratorio
redactores
concedidas
2,3
ok@@
cotidianas
trimestral
Ahmad
400.000
materno
IAL
Action
tener@@
Responsabilidad
suministrados
seguiremos
habilidades
SCN
39º
simples
SPIDER
literatura
partí@@
Ituri
26ª
defunciones
editorial
negra
pidiera
1874
COMITÉ
cesionario
pudiese
descubierto
sobrevoló
interi@@
L.16
Repúblicas
beliger@@
agresores
Rad@@
eventuales
tara
Función
ascendi@@
ancill@@
analizaron
pauta
comunales
merec@@
investigue
requirente
encargue
rever@@
transzonales
Mak@@
Consejero
ml
Hussein
flagrantes
visitado
coyuntura
exager@@
Disciplina
señalada
fundados
embalaje
dividido
desmovilizados
socioculturales
obstaculizado
cotidi@@
LAC
valle
Magistrados
impro@@
Tan@@
centralizada
libanesa
circu@@
Patrimonio
rigurosas
investigados
Océanos
aiga
ent
formaban
520
automóvil
encomiar
tomada
árbitro
matem@@
ofensiva
climáticas
facultada
consuetudin@@
regre@@
extensiva
Reconoci@@
aplazó
destruidos
bros
inta
intensos
Pequeñas
revesti@@
toxicó@@
Clima
gre@@
articulación
erlo
Orgánica
obl@@
seguidos
Fon@@
Tal@@
hoteles
nom@@
provienen
Sicotrópicas
planteaban
suprimirse
resaltar
volvieron
Toda
operar
Mat@@
Chechenia
gica
vídeos
BER@@
íquese
ocurridas
Ases@@
roga
englob@@
bueno
textiles
Latinoamericano
clínica
psiquiátricos
incertidumbres
ale@@
enilo
eliminen
Corona
enteramente
ECONÓMIC@@
procure
disi@@
premisa
instituido
mobili@@
Mejoramiento
Transportes
abilización
rama
suministra
abordaron
pudiesen
Perspec@@
estat@@
Mis@@
Europeas
metr@@
Bá@@
ONUC
aciَn
observadora
Cel@@
ETN
FP
defenderse
asignarlo
espont@@
formularan
CFA
compart@@
HC@@
Turca
reembolsar
arrestos
desarrolle
Mand@@
compu@@
parecían
comparaciones
ám@@
ofrecida
calma
temores
sanciona
afluencia
actualiza
irreversi@@
ats
conspir@@
NIÑO
holístico
medioambientales
métricas
sionista
antía
declare
decomis@@
desempleadas
Rev.2
lex
ga@@
anismo
descentralizada
visitaron
depositados
algodón
Sanción
sarampión
escoger
guiar
teo
justifique
Lisboa
afin@@
represalia
Agr@@
repre@@
sencillamente
ecido
recurren
decirse
Legislación
determinarán
fum@@
340
reactivar
apuntan
documentado
Cur@@
bedu@@
bin@@
concluida
descarga
ofici@@
distas
ejecutará
ojiv@@
ays
aclare
consistirá
beneficiaron
continentes
belga
caracterizan
ación@@
Ciudades
proponga
ío@@
tetr@@
experta
adulto
Todo
86@@
Arbitraria
Fac@@
84@@
poderosos
transmisiones
paración
CS@@
old@@
almac@@
repen@@
emia
Wilson
ger
pués
UND@@
integra
lesia
CONFER@@
315
ich@@
ey
debo
esec@@
1959
2,7
graf@@
1,9
MONU@@
POLISARIO
ant
Far@@
28,@@
dicas
clá@@
auditor
exoner@@
subterr@@
Ibrahim
AU@@
HCH
undi@@
IC
ania
magistr@@
mento
326
Sult@@
Declar@@
rieron
inquiet@@
Ind@@
campes@@
veter@@
Juba
cus@@
efici@@
drog@@
adera
ary
Times
reza
decen
rles
bolivi@@
persi@@
Priv@@
concurr@@
González
jure
endosulf@@
trópicas
313
mag@@
Pas@@
modif@@
bibliogr@@
Martínez
dote
ima
adqui@@
apar@@
Renov@@
UNIKOM
monet@@
excav@@
Orden@@
Contrat@@
Rati@@
modern@@
aren
Fal@@
L.14
IÓN
São
ç@@
gin@@
plica
fiscal@@
invite
entro
fitri@@
asc@@
Bujumbura
94@@
quinqu@@
Autónoma
Ken@@
unción
teza
plu@@
enga
Mit@@
prohí@@
XXVI
ongan
far
erci@@
L.12
Ir@@
TEN@@
guerri@@
Nas@@
its
Has@@
ologías
MINUGUA
Municipal
inoc@@
25,@@
L.13
314
Pla@@
Quebec
cár@@
tis
s.@@
Ñ@@
Situ@@
creí@@
téc@@
eamiento
Punt@@
kin@@
ueb@@
Pleni@@
persever@@
Distribu@@
subra@@
Qui@@
Hay
zel@@
cen
Incorpor@@
simult@@
reti@@
illas
sero@@
onda
rend@@
fo@@
GNSS
Sand@@
spec@@
mes@@
esco@@
deven@@
L.19
descrip@@
emancip@@
Fron@@
wan
1737
317
Mul@@
Latino@@
1957
chi@@
L.17
DD
mini@@
sionistas
máxim@@
aprovec@@
650
Ed@@
325
1718
bios
ville
Bad@@
interrum@@
pren@@
sé@@
Joseph
culp@@
Quds
ust@@
retire
úl
dismo
audiovisual
bah@@
noble
24,@@
publici@@
reflexi@@
pecuni@@
pora
consensu@@
GATT
Cin@@
físic@@
Add.6
diverg@@
ace@@
ine@@
LRA
argum@@
emite
blan@@
sc@@
medic@@
Defin@@
ebr@@
festiv@@
ek@@
Sin@@
Extra@@
histori@@
males
imo
magn@@
landia
Lomé
orbit@@
9.30
cursil@@
vig@@
primi@@
ofluorocar@@
sil
eléctr@@
IDA
ud
6.1
lesbi@@
2030
986
cera
lag@@
We@@
ok
ogen@@
álogo
pros@@
var
spe@@
conv@@
café
acidad
ä@@
Cá@@
Leg@@
consenti@@
Wal@@
ave
hou@@
fru@@
TES
rebel@@
cológ@@
vid@@
dig@@
plemento
MC
Yu@@
miso
26,@@
fáci@@
L.20
th
NGO
desigu@@
afr@@
PE@@
RE
detr@@
vast@@
eventu@@
ung@@
Vida
CR
Gener@@
eques
sio
añadi@@
Juven@@
incen@@
ilíci@@
IGAD
prefabric@@
328
Bangui
comi@@
M23
NPT
Unid@@
Quin@@
Abdul@@
1.4
ieran
Industri@@
iti@@
tarlo
1612
Garanti@@
ECHO
efectú@@
oles
atol@@
urales
Nov@@
Jan@@
Bri@@
CEE
Antonio
Ta@@
ahu@@
tó@@
IMIS
Polític@@
du
EAC
ste@@
Medici@@
ícula
retroviral
Na@@
icana
Archi@@
esión
Indic@@
sexu@@
Zagreb
RI
eligi@@
Sum@@
trech@@
stula
resolvi@@
Poli@@
desalo@@
Def@@
convier@@
atización
CPC
radical
instrum@@
zbe@@
CESCR
370
documentados
Bus@@
ET
XXV
favo@@
ses
Fin@@
ONUB
lucr@@
Ya@@
34.@@
pará@@
tramar
embarc@@
autop@@
URA@@
Lim@@
Mel@@
Dan@@
aden
tu
Boutros
RA
POPR@@
infiltr@@
lis
ker
ínt@@
tendi@@
convi@@
falsi@@
Recon@@
Jan
coral
copi@@
alco@@
Probl@@
a.
Corporation
Fundamental
ariado
gibles
Var@@
trast@@
aro@@
retrovir@@
uela
CN.17
traduci@@
Guer@@
Sheikh
ze
dece
din
bord@@
Abdul
resar@@
Afro@@
Sharif
sir@@
precau@@
Hotel
metad@@
set@@
Ca@@
Gali
ati
Kor@@
ández
BINU@@
embal@@
ž@@
Interministerial
ERO
batall@@
tail@@
95@@
FNL
presu@@
a-
artifici@@
tech@@
Kab@@
387
verd@@
abor@@
Gh@@
alg@@
primir
lider@@
convers@@
Log@@
band@@
adquisi@@
Company
adiestr@@
ika
NAS@@
FU@@
aqui@@
ain
patrimon@@
Colom@@
demoli@@
invi@@
1956
323
brutal
Dos
che@@
MAS
ray@@
Cartogr@@
346
suales
erradic@@
heter@@
uro@@
necesit@@
ilandia
incrimin@@
Multi@@
bilidades
prof@@
375
bitr@@
afir@@
Michael
evid@@
lite
guardi@@
AH@@
bom@@
Rab@@
Lou@@
5.3
Embaj@@
mas@@
UNMIBH
03@@
rig@@
af
Trabaj@@
ic
cercior@@
beli@@
DISCRIMI@@
Alber@@
inmen@@
EULEX
ESTI@@
insectici@@
conti@@
coca
errá@@
sias@@
biom@@
comb@@
elos
solici@@
333
gl@@
661
interlocu@@
321
Hyogo
Respons@@
Residual
1947
flexi@@
Gor@@
Ka@@
ígena
Dili
etr@@
AWACS
TH@@
ting
T.
Yam@@
ahariana
inmedi@@
od
publi@@
raf@@
Raj@@
jus
CER@@
redu@@
tangible
memor@@
Material
Ren@@
cuad@@
aprueb@@
L.22
decep@@
ple@@
DIS@@
DDT
mort@@
consular
fo
CULT@@
Intro@@
Hid@@
INTER@@
érica
Fran@@
just@@
Particip@@
aval@@
átr@@
ONUSAL
001
Ama@@
..
327
ideros
mod@@
ég@@
Š@@
Ban
Robert
Francisco
reconfigur@@
ete
SU
Had@@
confes@@
recru@@
natal
virtual
CT
Coloni@@
335
kov
MO
Torres
propor@@
fit@@
ki@@
ty
Charles
sky
wa@@
Nutri@@
cubierto
impe@@
omas
L.23
musul@@
Dar@@
L.21
satisfec@@
andes@@
recap@@
LC
cifr@@
CONTR@@
otación
Aung
emat@@
ø@@
CRP.2
sla@@
Network
Categ@@
OB@@
SPLOS
Dou@@
UA
cog@@
arsenal
6.2
Rev.@@
mó@@
air@@
ian
420
Save
ão
exis@@
redistribu@@
nolog@@
amplí@@
retribu@@
Tuberculosis
As
322
CN.6
AC.96
salu@@
PERMAN@@
Bamako
struir
IDH
chi
atal
Abdullah
st
mam@@
Kon@@
fertiliz@@
ŷ@@
proxim@@
serv@@
351
alleg@@
asión
ms
interrup@@
far@@
hag@@
mali@@
Fer@@
Rot@@
rol
afías
mant@@
intercep@@
socio
29,@@
ariales
SO
507
uría
cionalidad
cardi@@
disper@@
Ky@@
kilogram@@
podr@@
EE@@
antic@@
mide
letes
EV@@
American
expatri@@
bene@@
unánim@@
minor@@
Vil@@
metropolit@@
cró@@
Alex@@
V.@@
asi
Enti@@
AMI@@
CLP
huel@@
dole
ital
subsan@@
pti@@
ÓN
sicos
yah
uen
diplom@@
MINUSMA
ceremon@@
rescin@@
URA
nit@@
ATIV@@
pies
ï@@
SR
cohe@@
poli
ómica
migr@@
Ol@@
ade
Evalu@@
tropiez@@
Investig@@
Prelimin@@
Octa@@
isión
áli@@
Fisc@@
33.@@
enia
REP
asci@@
dé@@
prop@@
ribere@@
Audi@@
brin@@
ENTA@@
Agenda
servir@@
entor@@
Estim@@
adhe@@
bic@@
advert@@
Lic@@
cuart@@
Fo@@
fluor@@
Vol
KO@@
artes@@
337
Hal@@
324
ámenes
archi@@
Treaty
Aq@@
354
mic@@
336
FER@@
Inf@@
XXVII
armon@@
Escu@@
pár@@
Raci@@
TU@@
349
estrech@@
exped@@
Asoci@@
ford
polic@@
Concili@@
pesqu@@
Pot@@
eces
Manila
consist@@
RU@@
esia
orno
XXIII
bill@@
corpor@@
RS
uniones
umba
García
colonización
ogo
30,@@
Pretoria
bet
asia
electro@@
Barcelona
matrimonial
tivi@@
ss
Oli@@
revit@@
oner
bet@@
329
españ@@
4.4
Kan@@
Iber@@
Bat@@
admini@@
Produc@@
ender
pesos
afgan@@
frac@@
2050
Wol@@
veloci@@
Fl@@
Hist@@
Legal
uel@@
Din@@
elle
setia
Opini@@
Bir@@
1952
ífer@@
int
Gi@@
abro@@
dam@@
ámicas
OAC@@
roc@@
Dayton
345
TT
UNTAES
bisex@@
insul@@
oto
fili@@
UNA0@@
acor@@
AA
sharia
DO@@
ula
éc@@
Contin@@
diagno@@
XXVIII
Sul@@
abrum@@
mineral
udas
850
Ramallah
ISO
Add.7
Santos
GE
ence
َn
premedit@@
femen@@
étr@@
MAN@@
ht@@
ligro@@
apropi@@
María
use
ath@@
Provincial
naval
ticul@@
COP@@
426
332
Dur@@
SW@@
c.@@
recal@@
tot@@
e.@@
347
SOS
arme
septent@@
instructor
escas@@
497
recurr@@
Pro
DAS
35.@@
etes
ess@@
2.5
zi
VER@@
L.24
James
406
psiqui@@
van@@
P.1
manipul@@
mez@@
triple
Maj@@
sw@@
!
ango
resu@@
agreb
legítim@@
LI@@
Palestin@@
ual
Suministr@@
embl@@
560
402
aconse@@
prerrog@@
Wa@@
12.30
recl@@
infra@@
Téc@@
Taylor
ITA@@
satel@@
bras
ogram@@
348
perfec@@
VA
334
activi@@
artic@@
deo
50,@@
§
HR
Ami@@
Center
Ankara
udiciales
Ki
950
tible
sales
comien@@
Isl@@
Ig@@
municip@@
aye
provision@@
distr@@
pist@@
ja@@
Martin
deber@@
vidad
Pérez
EZ
UNMIH
dato
Audiovisual
susceptible
peculi@@
Total
USAID
UNTAET
matr@@
Bern@@
estu@@
elación
у@@
lavonia
HA@@
L.29
aux
her
PROTEC@@
ere@@
UNPREDEP
íqu@@
432
366
sha
mático
epis@@
TOR@@
parad@@
Económ@@
impl@@
olucion@@
Thomas
OV
pron@@
idan
subsist@@
417
euro@@
Mano
inscribe
ick
anomal@@
éano
amas
Cab@@
ingüe
410
pap@@
corred@@
corrob@@
cere@@
common
bra@@
356
lom@@
supervise
vacun@@
extrajudicial
Jer@@
bir@@
She@@
364
inete
apu@@
Canadi@@
duce
tra
339
dilu@@
proc@@
3.4
George
06@@
lmente
Crisis
paña
emi@@
Srebrenica
conver@@
440
expect@@
dilig@@
dign@@
dimen@@
Plen@@
protagon@@
mea
Society
rogas
Bor@@
eu@@
Multin@@
JS1
yana
lingü@@
pour
encom@@
ré
erlandes@@
entable
ventil@@
diploma
UNPOS
CAN@@
ír@@
Tashkent
hac@@
variable
5935
biles
Person@@
deser@@
L.26
abad
ulta
331
Marrakech
abst@@
metil@@
Ker@@
chel@@
Vol@@
clu@@
L.25
WG.6
lad@@
Budapest
COOPER@@
ades
israel@@
428
GB@@
diver@@
Fun@@
357
rase
INFORM@@
ches
EB@@
alin@@
Ej@@
combusti@@
Cancún
urban@@
10.15
University
Ambi@@
Posi@@
regener@@
NP@@
430
Insol@@
menti@@
haz@@
ánsito
stic@@
SOCI@@
plement@@
Ji@@
reconstitu@@
Omar
reafir@@
ens
edas
terrible
352
primordi@@
415
asp@@
Pil@@
Universi@@
37,@@
GBIS
financier@@
Señ@@
auxili@@
rese@@
394
dy
tavoz
yi@@
plicación
Arafat
reneg@@
atro
mutatis
tax@@
oun
átiles
ped@@
Estr@@
UNIC@@
Shanghai
EX
perfluor@@
disciplin@@
355
cruel@@
discapaci@@
proce@@
341
Instrum@@
Doc@@
ee
cidental
TEC@@
JEC@@
390
pensas
sabot@@
predec@@
otes
femin@@
infec@@
hubi@@
dem@@
Pra@@
refugi@@
unci@@
344
XXX
Nic@@
inciner@@
Laur@@
acía
Port
solemn@@
377
460
FON@@
moon
terr@@
aim@@
Dr@@
ald
480
exhum@@
ial
oun@@
JIU
eter
Pedro
DC2
Tam@@
terri@@
nar@@
prór@@
tag@@
Council
110.@@
Sad@@
372
Bil@@
auge
BC
456
Comunic@@
Hon@@
Abdel@@
38.@@
40,@@
Malaria
470
414
L.38
L.27
lim@@
Kyi
AC.51
Tec@@
Bush
bert
509
Condi@@
reflexion@@
proto@@
descan@@
PROGRAM@@
entren@@
eng
Mecanis@@
Victoria
News
prospec@@
éramos
jo@@
Kis@@
ecos
peligro@@
ber
trib@@
SPLA
judici@@
Gl@@
ornos
198@@
631
Rumaysh
Kas@@
Bougainville
GO
shima
ambién
intoler@@
Cro@@
374
mutandis
UNIO@@
ofobia
ster
neon@@
fis@@
wi
373
prud@@
acio
Series
Beit
protest@@
ecu@@
lóg@@
san
del@@
Pue@@
emolum@@
intra@@
PCB
7.1
UNID@@
AB
343
multilater@@
place
10.10
estableci@@
ei
iles
assi@@
auster@@
PAR
UNC@@
Mes@@
nó@@
Mun@@
Men@@
UNMISET
toc@@
sam@@
Gro@@
deduc@@
arías
Mac@@
Pun@@
Innov@@
Mic@@
pedag@@
com
sosteni@@
412
sun@@
mail
ini
ritori@@
repor@@
matrimon@@
ander
ámica
temper@@
EUFOR
STA@@
hex@@
enes
fet@@
ív@@
ny
Kisangani
subver@@
ack@@
Capital
cito
NP
tonio
versal
arquitec@@
dens@@
güedad
Kom@@
lación
cular
UNOWA
ng
pez
FC
mul@@
L.32
Gen@@
aces
uelos
versi@@
intergener@@
1.5
Pin@@
Sr@@
into
fiel@@
POL
Peace
408
enz@@
ormente
tox@@
L.28
EG@@
expl@@
Muhammad
cuesti@@
civiliz@@
L.34
BO@@
mend@@
Andr@@
OBSERV@@
488
metal
Lab@@
ste
353
363
Princip@@
contravi@@
GEN@@
toría
2008@@
olvi@@
tex@@
diabetes
Ben
422
Chan@@
apátri@@
pson
ple
tarían
REDD
Coton@@
Profe@@
ules
a.@@
381
04@@
fugi@@
SM
05@@
niv@@
405
CORE
prime
armente
385
Portugu@@
Gobern@@
OPS
inidad
abando
psi@@
ejer@@
342
rad@@
Kel@@
R.@@
ificación
Fil@@
540
hotel
Apo@@
Feder@@
imas
nik
Flor@@
Hen@@
Deleg@@
zi@@
tróleo
etíop@@
362
PI
Edu@@
503
Som@@
infer@@
413
Mitrovica
procu@@
har
EP@@
DIN@@
acias
amar@@
presup@@
tabl@@
awi
358
Pierre
Mahmoud
487
aBDE
6.3
PP
PAL@@
mem@@
regar@@
fluctu@@
PEN@@
audio
Mam@@
Montevideo
457
LAR@@
ska
lid@@
361
Emer@@
propi@@
fabetización
35,@@
noci@@
Deposi@@
Jal@@
Hiz@@
descend@@
Miguel
DU@@
475
Afgan@@
CNDH
ji@@
Kim
estigos
ífic@@
368
Iz@@
ferti@@
extern@@
371
AI@@
Arch@@
Gbagbo
vivencia
SFOR
ISBA
multifac@@
715
ical
Wil@@
On@@
servid@@
SOCIAL
conflic@@
379
36,@@
472
cables
nio
Ox@@
lites
War@@
Palais
tiles
caí@@
Suu
Comi@@
desast@@
capacit@@
PBDE
Group
Elimin@@
48,@@
vić
ane@@
milici@@
presum@@
ill
Der@@
rastre@@
CN
anch@@
423
L.30
COL@@
Bank
ago@@
act@@
NU
Valencia
sh
1907
Man
coali@@
cía
sitos
Luanda
389
Postal
Fund@@
minado
Bogotá
BA@@
sitú@@
ament@@
ut
culas
Raf@@
09@@
cual@@
incaut@@
07@@
PCP
L.39
Shu@@
adero
391
difíci@@
TERRITOR@@
369
inspector
complaci@@
Jen@@
brech@@
465
MS
93.@@
allah
CCC
dat@@
Apartheid
Dubai
URE
TRAN@@
judi@@
advirti@@
nia
ney
Ocup@@
Armisti@@
Clinton
Design@@
TP@@
meg@@
abar
386
quisi@@
Land@@
yn@@
PARTIC@@
7.2
1503
Estadís@@
Mek@@
TC
Adquisi@@
GL@@
participar@@
oi
LR
ask@@
grad@@
fó@@
530
ule
ímenes
reconcili@@
ack
dor
Inte@@
33,@@
IONAL
Crimea
409
ADMINISTR@@
FAR@@
418
arte@@
38,@@
Trade
fi
510
BA
bia
lateral
Liber@@
Colabor@@
L.31
L.36
Triparti@@
tual
irrepar@@
Le
out@@
ofen@@
concuer@@
08@@
CF@@
propiet@@
392
Hy@@
admir@@
ach
clí@@
universit@@
Add.8
Sali@@
Cher@@
Eli@@
astron@@
só@@
rutin@@
Mandela
Cart@@
CONV@@
Lev@@
gh
Sig@@
Vel@@
maor@@
segur@@
Auxili@@
1624
416
REPRESENTA@@
¡
ape@@
Wi@@
L.40
END@@
Dani@@
aten
Ín@@
intenci@@
convoy
L.37
HR@@
BI
MICIVIH
Adop@@
sostu@@
radios
supervisor
lib@@
Destruc@@
polar
ofer@@
The@@
otos
enmi@@
2025
435
Guant@@
any@@
382
álisis
Geo@@
Equi@@
Sir@@
411
age
orial
topo@@
chipriotas
hind@@
397
fiduci@@
Yas@@
Mostar
plus
anticoncep@@
ecnología
abo
SER@@
California
caf@@
forti@@
ON
Nú@@
transcurri@@
751
Id@@
also
amen
Tab@@
indivisible
invalid@@
orn@@
359
49,@@
Nag@@
umbre
capita
W.
Resid@@
riguro@@
NAC@@
conse@@
cause
395
artificial
olog@@
Dep@@
multimodal
Franco@@
Economic
usur@@
als
L.35
coher@@
PD
rrog@@
industri@@
celeb@@
ashk@@
Kazak@@
analític@@
1572
Mohammad
2004@@
478
lei
honor@@
Tim@@
ole
436
Lam@@
L.42
ebra
popul@@
minimi@@
ites
causal
Richard
hun@@
lin
flag@@
398
Mir@@
ag
378
RACIAL
oren
trauma
376
aum@@
dable
FE@@
tus
780
439
sat@@
421
materiae
Bro@@
TI
Kad@@
ONUMOZ
mer
Abbas
Marg@@
cogens
even
490
L.33
sugi@@
esfuerz@@
sobrevi@@
ovi@@
llu@@
aid
Demogr@@
U.S.C.
tró@@
Mental
ural
Hus@@
Mosul
Laden
Fre@@
Org@@
Alfonso
multipli@@
Cau@@
novi@@
liberal
L.43
ose@@
obstac@@
Rabat
ks
512
Intranet
turales
Kabila
404
Hg
gov.@@
Hez@@
BIEN@@
ARIO
apari@@
Funcion@@
ICCPR
marginal
trim@@
John@@
defen@@
Knesset
Freetown
Tel@@
conting@@
rop@@
Ofici@@
amental
enario
erra
convic@@
383
MB
2.6
bias
521
GENER@@
Ng@@
CEP@@
omin@@
Of@@
Kra@@
Forum
montañ@@
judic@@
tender
CRP.3
perio@@
ítulo
dep@@
abstr@@
403
4.5
458
terminal
antropógen@@
Que@@
LO@@
sufici@@
farm@@
ise
custodi@@
obedeci@@
Eco@@
metál@@
Rest@@
trag@@
477
Sel@@
Research
mens@@
433
LAN
Plaza
FIN@@
grati@@
CM
emoci@@
same
Pelindaba
ciudad@@
alivi@@
Sovi@@
445
It@@
501
384
429
Trop@@
estigm@@
ptima
O.
Manuel
603
407
Baj@@
Naj@@
Dim@@
Oblig@@
amp@@
L.41
aug@@
TO@@
polit@@
oven
Int@@
enum@@
Van
congratul@@
métr@@
Tall
444
DS
Kordof@@
mia
post
Net@@
aj
But@@
conceptu@@
32,@@
sc
ovic
fres@@
áfic@@
aw
Jersey
átri@@
William
DF
anfitri@@
insepar@@
rella
ADI
MISIÓN
anogr@@
det@@
lesias
cit
388
1353
424
Nobel
5.4
chec@@
ARTIC@@
faci@@
tern@@
Kou@@
emerg@@
urgo
KH@@
und
Bukavu
encamin@@
L.44
ITU@@
hepatitis
ap
Eurostat
Kum@@
Audit@@
Journal
Correc@@
1820
allo
climá@@
Jac@@
Recomend@@
consen@@
Altern@@
perin@@
Econom@@
446
Vir@@
fat@@
reduc@@
monopoli@@
arti@@
Dubl@@
Suc@@
vic
L.45
afortun@@
MT
ps
.htm
FOR
won
Mom@@
492
Persist@@
mentar
silenci@@
COR@@
dispusi@@
Tbilisi
dó@@
ENCI@@
Visi@@
8.1
419
andi
oni
ecimiento
mundi@@
COMIT@@
L.49
431
incipi@@
recolec@@
660
454
Moder@@
alde@@
513
sensi@@
Gom@@
Maputo
Van@@
EUR@@
L.48
Jef@@
Silva
Parti@@
483
Vigil@@
SN@@
438
486
sang@@
Sing@@
regulari@@
yi
óxido
Health
748
enciar
Nelson
lip@@
repu@@
437
1521
mezc@@
Bin
esca@@
393
posteri@@
3.5
485
especializ@@
tap@@
modi@@
VIII.@@
Bash@@
EF@@
valu@@
burg
pet@@
visa
manu@@
acum@@
Mod@@
Congol@@
lamentos
Sharm
dricos
pol
Rep@@
TEC
estre
défici@@
Saf@@
ker@@
POS@@
ell
Beng@@
concre@@
fer
ria
DIS
NI@@
pali@@
453
L.46
506
Emple@@
endu@@
bá@@
Tas@@
ams
CONF.157
Fir@@
net
Fol@@
448
CES@@
cop@@
Aristide
Aseg@@
reactor
Bunia
Vladi@@
dias
idi
evan
pers@@
Prev@@
Ltd
Cre@@
ür@@
Interregional
IS3.@@
Nasi@@
Gubern@@
negr@@
familiari@@
quetado
MAR
calibr@@
442
443
vide@@
fol@@
index@@
kin
dev@@
Pos@@
encab@@
467
concern@@
wit@@
alcoho@@
Hern@@
1.6
Cli@@
34,@@
maras
Brazzaville
Ok@@
My@@
1559
ude
omi@@
.asp
extin@@
sima
BES
m3
SUB@@
vest@@
Quito
acade@@
Astron@@
Islamabad
PNTL
devalu@@
Australi@@
genoci@@
concomit@@
comuni@@
508
cep@@
web@@
amorro
emor@@
Oceanogr@@
1929
shi@@
Nar@@
iss@@
ederá
olo
Mi
dus
facti@@
Nk@@
agiliz@@
diagnó@@
dean
instig@@
Hun@@
Nuev@@
multicultur@@
39,@@
Rah@@
471
HS
640
reb@@
ág@@
Khal@@
Shan@@
UNSCOM
Comb@@
erup@@
605
IR
VAL@@
éricas
testi@@
2019
Hari@@
Ly@@
hali
raí@@
arena
inviol@@
481
525
ey@@
476
Ngu@@
L.50
396
recen
staf@@
relev@@
455
7.3
himi
umbres
prote@@
mur@@
Canada
Kuala
ris
gados
arquía
elector@@
sm@@
Lumpur
Bio@@
Superi@@
exto
abes
Bun@@
864
Jab@@
557
Gil@@
469
ecos@@
720
Phnom
Sor@@
rou@@
Gendarm@@
BLE
459
MONUA
cialidad
ocar@@
Avi@@
Gab@@
suficiencia
ement
redon@@
pp@@
sey
ité
Shab@@
427
JS2
relat@@
Islands
cartogr@@
intran@@
auti@@
Lit@@
tum@@
491
erte
XXII
ele
VIOL@@
L.53
Tun@@
depur@@
practi@@
451
zon@@
ingredi@@
tori@@
op.
Subregional
Territorial
compon@@
Hamb@@
arest
JU@@
cher@@
log@@
committee
ursos
Met@@
Ga@@
L.47
servi@@
cens@@
prev@@
Mach@@
albe@@
pabell@@
accidental
Aer@@
LTTE
intan@@
Concep@@
Kol@@
BD
fes
98.@@
invent@@
º@@
Amen@@
466
ínim@@
exacer@@
provo@@
ted@@
FOR@@
Business
test@@
484
462
W.@@
MINURCA
Penh
fratern@@
KU@@
Jes@@
enko
Luka
Rafah
Chri@@
DCP
399
ean
recin@@
Mai
Zenica
sias
Jorge
733
ais
agon@@
Robinson
once
ony
ann@@
EE
GI@@
ili@@
197@@
gios
463
505
dices
Amor
Vé@@
TAR
uctu@@
479
hegem@@
Banja
hur@@
F.@@
Ped@@
ond@@
Arbitr@@
474
.int
493
prox@@
Consult@@
Mich@@
Europe@@
cerci@@
sson
clari@@
ois
434
animal
Nd@@
discer@@
ata@@
vand@@
deri@@
Brun@@
Procur@@
PERSON@@
Sex@@
HF
inio
Encu@@
46,@@
Add.10
African
Mary
Mex@@
Environment
Libre@@
464
ick@@
LT@@
bola
estral
ampu@@
452
Cambi@@
Ara@@
Alas@@
Nombr@@
NG
multimedia
uri
Kurdist@@
PF@@
498
ínico
artí@@
INCL@@
Act
iri
damente
Bay@@
514
Haj@@
Jam@@
Fasher
Semipalatinsk
Gran@@
mine
rique
Nah@@
Órgan@@
yar@@
Zanz@@
RO
cart@@
Ric@@
amba
ROD@@
UNMIN
Crit@@
Eti@@
PH@@
Baranja
ICC
uli
dise@@
rigi@@
565
ime
aud
Meh@@
jina
accionar
remedi@@
pusi@@
AZ@@
bien@@
FICSA
Restric@@
CN.10
537
Pop@@
447
estra
Sect
482
JI@@
Rw@@
intru@@
CCD
SAR@@
532
sociocultural
1953
acred@@
Franci@@
99.@@
otte
contrati@@
TRI@@
celes
beres
tonel@@
Imp@@
TRAC
rey
Daw
hin@@
ug
presi@@
abiliz@@
coster@@
CN.5
cir@@
Alberta
Prefer@@
468
SEN@@
val
●
502
nouvelles
natur@@
MENT@@
Mill@@
King@@
shan@@
sine
sibi@@
írv@@
511
6B
Hay@@
Jord@@
MAT@@
oti@@
Lord
panel
ADOP@@
glos@@
Eide
Georgi@@
LAR
Mart@@
yar
Lin@@
Obama
CRPD
Interven@@
RO@@
abi
515
·
Island
Franç@@
ígen@@
Add.9
Palermo
imprescindi@@
Og@@
muestren
Azerbaiy@@
defend@@
absten@@
jasia
625
alia
accid@@
mentación
Noti@@
Sus@@
Superint@@
GEO
Nigel
tro
House
DH@@
545
combat@@
Puer@@
HU@@
OzL.Pro@@
Tele@@
cle@@
Grand
comis@@
Chiapas
Mayi
Lí@@
sou@@
seman@@
OD
Katanga
multil@@
ille
excep@@
issé
circun@@
icales
imana
empos
desg@@
44,@@
INF.@@
Sosteni@@
43,@@
MN@@
subtotal
ampl@@
449
WFP
kov@@
Khan@@
Wind@@
áneamente
Rou@@
5.5
Uti@@
Yokohama
piece
Alep@@
Say@@
494
MP@@
ítima
adverti@@
fri@@
#
dal
Festiv@@
489
absteng@@
Justice
Democraci@@
Rum@@
519
CN.@@
Hor@@
IT
aç@@
casi@@
ld@@
MP
SIS@@
REN@@
éri@@
Elabor@@
Tuz@@
dedere
Mani@@
Isra@@
ë
CNDP
Ke@@
list@@
pdf
Sent@@
UNIPSIL
ff@@
postal
SEG@@
pondr@@
Maria
Bre@@
premis@@
441
sar@@
octa@@
frecu@@
Franc@@
bulo
Virg@@
labor@@
íco@@
IPTF
Explo@@
partid@@
arreg@@
College
6.4
Alliance
complete
ons
blind@@
8.2
ation@@
Bay
defec@@
wich
cancías
Adici@@
Child
Reserv@@
enza
manifi@@
Shar@@
Aum@@
contin@@
onel
Aid
espaci@@
tár@@
Py@@
Amar@@
Organ@@
Concer@@
lamento
acon@@
State
Prim@@
canc@@
Ref@@
Periodi@@
GRA@@
aband@@
CMW
bid@@
Polisario
ocer
nel
South
monio
Cou@@
trav@@
ity
East
MIL@@
óx@@
mel@@
uega
FL@@
LD@@
ns
inund@@
Presid@@
urge
cum@@
oridad
6.5
asis
Amer@@
Regi@@
adres
ambigu@@
2.7
ip@@
audita
dedu@@
Eur@@
inter
Naz@@
inevit@@
Miner@@
unic@@
EU@@
60,@@
MIC@@
voy
apén@@
Obje@@
Sah@@
Wor@@
Inc
Education
IPEC
Comp@@
9.1
LD
ose
Crimin@@
injur@@
Air@@
Bish@@
extremi@@
proscri@@
ili
Tre@@
Rakh@@
Vit@@
Quím@@
justici@@
jero
colum@@
war
sico@@
planti@@
vaquia
obstétr@@
ardi@@
NTB
obste@@
eniendo
Labor
clan
roles
Vivi@@
INST@@
úl@@
EF
bus
odifusión
Envi@@
alk@@
nias
MS@@
ciosas
Land
mue@@
Rus@@
Ph@@
Kin@@
org@@
Bang@@
hostig@@
Investment
primer@@
Aw@@
SEC@@
DP@@
cable
Iv@@
infringe
Fla@@
Ze@@
ush
aven@@
FO@@
dh@@
Gre@@
gen
Pacific
tropical
encioso
DM
Martí@@
aris
pic@@
amación
achem@@
Mob@@
Vicepresid@@
patrul@@
estratég@@
andos
embre
ACP
ury
bay@@
Char@@
Enmi@@
bas
Monit@@
wan@@
agricul@@
Reports
quet@@
rami@@
Park
CB@@
PaperSmart
tion
olec@@
OEWG
ISAR
Jun@@
ouvelles
oms
PK@@
OE@@
electri@@
Bene@@
sificación
Christ@@
dón
eler@@
manif@@
Ira@@
zco
gam@@
claus@@
arqu@@
Fund
HRW
sy@@
fam@@
promis@@
ames
na@@
anish
Hou@@
LE
ys
asequi@@
Tay@@
DG@@
empoder@@
4.6
Tome
certid@@
Statistics
SB
nóm@@
visu@@
MSP
SES@@
Agríco@@
Eg@@
U.S.
est
óptim@@
eset@@
Dise@@
Aboli@@
Defens@@
plemente
ik
aeron@@
aridades
ome
Metro@@
DR
OSS
hier@@
piez@@
stri@@
econ@@
Gin@@
mos@@
antisem@@
ings
hang
Press
licen
Lan@@
tamiento
presti@@
Sta@@
Inspec@@
Union
Jar@@
antec@@
Policy
ajeros
cano
amil
misos
enj@@
7.4
íci@@
investi@@
desfavoreci@@
bitra@@
FN@@
oul
rid@@
ally
reactiv@@
Sou@@
Ad
BT
encare@@
instruc@@
reflec@@
ded@@
desmoviliz@@
aver@@
intro@@
Consum@@
veci@@
Toler@@
pror@@
ensur@@
ficial
dental
ÑO
School
desencad@@
Dam@@
Fe@@
Service
segun@@
tribal
fav@@
Natur@@
Serge@@
pande@@
Dal@@
tod@@
patro@@
remoto
añád@@
ass
refr@@
ayos
aper@@
antil
َ@@
Revit@@
ministr@@
oros
Loc@@
demogr@@
City
SPLM
Fri@@
misibles
Esp@@
osis
ñez
angu@@
Ang@@
add@@
recipi@@
metal@@
tici@@
bes
MINUS@@
Pel@@
5.6
exp@@
fabeti@@
dre@@
Kaz@@
Conven@@
Abog@@
Limited
Luc@@
G.@@
indemn@@
repres@@
8.3
yes
CRP@@
tural
GAN@@
carri@@
eria
Conflic@@
venida
respec@@
journ@@
horri@@
Prohibi@@
pregn@@
ling
bera
Ins@@
obten@@
ako
inal
ancos
trasl@@
deplorable
suiz@@
complej@@
aña
chipriota
litem
kil@@
FM
extraordin@@
inmin@@
extrapresupuest@@
Tox@@
Om@@
éx@@
MF
atah
desembol@@
Consid@@
ARC
tak@@
Neg@@
pou@@
Lum@@
usual
SPT
lie
AMIS
WP
Cumpli@@
Bek@@
win
kra@@
destro@@
Air
ashi@@
núcle@@
ral
ums
Multil@@
rown
Tamil
lay
epígraf@@
Population
Jap@@
Les@@
3.6
Information
astos
1.7
Dev@@
tranet
alcan@@
credit@@
insur@@
apelli@@
Bag@@
SL@@
ingenier@@
observe
cou@@
MIT@@
jar@@
wh@@
urar
OPER@@
Jabal
las@@
sta@@
Merc@@
Trust
UD@@
cro@@
irregul@@
pita
incite
auspi@@
SB@@
paramilit@@
ológicamente
â@@
apun@@
inet
SD@@
Mont@@
obier@@
CCP
enajen@@
Wo@@
ís
solu@@
scen@@
facie
Invent@@
ل@@
exha@@
penitenci@@
egal@@
CPT
Mou@@
States
Moun@@
aut@@
refiri@@
CST
case
prolifer@@
Majlis
tros
insu@@
emo@@
bullah
nes@@
Juris@@
sat
PM
7.5
permí@@
univer@@
estí@@
UM
war@@
tali@@
Ib@@
Guatemal@@
dimensional
ath
than
mun@@
sustitúy@@
Cum@@
Sea
ree
incit@@
turb@@
uci@@
France
Incre@@
Vie@@
Committee
4.7
Mos@@
Cari@@
coti@@
MT@@
marital
ances
segreg@@
los@@
pertin@@
científic@@
dependi@@
s.
cialmente
azerbai@@
eth
vaca
let
Refu@@
Services
azgo
bús@@
New@@
dum
SIL
WA
reven@@
ous
enaje
Bom@@
ert
Co
cast
anon@@
academia
TV
kh
Leon@@
soft
eu
if
Stan@@
sober@@
Sw@@
net@@
N.@@
TP
seg@@
prision@@
verg@@
met
KP
pugn@@
INTERNAC@@
Maur@@
els
CAP
.ht@@
derech@@
OM
omis@@
hus@@
remo@@
persecu@@
perteneci@@
extraj@@
Youth
HUMAN@@
Registr@@
hot@@
Ce@@
PO
testimon@@
Survey
OF@@
Kafr
UNDA@@
9.2
dela@@
arta
eli
ky
́
SOM
orig@@
him@@
documents
Cuad@@
Resources
Wel@@
narco@@
espir@@
desh
comprometer@@
cantonal
agrade@@
ARTÍCU@@
ym@@
ectos
Ass@@
gendarm@@
dial
op
stone
cóm@@
Interpre@@
contraí@@
TL
homosexu@@
compati@@
ensu@@
Organization
ff
lech@@
ef
н@@
Carri@@
2.8
tería
tine
xemb@@
Gon@@
Provinci@@
Ow@@
fuerz@@
MSIL
urb@@
sile@@
focal
untos
tia
gues
carb@@
AU
inhibi@@
Ordin@@
Str@@
alem@@
1000
Review
ations
delin@@
ern@@
pus
teci@@
respond@@
anfet@@
stan
Christian
ahari@@
tima
Examin@@
sof@@
9.3
Ö@@
Sign@@
Kit@@
People
consensual
oh@@
templ@@
ECON@@
Negoci@@
sanci@@
resp@@
Fortal@@
ts@@
Sup@@
mitig@@
SERV@@
SON
subsi@@
Program@@
USA
Kur@@
IMO
H.@@
GH@@
Zel@@
espon@@
exac@@
Sant@@
Management
lon@@
atori@@
rumb@@
inferi@@
star
Kiv@@
ouf
escl@@
tsun@@
Terr@@
bre@@
VEN@@
ington
dual
carec@@
M.@@
lus
matern@@
plaguici@@
JA@@
insatis@@
Gol@@
ast
candi@@
IG
Emi@@
scar@@
hesión
Yearbook
aludismo
Willi@@
mus@@
férica
Profes@@
Experi@@
TER
FS
First
with
param@@
MENTA@@
َ
Ade@@
fraud@@
ECA
Khmer
ropo@@
Thom@@
Prin@@
nú@@
Abu@@
Bet@@
Proc@@
sug@@
quetes
extingu@@
AF
ilu@@
hog@@
Public
bal
European
wil@@
thal
lege
my
pic
achi@@
cidentales
quete
Family
Gene@@
vibr@@
érdi@@
stein
kiló@@
British
mut@@
tum
Sami
habeas
pill@@
onto
TIN@@
jam@@
Cy@@
gust@@
organ
Hosp@@
expi@@
deren
visas
SIÓN
Cer@@
−
CMP
multicul@@
uld
ités
dinam@@
IL
Green@@
pension@@
COM
ange
DC@@
ACT
clo@@
iti
iliz@@
anti
Arab
ácticas
him
ira@@
ith
Regul@@
edy
acti@@
peligr@@
amid
oble
she@@
terap@@
tines
erro@@
ë@@
advi@@
utr@@
ther@@
fel@@
subven@@
GN@@
pleg@@
1.8
Europe
air
Tari@@
fes@@
quebr@@
the@@
rador
casu@@
bah
bilater@@
Bar
insol@@
3.7
oport@@
map@@
ish
Colon@@
CF
peti@@
Environmental
contex@@
Tai@@
converg@@
desequi@@
ores@@
vicultura
ITS
nal
AV@@
ári@@
esor
osex@@
Habit@@
Phi@@
Contral@@
Flo@@
stitu@@
lian
Hai@@
Ž@@
ptimo
hero@@
oj@@
instrumental
rah
biot@@
}
Gaz@@
Sp@@
torial
ê@@
West
right
doctor
Gul@@
avier
tray@@
wood
ágil
tl@@
cán@@
civi@@
antece@@
atería
tions
Vill@@
FF
invo@@
ML@@
ope
Euro
fos@@
vec@@
Young
Guin@@
Filip@@
balances
acep@@
comet@@
socor@@
enfr@@
AW@@
ender@@
Bai@@
ror
Privi@@
Desast@@
metálicos
extric@@
Reper@@
semej@@
4.8
tive
ires
Studies
2.9
ors
oud
Recu@@
extrem@@
wal@@
hipo@@
ative
delinqu@@
íti@@
jec@@
guil@@
ordenadas
Handbook
otr@@
venciones
cuagésimo
indeb@@
ook
evo
ward
Nat@@
Bru@@
nab@@
ORGAN@@
Edit@@
penal@@
non@@
reposi@@
Security
{
out
sidi@@
Vul@@
ciales
sten@@
OTA@@
sito
rov@@
ridad
eministr@@
Adu@@
Vin@@
seri@@
Wat@@
esclav@@
Sav@@
paras
stro@@
Tech@@
lines
ayan
inval@@
OzL.@@
River
ESCO
fom@@
hy@@
opre@@
cord
precise
ámbulo
ést@@
adém@@
CG@@
play@@
univers@@
yac@@
MER@@
ples
CH
cate
memb@@
ball@@
ODS
improvis@@
independi@@
tecn@@
Solid@@
ladi@@
stric@@
lum
conveni@@
Discipl@@
duran
à
lov@@
custo@@
deos
TION
sy
RT
OEC@@
alias
dou@@
tin
stria
apor@@
ientes
Ef@@
orama
action
azer@@
bli@@
Erradic@@
ítulos
Initiative
Guar@@
amin
Bam@@
ívoc@@
IH@@
Commission
muestre
Freedom
lob@@
ny@@
ll
iss
Rwand@@
6.6
Cap
ateral
stop@@
larg@@
yec@@
Bulletin
xen@@
exper@@
sensibi@@
innov@@
entalmente
MAN
erv@@
speci@@
PEC@@
Ecu@@
emplos
cisión
revo@@
ken
bios@@
Engineering
ins
Law@@
MD
defici@@
gres@@
pecu@@
RAC@@
nec@@
TÍ@@
ECH@@
off@@
udo
ambl@@
monopo@@
DPI
Bul@@
omen
volum@@
alli@@
gang
jun@@
Pur@@
desc@@
particul@@
Fem@@
Natural
Aline@@
impar@@
Pak@@
gui
bano
mill@@
UNMO@@
Haiti@@
Jur@@
ader
cé@@
órbit@@
Bill
Jurí@@
abs@@
diam@@
role
arid
King
dra@@
indon@@
gubern@@
sale
deca@@
argu@@
Focu@@
Legisl@@
r.
nist@@
ilit@@
ayed
conyug@@
8.4
RCD
enri@@
Capaci@@
acro@@
any
enaj@@
conserve
agendas
dicamente
insec@@
way
acter@@
LM
reper@@
3.8
Federation
Energy
ters
ínsula
impa@@
CAS
rifl@@
town
anja
Vice@@
venue
ds
volunt@@
libre@@
reinser@@
UNIS@@
Provid@@
empo
nei@@
Care
ultades
∙
gs
fruc@@
ater
steri@@
Autonom@@
utu
inspi@@
jurisprud@@
elu@@
Compens@@
cong@@
ref@@
sistencia
istán
Efec@@
Yok@@
Aliment@@
Vision
cuent@@
secund@@
IAS@@
Programme
sic
time
reembol@@
oy
aph@@
kan
alc@@
bun@@
reim@@
wom@@
LIC@@
AIDS
line
Trat@@
from
ves@@
aran@@
ITC
Consolid@@
Compar@@
status
ECONÓ@@
ACC
Pob@@
bibliot@@
Court
eñas
territori@@
ist
involu@@
Space
presidency
Č@@
Faci@@
restres
Project
ep
tion@@
UK
Coalition
mid@@
Community
huérf@@
SD
cher
international
faces
suplement@@
mandat@@
Street
leres
ódigos
Bhut@@
Ot@@
chr@@
vestres
urs@@
rich
SAS
Congres@@
nez
Radio@@
Faro@@
escla@@
trans
fil
star@@
plau@@
les@@
idable
consci@@
irrig@@
ess
ft
Austr@@
U.
Revi@@
siti@@
maron
TN@@
Vig@@
tru@@
RB@@
NG@@
SUR
Lt@@
Tempor@@
pula
old
sical
well
ants
ilización
Water
Open
yer
Peri@@
giene
Protec@@
xenóf@@
últi@@
HO
ock
rean
teri@@
coc@@
bere@@
Chil@@
acts
alp@@
7.6
induc@@
trayec@@
day
Corr@@
Chin@@
SY@@
Viceministr@@
preserve
š
vera
org
Governors
Orig@@
deline@@
No.
TF
Part@@
durable
subs@@
sul
aches
expire
ounid@@
ty@@
ary@@
precurs@@
Sha
Tit@@
visor
clar@@
heed
obstruc@@
ECO
gel
law@@
rom
8.5
atlán@@
ow
alud
Lat@@
fron@@
Paci@@
prosecu@@
6.7
č
ages
ė@@
smo@@
pla
Davi@@
álogos
rece
Cent@@
sco@@
genuin@@
amentales
arch@@
field
unilater@@
alis@@
xim@@
Sist@@
mercad@@
Technology
AO
resili@@
5.7
ENT
erti@@
anom@@
eld
mulo
aduría
curric@@
itu@@
‒
stancias
avo@@
ô@@
cindi@@
mach@@
1.9
hep@@
esel
Indemn@@
Science
obern@@
induce
Portu@@
nogr@@
ESCR
Turk@@
pile
Life
ents
lum@@
simo
prueb@@
eman
flagr@@
Corpor@@
pre
exas
anis@@
ck
ejo
IAN
America
legi@@
Inten@@
cus
sein
dul@@
doctr@@
Fom@@
empli@@
pur
ACE
9.5
DER
Thi@@
wat@@
ENCIÓN
ret
anticen
Philip@@
BWC
telecom@@
dose
Semin@@
Out@@
bis@@
Financial
Iri@@
precursor
4.9
requ@@
dialo@@
Eng@@
raci@@
Chang@@
JI
ISAF
but@@
lam
replic@@
vote
escor@@
anth@@
refuerz@@
categor@@
Oil
ison
cipe
mult@@
atir
ette
sion
aguen
ading
cinio
Ví@@
simi@@
Pes@@
cup@@
chan@@
Subsidi@@
EU
restre
Obli@@
Indigenous
ordin@@
reme@@
Tali@@
win@@
ail
Francis@@
ways
Earth
pared
narr@@
paral@@
б@@
atorial
oon
off
nór@@
estion@@
escape
fix@@
PLE@@
more
mark
elop@@
Exper@@
unto
Igu@@
oum
recono@@
SIS
Gir@@
ologi@@
intangible
6.8
ancestral
tw@@
Publi@@
Fel@@
ining
HIV
ech
suje@@
Tog@@
Requi@@
lact@@
ingl@@
nam@@
ğ@@
Implement@@
5.9
TC@@
estión
rul@@
porte@@
was
Ful@@
Hoc
terior
aconteci@@
ket
micro
Wh@@
ativ@@
ş@@
Recom@@
ambleas
Centr@@
Advoc@@
files
officio
Post@@
Shel@@
conde@@
peace
deud@@
dedor
Gender
umer@@
hosti@@
Salvad@@
IPO
she
Cali@@
vencion@@
UNF@@
misti@@
convend@@
Brig@@
sum
Peoples
Resi@@
UNS@@
iremos
reli@@
atern@@
Ibra@@
ester
obst@@
udit@@
rest
éu@@
All
dulo
librios
Convenci@@
GS
atis
fabri@@
substan@@
Sudan
Progress
ā@@
Wit@@
thy
independ@@
cata@@
referendum
own
Moham@@
sotros
ory
North
entra@@
NAT@@
edentes
wai@@
Premi@@
Mem@@
adie
sing
ensor
antrop@@
Haz@@
aida
ANCI@@
Libert@@
Camp
deli@@
Polici@@
Esco@@
ímetros
UNTA@@
Office
abilidades
7.7
invern@@
abell@@
journal
don
die
desemb@@
ics
aker
MINU@@
development
Compu@@
ders
tención
lez
Age
Aug@@
itec@@
Justi@@
roqu@@
maximi@@
lor
UNR@@
embol@@
Future
estadís@@
ertura
eline
Canadian
Liter@@
align@@
CCA
rich@@
ows
rat
Hammar@@
ratio
bag@@
desaf@@
ls
Lis@@
Stu@@
accede
Notes
ć@@
Domin@@
nor
Anex@@
decen@@
steni@@
Pow@@
GUA
3.9
Eslo@@
lle
anivers@@
Proy@@
Scot@@
Mix@@
togr@@
Up@@
OG
contracep@@
comparec@@
5.8
ery
Taliban
Barb@@
Royal
reno
triz
compromis@@
Rio
kes@@
explici@@
Santi@@
mob@@
Pequ@@
Alg@@
8.6
aily
Protection
Sustainable
ö
Saudi
legiti@@
mej@@
muchac@@
ECO@@
up
rid
ding
talla
national
orable
CIS@@
use@@
NC@@
drew
akar
Extr@@
Change
extraterritori@@
Soviet
hat@@
Building
ars
ortium
Partnership
emer@@
extra
Sahara
hand@@
Kim@@
IPC
Indian
OL
hech@@
dar@@
rang@@
noinfantil
ş
Rap@@
gur@@
aul@@
Green
IDER
locu@@
ove@@
modal
suy@@
Comple@@
AND
deres
Conduc@@
ets
wo@@
suscepti@@
coloni@@
Point
cel
loy@@
Pit@@
Clu@@
Distr@@
ning
Cass@@
Sey@@
Tob@@
Bot@@
ecia
Ç@@
Coleg@@
imen
Nicar@@
misi@@
ń@@
ocol@@
opini@@
Abdu@@
Bei@@
ICT@@
ovina
Argen@@
leo
adre
austr@@
mí@@
plit
Asian
substitu@@
Fis@@
port
μ@@
reat@@
RIO
m.
limp@@
semin@@
Resource
idez
ķ@@
atu
arter
homosex@@
victimi@@
acy
eland
Cred@@
bad@@
ating
Cot@@
circunst@@
trafic@@
encad@@
severe
cuer@@
versas
comput@@
suped@@
presun@@
finan@@
6.9
fra@@
Systems
coyun@@
Agency
fabetismo
mósfera
erráneo
CCF
Tha@@
TERR@@
vis
atl@@
stor@@
Main@@
System
In
One
htt@@
umen
Exc@@
trust
ond
aret@@
supl@@
Climate
Road
UM@@
arm
hacin@@
Presu@@
MF@@
profun@@
Georg@@
entamientos
amia
FNU@@
rights
bern@@
Peru@@
Ris@@
bromuro
aflu@@
Johan@@
Panel
ECE
requir@@
comand@@
aly@@
Finn@@
estab@@
against
press
PRESENTA@@
Violence
Tú@@
hect@@
ping
lik@@
Angol@@
Tran@@
farmac@@
Cambo@@
Spe@@
prohi@@
bliot@@
resolu@@
ل
UNIDO
depl@@
file
mú@@
Day@@
tis@@
maquin@@
ermo
ICT
bliogr@@
beg@@
Guide
carbur@@
CTC
Pent@@
Pers@@
Excelent@@
Tru@@
ture
ana@@
urs
veje@@
Koso@@
dy@@
íntegr@@
maj@@
tul@@
salam
repe@@
log
AWG
Convention
ality
Bog@@
Transi@@
amorti@@
tob@@
ake
Territori@@
Pau@@
demarc@@
Town
Cru@@
video
entamiento
tory
Promo@@
Vu@@
cerc@@
Disability
anzar
Cuer@@
Tanzania
Kaf@@
king
Basi@@
Finance
PAD
pes
Respon@@
encialmente
TAD
garanti@@
Index
teriores
Challeng@@
Support
Agre@@
enrol@@
ray
fá@@
derive
sub
ext
than@@
PROB@@
sho@@
ies
Pay@@
trab@@
antigu@@
Associ@@
abuse
undi
Tecn@@
compendi@@
IFA@@
anni@@
óf@@
Long
ment
thers
mavera
curri@@
g.
Government
col
Bed@@
Nai@@
edonia
ments
cuentenario
SPEC@@
bab@@
Ocean
Esti@@
Lead@@
puest@@
inaug@@
Front
Work
paí@@
Treaties
Indivi@@
Sín@@
Hall
zones
sustan@@
haz
Inter
KO
Cooperation
É
clav@@
MIC
ésimo
icio
Atl@@
Reglament@@
LCA
Balk@@
7.8
Yugosla@@
Nob@@
WG
ther
Indu@@
Wed@@
Broadcasting
ágiles
Ü@@
inso@@
Tok@@
hara
eas
IU@@
Ní@@
agen
Statistical
empo@@
combine
Monte@@
inher@@
estereoti@@
guez
yug@@
vision
NAM
quiz@@
rigor@@
Ş@@
aim
SECRETA@@
cic@@
än@@
adj@@
ion
bs
PREDE@@
andia
eramente
Poverty
maternal
resul@@
letter
Cape
estere@@
dom
ket@@
Countries
Libr@@
denes
STA
endeud@@
tonom@@
Recovery
Gonz@@
Conference
one@@
uridad
Oz@@
ering
Ór@@
CHA
search
practicable
Campa@@
ming
Zim@@
Cay@@
MEE@@
ï
PACE
Power
SCO
Irlan@@
Assessment
Lom@@
Dist@@
WC
Fiscal@@
ENTA
zer@@
SAR
cuales@@
trade
oris@@
apon@@
asse
solem@@
árqu@@
stock
Energ@@
disco@@
Paul@@
Sá@@
bail
espar@@
adic
Tow@@
extradi@@
juven@@
Sic@@
lic
lands
ING
Zealand
Fur@@
set
Viet@@
ink
uelan
bul
bric@@
Caribbean
titu@@
Conserv@@
acqu@@
ratos
FID
Tour@@
aine
pestici@@
ITOR@@
categ@@
LDC
cav@@
attle
Enfo@@
Cour@@
deteri@@
GM
áne@@
ECOSOC
Eastern
autonom@@
Í
Memor@@
Propi@@
mili@@
noc@@
dis
Lati@@
cy
ault
hib@@
human
ners
enh@@
‛
Agricul@@
uden
VIC
Crime
gg@@
oph@@
ofre@@
Ibid
recifes
ancy
metro@@
Projects
apas
London
SION
demo@@
patern@@
congol@@
supervivi@@
Unity
Amend@@
Proce@@
tem
akia
eum
mad
crit@@
7.9
å@@
kara
Ucr@@
comple@@
div@@
ADES
anteri@@
arten
ján
hard
reconven@@
Relief
Working
sci@@
ared
túy@@
lives
ínicas
encion@@
tremend@@
yun@@
MES
Issues
ldwide
Disarmament
date
Church
sed
Ár@@
acer
PLEMENTA@@
WH@@
selas
ware
Third
look
active
kav@@
Lib@@
versidad
RY
ound@@
jardin@@
wor@@
estig@@
Movement
siv@@
Egip@@
ans@@
imal
tien@@
atem@@
Prevention
my@@
faith
ä
Nico@@
ends
Manu@@
policy
row@@
aires
Ministr@@
Mode@@
Study
,@@
opsis
oxi@@
luc@@
report
ties
Prince
nation@@
Enterprise
ió
akh
ateg@@
compe@@
virti@@
Nation@@
erlandesas
Foreign
wed@@
Black
éctr@@
row
Small
bombar@@
Achi@@
aise
consumid@@
Pan
Guidelines
с@@
trices
è
public
ratios
water@@
Meto@@
adel@@
i.@@
Pacífic@@
érf@@
tical
ouse
publ@@
IOC
amarca
ingen@@
efec@@
pris@@
Monitoring
avía
gola
Montre@@
Dub@@
asp
HABITA@@
Ces@@
bid
Data
Lake
Flem@@
Humanitarian
Migration
Fiduci@@
call@@
toral
pend@@
Refugee
frica
Fuer@@
ator
pping
Mine
SNA
luor@@
Western
Enseñ@@
embaraz@@
LEG
bank
osofía
intra
tain@@
Delin@@
War
end
view
Let@@
Commercial
Campaign
inva@@
libert@@
Democracy
Segu@@
ánim@@
Training
terdam
eye
util@@
Ini@@
fid@@
yl@@
bai@@
CTBT
simil@@
ٌ@@
ership
alú@@
Housing
levi@@
USD
ploma
fai@@
forest@@
edo
RECOMEND@@
low
Tribun@@
Hot@@
IES
Buj@@
Ä@@
yl
Degrad@@
sex
lea
tives
fundamente
duci@@
mañ@@
Overseas
Standard
Beth@@
fast
Blue
Economics
internation@@
FIR
Food
NT@@
lish
1.15
estruc@@
Docu@@
trá@@
sell
ated
atom@@
▪
MINIS@@
pers
med
inhabit@@
ging
Sund@@
rus
UNAMI@@
Boli@@
Board
digni@@
pupi@@
princip@@
Affairs
enables
erie
structural
bercul@@
world
Muham@@
quid@@
Special
ability
quic@@
Free
estabi@@
urin@@
exhib@@
Country
MINISTR@@
exist@@
inequ@@
cans@@
wards
arian
exión
alls
ises
stries
Medical
Sao
ígraf@@
CW
Colum@@
Article
◦
fro@@
Voc@@
Hav@@
Bureau
cot@@
docu@@
privileg@@
Japan
extrad@@
Transport
sfera
by@@
eves
Joh@@
Indone@@
aldad
Peo@@
Home
disposi@@
²
Arms
concrete
watch
vement
cál@@
atic@@
buf@@
Pier@@
evol@@
GAT@@
each
Å@@
Line
restruc@@
aé@@
kits
thing
lamación
Gs
etu@@
women
crític@@
Atlán@@
vé@@
perpe@@
Southern
outh
Dat@@
mate
convin@@
kes
Marra@@
ácter
Ø@@
pala
but
Anu@@
orgi@@
incremental
Valley
confidenci@@
éfon@@
vers
Polic@@
tou@@
elaciones
inqui@@
cuentes
ligr@@
endos@@
LB
plom@@
aking
thly
guer@@
Kuwa@@
Add@@
High
públ@@
jor@@
óviles
OF
conson@@
dulos
Industry
White
asb@@
Drug
boy
them
arer
ench
ws
seve@@
key
Shari@@
Nep@@
pobre@@
curriculum
Millennium
Paris
Riy@@
у
alian
profe@@
Right
miner@@
eing
other
Cle@@
optim@@
swana
tens
allow
Advisory
stable
ológ@@
OLU@@
Gé@@
Program
Middle
jer
ANT
gou
Developing
Reform
condol@@
Institution
sigu@@
entation
hard@@
Litu@@
maxim@@
Anti
breci@@
preambular
ning@@
aphic
Against
SIDS
idd@@
demon@@
Abe@@
Nig@@
Bud@@
Minister@@
tain
over@@
Transparency
harm@@
marg@@
gratis
Mali
ful@@
boli@@
kilom@@
otogr@@
peque@@
ball
atives
ots
Renew@@
ESC@@
ted
schedul@@
Chemical
Intelligence
ERP
Equality
feed
ills
matri@@
say
estad
HK@@
NH@@
Towards
assan
MY@@
Conflict
Learning
TCDC
Aru@@
May
đ@@
Infra@@
acre@@
fur
wel@@
dit
Non
banc@@
Kimber@@
mínim@@
ards
Scho@@
ains
ْ@@
eth@@
second
Practice
ă@@
ogi@@
Lawyers
pra@@
hs
pau@@
top
justice
Assistance
ges
Democratic
Inali@@
Forest
Mog@@
dic
Korea
Adap@@
Kig@@
Confer@@
CIS
Mini@@
Secretary
oles@@
fif@@
irs
area
yet
Economy
office
Situation
zonales
tle
altitudes
Serv@@
─
stre@@
manteng@@
Aboriginal
cuencia
ECHA
Associated
artill@@
Cross
Television
osof@@
Exchange
Norwegian
bon
Prof@@
Two
provin@@
ł@@
countries
Unit
propri@@
ashed
hist@@
Mission
IOM
EEC
actors
Australian
ology
irre@@
Publ@@
ė
arto
humanit@@
langu@@
rit
hipó@@
géner@@
Tw@@
ención
mitte@@
acteri@@
Yor@@
ough
person
Oportun@@
Ingl@@
Administration
redi@@
superá@@
assem@@
diab@@
liqui@@
dru@@
Venez@@
¹
fine
Policies
Mr@@
yed
tribun@@
UNAIDS
eshi@@
Elev@@
Paragu@@
Nation
list
ъ@@
aries
Republic
disponi@@
agg@@
Force
kit
land@@
nun@@
Assembly
home
Abid@@
over
anian
Stre@@
undidad
Annual
ARD
Compet@@
lluvi@@
training
admi@@
Good
Vice
egal
IPF
awai@@
oth
lock
meetings
Trafficking
Impact
Planning
pefaci@@
cumpl@@
Medit@@
Á
Persons
Invest@@
pay@@
wish
sionario
Reli@@
under
vian
Erit@@
very
Helena
Documents
servici@@
Sour@@
Common
ovisuales
Child@@
Tot@@
obia
2n@@
stu@@
etudin@@
Vincent
Stra@@
just
house@@
ord
Over@@
depri@@
sian
й@@
tier
ád@@
Indicators
tics
Nami@@
forc@@
spo@@
enton@@
jing
Corps
Access
Chem@@
quím@@
HAB@@
about
Coun@@
Sev@@
Be
OIC
first
entras
prorr@@
hand
edes
Christi@@
not
brid@@
Independent
sel
untamente
habitu@@
eget@@
Defense
ols
Pris@@
Day
Light
Use
space
act
Hait@@
gasol@@
Organizations
Organisation
new
Governance
Slo@@
through
Second
main
asy@@
Iran
Academy
low@@
rs
restim@@
water
Educational
trater@@
change
Technical
aab
wer
Relat@@
itable
pue@@
а
religi@@
este@@
Sre@@
Authority
aphy
Arts
Habitat
bec
peo@@
Atlantic
Insurance
aju@@
UNP@@
gias
ship
Supre@@
SEM@@
live
mit
oll
kind@@
Field
Estu@@
ś@@
eme
Employment
requisi@@
1,0@@
Code
app@@
alization
dish
azmente
ether
teb@@
economic
trigé@@
Framework
ness
Sustain@@
index
PERÍOD@@
gers
Civi@@
Uru@@
Mold@@
RETA@@
GIS
how
awar@@
ábit@@
sting
Bermuda
fla@@
www@@
Fas@@
Urban
cuá@@
deal
hic@@
Analysis
Alban@@
agro
gil
Acade@@
iden@@
ences
export
Telecom@@
Victims
sula
lug@@
Northern
kina
sive
istan
Welfare
etines
moment@@
Solidarity
Principles
news
bian
ü
protection
ust
Communications
2.30
Transnational
gani
tubre
Standards
írit@@
tic
clin@@
Paper
Case
Executive
aks
Risk
spokes@@
pici@@
~
contrame@@
intim@@
õ@@
Time
Arbitration
disarmament
íproc@@
ads
cut
ems
opar@@
get
Wall
how@@
bing
invaluable
High@@
repa@@
Mov@@
enorm@@
falle@@
Pé@@
ODA
Challenges
altar
empre
osla@@
sight
Competition
Marine
Haci@@
conjun@@
Status
sts
zen
tamine
conex@@
mn@@
tered
CES
outi
Strategy
devi@@
perc@@
MOP
domes@@
Taj@@
Solomon
League
explore
ids
venia
masi@@
estiv@@
enders
Bagh@@
inic
Conservation
Non@@
Recog@@
ámico
defer@@
Jos@@
reserve
aps
PNU@@
Rules
cent
ements
Gulf
Geneva
Joint
cian
zes
traf@@
Nin@@
that
t.
rean@@
oth@@
Cities
VIS@@
gy@@
attr@@
cite
carburos
lengu@@
Excel@@
oil
æ@@
remun@@
ww@@
sour@@
Vietnam@@
Mines
issues
Canc@@
ths
house
Subcom@@
asser@@
Stat@@
sted
úmenes
Satellite
Private
vil
gender
Sla@@
information
vey
phon@@
Labour
igh@@
kers
ITR@@
hear
putados
work
Espaci@@
ILO
Ireland
į@@
Bret@@
run@@
train@@
idera
ingu@@
Cair@@
Deli@@
Rs
Islamic
enl@@
jus@@
iran@@
ahar@@
Promotion
Montser@@
tern
basi@@
preco@@
orgá@@
inste@@
Torture
URAL
ē@@
tecnolog@@
nin@@
GEF
Accoun@@
Relations
osp@@
Apar@@
○
tho@@
see
refoulement
Armen@@
asset
Virgin
Response
4.30
Practices
Advancement
ries
Dialogue
Riyadh
At
impasse
austo
meno
comm@@
sav@@
security
hop@@
Bien@@
benef@@
Congress
tures
drome
explan@@
compro@@
SAL
mic
publications
oub@@
ICJ
wealth
works
rail
opti@@
ind
born
Intel@@
Technologies
YP
CEB
depar@@
U.@@
Sciences
upul@@
barr@@
dings
amili@@
íritu
sacrific@@
service
mid
fas
lass
DMI
ever
ǧ
Moz@@
LEX
cemos
saf@@
Leb@@
Defence
compile
Đ@@
eds
part
Culture
stand@@
déci@@
court
chem@@
Adelant@@
system
Irish
homici@@
económ@@
Discrimination
ataformas
insk
ological
holi@@
favor@@
Refugees
spir@@
We
amoun@@
Yemen@@
ambia
Adv@@
violence
Tail@@
Monten@@
deman@@
SON@@
ligencia
lant@@
last
depen@@
Prison
Police
Blu@@
CHIL@@
wn
tric
fit
Market
worth
Scotland
HCR
residu@@
third
Library
Proced@@
Catholic
isra@@
aged
health
Tobago
Analy@@
comes
yle
Pág@@
Dut@@
suf@@
USA@@
autónom@@
U.S.@@
Abuse
Ds
his
atory
Phy@@
June
Living
What
Contracting
dele@@
buds@@
sahar@@
ned
pupil@@
Víctim@@
mu
Prac@@
bud@@
Simposi@@
Rehabilitation
Chech@@
monitor
addi@@
ght
feedback
Sub
ocen
Communities
î@@
cton@@
owner
Declaration
anten@@
electr@@
session
guila
Construction
Best
Requ@@
prelimin@@
Weapons
Gazette
new@@
done
Chamb@@
Amman
forum
osen
Export
add
Emergency
ARR@@
Region
Knowledge
librio
mission
zeg@@
iritual
DAC
corporen
reat
acl@@
Maritime
ld
lion
tulos
Master
pop@@
entífic@@
Netherlands
Safety
gov@@
ESCAP
host
Enter@@
orro
Agriculture
Belar@@
b.
banes
sions
Laws
tings
entrevi@@
genit@@
correspond@@
Kash@@
Expan@@
OECD
Septent@@
atic
ghai
band
tation
Workers
Collec@@
aster
estici@@
vehic@@
extradite
developing
Naqurah
PRESID@@
Main
cumul@@
adeci@@
ody
hael
down
education
Opportunities
tercer@@
ódico
On
ejempl@@
disrup@@
Nel@@
test
may
Note
fór@@
side
Afro
Travel
cleares
Islan@@
álo@@
Monter@@
Implementation
Proto@@
Debt
prin@@
future
Democ@@
BH
Poor
Ombuds@@
rostr@@
ils
Works
Psych@@
CHA@@
Paper@@
Citizens
yers
Herzeg@@
□
plat@@
curricula
site
Establishment
face
asing
Strategic
Friends
Agricultural
Deport@@
key@@
child
feb@@
CEDE@@
pd@@
committees
sm
ely
MDG
thor@@
torture
Wales
Political
ials
ICM
Team
reless
business
president
church
services
Fair
dens
PRK
poverty
TH
intelec@@
ving
empir@@
Year@@
gram
Sport
Free@@
hase
CPR
cannab@@
Introduction
jö@@
Pakist@@
management
ópicas
their
exiones
21st
transpar@@
aching
inmediat@@
initi@@
Lus@@
Income
ours
know
Aviation
verb@@
Perman@@
henes
dow@@
round
Feb@@
avy
ougou
Order
enon
Goals
Inde@@
Amnesty
hibi@@
stron@@
Berm@@
prom@@
UNIFIL
fortun@@
endor@@
sectori@@
halt
atus
Great
Military
now
Minority
unde@@
Equal
Heritage
Fisheries
umbura
nucl@@
а@@
ŷ
Attorney
ø
Migu@@
Islam@@
Palestinian
Girls
Jama@@
Satel@@
siner@@
aint
rent
Clo@@
están@@
Ordinance
Bél@@
Terrorism
juris@@
DEV@@
gal
lot
Luxemb@@
Initi@@
OCHA
board
try
Afghanistan
Evaluation
ASAM@@
awa@@
Sci@@
MOZ
expen@@
Urugu@@
Summary
ful
algo@@
Tokyo
Manufac@@
Party
yp@@
WHO
oning
ECHOS
uly
liability
Reproductive
craft
Basic
confid@@
children
Detall@@
Pakistan
stat
UNOCI
itismo
mission@@
Azerbaij@@
assin@@
Work@@
Migrant
fund
Area
Autó@@
turi
rás
Assi@@
alestin@@
Seabed
Canad@@
thu@@
clubs
simultane@@
Five
Activities
ARY
note
import
Eth@@
Horn
tom
ń
terroris@@
holm
who@@
polig@@
compli@@
desk
inmuno@@
UNDAF
appor@@
Provi@@
sixth
ESCWA
İ@@
Bolivari@@
some@@
Swiss
tall@@
Disabled
imag@@
tiner@@
Nature
basel@@
tit@@
inconsist@@
oportun@@
ators
Tax
Armed
gia
IOL@@
reports
activities
Reporting
Appeal
sl@@
camp@@
centen@@
itation
sionable
events
Men
о@@
Schools
chang@@
shore
Meeting
vel
Tier@@
cred@@
Smart
Develop@@
polici@@
OCA@@
well@@
NAP
sign
ourg
force
pág@@
e.
come
Cluster
Off@@
venes
Lakes
work@@
Camer@@
tors
apur
aring
Hand@@
1,5@@
Americas
fifth
Register
Production
lubric@@
palestin@@
pices
ature
otho
eness
Growth
Year
semi
implementation
Regular
clear
sustainable
bili@@
perió@@
English
quía
ikh
between
neces@@
For
seen
Jordan
hardware
Stud@@
ize
Disaster
Capacity
Thai
ily
Inqui@@
NUD
nings
Platform
Ć
protection@@
Strategies
sets
ي
Kiri@@
múlti@@
Ivo@@
SOC
Palestine
Families
yond
people
Cooperative
hran
prene@@
lights
you
sters
controversi@@
Informal
Division
yright
Role
dela
wis@@
₤
ization
Secretariat
vicul@@
Cyprus
vidence
stig@@
nets
Latin
ª@@
UNIT@@
ern
UNDP
List
inali@@
Johannesbur@@
rain
pass
Iraq@@
Tayik@@
BiH
ures
bad
Regulations
lose
Nos@@
content
ð@@
codi@@
Kingdom
arrol@@
Integrated
support
dies
group
Olym@@
care
ū@@
Israeli
Facult@@
ç
Language
Dru@@
Pru@@
Peace@@
solidar@@
January
factual
lín
ópter@@
Objec@@
.U@@
Voluntary
vable
Operation
cour@@
ACS
˚
divas
emerge
supervi@@
UNHCR
bodies
young
laws
Chief
away
ager
ocal
Us
Registrar
cooperation
worthy
Jewish
deep
omielitis
review
intel@@
uring
ástro@@
ACNU@@
Resolution
Director@@
mom@@
Guidance
Tanz@@
oca@@
cription
viles
Arab@@
shing
Scientific
Publications
Staff
ening
Environ@@
head
shar@@
less
onds
inistr@@
four
crime
light
seas
adv@@
icans
Electr@@
ands
commun@@
vinas
Reconciliation
preclu@@
ight
Wast@@
Documentation
Corrup@@
Maori
Citiz@@
Drugs
job@@
Transfer
Agreements
Page
Corruption
Self
fields
Soc@@
RECOM@@
Singapore
inas@@
invali@@
IDS
fy
Abidjan
Tourism
Rumay@@
resources
Republika
tability
kly
Religious
precip@@
programme
Responsibility
Department
formation
Prín@@
decre@@
arth
rous
invest
Malaysia
®
Turkmen@@
BY
Professional
To
tradi@@
limin@@
2nd
Empowerment
BER
Reduction
ICOM
blo
Electronic
..@@
Charter
Andor@@
tiveness
link
paper
police
pormen@@
ffee
Coordination
continú@@
pool
dich@@
ğ
aseg@@
controversial
Ó
Kazaj@@
apos@@
enica
Summit
Treatment
xes
ying
Covenant
event
й
,000
Spo@@
Domestic
extrater@@
arity
It
hund@@
ř@@
oler@@
enfo@@
Under@@
Chernob@@
sess@@
Performance
ebe
contact
Chern@@
Mutual
life@@
environment
Property
‰
building
back
Intelec@@
Legislative
Swe@@
Commerce
polític@@
rose
moun@@
dum@@
Ageing
sit
†
treaties
cians
this
ampi@@
mix@@
subscri@@
Infrastructure
Cayman
Teach@@
weg@@
Sports
did
factos
dlife
eph@@
ential
aldades
moud
some
illing
Accounting
â
Milit@@
Sixth
based
stimul@@
here
Supply
Funci@@
DIRIG@@
carre@@
discrimination
tulo
Crimes
etín
ps@@
grade
ý
ī@@
Institutions
siri@@
teriormente
Semi@@
form
edul@@
Areas
indud@@
jurí@@
truc@@
SET
won@@
elected
bridge
wei@@
Centres
mart
ority
Names
statistics
long
aper
gun
specific@@
ded
intrín@@
event@@
extranj@@
Audit
bear
book
Other
righ@@
atim
infil@@
Somali
Quality
excel@@
framework
alism
ational
ã@@
CORD
UNOSOM
coun@@
extrap@@
challenges
Roy@@
Statement
Exploration
statutes
ports
UNCITRAL
German
England
Ital@@
Multi
guide
Major
oramiento
Understanding
SED
Chemicals
kid@@
tional
ò@@
related
stance
Hague
Associations
е@@
б
ption
Territories
distur@@
city
Prostitution
instance
Integration
Vienna
éxico
hold
FEM
erras
Korean
Enforcement
pression
andante
párraf@@
vables
lers
Minorities
Army
progenit@@
Iraqi
√
District
Struc@@
Ethics
exam@@
Task
lling
Vene@@
igno@@
Egypt
serve
fication
ees
population
now@@
working
anno@@
wall
indigenous
County
alizing
tax
audi
earn
Län@@
main@@
food
Matters
abila
Communication
Libyan
Leone
promotion
aware
Operations
esting
desempe@@
oys
Egi@@
Racism
deserti@@
December
bit
efic@@
Sra@@
colom@@
impact
barre@@
lod@@
ercial
persons
MAM
ŕ@@
news@@
aling
versus
Econ@@
wee@@
plem@@
fore@@
0.7
establez@@
Psy@@
Mapu@@
ype
à@@
olution
Nutrition
efs
vit
Negoti@@
nex
ult
enna
Acts
Applications
point
Confeder@@
Model
Official
have
Liberation
Dominican
Supporting
tawa
THE
roll
phy@@
systems
multin@@
Cambodia
ulf@@
reau
concerning
Strengthening
CCA@@
Burundi@@
DESARROL@@
ods
offset
Opinion
ţ@@
Partnerships
Crown
sual
Insolvency
power
tting
Targ@@
teor@@
forest
heads
heg@@
investment
Etiop@@
Nec@@
Empoder@@
forces
ignore
you@@
self
kets
escue@@
Cameroon
Cust@@
lif@@
bly
time@@
uran@@
fic
menes
missions
ñ
energ@@
rough
Comprehensive
havi@@
uge
With@@
Janu@@
doz@@
и@@
Darus@@
mantel@@
olds
improvi@@
shed
ígenes
algun@@
Transition
ults
bilit@@
WIT@@
Comm@@
Organis@@
Journ@@
Developed
Protocol
Turks
aceta
Award
atitis
situation
‟
will
omon
Elections
Sources
elis
ues
vol
Cz@@
tile
р@@
Lucia
ándo@@
WOR@@
olly
stand
tware
tial
Legislation
Havana
estrateg@@
ops
Uzbek@@
Financing
regim@@
terms
sement
multi
asegu@@
dry
racis@@
ciud@@
Internal
asy
Francophonie
ords
mines
IMF
master
placement
deg@@
should
Commun@@
adines
under@@
green
guid@@
lead@@
analysis
ígenas
Jakarta
assistance
gover@@
See
Minister
―
Fellowship
conflict
borne
without
Dutch
ghts
Claims
resor@@
fied
energé@@
Norway
aging
ourn@@
Needs
ariat
trafamili@@
0.5
mites
orge
Karabakh
apli@@
RESUM@@
Ø
environmental
fig@@
perspective
Immigration
canti@@
Pobl@@
GSP
Ð
UNFCCC
Managing
nic
Ä
apariciones
5th
meeting
Britain
rele@@
NGOs
ause
Implementing
giados
try@@
ask
Effective
country
refle@@
Agreement
lessons
hood
Based
Migrants
Three
enable
Gren@@
strateg@@
financial
Pre
Marru@@
gens
annu@@
Đ
Regulation
Supreme
core
night
ved
Ugan@@
Open@@
aspec@@
compri@@
ward@@
market
path@@
range
Guard
lack
Mozambi@@
project
ı@@
Buil@@
stres@@
policies
interactive
anced
muni@@
enter
peoples
ě@@
Philippine
PROVIS@@
ô
earch
trafficking
ʼ
phen@@
RAW
Settlements
noven@@
tility
perío@@
implications
August
Enl@@
prác@@
mark@@
trad@@
orian
others
account
share
Muslim
Accounts
ced
Room
kind
circum@@
permítas@@
resolution
100,000
Kof@@
rement
zing
Speci@@
practices
Responsible
aceu@@
free
ship@@
ism
Braz@@
Opportunity
contro@@
competition
sers
Friend@@
diag@@
marketing
Ouagadougou
Conditions
ght@@
essel
Constitutional
ring
Effec@@
sistance
2.45
lets
ffer@@
Slavery
Copenhagen
equality
wind
life
years
Transport@@
Kirgu@@
ories
assessment
coordination
approach
amble
economy
å
then
Round
week
tivity
Rehabilit@@
Ö
Judges
Brus@@
where
vill@@
Asy@@
ODP
rais@@
α
ouvel@@
standards
ʻ@@
europe@@
abaj@@
1,8@@
ather
bomb@@
mainstreaming
expec@@
UNMEE
Taiwan
March
actions
sequ@@
turco@@
Collective
ō@@
ICTR
tish
groups
Money
revol@@
reform
establ@@
ress
IDF
Segun@@
Rule
Coali@@
poses
leges
shall
big
concerni@@
cell@@
Telecommunications
migration
employment
Missions
arms
Administrative
Workshop
techni@@
Exploitation
forests
Ð@@
makers
front
eares
Procurement
jurisdic@@
ishing
Citizenship
Discrimin@@
IAEA
istic
Interi@@
cy@@
EE.U@@
Disabilities
Transit
lows
Biodiversity
heres
Head
Mongo@@
3rd
1,9@@
along@@
ę@@
oring
Acuer@@
charter
Promoting
armar@@
■
offshore
experience
responsibility
\
special
►
superi@@
Summ@@
Issu@@
Facility
sick
progress
onic
Decade
alty
article
Projec@@
Meth@@
invalu@@
muestr@@
1,7@@
document
SEGUR@@
Process
Courts
ending
phone
finance
ą@@
French
incentive
they
wide
turing
nuev@@
Bhu@@
diagnosis
Sym@@
OAS
region
eyes
Inspection
user
acco
admisi@@
treaty
lear@@
ext@@
Bosni@@
decision
Displaced
Mexico
Broad@@
late
lenti@@
atuto
including
ň@@
س@@
Danish
trop@@
ety
Table
issance
Prisons
safe
fish@@
tares
TED
play
û@@
Societies
ked
reverse
terrorism
belong@@
response
hear@@
Diversity
Standing
eries
Stoc@@
when@@
teen
ctim@@
yacentes
after
iland
Ethnic
Literacy
Least
parlament@@
Commer@@
etí@@
logi@@
Acc@@
dialogue
ophy@@
tants
peración
strong
Neighb@@
Early
Settlement
Fourth
Recommendations
emen
wage
Approach
pued@@
cycl@@
Level
Practi@@
rote
Participation
Fish
ū
too
nología
rescu@@
boles
Oceans
Constitution
grand@@
ween
Measures
Senior
Pollu@@
Greci@@
among
Philippines
Improving
stry
PY@@
Holocaust
Azer@@
Sudá@@
Amendment
Russian
risk
calend@@
made
ǧ@@
ching
ITU
government
sport
ogia
pays
partnership
members
delit@@
Afghan
RIGH@@
beas
Cs
altec@@
group@@
which
orders
registry
cities
urban
Volunteer
Tlatelol@@
a.i.
raft
coo@@
vice
Strait
research
gent
organizations
Document
studies
illance
Punishment
rd
help
Census
Públ@@
empor@@
spr@@
Ms
cope
ence@@
trig@@
measures
udir
acking
map
Almat@@
HIPC
Liech@@
upo
climate
olen
coles
brevi@@
Indonesian
kinder@@
Proliferation
protocol
ECONO@@
estiones
È@@
Appro@@
Comision@@
sation
Sanc@@
remin@@
ligh@@
quite
forms
Σ@@
arteto
health@@
Under
Arctic
Childhood
Srp@@
Related
study
child@@
spi@@
term
stream
energy
Reconstruction
Older
ising
towards
dares
ishu
Judici@@
refl@@
Test
terns
community
anfetam@@
poor
Bahrain
ged
lingu@@
esfer@@
ancing
Surin@@
six@@
iculum
Marri@@
Decision
level
ycl@@
CHILD
Dispu@@
tiers
technology
Narcotics
ium
challenge
amend@@
Swedish
strategy
tests
Permanent
Observer
engagement
request
ration@@
Programmes
ganiz@@
Dispute
governance
hic
Reserve
commissions
Brazil
Liberian
Commodities
Maurit@@
eft
valu
Kord@@
Falk@@
ņ@@
text@@
Consultation
prevention
Application
Belize
growth
mist@@
forming
Found@@
Turkish
ISU
pollu@@
fuel
Harmon@@
partnerships
Biological
disabilities
needs
scho@@
roads
illu@@
state
Arge@@
Prime
А@@
Ł@@
Effects
Hungr@@
organis@@
unding
pillar
Spain
Basel
online
race
adorm@@
estric@@
py
Có@@
labour
Draft
1,000
environ@@
evaluation
Experts
external
Logistics
diction
alist
orny
mum
foreign
Their
Anguilla
Confederation
Zone
evidence
resource
argue
stop
Asylum
rain@@
thir@@
Forms
industry
Agencies
apping
operations
hec@@
estion
petrol
Baghdad
Organized
Occup@@
Account
take
RIG@@
Investigation
Bangk@@
aville
hit
Mediterranean
taking
juni@@
С
ă
inson
guien
mercury
Spanish
acks
hoso
goals
Aspects
west
fenó@@
year
ENCE
UNDCP
ests
ž
Intellectual
Member
Chambers
Democr@@
erly
Monro@@
ļ@@
Adaptation
busin@@
text
veli@@
addendum
society
production
read
survey
school@@
code
Verification
obligations
minorities
ITY
Parties
culture
programmes
evic@@
wing
ease
adh
×
migrant
Aper@@
reduction
staff
rein
stream@@
open@@
Haiti
nom
Iranian
Parli@@
pose
Budget
Section
Elimination
accreditation
rowing
FMCT
papers
Ethiopian
fallen
Prisoners
ility
inton
cra
family
ģ@@
madu@@
Consolidated
Ú
Six@@
cipi@@
enqui@@
Body
limited
Groups
Dang@@
2,000
urches
óvil
Authorities
olum@@
ECOWAS
TCP@@
Detention
œ@@
onian
releases
ensure
print
Germany
ù
commerce
к@@
Gonzá@@
reciproc@@
been
ß@@
Stand@@
inning
Governments
handic@@
±
humanitarian
page
month
palab@@
Russia
Ś@@
erial
transport
Aby@@
shr@@
boa
alisation
Combating
quali@@
products
septi@@
adjustment
Ć@@
waste
Compliance
Collabor@@
¨
MEE
Syrian
monitoring
CDM
β
uges
siz@@
communication
tour@@
Higher
section
rise
0,000
reland
Kashmir
Employ@@
Cypri@@
isons
auth@@
mine@@
found@@
times
phonie
orer
Governmental
credit
Institutional
pum@@
porters
oes
Measu@@
Volunte@@
tigh@@
see@@
forth
alities
capacity
ageing
road
Methods
girls
Ministry
Emirates
dox@@
❏
draft
Terroris@@
Age@@
ticl@@
lities
Japanese
older
Atomic
Niger
ê
cases
decolonization
centres
racism
sect
small
2,0@@
etal
administration
entry
Armenian
being
Juvenile
cyber@@
transition
tices
Fore@@
youth
Sweden
due
Judge
practice
titudes
Derech@@
úbl@@
party
Twenty
ethnic
sites
Operational
rice
sario
Activi@@
electron@@
books
Truth
boys
л@@
dang@@
prehen@@
plici@@
eping
science
Granad@@
futur@@
Bulg@@
guard
process
down@@
alth
bitro
ň
topics
Golan
Technological
mise
want
usal@@
participation
Thailand
conditions
ground
Î@@
tude
Transpar@@
plied
bati
matters
į
housing
led
flic@@
present
pay
union
AGENDA
Peacekeeping
Hungarian
omento
Consensus
fellowship
were
communications
Classification
ő@@
cell
wind@@
¸
Commit@@
efin@@
sable
ié
Araf@@
5,000
Annex
gation
Pelind@@
respect
Genoci@@
1990s
harmon@@
Karab@@
encum@@
Copenh@@
tioners
sibility
Vanu@@
³
Cuban
lying
Jurists
performance
comprehen@@
Trial
Poland
library
anch
ancement
areas
Treat@@
Respect
roots
decisions
book@@
your
Equipment
Statu@@
experiences
award
street
opportunities
workers
legislation
atories
ā
3,000
route
Traffic
peace@@
computer@@
trends
rex@@
Myan@@
aspects
projects
sustainability
mee@@
drug
Goods
order
during
ager@@
encies
instruments
о
urities
strial
1,6@@
projec@@
tenstein
migrants
dressing
items
Baltic
Chamber
Panam@@
］
beyond
organisations
ogical
thood
operation
aying
prise
Enhancing
Pret@@
Unions
upon
relevant
50,000
Salom@@
disaster
♦
Commissioner
mutual
І@@
ened
д@@
indicators
such
perspec@@
Forestry
statement
April
offici@@
Illicit
rule
develop@@
Xen@@
focus
Langu@@
10,000
Pact
Border
ospatial
ampión
fuels
Mult@@
Combat
Tokel@@
Saharan
Chinese
ered
Scheme
greco@@
sile
sidy
fee
universi@@
mere
GNP
tons
Branch
External
akes
fronteriz@@
agreements
Slovakia
colo
Č
Tuni@@
UNCCD
Procedures
Ê@@
elling
enhouse
Stock@@
Т@@
card
room
assu@@
Azerbaijan
ensing
Sanctions
autó@@
CONSE@@
Compact
links
record
ction
unil@@
ų
inging
Phase
Nationality
start
tow@@
órgan@@
Uzbe@@
squ@@
̂
hope
coast
changes
Guiding
capture
Ens@@
Violations
amentarians
ICSC
Monaco
ý@@
learning
consid@@
atial
turn
С@@
send
within
histor@@
udicial
vaqu@@
Medium
sources
prospects
cash
［
recovery
Desertification
acífico
Ε@@
integration
ozone
century
Belarus
Denmark
guidelines
President
echan@@
lies
víctim@@
registration
show
eneral
Antil@@
lanto
Strip
unique
alized
Kyo@@
alists
Regist@@
year@@
bold
private
reve@@
contract
provinci@@
exploitation
making
access
específic@@
institutions
Republi@@
actú@@
corruption
Ombudsperson
emigo
WTO
izing
ministeri@@
skin
principles
hiriya
phones
Mauritius
ficiency
Ps
ethics
aled
VEM
consultative
agement
Biss@@
sym@@
UNRWA
pow@@
ribu@@
alogue
workshop
crimes
significant
entity
overview
Contracts
cover
porcent@@
м@@
6,000
nerg@@
cellan@@
cili@@
quest
KOM
iding
Resolu@@
apped
Records
ledge
т@@
reporting
Tajik@@
Musli@@
led@@
Officer
Ecuad@@
kill@@
Caim@@
amed
inking
ists
9th
cuy@@
MDGs
university
blat@@
Volunteers
Excell@@
enforcement
shel@@
version
oung
scale
hire
temporary
Luxembourg
Turkey
γ
Nigerian
school
Populations
agad@@
Liaison
bean
otic
Sales
sanctions
relations
ament
tains
Knes@@
fair
box
safety
Ministries
course
arities
arding
М@@
stoc@@
enterprises
в@@
Traf@@
Micron@@
commission@@
cing
ficina
ency
vigation
Southeast
effects
ã
system@@
initiatives
shares
Letter
reach
phere
Istanbul
thus
ĝ@@
Egyptian
Nagorny
communities
Questions
parties
stic
warr@@
Seminar
better
powering
Expert
Facilitation
erve
̃
planning
Conventions
treatment
Lebanese
step
Wash@@
Finland
Primary
dres@@
Colonial
conciliation
pha@@
holding
Independence
offic@@
agriculture
stam@@
1st
stipul@@
п@@
wid@@
nur@@
déc@@
jöld
Rodrí@@
position
Genocide
Ukraine
elap@@
sole
UNDG
◆
Prosecu@@
α@@
Offences
together
Hazardous
Κ@@
what
В@@
around
govern@@
Registration
Assist@@
context
orship
dead@@
issue
strategies
prepa@@
thinking
Nordic
bands
recommendations
joint
Fight
Zimbab@@
Marriage
liger@@
program
Forests
Naqu@@
Ç
Observatory
annual
ð
ologists
structure
Limits
Accord
selling
bery
créd@@
congrat@@
knowledge
Assess@@
official
Switzerland
Question
high
Organic
council
disability
congr@@
Swit@@
Arrangements
those
ited
agency
rate
aboren
shot
eigh@@
pages
appe@@
Mexican
ódi@@
WAS
images
perspectives
most
agues
buil@@
І
courts
necesid@@
orrow
Compensation
Particul@@
FGM
Registry
Know@@
diffusion
Belgi@@
tention
achemira
many
effective
zone
agers
retanto
sand
LDCs
shop
put
│
word
4,000
necessit@@
convention
Antarctic
Parliament
orti@@
Symposium
stem@@
mentally
garant@@
suit
interest
thou@@
eable
Affec@@
surance
arly
proliferation
depart@@
issu@@
Travel@@
Ã@@
accountability
submitted
weapons
serves
infrastructure
call
Common@@
pass@@
marine
Prosecutor
questions
∑
tering
Quarte@@
brief
Anguil@@
potential
tugur@@
views
understanding
tories
termination
shad@@
sements
Counsel
Govern@@
tenant
costs
major
Х@@
atric
Holy
empowerment
gap
Hung@@
Cartag@@
possible
fall
Croatia
populations
rape
flows
erian
parame@@
ships
reign
codification
POPs
testing
closure
current
danger
tionary
plant
reservations
Ozone
Aristi@@
governmental
jour@@
scan@@
effectiveness
holder
annum
scienti@@
there
К@@
efforts
abier@@
Offici@@
using
continue
ensic
coer@@
Stockholm
ķ
compliance
Decisions
poor@@
Consultative
atroci@@
derly
Finnish
points
WIPO
rements
Ethiopia
bran@@
faires
е
network
default
military
Views
Carib@@
nance
Follow
This
technical
political
FIL
does
nature
cler@@
Safegu@@
model
hind
Berlin
Customs
gamente
Bangla@@
further
Â@@
orities
enty
film
8th
Kuwaiti
Czech
would
full
supply
language
track
arsen@@
quar@@
Commitment
application
adian
western
Bhutan
stocks
vent
markets
insurance
fore
Greek
MEs
Substances
eration
Personnel
Evidence
bility
EAN
past
Relationship
oting
reference
criter@@
Observation
who
diarr@@
qual@@
resolutions
ICPD
⋅
relating
Telecommunication
best
bureau
Peru
mean
domestic
Transitional
demographic
sustain@@
comprehensive
abling
junior
steel
Ingen@@
Bodies
Freed@@
November
iron
contribution
ettlement
fire
technologies
dendum
adyu@@
Swaziland
a.m.
With
banks
О@@
sity
ì@@
financing
discussion
Brussels
ocean
Injur@@
lands@@
Rican
developed
encing
Procedure
Outer
income
rates
Jerusal@@
elamente
Memb@@
contained
Governing
У@@
vehí@@
zation
atization
echnology
gold
oners
spar@@
fasis
scrutin@@
Malay@@
Airport
regimes
price
p.m.
Offenders
В
Belgium
ented
funds
Take
ession
property
forestry
partners
chron@@
hour
reservation
▸
effect
independent
avail@@
view@@
syn@@
ghter
whe@@
GDP
observations
usage
rers
harm
Guarante@@
Romania
ċ
lap
AGEN@@
alter
spheric
mining
conference
must
statements
statistical
exo@@
diversity
black
ʼ@@
good
½
nation
abilities
Prosecution
DAW
allow@@
abed
ź
question
UNTAC
Inquiry
agencies
spatial
illegal
mates
commission
Improvement
corporate
job
MINUR@@
damage
canadi@@
kering
Fifty
direct
need
letters
objec@@
appropriate
Powers
❑
Identification
undertaken
methods
victims
ffs
trusts
agreement
ranking
Prevent
show@@
4th
living
denied
Single
Memorandum
distri@@
astern
open
Parliamentary
mess@@
assets
corch@@
Adoption
cross
colle@@
door
Eradication
regarding
mecanis@@
assment
excuse
istics
applications
regulations
etary
available
regard
ż@@
ugg@@
Enh@@
Austrian
isure
database
quality
ambular
А
Funds
rules
Kyr@@
opposition
porting
tery
ember
schools
loss
Lebanon
orientation
enor@@
deposited
aspora
Revised
Estrateg@@
origin
profession@@
Thir@@
β@@
tourism
Coordinating
boo@@
Where
1,500
economies
Dangerous
violations
logy
religion
ongs
nations
Uzbekistan
near
mises
provisions
prostitution
Preventing
ò
emissions
SMEs
chemicals
Minimum
industries
coming
step@@
load
counter
bale
options
ffic@@
peacekeeping
therhood
chemical
ascar
nee
value
Repúbl@@
Peacebuilding
Investigations
means
eless
Conduct
surve@@
abouts
Contact
seek
certainty
guro@@
type
ICTY
secretariat
Its
documentation
freedom
allows
summit
ICYP
fying
ofluor@@
forfe@@
accessible
adors
earned
them@@
poly@@
Monetary
Counter
resour@@
tools
refugees
emerging
developments
outer
Sovie@@
ї@@
Manager
loo@@
stud@@
musulman@@
dren
opportunity
approaches
dest
folle@@
Outcome
back@@
Servici@@
provide
Ukra@@
equal
и
loads
transfer
Fif@@
class
surveillance
tool
standard
trial
flow
NATO
charg@@
nationality
versary
practical
religious
toward
Organizational
declaration
iddle
procedure
IPU
procedures
shops
make
Conferences
high@@
efficiency
publication
firms
accu@@
procurement
fact
forward
Italian
God
jurisprudence
Fisher@@
profiles
statis@@
Alfon@@
investigation
consider
№
causes
liaison
Hammarsk@@
ı
Os
least
ICRC
Governor
ication
globalization
Election
Lithuania
Sudanese
elect
Chairman
Brazilian
stag@@
equity
indispens@@
íd
UPR
October
bound@@
Intoler@@
pendix
link@@
owners
remn@@
Gibr@@
officials
combat
prison@@
opinion
prices
Treasury
parli@@
aleza
conclusion
fers
Suppression
Secondary
medium
permanent
extrapresu@@
woun@@
ércoles
Hungary
scope
interim
told
initiative
problem
experi@@
н
Tribunals
concept
hoods
basic
ŏ@@
Geographical
opt
purpose
arrangements
Socialist
sharing
fail@@
sibilities
Supplement
ﬁ@@
appeal
foreign@@
assist@@
July
update
manner
lower
basis
spre@@
Delivering
concerns
dón@@
commodities
facts
nergies
laun@@
Near
Apri@@
^
design
epers
magistrate
Instrument
Officers
elessness
period
Tashk@@
address
observation
impacts
fare
quad@@
roup
guatem@@
swi@@
Smuggling
ráp@@
Advice
shocks
Command
like
distribution
before
dras@@
executing
Meetings
fications
critical
soon
agricultural
Ukrainian
studi@@
alling
census
ź@@
stake
money
Officials
detention
PROGRA@@
eding
several
Immun@@
concerned
Maintenance
ŭ@@
nesses
advant@@
Set
violent
Ι@@
Groen@@
regulation
corporations
broad
results
Narcotic
expert
says
Hebron
Adolescents
є
That
pover@@
adequate
Freedoms
corrigendum
Umo@@
certain
£
irrever@@
politics
mercur@@
expertise
former
resear@@
momentum
accus@@
UNITED
represented
Jordanian
elitis
path
Wastes
relative
corpo@@
stigma
UNMI@@
Johannesburg
achieving
fold
dry@@
concern
statu@@
By
fisheries
holders
September
Mechanism
Occupied
bure@@
̓
eting
death
30,000
notes
buro@@
buy
team
sels
plying
Certain
Belgian
advisory
Reco@@
changing
mass@@
itual
negoti@@
Relation@@
chair
OPCW
timber
Term
Æ@@
harb@@
annex
accounts
experts
Involuntary
Р@@
fully
domici@@
insi@@
Provisions
demand
proposals
♢
enimiento
Session
prisons
barg@@
Cambodian
matter
seekers
inno@@
gement
two
liberalization
Appeals
Sicotr@@
stands
iness
youn@@
1,200
ĉ@@
appro@@
Optional
relationship
ATION
name
strategic
determination
release
Establi@@
broch@@
apatri@@
evening
clusters
articles
border
mediate
programs
task
asts
condition
Strateg@@
organisation
budget
gendum
generation
different
decline
capié
used
censu@@
OHCHR
ù@@
profile
i.
Diplomatic
jury
Catho@@
held
accordance
Drought
yles
accord
tary
adaptation
learned
Mechanis@@
syst@@
helic@@
minority
parents
subject
Timorese
ably
bass@@
conventions
gratuit@@
Physical
PROFOR
bed
WORK
upos
ign
When
save
Intergovernmental
trading
satellite
ڤ
aterra
Å
Auth@@
expulsion
comment@@
inquiries
allegations
prior
Ü
iture
‡
Counci@@
princi@@
levels
Ababa
substances
mobile
organization
jecu@@
broad@@
affected
math
invitation
ándol@@
Polish
casus
sessions
territories
disputes
chart
Oversight
worked
aining
organs
Extension
Kazakhstan
integrity
Olympic
retali@@
regions
Ciud@@
reforms
collec@@
patterns
ancial
Plans
я
Greece
foot@@
Slovak
olescent
responses
globe
pilot
Greenland
societies
paid
zed
electronic
settlement
próxim@@
i.e.
nine
histór@@
verage
ů@@
Prom@@
recent
source
symb@@
linkages
angani
Senate
Former
since
suspension
when
Number
relation
Civilian
reproductive
coal
solution
prosperity
geospatial
five
posal
give
families
profit
Honourable
effec@@
exchange
priority
valuation
debris
Ķ@@
mapping
enferme@@
alien
supuest@@
employ@@
dau@@
biodiversity
fail
helps
instruction
Ś
member
marking
appar@@
rees
gren@@
etic
intervention
website
Cruel
submission
ugú
specific
latter
ground@@
armed
grant
Proposed
tioning
2,500
atten@@
ernes
company
relief
skills
warm
Artí@@
occupied
power@@
extreme
archives
Destruction
horiz@@
memorandum
Afghan@@
Oman
jurisdiction
bond
nationals
mortality
Taiw@@
ǎ@@
complaints
enting
disasters
Reintegration
transboundary
Damas@@
Syria
consequences
Gabon
voices
traterrestre
existing
Crescent
follow
concluding
ARTICLE
commodity
‹
☐
struction
sized
›
notwithstanding
responsibilities
Tunis
Marrak@@
20,000
Representative
nutrition
with@@
ities
dered
early
votes
invest@@
interests
Movements
UNIP@@
Ministers
traffic
Execu@@
atics
negotiation
train
grew
Tajikistan
interpretative
fish
single
odwill
Djib@@
emaking
limitation
ply
;
CRIMI@@
confidence
teen@@
abolition
asylum
assess@@
Ń@@
achievement
existence
illicit
will@@
institutional
gies
fering
È
Resour@@
Respec@@
history
venture
states
conservation
next
guidance
IFAD
Mediterr@@
cripts
ámbit@@
sheet
exploration
operative
posite
з@@
HKSAR
ished
ousness
associations
Aspec@@
Territory
acuífer@@
Host
goods
Closed
risks
treat@@
plenary
plans
hypo@@
distinction
Professor
strengthening
Cô@@
sciences
transnational
stories
TIES
Latvia
firm
Palestinians
oration
prison
reason
pace
maritime
osing
shap@@
along
Б@@
itenci@@
daily
Extradition
defe@@
construction
clear@@
immigration
Headquarters
implementing
ength
Rapporteur
terrori@@
twenty
Referendum
Transboundary
uds
Princi@@
SOA
Ô@@
8,000
aments
traffic@@
istr@@
datab@@
four@@
adoption
comparative
Friday
commercial
conferences
mies
Jews
stress
Applic@@
parts
signed
keeping
46th
proposal
succession
Prosecutions
200,000
proposed
cur
revision
half
naissance
consideration
processes
ʽ@@
spaper
size
following
definitions
gn
iop@@
pricing
rests
quarter
election
remedial
ownership
wanted
erce
peac@@
atmo@@
Councils
Additional
reconstruction
values
findings
mean@@
camp
gendarmerie
Preventive
mits
authorities
9,000
namic
multilingu@@
places
alert
sheets
leav@@
Goal
taining
liban@@
60,000
THER
manag@@
arrollo
ians
revenue
Chair
debt
ropic
comit@@
rafts
Х
struggle
brief@@
Commission@@
õ
Món@@
TIONS
participate
establishment
Libya
object
welcom@@
comments
ware@@
background
reignty
enterprise
dire
result
expression
Shelf
tarje@@
campa@@
tours
dates
minimum
adopt
benefits
3,500
island
reported
ECLAC
chamb@@
drugs
clos@@
farmers
norm
association
Orthodox
hub
estadounid@@
etap@@
help@@
lift
inform
Algeria
Budge@@
earth@@
probl@@
asting
Peaceful
labelling
Rene@@
Judiciary
across
xed
00,000
Pension
alre@@
recommends
item
nition
fair@@
selected
Fifth
missible
gly
input
run
colos
fleet
conflicts
Directorate
citizens
Ş
felt
internal
ined
shipping
Madag@@
Naur@@
©
jobs
mechanisms
tations
Eritrean
corporation
dress
goal
hole
know@@
suicide
outs
thr@@
OIOS
aids
share@@
wast@@
zero
Provision
Prohibition
Antar@@
geographical
eliminate
location
meth@@
Commissioners
organized
timetable
village
contrary
instrument
indicative
finding
Ouagad@@
Ā@@
Negotiating
Ambass@@
Course
second@@
grounds
PAs
ept
said
scientific
later
worldwide
submissions
Offices
earn@@
reasonable
genocide
factors
taken
directions
portun@@
review@@
stock@@
follow@@
fight
menting
abortion
materials
responsible
expedite
ŗ
Swaz@@
uct@@
Fs
detail@@
measuring
Affecting
ľ@@
companies
title
parent
endum
increasing
positive
Further
consultation
cluster
Commissions
Muslims
else
discus@@
Promote
urges
authority
democracy
travel
redness
important
informed
called
decade
movement
Stabilization
UNDOF
ódigo
Vocational
sosti@@
Laundering
draw@@
steps
serious
7,000
Arabic
tise
mix
pacífic@@
preventing
silence
boat
victi@@
regime
reign@@
mandate
antor
cement
courses
prést@@
Decolonization
carbon
blind
Facilities
displaced
increase
tically
integrated
Α
theast
proceedings
large
ß
achievements
saté@@
hinder
communicable
reality
priorities
precur@@
consent
these
acqui@@
managing
itarian
Aligned
definition
emergency
wr@@
[...]
