#version: 0.2
t h
i n
th e</w>
a n
t i
r e
e r
e n
o n
o f</w>
o n</w>
a r
o u
e d</w>
an d</w>
in g</w>
o r
t o</w>
e r</w>
i t
s t
i n</w>
e s</w>
a l
r o
i s</w>
a t
a ti
o s
a l</w>
a p
o r</w>
e c
a t</w>
i c
a c
o m
e l
a s</w>
e s
i l
i s
a n</w>
v e</w>
a s
en t</w>
u r
p l
e n</w>
ap os
& apos
o l
ati on</w>
p ro
w h
&apos ;
s i
f or</w>
q u
r i
e m
l y</w>
i t</w>
c on
t s</w>
th at</w>
h a
u s
e v
n o
u n
a d
l i
s h
s u
o u</w>
a b
o t
a g
d i
c e</w>
y ou</w>
th e
a m
c om
@ -
@- @</w>
c h
ti on</w>
l e</w>
l o
on s</w>
w it
re s
o p
t r
b e
e x
wit h</w>
b e</w>
ar e</w>
a y</w>
l e
ou n
u l
f or
g h
d e
er e</w>
&apos; s</w>
c i
t er
h e</w>
al l</w>
it y</w>
l d</w>
m ent</w>
b u
i r
v er
n e
b y</w>
w as</w>
i m
u c
ou r</w>
qu ot
at e</w>
f f
quot ;</w>
& quot;</w>
th is</w>
p er
a r</w>
a k
p e
ha ve</w>
m e</w>
s e
no t</w>
ou ld</w>
i d
m e
w or
th er</w>
er s</w>
p or
ou t</w>
st r
o w
p ar
o o
en t
on e</w>
d s</w>
il l</w>
f ro
h i
w e</w>
fro m</w>
a i
g r
s o</w>
t er</w>
t ed</w>
gh t</w>
on al</w>
a in
es s</w>
w ill</w>
t e
s p
ati ons</w>
ur e</w>
e t</w>
c l
h as</w>
re d</w>
m an
h is</w>
bu t</w>
re n
a y
e ar
it s</w>
t h</w>
ti c
c an</w>
g i
C h
en ts</w>
v i
an t</w>
re c
the y</w>
d ing</w>
m o
i r</w>
u m
c h</w>
pl e</w>
i c</w>
ou r
w e
in g
on g</w>
an ce</w>
or e</w>
f e
m in
con t
g o
d uc
an g
the ir</w>
al ly</w>
y our</w>
t ing</w>
ar y</w>
at ed</w>
p os
g h</w>
p r
d is
ab le</w>
i z
ic h</w>
m y</w>
c o
p u
om e</w>
u d
t y</w>
ak e</w>
c oun
ev el
d er</w>
ti es</w>
a in</w>
ag e</w>
us t</w>
wh ich</w>
h e
p re
a f
d o
t o
ha d</w>
a d</w>
ic e</w>
f i
es e</w>
o ther</w>
m ore</w>
Ch in
p res
ai d</w>
f in
st e
pro v
ati onal</w>
&apos; t</w>
s e</w>
no w</w>
i f</w>
ou s</w>
u p</w>
w ere</w>
es t</w>
us e</w>
com m
h er</w>
ac e</w>
th ere</w>
evel op
o ple</w>
e st
be en</w>
ti ons</w>
k e</w>
si on</w>
s o
s er
el l</w>
as t</w>
en ce</w>
em ent</w>
a v
s t</w>
ec t</w>
for m
sh e</w>
u t
ti me</w>
es s
d o</w>
v er</w>
ti ve</w>
c re
d er
wh en</w>
i g
u s</w>
k s</w>
in ter
d ay</w>
os t</w>
em b
e l</w>
as e</w>
w ould</w>
pe ople</w>
el y</w>
wh at</w>
d evelop
1 9
in e</w>
ar d</w>
ay s</w>
k ing</w>
al so</w>
an y</w>
oo d</w>
s aid</w>
s ec
r a
ou gh</w>
o w</w>
s y
ab out</w>
m ar
t w
am e</w>
e p
i es</w>
ad e</w>
o c
n o</w>
o b
en er
g e</w>
d u
re l
re s</w>
t ri
ic al</w>
ac c
en d
n ational</w>
n i
f ir
b o
oun d</w>
por t</w>
sh ould</w>
s el
os e</w>
m on
ver n
s ti
ne w</w>
at es</w>
o g
en ti
S t
ow n</w>
s ome</w>
b l
p o
wh o</w>
ev er</w>
l a
p ol
wor k</w>
it ed</w>
k e
ol d</w>
t u
w i
li ke</w>
b ec
f u
in to</w>
com p
t ec
w ay</w>
g re
b r
ev er
f l
c es</w>
p h
or y</w>
si d
ing s</w>
in v
an d
Chin a</w>
f ac
a u
al l
be t
a m</w>
th ing</w>
t ur
is i
d ec
th an</w>
e t
u e</w>
sp ec
lo w
n ing</w>
the m</w>
0 0
i al</w>
en d</w>
l l</w>
hi m</w>
d es
it e</w>
op er
sh all</w>
ac k</w>
on om
lo o
r u
I n
or s</w>
ff ic
tw o</w>
por t
al s</w>
19 9
v es</w>
&apos ;</w>
ci al</w>
C om
ati ve</w>
b le</w>
m is
on ly</w>
th ese</w>
m ay</w>
su p
m ost</w>
g et</w>
ver y</w>
k ed</w>
re e</w>
y e
is h
a re
res p
p ri
m an</w>
an s
h el
c er
g u
m il
su ch</w>
h ow</w>
at ing</w>
ec onom
o ver</w>
as s
af ter</w>
wi th
pro duc
e d
ste m</w>
su b
U n
il l
pro c
an s</w>
ser v
a st
re qu
c ould</w>
develop ment</w>
t en
is h</w>
ac h</w>
n ed</w>
f e</w>
th r
w ell</w>
man y</w>
ar i
b as
il e</w>
for e</w>
c ri
j ust</w>
m at
m ake</w>
v ing</w>
str uc
il ity</w>
at er</w>
e i
i st
ch ang
f ic
per s
tr y</w>
en c
fu l</w>
is e</w>
su l
fir st</w>
sh i
o d</w>
a use</w>
o f
c u
th en</w>
g an
ear s</w>
om e
sy stem</w>
vern ment</w>
s ur
id e</w>
c ol
f r
us ed</w>
re m
lo c
ti m
com e</w>
Un ited</w>
a il
j o
f o
m ade</w>
ol og
g ood</w>
ac ti
i ties</w>
c ar
ap pl
ren t</w>
lo w</w>
ac h
t ake</w>
d on</w>
k now</w>
ye ar</w>
sel f</w>
ff e
un der</w>
v e
re g
in k</w>
ti c</w>
g e
e ff
t ure</w>
y ears</w>
ro w
st ud
g o</w>
thr ough</w>
v ed</w>
per i
re gi
tec h
li c</w>
C on
ener al</w>
m ust</w>
com pl
b i
m it
in cl
inter national</w>
e f
u m</w>
im port
wor ld</w>
we en</w>
j ec
tri es</w>
form ation</w>
f un
el i
r e</w>
an c
ol u
bet ween</w>
s ome
c ur
em s</w>
t ly</w>
g l
y ing</w>
ex p
ev en</w>
l ar
d re
se e</w>
li fe</w>
ri ght</w>
b er</w>
st s</w>
e w</w>
v en
el l
d r
coun tries</w>
2 00
b lic</w>
c ap
is t</w>
m i
wh ere</w>
tr ans
R e
or d
th ose</w>
un der
gan iz
ig n</w>
emb er</w>
p s</w>
si g
in te
ou s
f ul
m er
ch il
tic le</w>
tic al</w>
t le</w>
al ity</w>
t ak
be fore</w>
ap p
m ents</w>
ch ar
ab l
T he</w>
c or
isi on</w>
c r
bec ause</w>
pu blic</w>
con si
resp on
ac t</w>
w om
gr am
re t
S ec
e qu
ic es</w>
s ch
tech n
m uc
Chin ese</w>
u p
f ol
i str
c ul
in ess</w>
muc h</w>
in t
gh ts</w>
ou t
b us
& #
h ere</w>
il y</w>
ne ed</w>
res s</w>
v ir
cont in
t en</w>
e g
N ations</w>
di ffe
par t
w ays</w>
p er</w>
d own</w>
n um
v al
in cre
re ad
k et</w>
b ot
l ong</w>
te e</w>
C oun
e p</w>
t or</w>
i d</w>
shi p</w>
st an
di d</w>
in d</w>
d ic
ter s</w>
ent al</w>
no w
cont ro
ur ing</w>
for m</w>
th ink</w>
import ant</w>
re sul
man ag
v is
a ve</w>
ou ght</w>
oper ation</w>
b ack</w>
ex t</w>
d em
in formation</w>
e as
en s
wh ile</w>
o ff
en g
s c
u al</w>
me th
hi gh</w>
r it
econom ic</w>
is su
&# 9
l it
m s</w>
P ro
a ff
in ce</w>
al y
d y</w>
s ol
u res</w>
ar ticle</w>
ur ity</w>
le g
m a
pl o
t e</w>
or ganiz
oo k</w>
el ec
um an</w>
st ri
coun try</w>
n ec
bu il
ab ility</w>
on g
be ing</w>
en tr
ci l</w>
s ed</w>
t re
l ast</w>
sid e</w>
l and</w>
f ri
c our
po in
m ak
di rec
at t
ic ation</w>
G eneral</w>
i a</w>
th ree</w>
p ow
si st
E n
b an
olog y</w>
w ater</w>
comm un
f am
me as
se t</w>
e ach</w>
f t</w>
s m
Coun cil</w>
sti ll</w>
G o
h an
o m</w>
su m
as s</w>
h ear
oo l</w>
e ase</w>
r y</w>
w ant</w>
l ess</w>
j ect</w>
t al
st ar
im pl
k now
olu tion</w>
ren ce</w>
i ti
d ed</w>
enc y</w>
eff ec
o ver
pro gram
pu t</w>
s pe
St ates</w>
n ess</w>
chang e</w>
go vernment</w>
le t</w>
ul ar</w>
con cer
par t</w>
d e</w>
so ci
d uring</w>
or der</w>
si ble</w>
min istr
le ar
an ts</w>
a ir
pres ent
p ec
fo re
ad v
s ay</w>
of f</w>
on d</w>
A n
y p
id ed</w>
bot h</w>
an aly
vir on
is m</w>
gre at</w>
t ain</w>
est abl
to o</w>
M r
h app
c ent</w>
th er
ish ed</w>
Com mit
h uman</w>
w ar
A mer
s ame</w>
s a
with out</w>
s it
ever y</w>
Amer ic
b re
p ur
comp any</w>
ain ing</w>
al iz
pl ace</w>
ai r</w>
pos i
l ed</w>
go ing</w>
d el
si ve</w>
f ur
&apos; m</w>
Commit tee</w>
res t</w>
h ar
ain st</w>
ap er</w>
num ber</w>
ap pro
hel p</w>
proc ess</w>
m ul
&apos; re</w>
lit tle</w>
ex c
dre n</w>
ag ainst</w>
p i
bus iness</w>
n er</w>
em ents</w>
s k
g row
ain ed</w>
requ i
ver s
pro b
o p</w>
spec i
e y</w>
res ear
l ine</w>
gr ou
i l</w>
wom en</w>
gi ve</w>
w s</w>
al th</w>
s en
sup port</w>
mar ket</w>
ffic i
h ol
al ways</w>
vi ew</w>
re port</w>
pr in
n ever</w>
h ow
0 0</w>
la w</w>
di v
b ro
ag es</w>
li on</w>
em ent
en viron
contro l</w>
me di
lo ve</w>
pl an
we e
chil dren</w>
d at
pol ic
h u
au th
U N
in du
ex am
f a
l ev
how ever</w>
un i
v ely</w>
diffe rent</w>
b eli
l in
fol low
ou se</w>
f ace</w>
ac tion</w>
li m
m ental</w>
ati on
r is
c all
at ure</w>
u ation</w>
v en</w>
s ince</w>
c c
g g
mis sion</w>
with in</w>
hi gh
m ain
loo k</w>
e duc
sti tu
&apos; ll</w>
c an
v ari
qu es
our ces</w>
an other</w>
an cial</w>
re as
- -
c as
it al</w>
Mr .</w>
s ci
bo dy</w>
vi ties</w>
ef for
u ding</w>
ci p
ec ted</w>
a k</w>
p a
lev el</w>
A s
al e</w>
do es</w>
be g
ever y
fi ed</w>
bas ed</w>
so cial</w>
e ve</w>
b il
ar ds</w>
ud e</w>
stud y</w>
f ound</w>
acti vities</w>
en ing</w>
wh e
read y</w>
inv est
de p
ap pe
p aper</w>
n s</w>
A r
an y
ob jec
ri ghts</w>
an t
n ext</w>
tr ad
m or
in ation</w>
bet ter</w>
por ts</w>
c le
fe rence</w>
h op
ex peri
incl uding</w>
su cc
li ght</w>
fi el
ro s
fin ancial</w>
go t</w>
ou th</w>
at h</w>
Sec ret
manag ement</w>
con di
m en</w>
i an</w>
d n</w>
th ough</w>
tim es</w>
s ays</w>
c us
ep t</w>
pr is
or ding</w>
p ed</w>
mon ey</w>
pow er</w>
ul ation</w>
par ti
Go vernment</w>
par tic
ag re
pro f
ai l</w>
h ome</w>
w a
pe ace</w>
p op
incre as
pers on</w>
wh y</w>
re sid
ad ministr
s ure</w>
o t</w>
st ate</w>
In ter
ac coun
to day</w>
f ic</w>
ac k
St ate</w>
t ors</w>
an n
ti onal</w>
i p
m ot
e ting</w>
ar ound</w>
st at
ent ly</w>
col l
us ing</w>
meth od</w>
ati c</w>
sec urity</w>
l ing</w>
rec ei
tic s</w>
le ad
fin d</w>
i de
em plo
ain s</w>
1 0</w>
m emb
ag ain</w>
th ings</w>
es ti
d ays</w>
ro w</w>
sm all</w>
acc ording</w>
co operation</w>
si ons</w>
pol i
en ter
a way</w>
s es</w>
n on</w>
pl y</w>
e y
e f</w>
dis cus
impl ement
w ard</w>
pl ease</w>
tur n</w>
en ds</w>
i ous</w>
prov ide</w>
mi ght</w>
st ed</w>
ma j
th ers</w>
pos ed</w>
an k</w>
er ing</w>
se e
mat er
z e</w>
resear ch</w>
r ap
dat a</w>
go vern
ren g
t yp
con c
fe w</w>
g ener
b est</w>
or ity</w>
ter min
bec ome</w>
ic k</w>
ar m
contin u
c a
the re
s ha
he ad</w>
l es</w>
res olution</w>
H ong</w>
h al
part ment</w>
ur al</w>
M ar
are as</w>
st reng
con tr
lo b
of ten</w>
K ong</w>
am ong</w>
re ally</w>
meas ures</w>
le m</w>
u ro
st or
n or
ar ly</w>
lar ge</w>
fur ther</w>
an g</w>
fore ign</w>
res ources</w>
techn ology</w>
f er
u ally</w>
end ed</w>
d ri
struc tion</w>
tak en</w>
t ow
ac hi
P e
b ility</w>
r ang
e ds</w>
some thing</w>
enti al</w>
w in
loc al</w>
s ing</w>
b ed</w>
nec ess
ut e</w>
s al
00 0</w>
pro tec
c ame</w>
are a</w>
pres ent</w>
En gl
D e
prob lem</w>
b er
en s</w>
ir e</w>
ro om</w>
qu ality</w>
b en
pl ac
g y</w>
c ase</w>
f ood</w>
&apos; ve</w>
appl ication</w>
th s</w>
fic ation</w>
do c
pro bl
char ac
es sion</w>
he alth</w>
educ ation</w>
wor king</w>
pos sible</w>
ay ing</w>
h ouse</w>
ful l</w>
P ar
t ro
st u
o ve</w>
fam ily</w>
d ge</w>
fun c
serv ice</w>
isi ons</w>
or t</w>
ad di
en ed</w>
e ty</w>
g en
as k</w>
str y</w>
tur al</w>
n al</w>
ic s</w>
spec ial</w>
me eting</w>
poin t</w>
st om
pl es</w>
ti on
com pe
probl ems</w>
b ur
y oun
h and</w>
k ind</w>
1 ;</w>
&#9 1;</w>
t a
ad op
wor k
Secret ary</w>
t able</w>
effor ts</w>
sec ond</w>
p ing</w>
me ans</w>
A d
ul t</w>
ke ep</w>
serv ices</w>
w at
d ra
- -</w>
re present
f ut
on ce</w>
d ate</w>
sch ool</w>
gi ven</w>
comm it
st and
re li
or d</w>
ol e</w>
iz ed</w>
al i
poli tical</w>
c ha
sist ance</w>
st and</w>
cl u
ni ght</w>
posi tion</w>
T h
w rit
c ent
s on</w>
sh ow
fr ic
at ely</w>
ic k
up on</w>
ri bu
to ge
st ory</w>
our s</w>
in fl
follow ing</w>
S h
pro per
d en</w>
E uro
W or
memb ers</w>
ven tion</w>
d am
ous ly</w>
d ro
toge ther</w>
b ri
o re
tr ade</w>
o ffic
ex pres
ex pl
t ell</w>
ros s</w>
di es</w>
n am
produc tion</w>
I s
w ent</w>
mak ing</w>
f il
emb ly</w>
call ed</w>
ful ly</w>
di ffic
af t</w>
t em
fiel d</w>
pl ay</w>
resul ts</w>
w r
cont ribu
cl os
E x
int ro
g ress</w>
parti cip
gr ap
organiz ations</w>
im prov
ci r
th ought</w>
fut ure</w>
3 ;</w>
&#9 3;</w>
sit uation</w>
comp an
leg al</w>
h y
er v
peri od</w>
p ass
A fric
g lob
div id
s is</w>
t ook</w>
rel ev
ad d
th ir
O r
pro mot
si m
w al
ke y</w>
A u
grou p</w>
W h
m p
ou l
n ame</w>
commun ity</w>
eff ect</w>
. .
ati s
i ed</w>
vi ol
al ready</w>
econom y</w>
stud ents</w>
L i
develop ing</w>
As s
th em
grow th</w>
mil lion</w>
de red</w>
des ign</w>
w el
t ot
f ar</w>
ab ove</w>
s ever
se t
st ing</w>
bi g</w>
ten tion</w>
fi ve</w>
maj or</w>
com pu
it ary</w>
olog ical</w>
b el
, 000</w>
h ard</w>
fe el</w>
p at
de termin
d om
le ft</w>
in stitu
ter m</w>
c ity</w>
hal f</w>
polic y</w>
m es</w>
inte re
ch o
reg ul
relev ant</w>
du ce</w>
ic ations</w>
necess ary</w>
ro le</w>
h and
f our</w>
produc ts</w>
ener gy</w>
at or</w>
rel ated</w>
op en</w>
c al
le t
p ast</w>
c at
in c
stan ding</w>
y et</w>
youn g</w>
ang u
ic t</w>
Engl ish</w>
g ir
ex t
sever al</w>
jo b</w>
val ue</w>
2 0</w>
f y</w>
vers ity</w>
cour se</w>
consi der
re ad</w>
buil ding</w>
g et
id es</w>
an ds</w>
U ni
a red</w>
cur rent</w>
199 4</w>
ne eds</w>
struc ture</w>
f ree</w>
pu bl
inv ol
ac y</w>
str at
Ass embly</w>
hel d</w>
whe ther</w>
r ad
ec han
hear t</w>
pro ve</w>
in divid
m ain</w>
el s</w>
i on</w>
L a
D ec
de t
ar s</w>
beli eve</w>
resid ent</w>
pos e</w>
wh ole</w>
prin ci
lo t</w>
acc ord
t ation</w>
r ate</w>
sh ow</w>
o thers</w>
de l</w>
ex per
wee k</w>
effec tive</w>
contin ue</w>
ab ly</w>
prov ided</w>
j ud
regi onal</w>
N ew</w>
i ght</w>
re al</w>
d ev
y s</w>
vi e
indu stry</w>
ques tion</w>
ni fic
b or
r ic
program me</w>
regi on</w>
par ty</w>
un ti
pr ice</w>
esti g
f re
implement ation</w>
tr aining</w>
environ ment</w>
resul t</w>
tre at
ac tu
l y
ear ly</w>
vari ous</w>
objec tive</w>
d eli
ri ed</w>
p tion</w>
dec ision</w>
pri v
s or
entr al</w>
G od</w>
im p
l u
p ay</w>
on t</w>
c ost</w>
ex ist
n at
gr ad
di st
min d</w>
af f</w>
t old</w>
ec u
Americ an</w>
issu es</w>
t est</w>
hop e</w>
glob al</w>
h er
in es</w>
g ed</w>
ha ving</w>
m echan
us es</w>
G r
g eneral</w>
am p
wor ds</w>
th y</w>
am oun
can not</w>
unti l</w>
comm on</w>
l at
iz ation</w>
incre ase</w>
l ab
en ough</w>
des ig
re comm
por ted</w>
jo in
in f
c all</w>
oo ds</w>
intro duc
a ut
as h
mo ther</w>
con struction</w>
h un
auth or
inte gr
3 0</w>
ch ed</w>
li ve</w>
J ap
condi tions</w>
ec tion</w>
on es</w>
do m</w>
li k
l angu
su gg
experi ence</w>
t or
p e</w>
inv estig
v ity</w>
a im
ne l</w>
sig nific
in iti
pl an</w>
s ing
no thing</w>
as sistance</w>
at s</w>
a w
gr ound</w>
pro ject</w>
cu stom
for man
o k
con f
a z
analy sis</w>
o il</w>
sy st
compan ies</w>
dep end
it ing</w>
there fore</w>
b oo
P resident</w>
d one</w>
1 5</w>
si a</w>
ast er</w>
j ing</w>
emplo y
ne t
av ail
pl ay
mat ter</w>
for ce</w>
st aff</w>
ne t</w>
fa ther</w>
mil itary</w>
T r
mar ke
mo del</w>
con duc
Com mission</w>
199 3</w>
h old</w>
as ked</w>
cri min
J o
A l
ur y</w>
e m</w>
id enti
le ast</w>
p ic
tak ing</w>
me et</w>
de f
pers on
b ook</w>
b al
o ds</w>
ag ed</w>
compl et
com b
l os
del eg
&apos; d</w>
chil d</w>
D i
de fin
st re
g er</w>
he ad
er y</w>
chang es</w>
N o
U S</w>
sa fe
b ir
in dic
m un
Inter national</w>
ap prov
M r</w>
c op
T o</w>
fac t</w>
in e
c are</w>
f oc
ord in
a h</w>
j u
si bility</w>
know le
be au
our ce</w>
in st
de b
A c
per forman
bas is</w>
s ession</w>
port un
issu e</w>
ro ad</w>
jec ts</w>
tr u
rec og
B ei
an ti
1 2</w>
i ally</w>
em p
wom an</w>
l ong
con sum
str ong</w>
mo der
s il
ag o</w>
uc le
ens ure</w>
oc r
sel ves</w>
ar ri
t on</w>
f el
iz e</w>
C o
op portun
id ence</w>
d ly</w>
d ou
par ties</w>
ke ep
en ces</w>
m it</w>
c ar</w>
cer tain</w>
wor d</w>
invest ment</w>
5 0</w>
know n</w>
su per
administr ative</w>
rec ent</w>
m ag
re ly</w>
th re
re duc
di dn</w>
ul es</w>
am e
f ail
qu e</w>
mon ths</w>
e ful</w>
off ice</w>
Bei jing</w>
develop ed</w>
ci es</w>
f er</w>
p en
achi ev
im prove</w>
protec tion</w>
ol s</w>
er ship</w>
sp ace</w>
m u
ati ves</w>
mo ve</w>
ch em
ci d
com es</w>
p ul
establ ished</w>
es pec
partic ular</w>
inte rest</w>
tot al</w>
to p</w>
mon th</w>
D evelop
sci enti
e ffici
n ers</w>
ch ing</w>
M in
high er</w>
compl e
er al</w>
tr ac
accord ance</w>
des cri
er n</w>
com ing</w>
Re public</w>
e th
p ot
m om
equ ip
y s
at tention</w>
er c
espec ially</w>
star t</w>
ed ed</w>
sa w</w>
ti s
performan ce</w>
so on</w>
do ing</w>
em er
b it</w>
L e
cre d
h o
te ach
se en</w>
Sec urity</w>
accoun t</w>
h or
v o
al low
en sive</w>
p ati
con sul
ou gh
li g
h on
tur ned</w>
mak es</w>
r ing</w>
br ing</w>
ben ef
te am</w>
l evel
avail able</w>
appro pri
fri ends</w>
ti ce</w>
pr ac
ch e
exam ple</w>
l s</w>
resp ect</w>
pop ulation</w>
ucle ar</w>
pre v
rel ation
tr av
is ed</w>
oun d
ch ec
wor ks</w>
cl ose</w>
ru n</w>
ey es</w>
pro gress</w>
elec tr
soci ety</w>
in s</w>
d le</w>
du e</w>
qu ar
li ving</w>
s le
cle ar</w>
al ong</w>
c are
ne w
H e
infl u
se qu
loo king</w>
l ater</w>
h im
pr acti
1 1</w>
m ach
di ed</w>
pr ise</w>
le ave</w>
an ted</w>
sh ort</w>
en jo
r un
or ig
ing ly</w>
cas es</w>
an im
do or</w>
hu man
B u
program mes</w>
me d
ch i
v ol
t om
S u
he av
Pe ople</w>
thir d</w>
fri end</w>
requi red</w>
charac ter
d ru
Develop ment</w>
fac il
N or
for ward</w>
ag rap
h ours</w>
il i
B o
techn ical</w>
proc e
proc ess
bas ic</w>
d en
F e
mul ti
level s</w>
i gh
compe ti
con nec
ar t</w>
un e</w>
r an
ach ed</w>
st oc
incl ude</w>
d ol
c ause</w>
t ar
treat ment</w>
o grap
amoun t</w>
es si
produc t</w>
enc our
g s</w>
air s</w>
um ents</w>
d ow
v ision</w>
me an
ill ed</w>
w on</w>
w ar</w>
en ding</w>
anc ed</w>
meth ods</w>
dr aft</w>
ish ment</w>
ve red</w>
m y
or i
cap ital</w>
par agrap
proper ty</w>
ra ther</w>
indu stri
langu age</w>
S outh</w>
concer ned</w>
per cent</w>
sub ject</w>
al most</w>
t el
g est</w>
n ature</w>
Wor ld</w>
nat ural</w>
pr ices</w>
w er</w>
at ory</w>
no v
f low
.. .</w>
I I</w>
ris k</w>
prov isions</w>
speci fic</w>
M on
c ed</w>
compu ter</w>
re fl
pris es</w>
Americ a</w>
incl ud
rem ents</w>
en h
typ e</w>
it ation</w>
cap ac
diffic ult</w>
on ed</w>
us h</w>
hi story</w>
cur ren
under stand</w>
knowle dge</w>
syst ems</w>
m en
n uclear</w>
v ic
fir e</w>
bu d
ban k</w>
ar ti
u ary</w>
f av
partic ul
loo d</w>
mor ning</w>
y our
G u
di stri
distri bu
w id
lik ely</w>
s ite</w>
in king</w>
p ay
z ed</w>
ou p</w>
th us</w>
b ad</w>
cl ass</w>
La w</w>
g es</w>
or ies</w>
1 2
al though</w>
aliz ed</w>
tr an
S .</w>
m er</w>
environ mental</w>
priv ate</w>
ar rang
si c</w>
him self</w>
ish ing</w>
am es</w>
S pec
s ent</w>
in al</w>
beg an</w>
b it
a ther</w>
v al</w>
ill s</w>
De partment</w>
ic ally</w>
institu tions</w>
1 0
happ y</w>
b all</w>
ex erc
R i
Afric a</w>
any thing</w>
tal k</w>
si mil
vi l</w>
ac ts</w>
form ed</w>
S o
ak ing</w>
equip ment</w>
w ide</w>
con fl
tu res</w>
m ing</w>
de ath</w>
pro jects</w>
si an</w>
grou ps</w>
si x</w>
appropri ate</w>
t ain
mon it
Con ference</w>
R us
nor m
eas y</w>
de al</w>
I t</w>
1 .
Is ra
a p</w>
mater ial</w>
ti vely</w>
adop ted</w>
ch all
t ory</w>
d in
ut es</w>
ser ious</w>
sti t
some one</w>
g ave</w>
pers ons</w>
pro posed</w>
t l
pol ice</w>
g ar
out side</w>
pa ren
c y
me an</w>
oper ations</w>
pro pos
m id
mater i
loc k</w>
ide a</w>
gi es</w>
v ot
de partment</w>
form s</w>
w ish</w>
id ing</w>
t es</w>
succ ess
J u
sup pl
est s</w>
practi ce</w>
ch es</w>
re turn</w>
An d</w>
or g
In di
ap s</w>
tr ue</w>
safe ty</w>
so f
qu ite</w>
qu i
ver s</w>
char ge</w>
R es
requi rements</w>
u es</w>
ast e</w>
is l
tow ards</w>
ter ms</w>
particul arly</w>
e ar</w>
recog n
se par
st op</w>
ac tive</w>
cul ture</w>
consi dered</w>
c le</w>
lear n</w>
reas on</w>
us ually</w>
every thing</w>
C ha
Euro pe
li st
su st
1 4</w>
keep ing</w>
es tim
F or
b an</w>
wi fe</w>
ep t
g ency</w>
addi tion</w>
ex ecu
cu t</w>
promot e</w>
import ance</w>
l ate</w>
trad iti
dec ided</w>
oc cu
ev al
po or</w>
loo ked</w>
s atis
recei ved</w>
pre sid
evel op</w>
tr ying</w>
rad i
en cies</w>
S erv
G re
hear d</w>
adv ant
oul dn</w>
par ts</w>
av o
sing le</w>
fr ont</w>
direc tly</w>
o ffici
comm er
at ors</w>
ac ross</w>
on ic</w>
go ti
d ar
d evelop</w>
gu ar
ste p</w>
g oods</w>
character is
in de
exp ected</w>
d on
mo d
pres sure</w>
ari an</w>
paragrap h</w>
ill ing</w>
b ack
M an
s mo
agre ement</w>
aliz ation</w>
ph ys
pre h
k in
19 8
long er</w>
mit ted</w>
net work</w>
we ap
Spec ial</w>
con clu
p rec
st er</w>
entr e</w>
pers onal</w>
g ing</w>
199 5</w>
im medi
Europe an</w>
Uni versity</w>
y es</w>
individ ual</w>
materi als</w>
beau ti
ex change</w>
relation ship</w>
in come</w>
h os
gir l</w>
re ment</w>
ver age</w>
O ff
fin ally</w>
do es
se a</w>
bu y</w>
work ers</w>
gr am</w>
sh are</w>
oun ds</w>
re ports</w>
ent ed</w>
a vi
dra w
ac tions</w>
r ules</w>
l ost</w>
m ed</w>
a th
me t
them selves</w>
enter prises</w>
1 6</w>
li gh
ne goti
vi ous</w>
Or ganiz
acc ess</w>
capac ity</w>
fe el
T i
paren ts</w>
end a</w>
in ed</w>
dem and</w>
S y
polic ies</w>
the ory</w>
wh ite</w>
pl eas
get ting</w>
respon sibility</w>
appro ach</w>
en se</w>
s us
o s</w>
x ed</w>
est ed</w>
O ly
govern mental</w>
anc ing</w>
ne ar</w>
U .
n a</w>
h ind</w>
or ing</w>
de st
it self</w>
re view</w>
some times</w>
b ar
ai m</w>
ell s</w>
m ember</w>
O c
ric ul
ap ter</w>
e red</w>
st y
pre ci
G er
in depend
u fac
as h</w>
s av
1 3</w>
s w
2 5</w>
tr a
plan ning</w>
1 8</w>
a o</w>
Gr oup</w>
Jap an</w>
mom ent</w>
br ought</w>
F r
cl es</w>
respon sible</w>
str ic
d ers</w>
Dec ember</w>
ha i</w>
Y ou</w>
Con vention</w>
199 6</w>
c ou
N ational</w>
cr is
sen se</w>
dem ocr
increas ed</w>
ne eded</w>
o d
pre par
cul tural</w>
let ter</w>
f ast</w>
bo y</w>
reg ar
marke ts</w>
be hind</w>
se ts</w>
person nel</w>
sur ve
resp ec
s em
c lim
th ous
cre ate</w>
det ail
le ad</w>
p ain
c lo
res sed</w>
P ol
reg ard</w>
P er
cour t</w>
ta x</w>
l ist</w>
effec ts</w>
your self</w>
beauti ful</w>
func tion</w>
Oly mp
moder n</w>
traditi onal</w>
cor por
ol o
stan ces</w>
off er</w>
fel t</w>
P l
deleg ation</w>
consi der</w>
f all</w>
c am
as soci
w on
administr ation</w>
complet e</w>
p an
pro mis
organiz ation</w>
m em
re f
succ ess</w>
low er</w>
imp act</w>
author ities</w>
es tic</w>
m oun
han ds</w>
form er</w>
s ou
pl ans</w>
s we
he ar</w>
man ufac
w anted</w>
in ste
m ary</w>
col le
st age</w>
bo ard</w>
it em</w>
ag ing</w>
t ou
sci ence</w>
b lood</w>
pi ec
in ten
continu ed</w>
add ress</w>
un g</w>
str ation</w>
Go vern
an ces</w>
f lo
does n</w>
fun ds</w>
p t</w>
sur ance</w>
m ic
sp i
Organiz ation</w>
l ic
g ame</w>
c old</w>
la w
co sts</w>
st ay</w>
ne ws</w>
bil lion</w>
medi a</w>
am s</w>
bec om
us h
tw are</w>
J an
e at</w>
ser ve</w>
B ri
I C
sup ply</w>
buil d</w>
ques tions</w>
com preh
cred it</w>
ph as
2 0
every one</w>
ban ks</w>
n ation</w>
m ess
princi ple</w>
ro c
se ems</w>
s aying</w>
offici als</w>
prov ides</w>
Ad ministr
H e</w>
f f</w>
I ra
for ces</w>
sim ple</w>
c y</w>
re st
sch o
ge ts</w>
d y
ist s</w>
2 1</w>
ist er</w>
ti ves</w>
direc t</w>
fol low</w>
ter rit
s af
ti z
por ting</w>
h ur
b ig
it able</w>
regul ations</w>
u g
med ical</w>
in a</w>
i or</w>
ei ther</w>
ec h
cor rec
beli ev
e ts</w>
pur su
b and</w>
signific ant</w>
fin e</w>
c um
ass ess
ar ing</w>
enter prise</w>
star ted</w>
la ws</w>
per f
rem ember</w>
appl y</w>
actu ally</w>
olu tions</w>
Re gi
A sia</w>
a u</w>
poin ts</w>
dom estic</w>
addi tional</w>
no te</w>
employ ment</w>
rel ations</w>
d ang
bec ame</w>
ci vil</w>
op s</w>
n e</w>
prof essi
tem per
co ver</w>
le av
c entral</w>
h ous
pos t</w>
inste ad</w>
it er
in ning</w>
se ar
c li
b ab
consider ation</w>
i er</w>
est er
contr act</w>
lear ning</w>
c lear
spe ak</w>
plac ed</w>
al low</w>
h ic
sec tion</w>
Euro pe</w>
d ings</w>
fac tors</w>
di g
1 7</w>
stat us</w>
Q u
id s</w>
P r
co vered</w>
m ut
s ound</w>
vis it</w>
Jo h
introduc ed</w>
mu sic</w>
fre e
qu ick
C ol
r ound</w>
de part
re le
M o
s qu
M ay</w>
intere sts</w>
ati c
car ry</w>
m ay
sof tware</w>
J une</w>
p aid</w>
O h</w>
tech ni
exist ing</w>
g as</w>
am a</w>
posi tive</w>
w ise</w>
ag encies</w>
tak es</w>
fi g
eg y</w>
pot ential</w>
l ack</w>
ab il
u ti
show s</w>
me t</w>
acc ep
b ul
simil ar</w>
be ha
s cre
am ent</w>
li ves</w>
re form</w>
stand ard</w>
stand ards</w>
sur face</w>
I n</w>
t un
concer n</w>
aut om
it arian</w>
gre ater</w>
gi c</w>
sh o
grow ing</w>
Ju ly</w>
f ru
ar ms</w>
ans wer</w>
s ource</w>
mo tion</w>
ob serv
wh ose</w>
sec tor</w>
de ep</w>
u an</w>
car ried</w>
de gre
c anc
Ch ar
L ord</w>
f requ
fir m</w>
do w</w>
ri t</w>
ell ing</w>
P al
x im
Off ice</w>
O b
ann oun
f all
ain able</w>
th ank</w>
K ore
et ings</w>
gh ter</w>
pur pose</w>
bl ack</w>
under standing</w>
o x
recomm end
l er</w>
h ot
agre ed</w>
f low</w>
shi ps</w>
exerc ise</w>
or gan
r an</w>
ca used</w>
ci v
j us
cris is</w>
opportun ity</w>
1 9</w>
acti vity</w>
gre at
crimin al</w>
si ze</w>
boo ks</w>
respon se</w>
p ped</w>
v ement</w>
t led</w>
U. S.</w>
cl ass
ear th</w>
2 4</w>
cl aim
cont ent</w>
requ est</w>
em ed</w>
ren ces</w>
er ve</w>
4 0</w>
r ich</w>
ag ricul
strat e
sal es</w>
c o</w>
des p
e ding</w>
sy n
k new</w>
y ed</w>
a i</w>
al ia</w>
fin al</w>
s olution</w>
stu dies</w>
join t</w>
ent er</w>
cir cum
la un
S ept
in surance</w>
tr ou
tri c</w>
al one</w>
depart ments</w>
stit ute</w>
establ ishment</w>
beha vi
p un
ve hic
wa it</w>
Sept ember</w>
fri end
stat ement</w>
re duce</w>
lim ited</w>
Isra el</w>
ar m</w>
stoc k</w>
fer red</w>
or ation</w>
fi f
achi eve</w>
a verage</w>
ac her</w>
mechan ism</w>
sh or
s l
establ ish</w>
invol ved</w>
ci tiz
con ven
g res
dis ease</w>
cal cul
in side</w>
sh ap
le y</w>
al ing</w>
c e
ir man</w>
at ures</w>
sc ale</w>
sig n</w>
ti t
ph ot
S C
D is
pro gram</w>
E ast</w>
amp ;</w>
& amp;</w>
ad ded</w>
rang e</w>
h our</w>
i tion</w>
vie w
is sion</w>
un it</w>
increas ing</w>
spe ed</w>
u r</w>
guar an
200 8</w>
comp on
1 8
im age</w>
R o
ch apter</w>
rec ord</w>
influ ence</w>
Ar ticle</w>
represent ative</w>
i m</w>
chec k</w>
t ained</w>
th inking</w>
uc k</w>
vie ws</w>
ar ies</w>
f ish</w>
bud get</w>
W e
foc us</w>
th an
-- --
st ability</w>
mi gr
con om
ograp h
C entral</w>
r ac
att emp
E conom
re ported</w>
princi ples</w>
is ing</w>
h om
writ ten</w>
ther n</w>
h ot</w>
S e
ex ten
diffic ul
cer tain
rec ently</w>
dou b
hi stor
b s</w>
r ise</w>
A p
ec ts</w>
Mar ch</w>
offic ial</w>
bre ak</w>
pe ac
teach ing</w>
t ren
in str
em phas
Pro gram
it h</w>
ex tr
B ank</w>
sig ned</w>
wr ong</w>
3 .
p ain</w>
read ing</w>
t own</w>
compreh ensive</w>
over all</w>
me etings</w>
en e</w>
E l
govern ments</w>
ot h</w>
h aps</w>
min utes</w>
leg isl
t ext</w>
cer ti
su ff
lin es</w>
ist an</w>
quick ly</w>
l ess
ad ver
in spec
y ester
ear li
beg inning</w>
ec h</w>
mach ine</w>
bo dies</w>
2 .
wr ite</w>
s ev
H ar
al ities</w>
sy m
streng th</w>
er ous</w>
commer cial</w>
st ood</w>
chang ed</w>
ag enda</w>
as ed</w>
mul t
ap preci
r ates</w>
c el
concer ning</w>
e th</w>
k er</w>
condi tion</w>
prev ent</w>
2 2</w>
Sh ang
strat egy</w>
norm al</w>
mar k</w>
6 .
streng th
contro l
bel ow</w>
op in
pur ch
conclu sion</w>
ph one</w>
al og
sty le</w>
aliz e</w>
discus sed</w>
re ached</w>
t ations</w>
commun ication</w>
bal ance</w>
enjo y</w>
tu al</w>
pro t
ffe red</w>
thr ough
ne y</w>
b ers</w>
op e</w>
hos p
j our
Afric an</w>
k y</w>
eng ine
Oc to
mo di
1 00</w>
ro r</w>
approv al</w>
yester day</w>
sh e
dow n
199 2</w>
avo id</w>
n ation
af ter
streng then</w>
n ic</w>
M ic
Octo ber</w>
el se</w>
effor t</w>
l ad
te acher</w>
g old</w>
dru g</w>
form ul
t op
po ver
tri ed</w>
vo ice</w>
reg ular</w>
con v
mo ved</w>
h us
ord ination</w>
gre en</w>
dem on
ari at</w>
m us
distribu tion</w>
A pri
pati ents</w>
n or</w>
per haps</w>
Apri l</w>
vi a</w>
regi ons</w>
ev idence</w>
abl es</w>
present ed</w>
confl ict</w>
issu ed</w>
c ard</w>
re v
desig ned</w>
du res</w>
un its</w>
th es
emplo ye
Shang hai</w>
trans fer</w>
rem ain</w>
ac ks</w>
scho ols</w>
scienti fic</w>
g one</w>
presid ent</w>
main ly</w>
ent y</w>
Nor th</w>
do cu
docu ment</w>
t ask</w>
run ning</w>
prob ably</w>
2 3</w>
see m</w>
T ai
la u
characteris tics</w>
b at
li z
wal k</w>
prov ision</w>
w il
v ill
pres s</w>
s .</w>
F ren
me dic
weap ons</w>
ess ential</w>
pre pa
ne igh
ou d</w>
pat ter
ess es</w>
prot ect</w>
reli gi
appl ied</w>
w ind</w>
as si
buil t</w>
se as
enc ed</w>
s even</w>
we ight</w>
Bo ard</w>
oun ded</w>
writ ing</w>
he al
human itarian</w>
spi rit</w>
Indi a</w>
cri me</w>
200 7</w>
ru le</w>
phys ical</w>
ex port</w>
ste ps</w>
ad ju
heav y</w>
3 1</w>
min e</w>
N e
an ese</w>
co ordin
ser ies</w>
lead ing</w>
wee ks</w>
su n</w>
ant i</w>
e an</w>
poin ted</w>
or row</w>
I N
saf e</w>
doc uments</w>
st ation</w>
Program me</w>
c ement</w>
m ist
ci ties</w>
tis h</w>
s li
industri al</w>
ch ance</w>
ac cid
ec ting</w>
sec re
ta x
func tions</w>
4 8</w>
ag ement</w>
s end</w>
Y or
los s</w>
li qu
professi onal</w>
tr ust</w>
go al</w>
gi ving</w>
st o
appl ic
M ember</w>
F un
dam age</w>
ame work</w>
No v
de ad</w>
temper ature</w>
f ell</w>
my self</w>
Jan uary</w>
anc y</w>
success ful</w>
s mil
b ase</w>
appl ications</w>
stu died</w>
sec on
facil ities</w>
effici ency</w>
pl ant</w>
C an
es day</w>
ri es</w>
re ach</w>
proce dures</w>
lead ers</w>
gu id
st ly</w>
I f</w>
ob lig
res ol
4 .
Joh n</w>
H u
plac es</w>
trav el</w>
su d
as tic</w>
ven ess</w>
play ed</w>
pover ty</w>
it ems</w>
tom orrow</w>
prepa red</w>
sle ep</w>
pre vious</w>
in j
fun d</w>
may be</w>
loo ks</w>
prac tic
C entre</w>
lar s</w>
um p</w>
L on
W e</w>
C u
tur ing</w>
show ed</w>
ati vely</w>
ur ban</w>
through out</w>
go es</w>
bre ak
chall eng
6 0</w>
sub stan
an ci
tran si
C our
Fren ch</w>
t ree</w>
immedi ately</w>
bor n</w>
m os
r ural</w>
sust ainable</w>
s .
s un
ro l
sp ir
po st
di e</w>
prov iding</w>
D P</w>
. .</w>
ste red</w>
mid dle</w>
g ust</w>
ach es</w>
ha ir</w>
cl in
monit oring</w>
ti v
e .
deb t</w>
con sequ
com for
ter r
lo ad</w>
ann ual</w>
d au
acc ept</w>
wat ch</w>
oo t</w>
Par ty</w>
C ar
re fu
main tain</w>
wel come</w>
el ess</w>
curren tly</w>
oc cur
au ght</w>
includ ed</w>
l ay
com par
li es</w>
ic ity</w>
Yor k</w>
em ic</w>
prac tical</w>
cont act</w>
l am
te red</w>
m a</w>
di ag
Govern ments</w>
tr aff
a ur
conf idence</w>
co de</w>
traff ic</w>
expres sed</w>
invest ors</w>
G e
ne arly</w>
diffe rence</w>
ac qu
pri mary</w>
is tic</w>
O R
f arm
b es
ev ent</w>
mat ters</w>
sp ok
os is</w>
ne g
ad s</w>
con struc
op ening</w>
feel ing</w>
earli er</w>
1 5
al g
acc ur
cre ated</w>
ten ance</w>
fil m</w>
reas ons</w>
w all</w>
ail y</w>
sum mer</w>
civ il
inter nal</w>
connec tion</w>
s low
se emed</w>
m ent
im ag
process ing</w>
200 6</w>
competi tion</w>
bro ad
is n</w>
a x
c row
chi ef</w>
pro duce</w>
l and
M e
ri age</w>
w in</w>
pre dic
b on
re pe
pec ts</w>
s am
ak es</w>
cent ury</w>
sk in</w>
in nov
custom ers</w>
Bri tish</w>
P R
enh ance</w>
Lon don</w>
no ted</w>
col or</w>
bu t
be y
Olymp ic</w>
tr ain</w>
Econom ic</w>
bo x</w>
ver sion</w>
z h
loc ation</w>
eth nic</w>
ey e</w>
any one</w>
desp ite</w>
C or
mon y</w>
circum stances</w>
pol lu
p ass</w>
h it</w>
benef it</w>
w aste</w>
we ather</w>
ep tion</w>
he at</w>
pop ular</w>
u als</w>
w an</w>
mo vi
bey ond</w>
u ate</w>
actu al</w>
ter nal</w>
iz ing</w>
recei ve</w>
reas on
set tl
orig inal</w>
approv ed</w>
Nov ember</w>
al ist</w>
fr amework</w>
om s</w>
dec isions</w>
o ther
sear ch</w>
2 7</w>
st ates</w>
re p
an ding</w>
sim ply</w>
ad d</w>
cle an</w>
clos ed</w>
comple x</w>
auth ority</w>
pres sion</w>
cho ose</w>
fe ar</w>
aff ected</w>
F in
T he
wor ked</w>
degre e</w>
sp o
sch em
tru th</w>
A N
c ru
t on
Inter net</w>
sor ry</w>
2 6</w>
st ress</w>
meas u
k ept</w>
T V</w>
ad equ
conduc t</w>
represent atives</w>
wor th</w>
w ood</w>
k en</w>
dy nam
P h
cont ext</w>
fl u
Au gust</w>
al ter
gi ves</w>
fiel ds</w>
us ers</w>
ti al</w>
g on
re ference</w>
s ent
pass ed</w>
tal king</w>
exper im
benef its</w>
pos es</w>
w ants</w>
particip ation</w>
op tim
chem ical</w>
be t</w>
Ri ghts</w>
n y</w>
mo ving</w>
f em
rem ains</w>
g ri
comp ared</w>
direc tion</w>
comp ens
ar ch
p sy
fo ot
ev ents</w>
g ol
clear ly</w>
ni a</w>
lar gest</w>
improv ed</w>
ech n
doc tor</w>
pl aying</w>
Au str
ex plo
So cial</w>
u t</w>
s ell</w>
typ es</w>
inter pre
dol lars</w>
ver se</w>
s ave</w>
conc ept</w>
inde ed</w>
de tec
free dom</w>
piec e</w>
gener ally</w>
p il
us er</w>
fun dam
str ong
istr y</w>
sh own</w>
ou se
dar k</w>
hus band</w>
viol ence</w>
a ud
qu ali
do g</w>
I m
ul ations</w>
man ent</w>
colle ge</w>
y uan</w>
charac ter</w>
stud ent</w>
2 8</w>
ri st
pay ment</w>
op h
eas ily</w>
impl ement</w>
A T
sh op</w>
A f
con cl
dri ve</w>
n ership</w>
op ened</w>
b ac
un d
meas ure</w>
cho ice</w>
ag ree</w>
exam ination</w>
str ict</w>
sub mitted</w>
sk ills</w>
ag ency</w>
V i
si ght</w>
ig n
so ft</w>
st atis
min im
allow ed</w>
Pal est
surve y</w>
i um</w>
mic ro
coun t</w>
sid es</w>
win dow</w>
pre t
i e</w>
al ism</w>
ide as</w>
conc entr
Ira q</w>
vis ory</w>
er t</w>
lit er
f as
Fe der
i ons</w>
requ ire</w>
enti re</w>
alog ue</w>
qu anti
equ al</w>
as sets</w>
lar ation</w>
dre am</w>
recommend ations</w>
z y</w>
ur ities</w>
opportun ities</w>
f ile</w>
n it
pri ority</w>
Jap anese</w>
vi de
co ordination</w>
em o
dis pu
H uman</w>
on line</w>
fam il
man ner</w>
beg in</w>
sp end</w>
fe et</w>
A R
g row</w>
P u
fig ure</w>
lo g
ori th
in cid
Pro v
bl ue</w>
hu ge</w>
exc ept</w>
as pects</w>
n t</w>
os s</w>
st ore</w>
emer gency</w>
19 7
co oper
facil it
bab y</w>
str ang
call s</w>
as n</w>
inst all
de pos
j ob
Fun d</w>
mor t
ei ght</w>
cor respon
refu ge
enti oned</w>
Serv ice</w>
m ir
advant age</w>
stre et</w>
ste el</w>
is s</w>
sur vi
happ ened</w>
gon na</w>
loc ated</w>
fail ure</w>
p ack
main tenance</w>
exper ts</w>
h um
it es</w>
org an</w>
T er
appe ar</w>
proc ed
tar get</w>
f ying</w>
ai g
fac tory</w>
ch ers</w>
fi xed</w>
er a</w>
I T
ar r
us eful</w>
h ood</w>
perf ect</w>
un to</w>
form al</w>
terr or
bu s</w>
t our
sh ar
cas h</w>
regi stration</w>
fam ous</w>
f air</w>
determin ed</w>
abil ities</w>
includ es</w>
r ying</w>
st one</w>
elec tion</w>
commit tee</w>
sp ent</w>
200 5</w>
E C
i ve</w>
Uni on</w>
g ent
discus sion</w>
compe t
ob ject</w>
individ uals</w>
har d
dra w</w>
n on
en g</w>
su ffici
spe ech</w>
d ates</w>
br ain</w>
regar ding</w>
on er</w>
ess or</w>
el im
con ference</w>
vol un
demon str
l ose</w>
is on</w>
r ain</w>
flo or</w>
re stric
and a</w>
olo gies</w>
res ource</w>
lim it</w>
O N
mess age</w>
h ouse
row n</w>
et c</w>
to m</w>
clim ate</w>
produc ed</w>
list en</w>
as es</w>
spe aking</w>
ver si
b ing</w>
si bil
intere sted</w>
detail s</w>
con stitu
em y</w>
ti vity</w>
d aily</w>
pres ents</w>
Kore a</w>
s tic
c ross</w>
cre te</w>
tre es</w>
wa iting</w>
p ping</w>
effec tively</w>
consi st
f ound
fi ght</w>
effici ent</w>
as ks</w>
see k</w>
arm ed</w>
ot e</w>
ev ision</w>
manag er</w>
war ds</w>
b un
Cour t</w>
c amp
B e
4 9</w>
promot ing</w>
th es</w>
improv ement</w>
alg orith
comple ted</w>
dr ink</w>
famil ies</w>
n er
high ly</w>
si mul
independ ent</w>
i gh</w>
i el
c ore</w>
fe atures</w>
el ements</w>
C ity</w>
eval uation</w>
g en</w>
we ar</w>
Rus sian</w>
In formation</w>
F ri
aut onom
g ation</w>
sibil ities</w>
Tai wan</w>
pl om
st ern</w>
pic ture</w>
ish es</w>
no on</w>
mem ory</w>
wh at
r aid</w>
anci ent</w>
bro ther</w>
2 9</w>
ra ise</w>
m ass</w>
a head</w>
pow er
mut ual</w>
T echn
exp ect</w>
re pl
appe ared</w>
re ve
ph ase</w>
r out
cont ained</w>
fac tor</w>
ra ised</w>
ac i
adv anced</w>
n ations</w>
du ty</w>
rel ation</w>
adv ice</w>
ens es</w>
for ced</w>
certain ly</w>
D r
H er
our th</w>
gh t
Di rec
S ch
pollu tion</w>
certi fic
assess ment</w>
M a
r ati
citiz ens</w>
in ated</w>
anim als</w>
form ing</w>
tim ate</w>
ach ing</w>
it ors</w>
kin ds</w>
st op
big gest</w>
conduc ted</w>
ri ver</w>
v ac
is ms</w>
al ed</w>
s n
re r</w>
ic ate</w>
trans port</w>
ast ing</w>
mo del
Can ad
go als</w>
sp on
improv ing</w>
m entioned</w>
achiev ed</w>
m aster</w>
in d
descri bed</w>
res h</w>
ep h
S er
follow ed</w>
sol di
dau ghter</w>
1 7
ord ers</w>
au di
investig ation</w>
sk y</w>
jus tice</w>
gl ass</w>
d red</w>
ca uses</w>
br an
sp ring</w>
than ks</w>
m al
be ar</w>
T u
vi ously</w>
wh om</w>
g a
A gre
ev ening</w>
B ar
neigh b
occu p
co al</w>
tow ard</w>
k ers</w>
an tly</w>
li e</w>
pro te
cri tical</w>
val u
d ated</w>
ke ts</w>
Fr ance</w>
arm ament</w>
A b
hi c</w>
st able</w>
mar ried</w>
diag n
dr y</w>
z one</w>
happ iness</w>
n ice</w>
A sian</w>
commit ment</w>
dou ble</w>
I D
mo vement</w>
se as</w>
clo thes</w>
Wh at</w>
at eral</w>
pre vention</w>
c ell</w>
all s</w>
heal thy</w>
5 .
por ary</w>
at trac
or ds</w>
no tice</w>
re turned</w>
e br
un less</w>
sc ope</w>
war m</w>
hol ding</w>
quar ters</w>
job s</w>
Cha irman</w>
ti veness</w>
discus s</w>
trou ble</w>
reli ef</w>
dest ro
att ack</w>
lat est</w>
coll ec
publ ished</w>
b ly</w>
en ge</w>
inf ra
k illed</w>
custom er</w>
r ace</w>
psy ch
inspec tion</w>
hun dred</w>
ow ned</w>
ad ap
sec ret
pro per</w>
c ells</w>
Con gress</w>
teach ers</w>
gir ls</w>
complet ely</w>
su s</w>
y n
for tun
vot e</w>
exc ell
Secret ariat</w>
par ame
am p</w>
m outh</w>
contribu tions</w>
ex ternal</w>
ar ity</w>
cent er</w>
so il</w>
fundam ental</w>
camp aig
ur g
di plom
de plo
or ial</w>
S te
thes is</w>
arrang ements</w>
Ex ecu
e u
oc cas
bus in
cat eg
opin ion</w>
we b
mean ing</w>
af raid</w>
con fir
negoti ations</w>
cr aft</w>
medi um</w>
determin ation</w>
4 5</w>
territ ory</w>
g ate</w>
sol id
rap id</w>
rec o
trad ing</w>
Fe br
fa ult</w>
s cri
gener ation</w>
f are</w>
elec tric</w>
gu n</w>
dis ci
Rus sia</w>
proced ure</w>
val ues</w>
wee k
rel ating</w>
Febr uary</w>
y e</w>
Ch rist
propos al</w>
F ore
sig n
dro p</w>
t aining</w>
integr ation</w>
mar riage</w>
P ri
s ports</w>
S un
cl aim</w>
pl at
ver i
W est</w>
jo in</w>
requ ests</w>
c ro
E R
in ing</w>
consum ption</w>
f ill</w>
resear chers</w>
sup ported</w>
cou ple</w>
org ans</w>
c ot
pl ants</w>
aff airs</w>
employe es</w>
anim al</w>
b a
seas on</w>
encour age</w>
we stern</w>
A m
oper ating</w>
concer ns</w>
pe o
s ale</w>
res olutions</w>
sen si
spe ak
as p
lear ned</w>
challeng es</w>
p age</w>
i ang</w>
Ge or
Re g
t ains</w>
cap e</w>
l eng
chang ing</w>
tic ally</w>
ob tained</w>
ser ver</w>
du le</w>
Com mun
s pl
e ous</w>
se x</w>
w av
Execu tive</w>
s ort</w>
ph en
requi res</w>
str ai
know s</w>
requ ested</w>
new sp
agricul tural</w>
reduc tion</w>
f illed</w>
sp read</w>
ay ed</w>
hous ing</w>
strength ening</w>
ext rem
tel evision</w>
neg ative</w>
I tal
ain t</w>
t in
im e</w>
E N
pr a
Sy stem</w>
fi gu
ab or
is es</w>
alter n
peac eful</w>
for get</w>
B rit
aff ect</w>
ar gu
canc er</w>
set ting</w>
Agre ement</w>
i ously</w>
auth or</w>
enti tled</w>
contribu tion</w>
can di
con serv
in ate</w>
adequ ate</w>
200 4</w>
po int
3 5</w>
s ex
4 7</w>
agre ements</w>
Serv ices</w>
in ter</w>
ex ac
dis crimin
ro se</w>
sec urities</w>
hi bi
dev ice</w>
w est</w>
ear th
an e</w>
fo rest</w>
d es</w>
objec tives</w>
c ouldn</w>
plan e</w>
ass ist</w>
thous and</w>
s ources</w>
difficul ties</w>
becom es</w>
c ut
num bers</w>
trans l
techn ologies</w>
techni que</w>
thous ands</w>
m el
y er</w>
tur ns</w>
prepar ation</w>
sit es</w>
man date</w>
l ay</w>
i ble</w>
we alth</w>
tur ning</w>
1 ,
legisl ation</w>
sen ior</w>
vide o</w>
uni que</w>
si t</w>
di alogue</w>
tri p</w>
tri bu
hy dro
j e
cel ebr
r s</w>
con crete</w>
end it
care er</w>
i ther</w>
ap ers</w>
gr ade</w>
d ress</w>
S A
tit ude</w>
announ ced</w>
b on</w>
pro motion</w>
direc tor</w>
clin ical</w>
electr onic</w>
hot el</w>
s at
ac ad
rest aur
determin e</w>
su me</w>
aff ir
mult i</w>
propos als</w>
regi stered</w>
bit r
wid ely</w>
sol ve</w>
movi e</w>
ad es</w>
f resh</w>
g ain</w>
engine ering</w>
dec ide</w>
ag ue</w>
p ace</w>
int el
Palest in
vis ed</w>
m ail</w>
hol id
T his</w>
m as</w>
b es</w>
ic ip
conven i
mat ch</w>
Americ ans</w>
Man agement</w>
c ast</w>
ce re
a ren
chall enge</w>
tren d</w>
what ever</w>
scienti sts</w>
proper ties</w>
fl ex
increas ingly</w>
or ities</w>
e k</w>
M id
ma xim
ni tion</w>
ben e
sugg es
shap e</w>
12 4
ph il
p on
el ines</w>
jud ic
atic ally</w>
associ ated</w>
commit ted</w>
coun ter
settl ement</w>
tal ks</w>
li ber
han g</w>
n ur
in ks</w>
doub t</w>
0 s</w>
pur poses</w>
o ffered</w>
el ement</w>
Ti bet</w>
din ner</w>
estim ated</w>
happ en</w>
p ath</w>
Ger many</w>
qu es</w>
Min ister</w>
G ames</w>
whe re
view ed</w>
hel ped</w>
medic ine</w>
uni versity</w>
t al</w>
expres s</w>
offic es</w>
u n</w>
behavi or</w>
hosp ital</w>
t a</w>
con sci
b ill</w>
becom ing</w>
sit u
ing u
te sting</w>
no tes</w>
ell ed</w>
ing ton</w>
Ac tion</w>
speci fied</w>
124 ;</w>
&# 124;</w>
s old</w>
ru p
port ation</w>
B os
l un
Ob ama</w>
eas es</w>
ab road</w>
coll ection</w>
en ni
bot tom</w>
er r
ud ed</w>
He alth</w>
li ved</w>
mo re
oo d
il li
ent h</w>
particip ate</w>
pres cri
flow ers</w>
organiz ed</w>
Administr ation</w>
super vision</w>
star ting</w>
ordin ary</w>
sec u
other wise</w>
1 6
s ens
Bu t</w>
. The</w>
ris ing</w>
lab our</w>
gr y</w>
th ou</w>
C l
exp endit
pre p
deli very</w>
is land</w>
s low</w>
intel lig
di men
si r</w>
reason able</w>
ti red</w>
den ly</w>
st er
re alize</w>
UN DP</w>
ing ing</w>
pret ty</w>
fu el</w>
corpor ate</w>
p ac
H ol
add ressed</w>
fav or
algorith m</w>
D ay</w>
w illing</w>
qu ake</w>
we ak
sel ling</w>
en able</w>
ti l
arti cles</w>
A g
z ing</w>
tw enty</w>
com mod
t ol
offic ers</w>
is ation</w>
g er
m ol
car s</w>
sud denly</w>
ac ting</w>
dru gs</w>
expres sion</w>
aw are</w>
y l
u ment</w>
maj ority</w>
ent ation</w>
democr atic</w>
o red</w>
contribu te</w>
S um
0 .
W est
in t</w>
S ci
us ual</w>
gr and
f it</w>
Fore ign</w>
ess ed</w>
pl ays</w>
ve re
ti n</w>
St re
id ity</w>
D em
clos ely</w>
after noon</w>
religi ous</w>
Mon day</w>
suffici ent</w>
see ing</w>
adv ance</w>
fin ance</w>
believ ed</w>
E ar
Y ear</w>
Af gh
correc t</w>
s anc
promis e</w>
it or</w>
avi d</w>
gr at
f oot</w>
dat ab
reduc ed</w>
ag ent</w>
pres ence</w>
br ary</w>
li ons</w>
por tion</w>
il legal</w>
separ ate</w>
per manent</w>
o l</w>
compens ation</w>
y ou
b order</w>
t an
li ghts</w>
analy zed</w>
Con tro
cle an
ye ah</w>
secre t</w>
ch r
sm all
guaran tee</w>
recogn ized</w>
r ain
As soci
con ver
M ac
lead ership</w>
ve get
Com p
fas hi
z er
g yp
ne ither</w>
mo de</w>
won der
ad ed</w>
lin ed</w>
S T
f ing
Min istry</w>
we red</w>
s at</w>
for d</w>
dist ance</w>
T re
T ur
on ing</w>
fi gh
gr av
st ar</w>
e en</w>
dis aster</w>
l ands</w>
thre at</w>
fic ial</w>
pos ite</w>
win ter</w>
te a</w>
re ality</w>
su itable</w>
dynam ic</w>
g n
b ile</w>
te es</w>
accep ted</w>
beau ty</w>
5 00</w>
re mar
no ise</w>
tu red</w>
ast ern</w>
accoun ting</w>
vari ety</w>
re al
fail ed</w>
high est</w>
am bi
prov in
sist er</w>
l ar</w>
appe ar
patter n</w>
sugg ested</w>
ph ere</w>
fem ale</w>
id ent</w>
om en
he re
A ff
exp ec
s ons</w>
cir cul
S up
sp r
h ost</w>
roc k</w>
econom ies</w>
el er
bri dge</w>
refuge es</w>
buil dings</w>
uni vers
excell ent</w>
b ought</w>
develop ments</w>
rel atively</w>
c k</w>
bro ken</w>
accid ent</w>
鈥 檚</w>
leav es</w>
leav ing</w>
r o</w>
fac es</w>
power ful</w>
re ven
f ly</w>
educ ational</w>
exc e
ent ered</w>
a wa
appe ars</w>
id ly</w>
ed ge</w>
T om</w>
T H
democr acy</w>
k ill</w>
found ation</w>
execu tive</w>
th or
resid ents</w>
D avid</w>
p al
more over</w>
implement ed</w>
n one</w>
al ty</w>
lat eral</w>
8 0</w>
T e
Austr alia</w>
mis sions</w>
sp ending</w>
pol y
M y</w>
um n</w>
fin ished</w>
sha res</w>
aim ed</w>
jec ted</w>
initi al</w>
app ed</w>
dri ving</w>
l ying</w>
sh ot</w>
back ground</w>
ffe e</w>
Brit ain</w>
pass eng
200 0</w>
ext ent</w>
friend ly</w>
adju st
Wh en</w>
ap point
res erv
ac ted</w>
as sist
ab sor
cha m
w ine</w>
3 2</w>
E gyp
lead er</w>
diffe rences</w>
min ute</w>
sub mit</w>
disci pl
wor l
f light</w>
dang erous</w>
gu ard</w>
7 .
struc tures</w>
oun ding</w>
g ames</w>
sou l</w>
w asn</w>
C hi
ic ts</w>
im port</w>
es man</w>
S at
on y</w>
3 3</w>
L eg
ste ad
su it</w>
out put</w>
ar bitr
ma p</w>
compet ent</w>
sig nal</w>
M ed
Stre et</w>
bro ad</w>
oblig ations</w>
e ating</w>
exp an
car rying</w>
thre at
s per
f ourth</w>
ac compl
tr act</w>
schem e</w>
M I
prof it</w>
ab sol
her self</w>
lab or</w>
publ ic
dig ital</w>
aci fic</w>
ar ily</w>
oper ational</w>
fr on
great ly</w>
sol id</w>
ther ap
tou ch</w>
199 1</w>
for cement</w>
b oss</w>
w ouldn</w>
B er
integr ated</w>
acti vely</w>
hand le</w>
fic ations</w>
strate gic</w>
gu y</w>
extrem ely</w>
bo at</w>
respon sibilities</w>
b right</w>
fin ancing</w>
cont ains</w>
re au</w>
spec ies</w>
mo bile</w>
deleg ations</w>
te sts</w>
gar den</w>
quar ter</w>
be half</w>
oc k</w>
f le
H igh</w>
ur ation</w>
Tr ade</w>
ut ri
nam es</w>
inde x</w>
strate gies</w>
peo ples</w>
7 0</w>
z e
continu es</w>
pati ent</w>
infl ation</w>
is c
sur pris
compon ent</w>
radi o</w>
and ed</w>
con vers
v ent
s outh</w>
histor ical</w>
autonom ous</w>
indic ated</w>
n ar
ok ay</w>
at mos
as sum
over seas</w>
b its</w>
for th</w>
phen omen
hol ds</w>
c lock</w>
ri c</w>
vehic le</w>
i ans</w>
mis s</w>
b ar</w>
curren cy</w>
J es
techn ological</w>
ra il
lo ved</w>
y st
ap pointed</w>
E duc
arri ved</w>
fe rences</w>
shor t
b ol
lar ger</w>
li sted</w>
W ash
fac ing</w>
P acific</w>
pl e
3 6</w>
ar my</w>
cop y</w>
adop t</w>
Fri day</w>
detail ed</w>
mechan isms</w>
pl ate</w>
p ick</w>
j ur
re gre
M al
s wit
eph one</w>
marke ting</w>
dol lar</w>
R ev
exist ence</w>
vill age</w>
vehic les</w>
ter ri
West ern</w>
des ire</w>
le ts</w>
co ffee</w>
mean while</w>
ha ven</w>
practic es</w>
dis eases</w>
v el
prep are</w>
expl ain</w>
sh oul
rele ase</w>
Christ mas</w>
C ap
bir th</w>
P re
o ts</w>
ch ur
y ment</w>
s ac
sit ting</w>
Canad a</w>
sh op
pres sed</w>
I II</w>
exac tly</w>
c aught</w>
attemp t</w>
Z h
W om
R ec
F or</w>
sp ot</w>
acc eler
t y
A C
t ool</w>
cre ation</w>
an a</w>
st ated</w>
expl ore</w>
defin ed</w>
leng th</w>
coun ter</w>
gu ide</w>
stitu tion</w>
grad ually</w>
y iel
tr ack</w>
g ment</w>
fu n</w>
bus y</w>
v olu
Dec laration</w>
8 .
V al
ob tain</w>
ev ent
fru it</w>
k il
reco very</w>
ad ing</w>
M ission</w>
Direc tor</w>
ex ist</w>
to ols</w>
tro ops</w>
ill u
et ary</w>
Pu blic</w>
mun icip
le gi
Char ter</w>
consul tations</w>
investig ate</w>
c oo
ain ts</w>
so vere
tion ary</w>
plan ned</w>
succ e
techni ques</w>
par k</w>
facilit ate</w>
ong s</w>
y outh</w>
Wash ington</w>
v oc
re ferred</w>
trans portation</w>
fac tion</w>
B ush</w>
200 9</w>
r ul
signific ance</w>
0 ,000</w>
strai ght</w>
model s</w>
bl ed</w>
los ses</w>
compon ents</w>
w are</w>
pri or</w>
b ound</w>
br and</w>
T ri
ro b
N o</w>
d ont</w>
b om
min ing</w>
dow s</w>
ver ing</w>
sti mul
ro te</w>
process es</w>
ec ture</w>
off ers</w>
H is</w>
g ot
advant ages</w>
2 00</w>
M us
Ro ad</w>
intere sting</w>
el f</w>
dist inc
ograph y</w>
met al</w>
cr iter
H ouse</w>
f al
es sions</w>
t ary</w>
hur t</w>
200 3</w>
4 6</w>
re d
l aid</w>
ch an
air craft</w>
z z
care fully</w>
per form</w>
experi ment</w>
e tic</w>
hol ders</w>
Aff airs</w>
ti le</w>
deb ate</w>
der i
infra structure</w>
b loc
scre en</w>
I V</w>
t asks</w>
Mid dle</w>
wal ked</w>
m as
manufac turing</w>
smil e</w>
recomm ended</w>
m ur
jud ge</w>
Th at</w>
rem ained</w>
fin ding</w>
hibi tion</w>
spec tive</w>
campaig n</w>
fo rec
A S
elec tro
consum er</w>
ush ed</w>
stre am</w>
zh ou</w>
n ine</w>
Palestin ian</w>
ha m
web site</w>
P ak
ir on</w>
car bon</w>
S ing
l or
c ra
stat ements</w>
Sun day</w>
ris ks</w>
mil k</w>
sur g
en emy</w>
In stitute</w>
bil ateral</w>
l ink</w>
ag er</w>
w rote</w>
ur s
purch ase</w>
pl i
stop ped</w>
te en</w>
prin cip
k ids</w>
th ly</w>
D es
R w
pos s
ell ec
w ear
ti fication</w>
produc tive</w>
wor ry</w>
E m
stor age</w>
pl us</w>
transi tion</w>
L i</w>
follow s</w>
ter y</w>
re sistance</w>
a x</w>
ac id</w>
hel ps</w>
tel ephone</w>
draw n</w>
claim s</w>
extr a</w>
c ros
statis tics</w>
Regi on</w>
pro mp
lo ts</w>
instr uments</w>
fam ili
cat ch</w>
m al</w>
ass es</w>
9 .
prov ed</w>
respec tive</w>
sus p
Jes us</w>
slow ly</w>
mo on</w>
abl ed</w>
recog nition</w>
in struc
comb ined</w>
du ties</w>
sev ere</w>
En viron
S en
min ist
fun ding</w>
ic ated</w>
ne x</w>
figu res</w>
accoun ts</w>
Tr ans
Ger man</w>
n utri
datab ase</w>
volu me</w>
pu t
rele ased</w>
en try</w>
identi fy</w>
M c
in sul
fur ther
w ave</w>
part ner</w>
U N</w>
effec tiveness</w>
ap ar
3 8</w>
P o
re in
li f
appear ance</w>
Dem ocr
se at</w>
hol e</w>
de ep
O R</w>
identi fied</w>
soldi ers</w>
ou ghts</w>
nam ed</w>
Engl and</w>
correspon ding</w>
we ak</w>
situ ations</w>
no tic
hor se</w>
adop tion</w>
immedi ate</w>
moun tain</w>
S tr
M i
head s</w>
confl icts</w>
part ners</w>
hous es</w>
Wom en</w>
per c
der ly</w>
m ale</w>
Tre at
tri al</w>
mag ne
C am
Associ ation</w>
dis armament</w>
b le
H K
3 4</w>
f air
k no
L OR
Administr ative</w>
el low</w>
ans wered</w>
allow s</w>
fir ms</w>
migr ation</w>
ke t
ti ous</w>
rec ords</w>
inst ance</w>
equ ality</w>
c entre</w>
play ers</w>
R ob
R E
exp ensive</w>
bir d</w>
arch it
great est</w>
consum ers</w>
9 0</w>
ag gres
ren ess</w>
er ror</w>
d ance</w>
im possible</w>
ash ed</w>
al t</w>
s olutions</w>
coun ty</w>
nor th</w>
for ty</w>
ast ers</w>
diffe ren
control led</w>
por ters</w>
the ore
eng ine</w>
respec tively</w>
cy cle</w>
har mon
pu ts</w>
3 7</w>
Contro l</w>
ug gl
S ha
b ound
min ister</w>
frequ ency</w>
res sing</w>
sugg est</w>
multi ple</w>
continu ing</w>
cl assi
rel ative</w>
at titude</w>
qu ick</w>
fa ith</w>
cre ating</w>
Tu esday</w>
uti liz
pr e</w>
B ur
sc ene</w>
refl ect</w>
se l</w>
man age</w>
com man
particip ants</w>
figh ting</w>
ad ly</w>
Ear th</w>
ton ight</w>
eng aged</w>
O N</w>
program s</w>
Ch r
l em
interpre tation</w>
me at</w>
li fer
un able</w>
Techn ology</w>
war ning</w>
y a</w>
ul ts</w>
j un
sub si
No .</w>
judic ial</w>
con solid
appe al</w>
t ex
posi tions</w>
feel ings</w>
wal king</w>
bes ides</w>
SC O</w>
vic tim
expan sion</w>
the e</w>
swe et</w>
plac ement</w>
wat ching</w>
are n</w>
dis play</w>
LOR D</w>
recei ving</w>
5 1</w>
al leg
con sen
phil os
e ply</w>
F i
reg ulation</w>
wat er
de aling</w>
commun ications</w>
v ul
Wor king</w>
be aring</w>
th ro
des er
u gg
sat ell
Au th
ac tor</w>
pos sibility</w>
ear ch</w>
Or din
M or
4 1</w>
sub sequ
n ings</w>
tran sp
ous ness</w>
draw ing</w>
busin esses</w>
lay er</w>
ati n</w>
ast s</w>
b a</w>
li fe
3 9</w>
f at</w>
w is
por te
tre ated</w>
s cr
acad emic</w>
J er
y ers</w>
th in</w>
def ense</w>
q i</w>
um s</w>
d ding</w>
O p
W ed
O F</w>
doc um
in k
S a
z es</w>
consequ ences</w>
fic i
4 4</w>
con st
equ i
Ad visory</w>
A gency</w>
ti an</w>
objec ts</w>
In du
st ations</w>
bo ys</w>
on ally</w>
ser iously</w>
st ance</w>
rec ru
re rs</w>
dic tion</w>
sur r
G en
rap idly</w>
civil ian</w>
shi p
hop es</w>
S i
I ran</w>
industri es</w>
il ed</w>
ra z
Comp any</w>
every body</w>
P C</w>
B us
inj ury</w>
Isra el
199 7</w>
suff ering</w>
de eply</w>
earth quake</w>
multi lateral</w>
For ce</w>
v it
th oughts</w>
or dered</w>
the tic</w>
a uc
intro duce</w>
speci alized</w>
innov ation</w>
po sts</w>
200 1</w>
jur is
t une</w>
consen sus</w>
jec tion</w>
m ac
re move</w>
it ch
g or
J i
squ are</w>
comb ination</w>
B r
ru b
awa reness</w>
dang er</w>
D istr
cri mes</w>
suppl ies</w>
El ec
g ar</w>
int ellec
valu able</w>
d ness</w>
sec tors</w>
Mr s.</w>
c in
19 6
ti ll</w>
our selves</w>
l uc
maxim um</w>
guid elines</w>
4 2</w>
lo ans</w>
further more</w>
an x
il s</w>
U S
sig ns</w>
re porting</w>
ing dom</w>
appoint ment</w>
under taken</w>
---- ----
h es
ex ic
dis covered</w>
simul ation</w>
ar re
d um
satis faction</w>
ep ing</w>
i bility</w>
R om
small er</w>
sel ected</w>
instr ument</w>
cut ting</w>
X i
Pro f
elec tions</w>
mor al</w>
bir ds</w>
prov ince</w>
prof essor</w>
en sur
bri ef
consul tation</w>
liqu id</w>
Wed n
int ended</w>
U .</w>
is sions</w>
4 3</w>
spo ke</w>
increas es</w>
victim s</w>
fac ed</w>
Y ug
res er
institu tion</w>
in formed</w>
pro sper
won der</w>
os la
employ ed</w>
ic a</w>
M os
Ordin ance</w>
M ain
st ac
inv ited</w>
fin ish</w>
ast y</w>
adver ti
urg ent</w>
iz es</w>
establ ishing</w>
T here</w>
dem ands</w>
c ing</w>
on to</w>
ar g
Yug osla
A s</w>
ir ing</w>
Y our</w>
respon d</w>
consider ing</w>
see king</w>
mis si
laun ched</w>
ow er</w>
viol ation</w>
tre at</w>
desig n
sec ure</w>
Gu ang
it ting</w>
concl uded</w>
B l
de ar</w>
mar ine</w>
dre w</w>
sti pul
requi rement</w>
Sat ur
Re present
M il
care ful</w>
play er</w>
manag ers</w>
comm ents</w>
bl ing</w>
res c
implement ing</w>
exper t</w>
as king</w>
C i
s ong</w>
pris on
as ing</w>
tion ing</w>
k es</w>
am ing</w>
restaur ant</w>
off ering</w>
A ra
bir th
hel ping</w>
199 0</w>
s now</w>
in s
ba g</w>
bro ke</w>
vir tu
independ ence</w>
a rent</w>
b lock</w>
consist ent</w>
cor ner</w>
investig ated</w>
certific ate</w>
Distr ict</w>
Pro tec
Educ ation</w>
car ds</w>
cont ain</w>
sil ver</w>
lifer ation</w>
agricul ture</w>
O ffic
observ ed</w>
en forcement</w>
Wedn esday</w>
Ch il
pleas ed</w>
sensi tive</w>
ext ended</w>
cap able</w>
ha bil
inter view</w>
Sch ool</w>
cul tiv
fe ature</w>
div ided</w>
ed ly</w>
ad or</w>
stan ds</w>
stud ying</w>
ar di
I S
o v
enti onal</w>
re action</w>
fortun ately</w>
eas ier</w>
si x
J e
tem porary</w>
monit or</w>
compl i
at er
A ll</w>
est er</w>
struc tural</w>
ick en</w>
li mit
wil d</w>
tor al</w>
stic k</w>
Bu reau</w>
stan tly</w>
cap it
ser vers</w>
O ne</w>
believ es</w>
characteris tic</w>
fac ts</w>
writ er</w>
C ri
fr ag
comfor table</w>
co l</w>
ap art</w>
minim um</w>
ban king</w>
invol ving</w>
pro p
pl astic</w>
P L
foc used</w>
n ity</w>
atmos phere</w>
ha z
adjust ment</w>
B en
cir cu
Su b
Th urs
mil es</w>
cour ses</w>
Prov ince</w>
sho es</w>
memb ership</w>
al ists</w>
mag az
fall ing</w>
sup ports</w>
am ed</w>
experi enced</w>
ic it</w>
ro ll</w>
parame ters</w>
Afgh an
in ner</w>
famili ar</w>
d ary</w>
wor se</w>
piec es</w>
res ses</w>
si vely</w>
princip al</w>
di ff
offic er</w>
holid ay</w>
ha m</w>
C H
comm and</w>
b ow
r ice</w>
esti val</w>
sch ed
cha in</w>
j um
w w
t end</w>
re new
Ara b</w>
mi d</w>
Ri ver</w>
gi ft</w>
B i
li brary</w>
en ess</w>
ob serve</w>
prescri bed</w>
smo ke</w>
an nex</w>
E F</w>
an ning</w>
Di vision</w>
Afghan istan</w>
M exic
sha red</w>
ph o
o es</w>
Ter rit
serv ed</w>
ement ary</w>
guid ance</w>
dec la
ed y</w>
tour ism</w>
me ant</w>
rec all
ag s</w>
ar k</w>
char ges</w>
claim ed</w>
p as
c ool</w>
lad y</w>
t elling</w>
det ail</w>
o di
hear ing</w>
jo y</w>
ang er</w>
equ ity</w>
h es</w>
gen der</w>
be at</w>
ail ing</w>
exp enses</w>
S om
bu ying</w>
O per
discrimin ation</w>
author ized</w>
dec ades</w>
spok esman</w>
gr ass</w>
Auth ority</w>
event ually</w>
grap h
Thurs day</w>
lo an</w>
t ant</w>
t um
s mar
app ing</w>
qui et</w>
put ting</w>
confir med</w>
pleas ure</w>
at tribu
c ell
foot ball</w>
att ached</w>
Sum mit</w>
ha el</w>
att acks</w>
call ing</w>
farm ers</w>
competi tive</w>
M ad
reduc ing</w>
ang le</w>
T O</w>
sel ection</w>
let ters</w>
bat tle</w>
gu ess</w>
est ate</w>
Bos nia</w>
sup porting</w>
al es</w>
re alized</w>
Res earch</w>
C ro
electr icity</w>
manag ed</w>
ru ption</w>
M ary</w>
mar g
s ick</w>
ot ed</w>
H ow</w>
g age</w>
cru cial</w>
del ay</w>
p ool</w>
tw ice</w>
St ud
Egyp t</w>
ei gh
um in
is s
C o</w>
stoc ks</w>
th i
pop ul
ligh tly</w>
p ush</w>
connec ted</w>
pack age</w>
ol der</w>
f ail</w>
Reg ulations</w>
elec ted</w>
ail s</w>
dec line</w>
achiev ements</w>
join ed</w>
per s</w>
d ens
U K</w>
R el
W here</w>
ti s</w>
Par is</w>
top ic</w>
rec ord
Chi ef</w>
tol er
n om
Olymp ics</w>
y .
re affir
pro of</w>
wonder ful</w>
discus sions</w>
star s</w>
Pe ace</w>
im mun
exp and</w>
to col</w>
newsp aper</w>
I T</w>
or al</w>
We b</w>
a f</w>
experim ental</w>
grow n</w>
te ars</w>
sanc tions</w>
ex clu
B ud
ide al</w>
fe der
con str
W ang</w>
ugg le</w>
part nership</w>
proper ly</w>
hun dre
att end</w>
in ary</w>
dep th</w>
resul ting</w>
d il
c en
sav ings</w>
d .
2 6
id den</w>
b one</w>
f ab
ob vious</w>
Co operation</w>
ex plan
pow ers</w>
sch e
fore ver</w>
tru ly</w>
lar g
Pak istan</w>
im posed</w>
eval uate</w>
fashi on</w>
ograp hic</w>
stor m</w>
w ishes</w>
const ant</w>
gre w</w>
sou thern</w>
e .</w>
plat form</w>
ab oration</w>
dro pped</w>
T im
th u
initi ative</w>
in duc
v ital</w>
be an</w>
ter ing</w>
charac ters</w>
sam ple</w>
fr ame</w>
enni um</w>
initi atives</w>
langu ages</w>
the red</w>
Sing ap
der ing</w>
commun ities</w>
z en</w>
univers al</w>
d ad</w>
trav el
dec ade</w>
p air</w>
recogn ize</w>
diagn osis</w>
measu rement</w>
im ages</w>
mil lions</w>
ex ports</w>
be d
al co
es h</w>
rem ote</w>
t ac
prin t</w>
hand ling</w>
dep ends</w>
sti c</w>
sche dule</w>
continu ous</w>
sha re
e ast</w>
dri ver</w>
t aste</w>
lin ear</w>
L u
pris on</w>
Feder al</w>
appreci ation</w>
y al</w>
weap on</w>
experi ences</w>
at e
di a</w>
terror ism</w>
ul l</w>
viol ations</w>
ar d
syst em
out standing</w>
bi d</w>
deli ber
Ap pl
occur red</w>
ensur ing</w>
Rw anda</w>
gl ad</w>
friend ship</w>
B ro
introduc tion</w>
sc en
clu b</w>
C ul
emer ging</w>
st ret
per formed</w>
jour n
it ely</w>
B el
an gry</w>
go v
Cu stom
re ply</w>
pi ed</w>
Protec tion</w>
strang e</w>
smo king</w>
pre gn
net works</w>
to x
te ams</w>
char ged</w>
class es</w>
ou red</w>
The y</w>
val ent</w>
T A
J ack</w>
ev il</w>
Mic hael</w>
z a</w>
sem in
g y
F ir
repl ied</w>
no body</w>
ow ner</w>
produc ing</w>
o k</w>
O K</w>
indic ate</w>
vir us</w>
W ar</w>
integr ity</w>
de ter
H a
Ira qi</w>
emp ty</w>
ext end</w>
is ol
gen ous</w>
shop ping</w>
Israel i</w>
ro oms</w>
week end</w>
mak ers</w>
relation ships</w>
ir y</w>
chil d
resol ve</w>
consider able</w>
ur ies</w>
5 5</w>
signific antly</w>
Ph il
en tion</w>
air port</w>
C E
trad ition</w>
as er</w>
hundre ds</w>
fe as
A N</w>
Com missi
encour aged</w>
y ellow</w>
r are</w>
th row</w>
J ud
Bus iness</w>
appro xim
sch ol
quanti ty</w>
in put</w>
br inging</w>
re vised</w>
ent ing</w>
a er
pa th
m ly</w>
ten sion</w>
doc tors</w>
dev ices</w>
S ud
happ ens</w>
O M</w>
200 2</w>
sum mar
sav ing</w>
te ach</w>
dom in
fe e</w>
mo bil
ma them
wh en
t rem
Pl an</w>
mist ake</w>
cli ent</w>
Li ber
su e</w>
com position</w>
ic y</w>
habil itation</w>
dist ur
magne tic</w>
str uggle</w>
Wh ite</w>
ir t</w>
reg ime</w>
accur ate</w>
I M
intellec tual</w>
expl os
an k
end or
hi b
emphas is</w>
gr ain</w>
st ro
B raz
7 5</w>
convers ation</w>
criter ia</w>
difficul ty</w>
F OR</w>
st ers</w>
refl ected</w>
C y
w ing</w>
depos it</w>
cr y</w>
lau gh
p oc
har dly</w>
dr am
S chem
mo stly</w>
ut ely</w>
ra ising</w>
min ority</w>
ra w</w>
E U</w>
up per</w>
exam ples</w>
dre ams</w>
li min
altern ative</w>
cere mony</w>
In v
la sting</w>
gu ys</w>
tre as
ans w
de struction</w>
Gre at</w>
pre fer</w>
ri d</w>
3 00</w>
re fer</w>
liter ature</w>
s ounds</w>
bun al</w>
strong ly</w>
chur ch</w>
Indi an</w>
show ing</w>
fil es</w>
secon dary</w>
l a</w>
it i</w>
cha ir</w>
s ought</w>
vul ner
cha irman</w>
philos oph
L ab
li ability</w>
imag ine</w>
v ast</w>
wear ing</w>
sal ary</w>
S ar
br ings</w>
conc ep
re pu
g le</w>
UN O
har m</w>
car ri
stu ff</w>
he y</w>
dis co
coll ap
Commissi oner</w>
op tion</w>
conv inc
sp ac
mar ked</w>
sex ual</w>
au l</w>
lin ked</w>
mechan ical</w>
UN IC
fl at</w>
utiliz ation</w>
ad ding</w>
R ap
H en
bran ch</w>
Un it</w>
frequ ently</w>
trans mission</w>
id ation</w>
typ ical</w>
s car
identi ty</w>
bi a</w>
su red</w>
ul ate</w>
b n</w>
bl es</w>
dispu te</w>
P A</w>
pul l</w>
fif th</w>
treat y</w>
t end
crow d</w>
cour age</w>
dr inking</w>
expl ained</w>
pro liferation</w>
su ffered</w>
b ass
e um</w>
ab s
Satur day</w>
s co
execu tion</w>
min es</w>
enti ally</w>
e ties</w>
manufac tu
gu il
ang e</w>
mo tiv
cli ents</w>
stit utes</w>
satis fied</w>
main taining</w>
2 5
when ever</w>
m ous</w>
collec tive</w>
Feder ation</w>
tr ag
rem aining</w>
B as
sugg ests</w>
acc um
compu ters</w>
introduc es</w>
sched ul
provin ces</w>
rati o</w>
cont ents</w>
cl ick</w>
sp ect</w>
sh ut</w>
op tions</w>
in o</w>
num erous</w>
thir ty</w>
A n</w>
represent ed</w>
os en</w>
defin ition</w>
ab and
og en
occu pied</w>
mot or</w>
substan tial</w>
stor ies</w>
ow ners</w>
re min
di strict</w>
sh aring</w>
gi ble</w>
ac ked</w>
sent ence</w>
i o</w>
ob stac
depend ent</w>
audi ence</w>
grad u
anc ement</w>
c at</w>
fe es</w>
wel com
patter ns</w>
expendit ure</w>
Yugosla via</w>
jour ney</w>
comb at</w>
Represent ative</w>
g ro
commit ments</w>
nov el</w>
il ing</w>
Fir st</w>
v isi
ili ation</w>
K ing</w>
vi br
S ur
b y
lim its</w>
G ol
shar p</w>
an ni
worl d
ak ed</w>
su b</w>
h i</w>
Geor ge</w>
UNIC EF</w>
we b</w>
record ed</w>
sel ect</w>
Pro duc
sugges tions</w>
bac ter
lic ense</w>
ex changes</w>
v an
sw im
fi re
adverti sing</w>
P or
Singap ore</w>
ac tors</w>
cont aining</w>
Ital y</w>
sh el
gr anted</w>
ab use</w>
ud es</w>
welcom ed</w>
olo gi
a str
volun tary</w>
t ment</w>
ad vis
ti tle</w>
knowle d
commod ity</w>
accord ingly</w>
dis h</w>
occu r</w>
cont ain
pic tures</w>
pro spec
re present</w>
ri de</w>
custom s</w>
pen sion</w>
achiev ement</w>
c up</w>
per spective</w>
descri be</w>
reli able</w>
birth day</w>
h a</w>
la g</w>
sal t</w>
s wi
b lo
Re port</w>
sur prise</w>
cont em
s and</w>
j i
on going</w>
dec re
diplom atic</w>
Dr .</w>
y o</w>
B C</w>
al lo
grad uate</w>
por ter</w>
f ts</w>
un k</w>
in qu
poli tics</w>
decla red</w>
mi x
tim ely</w>
lik es</w>
phenomen on</w>
d ust</w>
bri ef</w>
ash ing</w>
success fully</w>
div ision</w>
orig in
mis sing</w>
intellig ence</w>
en or
design ated</w>
pri me</w>
P ost</w>
5 2</w>
conclu sions</w>
am m
per cent
a o
co m</w>
D o</w>
we dding</w>
cr yst
cent res</w>
estim ates</w>
enti ty</w>
PR O
z ation</w>
moder n
pain ting</w>
applic able</w>
es .
under stood</w>
pl as
im pe
flow er</w>
shi ft</w>
protec ted</w>
vis itors</w>
un employment</w>
mit h</w>
adv oc
t age</w>
conserv ation</w>
autom atic</w>
Con stitution</w>
fl ying</w>
achiev ing</w>
re ti
me al</w>
s ad</w>
juris diction</w>
t ative</w>
tic ism</w>
st ressed</w>
big ger</w>
ro ads</w>
appl ying</w>
satell ite</w>
ab ol
at a</w>
pre viously</w>
Treat y</w>
i di
fin ed</w>
L atin</w>
g un
compli ance</w>
re construction</w>
t ings</w>
sup posed</w>
oper ate</w>
ap e</w>
S pan
substan tive</w>
uni on</w>
p aying</w>
fin dings</w>
g ap</w>
hom es</w>
es sive</w>
C R</w>
tic ket</w>
ag ues</w>
pu s</w>
lab or
re presents</w>
wor st</w>
re viewed</w>
chan nel</w>
d a</w>
ac king</w>
su m</w>
s inc
E R</w>
resc ue</w>
bur den</w>
less on</w>
E S</w>
Com mer
sh r
fif ty</w>
di et</w>
hon est</w>
co ol
detec tion</w>
Her ze
pass ing</w>
gov ina</w>
f aster</w>
Herze govina</w>
norm ally</w>
ir s</w>
lat ter</w>
gr ave</w>
be gun</w>
En g
ori ented</w>
cul ar</w>
appreci ate</w>
head ing</w>
wel fare</w>
man i
t ons</w>
i red</w>
suff er</w>
orig in</w>
ro p
house hold</w>
rep air</w>
exam ine</w>
co at</w>
Ti bet
dec ides</w>
transl ation</w>
n ever
modi ties</w>
sh ops</w>
fal se</w>
ten ed</w>
lin ks</w>
lun ch</w>
abs ence</w>
c k
ali ve</w>
Ch ris
th eless</w>
op en
c and
d ay
acqu isi
TH E</w>
ic ing</w>
c ab
an ch
her it
di r
pu ty</w>
asp ect</w>
R A
in ations</w>
clos er</w>
ob viously</w>
accep table</w>
ro ot</w>
deli ver</w>
organ ic</w>
bre ad</w>
ru pt</w>
un t</w>
out come</w>
laun ch</w>
join tly</w>
en de
prof its</w>
sy mp
legi timate</w>
is tics</w>
ari a</w>
a .
ush ing</w>
S he</w>
ex tre
Schem e</w>
ot ing</w>
hop ed</w>
larg ely</w>
inf ection</w>
wis dom</w>
h ome
E d
gg ing</w>
tal ked</w>
ne ur
de dic
comm ission</w>
R ic
fu sion</w>
ou ter</w>
D u
D an
invest ments</w>
favor ite</w>
ac compan
I S</w>
c asting</w>
L t
exc use</w>
p it
ob servers</w>
ough ly</w>
hosp it
exten sion</w>
mo v
prin ting</w>
ign ty</w>
fel low</w>
Har ry</w>
identi fication</w>
c tion</w>
in di
conv entional</w>
beli ef</w>
S am
ef ul
Z e
pe t</w>
contr acts</w>
C enter</w>
p apers</w>
si bly</w>
never theless</w>
w age</w>
dri ven</w>
e di
Le ban
P en
in ding</w>
some body</w>
re habilitation</w>
l o</w>
contr ast</w>
S ou
electr ical</w>
f ishing</w>
vent ure</w>
sk ill</w>
g are
C ali
2 ,
s lightly</w>
w an
ess ing</w>
institu tional</w>
ha bit
new ly</w>
fe ed</w>
om a</w>
Main land</w>
smo oth</w>
regar ded</w>
conveni ent</w>
sovere ignty</w>
enti rely</w>
S al
got ten</w>
acti v
e ing</w>
me rely</w>
list ening</w>
A L
A C</w>
radi ation</w>
pat ent</w>
re l</w>
be red</w>
wat ers</w>
tar gets</w>
k ne
00 ,000</w>
ass embly</w>
in form</w>
Ci vil</w>
Ag enda</w>
estim ate</w>
te sted</w>
re conc
ques tion
appro aches</w>
under take</w>
es cape</w>
sac ri
res erve</w>
pun ishment</w>
re place</w>
T o
C O
wh ol
over come</w>
in ev
s y</w>
dist ingu
ro man
aliz ing</w>
op posite</w>
P an
arrang ement</w>
cap ability</w>
speci fic
re moved</w>
heav en</w>
Mexic o</w>
main tained</w>
exten sive</w>
compl icated</w>
Bu il
su gar</w>
pro portion</w>
w o
in ery</w>
fav our
versi ties</w>
thu si
fe els</w>
M s.</w>
th inks</w>
ul ti
si onal</w>
theore tical</w>
te eth</w>
therap y</w>
do gs</w>
E S
. I</w>
fi es</w>
nec k</w>
ID S</w>
k itch
quali fied</w>
mar ks</w>
p ure</w>
a h
ag ents</w>
ve y</w>
com ment</w>
Kore an</w>
H K</w>
gi ant</w>
j ump</w>
analy sts</w>
en thusi
t ough</w>
stre ets</w>
gr an
sist ant</w>
lead s</w>
ph arm
am az
e able</w>
eng age</w>
in no
circu it</w>
con stantly</w>
mis sed</w>
compar ison</w>
Se a</w>
amoun ts</w>
recommend ation</w>
candi dates</w>
vis ited</w>
sub jects</w>
bl ind</w>
fe ren
cooper ate</w>
bal anced</w>
distribu ted</w>
con grat
pos iti
enc ing</w>
an o</w>
them e</w>
stead y</w>
head quarters</w>
de par
So ci
ex ha
mas sive</w>
mar ry</w>
f arm</w>
cop e</w>
li ft</w>
su peri
contro ls</w>
row s</w>
pos ing</w>
l in</w>
struc k</w>
num er
don es
F ood</w>
calcul ation</w>
K u
elec om
I D</w>
con dem
vic tory</w>
mathem atic
f ish
Cali for
wit n
porte ur</w>
notic ed</w>
g ated</w>
ec ological</w>
In dones
ti fy</w>
j ac
conf ident</w>
spok en</w>
A P
soci alist</w>
she et</w>
bi o
t ab
measu red</w>
los ing</w>
min eral</w>
H el
cl er
n ose</w>
g ross</w>
ent re
strong er</w>
cre ative</w>
val id</w>
tren ds</w>
dec reas
ch osen</w>
w alls</w>
percent age</w>
I s</w>
l on
ow nership</w>
defin itely</w>
Span ish</w>
clo thing</w>
trans formation</w>
eval u
pat ri
on e
h ate</w>
ic als</w>
de fe
E C</w>
flow s</w>
terri ble</w>
ca using</w>
b arri
mi xed</w>
Fin ancial</w>
A ut
Sec tion</w>
coll aboration</w>
un ity</w>
cl ou
deli vered</w>
un fortunately</w>
dar k
protec ting</w>
passeng ers</w>
ev ol
hon or</w>
formul ated</w>
en der</w>
g lo
b low</w>
u sion</w>
yiel d</w>
accur acy</w>
oc ean</w>
cal m</w>
bi ological</w>
M O
ent ary</w>
wat ched</w>
U R
mo m</w>
acc o</w>
ac knowled
er ies</w>
A ir
volun te
sil ence</w>
f oods</w>
reven ue</w>
Is land</w>
t aught</w>
isi onal</w>
lo on</w>
l ity</w>
run s</w>
fall s</w>
b ra
h em
flex ible</w>
g ood
ev a</w>
ch ann
fall en</w>
re forms</w>
a c</w>
r ational</w>
le g</w>
commer ce</w>
opin ions</w>
moun tains</w>
W all</w>
ow ing</w>
smar t</w>
t all</w>
ag on</w>
human s</w>
com modities</w>
enh anced</w>
ref used</w>
pr oud</w>
Sci ence</w>
equi valent</w>
remar k
in formal</w>
b ic
categ ory</w>
p ig
ho l</w>
world wide</w>
stri ke</w>
st am
Cro ati
Rap porteur</w>
row ing</w>
g ained</w>
prepar ing</w>
c os
rel ess</w>
re aching</w>
prosper ity</w>
promis ed</w>
ec e</w>
adver tis
pay ments</w>
le ase</w>
deplo yment</w>
Pe ter</w>
elecom mun
ende av
colle agues</w>
arbitr ation</w>
sh ore</w>
equ ally</w>
con stitute</w>
re ci
dispu tes</w>
I C</w>
trans action</w>
coll ect</w>
est ing</w>
ch er</w>
hel p
e rely</w>
R ed</w>
de als</w>
we igh
ti e</w>
dep end</w>
co w</w>
Is lam
indi genous</w>
incid ent</w>
concentr ation</w>
op position</w>
qui red</w>
func tional</w>
s in</w>
resul ted</w>
m .</w>
comfor t</w>
Par k</w>
k id
experim ents</w>
territ orial</w>
hor iz
sud den</w>
illu str
ric h
know ing</w>
P S</w>
for tune</w>
acc ept
c au
arri ve</w>
Mic ro
h at</w>
ir d</w>
le ge</w>
impl ications</w>
com posed</w>
jud gment</w>
as set</w>
s in
h s</w>
inter face</w>
bot tle</w>
th ick</w>
per sist
pul led</w>
every where</w>
at ten
exp anded</w>
des k</w>
surpris ed</w>
regul arly</w>
l uck</w>
kitch en</w>
mach ines</w>
strength ened</w>
surg ery</w>
mon thly</w>
bre a
employe e</w>
wav es</w>
reve aled</w>
d nt</w>
gen etic</w>
C er
h all</w>
dis placed</w>
uni versities</w>
spec tr
T ha
B ill</w>
ke y
beg ins</w>
af ford</w>
C a
mess ages</w>
do ors</w>
ban k
keep s</w>
air e</w>
e x</w>
organiz e</w>
V ice</w>
5 4</w>
ph r
luc ky</w>
h ell</w>
O n</w>
bound ary</w>
shoul der</w>
S mith</w>
mo ves</w>
chr on
5 6</w>
convinc ed</w>
con fig
Califor nia</w>
pic ked</w>
vers ary</w>
L im
m ic</w>
w ake</w>
t i</w>
s port</w>
pursu e</w>
s cape</w>
inten si
aly sis</w>
dis charge</w>
ear n</w>
n avi
aim s</w>
F ac
M iss</w>
5 3</w>
st ages</w>
h ang
ail ed</w>
recomm end</w>
associ ation</w>
P at
men tion</w>
as ide</w>
ast ed</w>
Tibet an</w>
K en
mist akes</w>
hib ited</w>
nor thern</w>
cour ts</w>
prote in</w>
ep id
ab und
R u
mat ure</w>
consi sts</w>
H am
hol der</w>
6 5</w>
decre ase</w>
feder al</w>
f isc
I L
sol ar</w>
Braz il</w>
a b</w>
el derly</w>
destro yed</w>
work er</w>
Tri bunal</w>
1 4
v ice</w>
rail way</w>
D r</w>
7 7</w>
tot ally</w>
prec ed
su rely</w>
vis ual</w>
col on
ro bo
elim inate</w>
con fron
co vering</w>
T ok
encour aging</w>
b low
he ight</w>
person ality</w>
I A
Democr atic</w>
s essions</w>
pol iti
A re
re iter
applic ant</w>
our ing</w>
meas uring</w>
leg s</w>
expec tations</w>
veri fication</w>
ti ght</w>
regre t</w>
nat ur
sav ed</w>
per mit</w>
ha bit</w>
coll ected</w>
att ended</w>
enh ancing</w>
cap tain</w>
y r
def ence</w>
exist s</w>
spon s
bur ning</w>
sol ved</w>
bo x
argu ment</w>
inter action</w>
pleas ant</w>
con vic
magaz ine</w>
to b
regul atory</w>
less ons</w>
legisl ative</w>
T reas
I m</w>
al ties</w>
schedul ed</w>
mach inery</w>
P op
tax es</w>
m ate</w>
M oun
swit ch</w>
sig ning</w>
represent ation</w>
et te</w>
a e</w>
v als</w>
D el
youn ger</w>
secret ary</w>
el ine</w>
b rown</w>
e e</w>
bre ath</w>
v es
ear nings</w>
k ni
k er
Sud an</w>
N on</w>
I P
indic ates</w>
politi ci
con n
serv ing</w>
str ain</w>
Ha iti</w>
Gen eva</w>
m ar</w>
f illing</w>
t our</w>
pre mis
f at
bre aking</w>
W ith</w>
ex cl
win dows</w>
f lood</w>
S we
pe tro
con sent</w>
w ash</w>
pos sibly</w>
pl ing</w>
ic ked</w>
u h</w>
rout e</w>
I ON</w>
set tled</w>
get ary</w>
gol den</w>
contr ary</w>
alco hol</w>
R M
in corpor
aud it</w>
an tic</w>
inv ent
absol utely</w>
cam era</w>
tob acco</w>
am end
fisc al</w>
enjo yed</w>
descri ption</w>
199 8</w>
ul ated</w>
al le
w et</w>
pi p
dis sem
f ast
str uggl
Sh en
AN D</w>
inv ention</w>
hy per
religi on</w>
clos ure</w>
An gol
uti li
anti cip
win ning</w>
pharm ac
c ease</w>
b loo
t ells</w>
ev olution</w>
ess els</w>
cor ruption</w>
tin y</w>
fre sh
al o
5 8</w>
coun tr
at en</w>
histor ic</w>
An g
se es</w>
m ood</w>
L ic
analy ze</w>
gr ati
man kind</w>
f ra
pho to</w>
star ts</w>
particip ating</w>
sp are</w>
l aser</w>
um b
6 00</w>
tal ent</w>
deri ved</w>
I F
in y</w>
bon ds</w>
succe ed</w>
ec tive</w>
ne u
leg ally</w>
pow der</w>
r ough</w>
gent lem
div or
sh ine</w>
E A</w>
el ev
compl ex
bi ennium</w>
inter governmental</w>
gr ant</w>
f it
re n</w>
ed ings</w>
M s</w>
UN H
A S</w>
pro gres
ac ute</w>
ul tr
ex pos
inter net</w>
fur n
rol ling</w>
comple tion</w>
du al</w>
ne ed
emb ers</w>
contribu ted</w>
wor thy</w>
spir it
rac ial</w>
consci ous</w>
S he
re turns</w>
1 st</w>
plan et</w>
commit tees</w>
ol ate</w>
eg gs</w>
n erv
Col lege</w>
.. ..
o be
lu x
al ian</w>
UNH CR</w>
sha dow</w>
oper ative</w>
W an</w>
st airs</w>
pe ak</w>
manag ing</w>
sum mary</w>
ref ers</w>
Gre ek</w>
boo k
S pain</w>
pri mar
h in
ur ged</w>
tion ally</w>
per su
c ess</w>
pen alty</w>
pl ed</w>
sid ers</w>
bo ost</w>
in tention</w>
defin e</w>
ti mis
pi pe</w>
P aul</w>
z ones</w>
cham pi
pri orities</w>
hard ware</w>
gu ests</w>
K ingdom</w>
wor ried</w>
enor mous</w>
refl ects</w>
Z hang</w>
T w
exam ined</w>
op ol
y ours</w>
ti gh
approxim ately</w>
J os
st atic</w>
b ow</w>
col our</w>
in tr
Chr ist</w>
h ill</w>
g ains</w>
autom atically</w>
attrac tive</w>
discipl ine</w>
u sted</w>
2 8
gener ated</w>
che ap</w>
degre es</w>
t ude</w>
mis s
inv est</w>
a w</w>
oblig ation</w>
m ation</w>
control ling</w>
proc u
categ ories</w>
entre pre
ci gare
V er
N ic
emo tional</w>
4 00</w>
resol ved</w>
co verage</w>
sol e</w>
cigare t
bran ches</w>
sam ples</w>
s la
fi ber</w>
b ond</w>
E M</w>
in th</w>
form at</w>
me ter</w>
whe el</w>
fl av
cl ari
ret ail</w>
w ill
er gy</w>
expl oration</w>
secret ariat</w>
de tention</w>
citiz en</w>
sto res</w>
G lob
extre me</w>
wel comes</w>
ten der</w>
al i</w>
5 7</w>
3 0
repu tation</w>
Or gan
share holders</w>
A IDS</w>
pursu ant</w>
specific ally</w>
Leg isl
arrang ed</w>
Min ist
coordin ate</w>
as signed</w>
bo l</w>
in ci
stric tly</w>
program ming</w>
nam ely</w>
gg ed</w>
help ful</w>
ro t
re sum
s and
g ence</w>
bur n</w>
re si
pre mi
n is</w>
W ater</w>
IN G</w>
ap ple</w>
&apos; i</w>
ox ide</w>
observ ation</w>
cre am</w>
st abil
co vers</w>
ti fied</w>
nit ure</w>
enter ing</w>
accept ance</w>
su res</w>
im ports</w>
ag u
har m
candi date</w>
tra ffic
publ ication</w>
wit ness</w>
vulner able</w>
regi ster</w>
J us
law yer</w>
philosoph y</w>
present ation</w>
li ver</w>
gu ards</w>
op timis
invol ves</w>
ch ro
cam p</w>
En ter
explan ation</w>
z o
li p
im per
ox y
nar row</w>
con ferences</w>
Pl anning</w>
N et
Re public
sh ock</w>
ne ar
deter i
e astern</w>
al li
primar ily</w>
formul a</w>
exc ep
ad just</w>
fun ded</w>
3 ,
Environ ment</w>
gen u
fr ac
t ail</w>
statis tical</w>
m its</w>
col umn</w>
hand ed</w>
H un
E L
paragrap hs</w>
war ned</w>
f loo
pre limin
ti me
direc tors</w>
cop y
break fast</w>
w ire</w>
er ial</w>
pre me</w>
am in</w>
S hi
gr ounds</w>
ass ess</w>
us al
ti m</w>
or ate</w>
k a</w>
ann a</w>
ro ots</w>
t one</w>
p .
W illi
swim ming</w>
produc tivity</w>
dec laration</w>
sen ding</w>
subsi di
ch icken</w>
Pol ice</w>
certific ates</w>
sup pose</w>
Geor gi
destro y</w>
ass emb
O n
B ec
invol ve</w>
ograph ical</w>
cl oud</w>
Custom s</w>
s par
install ation</w>
em ail</w>
discus ses</w>
H im</w>
st om</w>
Jer usal
occas ion</w>
E D</w>
st y</w>
min orities</w>
clean ing</w>
mort gage</w>
li ked</w>
cri ticism</w>
re struc
cir cle</w>
reser ves</w>
fr ing
dis abled</w>
c able</w>
D en
M ag
ari b
Jerusal em</w>
l ake</w>
G oo
st up
sc ore</w>
bre ast</w>
arre sted</w>
ther mal</w>
N A</w>
G i
D C
zer o</w>
dis pos
recall ing</w>
ad ult</w>
dom ain</w>
descri bes</w>
s lo
re placed</w>
ti ci
ell er</w>
ob ile</w>
gener ate</w>
acquisi tion</w>
Me eting</w>
ill ness</w>
Cha m
sm ell</w>
di versi
5 9</w>
f ans</w>
ei ved</w>
f ai
tom s</w>
ri d
mol ec
g am
Pol icy</w>
tu be</w>
du m</w>
Commun ity</w>
tis sue</w>
cont ing
d less</w>
Som alia</w>
V en
F o
mon etary</w>
bass ador</w>
S o</w>
pl enty</w>
answ ers</w>
li v
exc eption</w>
bl ame</w>
v acc
A tl
fin ds</w>
Territ ories</w>
ph y
sust ained</w>
tr ained</w>
cap abilities</w>
di um</w>
vir tual</w>
war ded</w>
perf ec
exp anding</w>
ad ults</w>
calcul ated</w>
proce edings</w>
attemp ts</w>
M ari
fav our</w>
b i</w>
acc used</w>
survi val</w>
sub stance</w>
particip ated</w>
every day</w>
cu ts</w>
pil ot</w>
mi x</w>
docum entation</w>
r a</w>
form ity</w>
sym bol</w>
allow ing</w>
as sume</w>
mar i
f ate</w>
ga thered</w>
clos ing</w>
vis iting</w>
serv ant</w>
loc ked</w>
sh irt</w>
b att
dens ity</w>
a ward</w>
yp e</w>
prospec ts</w>
P ower</w>
H y
lin ing</w>
ev i
M at
Ch en</w>
p ages</w>
6 6</w>
ti se</w>
r ation
subsequ ent</w>
te dly</w>
ar ts</w>
str ing</w>
chann els</w>
W il
ther ing</w>
lau gh</w>
Glob al</w>
labor atory</w>
h idden</w>
v essels</w>
h ence</w>
Ar ab
0 1</w>
ri gh
r ay</w>
mat ely</w>
bro thers</w>
h ide</w>
sing ing</w>
ac he</w>
Ital ian</w>
inv itation</w>
co ast
fur niture</w>
there of</w>
se ed</w>
fi x
M eas
occur s</w>
Lt d</w>
el se
Leban on</w>
s an
D ar
archit ecture</w>
aren cy</w>
il and</w>
bes ide</w>
serv ants</w>
em ark</w>
D C</w>
ref use</w>
wh is
gen e</w>
Pro ject</w>
explo itation</w>
ex am</w>
coordin ated</w>
pro secu
heav ily</w>
L o
trans actions</w>
t esti
rec ession</w>
direc ted</w>
Ch apter</w>
h at
fair ly</w>
de ad
199 9</w>
ro of</w>
fav or</w>
C C
comp are</w>
sle eping</w>
resid ential</w>
l ending</w>
on ia</w>
apar tment</w>
St anding</w>
al d</w>
Li fe</w>
fin ite</w>
an ia</w>
veget ables</w>
no ting</w>
separ ation</w>
Bud d
trans ferred</w>
G ar
contribu ting</w>
F u
ex tra
parti al</w>
comp ati
Appl ication</w>
accompan ied</w>
invol vement</w>
diagn os
cor n</w>
dis asters</w>
de fic
vic tim</w>
S cot
prov isional</w>
im ported</w>
fe wer</w>
A ir</w>
sub scri
preci ous</w>
behavi our</w>
Treas ury</w>
neigh bor
Jo int</w>
pres sing</w>
tw el
min al</w>
psych ological</w>
ke ys</w>
St at
F A
B al
don or</w>
n ative</w>
k illing</w>
ven ant</w>
sum mit</w>
int on</w>
E M
per mission</w>
In te
tor ies</w>
expos ure</w>
Le e</w>
vi gor
pra ise</w>
satis factory</w>
fi x</w>
Sa fe
se ats</w>
F estival</w>
ti ble</w>
K ow
forec ast</w>
organiz ational</w>
demonstr ated</w>
ag ers</w>
tro p
innov ative</w>
aff ecting</w>
recei pt</w>
inf ec
neu tr
har v
har der</w>
restric tions</w>
o ever</w>
inter vention</w>
d est</w>
any way</w>
P i
sp ite</w>
si mult
simult an
co ast</w>
N i
prelimin ary</w>
but ton</w>
un known</w>
ti er</w>
hu a</w>
exper tise</w>
S ol
pre ad</w>
Stud y</w>
ong ue</w>
fail s</w>
restric ted</w>
there by</w>
pass age</w>
eful ly</w>
D o
en na</w>
vol tage</w>
ab str
prev enting</w>
cri ed</w>
bu b
Kow loon</w>
tar ge
pa rent</w>
o tic</w>
commun icate</w>
comm only</w>
M u
Islam ic</w>
econom ics</w>
e ously</w>
certain ty</w>
y ard</w>
hear ts</w>
b al</w>
C arib
ad ays</w>
uni form</w>
op tical</w>
compl y</w>
S im
form ulation</w>
arti ficial</w>
ti de</w>
Pro tocol</w>
loc ations</w>
S an</w>
ju red</w>
al and</w>
el abor
Par ties</w>
near by</w>
n ic
tic kets</w>
mit ting</w>
stipul ated</w>
p ump</w>
land scape</w>
l en</w>
some where</w>
peri ods</w>
pain t</w>
m ates</w>
Goo gle</w>
alle l</w>
compl aints</w>
transp arency</w>
cont acts</w>
b id
procu rement</w>
w ished</w>
Pri me</w>
Carib bean</w>
B a
typ ically</w>
8 5</w>
super vis
lo ading</w>
head ed</w>
at tract</w>
&apos; clock</w>
Mac ao</w>
pe ti
Indu stry</w>
f ounded</w>
sh ouldn</w>
pe as
co ach</w>
civil ization</w>
main land</w>
Qu een</w>
d ressed</w>
construc tive</w>
M er
wid es
t ari
reconc iliation</w>
absol ute</w>
with draw
symp toms</w>
po t</w>
sol ving</w>
guaran te
lo gic</w>
St and
scho ol
tain ment</w>
sil ent</w>
har mony</w>
cu stom</w>
M y
mom ent
hon our</w>
Legisl ative</w>
bo y
M eth
au to</w>
as m</w>
v ent</w>
secon dly</w>
A .</w>
un like</w>
Cu ba</w>
bas ically</w>
as sign
some what</w>
the ast</w>
rev olution</w>
bel ong
li ament</w>
ch er
ac t
pro found</w>
I r
t ongue</w>
fore ig
Micro soft</w>
p ounds</w>
el ed</w>
W TO</w>
ex hibition</w>
t ability</w>
be er</w>
o de</w>
real istic</w>
cot ton</w>
it ate</w>
shap ed</w>
b and
re stor
fil ms</w>
demonstr ate</w>
dec lined</w>
necess arily</w>
pre ven
law ful</w>
viol ent</w>
hu an</w>
si zed</w>
Pr ince</w>
mov ements</w>
occup ation</w>
e ze</w>
wides pread</w>
hop ing</w>
p en</w>
ship ment</w>
Cor por
jud ges</w>
inten s
human ity</w>
Jus tice</w>
dam aged</w>
S il
li ps</w>
else where</w>
whe at</w>
set tle</w>
de fault</w>
bene ficial</w>
Pop ulation</w>
chem icals</w>
vis its</w>
un usual</w>
manufac ture</w>
i tions</w>
M embers</w>
ing .
di am
in ser
thre ats</w>
par a</w>
install ed</w>
presid ential</w>
cop ies</w>
con trad
A M
sugges tion</w>
per forming</w>
n d</w>
m ouse</w>
preven tive</w>
lo ves</w>
fil ter</w>
govern ance</w>
dev oted</w>
Li u</w>
Hen ry</w>
r ant</w>
6 4</w>
s on
concep ts</w>
cro ps</w>
elecommun ications</w>
p ill
config uration</w>
t ack
ous ing</w>
on es
arri val</w>
ge ographical</w>
ff s</w>
Gre ece</w>
Regi onal</w>
passeng er</w>
dis p
Ac t</w>
j iang</w>
Indones ia</w>
ser ves</w>
9 5</w>
vac ation</w>
be ings</w>
C D</w>
he ating</w>
de alt</w>
Mar tin</w>
in jured</w>
dr af
re alization</w>
ket ball</w>
carri er</w>
W H
flu id</w>
G O
encour ages</w>
Elec tr
prec ision</w>
Su n</w>
child hood</w>
al location</w>
p in
ow ed</w>
ch oc
Chil dren</w>
1 ,000</w>
read s</w>
poc ket</w>
thre w</w>
me ters</w>
tec h</w>
di versity</w>
Ze aland</w>
E astern</w>
speak er</w>
modi fied</w>
er ad
all evi
par allel</w>
st ayed</w>
obstac les</w>
fir mly</w>
m ad</w>
7 2</w>
f ears</w>
cooper ative</w>
lo aded</w>
for um</w>
dark ness</w>
fe ed
rest ore</w>
end ant</w>
ef s</w>
ri sts</w>
cl oth</w>
col ors</w>
k in</w>
eg g</w>
now adays</w>
countr y
no t
promot ed</w>
natur ally</w>
govern ing</w>
ves sel</w>
s ake</w>
accid ents</w>
anni versary</w>
th ful</w>
repe ated</w>
he rent</w>
dis count</w>
expendit ures</w>
et e</w>
analy ses</w>
any where</w>
occas i
Mus li
territ ories</w>
arrang e</w>
H ot
harmon ious</w>
R en
ic ian</w>
de pression</w>
T a
cat aly
y ang</w>
val ve</w>
phot os</w>
ig nor
C arri
m on</w>
sh oc
inter ference</w>
flex ibility</w>
guil ty</w>
des ir
Eng ine
view ing</w>
rec ur
restruc turing</w>
UN C
D yn
secon ds</w>
min or</w>
appl ies</w>
ou ts</w>
ic ul
asp ir
im pose</w>
UN E
le af</w>
inno cent</w>
ch lor
clou ds</w>
mean ing
S to
ac quired</w>
G az
im pression</w>
con firm</w>
am id</w>
wh el
dimen sional</w>
cl ing</w>
pan el</w>
h an</w>
remark able</w>
pro mul
J ames</w>
rol led</w>
professi on
6 1</w>
c av
Vi enna</w>
ro les</w>
fi red</w>
cho os
z zy</w>
s ongs</w>
the ories</w>
te or
traffic king</w>
6 8</w>
Tha iland</w>
t ;</w>
assist ant</w>
mari time</w>
g al</w>
don ors</w>
be ach</w>
ast es</w>
sign als</w>
ess ence</w>
Tr aining</w>
log ical</w>
p y</w>
mo thers</w>
ad mit</w>
prin ted</w>
c ake</w>
shi pping</w>
con siders</w>
per or</w>
Vi et
publ ications</w>
He ad
d ur
T ime</w>
br illi
prof ile</w>
depend ence</w>
copy right</w>
us age</w>
necess ity</w>
modern ization</w>
al umin
conn ect</w>
entr ance</w>
n an
cam pus</w>
1 3
p um
ick ness</w>
emphas ized</w>
car go</w>
u ph
reserv o
rec all</w>
Lim ited</w>
de grad
inter nation
avail ability</w>
re sume</w>
le ep</w>
dest ination</w>
0 9</w>
h ath</w>
Tok yo</w>
Lab our</w>
vari able</w>
m atic</w>
instruc tions</w>
gr as
fer ring</w>
wid er</w>
fing ers</w>
ex act</w>
comp ound</w>
aren tly</w>
bel t</w>
T han
oper ators</w>
entrepre neur
rel and</w>
re di
Rev i
8 00</w>
pl ain</w>
wor n</w>
til ity</w>
pr on
exc ess</w>
Con sul
u d</w>
cho ices</w>
Buil ding</w>
exc essive</w>
D oc
emb ar
nutri tion</w>
add ressing</w>
Ar gent
ay er</w>
withdraw al</w>
olu tionary</w>
x i</w>
ad mitted</w>
Cam bo
ul timate</w>
desig ning</w>
mir ror</w>
fun ny</w>
at om
UN F
miss ile</w>
i ers</w>
end ers</w>
ti ed</w>
organ is
terror ist</w>
oxy gen</w>
B rown</w>
cul tures</w>
a es
Angol a</w>
classi fication</w>
cra zy</w>
sh ell</w>
bel ong</w>
Ac ad
Y u
V ir
S ic
reli ability</w>
let es</w>
dis cre
Sec ond</w>
be l</w>
y cle</w>
visi ble</w>
rec k
U k
Cul tural</w>
p ir
gh ty</w>
c ks</w>
ment ally</w>
ri x</w>
mag ic</w>
lo vely</w>
rout ine</w>
produc es</w>
b adly</w>
re ver
l ers</w>
Dec ade</w>
ne gl
f ice</w>
ill icit</w>
f oun
mak er</w>
f th</w>
6 3</w>
dra u
7 3</w>
y l</w>
pres er
k id</w>
survi ve</w>
r um
newsp apers</w>
fing er</w>
fac ility</w>
w ages</w>
A I
contem porary</w>
ulti mately</w>
lo ving</w>
c ad
B A</w>
ili ans</w>
spirit ual</w>
priv il
exc iting</w>
concl ude</w>
app arently</w>
dep ending</w>
consci ousness</w>
t ank</w>
optim ization</w>
intellig ent</w>
min ent</w>
wor e</w>
tem p
ing redi
Uk rain
an i</w>
Croati a</w>
im prison
A gr
high way</w>
a us
ur ge</w>
el a</w>
in jection</w>
contin ent</w>
ati es</w>
conduc ting</w>
C al
safe guard</w>
Joh n
surr ounding</w>
she ep</w>
regar dless</w>
pl ed
gir l
auth ors</w>
lic ens
for cing</w>
voc ational</w>
pro hibited</w>
sec tions</w>
pri de</w>
comp ul
t ape</w>
reg ards</w>
ex posed</w>
enti ties</w>
H ong
inv ite</w>
Co de</w>
nation ality</w>
depos its</w>
chr onic</w>
nerv ous</w>
imprison ment</w>
ic ks</w>
cl as
ac commod
bor ne</w>
D on</w>
superi or</w>
k iss</w>
g as
a ths</w>
sequ ence</w>
over whel
perfec tly</w>
ha bits</w>
0 8</w>
w oo
s h</w>
bel ongs</w>
Ex change</w>
ex pe
ar ising</w>
system atic</w>
V ol
0 5</w>
top ics</w>
L et</w>
gl asses</w>
st on</w>
cur ricul
low s</w>
Ar my</w>
tou ched</w>
lo g</w>
P C
C .</w>
s word</w>
prov id
ph ones</w>
migr ants</w>
ati vity</w>
st amp</w>
satis fy</w>
pres sive</w>
con vention</w>
sus pic
ic on</w>
collap se</w>
H on
198 9</w>
ath letes</w>
W el
C ir
cop per</w>
Austr alian</w>
sub stances</w>
coast al</w>
st uck</w>
ash es</w>
R ules</w>
stro ke</w>
continu ously</w>
a to</w>
Th ree</w>
Rob ert</w>
tow ns</w>
i th
e tr
ap pra
En ergy</w>
st ones</w>
ill er</w>
W in
6 2</w>
fore sts</w>
n u
L oc
An alysis</w>
oper ator</w>
movi es</w>
as ion</w>
par tly</w>
des c
spl it</w>
bas ketball</w>
d ying</w>
vot ing</w>
dig nity</w>
tend ency</w>
r y
conc e
be am</w>
S pace</w>
Per manent</w>
exc ited</w>
aut umn</w>
uti lity</w>
integr al</w>
sc at
re jected</w>
ac le</w>
in sist
d ong</w>
op pon
c ow
T ex
Th om
coo king</w>
W al
twel ve</w>
lau ghter</w>
improv ements</w>
ic ed</w>
h asn</w>
sh ed</w>
pop ulations</w>
ob li
bur st</w>
b ags</w>
initi ated</w>
employ ers</w>
de al
circul ation</w>
ti eth</w>
b ills</w>
N ig
execu tives</w>
Soci ety</w>
peac e
ligh t
g all
em issions</w>
al located</w>
class room</w>
th ri
min ds</w>
negoti ation</w>
inten se</w>
ch est</w>
inv o
dispos al</w>
dis cover</w>
Des ign</w>
law yers</w>
E st
ni ght
gi fts</w>
7 00</w>
gener ations</w>
Safe ty</w>
gu est</w>
Sup port</w>
origin ally</w>
gradu ates</w>
F am
6 7</w>
any body</w>
civ ilians</w>
ar rest</w>
I ran
genu ine</w>
br ush</w>
M a</w>
soldi er</w>
numer ical</w>
stom ach</w>
mur der</w>
simil arly</w>
pro spect</w>
M organ</w>
re mo
exerc ises</w>
UN PRO
stup id</w>
Ch ic
UNPRO FOR</w>
D on
m ere</w>
under ground</w>
glob alization</w>
f ers</w>
i tical</w>
f lag</w>
tour ist</w>
Commer ce</w>
prison ers</w>
municip alities</w>
frequ ent</w>
ch ances</w>
meth od
conveni ence</w>
jud g
exce ed</w>
pro pose</w>
low est</w>
char t</w>
I reland</w>
Environ mental</w>
em ies</w>
rub ber</w>
fe t
b ye</w>
go d</w>
intens ity</w>
sto red</w>
mani fe
arti st</w>
ap h
zh en</w>
ge ar</w>
chec king</w>
comm it</w>
c ure</w>
B ul
m ad
tem por
est y</w>
p ushed</w>
cre di
busin ess
acc es
cou ples</w>
A t
sim pl
ear ned</w>
per mitted</w>
hy dr
C N
r ush</w>
d ancing</w>
ti p</w>
ur ges</w>
2 9
recomm ends</w>
f an</w>
en ary</w>
adv ent
L in
Gre en</w>
kni fe</w>
ber t</w>
H ousing</w>
eas ed</w>
attrac ted</w>
B ay</w>
indic ators</w>
c ook</w>
Revi ew</w>
vibr ation</w>
speak ers</w>
gg er</w>
Indu stri
7 6</w>
M P
parame ter</w>
d or
app arent</w>
sim pli
sent enced</w>
announ cement</w>
Wh y</w>
L ev
w ol
r ab
R ad
A D
os si
brief ly</w>
Fr anc
D ef
tr uck</w>
g al
aff ects</w>
ath le
err ors</w>
des ert</w>
inten sive</w>
ex trac
de duc
Cri minal</w>
I N</w>
trem end
cor ro
ur o</w>
l es
ww w
O f</w>
up date</w>
rel atives</w>
ten ing</w>
min i
N at
c ant</w>
s ory</w>
b row
resid ence</w>
fu r</w>
S w
lic ence</w>
te en
dum ping</w>
pro por
hol y</w>
tou rists</w>
g ue</w>
repe at</w>
b inding</w>
jum ped</w>
20 10</w>
applic ants</w>
7 1</w>
ip p
Tur key</w>
grat eful</w>
Head quarters</w>
Dyn asty</w>
proce ed</w>
happ ening</w>
R O
disco very</w>
inv al
fo ol
os ity</w>
ass ur
m m</w>
di ab
re placement</w>
disp ens
bi ke</w>
roc ks</w>
econom ists</w>
emb arr
A t</w>
7 4</w>
de fici
chec ked</w>
b o</w>
S ir</w>
for gotten</w>
mic ro</w>
sha ke</w>
l oud</w>
p tions</w>
car di
squ e
ch ose</w>
b ath
Jan e</w>
con gres
Su st
und i</w>
ic ide</w>
L and</w>
induc ed</w>
dedic ated</w>
c entr
tit udes</w>
f old</w>
Mr s</w>
f ar
aw n</w>
Ch e
desig ns</w>
J ord
F ro
des per
is ite</w>
appro ve</w>
For um</w>
prec eding</w>
du pl
Carri e</w>
om ing</w>
feed back</w>
B ang
SA R</w>
equ ation</w>
divor ce</w>
sub mission</w>
it er</w>
em an</w>
S M
Are a</w>
municip al</w>
enter tainment</w>
sup er</w>
mot or
z y
per pe
ment ation</w>
func tioning</w>
con stitutes</w>
n inth</w>
k ong</w>
gr ace</w>
g .</w>
ten s</w>
8 7</w>
premis es</w>
threat ened</w>
dec or
cro p</w>
T rad
Agr icul
pas sion</w>
aggres sion</w>
optim al</w>
hel lo</w>
Cl inton</w>
P a
H os
inter medi
harm ful</w>
har b
mort ality</w>
tow er</w>
sh oot</w>
D ru
s enti
hospit als</w>
Bur undi</w>
et ly</w>
ver tical</w>
lo ose</w>
employ er</w>
ra rely</w>
gun s</w>
bur ied</w>
se al</w>
refl ection</w>
re turning</w>
ant ine</w>
arr ay</w>
pri ze</w>
cr ack</w>
del ic
sig nature</w>
ren der</w>
rel ate</w>
i el</w>
Georgi a</w>
rem em
comm issions</w>
chem istry</w>
bl ack
Am bassador</w>
me ets</w>
pres erv
R C</w>
w anna</w>
subsequ ently</w>
hun gry</w>
gu ided</w>
mus cle</w>
E T
tion ed</w>
rel ax</w>
St an
l ord</w>
Ne w
Organ isation</w>
ones elf</w>
exclu sive</w>
pres erve</w>
J im</w>
separ ately</w>
fre ely</w>
rul ing</w>
k is
on y
refuge e</w>
ra m</w>
is si
hy po
vi et</w>
ti ps</w>
manufactu rers</w>
alo g</w>
hand led</w>
UN A
the at
u ous</w>
Sic huan</w>
com posite</w>
5 ,000</w>
prepar ations</w>
f ant
determin ing</w>
break s</w>
remo val</w>
on a</w>
Sy ri
M .</w>
secre ts</w>
ca p</w>
fe eding</w>
L ove</w>
C S
plac ing</w>
fru its</w>
E qu
el d</w>
pac king</w>
as c
anx i
met res</w>
L ong</w>
pursu it</w>
Offic er</w>
six th</w>
tre ating</w>
choc olate</w>
Dis armament</w>
l an
di str
co g
as leep</w>
dr inks</w>
sus pec
remem bered</w>
pun ished</w>
po is
9 9</w>
cur ve</w>
consequ ently</w>
provin cial</w>
i p</w>
C r
qu alities</w>
eigh th</w>
chi p</w>
direc tions</w>
prop ag
ste am</w>
correc tly</w>
qui ries</w>
emer ged</w>
0 6</w>
. 1</w>
contain er</w>
S O
F re
re tri
arg ue</w>
cri tici
equip ped</w>
tax i</w>
in ity</w>
dro ve</w>
A P</w>
amaz ing</w>
Su preme</w>
tre aties</w>
auc tion</w>
Inv est
H IV</w>
cont am
Iran ian</w>
cre ates</w>
w ell
t ables</w>
ad ds</w>
t ent</w>
hon ey</w>
contrad ic
toler ance</w>
c ked</w>
n as
celebr ate</w>
man ip
drau lic</w>
cryst al</w>
So viet</w>
suppl iers</w>
re verse</w>
b ell</w>
in fring
character ized</w>
Res erve</w>
exp ense</w>
lux ury</w>
Chic ago</w>
s er</w>
hur ry</w>
adap t</w>
w ound</w>
t less</w>
herit age</w>
dir ty</w>
ill ance</w>
de emed</w>
M ong
ten nis</w>
sur plus</w>
b all
ass ure</w>
al arm</w>
ut ch</w>
construc ted</w>
ber g</w>
T un
P O
stand ardi
schem es</w>
produc ers</w>
A T</w>
t ance</w>
re ward</w>
olog ist</w>
mem or
soci eties</w>
re mind</w>
sec ut
p ack</w>
loc ate</w>
consul t
t ful</w>
g ers</w>
feas ibility</w>
Fin ance</w>
O ut
ent ally</w>
elec toral</w>
se ized</w>
l ou
sem i</w>
remar ks</w>
la p</w>
bri d
poss ess</w>
E liz
sil k</w>
d are</w>
Prof essor</w>
essi onal</w>
Leg al</w>
tow n
recogn izing</w>
A ud
pre ferred</w>
odi c</w>
Willi am</w>
0 3</w>
analy zing</w>
le ather</w>
sens or</w>
bacter ia</w>
sc op
in struction</w>
clear ance</w>
Rom an</w>
n est</w>
S us
Jo e</w>
dimen sion</w>
w ings</w>
incid ents</w>
gr and</w>
-------- --------
see ds</w>
home work</w>
favor able</w>
V ic
er ly</w>
di stor
u re
lon ely</w>
marg in</w>
hi bit</w>
T em
C up</w>
st ake</w>
0 7</w>
1 50</w>
w ashing</w>
separ ated</w>
poin ting</w>
ear ning</w>
corpor ation</w>
ul ous</w>
foc using</w>
m ass
uni fied</w>
val idity</w>
construc t</w>
a ver
un cle</w>
ad visory</w>
trad emark</w>
in si
en emies</w>
Chris tian</w>
d ating</w>
ligh ting</w>
depar ture</w>
cr ude</w>
C ur
complex ity</w>
Par t</w>
un likely</w>
u l</w>
leg es</w>
sm oo
mat rix</w>
trop ical</w>
oo m</w>
ni e</w>
acqu ire</w>
Meas ures</w>
4 ,
in spir
e try</w>
house holds</w>
con ve
repe at
rel ates</w>
fa thers</w>
et ter</w>
Sust ainable</w>
gre en
en coun
S wit
g ather</w>
es cap
Mi ke</w>
te enth</w>
cor relation</w>
compet ence</w>
deplo yed</w>
K ar
read ers</w>
G DP</w>
grap h</w>
e ted</w>
assess ed</w>
is ure</w>
uni verse</w>
analy zes</w>
constitu tional</w>
Y ang</w>
Pre vention</w>
s man</w>
I P</w>
fil ed</w>
es c
observ ations</w>
extra ordinary</w>
wa ited</w>
enthusi asm</w>
Off r</w>
differen ti
Mal ay
reti rement</w>
car ries</w>
Wh o</w>
f ed</w>
broad er</w>
www .
con formity</w>
vill ages</w>
are r</w>
8 8</w>
pharmac eu
oc ity</w>
Gol d
V I</w>
J ones</w>
b ath</w>
le um</w>
li sts</w>
cre w</w>
an no
vot ers</w>
inter ven
gl ory</w>
t les</w>
susp ect</w>
den ied</w>
hi p</w>
constr aints</w>
J our
Au stri
c ast
bene ath</w>
P lat
roman tic</w>
mi ti
hol es</w>
r ats</w>
coll abor
po p</w>
immun e</w>
A L</w>
6 9</w>
susp ended</w>
farm er</w>
S pr
log istics</w>
g t;</w>
& gt;</w>
spectr um</w>
pol l
nur sing</w>
sho oting</w>
investig ations</w>
in cur
sinc ere</w>
tem ple</w>
ologi sts</w>
Tw o</w>
al a</w>
sym pa
P D
t ar</w>
0 2</w>
re str
ang el</w>
F ather</w>
7 8</w>
where as</w>
mem ories</w>
L ou
ic h
dram atic</w>
T ai</w>
shor tly</w>
represent ing</w>
et es</w>
spons ors</w>
cy lin
Shen zhen</w>
In spec
ti liz
hun g</w>
F ran
n es
ex it</w>
dri vers</w>
9 8</w>
mo ist
initi ally</w>
acceler ate</w>
Co venant</w>
politici ans</w>
we al
ar ise</w>
re productive</w>
il es</w>
el eg
Ric hard</w>
lam p</w>
sh ut
v ar
ph os
on ics</w>
holid ays</w>
um ber</w>
invest ed</w>
c .</w>
Con struction</w>
l ec
i .
reci pi
Char les</w>
UN IT
ri vers</w>
promis ing</w>
ic op
work shop</w>
ju ice</w>
imag ination</w>
ad vised</w>
Qu ality</w>
inst ant</w>
def end</w>
W ell</w>
formul ate</w>
M an</w>
EN T</w>
S A</w>
pos session</w>
treas ure</w>
pregn ant</w>
bloc ks</w>
av es</w>
do zen</w>
bor row
any more</w>
invest or</w>
C an</w>
em a</w>
adju sted</w>
her o</w>
mom ents</w>
di stric
S pe
Minist ers</w>
avi ation</w>
Por tu
ran dom</w>
De puty</w>
Coun ty</w>
tox ic</w>
sh ou
inter n
Af ter</w>
purch asing</w>
de aths</w>
migr ant</w>
gent le</w>
B S</w>
Guang dong</w>
up set</w>
un certainty</w>
st aff
id a</w>
hang ing</w>
um es</w>
Mos cow</w>
tr action</w>
qu e
el ing</w>
dro me</w>
9 6</w>
under lying</w>
memb ran
reve al</w>
Le ague</w>
w ed</w>
m all</w>
minist ers</w>
C lu
trans form</w>
simultan eously</w>
sacri fice</w>
fir stly</w>
bom b</w>
P rem
tra its</w>
distinc t</w>
dis k</w>
abl ing</w>
foreig ners</w>
wid th</w>
ri g
pl u
for got</w>
ligh ted</w>
equ itable</w>
concer t</w>
ab eth</w>
a qu
ste pped</w>
concentr ate</w>
phot ograph
emo tions</w>
l l
o id</w>
defic it</w>
Y es</w>
D ata</w>
shel ter</w>
arti stic</w>
IA EA</w>
dec isi
ati zation</w>
H u</w>
res emb
hy draulic</w>
fri gh
adver se</w>
aband oned</w>
Jord an</w>
s ement</w>
N O
t elecommunications</w>
dis played</w>
M ing</w>
fi l</w>
M ay
1 1
transp arent</w>
lif ted</w>
jun ction</w>
v ary</w>
graph y</w>
accompl ished</w>
ter ly</w>
allow ance</w>
ak s</w>
tro op</w>
cr ash</w>
ci de</w>
subsidi ary</w>
k ick</w>
det ect</w>
correspon d
suppl ier</w>
elim ination</w>
is tic
con du
7 9</w>
invent ory</w>
f ever</w>
embarr ass
compe te</w>
A D</w>
oun ce</w>
grow s</w>
fl u</w>
all ed</w>
St ation</w>
Ukrain e</w>
Fi fth</w>
8 6</w>
m ice</w>
fail ing</w>
G or
ph er
en tic
l ot
ag ged</w>
to oth</w>
inev itable</w>
di ver
di an</w>
H igh
10 .
organis ations</w>
fo res
D V
gi ene</w>
bit ter</w>
b age</w>
ab ide</w>
G ood</w>
Im pl
k ings</w>
feas ible</w>
short age</w>
process ed</w>
inst all</w>
tr ace</w>
qu it</w>
p ile</w>
gr ac
ul f</w>
st ation
influ enced</w>
dr ought</w>
bu re
9 2</w>
s oup</w>
organiz ing</w>
distric ts</w>
tremend ous</w>
horiz on
defe at</w>
abstr act</w>
ex ec
b ones</w>
transi t</w>
epid emic</w>
clim b</w>
C .
sear ching</w>
em in
con version</w>
cl am
syn chron
s now
parti cles</w>
d uration</w>
ci ve</w>
F er
restaur ants</w>
ob server</w>
i fication</w>
fl esh</w>
sus pension</w>
st aying</w>
desir able</w>
H ome</w>
Commun ist</w>
hor ses</w>
Pre par
a res</w>
T or
er ce</w>
ant a</w>
pen ding</w>
scen ari
rup t
profession als</w>
prec ise</w>
se is
mac ro
kil ome
st ems</w>
phy si
swi m</w>
mus eum</w>
man ual</w>
Mo z
under taking</w>
quali fications</w>
des ired</w>
pen etr
S hu
incid ence</w>
surve illance</w>
thor oughly</w>
emphas ize</w>
ra p</w>
r hy
pain ful</w>
mix ture</w>
l end</w>
St atis
C iti
j et</w>
R ac
suspec ted</w>
assum ed</w>
dic t
Pol itical</w>
sm uggl
re porters</w>
dec l
coun ting</w>
domin ant</w>
deb ts</w>
soci o</w>
t ail
fac tories</w>
F ound
sh an</w>
Cambo dia</w>
s oph
life time</w>
M un
un preced
W u</w>
ful fil</w>
appra is
thre sh
compl aint</w>
op posed</w>
as ser
B .</w>
sev enth</w>
substan ti
ori entation</w>
moment um</w>
ic ians</w>
I V
od d</w>
F ed</w>
termin al</w>
dist ant</w>
cham ber</w>
A cc
inj uries</w>
p av
ap point</w>
con s
For m</w>
er ation</w>
Tur k
Su per
Acad emy</w>
sym bol
mon opol
adv ise</w>
Tim es</w>
stri ve</w>
n erve</w>
n am</w>
R ome</w>
sli p</w>
heal th
St u
gh ted</w>
guarante ed</w>
Q ing
Mong ol
ful fill</w>
Mo del</w>
t ling</w>
conf isc
Pr inci
Mos es</w>
me tr
Pro per
re views</w>
li p</w>
gr ay</w>
class ical</w>
M ot
Ap ple</w>
bo ards</w>
lad ies</w>
k o
bl an
al k
in fer
termin ation</w>
a j
9 4</w>
wi reless</w>
in her
0 4</w>
ch ol
w are
u red</w>
ing ness</w>
et ro
sovere ign</w>
alleg ed</w>
J ean</w>
v y</w>
extr action</w>
brilli ant</w>
r he
st ag
ill a</w>
Med ical</w>
ga thering</w>
ess entially</w>
con qu
internation ally</w>
m ast
fab ric</w>
bu yers</w>
b orders</w>
K e
p ast
in spi
soph istic
rec ording</w>
Ne ws</w>
lu gg
Phil ipp
I A</w>
Argent ina</w>
dis pat
aff air</w>
T el
dra g</w>
demon stration</w>
8 1</w>
L .
Nor thern</w>
par king</w>
up dated</w>
ti les</w>
pursu ed</w>
curricul um</w>
rec over</w>
st ering</w>
hel icop
unpreced ented</w>
exist ed</w>
c ali
9 3</w>
journ alists</w>
dissem ination</w>
ag gre
vac u
mo dule</w>
mathematic al</w>
Sci enti
l ation</w>
f estival</w>
respon ses</w>
Eliz abeth</w>
mo ther
fi er</w>
limit ation</w>
col leges</w>
robo t</w>
in et</w>
A U</w>
F il
down load</w>
bac ked</w>
b are
for give</w>
di verse</w>
compul sory</w>
cen ters</w>
val ley</w>
i res</w>
be hold</w>
li ke
incre di
clas sic</w>
grati tude</w>
O ther</w>
B ased</w>
Corpor ation</w>
es tion</w>
int end</w>
Is lands</w>
eng agement</w>
RM B</w>
Ch ur
B y</w>
it ment</w>
Pan el</w>
il le</w>
grap hic</w>
vel ocity</w>
where ver</w>
phot ograp
decl are</w>
endor sed</w>
bra ve</w>
navi gation</w>
cu sto
aggres sive</w>
Hong kong</w>
An y</w>
repeat edly</w>
shar ply</w>
radi o
f ool</w>
cent uries</w>
your e</w>
r on</w>
it tle</w>
ai red</w>
pr ay</w>
fro zen</w>
des erve</w>
uc tu
port fol
p ale</w>
fle w</w>
9 1</w>
par ad
syn thesis</w>
st al
f ati
tal ents</w>
guar ding</w>
rel uc
p ushing</w>
girl friend</w>
Pro c
weak ness</w>
th west</w>
preserv ation</w>
occup ational</w>
g est
adop ting</w>
list ened</w>
D .</w>
9 00</w>
accompl ish</w>
sub regional</w>
inter ior</w>
W ar
out look</w>
engine er</w>
fu zzy</w>
assign ment</w>
8 2</w>
F ourth</w>
br on
Ang el
ig no
Net work</w>
Found ation</w>
v in
travel ing</w>
th at
sty les</w>
promis es</w>
lay out</w>
Le h
com promise</w>
b ars</w>
h ire</w>
Gaz a</w>
Con tract</w>
vi g
prof ession</w>
bab ies</w>
a ult</w>
fortun ate</w>
bu ff
Palest ine</w>
shi f
broad cast</w>
dev ast
occas ions</w>
n an</w>
it ably</w>
198 8</w>
wal ks</w>
gen es</w>
T al
tun nel</w>
L ad
Liber ia</w>
le an
Em plo
liter ary</w>
frac ture</w>
autonom y</w>
speci fy</w>
method ology</w>
me teor
wel ding</w>
protec tive</w>
fl at
war ming</w>
box es</w>
cr ying</w>
e ager</w>
cal end
fl uctu
su its</w>
semin ars</w>
mat h</w>
hun ger</w>
ev ed</w>
Res ources</w>
win ner</w>
ten ds</w>
deep er</w>
c ep
fol k</w>
woo den</w>
8 3</w>
guaran tees</w>
Man ager</w>
reservo ir</w>
join ing</w>
ev ident</w>
tis m</w>
p oo
Nig er
Atl antic</w>
fl ame</w>
some how</w>
L O
Govern ing</w>
pro pri
ec tor</w>
bat tery</w>
thor ough</w>
speak s</w>
cool ing</w>
a warded</w>
Fam ily</w>
l av
in ating</w>
b ag
r i</w>
C re
with draw</w>
ven ue</w>
assist ed</w>
SC E</w>
p .</w>
country side</w>
A re</w>
execu ted</w>
Ne ther
pot entially</w>
bor row</w>
promp tly</w>
expres ses</w>
bud getary</w>
WH O</w>
resp ected</w>
reserv ation</w>
ol en</w>
Ch ang
ha dn</w>
cigaret te</w>
cap ture</w>
ep h</w>
Ch em
pl ates</w>
man dates</w>
inter im</w>
decreas ed</w>
C P
sing er</w>
B lack</w>
person ally</w>
emo tion</w>
predic t</w>
after wards</w>
ed itor</w>
d am</w>
phos ph
on ary</w>
m ers</w>
im bur
comb ine</w>
S P
be ars</w>
re sistant</w>
men u</w>
li able</w>
k ingdom</w>
qui etly</w>
pos sibilities</w>
sli de</w>
ot ted</w>
coll ecting</w>
spo ts</w>
lo v
consequ ence</w>
anxi ety</w>
pe red</w>
introduc ing</w>
e ag
concentr ated</w>
peri odic</w>
meaning ful</w>
en za</w>
virtu e</w>
A th
re patri
bi an</w>
J am
eli gible</w>
su icide</w>
Engine ering</w>
re medi
val uation</w>
tum or</w>
ing er</w>
ti fic
foc uses</w>
corpor ations</w>
ultr as
promul gated</w>
ke en</w>
veri fy</w>
rupt cy</w>
Jos eph</w>
tr ain
he dge</w>
uni or</w>
peace keeping</w>
pac ked</w>
appe als</w>
Regi stration</w>
mor ph
pr icing</w>
oper ated</w>
Swit zer
Dan iel</w>
pass es</w>
diam ond</w>
del ayed</w>
pr ince</w>
ne uro
gri d</w>
H all</w>
dau gh
acknowled ged</w>
settl ements</w>
b os
bu m
E D
1 1.
conf id
w ounded</w>
semin ar</w>
rup ted</w>
pack aging</w>
ir ts</w>
p ap
expl ains</w>
b ad
Th ird</w>
M el
barri ers</w>
respon ded</w>
ou l</w>
f lights</w>
w as
sal aries</w>
adv ances</w>
Techn ical</w>
my ster
defin ite</w>
Hu man
C la
valu ed</w>
pr ud
f lies</w>
199 0s</w>
p a</w>
to il
rec y
manufactu rer</w>
coun ts</w>
choos ing</w>
trac king</w>
re fr
as cular</w>
W at
Switzer land</w>
Republic an</w>
consider ations</w>
D NA</w>
pe p
Viet nam</w>
th read</w>
exc it
en vel
N uclear</w>
Canad ian</w>
pl enary</w>
Hot el</w>
ri ding</w>
US A</w>
molec ular</w>
P har
kne e</w>
explos ion</w>
d ose</w>
pow ered</w>
H ai
mi ghty</w>
dic tionary</w>
subsi dies</w>
publ icity</w>
b acks</w>
adv ancement</w>
E ff
res ort</w>
12 .
Mus eum</w>
em en</w>
I G
un expected</w>
ro gen</w>
a ison</w>
Li brary</w>
arti sts</w>
deri v
consul t</w>
W A</w>
di dnt</w>
Ma j
will ingness</w>
tra it</w>
mu d</w>
chec ks</w>
acces sible</w>
fo ster</w>
pu zz
l ap
integr ate</w>
Cer tific
dr unk</w>
prepar atory</w>
f uc
th rown</w>
re imbur
compati ble</w>
targe ted</w>
ign ore</w>
calcul ate</w>
isol ated</w>
ris es</w>
enjo ying</w>
as y</w>
isl ands</w>
is ely</w>
i. e.</w>
writ ers</w>
sho e</w>
harv est</w>
dis appeared</w>
H o
pro tocol</w>
g ently</w>
ad mir
or ph
mut ually</w>
favour able</w>
M aster</w>
Ex per
L ake</w>
Impl ement
ei ve</w>
F D
virtu ally</w>
s or</w>
fif tieth</w>
influ ences</w>
Un der</w>
re porter</w>
coordin ates</w>
S elf</w>
model ing</w>
Med ic
te ar</w>
sel ler</w>
up grad
dam ages</w>
X in
quali fication</w>
cor d</w>
r d</w>
phys ics</w>
m ill</w>
th ats</w>
s wal
ris en</w>
Swe den</w>
in habit
e ffic
Wor k</w>
en abling</w>
nur se</w>
W i
gen cies</w>
diplom acy</w>
ar ization</w>
e aten</w>
pro minent</w>
bud gets</w>
M L</w>
del icate</w>
N an
med al</w>
Leh man</w>
rel ax
boo m</w>
psych ology</w>
pregn ancy</w>
sp ati
en vis
em ia</w>
dimen sions</w>
M other</w>
UNC TA
P ow
Mil itary</w>
C ross</w>
sent ences</w>
discus sing</w>
hi red</w>
rec re
sk illed</w>
hydro gen</w>
un ited</w>
expres sions</w>
en ly</w>
dil ig
s ang</w>
h as
UNF PA</w>
H aw
5 ,
independ ently</w>
her o
commun ic
st resses</w>
so red</w>
Wh oever</w>
Sou thern</w>
vari ation</w>
r ail</w>
k istan</w>
coordin ating</w>
8 4</w>
b ite</w>
UNCTA D</w>
D om
recru itment</w>
hor ri
D al
eli hood</w>
capac ities</w>
bid ding</w>
ni an</w>
As sistance</w>
audi o</w>
a rest</w>
stead ily</w>
daugh ters</w>
or ange</w>
8 9</w>
advertis ement</w>
prin cess</w>
trag edy</w>
p ity</w>
l ingu
f ought</w>
d awn</w>
Guang zhou</w>
s light</w>
o ke</w>
nor ms</w>
en abled</w>
ad ium</w>
P ur
vot es</w>
compu ting</w>
bur ned</w>
assess ments</w>
vol ati
ret ain</w>
l ung</w>
d enti
grav ity</w>
e uro</w>
p ts</w>
shoul ders</w>
ec os
Sh a</w>
n esses</w>
resum ed</w>
dis hes</w>
ak a</w>
E v
pl un
co ating</w>
w oods</w>
re tired</w>
p h</w>
et tl
e es</w>
br ands</w>
T ang</w>
pati ence</w>
am ine</w>
we ren</w>
strang er</w>
accur ately</w>
promp t</w>
encoun tered</w>
incorpor ated</w>
ak er</w>
r aft</w>
constitu tion</w>
wil d
moder ate</w>
lif ting</w>
produc er</w>
absor ption</w>
H an</w>
plan ted</w>
h ob
brea thing</w>
restor ation</w>
jo ke</w>
arg uments</w>
. It</w>
whol es
P lease</w>
sensi tivity</w>
consist ently</w>
off ence</w>
av y</w>
de puty</w>
Co ordin
1 20</w>
suppl ied</w>
fer tiliz
C ath
flo ating</w>
ex emp
regre t
ut ter</w>
ge ome
am i</w>
P ot
bl u
trans mitted</w>
it ative</w>
develop ers</w>
bank ruptcy</w>
associ ations</w>
z ens</w>
H A</w>
10 ,000</w>
mod est</w>
compar ative</w>
As sistant</w>
in tim
che er
Str at
scr at
crow ded</w>
comb ining</w>
i us</w>
U r
Nether lands</w>
b in</w>
Sup pl
2 ,000</w>
att ach</w>
mil e</w>
Oc ean</w>
horizon tal</w>
H ow
Air port</w>
ro pe</w>
di min
. A</w>
J ac
ro yal</w>
r oughly</w>
pi ano</w>
entr usted</w>
ill ary</w>
gentlem an</w>
got ta</w>
d ens</w>
at oes</w>
W en</w>
B e</w>
pain ted</w>
Com pu
Hos p
fri ger
r ank</w>
vacu um</w>
C ent
thro at</w>
sev erely</w>
condu cive</w>
N ow</w>
re friger
compreh en
tu m</w>
i est</w>
Budd h
solid arity</w>
connec tions</w>
righ te
m asses</w>
im migration</w>
Musli m</w>
schol ars</w>
detec ted</w>
ber y</w>
es is</w>
ann ually</w>
as sured</w>
engine ers</w>
T ax</w>
summar ized</w>
speci ally</w>
sor row</w>
ban ds</w>
dispens able</w>
requ iring</w>
cri tics</w>
e g</w>
car riage</w>
bed room</w>
stam ps</w>
ri val</w>
as is</w>
smil ed</w>
en zy
Hosp ital</w>
ug ly</w>
oc e
gener ous</w>
wor th
wav el
prec isely</w>
def ects</w>
allo y</w>
se di
ish ments</w>
s ne
keep er</w>
E mer
renew ed</w>
op ens</w>
inspi red</w>
hear t
clu ster</w>
gr ass
tor ture</w>
se g
scienti st</w>
recall ed</w>
J ack
H or
ar chi
Ob serv
H ur
Chil d</w>
no tify</w>
l ecture</w>
In ter</w>
B an
control ler</w>
N AT
develop s</w>
ap ologi
ro g
exp ects</w>
desig ner</w>
d d
U se</w>
Jour nal</w>
ad mission</w>
prosecu tion</w>
ow n
O C</w>
bene fici
weal thy</w>
att acked</w>
Trans port</w>
No .
st h</w>
in form
conven tions</w>
W u
sco res</w>
diab etes</w>
br al</w>
ut ory</w>
me tric</w>
ad dy</w>
ran ch</w>
kin dness</w>
bas es</w>
P ear
Malay sia</w>
refl ecting</w>
it ated</w>
assist ing</w>
analy sed</w>
Aut onom
me als</w>
T S</w>
abund ant</w>
ter ror</w>
surve ys</w>
fra ud</w>
ex em
Industri al</w>
FA O</w>
pri est</w>
l anding</w>
k m</w>
fre ight</w>
div ide</w>
cros sed</w>
succe eded</w>
effici ently</w>
p m</w>
Y uan</w>
veget able</w>
uni fication</w>
Co ordination</w>
A ward</w>
reser ved</w>
rad ar</w>
gram s</w>
mat ching</w>
inf ected</w>
gener ating</w>
calend ar</w>
Ku wait</w>
petro leum</w>
win ds</w>
au g
volunte ers</w>
ret ro
eth ics</w>
er able</w>
aff ection</w>
li am
discipl inary</w>
C ON
hand some</w>
spec tac
res ist</w>
en ables</w>
bow l</w>
Sur vey</w>
plan es</w>
fati gue</w>
sp ell</w>
po etry</w>
let ting</w>
Sen ate</w>
oun ced</w>
j i</w>
ol ic</w>
econom ist</w>
r at</w>
purch ased</w>
pul se</w>
competi tiveness</w>
priv acy</w>
at titudes</w>
gr ound
inqu iry</w>
bub ble</w>
respon d
e ks</w>
O S</w>
In surance</w>
sp an</w>
cont est</w>
Cap ital</w>
9 7</w>
is a</w>
incl usion</w>
kno ck</w>
k s
A B
tax pay
li br
identi fying</w>
ev es</w>
stret ch</w>
cal ci
smil ing</w>
Sw iss</w>
P res
e. g.</w>
imp acts</w>
u ps</w>
sh ook</w>
br ac
Thom as</w>
invest ing</w>
imp ul
Wor ks</w>
2 nd</w>
se gment</w>
le isure</w>
pursu ing</w>
bul k</w>
autom obile</w>
Ti an
gre y</w>
cl ever</w>
N ot</w>
publ ishing</w>
in dispensable</w>
govern or</w>
Ji ang
S S</w>
g az
Nor way</w>
ter ies</w>
sha me</w>
consolid ation</w>
rang ing</w>
om et
met abol
auth entic
membran e</w>
X inj
sist ers</w>
ent ine</w>
min ded</w>
win d
cros sing</w>
off set</w>
exp ecting</w>
ex es</w>
read er</w>
out lined</w>
oo th
in adequate</w>
an der</w>
peri o
ha ir
h oo
g aining</w>
cul p
bor ing</w>
ac knowledge</w>
vis a</w>
le an</w>
inter f
degrad ation</w>
Invest ment</w>
temper atures</w>
peti tion</w>
pi g</w>
quanti tative</w>
che aper</w>
hy bri
af for
un necessary</w>
Ta ji
pro jec
it ch</w>
col or
y nam
traditi onally</w>
sel dom</w>
ni ghts</w>
jac ket</w>
g au
fru str
re vi
lo y
I ON
iel d</w>
distinc tion</w>
bic ycle</w>
M and
Clu b</w>
mean time</w>
DV D</w>
. com</w>
Produc ts</w>
capit a</w>
k n
effic acy</w>
L os</w>
analy tical</w>
compl ain</w>
s cor
spon sored</w>
fe at
ce iling</w>
GO s</w>
cre ativity</w>
work shops</w>
spati al</w>
seis mic</w>
m ess</w>
Ri o</w>
un happy</w>
st an</w>
p. m.</w>
inst inc
p es</w>
p ays</w>
T own</w>
ine a</w>
Fro m</w>
dis order</w>
G M</w>
sophistic ated</w>
che ese</w>
war s</w>
ste al</w>
sc and
n asty</w>
thresh old</w>
rel la</w>
ingredi ents</w>
hi er
S p
w n</w>
sha ft</w>
negoti ating</w>
at us</w>
ministr y</w>
g ast
hy s
circul ar</w>
sinc erely</w>
phr ase</w>
h yp
apprais al</w>
expres sing</w>
gras p</w>
F ive</w>
E l</w>
lo ver</w>
as ive</w>
ari ties</w>
L angu
O ver
amend ment</w>
K o
Austri a</w>
syn drome</w>
di o</w>
ch ina</w>
cer am
cat tle</w>
spir its</w>
pe t
ess ly</w>
e z
anticip ated</w>
she ets</w>
duc tion</w>
agre es</w>
G ulf</w>
sub jected</w>
predic tion</w>
for th
O ur</w>
L ands</w>
reven ues</w>
lab el</w>
la b</w>
dis gu
accep ting</w>
tr ick</w>
r ings</w>
ot a</w>
no tification</w>
witn esses</w>
mathematic s</w>
Pe o
it ude</w>
eleg ant</w>
Pro gram</w>
on ate</w>
jour nal</w>
st olen</w>
hun ting</w>
attemp ted</w>
7 ,
stri p</w>
Th en</w>
sp reading</w>
dr ama</w>
enti als</w>
all ing</w>
mus ical</w>
im aging</w>
char ity</w>
Th ese</w>
sle pt</w>
confir mation</w>
accoun tability</w>
Oper ations</w>
N GOs</w>
pres sures</w>
hot els</w>
eth ical</w>
cultiv ation</w>
T our
S r</w>
Pa ul
non linear</w>
be ef</w>
issu ing</w>
b ent</w>
analy st</w>
p ink</w>
e ge</w>
p it</w>
ir rit
cas u
cler k</w>
po sted</w>
differen tial</w>
de pri
bar rel</w>
Op en</w>
phenomen a</w>
H ist
Gold man</w>
mil li
bu yer</w>
Pri v
F l
st ery</w>
q ing</w>
mag nit
C ain</w>
en tive</w>
Te am</w>
portfol io</w>
poll ut
do or
decisi ve</w>
bre eding</w>
anx ious</w>
B ol
wi ves</w>
r am
accommod ation</w>
Sus an</w>
Stan ley</w>
so oner</w>
mer ch
in sufficient</w>
char ging</w>
bl essed</w>
bo ats</w>
air y</w>
B et
plu g</w>
ell a</w>
b our
install ations</w>
Territ ory</w>
sle ep
li sting</w>
ve ter
sc ared</w>
ho c</w>
gi d</w>
ener y</w>
Har v
cap tured</w>
author ization</w>
v enti
the id</w>
ome ter</w>
L etter</w>
ret re
v .</w>
ad hes
vol can
loo p</w>
dro ps</w>
cl ay</w>
rec eption</w>
ber ry</w>
accoun ted</w>
Stand ard</w>
surg ical</w>
inf ant</w>
consider ably</w>
bu m</w>
ten sions</w>
feren tial</w>
surr ounded</w>
he res</w>
ag ging</w>
B ab
therap eu
pill ar</w>
happ ily</w>
figu red</w>
no ble</w>
in sec
wol f</w>
oul try</w>
min er
enti ves</w>
emb o
3 rd</w>
roc ket</w>
je al
fi erce</w>
propos es</w>
S qu
Bo b</w>
fa ults</w>
John son</w>
Afgh an</w>
id en
S pi
enh ancement</w>
Prepar atory</w>
il legally</w>
A l</w>
argu ed</w>
premi um</w>
os s
del ays</w>
Certific ate</w>
A R</w>
at ings</w>
ab ul
Implement ation</w>
mid night</w>
d .</w>
canc el</w>
C O</w>
U g
rul ed</w>
delic ious</w>
d ull</w>
cam ps</w>
rec ep
h ills</w>
Cri me</w>
up grade</w>
Coun tries</w>
m ou
stic ks</w>
S han
F T
Ste ve</w>
ren dered</w>
sur ge</w>
reserv ations</w>
ren tal</w>
pris ing</w>
atten ding</w>
slo pe</w>
Strat egy</w>
perc eived</w>
econom ically</w>
ali ke</w>
tim ing</w>
quar antine</w>
occasi onally</w>
motiv ation</w>
col ored</w>
Bas ic</w>
uni ons</w>
ran ks</w>
er os
show er</w>
n arr
em ission</w>
suppl ementary</w>
pharmaceu tical</w>
out line</w>
Con trac
Philipp ines</w>
Mar ket</w>
amend ments</w>
Ar t</w>
p an</w>
modi fication</w>
flow ing</w>
v ise</w>
sun shine</w>
predic ted</w>
th um
educ ated</w>
classi fied</w>
ti li
omet res</w>
fre ed
ev ac
an ium</w>
C C</w>
. 鈥</w>
trad ers</w>
scre w</w>
i tive</w>
convic tion</w>
M e</w>
like wise</w>
to ys</w>
es el</w>
att end
associ ate</w>
O ld</w>
198 0</w>
ste re
ard ous</w>
appreci ated</w>
Xinj iang</w>
C T</w>
war m
struggl ing</w>
ob taining</w>
offici ally</w>
con science</w>
tax ation</w>
challeng ing</w>
re bel
bare ly</w>
Or der</w>
pi one
appl i
cast le</w>
I ts</w>
lin k
inv ites</w>
fl ed</w>
e rec
dis placement</w>
de formation</w>
ach ment</w>
O AU</w>
ul ty</w>
stat utory</w>
ro ad
kil ometres</w>
IM F</w>
igno red</w>
for b
ever age</w>
no tion</w>
Prov isions</w>
G al
uc k
l it</w>
ir ri
es cal
L E
magnit ude</w>
witn essed</w>
hy giene</w>
e ye
cre atures</w>
conserv ative</w>
fa x</w>
ap y</w>
Niger ia</w>
public ly</w>
Tr an
stoc k
be i</w>
Sub committee</w>
S har
Fr ank</w>
trad itions</w>
requ isite</w>
conting ent</w>
Spr ing</w>
EC O
tempor arily</w>
em i
Pol and</w>
objec tion</w>
den y</w>
bl ade</w>
UNO MI
tur b
t us</w>
olo gic</w>
min bi</w>
inc entives</w>
aes thetic</w>
rhy th
Turk ish</w>
r av
kno cked</w>
en rich
alleg ations</w>
Bos nian</w>
deliber ations</w>
u li
re fin
anc er</w>
alumin um</w>
a xed</w>
cre ature</w>
boy friend</w>
rem un
inhabit ants</w>
be ar
b old</w>
trans fers</w>
Scienti fic</w>
pass port</w>
w ashed</w>
threat ening</w>
speci fications</w>
minist ering</w>
isol ation</w>
pre jud
T ru
saf ely</w>
qu est</w>
Sec urities</w>
diff er</w>
di oxide</w>
y an</w>
sn ake</w>
si on
pan ic</w>
mus cles</w>
earli est</w>
cr af
ag on
Angel es</w>
exten ding</w>
im pressive</w>
prov en</w>
dev il</w>
d a
insist ed</w>
c ture</w>
neighb ouring</w>
certi fication</w>
I R
s en</w>
re ar</w>
re vision</w>
pro test</w>
correc tion</w>
-- -
pr o</w>
di al</w>
F lor
stri king</w>
he l</w>
tra um
recei ves</w>
tack le</w>
m ire</w>
g in
ev al</w>
dec lar
rev olutionary</w>
or ous</w>
lay ers</w>
frag ile</w>
u el</w>
performan ces</w>
glo be</w>
foc al</w>
f our
S H
barri er</w>
or th
el ly</w>
comm issi
un il
coun sel</w>
au to
Y ang
6 ,
i x</w>
end less</w>
en ters</w>
pol l</w>
L ess
rac ism</w>
post al</w>
cy cl
quanti ties</w>
c tic</w>
My an
al isation</w>
198 7</w>
reco vered</w>
We ap
n ick
h il
el ect</w>
c ous
tol l</w>
liqu idity</w>
ak en</w>
substanti ally</w>
ast on
F P</w>
indic ation</w>
H ab
sub stitute</w>
der ness</w>
con gress</w>
calci um</w>
appro ached</w>
y ear
won dered</w>
sel ls</w>
ra ham</w>
je wel
ch at
Par liament</w>
ow ns</w>
extr act</w>
custo dy</w>
re aches</w>
dead line</w>
ap par
Myan mar</w>
under tak
ly wood</w>
W ill</w>
mobil ization</w>
en counter</w>
H ave</w>
op ia</w>
freed oms</w>
resear ches</w>
gu iding</w>
I B
stimul us</w>
limit ations</w>
S k
perc eption</w>
e on</w>
bo o</w>
L ar
rest ored</w>
incur red</w>
S an
cali br
An n
v a</w>
u sive</w>
tri gger</w>
surpris ing</w>
se y</w>
p assi
dr illing</w>
competi tors</w>
L uc
so cc
multi pl
grand father</w>
di c</w>
us al</w>
t es
set tings</w>
privil eg
p in</w>
T su
vi c</w>
rein forced</w>
ch equ
Win dows</w>
mil it
assur ance</w>
sp here</w>
ge ological</w>
my stery</w>
Y u</w>
Tr ust</w>
Ro yal</w>
sacri fic
persist ent</w>
emplo y</w>
dynam ics</w>
distingu ished</w>
Ar ti
pain tings</w>
negoti ate</w>
j unior</w>
congres ses</w>
avo ided</w>
struc tive</w>
dis appointed</w>
a wards</w>
qu een</w>
ins ist</w>
ain age</w>
Bro ad
ti te</w>
ver sions</w>
er o
ell ation</w>
is co</w>
ful ness</w>
Col om
tri um
E N</w>
Al ex
emer gencies</w>
E r
D ig
vot ed</w>
re vol
pris oner</w>
cir cles</w>
Pol y
M S</w>
socc er</w>
coun ties</w>
pit ch</w>
laugh ing</w>
champi on</w>
Human itarian</w>
4 th</w>
ju ven
im pressed</w>
pher ic</w>
bur g</w>
Cor p.</w>
dest iny</w>
cu b
al together</w>
ni tive</w>
conc eption</w>
j in</w>
arch y</w>
P o</w>
ti ans</w>
o h</w>
S am</w>
Ex port</w>
par ticle</w>
Bec ause</w>
tri als</w>
pal ace</w>
hum or</w>
Prem ier</w>
se em
op ing</w>
bound aries</w>
Meth od</w>
ap ol
UNIT A</w>
Tex as</w>
op her</w>
bri de</w>
av ing</w>
v an</w>
sor ts</w>
sal v
ri ght
il er</w>
f ear
thi ef</w>
expe di
bas in</w>
at ri
grad uation</w>
def endant</w>
ann y</w>
f ake</w>
In c</w>
mid st</w>
chec k
U L
neighb or</w>
cru el</w>
consolid ated</w>
Ex p
C at
trou bled</w>
mat ches</w>
iden tical</w>
S aud
sun light</w>
neighb ors</w>
di ame
Autonom ous</w>
sol ic
imper ative</w>
cle ans
z er</w>
neighb ours</w>
d u</w>
u a</w>
su es</w>
reduc es</w>
T an
mult in
liber ty</w>
exerc ising</w>
C PC</w>
monopol y</w>
K im</w>
Agricul ture</w>
mil d</w>
isi ble</w>
ex ter
ad ol
stre am
s culp
occur rence</w>
e a</w>
Pear l</w>
Inte gr
po et</w>
T in</w>
see ks</w>
crimin als</w>
pol e</w>
m our
bas ket</w>
al ter</w>
C ard</w>
rel ay</w>
Un der
therapeu tic</w>
vit amin</w>
respon ding</w>
moun ted</w>
St aff</w>
week ly</w>
t .
coun cil</w>
Dru g</w>
CE O</w>
ro d</w>
be ating</w>
regul ate</w>
comm em
t ang
safe guarding</w>
re feren
entrepreneur s</w>
d ressing</w>
d os
ch ap
k i</w>
less ly</w>
gol f</w>
but ter</w>
al ert</w>
pu ties</w>
dem anded</w>
Treat ment</w>
N ature</w>
vari ables</w>
ol ine</w>
magaz ines</w>
eng aging</w>
corro sion</w>
thir ds</w>
p ound</w>
f ancy</w>
ak e
Mar k</w>
tr ap</w>
respec ts</w>
prev ented</w>
post p
exam ining</w>
acqu ain
C air
prob ability</w>
desp air</w>
abul ary</w>
E T</w>
r age</w>
mer cy</w>
inten ds</w>
facilit ating</w>
ev id
T R
P ho
K w
Gr and
vo ices</w>
Harv ard</w>
B ag
s wee
but ter
b are</w>
moist ure</w>
go ds</w>
tribu te</w>
ess ay</w>
constitu ted</w>
W ong</w>
R em
Prof essional</w>
p esti
l aying</w>
bl ast</w>
rad ical</w>
optimis tic</w>
a than</w>
La w
re ferences</w>
sc ar</w>
Y a
un anim
co efficient</w>
am ended</w>
contr actor</w>
col um
laugh ed</w>
dem anding</w>
credi bility</w>
concer ted</w>
appl es</w>
T ra
cris es</w>
coun ted</w>
AT ION</w>
re moving</w>
el astic</w>
Princi ples</w>
sh it</w>
pre cip
farm ing</w>
com bus
Con serv
1 3.
Rel ations</w>
M ach
clim bing</w>
Moun t</w>
syn thetic</w>
publ ish</w>
laun ching</w>
bo ar
ad o</w>
peas ants</w>
loc ks</w>
lo d
un doub
b am
p oultry</w>
grand mother</w>
comp ounds</w>
accum ulation</w>
absor bed</w>
Mo vement</w>
F ord</w>
Den mark</w>
trav elling</w>
contr actual</w>
T est</w>
cu p
at or
Inv estig
erad ication</w>
deser ves</w>
brea the</w>
V II</w>
sc al
plo t</w>
wa ste
infec tious</w>
furn ace</w>
embar go</w>
dec om
plas ma</w>
din ing</w>
bed ded</w>
g ent</w>
Pr inc
sol em
r ushed</w>
met als</w>
m asters</w>
grad es</w>
G l
stop ping</w>
ob il
draf ting</w>
B en</w>
he rence</w>
f itting</w>
def ect</w>
super vise</w>
proce eds</w>
Y un
P ress</w>
Mar ine</w>
M em
or bit</w>
cred itors</w>
announ ce</w>
kilome ters</w>
in herit
curren cies</w>
ran ean</w>
popul arity</w>
lo ads</w>
end ang
belong ing</w>
Bul g
edi tion</w>
cha ir
car cin
Par t
ur a</w>
om ed</w>
S C</w>
or derly</w>
influ enza</w>
dat ory</w>
D utch</w>
Chur ch</w>
swe ar</w>
atom ic</w>
Ste ph
speci fication</w>
it ted</w>
Bel gi
p se</w>
inte st
algorith ms</w>
organ isation</w>
fin anced</w>
in comes</w>
dam n</w>
in stances</w>
calcul ating</w>
T om
L ist
o o</w>
Oper ation</w>
2 50</w>
repatri ation</w>
question ed</w>
1 00
pro be</w>
ili bri
ar ch</w>
PD F</w>
M ur
ta p</w>
con fusion</w>
acti c</w>
a. m.</w>
T C
th ough
ch op
E P
C SCE</w>
tr il
them es</w>
Hol y</w>
may or</w>
ful filled</w>
green house</w>
bi ology</w>
HK SAR</w>
w ay
U p
O w
wonder ing</w>
ro tation</w>
ow e</w>
O s
mis t</w>
in herent</w>
in ch</w>
attribu te</w>
vie wer</w>
str icken</w>
life style</w>
under stand
h iding</w>
eng ines</w>
198 0s</w>
reg im
R os
E thi
pe l</w>
st ops</w>
acc ess
Y outh</w>
indic ating</w>
nov ation</w>
long ed</w>
bil lions</w>
Val entine</w>
vi able</w>
tr ains</w>
mort g
l est</w>
il ian</w>
con vey</w>
bal ances</w>
D ou
mar king</w>
environ ments</w>
deli ght</w>
Loc al</w>
spok es
fl ash</w>
r ating</w>
Re u
re actions</w>
k i
dev i
congrat ulations</w>
al istic</w>
ad dic
si de
sh elf</w>
medic ines</w>
h ec
de adly</w>
Saud i</w>
vers al</w>
O P
Bar ack</w>
en quiries</w>
cred ited</w>
to y</w>
obli ged</w>
k es
blo g</w>
bas e
add resses</w>
UNE SCO</w>
Proper ty</w>
remin ded</w>
connec ting</w>
sub jec
1 4.
Administr ator</w>
qu iry</w>
k o</w>
evalu ated</w>
ation .
J on
Cy pr
Ad d.
mod es</w>
l acking</w>
gl ance</w>
excit ement</w>
co des</w>
dis plays</w>
Hol lywood</w>
Cypr us</w>
scri pt</w>
X X
trag ic</w>
stimul ate</w>
fac ial</w>
gan g</w>
S OM</w>
Cul ture</w>
sw ing</w>
respond ents</w>
3 ,000</w>
wr apped</w>
rout es</w>
O x
Hun g
ra ises</w>
pro ph
dra ws</w>
soci alism</w>
comman der</w>
bre eze</w>
beli efs</w>
ut most</w>
radio active</w>
f ty</w>
a unt</w>
ware house</w>
proc ur
Ex am
B re
we igh</w>
th y
t s
mon d</w>
inc entive</w>
dri ed</w>
bl ank</w>
tor ch</w>
haz ardous</w>
vill agers</w>
prov es</w>
escap ed</w>
contro versi
stret ched</w>
loc ally</w>
ha ble</w>
con junction</w>
St .</w>
obstac le</w>
mag nific
lugg age</w>
rel axed</w>
r yp
wor ship</w>
un ch</w>
sec toral</w>
fore stry</w>
dec ent</w>
b other</w>
acc ord</w>
1 00,000</w>
s ad
rob ust</w>
main tains</w>
hos tile</w>
w ai
ul ative</w>
re alizing</w>
po em</w>
theat re</w>
Po int</w>
N ot
Ch ange</w>
vacc ine</w>
ol dest</w>
Bi g</w>
threat en</w>
j ury</w>
pay able</w>
Wel fare</w>
re consideration</w>
pr ag
d row
Hel en</w>
om y</w>
Dal ai</w>
ha b
adjust ments</w>
B ir
pled ged</w>
me tal
gar bage</w>
198 5</w>
th ickness</w>
safe guards</w>
toil et</w>
consolid ate</w>
con form</w>
V ill
att aches</w>
Plat form</w>
m apping</w>
Ob server</w>
cat s</w>
ad here</w>
Commer cial</w>
so dium</w>
n ucle
dram atically</w>
ban kers</w>
Tr av
im migrants</w>
det ained</w>
contr actors</w>
cog nitive</w>
resp ir
no de</w>
conven ed</w>
s au
o b</w>
bon us</w>
swe at</w>
mac ro</w>
fi br
environ mentally</w>
co ck
cab inet</w>
N P
mer ger</w>
fif teen</w>
arbitr ary</w>
ad a</w>
inst ability</w>
diagnos tic</w>
minim ize</w>
electr on</w>
att or
ha st
gri ef</w>
celebr ation</w>
c ents</w>
Mar x
smuggl ing</w>
inherit ance</w>
inev itably</w>
C D
pl ain
fric tion</w>
am i
ad ministering</w>
Cir cular</w>
Flor ida</w>
row ave</w>
promot es</w>
S of
Gre en
pul ling</w>
ei l</w>
equ ilibri
w ool</w>
trans national</w>
I l
super visory</w>
shor ter</w>
s our
resol ving</w>
renew al</w>
Ad v
n ut</w>
direc tory</w>
S ome</w>
sha de</w>
progres sive</w>
fil ing</w>
Palestin ians</w>
ro l</w>
ov o</w>
o res
Gr and</w>
tal e</w>
there in</w>
ide ological</w>
bre ach</w>
attribu tes</w>
D ad</w>
rac ing</w>
ex ag
thr ust</w>
differen tly</w>
Spi rit</w>
B on
g ates</w>
compar ing</w>
wor ries</w>
prev ailing</w>
conf used</w>
Jud ah</w>
sympa thy</w>
or a</w>
pip eline</w>
exce eding</w>
Langu age</w>
r ics</w>
la h</w>
diversi fication</w>
crow n</w>
Mac au</w>
veri fied</w>
purch ases</w>
free ze</w>
b ai
acceler ated</w>
ther ine</w>
emer gence</w>
Portu gal</w>
contin uation</w>
br ains</w>
undertak ings</w>
un certain</w>
analy se</w>
Mc Cain</w>
198 6</w>
bath room</w>
Mongol ia</w>
Cair o</w>
An tar
secu red</w>
m ask</w>
absor b</w>
ur ban
prosper ous</w>
me tic</w>
behavi ors</w>
L ittle</w>
ti ger</w>
recogn izes</w>
fut ures</w>
cons ist</w>
ab normal</w>
St ar</w>
on au
nation wide</w>
i ary</w>
appro aching</w>
UNO SOM</w>
Sal v
bur y</w>
Po st
m es
deteri or
li ti
n es</w>
modi fy</w>
is her</w>
eros ion</w>
clim bed</w>
clear ing</w>
Democr ats</w>
tion ers</w>
c ave</w>
ab o
C z
de eds</w>
criter ion</w>
relev ance</w>
ge o
aliz es</w>
scen es</w>
photograp h</w>
ch ester</w>
ac com
st um
ob s
l or</w>
hybri d</w>
en do
Al ban
se aled</w>
form ally</w>
astr onom
sol ely</w>
emer ge</w>
e uro
2 7
irri gation</w>
elim inated</w>
res in</w>
desper ate</w>
advent ure</w>
ri gid</w>
gr o</w>
tr ay</w>
tem per</w>
gr ants</w>
abund ance</w>
Pu bl
tel e
em peror</w>
ad er</w>
N .</w>
sup porters</w>
plan tation</w>
o cide</w>
m aid</w>
dis abilities</w>
exec ute</w>
undoub tedly</w>
sh y</w>
am pli
A G
spr ay</w>
re viewing</w>
f ounding</w>
ab sent</w>
perio dic
campaig ns</w>
Ar men
wel coming</w>
shi eld</w>
overwhel ming</w>
u ality</w>
qu al
c ited</w>
Che ung</w>
pro secut
excep tional</w>
D aily</w>
ret ail
equ ations</w>
emb race</w>
distingu ish</w>
ambi tious</w>
A zer
t ough
off ensive</w>
in er
h ast</w>
c a</w>
lu br
er ings</w>
coo ked</w>
ch at</w>
T ony</w>
pr ayer</w>
oppon ent</w>
slow down</w>
ri dic
reason ably</w>
per me
gen e
congrat ulate</w>
cle ared</w>
Statis tics</w>
sco red</w>
h ook</w>
f its</w>
sust ain</w>
qu ery</w>
pass word</w>
enjo ys</w>
transl ated</w>
exha usted</w>
Nat ural</w>
Gu inea</w>
B ranch</w>
rol ler</w>
econom ical</w>
bri gh
Medic ine</w>
L in</w>
5 th</w>
ter n</w>
s b</w>
high light</w>
t ness</w>
plan ting</w>
par liam
char m</w>
ud ge</w>
sh u
p aste</w>
al ised</w>
M ater
Com man
t ap
mobil ize</w>
exclu sively</w>
dir t</w>
E ver
moun t</w>
br a</w>
aspir ations</w>
vari ed</w>
neighbor hood</w>
doc tr
de x</w>
envis aged</w>
air ing</w>
per mits</w>
ou ting</w>
i ghts</w>
di g</w>
dang ers</w>
clu bs</w>
se wage</w>
pro jected</w>
enjo yment</w>
Ser bia</w>
el and</w>
b alls</w>
DC P</w>
2 1st</w>
w icked</w>
prin ts</w>
fe ared</w>
duc k</w>
adap tive</w>
Xi a
sk i</w>
Don ald</w>
worl ds</w>
up ward</w>
pu pil
gentlem en</w>
L at
sil ly</w>
n aked</w>
emplo ying</w>
com pos
brid ges</w>
bus es</w>
b ular</w>
S ports</w>
B il
wild life</w>
suppl ement</w>
assum ption</w>
act ress</w>
M echan
schol ar
renew able</w>
Re fu
ch in
br ick</w>
pec uli
equilibri um</w>
ax is</w>
R ound</w>
inv asion</w>
fool ish</w>
favour ite</w>
trans formed</w>
reve als</w>
par ks</w>
cri pt</w>
T en
Q ing</w>
K az
5 0,000</w>
spon tan
myster ious</w>
S mall</w>
pas sive</w>
consist ency</w>
L en
v end
tu ition</w>
preser ved</w>
fin ishing</w>
appar atus</w>
R eli
sc enery</w>
crimin ation</w>
Sar ah</w>
I ve</w>
pre ference</w>
fu els</w>
comb ating</w>
b ore</w>
on ship</w>
Ug anda</w>
nit rogen</w>
h o</w>
ros es</w>
exam inations</w>
sil es</w>
scat tered</w>
pupil s</w>
compl ement</w>
s p</w>
oc y
flav or</w>
dur able</w>
dri ves</w>
Val ley</w>
diame ter</w>
li abilities</w>
adequ ately</w>
accom mo
quot ed</w>
presid ency</w>
improv es</w>
ge ographic</w>
continu ally</w>
Ch ung</w>
R oom</w>
terror ists</w>
n i</w>
broad casting</w>
ho sted</w>
an thro
in direct</w>
Jam a
optim um</w>
hon esty</w>
ener ge
ambi que</w>
S D</w>
w astes</w>
trac ks</w>
he ated</w>
Res pon
Ex c
syn thes
sub sid
sel ecting</w>
nation als</w>
g in</w>
e ste
dr ying</w>
di al
Moz ambique</w>
Ben j
foun der</w>
T ong</w>
1 6.
tari ff</w>
re ferring</w>
oper a</w>
inter views</w>
expec tation</w>
ak ers</w>
Compu ter</w>
8 ,
neutr al</w>
sha king</w>
p ist
ben ch
UN DCP</w>
s u</w>
reli ance</w>
pig s</w>
l ing
judg ement</w>
arm ing</w>
accum ulated</w>
ple 鈥檚</w>
pe ts</w>
gen ius</w>
it an</w>
in stitute</w>
de pressed</w>
cli ff</w>
Sy stems</w>
accommo date</w>
Inspec tion</w>
smoo thly</w>
rein force</w>
pi e</w>
jus tified</w>
indic ator</w>
desig ners</w>
U ru
1 10</w>
colon ial</w>
ad mire</w>
w ishing</w>
volunte er</w>
positi vely</w>
net working</w>
i ent</w>
dis ability</w>
v ain</w>
sub programme</w>
qu et</w>
o x</w>
ind ul
fu ci
fit ness</w>
Ar ts</w>
tex tile</w>
parti ally</w>
licens ing</w>
land ed</w>
gener ator</w>
break down</w>
M ul
mini stered</w>
j ail</w>
gram mar</w>
doub ts</w>
ret ained</w>
ne ural</w>
consul ting</w>
bat ch</w>
back ward</w>
D ist
remun eration</w>
contain ers</w>
bor rowing</w>
Per sons</w>
Ch an
whol ly</w>
vo y</w>
id able</w>
es tions</w>
appe aring</w>
le x</w>
interf ere</w>
inspir ation</w>
he ter
g ay</w>
at el
F ield</w>
pl edge</w>
hal t</w>
estim ation</w>
c ill
aband on</w>
o ved</w>
har sh</w>
cha os</w>
base ball</w>
an eous</w>
electr onics</w>
s ink</w>
cur ious</w>
condem ned</w>
cam er
wan ting</w>
spl en
ne um
medi ation</w>
infra red</w>
cl ause</w>
atic s</w>
ain less</w>
demonstr ates</w>
trans late</w>
voc abulary</w>
pur ple</w>
com prises</w>
san itation</w>
photograph s</w>
car to
rel s</w>
rac es</w>
pre ferential</w>
persu ade</w>
hand ic
UNA MI
p oured</w>
light ning</w>
g an</w>
de fl
P .
J ust</w>
ge red</w>
car ing</w>
Sen ator</w>
st a</w>
Ap pe
spec ulation</w>
dec k</w>
M ol
L y
fl our
do zens</w>
clin ic</w>
c ket</w>
T ask</w>
phys ically</w>
high lighted</w>
defin ing</w>
be aten</w>
ali tion</w>
res on
recipi ent</w>
reaffir med</w>
off ences</w>
in c</w>
expl oring</w>
elabor ate</w>
com pression</w>
iter ranean</w>
Refu ge
C red
e ternal</w>
de puties</w>
cataly st</w>
bam boo</w>
av en</w>
t ext
int ent</w>
be ans</w>
viol ated</w>
m ud
Reg ulation</w>
tou ching</w>
sens ing</w>
avo iding</w>
trou bles</w>
mat urity</w>
dom inated</w>
apar theid</w>
M ain</w>
Col um
ver n</w>
survi v
spec tro
as sign</w>
urg ently</w>
conver ted</w>
ab dom
pic king</w>
hom et
elim inating</w>
colle ague</w>
sur faces</w>
lo vers</w>
Uru gu
Ma c</w>
G o</w>
em bedded</w>
du ly</w>
appe tite</w>
Dis crimination</w>
Ath ens</w>
fer tility</w>
br ut
B oo
v ap
utili zed</w>
spac es</w>
Y i</w>
NAT O</w>
vari eties</w>
mic rowave</w>
ic it
ec tural</w>
dis appear</w>
H app
C E</w>
utili ze</w>
sho ts</w>
r ance</w>
fil tr
es ome</w>
Q i
Med iterranean</w>
me try</w>
insul a</w>
E SC
sti r
intern ally</w>
en force</w>
dis closure</w>
A .
un fair</w>
gl y
bai j
satell ites</w>
e re
al ong
PR C</w>
Fran k
obe y</w>
kin dly</w>
fing er
bag gage</w>
ON U
Azer baij
reg ener
read ily</w>
nu ts</w>
Ch el
v ector</w>
ch ase</w>
V is
R am
porte dly</w>
sust ain
dis par
bure auc
Cha ir
ru b</w>
Enter prise</w>
forec asts</w>
compens ate</w>
PL C</w>
tak e
investig ating</w>
bur nt</w>
ul ating</w>
D A</w>
B ible</w>
intensi fy</w>
co ding</w>
Benj amin</w>
spe ech
exag ger
cylin der</w>
re me
tr uc
sh ining</w>
ha med</w>
n ail</w>
An dre
shoc ked</w>
encour agement</w>
comp act</w>
Con fuci
inv ented</w>
fai thful</w>
en closed</w>
dis ser
stor ms</w>
sp in</w>
ho o</w>
fun eral</w>
ar ose</w>
Ass ess
p ick
out break</w>
hat red</w>
diag ram</w>
Jack son</w>
J iang</w>
y stem</w>
gr ab</w>
dr ank</w>
st un
serv icing</w>
pre dec
ne arest</w>
man datory</w>
li aison</w>
al tar</w>
Li ver
dr ainage</w>
ser i
n os
gh ost</w>
succ ession</w>
organ isms</w>
writ es</w>
cou pled</w>
vigor ous</w>
g ang
bun ch</w>
Xin hua</w>
S ino</w>
f u</w>
f arms</w>
deteri oration</w>
bi om
ag eous</w>
m ing
explo red</w>
er up
ad i
S T</w>
C F
Bang lad
us eless</w>
transi tional</w>
th rowing</w>
att ain</w>
I d</w>
meteor ological</w>
m and</w>
Mor oc
dr ill</w>
R og
prec au
out door</w>
ha o</w>
fl our</w>
est ock</w>
ble w</w>
S U
5 0
se ize</w>
sau ce</w>
s ail</w>
con secu
Ken ya</w>
t os
sup per</w>
is k</w>
ez u
es ity</w>
senti ment</w>
miner als</w>
co stly</w>
at em
yl on</w>
it .
in ely</w>
evol ved</w>
en acted</w>
Stu dies</w>
wr ong
con sume</w>
arri ving</w>
L u</w>
&apos; the</w>
scenari o</w>
fast est</w>
dis per
ack er</w>
N ep
Jac ob</w>
Cham ber</w>
l ens</w>
var ying</w>
pol ar</w>
kne es</w>
recur rent</w>
poli tically</w>
ot rop
197 8</w>
perpe tr
mon key</w>
l ately</w>
hu h</w>
explos ive</w>
allevi ate</w>
Ser b</w>
sac red</w>
gr ab
P ort</w>
o tive</w>
emphas izes</w>
P ing</w>
or ious</w>
deli ghted</w>
char ming</w>
need le</w>
dr agon</w>
d ney</w>
ad ministered</w>
UNAMI R</w>
no where</w>
G C</w>
el ementary</w>
We i</w>
Urugu ay</w>
nov els</w>
determin es</w>
tac tics</w>
res cu
ic king</w>
g a</w>
bloc k
hi bits</w>
haz ard</w>
g ases</w>
El ection</w>
jac ent</w>
main stream</w>
defici ency</w>
than ked</w>
as on</w>
Ven ezu
manufac tured</w>
excl uding</w>
bloc ked</w>
re alities</w>
ed .
counter measures</w>
organ ised</w>
multin ational</w>
mis siles</w>
inspec tions</w>
initi ate</w>
cas ual</w>
testi mony</w>
sli pped</w>
ex changed</w>
ass ass
Weap ons</w>
present ly</w>
forb idden</w>
Em peror</w>
tri ps</w>
thir dly</w>
speci alist</w>
rev it
polic eman</w>
wor m</w>
s oul
re sist
ran king</w>
in spect</w>
grad ual</w>
fron tier</w>
pre sum
l ac
be ds</w>
al tered</w>
a is
pun ish</w>
dis missed</w>
adju sting</w>
H ill</w>
phas es</w>
intermedi ate</w>
reaffir ms</w>
dist ress</w>
combus tion</w>
bus h</w>
aim ing</w>
C ap</w>
so ap</w>
ous ed</w>
anc est
1. 5</w>
id er</w>
forth coming</w>
ban ned</w>
t ably</w>
r ated</w>
en ligh
bi e</w>
yl ene</w>
fail ures</w>
eng er</w>
consult ants</w>
confron tation</w>
C R
it y
inter active</w>
Offic es</w>
un employed</w>
pol ite</w>
over sight</w>
el der</w>
e h</w>
cultiv ated</w>
Re form</w>
reme dy</w>
motiv ated</w>
consul tant</w>
Col on
fo x</w>
attemp ting</w>
prof itable</w>
fem in
tit les</w>
six ty</w>
di esel</w>
consi sting</w>
car pet</w>
off shore</w>
deser tification</w>
cigaret tes</w>
Enter prises</w>
web sites</w>
re portedly</w>
mil l
la zy</w>
an ten
Fin land</w>
mo il</w>
does nt</w>
certi fied</w>
work place</w>
1 .</w>
stri kes</w>
reli eve</w>
construc ting</w>
and y</w>
id ated</w>
condi tioning</w>
Col l
d airy</w>
tal ented</w>
par liament</w>
Y oun
Electr onic</w>
E V
198 4</w>
str aw</w>
p el
incredi ble</w>
jo y
b in
pack ages</w>
hun t</w>
provid er</w>
iss ance</w>
insec ts</w>
it a</w>
gen ocide</w>
S .
dem ographic</w>
an cies</w>
B .
resi dual</w>
prejud ice</w>
T ower</w>
por tive</w>
govern ed</w>
tur moil</w>
reiter ated</w>
found ations</w>
fi res</w>
controversi al</w>
cor rid
&apos; it</w>
ho sts</w>
dec entr
Sy dney</w>
Gu atem
kid n
fuc king</w>
T y
sub way</w>
Franc isco</w>
fru it
ess ors</w>
Squ are</w>
S on</w>
Mar s</w>
Assess ment</w>
ff ed</w>
cultiv ate</w>
D own
Coordin ator</w>
sa ith</w>
no is
whe els</w>
libr aries</w>
g lim
R ent</w>
war n</w>
manag erial</w>
The ory</w>
C T
C I
ri vals</w>
read iness</w>
homet own</w>
gi e</w>
cat ching</w>
sh ri
peas ant</w>
i i</w>
Observ atory</w>
trans mitting</w>
m aps</w>
fer r
Zh ou</w>
P y
process or</w>
ig ned</w>
Steph en</w>
Pal ace</w>
M A</w>
rap e</w>
over night</w>
mater nal</w>
de structive</w>
F lo
n ine
ch im
man ners</w>
bel oved</w>
E AN</w>
Com mon
s ail
predic table</w>
loo m</w>
ful filling</w>
ell ers</w>
F ree</w>
s ni
cad res</w>
attend ance</w>
umb rella</w>
tr unk</w>
ambi tion</w>
a issance</w>
Qu estions</w>
Liver pool</w>
wo ke</w>
electro magnetic</w>
B O
tigh tly</w>
mor ality</w>
aw ake</w>
st en
shap es</w>
question n
bu reau</w>
the ater</w>
liqu idation</w>
kid ney</w>
dec iding</w>
Str ate
nam ent</w>
R ight</w>
prote sts</w>
pro mo
experi encing</w>
.... ....
ev ap
ul sion</w>
tex ture</w>
sen ds</w>
provid ers</w>
je op
cur i
activ ated</w>
re ject</w>
envel ope</w>
ar a</w>
let t</w>
Mun icip
in ches</w>
ed e</w>
C lar
vi d</w>
stu b
staff ing</w>
l ane</w>
ke ting</w>
Vic tor
Colom bia</w>
evalu ating</w>
r ude</w>
perc ep
in su
slow ing</w>
or ally</w>
ac ies</w>
Scot land</w>
R oc
Chin as</w>
y en</w>
sand w
rem emb
Str uc
Mad rid</w>
C ris
yl um</w>
p our</w>
mis erable</w>
Taji kistan</w>
u ity</w>
susp end</w>
ox id
dre am
casu alties</w>
color ful</w>
re y</w>
fi able</w>
contin ental</w>
coun sel
br is</w>
y n</w>
industri alized</w>
aff ili
Ac ti
trad ed</w>
t .</w>
reci proc
other apy</w>
o ven</w>
man s</w>
compe ting</w>
ain e</w>
Cl ass</w>
C os
restric tion</w>
fas c
dru m</w>
consum ing</w>
consum ed</w>
Y O
G ates</w>
Chel sea</w>
struc tured</w>
scre ening</w>
scand al</w>
re strict</w>
pre f
low ing</w>
bu g</w>
ad mi
Sa har
nur ses</w>
frigh tened</w>
conver t</w>
comm its</w>
Coun try</w>
Bri dge</w>
stat ute</w>
regul ators</w>
ag e
Nic ar
iti s</w>
Ser bs</w>
Li b
Hab it
sup portive</w>
spons or</w>
measu rements</w>
f ame</w>
am big
Xi ao</w>
Tour ism</w>
19 49</w>
viol ate</w>
s its</w>
re act</w>
pl um
collap sed</w>
ac ity</w>
sti r</w>
bre ath
V e
Som ali</w>
Banglad esh</w>
b at</w>
An ti</w>
. He</w>
sam pling</w>
p neum
ol ds</w>
cros s
cleans ing</w>
2 .</w>
speci alists</w>
ob esity</w>
den se</w>
colum ns</w>
coll ar</w>
y og
rati fication</w>
e z</w>
cat ast
bot tles</w>
Per s
under mine</w>
mar ri
ad jacent</w>
swe pt</w>
consul tative</w>
M ao</w>
func tion
C op
dem obil
at traction</w>
y i</w>
min d
magnific ent</w>
ill um
con fined</w>
be st
assess ing</w>
es cent</w>
H ear
s ab
or us</w>
al lies</w>
in stantly</w>
consecu tive</w>
Je ws</w>
10 5</w>
win ners</w>
to col
t ut
p ants</w>
monit ored</w>
l iness</w>
he al</w>
bul l</w>
Ju li
鈥 檛</w>
war ding</w>
st ainless</w>
p y
mechan ics</w>
long est</w>
infer ior</w>
trad es</w>
He ad</w>
re b
lo yal</w>
le ague</w>
Common wealth</w>
Cham pi
el et
circum stance</w>
air line</w>
Rw and
B ook</w>
te x</w>
om atic</w>
Republic ans</w>
it ory</w>
formul ating</w>
bul let</w>
Al an</w>
鈥 淭
ris on</w>
med als</w>
cand y</w>
bl essing</w>
acc u
si zes</w>
p ine</w>
ing e</w>
Ex cell
t ooth
rec over
counter parts</w>
C el
Al ice</w>
shou ted</w>
rati fied</w>
jus tify</w>
along side</w>
convic ted</w>
confid ential</w>
qu ad
ow s</w>
liv estock</w>
apologi ze</w>
advoc ate</w>
y m
sub tle</w>
resear ched</w>
gradu ated</w>
canc elled</w>
c eas
pen alties</w>
pe d
tili ties</w>
Sh an</w>
st ole</w>
part ner
mother land</w>
man ship</w>
li ed</w>
la m</w>
in door</w>
E limin
disser tation</w>
UN IF
ti re</w>
tur bul
Z im
O ri
2 4
icit ly</w>
cha ins</w>
adop ts</w>
We b
M en</w>
system atically</w>
un clear</w>
moun ting</w>
Pr acti
sh allow</w>
reluc tant</w>
pe ar
UN ID
tw in</w>
tru sted</w>
no te
amoun ted</w>
sel fish</w>
macro economic</w>
dr ain</w>
C L
sk irt</w>
sil icon</w>
re mark</w>
incl ined</w>
helicop ter</w>
dis c</w>
ble eding</w>
Gar den</w>
tocol s</w>
proce eding</w>
f ence</w>
acc ession</w>
ignor ance</w>
fin anci
celebr ated</w>
S aint</w>
Li by
tex ts</w>
end ure</w>
St ar
I I
reaffir ming</w>
monit ors</w>
ge on</w>
ai res</w>
Al ger
rel ics</w>
horiz on</w>
ep is
dou bled</w>
assum ing</w>
Ed ward</w>
J im
F our</w>
E s</w>
L og
Habit at</w>
c age</w>
S ig
ver ies</w>
val ence</w>
protec ts</w>
deep en</w>
Z one</w>
ush es</w>
swe et
su ited</w>
issu ance</w>
distribu te</w>
A ge</w>
i als</w>
et c.</w>
cau tious</w>
blow ing</w>
autom ation</w>
y le</w>
em an
Emer gency</w>
suffici ently</w>
nation alities</w>
key words</w>
e go</w>
div isions</w>
anc e
S P</w>
Custom er</w>
tril lion</w>
run ner</w>
om er
liber al</w>
com ings</w>
re fresh
commer ci
alco hol
S E</w>
P sy
negoti ated</w>
head ache</w>
agu a</w>
He ads</w>
cous in</w>
V III</w>
Less on</w>
po ison</w>
d able</w>
compar able</w>
aud iting</w>
Tun isi
on ization</w>
cand le</w>
9 ,
tan ks</w>
enc e
critici zed</w>
K os
spe eds</w>
se ated</w>
dec lining</w>
cur b</w>
Pers onal</w>
un de
v able</w>
qu an
cin ema</w>
D re
t ended</w>
spec im
reduc tions</w>
negl ect</w>
liber ation</w>
har ass
dis closed</w>
ax ial</w>
W en
Ken ne
H an
AS EAN</w>
re vo
open ha
Y e
J en
treat ments</w>
f id
chan dis
Est abl
tr apped</w>
re fined</w>
f ond</w>
Dig ital</w>
as ylum</w>
Ste el</w>
I ni
Ca therine</w>
z inc</w>
tan gible</w>
t z</w>
on .
UN R
sla ve</w>
Than k</w>
In dex</w>
win s</w>
pollut ants</w>
M om</w>
-- -</w>
deleg ates</w>
camer as</w>
advertis ements</w>
ur gency</w>
ta g</w>
sh ire</w>
k g</w>
int ol
in corporate</w>
h en</w>
figh ters</w>
vis itor</w>
coo k
F ig
sub sist
prote ins</w>
pro tot
journ alist</w>
im men
id le</w>
en sures</w>
B P</w>
restr aint</w>
regul ated</w>
fic tion</w>
particip ant</w>
low ed</w>
zz le</w>
dro pping</w>
co alition</w>
w ears</w>
fr anc
Gu id
Def ense</w>
B or
with drawn</w>
sy l
sal es
ali en</w>
Ya hoo</w>
Sto ck</w>
Cath olic</w>
re jo
L am
Im port</w>
mix ing</w>
addi tionally</w>
us s</w>
sp ire</w>
prov ing</w>
C ome</w>
happ ier</w>
b ay</w>
abo ard</w>
IL O</w>
in stitutes</w>
endeav our</w>
conv ince</w>
condi tional</w>
class mates</w>
2 3
pl ess</w>
ex er
appoint ments</w>
alli ance</w>
Ber lin</w>
w ont</w>
strang ers</w>
hi d</w>
wor rying</w>
re jection</w>
T O
D an</w>
su it
m am
bacter ial</w>
L yn
re sts</w>
enc ryp
ec o</w>
comman ds</w>
al titude</w>
Ex hibition</w>
Am end
poss essed</w>
ham mer</w>
compan ion</w>
af e</w>
Vill age</w>
Syri an</w>
E th
optimis m</w>
pu p
oul dnt</w>
immen se</w>
roman ce</w>
od ds</w>
n ate</w>
con dens
ach s</w>
Kaz ak
sh ear</w>
interpre t</w>
gr inding</w>
forman ce</w>
ext inc
ti a</w>
oc ation</w>
inv isible</w>
hos tilities</w>
warm th</w>
pri mi
municip ality</w>
be have</w>
adap tation</w>
Sim on</w>
Comman der</w>
up stairs</w>
swit ching</w>
kes pe
fai th
end ants</w>
Citi group</w>
sun ny</w>
Ch ile</w>
trans mit</w>
pra ised</w>
licens ed</w>
in puts</w>
cra w
contr acting</w>
Har b
hor ror</w>
el iness</w>
chi ps</w>
ph y</w>
fair ness</w>
vigor ously</w>
vi al</w>
recy cling</w>
pre fer
S ong</w>
r on
poly mer</w>
h t
en a</w>
compl ementary</w>
bre ed</w>
No bel</w>
re actor</w>
r ays</w>
co herent</w>
wholes ale</w>
for ums</w>
survi ved</w>
optim ize</w>
oce ans</w>
he aling</w>
S anta</w>
Refuge es</w>
H on</w>
Char ac
St reng
10 1</w>
x y</w>
form erly</w>
cha irs</w>
an dum</w>
ref uses</w>
descri bing</w>
cou pling</w>
contr acted</w>
ceram ic</w>
S O</w>
Li ght</w>
sad ness</w>
free zing</w>
clean er</w>
zo o</w>
in take</w>
hor m
wh ist
tri g
super market</w>
ste ep</w>
adap ted</w>
Je wish</w>
time table</w>
rab bit</w>
molec ules</w>
Z he
M IN
L ine</w>
gas oline</w>
ap ed</w>
Lin col
de rer</w>
cr um
E state</w>
sem ic
practic ally</w>
mar ch</w>
m old</w>
de bris</w>
cere bral</w>
H P</w>
intensi fied</w>
ex porters</w>
St amp</w>
Bag h
.. ..</w>
stan ts</w>
infring ement</w>
PL A</w>
18 .
tion er</w>
for t</w>
compl ications</w>
star ing</w>
jud ged</w>
ick ens</w>
distur bed</w>
D S</w>
Cz ech</w>
20 th</w>
20 ,000</w>
influ ential</w>
ide ology</w>
compl ained</w>
borrow ed</w>
Reu ters</w>
liter ally</w>
leg end</w>
ement ed</w>
Hu ang</w>
z i</w>
ten se</w>
pot atoes</w>
c it
ben ch</w>
Ch ong
An drew</w>
wil derness</w>
Sha kespe
A sh
res s
fant astic</w>
exha us
Lou is</w>
tor n</w>
sub ordin
si ans</w>
ogen ic</w>
bron ze</w>
anti bio
UNR WA</w>
Ph ase</w>
I L</w>
Arab ia</w>
ri p
proce eded</w>
hol low</w>
claim ing</w>
Y ao</w>
Per i
refr ain</w>
av a</w>
Bl ue</w>
wa iter</w>
exc av
K i
C s</w>
sol vent</w>
brief ing</w>
t enth</w>
s ailing</w>
dec oration</w>
M obile</w>
Ch an</w>
ver b</w>
ti ly</w>
re cip
b ols</w>
atel ic</w>
J in
Al bert</w>
u k
mort al</w>
hear ted</w>
gar age</w>
def ensive</w>
Ch eng
f le</w>
Princ ess</w>
D .
vit ality</w>
under ing</w>
quot e</w>
oper ates</w>
hel or</w>
h iring</w>
gam bling</w>
at tle</w>
kil o
cri p
industri alization</w>
el ite</w>
Commit tees</w>
198 2</w>
the y
ro t</w>
an ol</w>
Salv ador</w>
recru ited</w>
mat ched</w>
j a</w>
ecos ystem</w>
appropri ately</w>
al bum</w>
or r
clari fy</w>
c king</w>
H O
Gu ide</w>
ou tw
los es</w>
inter rupted</w>
2. 5</w>
&apos; we</w>
lear nt</w>
fri ed</w>
cav ity</w>
Tim or</w>
L ist</w>
Hist ory</w>
sub ur
mir acle</w>
atmos pheric</w>
sens ors</w>
ox idation</w>
assemb led</w>
sustain ability</w>
ren al</w>
de stri
promp ted</w>
o y
gy m
el even</w>
down turn</w>
curi osity</w>
UNE P</w>
or able</w>
mer chandis
liti gation</w>
integr ating</w>
Produc tion</w>
P os
tr ous
id al</w>
10 9</w>
nom inated</w>
ff ic</w>
e pers</w>
Liby an</w>
Bagh dad</w>
por k</w>
over head</w>
lic enses</w>
po ems</w>
ar tery</w>
Con t
v ag
th in
confisc ated</w>
cau tion</w>
aw ful</w>
attor ney</w>
C openha
th ine</w>
t all
sat ur
ro s</w>
explan ations</w>
ag grav
un ci
so y
s can</w>
e au</w>
bl amed</w>
Pat ent</w>
sen al</w>
hum ble</w>
as hamed</w>
S ession</w>
fle et</w>
break through</w>
altern atives</w>
E F
spon sor
ind a</w>
fem ales</w>
co in</w>
c ely</w>
In dependent</w>
F ol
pal m</w>
out comes</w>
c ute</w>
ar tic
Ur ban</w>
Egyp tian</w>
A I</w>
don ation</w>
cy cles</w>
carri ers</w>
acc us
subsist ence</w>
rep airs</w>
moun tain
fe ud
ar c</w>
B R
yiel ds</w>
short comings</w>
s lower</w>
Copenha gen</w>
strong est</w>
scar ce</w>
oppon ents</w>
on able</w>
W FP</w>
Rev olution</w>
E ve</w>
s olu
ref usal</w>
ide als</w>
G A</w>
Cy pri
partner ships</w>
gl orious</w>
coll ision</w>
Con cer
un fortunate</w>
reimbur sement</w>
g ossi
explo it</w>
Tra ffic</w>
your selves</w>
jum ping</w>
in finite</w>
fac tions</w>
adv ancing</w>
w ounds</w>
pot ato</w>
l ace</w>
inval id</w>
b ou
Zim bab
Mon it
Ab raham</w>
tom y</w>
splen did</w>
sel ective</w>
quan tum</w>
ol a</w>
n .</w>
in complete</w>
av en
T ake</w>
M R
Lincol n</w>
minim al</w>
im posing</w>
f li
aw k
Venezu ela</w>
F ire</w>
law suit</w>
forec asting</w>
clean ed</w>
ch ess</w>
Zhe jiang</w>
P .</w>
ur s</w>
tw ist
town ship</w>
scr ut
per man
li vely</w>
j er
carcin oma</w>
c ough</w>
ac company</w>
E s
un acceptable</w>
distinc tive</w>
not ably</w>
C as
tr ic
sti ff
sp ouse</w>
sh alt</w>
op ed</w>
fat al</w>
emp ir
M iss
Ab k
petro l</w>
ins ect</w>
Regi stry</w>
pa ths</w>
cur tain</w>
St am
w ood
floo ding</w>
d i</w>
as sion</w>
Ethi opia</w>
E L</w>
tor ate</w>
th a</w>
repl ies</w>
occur ring</w>
H o</w>
on ous</w>
ac et
t astes</w>
P ic
Mo der
ser um</w>
f ted</w>
ari ous</w>
tru ste
st ared</w>
seas ons</w>
Cap tain</w>
vol umes</w>
tr ick
ir o</w>
defe ated</w>
rhyth m</w>
fol ks</w>
er b
loy alty</w>
imp ati
fir ing</w>
vent ures</w>
over view</w>
good bye</w>
ettl ement</w>
down town</w>
viol et</w>
urban ization</w>
suspic ion</w>
sig nat
pri ests</w>
li fel
Y ou
th ing
streng ths</w>
hibi tions</w>
ex ed</w>
au x
a g</w>
wr ink
shi pped</w>
ob struc
mis ery</w>
ic e
truc ks</w>
tr ail</w>
regul ating</w>
pro longed</w>
docum ented</w>
deliber ately</w>
av al</w>
Si x</w>
S ome
R ail
K .</w>
pres ti
Pro cur
Lev el</w>
reason ing</w>
preh ensive</w>
be ast</w>
rain fall</w>
fro g</w>
Bulg aria</w>
you ll</w>
thr one</w>
soul s</w>
pre requisite</w>
h itting</w>
fol ded</w>
comman ded</w>
lingu istic</w>
confron ted</w>
cl a
accu stom
sym bols</w>
liber alization</w>
le ak
illustr ate</w>
contribu tes</w>
catast rop
argu es</w>
Monit oring</w>
uti n</w>
peri ph
ic ted</w>
bul l
S hel
L ama</w>
vir uses</w>
mon ary</w>
counter fe
Me dia</w>
15 .
rhe tor
phot o
mal es</w>
inv iting</w>
des ires</w>
univers ally</w>
p ha
key board</w>
ess ness</w>
at orate</w>
Tian jin</w>
1 30</w>
upgrad ing</w>
far ther</w>
Down load</w>
Ac cor
w asted</w>
neighb our
le ap</w>
exp ir
Ch eng</w>
obe di
en er</w>
col ours</w>
c eased</w>
back up</w>
o ked</w>
m ented</w>
exce eded</w>
ben ding</w>
A vi
ur t</w>
under stands</w>
ste pping</w>
pun c
prag matic</w>
requ esting</w>
197 9</w>
success or</w>
share holder</w>
pip es</w>
un comfortable</w>
situ ated</w>
sh irts</w>
gy m</w>
Re al</w>
Mic hel
under going</w>
simul ated</w>
re new</w>
no d
k iller</w>
gau ge</w>
establ ishes</w>
ear ne
answ ering</w>
accustom ed</w>
U T
Mon etary</w>
p and
infec tions</w>
dri ft</w>
Paul son</w>
De ar</w>
sugg esting</w>
ou stic</w>
ar cha
Pr in
Belgi um</w>
ec k</w>
e k
Youn g</w>
N ar
B est</w>
Ac ting</w>
deplo y</w>
datab ases</w>
S AR
phr ases</w>
minist ries</w>
inher ited</w>
expl icit</w>
UN TA
tur n
nar row
lin king</w>
ION S</w>
A ri
poc kets</w>
imag ined</w>
de m</w>
t ops</w>
gl uc
Z hu
Nan jing</w>
ish op</w>
Pak ist
D ang
mo on
kis sed</w>
he avi
ch ill</w>
and ong</w>
An n</w>
t ancy</w>
hand ful</w>
d w
F ur
ass y</w>
I ll</w>
liqu or</w>
guil t</w>
exerc ised</w>
en rol
dis appointment</w>
ON G</w>
M ost</w>
4 ,000</w>
prev ail</w>
horri ble</w>
dev ote</w>
com prising</w>
Sci ences</w>
ste aling</w>
ro om
limit ing</w>
deli vering</w>
Nicar agua</w>
infl amm
i ves</w>
i ah</w>
harb our</w>
W .</w>
I R</w>
Acti vities</w>
wa ist</w>
unil ateral</w>
shif ting</w>
k ins</w>
ic ating</w>
fit ted</w>
stu dio</w>
rich est</w>
me tro
h all
consci ously</w>
Pro cess</w>
Moun tain</w>
s ket
port able</w>
li th
f aint</w>
en um
e ti
Syri a</w>
F R
spir al</w>
p airs</w>
primi tive</w>
mel t</w>
legi tim
Con tin
tel es
pr one</w>
leg acy</w>
ks giving</w>
inten tions</w>
collec tively</w>
M err
6 th</w>
a thy</w>
X ML</w>
st ati
scar cely</w>
re wards</w>
em ics</w>
O il</w>
N ote</w>
N AS
present ing</w>
op pose</w>
expir ation</w>
T ER
esc ence</w>
tru sion</w>
se iz
proced ural</w>
ossi l</w>
hu i</w>
A A</w>
ten e
Chin a
than k
t ress</w>
s ounded</w>
in i
import antly</w>
fish eries</w>
Practi ce</w>
dis position</w>
wat ch
ver b
termin ate</w>
R ol
Im migration</w>
C ere
some time</w>
qu akes</w>
un lawful</w>
re unification</w>
pu rely</w>
pan els</w>
chequ e</w>
all er
Moroc co</w>
vo y
st adium</w>
ous es</w>
high lights</w>
Mon tene
C lin
ver bal</w>
vari ations</w>
ic an</w>
este em</w>
ack ers</w>
j ian</w>
dis advantages</w>
del ete</w>
an ism</w>
an ic</w>
I cel
volati le</w>
Vir gin
Char lie</w>
Wh ich</w>
multi media</w>
des k
clam ation</w>
T ali
H and
thre n</w>
abor tion</w>
L ong
the ft</w>
dis orders</w>
os cill
n ant</w>
ass ault</w>
I X</w>
sur render</w>
n our
boo king</w>
Haw ai
F ut
B ut
teen agers</w>
ill iter
fo g</w>
con no
ar i</w>
ac ids</w>
J in</w>
sc anning</w>
po or
E X
vide os</w>
inv ari
el ders</w>
dis man
blow n</w>
Rec ords</w>
veget ation</w>
smil es</w>
re build</w>
hur ts</w>
farm land</w>
Ser ies</w>
F u</w>
her d</w>
energe tic</w>
es tive</w>
dam aging</w>
Nep al</w>
mu st
man dated</w>
ev o</w>
uph old</w>
sen sible</w>
sel f
ne ys</w>
gu ides</w>
gi ous</w>
ab sur
P utin</w>
P aper</w>
M ill
Ar ch
s ickness</w>
impul se</w>
flow n</w>
ex tradition</w>
believ ing</w>
v el</w>
gre gation</w>
fr ank
ev en
conver gence</w>
Shakespe are</w>
so m</w>
&apos; you</w>
am ong
re production</w>
dre amed</w>
audi ences</w>
man power</w>
l um
Com petition</w>
tic ul
t ent
reiter ate</w>
immun ity</w>
gest ure</w>
g li
ur able</w>
surve yed</w>
retre at</w>
observ ing</w>
athle te</w>
aggre gate</w>
Sof tware</w>
referen dum</w>
prescri ption</w>
b end</w>
Y an</w>
Conserv ation</w>
. We</w>
v ille</w>
clos es</w>
S uc
saf er</w>
jud ging</w>
L C
He aven</w>
w rec
respir atory</w>
fertiliz er</w>
Pri ze</w>
ser ial</w>
s ect</w>
ran ked</w>
gran ting</w>
en lar
blan ket</w>
y ar
rol ls</w>
qu it
pe destri
hop efully</w>
gar ment</w>
Z aire</w>
Shu i</w>
M et
op tional</w>
an es
pre am
gu it
es cor
develop er</w>
bac king</w>
ac oustic</w>
Ini ti
merch ant</w>
lig ence</w>
boo ts</w>
trous ers</w>
r is</w>
im mer
fish er
dis cour
ad vers
Ir ish</w>
D eng</w>
Contro l
win ding</w>
mer its</w>
Elimin ation</w>
op hi
l acks</w>
enzy me</w>
discre tion</w>
depri ved</w>
c ables</w>
br ake</w>
bl ess</w>
at orial</w>
Investig ation</w>
Chr is</w>
we ird</w>
v ine</w>
u pri
pr iced</w>
le af
k icked</w>
execu ting</w>
c ess
Arti cles</w>
laun dry</w>
ec tions</w>
dis advant
continu ity</w>
S in
vo id</w>
ste ering</w>
protec tion
olog ically</w>
nar co
deriv atives</w>
comp ass</w>
canc ellation</w>
o on</w>
om on</w>
influ encing</w>
dis cer
astr onau
E mp
st ack</w>
in sur
attrac ting</w>
Mon te</w>
waste water</w>
cab in</w>
DC s</w>
ru in</w>
pat ch</w>
og y</w>
o ste
defin es</w>
Yun nan</w>
Govern or</w>
17 .
vers y</w>
v aries</w>
sli p
ob ic</w>
j am
f ossil</w>
eph ant</w>
educ ate</w>
ab uses</w>
re now
no des</w>
est ly</w>
detec ting</w>
dedic ation</w>
comp iled</w>
quot a</w>
Hung ary</w>
Croati an</w>
C lim
y o
war rant</w>
v ascular</w>
t ants</w>
stre ams</w>
ous y</w>
mil iti
k ill
el ephant</w>
develop mental</w>
calcul ations</w>
bre thren</w>
atis m</w>
inser t</w>
ed onia</w>
compu ter
compati bility</w>
T hai</w>
Bro thers</w>
Alger ia</w>
vi vid</w>
la sted</w>
archit ectural</w>
exce eds</w>
enni al</w>
bo red</w>
au x</w>
Se e</w>
H S
D ong
Bu ff
summar ize</w>
privil ege</w>
el aboration</w>
war t</w>
travel ed</w>
resear cher</w>
g us</w>
franc s</w>
chap ters</w>
Virgin ia</w>
si gh
impe tus</w>
d well</w>
Tali ban</w>
Qu e
repe ti
Sh i</w>
suspic ious</w>
az z
stri ving</w>
sou ven
mer it</w>
Sen ior</w>
E li
intest inal</w>
inter val</w>
f esti
che ek</w>
b is
Guatem ala</w>
supervis or</w>
st ake
ren e</w>
ell o</w>
Ser bian</w>
sp y</w>
sk elet
o st
compl eting</w>
D id</w>
tic a</w>
es hip</w>
an ity</w>
Bl air</w>
targe ting</w>
no tw
contro versy</w>
K ate</w>
tim ber</w>
lo os
ha ul</w>
fair y</w>
che er</w>
benef ited</w>
Per son
occup y</w>
im al</w>
car t</w>
among st</w>
aff lic
Stat us</w>
cell ular</w>
buff er</w>
F C</w>
stipul ations</w>
ri pe</w>
bloo d
az z</w>
ab r
H om
Bl ack
ri b
p ond</w>
le dge</w>
doctr ine</w>
concl uding</w>
S c
D uring</w>
seem ingly</w>
s wa
prev ents</w>
o e</w>
flu or
cus hi
ari th
p yr
micro scop
loc king</w>
in sured</w>
duc t</w>
Commun ications</w>
individ ually</w>
glob ally</w>
Ever y
w rap</w>
devast ating</w>
bench mark</w>
bank rupt</w>
Per formance</w>
ste in</w>
pat rol</w>
notw ith
ex ported</w>
car bon
ar row</w>
where by</w>
ec ho
attribu ted</w>
L am</w>
gri p</w>
arri ves</w>
R oss</w>
M D
Cu ban</w>
venti lation</w>
tu ber
se af
r ang</w>
expl aining</w>
disci ples</w>
wa it
in sight</w>
impl ies</w>
cor rupt</w>
boar ding</w>
an gi
Tunisi a</w>
C amp
weak nesses</w>
rul er</w>
Montene gro</w>
Chem ical</w>
wi pe</w>
vulner ability</w>
la stly</w>
bar gain</w>
H ere</w>
vis u
trig gered</w>
surpris ingly</w>
lad der</w>
dem ol
broad ly</w>
blu e
ai c</w>
For ms</w>
there after</w>
exac erb
avi an</w>
H ang
st ays</w>
excep tions</w>
der gar
Mari us</w>
B ot
B ac
mass age</w>
cal ories</w>
S achs</w>
Qu ar
Gol den</w>
For ces</w>
ther mo
min i</w>
dre aming</w>
correspond ence</w>
conven ing</w>
Com pan
y land</w>
ultr a</w>
inser ted</w>
c er</w>
am ents</w>
Tran si
196 7</w>
sp heres</w>
ony mous</w>
liv elihood</w>
Lad y</w>
D ev
war r
st wood</w>
p p
instr um
gro cer
gar dens</w>
consult ancy</w>
at ers</w>
air plane</w>
reg res
notwith standing</w>
contr ac
categ or
Zimbab we</w>
2 4.
x i
scrat ch</w>
s ly</w>
remin ds</w>
parliam entary</w>
dis agree</w>
cen sus</w>
car d
C ant
wavel et</w>
relax ation</w>
r ounds</w>
Ar th
sha dows</w>
rac ed</w>
priv ately</w>
en sured</w>
discrimin atory</w>
ali ens</w>
res or
Sy n
An ti
sus pects</w>
pen cil</w>
mach ining</w>
ec raft</w>
P etro
D av
te st
sus cep
gal ax
chi at
Pow ers</w>
in i</w>
fo am</w>
deep ening</w>
Pro motion</w>
law n</w>
St even</w>
Hur stwood</w>
tur no
sp ot
positi oning</w>
ght ful</w>
you .
y or</w>
ec ology</w>
distur bing</w>
comp assion</w>
cl ed</w>
Ch o
sc ales</w>
r and
plat forms</w>
per taining</w>
ris ky</w>
n ish</w>
metal lic</w>
in ous</w>
hon ey
L earning</w>
L E</w>
I .
satis fying</w>
equip ments</w>
Liber ation</w>
su le</w>
long ing</w>
ar us</w>
Rad io</w>
sque eze</w>
short ages</w>
perf ection</w>
good ness</w>
fr action</w>
dupl ication</w>
c us</w>
l i</w>
sear ched</w>
it ating</w>
et ting</w>
e ums</w>
att ained</w>
tic es</w>
tem plate</w>
stat ue</w>
sal ad</w>
iz ations</w>
clos est</w>
F inal</w>
B M
si p
set tling</w>
anim ation</w>
T ype</w>
1 000</w>
plan ets</w>
p essi
high ways</w>
ga ze</w>
L and
under water</w>
red und
new s
g low</w>
distur b
cri tic
sli ding</w>
le y
e ter
Mu sic</w>
Jim my</w>
Add. 1</w>
cere mon
alumin ium</w>
O r</w>
M un</w>
weak er</w>
m in</w>
lo wered</w>
h ated</w>
graph ics</w>
exten sively</w>
crow ds</w>
can al</w>
Hai tian</w>
star ch</w>
st ore
otrop ic</w>
mast er
in timate</w>
don ations</w>
adhes ive</w>
lab els</w>
ili ary</w>
he igh
W ould</w>
ori um</w>
hi bit
ex hibit</w>
b ble</w>
Cha i</w>
C ases</w>
pret end</w>
hom ogen
s --
G oods</w>
Ab out</w>
ur anium</w>
or i</w>
im peri
he els</w>
fe a
ar on</w>
Chong qing</w>
voc al</w>
s ar
haz ards</w>
el o
accoun tant</w>
Sh andong</w>
str ate</w>
ot yp
ol y
off s</w>
di alog</w>
R ice</w>
ju st
de af</w>
calibr ation</w>
bol t</w>
we t
simpli fied</w>
optim ized</w>
coun tless</w>
J enni
peculi ar</w>
on ds</w>
fores een</w>
ap le</w>
air ports</w>
S W
Ad am</w>
A wards</w>
trans c
slow ed</w>
em e
an try</w>
W a
V EM</w>
y ah</w>
ur ine</w>
schol ar</w>
ang els</w>
Lic ens
10 8</w>
Mexic an</w>
C ase</w>
sp inning</w>
robo ts</w>
p. m</w>
interpre ted</w>
essi vely</w>
down ward</w>
cor ners</w>
G han
struggl ed</w>
so ever</w>
qual itative</w>
out set</w>
l an</w>
g aps</w>
diversi fied</w>
s enses</w>
sol v
practic ed</w>
advis er</w>
G ener
work load</w>
un changed</w>
to e</w>
ro oted</w>
regim es</w>
d ental</w>
pre y</w>
over time</w>
ha w
h its</w>
dy nasty</w>
Th ose</w>
N az
recei ver</w>
r ains</w>
orig inated</w>
ef f</w>
be g</w>
ap pointing</w>
war ri
up coming</w>
sci ences</w>
marg in
m ph
advis ers</w>
UNA VEM</w>
Merr ill</w>
M T
C are</w>
pro spective</w>
l akes</w>
Rom ania</w>
wal let</w>
rele ases</w>
en vy</w>
convers ations</w>
UNID O</w>
Lic ense</w>
Exp o</w>
Cred it</w>
Stand ards</w>
F .</w>
o a</w>
n au
je ans</w>
ci a</w>
air lines</w>
Ch i</w>
par as
in dig
fruit ful</w>
fix ing</w>
en gl
dar ling</w>
bom bs</w>
Rac hel</w>
P ap
M ulti
war mly</w>
r ally</w>
here in
fe e
em ar
e up</w>
depar ted</w>
R on
J .</w>
Inter nal</w>
w ow</w>
str ings</w>
sh at
poo rest</w>
mal aria</w>
k ok</w>
ex ert</w>
di ary</w>
contam ination</w>
concep tual</w>
war fare</w>
defin itions</w>
cheer ful</w>
A ma
speech es</w>
preser ving</w>
jewel ry</w>
id ate</w>
horm one</w>
del eted</w>
broad c
appli ances</w>
ag eing</w>
Y an
Tan z
Pot ter</w>
ynam ic</w>
nov el
form ers</w>
ep age</w>
ch in</w>
Ph ili
N apol
to ast</w>
s porting</w>
particul ars</w>
al locate</w>
Wh ile</w>
fi ghter</w>
f ill
comm on
ap ing</w>
lou dly</w>
earne stly</w>
aw ak
H al
F red
Co sta</w>
sti ff</w>
ind exes</w>
h our
leak age</w>
activ ation</w>
T RA
PR ES
s ore</w>
premis e</w>
metabol ism</w>
inter vals</w>
bat teries</w>
ari ans</w>
Consul tative</w>
tri be</w>
ot echn
Com prehensive</w>
6 ,000</w>
d ent</w>
che at</w>
youn gest</w>
sour cing</w>
fru stration</w>
an om
Mad ame</w>
Appe al</w>
t ing
mani f
illu sion</w>
ear nest</w>
dis close</w>
di x</w>
acceler ating</w>
Pl ant</w>
t onic</w>
poor ly</w>
pe i</w>
comp il
bloo dy</w>
A M</w>
ric ane</w>
mil est
bl in
X i</w>
Regi ster</w>
s ung</w>
mo bility</w>
bureauc r
IC AC</w>
Arab ic</w>
AI G</w>
pur i
Pakist ani</w>
subjec tive</w>
on duc
ch y</w>
be tr
b ish</w>
V eg
Pi er
Elec tric</w>
As st</w>
y .</w>
small est</w>
sl ice</w>
open ness</w>
ad minister</w>
fr anch
dis sip
iz er</w>
in appropriate</w>
fin ances</w>
detec tive</w>
d ys
ar ises</w>
S car
tri bunal</w>
quali fy</w>
gr ains</w>
form alities</w>
diff usion</w>
cid es</w>
o dy</w>
in coming</w>
ed ges</w>
butter fly</w>
surviv ors</w>
ol l
fin es</w>
empir ical</w>
U R</w>
Educ ational</w>
Budd ha</w>
sp ends</w>
in aug
e ut
cr an
Musli ms</w>
wa x</w>
predec essor</w>
negl ected</w>
mortg ages</w>
cu ps</w>
ambi a</w>
T ar
Sar aj
Kos ovo</w>
Buddh ist</w>
t an</w>
k it</w>
do t</w>
chlor ide</w>
The ir</w>
Ber n
x ia</w>
subsid y</w>
accoun table</w>
access ories</w>
Victor ia</w>
Compan ies</w>
proc ession</w>
Stud ent</w>
S ales</w>
Lib ya</w>
Chan nel</w>
. In</w>
spectac ular</w>
smo kers</w>
que ue</w>
f ing</w>
s ay
cu red</w>
authentic ation</w>
Saraj evo</w>
S trip</w>
e i</w>
bur ger</w>
se am
sa i</w>
po sting</w>
marri ages</w>
ho sting</w>
gu m</w>
wor sen
k ar
ign ant</w>
he d
floo ds</w>
enti onally</w>
D am
mo tive</w>
de er</w>
at ro
as ph
Wor k
Develop ing</w>
3 .</w>
turno ver</w>
taxpay er</w>
mon ster</w>
cor al</w>
batt le
Sol omon</w>
trans plantation</w>
nec k
mer ged</w>
hys ical</w>
hor n</w>
co ins</w>
clari fication</w>
C AR
vir al</w>
termin ated</w>
insul ation</w>
exem ption</w>
em ma</w>
conduc tor</w>
business man</w>
197 0s</w>
ul a</w>
trav els</w>
the tics</w>
sec uring</w>
r ud
hon estly</w>
de em</w>
1. 3</w>
under go</w>
tic ity</w>
fl ag
distor tion</w>
depos ited</w>
at al</w>
M ore</w>
K now
C M
illustr ated</w>
il a</w>
fl ats</w>
er ance</w>
W ater
Ph one</w>
w a</w>
enc ement</w>
disturb ance</w>
bu st
Proc ed
retail ers</w>
merchandis e</w>
S S
. But</w>
re integration</w>
mir ac
ke epers</w>
el le</w>
Amend ment</w>
refu ge</w>
quot as</w>
oo p</w>
no tified</w>
contradic tion</w>
B ear</w>
7 th</w>
v et</w>
sa id
s ank</w>
prote sters</w>
discrimin ate</w>
ber ries</w>
aer os
Tem ple</w>
P ay
Li ke</w>
Kenne dy</w>
pro stitution</w>
p ad</w>
off erings</w>
neighbor ing</w>
jo kes</w>
boo t</w>
teach es</w>
jus ti
j am</w>
hospit ality</w>
cur y</w>
c akes</w>
Con di
ultras onic</w>
op posing</w>
iz ard</w>
earth quakes</w>
unde res
se d
practic ing</w>
hun ter</w>
hes itate</w>
M ass
AC C</w>
trium ph</w>
spac ecraft</w>
in land</w>
fore head</w>
challeng ed</w>
admir ation</w>
Mo on</w>
the res</w>
th under</w>
out puts</w>
herein after</w>
ao h</w>
v ague</w>
inter actions</w>
pen ny</w>
luc k
in hab
e ter</w>
circul ated</w>
Municip al</w>
K in
o v</w>
inter act</w>
exam s</w>
C A</w>
ur ging</w>
ex porting</w>
r ick</w>
quot ation</w>
pill ars</w>
p he
her oes</w>
anch or</w>
X iang</w>
Fr amework</w>
remedi es</w>
ent ment</w>
tr icks</w>
st ressing</w>
lun ar</w>
fol der</w>
ch i</w>
bal ancing</w>
Q in</w>
M it
vig il
superi ority</w>
occasi onal</w>
ST R
Gor don</w>
youn g
ridic ulous</w>
war nings</w>
utiliz ing</w>
sun set</w>
ine ffici
for c
docum entary</w>
Yu en</w>
Per u</w>
v is</w>
tari ffs</w>
hur ried</w>
hard ship</w>
cow s</w>
compu tation</w>
atic al</w>
pois oning</w>
c enti
buil ds</w>
ang les</w>
ab st
Y ellow</w>
O rig
J eff</w>
C U
s ins</w>
propor tion
invo ice</w>
as tically</w>
administr ator</w>
Sum mer</w>
Psy ch
tab lets</w>
open ly</w>
inter s</w>
compar atively</w>
tu ous</w>
spokes woman</w>
reven ge</w>
mod ules</w>
mel ting</w>
inter viewer</w>
inste in</w>
fr actu
cent red</w>
ain ment</w>
P E</w>
MO G</w>
th ed</w>
it e
ign ment</w>
g room</w>
dra wer</w>
cr ush</w>
cli p</w>
Di ffe
1 60</w>
un ite</w>
en forced</w>
ca res</w>
Leban ese</w>
L C</w>
Ann ual</w>
squ ad</w>
li d</w>
exten ds</w>
draw ings</w>
ancest ors</w>
elev ator</w>
Si x
real m</w>
ra w
p ains</w>
hu b</w>
de tri
d led</w>
att achment</w>
Vol un
won ders</w>
he t
Mil an</w>
A F
solem n</w>
out let</w>
for gi
excl uded</w>
di d
business men</w>
rem ain
med itation</w>
fam ine</w>
de ed</w>
anten na</w>
L DCs</w>
sub marine</w>
phys ician</w>
mem orial</w>
in ver
f uck</w>
dam p</w>
conc eived</w>
ad sor
IB M</w>
A d</w>
un pleasant</w>
ge ography</w>
H il
so aring</w>
inter viewed</w>
bel ly</w>
approv ing</w>
18 0</w>
symp tom</w>
physi ological</w>
con currently</w>
citiz en
at oms</w>
ar se</w>
N P</w>
Inter im</w>
G rad
imag in
care ers</w>
Ar senal</w>
pe ers</w>
hal f
alleg edly</w>
thum b</w>
secre tly</w>
ri dge</w>
gri ev
P la
Hu i</w>
tur ne
tar ily</w>
in spire</w>
feud al</w>
fab ric
excell ence</w>
T able</w>
K yr
Ch ang</w>
some day</w>
propag anda</w>
mat ory</w>
doc k</w>
allow ances</w>
Fac il
Ar bitr
A aron</w>
righte ousness</w>
bal lot</w>
Arth ur</w>
6 0
ut tered</w>
se p
innov ations</w>
dis pers
chur ches</w>
lo gging</w>
gh ua</w>
er .
bo iling</w>
ar rog
am end</w>
Clim ate</w>
ne ts</w>
comb ines</w>
Sar ko
Jiang su</w>
H T
Fil m</w>
D un
C oc
t p</w>
pro hibition</w>
poss esses</w>
ght ness</w>
g el</w>
fro st</w>
T it
T ay
wat ches</w>
ol ive</w>
am ped</w>
pl ur
ol onization</w>
mis sible</w>
l everage</w>
g le
comm ended</w>
to ol
n ails</w>
circu its</w>
S ri</w>
---------------- ----------------
shr ink</w>
renow ned</w>
f eng</w>
contam inated</w>
Ex peri
simpl icity</w>
sel lers</w>
e ats</w>
div ine</w>
decreas ing</w>
tran qu
g os
U V</w>
M aria</w>
Com pl
鈥 淲
supervis ors</w>
posi um</w>
low ering</w>
link ages</w>
j ean</w>
gossi p</w>
decor ated</w>
up dates</w>
pl ight</w>
inf ants</w>
f ills</w>
eth eless</w>
On ly</w>
Minist erial</w>
or ship</w>
legitim acy</w>
gl ut
belong ed</w>
Prof .</w>
Pro ce
P ass
G E</w>
sig ni
sh out</w>
p ouring</w>
neighb our</w>
kin dergar
in directly</w>
Sarko zy</w>
4 0
pur se</w>
protot ype</w>
politici an</w>
phot ography</w>
ed it
br ain
archi ves</w>
La u</w>
F air</w>
Bo ston</w>
righ tly</w>
nom ination</w>
mod alities</w>
im porting</w>
hon ored</w>
as ka</w>
Con sum
C ru
aus p
acti vi
succ essive</w>
rec alls</w>
go vern</w>
credi ble</w>
con front</w>
cer v
W ol
Emplo yment</w>
pron ounced</w>
Tai pei</w>
Meth ods</w>
Lab or</w>
over weight</w>
desk top</w>
d ao</w>
che str
swe ep</w>
she er</w>
sh ells</w>
re fund</w>
probl em
contem pl
E very</w>
20 .
u no
tom b</w>
sp in
rep aired</w>
la sts</w>
cr ashed</w>
com pres
anom al
alog ues</w>
M E
threat ens</w>
reti re</w>
oun dly</w>
minist erial</w>
exha ust</w>
bu ck
Del ta</w>
1. 2</w>
satur ated</w>
p ause</w>
micro scope</w>
in ability</w>
frustr ated</w>
def ending</w>
champi onship</w>
bloo m</w>
G et</w>
success es</w>
sl aves</w>
fu me</w>
democr atization</w>
cher ish</w>
appear ances</w>
Un ity</w>
th al
ri gor
postp oned</w>
deser ved</w>
comm encement</w>
cent ered</w>
air space</w>
P un
G il
A V
sel s</w>
non etheless</w>
it ter</w>
flo ors</w>
ation ary</w>
work force</w>
th ick
fat ty</w>
cerv ical</w>
am ple</w>
W oods</w>
Produc t</w>
expl icitly</w>
exp iry</w>
ed iting</w>
ad ul
spec tives</w>
sk y
gl ing</w>
f oul</w>
constr aint</w>
chol ester
Se oul</w>
se ud
bi odi
ve in</w>
ur ious</w>
upri ght</w>
mar ital</w>
jeop ardi
deliber ate</w>
Yang t
UNOMI L</w>
Peo ples</w>
B I</w>
scholar ship</w>
recru it</w>
hyper tension</w>
eful ness</w>
dis posed</w>
Braz ilian</w>
y ards</w>
cl arity</w>
affor dable</w>
Kazak h
Be au
pe er</w>
he ed</w>
f on
di gging</w>
viol ates</w>
reli eved</w>
reaffir m</w>
re organization</w>
pre mature</w>
oc ardi
che ating</w>
ch asing</w>
lo s</w>
f ood
ay ers</w>
tin ent</w>
re sig
ir regular</w>
Yugosla v</w>
Proced ure</w>
Kyr gy
practi se</w>
pers ist</w>
go at</w>
diagnos ed</w>
conven e</w>
anc ell
Sur ve
Strate gic</w>
FD I</w>
B E</w>
10 2</w>
spontan eous</w>
s om
fi bers</w>
dis til
benefici ary</w>
Uni versal</w>
tis sues</w>
sque e
seri ousness</w>
s our</w>
remark ably</w>
ound ings</w>
or dering</w>
o tion</w>
bud ge
ap t</w>
turb ine</w>
sof tly</w>
plas tics</w>
mus eums</w>
id en</w>
blow s</w>
be e</w>
ath on</w>
Procur atorate</w>
Hun an</w>
A tom
s park</w>
join ts</w>
archa e
IS O</w>
o ils</w>
juven ile</w>
im balance</w>
h u</w>
d addy</w>
cred its</w>
argu ing</w>
H ou
Bel arus</w>
sla very</w>
sem ester</w>
fas cin
be es</w>
be ard</w>
seas onal</w>
j ar</w>
i on
here by</w>
b inary</w>
allevi ation</w>
Ti m</w>
R ab
19 th</w>
1 16</w>
scre ens</w>
ren dering</w>
ow l</w>
dis advantage</w>
cop ic</w>
con g
co ated</w>
benefici aries</w>
Ar rang
sk i
ro of
pul monary</w>
privileg es</w>
de an</w>
Kazakh stan</w>
Dr agon</w>
stabil ization</w>
s oo
extrac ted</w>
eigh ty</w>
Trav el</w>
sc an
re t</w>
fet ch</w>
cur se</w>
Scot t</w>
S et</w>
F O
shap ing</w>
per forms</w>
m p</w>
ex ual</w>
I OC</w>
Econom y</w>
De ath</w>
12 5</w>
trans ferring</w>
e book</w>
Alex ander</w>
unci ation</w>
tw ins</w>
sex ually</w>
nutri ents</w>
m ush
jun k</w>
Jon athan</w>
I d
G old</w>
Buddh ism</w>
navi g
fil tering</w>
deal er</w>
Ox ford</w>
19 .
str ains</w>
standardi zed</w>
sal esman</w>
phot oc
observ ance</w>
n ly</w>
ic ting</w>
autom ated</w>
ausp ices</w>
Pe ac
Maj or</w>
tru st
swi ft</w>
seg ments</w>
harass ment</w>
h ou</w>
ex qu
endang ered</w>
as th
Ac count</w>
strat eg
righte ous</w>
polic y
perman ently</w>
organ ism</w>
insul in</w>
disadvant aged</w>
ch al
cardi ac</w>
acceler ation</w>
Lic ence</w>
High er</w>
G all
Doc tor</w>
Ch and
we ed</w>
spar k
re fe
quar rel</w>
pro xim
orig ins</w>
gluc ose</w>
D at
s cap
p iz
instinc t</w>
he m</w>
flo at</w>
c ens
bi as</w>
F eng</w>
resum ption</w>
lic ences</w>
im proper</w>
di m</w>
appe aled</w>
am bul
Napol eon</w>
L ook</w>
D ri
un limited</w>
ingredi ent</w>
declar ations</w>
d resses</w>
cour tes
che eks</w>
advoc ates</w>
N as
L an
tail or</w>
rand om
port al</w>
ou ch</w>
form ations</w>
Z hao</w>
Pro mot
NAS A</w>
Jen ny</w>
H er</w>
Exper ts</w>
D ol
tu ally</w>
ste p
o do
jeal ous</w>
emp ire</w>
ati st</w>
ar c
R est
Indones ian</w>
7 ,000</w>
spr ink
s. The</w>
s a</w>
ro de</w>
pap er
medic ation</w>
lean ing</w>
em aking</w>
custom ary</w>
cal am
M ir
A lex</w>
un stable</w>
se aling</w>
remin der</w>
orr ha
clu sters</w>
L ank
Dan ish</w>
A h
198 3</w>
ner ves</w>
lob by</w>
j ol
chro mos
cat alogue</w>
198 1</w>
toler ate</w>
re pro
no table</w>
min ed</w>
ip ped</w>
Azerbaij an</w>
Atom ic</w>
vit ro</w>
n aval</w>
W aste</w>
Sud anese</w>
lon eliness</w>
in tu
ey ed</w>
dissem inate</w>
destro ying</w>
consi sted</w>
at ories</w>
W ay</w>
To y
O u
Cam bridge</w>
ed it</w>
Co ast</w>
8 th</w>
wh ir
w rest
st ove</w>
no od
maxim ize</w>
b ind</w>
K ok</w>
Al li
indu ce</w>
health care</w>
gr u
Colum bia</w>
fe ast</w>
Rail way</w>
pollu ted</w>
manag es</w>
m ons</w>
gen ital</w>
bro ker</w>
accep ts</w>
Tanz ania</w>
wit ch</w>
swal low</w>
shut tle</w>
miti gate</w>
k ine
im partial</w>
con scienti
advoc ated</w>
NP T</w>
Emp ire</w>
re pay</w>
re novation</w>
mad am</w>
batt ali
acc ent</w>
restor ing</w>
respon sive</w>
imper ial</w>
chin ese</w>
are dness</w>
aer ial</w>
accord ed</w>
T ung</w>
Su b</w>
Spec i
S traits</w>
R a
un reasonable</w>
tex tiles</w>
Man chester</w>
M any</w>
H us
Ag ainst</w>
pro fici
mass ac
m b
agre eable</w>
S or
Phar aoh</w>
speci fies</w>
se a
resear ching</w>
decreas es</w>
c m</w>
S ony</w>
Ama z
sp otted</w>
Ren minbi</w>
N E
B BC</w>
we i</w>
recipi ents</w>
y u</w>
there on</w>
miti gation</w>
mar t</w>
bur ns</w>
ad diction</w>
t am
ext ingu
am mon
Than ksgiving</w>
K ab
Ch er
regres sion</w>
questionn aire</w>
m ould</w>
illustr ates</w>
ten ding</w>
se ed
marke t
man n</w>
f lock</w>
cr acks</w>
Pier re</w>
view ers</w>
semic onduc
rel ying</w>
differenti ation</w>
bl end</w>
Te aching</w>
Fig ure</w>
u ated</w>
shi fts</w>
emphas izing</w>
b oun
re sted</w>
rain y</w>
ear ing</w>
dis charged</w>
con spir
competi tions</w>
Bang kok</w>
x en
val idation</w>
stre aming</w>
respec ting</w>
lik elihood</w>
fac tor
bac helor</w>
N ai
Equ ip
Are as</w>
197 3</w>
re placing</w>
prin ter</w>
f la
dest ined</w>
Lat via</w>
Econom ics</w>
sp inal</w>
liter acy</w>
k it
dispat ch</w>
cur ves</w>
ul tra
u plo
loc k
hier archy</w>
fel low
d ment</w>
us able</w>
passi onate</w>
narr ative</w>
here in</w>
et t</w>
be fore
S ue</w>
Be fore</w>
we d
surr oundings</w>
met aph
induc tion</w>
X u</w>
S on
Lt d.</w>
Dist ribu
week ends</w>
por tr
le tin</w>
Pro secut
N avy</w>
L abor
am matory</w>
Armen ia</w>
w asting</w>
su preme</w>
ph on
inflamm ation</w>
R ose</w>
M g
Di ana</w>
un conscious</w>
ti ary</w>
interven tions</w>
helicop ters</w>
h ers</w>
sh ru
ligh ter</w>
hand les</w>
add le</w>
N PC</w>
3 0,000</w>
te l</w>
sens ation</w>
s log
rep airing</w>
pers ever
periodic ally</w>
mov able</w>
mean ings</w>
enum er
enthusi astic</w>
station ary</w>
inno c
gall ery</w>
elabor ated</w>
di ous</w>
L a</w>
Harb our</w>
refriger ator</w>
pled ges</w>
par c
lin er</w>
dis solution</w>
a ther
G ri
Co .</w>
weigh ed</w>
rot ating</w>
re per
ob ia</w>
la undering</w>
di ving</w>
ch ickens</w>
Sou theast</w>
wh oever</w>
heavi er</w>
ak i</w>
val ves</w>
spr ings</w>
s way</w>
on ian</w>
li me</w>
ing ual</w>
hol dings</w>
en ch
cholester ol</w>
ban ker</w>
trans ported</w>
cr acked</w>
co hes
bloc king</w>
ang ular</w>
O k
Al i</w>
man ned</w>
harb or</w>
el lip
U l
S lov
wh il
under graduate</w>
retri eval</w>
lam b</w>
1 15</w>
our se</w>
ECO MOG</w>
pac ket</w>
fore most</w>
view point</w>
up dating</w>
lo dge</w>
investig ators</w>
in scri
geome try</w>
effec ted</w>
Stud ents</w>
S E
on aire</w>
le ak</w>
judic iary</w>
compl aining</w>
compil ation</w>
cap sule</w>
T ro
Res ource</w>
tour nament</w>
rein forcing</w>
prud ent</w>
fr ames</w>
feat uring</w>
emb ro
emb assy</w>
electro de</w>
arti ll
al ignment</w>
swi f
speci alty</w>
resig nation</w>
ne at</w>
en quiry</w>
cr ushed</w>
M as
How ard</w>
9 th</w>
re building</w>
manif est</w>
int entionally</w>
ent ries</w>
dom s</w>
J eff
In stitu
theore tically</w>
sof a</w>
dec ay</w>
conduc ts</w>
b ail
awk ward</w>
al um
Hang zhou</w>
G ir
w ells</w>
cr unch</w>
cor onary</w>
cont emp
be ams</w>
ag en</w>
P it
N et</w>
Con stitu
10 th</w>
ment ary</w>
ful fil
tw ist</w>
tuber cul
hypo thesis</w>
grac eful</w>
archit ect</w>
C ab
8 ,000</w>
vi v
p ills</w>
nick el</w>
hop eful</w>
e ur</w>
b ies</w>
ar oused</w>
ad or
V C</w>
un a</w>
per spectives</w>
hom eland</w>
heav ens</w>
h oods</w>
ev olutionary</w>
endeav or</w>
demobil ization</w>
civil ized</w>
author ize</w>
10 6</w>
trou bl
scr am
p end
ignor ant</w>
f ain
di arr
att acking</w>
YO U</w>
Ghan a</w>
Est onia</w>
Cere mony</w>
voy age</w>
ul ator</w>
sub mitting</w>
sm en</w>
re tention</w>
ple x</w>
deep est</w>
ap ology</w>
G O</w>
vac ant</w>
sul ph
s 鈥</w>
rub bish</w>
re turne
periph eral</w>
ech o</w>
e v</w>
den om
Ve hic
taxpay ers</w>
sever ity</w>
scen ic</w>
nood les</w>
in equality</w>
fashi oned</w>
du g</w>
cer ity</w>
S ite</w>
Fred die</w>
t elec
remain der</w>
rem it
hus bands</w>
fibr e</w>
ff y</w>
bro ker
U. N.</w>
NO T</w>
In f
EC T
Con ven
2 3.
infl ammatory</w>
glo omy</w>
S t</w>
M E</w>
th ening</w>
op y</w>
in sic</w>
deal ers</w>
char ter</w>
W ing</w>
Guid elines</w>
town ships</w>
outw ard</w>
hot line</w>
cour ty
Moder n</w>
Integr ated</w>
r ade</w>
im pres
gl ue</w>
Wil son</w>
Tu en</w>
20 12</w>
ten ants</w>
st ating</w>
schedul ing</w>
pro gn
manife stations</w>
jus tification</w>
de bu
Yangt ze</w>
Pr of</w>
Ma x</w>
Hu a</w>
x on</w>
ther m
ancell or</w>
Ob jec
transi ent</w>
su ms</w>
deb ates</w>
chro mat
brow ser</w>
br ass</w>
artill ery</w>
ac ious</w>
R ica</w>
Icel and</w>
uni tion</w>
my th</w>
l umin
hom eless</w>
des ser
T D</w>
un rest</w>
num bered</w>
lo go</w>
insi sts</w>
hum idity</w>
fac ulty</w>
A my</w>
ver sus</w>
nois y</w>
marg ins</w>
m at</w>
flu x</w>
ev in</w>
end uring</w>
S aul</w>
Mar keting</w>
ti ously</w>
r ough
fish ery</w>
corrid or</w>
In c.</w>
F A</w>
A li
sc ru
ric hes</w>
perc eive</w>
dom inate</w>
assum ptions</w>
aren a</w>
pil es</w>
ing en
fol ding</w>
fle e</w>
T A</w>
H D</w>
E instein</w>
3 D</w>
tr a</w>
mu no
inter rupt</w>
hob by</w>
ground water</w>
s ack</w>
qu ity</w>
persist ence</w>
it ability</w>
depart mental</w>
comb at
ash a</w>
after ward</w>
abdom inal</w>
C ould</w>
B out
man eu
filtr ation</w>
S now</w>
sk in
emar ks</w>
condem n</w>
an o
K er
Agricul tural</w>
traum a</w>
rob bery</w>
res is
dec lines</w>
cr acking</w>
celebr ity</w>
N umber</w>
M erc
metro pol
h ran</w>
ecu le</w>
dis crete</w>
br u
G ab
th is
symbol ic</w>
oc key</w>
nutri tional</w>
grab bed</w>
dupl icate</w>
O scar</w>
ti d
mar tial</w>
vac ancy</w>
swe ater</w>
stimul ation</w>
spec t
qu o</w>
pl ague</w>
fo stering</w>
al pha
Rob er
M BA</w>
temp tation</w>
pro claimed</w>
ha un
down loaded</w>
Swe dish</w>
sel ec
re sting</w>
lec tures</w>
ener gies</w>
D im
Chair men</w>
prud ence</w>
prof essors</w>
in jec
capit alism</w>
Val ue</w>
Mar x</w>
Engl ish
1 40</w>
ut terly</w>
unanim ously</w>
sacrific es</w>
on ically</w>
defic its</w>
altern ate</w>
nor theast</w>
m are</w>
histor ically</w>
go d
correc ted</w>
anni e</w>
O EC
B ru
terri bly</w>
ru ined</w>
regre ts</w>
persu aded</w>
parti ality</w>
min ors</w>
dis course</w>
bu ys</w>
b bed</w>
aux iliary</w>
Super vision</w>
standardi zation</w>
sandw ich</w>
h int</w>
glo ves</w>
for k</w>
de part</w>
N BA</w>
re ign</w>
n .
gre eted</w>
fascin ating</w>
du ous</w>
cru ise</w>
at ar</w>
ad herence</w>
In tel
Hawai i</w>
Car ol
u ed</w>
suppl ements</w>
ste ak</w>
shif ted</w>
ri er</w>
pic nic</w>
grad ient</w>
f s</w>
co c
car ved</w>
bu cks</w>
assign ments</w>
administr ators</w>
re forming</w>
enti c</w>
embarrass ed</w>
di etary</w>
dep ths</w>
citizen ship</w>
cal li
Val jean</w>
R .
y early</w>
p tive</w>
m esh</w>
kilo grams</w>
faith fully</w>
demonstr ations</w>
correc tions</w>
bub bles</w>
an alog
S emin
S ai</w>
D O
10 7</w>
s i</w>
post er
interven e</w>
cess ation</w>
assur ances</w>
Is sue</w>
scenari os</w>
feat ured</w>
bu cket</w>
att ainment</w>
w it</w>
travel er</w>
ne ath</w>
il in</w>
fr ank</w>
dol ph
brut al</w>
ad der</w>
Elec toral</w>
E cu
wo ven</w>
Zh u</w>
Tay lor</w>
S lo
Phili p</w>
L au
J ava</w>
Cheng du</w>
wid ow</w>
st all</w>
pessi mis
par aly
o ch
ley ball</w>
ht tp</w>
fashi onable</w>
don ated</w>
comp ile</w>
av er</w>
techn ically</w>
log is
eas ing</w>
uni qu
stabil ize</w>
pro jection</w>
por e</w>
ou n</w>
mer ry</w>
guar ded</w>
Transi tional</w>
Tel evision</w>
Mot or</w>
4 .</w>
swe eping</w>
simul ate</w>
hus band
g ad
evol ving</w>
dil emma</w>
Th er
T ech
N ami
religi ons</w>
promo tional</w>
det ain
com prise</w>
Pan ama</w>
truste e</w>
recre ation</w>
mist aken</w>
dis pose</w>
der son</w>
am ate
sev enty</w>
financi ally</w>
en rich</w>
ca us
M aur
Frank lin</w>
An nex</w>
soy bean</w>
fl ames</w>
elecommun ication</w>
di ve</w>
but tons</w>
Q U
ton nes</w>
recip e</w>
propag ation</w>
gar ments</w>
acquisi tions</w>
St one</w>
L iter
K ey</w>
197 6</w>
sch e</w>
initi ation</w>
dum b</w>
Jud ic
Cypri ot</w>
strai ght
soci ally</w>
sin cerity</w>
manip ulation</w>
ar ized</w>
Ch u
. You</w>
tu bes</w>
psy chiat
presid ents</w>
exclu sion</w>
dy e</w>
UN MI
C ad
sle eve</w>
rev el
pum ping</w>
g la
f ting</w>
ca reless</w>
ang el
P il
F ish
F ar
spe edy</w>
detec tor</w>
bar rels</w>
an ed</w>
Mari time</w>
M ess
l ings</w>
el son</w>
commit ting</w>
b ail</w>
L isa</w>
Bout ros</w>
tr um
swit ched</w>
practi tioners</w>
incl usive</w>
commissi oned</w>
K ash
Dis aster</w>
Cris to</w>
what soever</w>
under lined</w>
school ing</w>
os yn
mol ecule</w>
j azz</w>
gr aft</w>
facilit ated</w>
distur b</w>
deterior ating</w>
co ff
co ck</w>
appropri ation</w>
SAR S</w>
10 3</w>
tur tle</w>
travel ers</w>
si gh</w>
inhab ited</w>
d ump</w>
b read
Tsu en</w>
Ad dress</w>
regul ator</w>
rebel s</w>
gri m</w>
cur ative</w>
Ho c</w>
wor d
tigh ten</w>
take over</w>
ref using</w>
por trait</w>
loc ating</w>
i v
conting ency</w>
aver t</w>
amaz ed</w>
al oud</w>
W W
T ax
Dis ney</w>
w ret
tr ash</w>
st em
res ili
recogn ised</w>
re hear
marg inal</w>
impl y</w>
dr agged</w>
Le on
suppl ying</w>
M O</w>
He ath
Do ha</w>
weak ened</w>
ve iled</w>
ul ent</w>
pl er</w>
direc tional</w>
cred itor</w>
c oup</w>
bo il</w>
accompl ishment</w>
Sil ver</w>
L us
IP O</w>
under took</w>
lab ou
health ier</w>
guit ar</w>
foot ing</w>
dis like</w>
ca the
Tai w
LC Q
bo d
activi sts</w>
W ord</w>
UN U</w>
Marx ism</w>
1 11</w>
thi eves</w>
pa thy</w>
is hable</w>
dispat ched</w>
dis rup
den ial</w>
consul ted</w>
comm end</w>
chi ef
ac es</w>
ab ed</w>
tow el</w>
sun ami</w>
ren minbi</w>
reiter ates</w>
lo fty</w>
gg ers</w>
dom es
1 14</w>
sil ently</w>
hu g</w>
he red</w>
emb ry
dol l</w>
carto on</w>
bos ses</w>
appe aling</w>
A BC</w>
suff ers</w>
pre ferences</w>
il t</w>
hib iting</w>
fl ags</w>
cu is
bas ement</w>
Toy ota</w>
R ot
No tice</w>
Broad casting</w>
v eil</w>
terr ain</w>
or nam
ar in</w>
M S
instruc ted</w>
explo ded</w>
ex hibitions</w>
be aches</w>
H it
per tinent</w>
od es</w>
m ail
frag rance</w>
eut en
Sy m
EN T
D eli
&apos; an</w>
tur key</w>
stimul ating</w>
so da</w>
ro y
l ent</w>
de w</w>
Is lam</w>
I .</w>
Com mon</w>
Ar ctic</w>
te d
st akes</w>
pav ement</w>
ne ur</w>
guarante eing</w>
can v
bo iler</w>
SA L</w>
rever sible</w>
gre eting</w>
as as</w>
trav elled</w>
th western</w>
assi um</w>
ad ers</w>
under gone</w>
tum ors</w>
gast ric</w>
d war
ter ior</w>
sex y</w>
rein forcement</w>
o ak</w>
mi um</w>
im pover
err a</w>
auth entic</w>
assum es</w>
T ot
O l
Equip ment</w>
war ran
tic k</w>
sh ep
prob able</w>
lun gs</w>
din os
a ided</w>
Priv ate</w>
. h
supervis ing</w>
op ha
gener ic</w>
distribu ting</w>
con sol
U z
Pr ice</w>
Chr ys
you ve</w>
volun tarily</w>
them atic</w>
pro tocols</w>
fortun es</w>
fin als</w>
eigh teen</w>
constr ained</w>
accid entally</w>
Sup ply</w>
M ake</w>
Cour se</w>
summar izes</w>
sper m</w>
l enders</w>
discipl ines</w>
az ing</w>
G as</w>
B L
stake holders</w>
r in
le th
fluctu ations</w>
ambi tions</w>
admi red</w>
ac up
197 4</w>
15 th</w>
wear y</w>
pream bular</w>
pois onous</w>
no ti
edit orial</w>
do g
centr alized</w>
Py ong
Pro liferation</w>
H im
F a
ver te
tom ato</w>
p seud
ob s</w>
no tor
U p</w>
Cos ette</w>
Cent ury</w>
ver t</w>
v or
under neath</w>
st air
plun ged</w>
pen sions</w>
inqu ire</w>
shou ting</w>
quar terly</w>
l ur
d azz
assemb le</w>
Struc ture</w>
L ily</w>
Initi ative</w>
D ow</w>
stri fe</w>
sp elling</w>
Michel le</w>
In sp</w>
In flu
ing ed</w>
evid ently</w>
N ing
Ham as</w>
un willing</w>
th under
t ours</w>
re a</w>
less ness</w>
erad icate</w>
advers ely</w>
tun n
tu ary</w>
to es</w>
prosecu ted</w>
iz hou</w>
g ate
com edy</w>
c ils</w>
alcohol ic</w>
Rog er</w>
Mr .
K un
ty pho
mag ical</w>
lu ent</w>
le ys</w>
expe d
bil li
K evin</w>
struggl es</w>
ic ket</w>
frank ly</w>
el et</w>
char ts</w>
aw a</w>
al arming</w>
in fin
fundam entally</w>
enti eth</w>
diam onds</w>
at om</w>
al ine</w>
advoc acy</w>
In dependence</w>
D A
l ays</w>
exemp ted</w>
endeav ours</w>
compl im
Willi ams</w>
pi erc
lim bs</w>
divid end</w>
19 60</w>
rob i</w>
reson ance</w>
pris ons</w>
mar ble</w>
l acked</w>
ak ia</w>
V il
E ven</w>
2 5.
y able</w>
wh ale</w>
stic king</w>
reli es</w>
qui to</w>
par as</w>
appl ause</w>
Scar lett</w>
Offic ial</w>
Ad vis
us sels</w>
surve ying</w>
strai gh
j ade</w>
hel pless</w>
gar lic</w>
co venant</w>
Nai robi</w>
Mach ine</w>
E .</w>
&apos; S</w>
shi el
pun ch</w>
aspir ation</w>
absor bing</w>
H S</w>
Di v</w>
wi res</w>
sp ill</w>
for ging</w>
fer mentation</w>
ap er
acup un
Sam uel</w>
Bri an</w>
A do
yar n</w>
tri bes</w>
ti um</w>
though tful</w>
sli m</w>
sli des</w>
ov ascular</w>
inspec ted</w>
ex claimed</w>
comp elled</w>
communic ating</w>
collec tions</w>
athle tic</w>
a waiting</w>
Mill ennium</w>
wi ped</w>
subordin ate</w>
proc uring</w>
com ic</w>
2 6.
wid ening</w>
whe el
rhetor ic</w>
eth anol</w>
dec ree</w>
convinc ing</w>
co st
ag an</w>
P as
MP F</w>
Acc ess</w>
solu ble</w>
ogen esis</w>
j a
fin est</w>
devi ation</w>
coll ateral</w>
che dule</w>
an ian</w>
acqu iring</w>
Viet nam
3. 5</w>
10 4</w>
sk irts</w>
rail ways</w>
prep aredness</w>
pil low</w>
pi x
mer cen
exp ired</w>
che ap
Prosecut or</w>
OEC D</w>
su ite</w>
s ick
op t</w>
gu ese</w>
am us
W ai</w>
Taiw anese</w>
Mac edonia</w>
s adly</w>
ques tioning</w>
gre et</w>
f are
al ise</w>
P hot
Happ y</w>
Doc ument</w>
min ers</w>
land lord</w>
ic tion</w>
h op</w>
denti st</w>
bro w</w>
ali en
S ul
Jo ey</w>
metr e</w>
k ing
eag le</w>
bi o</w>
1. 1</w>
re use</w>
lo gy</w>
analy sing</w>
he el</w>
grocer y</w>
courtes y</w>
cla uses</w>
ho st
Te hran</w>
Ham let</w>
to ken</w>
re bel</w>
qu eries</w>
logis tical</w>
for ge</w>
Pyong yang</w>
ve to</w>
im muno
grad ing</w>
amm unition</w>
Mic hi
Chand ler</w>
sk ip</w>
r ors</w>
philosoph ical</w>
mon es</w>
mag ni
jun gle</w>
end anger</w>
cooper ating</w>
bl ind
UNOMI G</w>
r atings</w>
priv ation</w>
in n</w>
S ince</w>
In ner</w>
Coll ection</w>
sur geon</w>
res ettlement</w>
p urity</w>
os copic</w>
op er</w>
o ath</w>
l ance</w>
S ettl
Jo b</w>
Europe ans</w>
Commun ication</w>
set up</w>
pip elines</w>
less er</w>
forgi veness</w>
epis ode</w>
edi ble</w>
courty ard</w>
Uz be
D um
san itary</w>
pe an
ly mph
dis astr
bur gh</w>
Dar fur</w>
C ot
2 2.
vis as</w>
shoc ks</w>
sev ent
ish ers</w>
gi an</w>
a que</w>
F red</w>
w aking</w>
subscri ption</w>
ro tor</w>
rever sed</w>
lam ps</w>
broad en</w>
Wu han</w>
F ul
E aster</w>
g ul
fab rics</w>
bo oming</w>
yog a</w>
draf ted</w>
collabor ative</w>
Stam ps</w>
Excell ency</w>
Ba id
trac es</w>
parti tion</w>
pan cre
ci d</w>
att an</w>
accompan ying</w>
E valuation</w>
yst ems</w>
wh ich
viol ating</w>
sk ep
or b
motor cycle</w>
mer ge</w>
Avi ation</w>
x es</w>
sw elling</w>
shel ves</w>
salv ation</w>
s al</w>
ec lip
ci ent</w>
O s</w>
China 鈥檚</w>
ven ues</w>
gym nas
e w
Res olution</w>
En h
Con c
Br ussels</w>
rang es</w>
mag istr
m um
in ward</w>
d ared</w>
conno tation</w>
bow ed</w>
a .</w>
Portu guese</w>
PR K</w>
F OR
197 0</w>
. 2</w>
vic ious</w>
the irs</w>
simpli fy</w>
philos opher</w>
h ed</w>
gor ge
gener ates</w>
cul min
vis cos
multi tude</w>
incredi bly</w>
fundam ent
exqu isite</w>
d itch</w>
U sing</w>
Six th</w>
S ally</w>
O L
Ac counting</w>
re signed</w>
in quiries</w>
ed a</w>
can e</w>
ar sen
L inda</w>
D or
鈥 淚</w>
semiconduc tor</w>
priv atization</w>
off spring</w>
bass y</w>
Ma h
resol utely</w>
persever ance</w>
peac efully</w>
inter personal</w>
in trac
ex pose</w>
ast er
ali enable</w>
Lank a</w>
G M
ren d</w>
mor row</w>
dest abil
Si erra</w>
D PRK</w>
Alli ance</w>
tri bal</w>
tor que</w>
leg ality</w>
indic ations</w>
for get
absur d</w>
Peo ple鈥檚</w>
H em
Em bassy</w>
Chris ti
wr ath</w>
syst emic</w>
sn ap</w>
ha il</w>
ex trav
ac ry
Guang xi</w>
A venue</w>
practic able</w>
pr ic
c il
T sang</w>
Semin ar</w>
Lyn ch</w>
Chris tians</w>
evol ve</w>
diplom ats</w>
Gu am</w>
Fac ebook</w>
Charac ter
souven ir</w>
sou thwest</w>
rec ourse</w>
prosecut ors</w>
piz za</w>
k nit
arith metic</w>
Zh en</w>
L has
F annie</w>
Cent res</w>
C old</w>
A z
sw ine</w>
ster il
re active</w>
prospec ting</w>
dic t</w>
ab ud
200 ,000</w>
volati lity</w>
tubercul osis</w>
s an</w>
int act</w>
cred entials</w>
car b
Y emen</w>
G RE
Fu jian</w>
C IS</w>
wavel eng
ro ast</w>
puzz le</w>
objec tions</w>
im balances</w>
i .</w>
exter ior</w>
ank le</w>
al de
S ophi
J int
I mp
Gr ou
with drew</w>
decla res</w>
de preci
aqu atic</w>
Pen n
O ut</w>
20 11</w>
par all
mar sh
le d
lap top</w>
in security</w>
fil ters</w>
dis solved</w>
abud getary</w>
Re duction</w>
ultras ound</w>
ti ff</w>
ep tive</w>
comprehen sively</w>
HS BC</w>
si veness</w>
polic emen</w>
o zone</w>
in deb
endor se</w>
embo died</w>
a ze</w>
Be hold</w>
Ado be</w>
rev isions</w>
m um</w>
Qing dao</w>
Colon el</w>
su ing</w>
see kers</w>
re sign</w>
pil ing</w>
for ged</w>
Par ti
Alban ia</w>
197 5</w>
swa p</w>
ment ality</w>
d ling</w>
b aking</w>
am bassador</w>
Represent atives</w>
H i
sti p
r ounded</w>
off ense</w>
is nt</w>
comm ence</w>
ain an</w>
N C</w>
M AR
sn ack</w>
in tri
furn ished</w>
dow ns</w>
dilig ence</w>
cha p</w>
La ura</w>
sp ic
program med</w>
pep per</w>
ker nel</w>
is phere</w>
impl ements</w>
hard est</w>
glim pse</w>
foun tain</w>
deleg ate</w>
acupun cture</w>
L un
tow ers</w>
rele asing</w>
pul p</w>
im press</w>
he a</w>
f lap</w>
defin itive</w>
decentr alization</w>
S n
1 12</w>
v ase</w>
trans forming</w>
o ti
it ations</w>
in consistent</w>
conce aled</w>
bal loon</w>
P ati
B ret
Aut umn</w>
tigh tening</w>
n in
mal ignant</w>
adequ acy</w>
W AS</w>
S and
Eff ect</w>
Arbitr ation</w>
collec tor</w>
antibio tics</w>
Trad emark</w>
Ir on</w>
Fin ancing</w>
Concer ning</w>
Bil ly</w>
rail road</w>
par ade</w>
dw elling</w>
de pl
cred itation</w>
Vietnam ese</w>
SM Es</w>
with stand</w>
simultan eous</w>
power ment</w>
poo rer</w>
hor mones</w>
c on</w>
be gg
C ancer</w>
Bol i
00 0
te m</w>
ren ts</w>
don key</w>
com a</w>
ar duous</w>
ad j</w>
Nic hol
Her it
tal es</w>
stret ching</w>
returne es</w>
mp h</w>
fr ame
engl ish</w>
conce al</w>
bl oss
alli ed</w>
Man ufac
scor ing</w>
regret ted</w>
or chestr
festi vals</w>
celebr ating</w>
bo iled</w>
St or
EC E</w>
ter tiary</w>
simil arity</w>
sculp ture</w>
row th</w>
par don</w>
og ue</w>
off enders</w>
l ump</w>
fill ment</w>
extr abudgetary</w>
comp ares</w>
activ ate</w>
Exam ination</w>
vic inity</w>
s port
pr ayers</w>
d un
broker age</w>
V o
Antar c
sk ill
sc ep
lem on</w>
cardi ovascular</w>
P M</w>
Ecu ador</w>
sing ular</w>
gen ic</w>
euten ant</w>
cr yp
Streng thening</w>
Q a
Peri od</w>
ONU SAL</w>
Lhas a</w>
Aut om
Antarc tica</w>
.h k</w>
recover ing</w>
ir re
ex hibits</w>
di p</w>
dev otion</w>
W S
Lus aka</w>
Hear t</w>
Sto ck
Jud ge</w>
ven tric
treas ures</w>
sid ed</w>
sc ent</w>
rev ise</w>
m im
k ills</w>
contribu tors</w>
contr av
Me teor
G PS</w>
Cu n</w>
x ing</w>
th el
reg ain</w>
mos quito</w>
morph ology</w>
mon ey
evac uation</w>
co ke</w>
Tsu i</w>
Prin cip
intol erance</w>
hi o</w>
bu ck</w>
R ock</w>
E mil
5 00,000</w>
viscos ity</w>
rob bed</w>
nor m</w>
mur dered</w>
juris dic
grass land</w>
e -</w>
dis ruption</w>
worth while</w>
utili ties</w>
thir st</w>
s ati
predic ting</w>
pol ls</w>
counter part</w>
S av
J un
twist ed</w>
tri m</w>
ru ins</w>
ric her</w>
pesti cides</w>
non sense</w>
inc umb
ec tomy</w>
N ick</w>
C li
t ments</w>
sub strate</w>
mag nes
lear ners</w>
h ing</w>
fant asy</w>
el bow</w>
design ate</w>
H .</w>
th reads</w>
t ones</w>
r ag
pil ots</w>
he ap</w>
h is
Stat ement</w>
Atl anta</w>
weigh ing</w>
phys ic
eg al</w>
bl adder</w>
treat s</w>
t ore</w>
spo on</w>
o il
man us
harmon ic</w>
fulfil ment</w>
critici ze</w>
bom bing</w>
L A
Jint ao</w>
D ick</w>
un avo
trans plant</w>
syl van
rigor ous</w>
prof iles</w>
habit at</w>
f ade</w>
comm enced</w>
Michi gan</w>
r aining</w>
pre domin
out lets</w>
k not</w>
her bs</w>
han ces</w>
competi tor</w>
anti oxid
am pl
af ts</w>
An dy</w>
vot er</w>
sty l
ot es</w>
ligh test</w>
innoc ence</w>
f an
cri es</w>
cataly tic</w>
R .</w>
Person nel</w>
Antar ctic</w>
wa i</w>
str a
six teen</w>
shr inking</w>
post mark</w>
event ual</w>
esc ents</w>
der ive</w>
cus sion</w>
R on</w>
Priv acy</w>
I M</w>
CH AI
trans mit
tack ling</w>
sp oil</w>
mon keys</w>
milest one</w>
guar dian</w>
d anced</w>
col oured</w>
co co
U GC</w>
Nor dic</w>
B ase</w>
si ght
remedi al</w>
recru iting</w>
pain ter</w>
ne edy</w>
floo ded</w>
exemp t</w>
deliber ation</w>
Cap e</w>
5 .</w>
stub born</w>
resc ence</w>
gast ro
f ren
enrich ed</w>
T ob
Labor atory</w>
0. 5</w>
veter an</w>
pum ps</w>
pot assium</w>
ordin arily</w>
mon k</w>
gorge ous</w>
ac credited</w>
Suppl ementary</w>
Mon ica</w>
Herit age</w>
Dis ease</w>
C A
t sunami</w>
sedi ment</w>
hin der</w>
any time</w>
Fo rest</w>
ur red</w>
thes ia</w>
projec tions</w>
pol ling</w>
memor andum</w>
insul t</w>
attrac ts</w>
P F</w>
Luc y</w>
L es
J ason</w>
C S</w>
recei pts</w>
l t</w>
in correct</w>
gener alized</w>
Settl ements</w>
A v
pris ed</w>
oo ts</w>
lab ore
1, 500</w>
sul fur</w>
r ust</w>
otechn ology</w>
day light</w>
commun icated</w>
as ym
Statis tical</w>
Shan xi</w>
P ent
Def ence</w>
manife station</w>
cr ane</w>
ca red</w>
b en</w>
Vi ol
Pen insula</w>
N ag
M ail</w>
D ong</w>
. 4</w>
v in</w>
stipul ates</w>
foreig ner</w>
en forcing</w>
disastr ous</w>
Le o</w>
Chrys ler</w>
Bud getary</w>
tw entieth</w>
sympa thetic</w>
reservo irs</w>
per fume</w>
notic es</w>
law makers</w>
impl ied</w>
descri ptions</w>
conc essions</w>
c ouldnt</w>
aer obic</w>
An ne</w>
te ens</w>
t ational</w>
log istic</w>
intr insic</w>
coun selling</w>
cent ri
whil st</w>
volcan ic</w>
ship ments</w>
s ely</w>
privileg ed</w>
mo tives</w>
im minent</w>
Y i
T C</w>
sha m
sem antic</w>
pro of
off ender</w>
em powerment</w>
tr ail
ti zed</w>
so cks</w>
sh one</w>
reck on</w>
pur ification</w>
present ations</w>
ol y</w>
insu rer</w>
down stairs</w>
comprehen sion</w>
a ids</w>
Main tenance</w>
van ished</w>
s no
recre ational</w>
judg ments</w>
fea thers</w>
f ont</w>
en large</w>
embarrass ing</w>
T ig
Dang lars</w>
u able</w>
fac to</w>
dig it</w>
conf ess</w>
arm ies</w>
Tru ste
He bei</w>
AC .
s lot</w>
peac emaking</w>
individ u
im position</w>
en hances</w>
cru ci
conqu er</w>
To day</w>
Dru gs</w>
D I
Buil dings</w>
sum mon
mis fortune</w>
extrav ag
disper sion</w>
c uc
A qu
u pro
op tic</w>
l ad</w>
in sti
equ ities</w>
dr un
W rit
S ER
Grand pa</w>
perme ability</w>
op t
nor thwest</w>
mak eup</w>
is chem
en du
elev ated</w>
comp atri
col ony</w>
administr ations</w>
-- and</w>
in different</w>
h ap
dre ad
de ple
J .
sk ull</w>
prec urs
pir acy</w>
contin ual</w>
con e</w>
V an
R ural</w>
Inter governmental</w>
teles cope</w>
ta res</w>
sp ur</w>
proph et</w>
o rem
is ons</w>
inspec tors</w>
ann e</w>
Sh er
S how</w>
P R</w>
Abk haz
sk ies</w>
pet ty</w>
ol ding</w>
ge al</w>
divor ced</w>
compli ment</w>
cha ired</w>
b ai</w>
sign ment</w>
hem orrha
gu er
defici encies</w>
conver ter</w>
alter ation</w>
V an</w>
Kab ul</w>
A id</w>
2 1.
tou ches</w>
per secu
expec tancy</w>
condem ns</w>
bu z
B an</w>
th ouse</w>
sylvan ia</w>
str ing
s nat
ret aining</w>
por no
link age</w>
leng thy</w>
gl am
fer tile</w>
cl ue</w>
T ree</w>
Qing hai</w>
Pol lu
Ar n
wh ats</w>
sp reads</w>
sav es</w>
endor sement</w>
conc ei
acc eded</w>
S mart</w>
B lu
coordin ator</w>
U. S</w>
Com mand</w>
&apos; and</w>
pione er</w>
o is</w>
inc eption</w>
cent ric</w>
the astern</w>
sup press</w>
over l
ful fillment</w>
am ins</w>
Me i</w>
war mer</w>
el as
eag erly</w>
combat ants</w>
clos et</w>
cel ain</w>
bun dle</w>
Z ambia</w>
M en
ID ENT</w>
鈥 淚
wr ist</w>
thy ro
premi er</w>
mist ress</w>
S co
Rwand ese</w>
Bar cel
we ights</w>
w izard</w>
th en
rememb ering</w>
propri et
happ iest</w>
ex porter</w>
ecos ystems</w>
attribu table</w>
al er
Y au</w>
Indi ans</w>
Bet ty</w>
An na</w>
sol itary</w>
over coming</w>
min us</w>
hast e</w>
day .
cou ch</w>
confir ms</w>
commun ist</w>
com pressed</w>
W ales</w>
Un its</w>
ten ment</w>
stor ing</w>
shar k</w>
se als</w>
reve aling</w>
medic inal</w>
im itation</w>
dec olonization</w>
c ements</w>
ap preh
str ar</w>
sc rap</w>
per v
h ill
dr astic</w>
deb tor</w>
de position</w>
acquain tance</w>
G IS</w>
ty pe
re stri
pro hibit</w>
jeal ousy</w>
inher it</w>
embar ked</w>
d us
co er
anticip ate</w>
an atom
P G</w>
Nor we
Mater ials</w>
Cont act</w>
tr un
install ing</w>
ec tures</w>
cat ering</w>
boo ked</w>
as ia</w>
T ol
G ive</w>
E rit
D ave</w>
Arch it
vol leyball</w>
propor tions</w>
pro xy</w>
nucle us</w>
do omed</w>
b yp
autom otive</w>
M A
G rowth</w>
Pu er
Jer ry</w>
H illary</w>
sub missions</w>
sc are</w>
re payment</w>
ob struction</w>
ever lasting</w>
disco veries</w>
co inci
ci ous</w>
adol escents</w>
M is
Con nec
ome try</w>
mo dem</w>
mar athon</w>
beauti fully</w>
U BS</w>
O hio</w>
In come</w>
E ric</w>
De part
2 9.
uc h</w>
nutri ent</w>
lod ged</w>
ic ious</w>
electro ly
accus ations</w>
Ban king</w>
v om
ow ning</w>
heter ogen
cher ry</w>
cand les</w>
P ER
Nami bia</w>
Moun tains</w>
M id</w>
E P</w>
ynam ics</w>
tic als</w>
sy r
s inking</w>
relax ing</w>
en ix</w>
e be</w>
am ino</w>
Reli ef</w>
Ar med</w>
trans former</w>
precip itation</w>
on ry</w>
hur ricane</w>
h ears</w>
g em
enlar ged</w>
adju stable</w>
An y
isi tion</w>
On ce</w>
K ung</w>
J ing
Gr ade</w>
Barcel ona</w>
w is</w>
techn icians</w>
r ou
or n</w>
hi a</w>
Y ing</w>
Jer sey</w>
J ia</w>
G U
Del hi</w>
1 17</w>
vend or</w>
sub paragraph</w>
pe di
co aches</w>
L D</w>
Bo dy</w>
Appl ications</w>
scrut iny</w>
rab bits</w>
r ack</w>
pe aks</w>
oo s</w>
k el</w>
frame works</w>
ff le</w>
ev ing</w>
de privation</w>
ari um</w>
Mon t
swif tly</w>
rec tification</w>
om es</w>
en ers</w>
cuis ine</w>
ca b</w>
biodi versity</w>
batt les</w>
PRES IDENT</w>
H ester</w>
ur ry</w>
ro tary</w>
iti onal</w>
im partiality</w>
i ff</w>
he ights</w>
fire arms</w>
H um
w re
univers ality</w>
sp an
over due</w>
occup ying</w>
fir st
N ancy</w>
specim en</w>
seiz ure</w>
g oo
dispu ted</w>
T elecommunications</w>
S chedule</w>
Aud it</w>
. And</w>
un expec
pro position</w>
militi a</w>
mag net</w>
hum ili
hu ang</w>
consolid ating</w>
am y</w>
De pression</w>
trav ellers</w>
st are</w>
out fit</w>
os evel
f ist</w>
detain ees</w>
comp elling</w>
chem otherapy</w>
b ells</w>
L A</w>
Bec k
spe eding</w>
inf antry</w>
clin ics</w>
calli graphy</w>
bu d</w>
bri bery</w>
ban ana</w>
UNIF EM</w>
P D</w>
M ENT</w>
win es</w>
vend ors</w>
tox icity</w>
text books</w>
mo tions</w>
cur ing</w>
ci vic</w>
Mc Donald</w>
vit amins</w>
trac ed</w>
h n</w>
h attan</w>
e er</w>
e an
des cent</w>
cr ack
b by</w>
Sh ir
MI S</w>
I denti
ul us</w>
trad emarks</w>
lat ors</w>
en si
ca ffe
aff ec
Del eg
5 1
o ids</w>
gre etings</w>
form idable</w>
ex otic</w>
dr al</w>
di stances</w>
ab le
K it
Ex press</w>
Aud itors</w>
real ise</w>
pre valence</w>
lot tery</w>
he pati
ge able</w>
explos ives</w>
elo qu
announ cing</w>
P an</w>
Not es</w>
Dom in
wee ds</w>
my th
labor atories</w>
grap es</w>
enjo yable</w>
cip ation</w>
cham bers</w>
b ial</w>
S cho
vers ati
ver bs</w>
us et
tri m
tion ist</w>
stere otyp
nod ded</w>
ho stage</w>
hier arch
fir m
el low
di version</w>
d ul
d oth</w>
choos es</w>
chief ly</w>
b everage</w>
Ro osevel
L Y</w>
visi bility</w>
so y</w>
join s</w>
el t</w>
bur dens</w>
V oc
T op</w>
E ur
Carol ina</w>
ti dy</w>
spectr al</w>
modi fications</w>
jun c
in justice</w>
fl ash
cl um
back grounds</w>
Pro jects</w>
Penn sylvania</w>
L IM
Ad di
str aw
sp ine</w>
r outing</w>
por ous</w>
mar rying</w>
commem or
ar ial</w>
In tro
ESC AP</w>
Du ke</w>
Con go</w>
3 3
th ood</w>
ban ner</w>
U s
Oly m
su ed</w>
sk ating</w>
le asing</w>
certain ties</w>
ay a</w>
ach uset
whist le</w>
sc ure</w>
restric ting</w>
pot ent</w>
ne arer</w>
i Phone</w>
con sole</w>
ad mits</w>
th ink
simpl est</w>
re warded</w>
illu stration</w>
good will</w>
go ose</w>
geome tric</w>
en shr
dilig ent</w>
comp any
anthro pol
P ope</w>
C ert</w>
vacc ines</w>
un conditional</w>
optim izing</w>
ob sol
leg end
en act</w>
dos es</w>
bur gl
IC E</w>
Christi anity</w>
2 2
swee the
gl omer
formul as</w>
e e
dil u
de fi
cub ic</w>
concentr ations</w>
box ing</w>
Mal ta</w>
M ine</w>
Gr an
Conven tions</w>
Bet ween</w>
An gl
ver dict</w>
achuset ts</w>
Y P</w>
W ith
S ev
RM AN</w>
Per mit</w>
Liber ian</w>
Hy dro
D ur
Accor ding</w>
8 0
pir ates</w>
my ocardi
hec tares</w>
gi bility</w>
fic ially</w>
cut ter</w>
Ru th</w>
prop he
pl ating</w>
ob iles</w>
fire works</w>
Rel ated</w>
12 8</w>
parad ise</w>
excl ude</w>
as i</w>
ar t
am en</w>
al right</w>
N am</w>
Christ opher</w>
B at
xen oph
stu me</w>
rain bow</w>
ob scure</w>
k le</w>
dis bur
deser ted</w>
cop ing</w>
att endant</w>
Mar gare
Exper t</w>
vi an</w>
policy makers</w>
out sourcing</w>
or iti
on t
galax y</w>
R ep
whis per</w>
tl en
tiz ation</w>
tall er</w>
straight forward</w>
restri al</w>
bir ths</w>
Ex plo
196 0s</w>
vap or</w>
sequ ences</w>
p am
on set</w>
metaph or</w>
lin en</w>
inval uable</w>
Y in</w>
Tal ks</w>
Sec tor</w>
18 th</w>
un healthy</w>
ten ure</w>
si ghted</w>
shar p
sched ules</w>
ob ese</w>
mal nutrition</w>
desc ended</w>
den ying</w>
cy cling</w>
char itable</w>
bon uses</w>
bom bar
ban quet</w>
abol ished</w>
S it
Fac tory</w>
D M</w>
CHAI RMAN</w>
there to</w>
suscep tible</w>
op hy
om as</w>
lo gs</w>
in er</w>
d ash</w>
c ache</w>
battle field</w>
We ek</w>
M iller</w>
Col a</w>
tri vial</w>
sub stitu
rati os</w>
r us</w>
par amount</w>
luck ily</w>
ast ro
Mass achusetts</w>
Fri ends</w>
stati stic</w>
st ress
roc ky</w>
ri val
ome tric</w>
es .</w>
bear ings</w>
al armed</w>
S eller</w>
Gr ant</w>
persist ed</w>
kis sing</w>
in hibit
house work</w>
co herence</w>
ab ad</w>
Le i</w>
G am
wor ding</w>
wav ed</w>
rec oll
re produced</w>
penetr ation</w>
nine teen</w>
mis understanding</w>
institu tion
fur ious</w>
euro s</w>
al igned</w>
ac char
Out line</w>
N 1</w>
E ach</w>
3 1.
wav e
trem bling</w>
retri eve</w>
c ue</w>
bl ess
ban g</w>
Pollu tion</w>
rescu ed</w>
mel anch
dum ped</w>
def ended</w>
centri fu
broad band</w>
P P</w>
K at
G AT
Ch ap
C ast
yiel ding</w>
synthes ized</w>
gg le</w>
confron ting</w>
Cha ir</w>
unexpec tedly</w>
sc our
sa uc
reli ed</w>
om y
lean ed</w>
hu t</w>
dep ended</w>
aig n</w>
Rad i
volcan o</w>
sup pression</w>
stat utes</w>
roc kets</w>
rit ual</w>
regener ation</w>
ff ing</w>
e u</w>
dimin ished</w>
cri tic</w>
bow s</w>
vac ancies</w>
hand y</w>
gre ase</w>
fare well</w>
ent ure</w>
dd ess</w>
cel e
c ans</w>
ag ne</w>
tom atoes</w>
tempor al</w>
propor tional</w>
j ah</w>
W here
Sec on
Pho ebe</w>
Pe king</w>
D a
Cha u</w>
pol arization</w>
play ground</w>
j aw</w>
he p
K en</w>
Con nie</w>
Al aska</w>
vari ance</w>
un usually</w>
u le</w>
tri ple</w>
seaf ood</w>
sanc tion</w>
repl en
pre si
du es</w>
cri ption</w>
comfor tably</w>
cha otic</w>
Vil le
O m
B ing
temp ted</w>
half way</w>
cr ust</w>
co il</w>
aw i</w>
all ine</w>
Maj esty</w>
I t
Ex pl
po ster</w>
labou rers</w>
kill ings</w>
is er</w>
intermedi ary</w>
in fr
fe eds</w>
bour geo
appli ance</w>
app en
Margare t</w>
G ao</w>
E arly</w>
water course</w>
ty r
tra jec
sear ches</w>
pre valent</w>
loo k
cur ved</w>
cot tage</w>
con spic
com b</w>
bar k</w>
Offic ers</w>
Mar t</w>
L ast</w>
Baid u</w>
rul ers</w>
post ers</w>
night mare</w>
inc ense</w>
impl icit</w>
ignor ing</w>
fore station</w>
de but</w>
accompl ishments</w>
acad emics</w>
ab ao</w>
F E
D alian</w>
3 50</w>
3 00,000</w>
odo x</w>
meth o
legend ary</w>
j ack</w>
incorpor ation</w>
in difference</w>
cum ulative</w>
bon ded</w>
band width</w>
U. S.
K ur
Hu ang
En v</w>
uc ked</w>
post ure</w>
constitu ent</w>
acc essed</w>
RA L</w>
Man hattan</w>
viol in</w>
trium ph
synchron ous</w>
sym path
husband ry</w>
hepati tis</w>
gu es</w>
gi ants</w>
ep s</w>
dev ise</w>
Bal tic</w>
. 3</w>
typ ing</w>
thir sty</w>
[...]
