<s>
<pad>
</s>
<unk>
的
,
。
&quot;
在
、
了
和
是
.
我
他
有
对
你
也
中
将
为
我们
上
年
(
)
人
不
与
月
就
都
:
一个
说
到
这
中国
会
日
并
等
她
而
-
但
他们
要
被
从
可以
没有
%
问题
》
《
时
发展
以
还
后
个
工作
地
进行
来源
标题
?
;
记者
自己
来
很
公司
把
国家
或
一
着
让
其
及
新
这个
能
多
这些
表示
下
已经
更
1
可能
给
3
它
向
市场
经济
于
所
如果
已
美国
去
该
政府
通过
好
5
企业
认为
需要
一些
大
可
里
提供
目前
国际
社会
10
用
2
做
又
4
情况
由
就是
研究
最
因为
开始
方面
以及
现在
影响
使
得
但是
时间
6
重要
什么
成为
前
有关
/
主要
其他
这样
组织
内
项目
这种
不是
过
那
活动
要求
使用
想
北京
元
们
7
新华网
包括
同时
管理
8
吗
出
必须
建设
·
一种
作为
所有
服务
今年
世界
出现
技术
安全
委员会
知道
生活
发现
会议
对于
其中
当
价格
大@@
比
孩子
至
9
不能
系统
地区
计划
由于
第
发生
产品
合作
机构
希望
规定
一@@
时候
据
却
报告
提出
政策
性
根据
12
则
高
还是
投资
者
称
特别
方式
城市
...
人员
教育
11
应
应该
不@@
再
因此
关于
很多
文化
看
地方
决定
继续
20
方法
或者
非常
不会
实现
正在
学生
!
部门
增长
不同
相关
增加
任何
小@@
部分
家
了解
点
小
人们
为了
名
得到
信息
之
能力
提高
才
能够
显示
像
一直
生产
号
分析
支持
许多
全国
关系
而且
中心
联合国
只
行动
设计
您
2011
2010
环境
看到
建立
岁
我国
30
具有
本
各
接受
万元
调查
不过
执行
起
获得
告诉
存在
日本
所以
还有
过程
呢
选择
这是
一定
之间
建议
较
如何
目标
之后
加强
介绍
代表
作用
中@@
解决
标准
达到
数据
全球
请
事
虽然
区
是否
一样
成
方案
走
你们
两个
参加
结果
银行
亿元
那么
仍
因
先生
学校
上海
造成
市
超过
进一步
行为
国内
曾
约
15
销售
资金
只有
最后
措施
那些
它们
一起
原因
最大
未来
努力
处理
一次
进入
网络
去年
领域
如
制度
只是
保护
甚至
完成
没
实施
大学
资源
帮助
以上
行业
起来
举行
期间
报道
万
香港
吧
法律
集团
王@@
人民
子
车
采取
喜欢
区域
基本
产生
关注
基金
法
吃
分
控制
有效
持续
过去
保障
张@@
不断
达
水
基础
比较
三@@
处
单位
指出
导致
非
无@@
媒体
考虑
钱
按照
高@@
以来
专家
汽车
多@@
促进
今天
一位
利用
直接
受到
历史
目的
条件
新@@
和平
带
正
外
成功
不要
李@@
之一
开发
网
国
带来
资料
同
来说
事件
均
改革
之前
水平
占
业务
学习
来自
跟
化
觉得
需求
网站
路
这一
各种
应当
严重
参与
大家
人@@
自
准备
受
出来
减少
朋友
并且
日电
无法
完全
取得
发布
内容
站
个人
美元
收入
作
注意
家庭
此外
随着
然后
这里
事情
新闻
东西
50
范围
健康
英国
某
任务
次
消费者
住
工程
政治
未
爱
结构
机会
金@@
道
天
水@@
拥有
采用
部
形成
公布
保持
上@@
间
压力
有@@
然而
更加
&apos;
式
当地
因素
队
两@@
马@@
作出
人士
18
明显
积极
住房
应用
县
食品
的话
表现
有些
副
调整
变化
分别
责任
尽管
确定
规划
条
一切
品牌
图
不少
小时
买
之@@
一般
传统
谁
开展
即
16
改变
类
25
主席
房
每
房地产
医院
稳定
不仅
申请
土地
当时
近
14
办法
月份
天@@
下降
长
型
刘@@
整个
全面
领导
用户
量
决议
重点
价值
专业
左右
讨论
一点
13
产业
每个
那个
陈@@
文件
消息
比赛
此
共同
一名
经
最终
100
总统
交易
经过
另
生
除了
最近
费用
大量
自@@
公开
风险
两
上涨
意见
确保
地@@
成本
质量
精神
儿童
一年
空间
如此
结束
旅游
正式
推动
花
一家
机
头
电影
负责
用于
打
感到
17
及其
按
购买
另外
妇女
怎么
种
大会
设备
A
一下
容易
欧洲
同样
真正
安排
仍然
开
问
21
现场
有人
为什么
实际
低
二
运动
机制
便
19
行政
项
网友
三
越来越
程度
发
程序
工作人员
预计
心
这次
战略
款
有限公司
经营
群众
第一
太
成员
全部
位
相信
才能
创新
这么
宣布
保证
米
面临
科学
门
感觉
老@@
无
引起
黄@@
贷款
总
推出
可@@
24
找到
针对
需
具体
局
功能
昨日
双方
模式
海@@
成立
开@@
几乎
此次
2009
40
人口
心@@
线
其实
级
强调
负责人
听
段
上市
仅
每天
以下
主任
山
检查
治疗
各国
学
制定
权
下@@
西@@
协议
期
经验
找
22
尤其
利益
电话
方
官员
拉@@
形式
德
说明
令
城
推进
写
现象
采访
人类
十分
最高
几个
叫
效果
白@@
困难
强
拿
原则
秘书长
行
很大
规模
重大
手机
一天
台湾
啊
文@@
阿@@
发@@
率
长期
进
协调
四@@
手
坚持
意义
度
最好
老师
权利
23
费
当然
综合
认识
似乎
每年
人民币
经常
改善
28
数量
3@@
报
五@@
科技
国@@
平台
死
再次
见
消费
提升
书
农村
材料
共
儿子
快
联系
离开
安@@
美@@
首先
涉及
以后
必要
省
只要
长@@
体系
表明
车型
话
客户
培训
明确
时代
多少
简单
父母
台
斯
60
阶段
版
警方
扩大
微博
2@@
近日
父亲
以前
自然
亿美元
维持
全@@
证明
对@@
重新
支付
出口
通常
至少
26
市民
巨大
联合
贸易
居民
一项
80
死亡
当前
力
援助
而是
地震
昨天
理论
医生
公众
红@@
以@@
村
南@@
2008
组
对此
透露
解释
面对
克
位于
分@@
且
打@@
万@@
指
首次
来看
文
通知
俄罗斯
老
理事会
监督
投资者
外@@
事故
迅速
拉
5@@
网上
内@@
愿意
光
利
4@@
工业
商品
美
英语
金
降低
法国
德@@
总是
计算
比例
一份
难
自由
场
器
只能
部队
干部
同比
限制
力量
状态
集中
团
生命
反映
房价
女性
那里
卡
张
面
危机
中央
罗@@
27
也许
交流
6@@
女
处于
体
双@@
属于
正常
上述
二@@
法院
下午
华@@
华
东@@
S@@
母亲
完善
给予
犯罪
能源
恢复
设立
鼓励
杨@@
少
林
军
预期
广州
同意
相比
状况
花@@
特@@
加@@
游戏
先
8@@
不到
日@@
全
a
一条
时期
监管
亿
特
资产
尔
出@@
正@@
满足
评价
这项
7@@
三个
90
方向
口
案件
别人
就业
附近
实行
相对
肯定
广泛
经历
即使
女人
同@@
优势
商业
合同
真的
调控
良好
气
日前
金融
1994
29
多年
发挥
身体
地位
员
物
成@@
员工
利比亚
食物
数
业
印度
送
转@@
不得
人权
风
31
平均
理解
国务院
前@@
艺术
投入
担心
运行
加入
上升
作品
创造
比如
社区
意味着
召开
周@@
例如
广告
教师
这@@
世纪
统计
组成
M@@
从而
充分
加
飞机
州
语言
办公室
承诺
设施
店
连续
符合
发行
避免
那样
生@@
家@@
学院
速度
截至
套
现代
建筑
批准
加快
手段
更好
非洲
训练
片
本文
房子
变得
妈妈
制造
明
代表团
教授
预算
独立
信
资本
关键
做出
及时
新华社
本@@
重@@
整体
挑战
随后
竞争
统一
时@@
内部
平
不再
下来
股份
知识
依然
评估
既
事务
机场
男人
B@@
吸引
制
维护
件
农业
最新
表
C@@
选举
9@@
为@@
各地
而@@
当天
穿
举办
女儿
来到
照片
其它
我@@
70
面积
曾经
电视
这位
回答
T@@
进程
大型
事业
其@@
讲
斯@@
大部分
光@@
进口
党
手@@
可是
利@@
引发
如@@
热
发表
位置
大多数
林@@
石油
军事
特点
互联网
加大
意识
享受
危险
马
案
记录
此前
承认
干
趋势
连
D@@
启动
1.@@
电脑
人才
适当
态度
车辆
1993
如今
电@@
将会
亚@@
财政
机关
宣传
跑
审查
管
办
规范
快速
德国
200
亚洲
相@@
合理
确实
王
供应
掉
故事
使得
下跌
草案
数字
检测
P@@
系
单@@
海
人数
普通
一场
职业
思想
而言
公共
入
令人
各项
十@@
战争
收到
那@@
论坛
山@@
第二
科
还要
L@@
过@@
普遍
相当
特殊
谈判
债务
欢迎
球
卡@@
幸福
中国@@
百@@
动物
几@@
苹果
道路
回
近期
指数
结合
反应
红
农民
她们
H@@
公里
核心
出台
基于
突然
风@@
某些
允许
妻子
监测
家长
于是
原
探讨
测试
别
B
考试
清楚
神
发出
登记
收费
色
一部分
不足
多个
除
分钟
在于
往往
指导
派
车@@
刚
怎样
古@@
病
根本
类似
0.@@
气@@
会@@
后@@
班
完
清@@
从事
后来
小组
板
男子
热@@
声
天气
年轻
冲突
立即
协会
A@@
黑@@
实际上
L
感
主题
500
所@@
韩国
现实
若
吴@@
民族
2000
&#91;
油
优惠
年度
软件
倍
很快
动力
以便
从@@
镇
以色列
有所
安
变成
缺乏
值
石@@
威胁
价
第一次
事实
工具
语
基地
音乐
患者
流
房屋
深圳
证券
层
污染
上午
「
巴@@
正是
」
逐渐
座
对象
开放
N@@
拒绝
唯一
永远
经费
开发商
重庆
承担
操作
西
丰富
交通
是因为
明@@
老人
咨询
表达
指标
卖
应对
&#93;
大幅
公约
免费
看看
C
变
反对
想要
G@@
靠
增强
名@@
头@@
电子
不可
边
一旦
融资
警察
大约
一系列
平@@
来@@
e
本身
审议
北京市
平方米
越
做好
真
一致
早
严格
晚上
制作
身上
发展中国家
高级
建@@
复杂
模型
法@@
成交
总@@
龙
任
即将
协助
好@@
成绩
声音
进展
远
正确
有着
摄
预测
展开
贡献
错误
值得
河
今后
近年来
担任
动
装
观点
条例
自身
课程
防止
回到
达成
儿
源
E@@
损失
非法
打击
回@@
现有
300
2007
适用
提交
楼
停止
爱@@
公@@
高校
观众
R@@
疾病
室
联
北@@
地产
连@@
概念
神@@
建
放在
子@@
住宅
帮
楼市
部长
拍
移动
两年
反@@
格
空@@
八@@
紧张
超@@
权力
适合
工资
观察
酒
重
发言
回家
体现
背景
真@@
股
利率
民众
力度
主@@
办理
些
培养
海外
鱼
原@@
物质
字
医疗
身份
流@@
行@@
听到
环保
事实上
低@@
实验
学@@
并非
比@@
访问
布@@
非@@
遇到
寻找
武器
较大
教
南
女士
大学生
专门
视频
看来
看见
奥巴马
利润
文章
结婚
眼睛
六@@
名字
东
年@@
对方
节目
一件
赵@@
理由
普@@
倒
酒店
药
票
先@@
税
衣服
女孩
落实
伦敦
加上
江
千@@
重视
分配
出席
节
民
律师
更是
公民
没@@
一张
收购
35
禁止
终于
难以
油@@
试验
新华
供
证
高兴
何@@
伊拉克
里面
规则
四
估计
协商
龙@@
快乐
周
传播
游客
广东
克@@
外国
科@@
门@@
方@@
定
领导人
年代
确认
朱@@
我要
特色
F@@
家里
港
超
股票
罪
回应
铁@@
各@@
波
岛
展示
回来
两人
受@@
奖
进@@
或许
s
民主
直到
厅
剂
每@@
放
保险
平衡
户
时尚
一只
为主
入@@
限购
太@@
发言人
生物
形象
尔@@
涨幅
永@@
失去
2012
半@@
众多
通@@
欧盟
年底
000
选
工人
出去
图片
十二五
自动
K@@
纽约
之外
系列
做法
自主
显然
实践
强@@
丈夫
各级
资格
界
里@@
读
品
构成
对话
主
作@@
1000
不得不
亦
题
依法
最佳
女@@
逐步
火@@
得@@
大陆
谈
S
性能
临时
不错
放弃
设置
取消
沙@@
有时
突出
成果
青年
特征
高度
足够
著名
最@@
意思
国外
声明
胡@@
当@@
联盟
明年
明星
内地
结论
基
原来
用@@
徐@@
据悉
社会主义
须
运输
战
体育
包
低于
合
类型
应@@
1995
船
经理
相应
飞
转变
多次
电
违法
货币
面前
火
老板
词
基@@
破坏
采购
干@@
改进
呼吁
放@@
余@@
方便
获悉
房间
风格
充满
变@@
西方
商
就要
细胞
在内
夫
画
铁路
预防
尊重
补贴
云
有点
地球
航空
核
主动
身
工
药物
业绩
我会
总理
未@@
打算
强烈
哈@@
深@@
之中
无论
青@@
48
提醒
情绪
深入
合@@
关心
笑
旅客
证据
团队
五
到底
意大利
邀请
考生
所谓
伊朗
民警
人物
2006
45
推广
违反
股东
形势
转移
策略
通胀
难@@
和@@
更为
同学
签署
孙@@
布
接近
单
试图
起@@
尚未
渠道
角色
在线
心理
雷@@
新闻网
当局
义务
皮
称为
首@@
块
协定
距离
1996
牌
直@@
紧急
成长
收@@
接触
苏@@
感受
突破
桥
至今
质疑
七@@
公平
财产
支出
为此
要@@
刚刚
补充
树
伤
坐在
V@@
不想
消除
底
保@@
受伤
菜
满意
说法
不管
相
数@@
第一个
感谢
转
肉
安装
性@@
西藏
公务员
达@@
优先
信心
e@@
官方
前往
发动机
再@@
立@@
想法
军@@
代@@
颜色
留下
习惯
运用
已有
出版
十年
几年
以为
明白
该@@
赛
厂
坐
家人
详细
师
万人
往
绿色
列
打开
提@@
春节
维@@
委员
尼
2005
排@@
部署
主义
街
多数
江@@
履行
提到
做到
奥运会
股市
s@@
收益
伊@@
公告
重建
尼@@
期待
提前
基层
予以
情
有助于
调@@
看起来
评论
角度
现金
--
南京
奥@@
石
能@@
真实
配置
书记
体@@
盘
军队
共和国
格@@
拍摄
地点
手术
金额
革命
满
运营
适应
大规模
共有
工@@
矛盾
t@@
今日
三年
卫生
点@@
乐@@
飞@@
遭遇
机@@
架
降
皮@@
工厂
生态
秘书
o
加工
年龄
追求
份
化@@
各方
澳大利亚
效率
信号
升级
米@@
玩
证实
空
教学
纳
进步
央行
推荐
相同
有限
春@@
纷纷
用来
蔬菜
优秀
定@@
i@@
说话
具备
白
罗
已@@
纳@@
科学家
第三
口@@
防@@
显得
下去
10@@
人生
波@@
是不是
阅读
两种
不好
理想
涨
或是
注册
差
W@@
皮肤
修改
获
反
研发
阳
爱情
掌握
引导
绝对
阿富汗
持有
乐
黑
请求
院
娱乐
美丽
伤害
粮食
九@@
理念
不够
载
喝
~
海洋
各类
i
看@@
0
常常
云@@
血@@
复@@
接@@
仅仅
常@@
第一@@
年轻人
损害
2.@@
表面
力@@
+
报@@
居住
村民
失败
攻击
经@@
于@@
英@@
本次
木@@
他@@
通
境内
园
I
出售
赔偿
属
首都
远@@
他人
收
农@@
病人
全新
执法
飞行
网@@
改造
公园
公路
司机
初步
小区
失@@
眼
道德
先进
多种
微@@
球员
表演
群体
尝试
楼盘
难民
当日
冷@@
日益
有利于
探索
节能
加拿大
标志
群
全省
一套
集体
象
作者
越@@
峰
最低
配合
委
信@@
博@@
角
传@@
课
台@@
成都
离
寻求
英
星
指定
面@@
空气
y
体制
描述
毛@@
红色
汉@@
狗
动@@
集
吉@@
日子
几天
局势
体验
处罚
司法
装置
脚
升
E
广@@
於
下面
业主
例
很少
现
的确
D
中国政府
b
上面
法庭
名单
沟通
为何
认真
等待
女子
电力
莫@@
检验
仪式
始终
成熟
O@@
人群
相互
当中
血
事项
打造
议程
治理
言
性质
交@@
决策
恩
杂志
民@@
清
亚
精@@
哪里
错
伟
上市公司
可能性
判断
别@@
私人
上半年
见到
股权
兵
包@@
书@@
顾客
乡
先后
移民
植物
武汉
b@@
章
因@@
广大
公
怀疑
取@@
能否
署
小姐
办事处
否则
各个
叶@@
条约
更大
优化
财富
不用
刺激
马上
尽快
兰
深
依据
32
那种
曝光
脸
立法
推@@
真是
好像
明天
货
总体
驻
框架
暴力
月底
西部
情@@
带@@
试点
过来
并未
新疆
当年
笔
累计
一边
贵
业内人士
纳入
森
质
圣@@
强大
含
3000
赢得
】
族
袭击
李
此@@
兴趣
幼儿园
保留
小学
团体
意
毕业
浙江
宝@@
结@@
易@@
接到
吨
活
死@@
学会
收集
旅行
俱乐部
首席
计算机
货物
万美元
审计
这件
到达
哪
埃及
痛苦
森林
400
伟大
塔
世@@
劳动
超市
山东
奇
看法
细节
客
另一方面
少@@
轮
包含
1@@
展
J@@
武@@
五年
眼@@
信任
杭州
遵守
塔@@
遭到
T
演员
这场
两岸
平等
一半
状
谢@@
梦想
职务
成就
药品
条款
5000
显著
职工
男
满@@
用地
工艺
冰@@
路@@
形
换@@
l@@
遭
婚姻
黄金
亮
球队
以外
韩@@
补@@
批评
保障性
对外
一方面
根
顺利
3.@@
管@@
房@@
雪@@
上调
病@@
发布会
婚礼
每次
算
照
郭@@
很难
财务
购物
存款
近@@
福@@
志@@
自我
民生
和谐
一是
英文
研究所
立
感情
36
玉@@
博物馆
1992
m@@
一辆
教@@
下列
分析师
周围
求
争议
队伍
一批
身@@
等等
作业
耶和华
土@@
总部
【
想到
灯
安理会
警告
d@@
爸爸
不久
解@@
信贷
一步
P
食
环节
效应
四个
杀
心里
投@@
湖
高达
航班
y@@
制@@
不了
缓解
运作
城@@
实力
出生
局面
背后
投票
一块
官
增速
卫星
农民工
油价
全市
温@@
取
犯
法规
人民政府
乘客
18@@
文明
许@@
联@@
阳光
保
环比
独特
希腊
郑@@
晓@@
降价
艾@@
四川
道@@
董事长
领土
元@@
法官
退@@
走@@
局长
分子
照顾
产
授权
高速
然
与此同时
唐@@
人道主义
高考
上周
新增
萨@@
2004
南部
关@@
33
民间
至于
史
销量
房产
答案
M
讲话
游
物品
司
温度
给出
在@@
思@@
杜@@
分布
思考
论
纸
组合
待
六
记得
差异
分享
武装
身边
一片
银@@
增@@
周年
年前
依照
驾驶
实在
义
创作
只@@
特性
导演
影片
将来
料
修@@
这家
著
日期
团购
毕业生
中华人民共和国
38
嫌疑人
租赁
前景
鲁@@
选@@
完美
养@@
梅@@
时刻
转让
一周
愿
同事
转型
47
一个月
准确
大众
杰
抗@@
动作
轻@@
秘密
足球
高端
关
接
额
49
每月
连接
这儿
职责
交
战@@
装备
职位
完整
宁
赴
75
障碍
所在
h@@
天津
基金会
d
联邦
男性
传
下滑
彻底
冠军
披露
负担
一段
看着
上帝
初@@
34
招生
指@@
脱@@
c@@
热情
无疑
泰@@
独@@
实@@
落
覆盖
流行
有望
苦@@
瑞@@
兰@@
管制
本人
包装
宗
全世界
编辑
朝
含量
报纸
未能
省@@
兄弟
意外
设
强化
调
句
游@@
短期
资助
声@@
唱
搞
居
p@@
旨在
编制
途径
托@@
a@@
图@@
冲击
日报
京报
一款
常
星期
压@@
建成
巴基斯坦
更@@
智能
以往
多家
作家
田@@
本地
欧元
整@@
打电话
西班牙
投诉
释放
特定
日起
共@@
二是
洪@@
被@@
感染
中国共产党
演出
食品安全
一句
哪些
总结
病毒
忙
加速
支助
生存
救援
支撑
还会
牛@@
查询
望
离婚
素
试@@
地说
子女
期限
运动员
百分点
想@@
定期
冲@@
刀
是从
假
要是
更新
回落
主管部门
定义
必@@
假@@
杯
发放
危害
排
会员国
元素
万吨
之下
究竟
异@@
送@@
顿
见@@
说@@
两次
较为
黄
创业
想象
尽
酸
er
补偿
姆
任@@
中学
换
晚
参考
时报
排放
顾问
同志
实
核@@
麦@@
黑色
55
图书馆
垃圾
表@@
卡扎菲
通信
争取
改@@
中间
担忧
总经理
专@@
高于
人民法院
固定
持
瓦@@
巴
预@@
白色
该国
到@@
名称
测量
吃@@
中新网
胜利
新型
库
朝鲜
典型
罚款
领@@
返回
太阳
雨
雅@@
征收
产量
亲@@
应急
星@@
养
一座
签订
成员国
市长
极大
差距
涨价
提
呈现
地铁
加以
骨
涉嫌
含有
江苏
活@@
莱@@
求@@
密切
定位
激烈
记
巴西
爆炸
品质
4.@@
叶
幅度
网民
空调
装@@
I@@
海南
创建
偏@@
租房
化学
向@@
迪
c
违规
经典
男孩
二十@@
关闭
视为
藏
品种
代理
t
暂时
话题
股价
债券
香@@
制订
金属
草
漂亮
田
宗教
味
阿
正如
流动
早上
很@@
从来
遭受
旧
er@@
酒@@
发达
造型
步
地面
诉讼
博士
随@@
届
落@@
走进
丽@@
代
获取
主体
最为
此事
齐@@
高铁
贝@@
美国@@
营养
37
梁@@
陷入
液
重要性
600
青少年
查@@
支
青
各自
合适
g@@
论文
煤炭
兴@@
专项
6.@@
救助
辆
校长
春
康@@
人体
开支
运
毛泽东
观念
排名
圈
800
事@@
解
压
公正
雷
东京
丽
松@@
土
均价
0@@
售价
宝
国家@@
西安
19@@
U@@
跌
列入
广场
河@@
钢
39
算法
一部
歌
板块
维修
视
合格
陈
伯@@
家具
搭配
决心
参观
n@@
盖
翻译
全年
一段时间
其次
睡
总量
东部
头发
现代化
动态
98
理
到来
市@@
挂
食@@
日至
士
有没有
当事人
无论是
福
新兴
商@@
技能
具
不愿
帕@@
美好
临床
航空公司
旗下
依靠
迪@@
胜
走向
短
士兵
细@@
认定
却是
切@@
腿
总额
熟悉
○
南非
塞@@
药@@
休息
由@@
选手
认可
大小
嘉@@
新建
步骤
蓝@@
新加坡
文物
爆发
商品房
国际@@
足
约翰
主管
施工
粉
河南
营销
46
深刻
木
$
拿到
读者
12@@
存
跳
2003
证书
陆@@
招聘
w@@
主持
气候
减轻
F
侵犯
庆祝
文学
搜索
密@@
梦
留@@
坏
夏@@
谢谢
否认
外交
理@@
这份
富@@
现状
聚@@
抓
7.@@
服
副@@
香
巴勒斯坦
巴黎
顺@@
能量
戏
万平方米
期望
极
广西
延长
秩序
消失
两名
提议
43
箱
礼物
快@@
翻@@
场所
好处
湖南
下调
塞
潮
地址
弄
索@@
对手
运@@
命
勇
纪念
校
放松
清洁
婴儿
出发
后面
5.@@
整合
65
创
考
周期
分为
考察
言@@
相反
围绕
早期
谷歌
吸收
税收
希@@
监控
双
半
配套
例子
短@@
必然
首
中小企业
蒙@@
膜
糖
威@@
审批
产@@
贴
手续
北
构建
丝
环@@
重组
肉@@
报名
知名
某@@
GDP
起到
竞争力
中介
别的
盈利
年内
馆
切实
现车
宝宝
造@@
丁@@
42
8.@@
治
58
服装
沙
专电
通道
队员
重申
麻烦
岗位
尽@@
煤
添加
51
轻松
u@@
计划署
多名
那儿
立场
最初
诊断
湾
候选人
版本
抱
曼
清理
信托
据介绍
施@@
信用
基因
此时
手中
坚决
智慧
树@@
本来
穿着
藏@@
左@@
小说
哦
所说
伙伴
啦
顶
日常
临@@
1.5
大多
停@@
减@@
参数
采@@
奇@@
合法
主权
亮相
学者
诺
人均
起诉
41
查
同一
北部
工作组
易
路上
投
电视台
改
极@@
那时
巨@@
由此
商店
即便
r@@
抑制
上网
乱
辐射
院长
自治区
破
娜
欧@@
有权
洗@@
暗@@
发射
询问
绿@@
13@@
注重
f@@
如下
大概
街道
富
便宜
跌幅
规律
横@@
一线
得以
发改委
第二@@
存@@
权益
速
中有
混合
随
繁荣
听说
旧@@
勒
拍卖
贫困
男@@
退出
层面
呀
症
88
通讯
成交量
微
若干
埃@@
朝@@
分类
an
周末
遗憾
44
喜@@
不但
华盛顿
过度
费@@
墙
素质
乐观
卢@@
印象
媒体报道
85
治@@
还@@
茶
创意
列@@
迎来
牛
享有
海军
致
随时
后果
异常
鉴于
凯@@
退休
指控
助理
宪法
阳@@
修订
稿
友
购房
依赖
托
零
许可证
样
夫妇
地上
辉
A股
宋@@
95
现@@
输入
色彩
核电站
有力
99
小孩
日晚
影响力
泰国
慢慢
诗
除@@
展览
痛
评级
机械
一道
X@@
周边
成分
拟
福利
命令
农产品
学术
鸟
之所以
卖@@
追@@
付
洛@@
松
吃饭
k@@
云南
al@@
钱@@
床
汤
总裁
记忆
委托
杨
审核
端
经销商
南方
引@@
一生
建造
堂
腐败
线路
剧
省委
圆@@
草@@
月@@
城乡
配@@
鱼@@
平时
推行
看上去
慈善
鞋
150
公安机关
物业
机器
破@@
防
20@@
议会
维
坐@@
保存
家电
再度
冷
因而
斗争
伦
买@@
怎么样
继
权@@
水果
账户
凌晨
不敢
急@@
每日
图像
枪
有趣
离@@
汇率
音
曾@@
党@@
中方
定价
东方
范@@
循环
雨@@
亏损
卷
若@@
重复
个别
饮食
复苏
职
原本
衣
供@@
脑@@
边@@
3D
优质
原料
14@@
村@@
航
季
谨慎
56
待遇
京
惊@@
早@@
阻止
球@@
断@@
称@@
毒品
潜在
开心
秋@@
意@@
停
交换
听@@
诺@@
本书
多么
宣言
伊
振@@
害怕
天然气
新浪
燃料
北约
这时
舞台
专员
加息
亿@@
回顾
盘@@
合约
京@@
焦点
o@@
生长
做@@
归
排除
色@@
列车
52
互动
9.@@
考@@
除非
举报
蔡@@
秀
山西
布局
心情
X
自行车
公斤
配
生意
老百姓
年来
春晚
与其
反而
玻璃
关切
发电
68
兹
基础设施
常见
走势
毛
年初
嘴
对待
怕
融合
样子
叙利亚
海上
促销
监狱
at@@
三大
调节
商家
接着
尽量
八
索
少数
厂商
格局
前提
像是
标
人民日报
从未
曲@@
致力于
电子@@
同期
得知
抓住
京华
装饰
敏感
全体
判决
秒
呈
文字
中文
收取
所得
知识产权
北京@@
营业
荣
矿
紧@@
对比
等@@
接下来
面试
货币政策
自从
探@@
说道
用途
难题
甘@@
不幸
CPI
金融危机
梅
演
博
赛@@
物@@
抵达
景@@
引进
导弹
考核
迹象
区别
or@@
下半年
不仅仅
指挥
安置
折
打破
陆续
in@@
许可
诸多
开通
两天
社
本周
立刻
乌@@
哥
本月
战斗
良
野@@
硬@@
志
主张
纠纷
奥
毕竟
不如
G
前面
上班
救
轿车
国会
猪
机遇
餐厅
透明
群@@
深化
二手房
金融机构
戴
倾向
领先
调研
警@@
劳@@
长时间
配备
额外
回归
走出
篇
夫人
合并
绝@@
忘记
外部
家中
不满
外界
铁
烟@@
威
断
波动
模拟
地下
幅
相当于
*
袋
通报
恐怕
审判
潘@@
盐
借
跳@@
本报记者
议员
或@@
保健
公安局
本法
记@@
实验室
一度
推
蓝色
宇
海关
单独
世
情感
可靠
登@@
曲
会员
2001
53
活跃
冯@@
城镇
花费
七
回收
鉴定
奖励
毒@@
太阳能
董事会
息
R
及@@
瓦
招
美军
敌人
门口
1.6
16@@
售
虫
过渡
两位
缴纳
某种
物流
景
百姓
久
价@@
总数
17@@
本市
汇@@
恶化
心中
花园
条@@
开工
肌肤
脚@@
主流
并@@
钢@@
流动性
修
en@@
回忆
经济社会
此后
共识
举措
种植
新能源
增幅
大力
反弹
把握
传递
延续
盛@@
归@@
专利
路线
果@@
空中
果
饮料
命运
带动
传媒
凡
什么样
地块
可爱
某个
个@@
付出
外面
转向
120
雅
乱@@
术
字@@
基本上
el@@
印
一大
志愿者
带有
早已
尚
症状
小型
河北
萨
两国
撞
分离
浮@@
小心
N
义@@
彼此
告知
情形
期@@
船@@
所有人
耐@@
画@@
引入
O
拿出
标@@
简称
加剧
医学
猪肉
计
敏
观
15@@
骨@@
核武器
促使
莉
懂
零@@
透过
租金
玛@@
几
稀土
挺
扩张
但@@
么
事物
杰@@
商务
俄
削减
麽
将@@
相似
赫@@
出于
数据库
丁
线@@
库存
管理局
语@@
故障
页
扩散
不知
潜力
人力资源
既然
有机
贵@@
贵州
涛
录取
纪录
猫
井
缺陷
占@@
储备
有个
什
富有
少数民族
更换
弱
担保
至@@
高峰
洗
农
发起
患
库@@
66
意愿
国内外
不必
社交
发达国家
设计师
软@@
注
干预
增
恩@@
粗@@
政@@
讲@@
电梯
尺寸
物价
弹@@
谈到
自愿
澳门
净
舒适
阴@@
史@@
活力
半年
54
岩
仔细
─
茶@@
华人
当选
理性
大脑
拍@@
其余
瓶
紧
识别
一面
好好
案例
联赛
延@@
本届
抽@@
观看
惠@@
右@@
验证
编@@
公寓
占据
演讲
第三@@
雪
附件
武
写@@
78
中东
远远
第五
有时候
域
舆论
h
缺少
务
校园
档
修复
捐款
为例
问@@
汉
夫妻
控
蒂
假如
哭
聪明
n
支@@
旁边
付款
含@@
准则
技巧
宫
家族
清晰
送到
此类
夜@@
招@@
粉丝
感兴趣
经济学家
出租车
国际法
实体
庆@@
之内
读@@
便利
交易所
一季度
浪费
办@@
私@@
国王
不利
第二天
一支
窗口
印@@
灾害
余
作战
疯狂
个性
环
欲
净利润
苏丹
市委
数额
争@@
兴
认证
结
客人
任命
刚@@
频道
报价
财政部
开车
ar@@
级别
政
牛奶
城区
斌
功@@
高速公路
高层
种种
静@@
依@@
名为
v@@
读书
57
原油
承受
开盘
取决于
火车
in
饭
良@@
躺
落后
接待
湖北
愉快
呆
供应商
降@@
坚定
守@@
酸@@
签约
温暖
彭@@
残疾人
1991
查处
提案
摘要
两家
倒@@
2002
留学
官@@
数目
难道
广
广州日报
竟然
纲领
环境保护
琳
微软
这部
鹏
愿望
汤@@
仪
创@@
打工
刑事
下载
兼
外观
核查
700
轨道
有利
贫穷
严@@
态势
广东省
主持人
过于
静
证券报
外地
底@@
宽
充足
请@@
目
互相
脸上
思维
霍@@
大大
交给
阐述
声称
安徽
救@@
第二次
彩@@
洞
麻@@
中华
露
购房者
食用
防治
一把
险
微笑
初
暂停
名义
算@@
人家
瑞
指示
电池
根@@
试
咖啡
之际
灾难
煤矿
扩展
认@@
护@@
抱怨
谈话
为期
百度
领
冬@@
魅力
考验
77
气氛
我能
每周
新闻@@
着@@
部@@
iPhone
添加剂
团@@
笔者
档案
礼
渴望
背@@
卫@@
步@@
自信
取代
强度
申报
比重
订单
电子商务
负
沈阳
轮胎
反对派
锻炼
戴@@
乳@@
种族
剩下
学科
超越
院校
令人@@
高效
后续
江西
研究生
展@@
支援
校@@
艰难
各大
用品
64
夏天
期货
示范
结果表明
神经
高中
整治
邓@@
回报
营
纸@@
欧元区
乡村
62
率先
中期
微博上
63
庞大
平米
境外
虽
互@@
川
血液
够
秀@@
特派
平民
前后
it@@
去@@
需@@
经济@@
提示
替代
筹备
集@@
现行
奶粉
&amp;
教练
烟
艾滋病
市区
职能
保安
2.0
1990
留
百
难度
末
太太
府
参@@
主人
08
歧视
流通
虚@@
赚
节日
an@@
航线
央视
沪
拓展
量@@
丝@@
喜爱
平稳
保险公司
邦
热点
晚报
影
进来
劳动力
程@@
依旧
裁军
冰
指责
评@@
弗@@
11.@@
展现
地图
激励
见面
照@@
举
第四
即可
九
感动
原理
上学
孔
中午
吹@@
丹
会谈
59
信用卡
应用程序
滑@@
道歉
差@@
产能
内蒙古
不安
保养
频繁
记住
组@@
荣@@
2.5
出行
经济体
月初
棒
影@@
on
资讯
跟踪
足@@
老年人
哪个
巩固
诚信
国民
进去
气候变化
千万
玉
州市
技术@@
董事
磨@@
准
姑娘
拿@@
放缓
市政府
整理
剑
图书
知@@
宁@@
早晨
友好
批
任何人
伯
到位
杆
假期
研制
继@@
刘
客观
制造业
击
积累
太平洋
多元
衣@@
致@@
那天
es
辩论
会上
紧缩
智@@
效益
抢@@
72
响应
忘
审理
类@@
紫@@
失业
人人
会见
客@@
烧@@
家属
偷@@
软
众@@
失望
讲述
气体
团结
后者
这名
网络@@
散
可怕
制裁
太空
研究院
一会儿
10.@@
尚@@
欣赏
答复
灰@@
这座
英雄
纯@@
开幕
极为
流程
1997
公益
被告
抗议
以此
代码
多人
轮@@
划@@
提名
出色
精神@@
货@@
洋@@
恶@@
4000
深度
补
有用
面向
屋
超级
聚集
痛@@
启@@
未经
睡眠
菜@@
商业银行
观@@
数学
租
十
广播
而已
代价
墨西哥
尽可能
胜@@
种类
赶到
V
67
买卖
哪儿
同步
如同
蔡
党员
网页
控股
籍
受害者
虚假
看出
按@@
感@@
共享
混@@
节@@
中央@@
祥
申请人
升@@
链
新车
索马里
简@@
12.@@
冲
别墅
一对
没想到
教育部
大使
中共
处置
人民网
带领
通用
其他人
程
昨晚
直升机
士@@
艺术家
豪华
留在
就此
然@@
练习
响
冬季
沃@@
替
天空
温州
一台
装修
盖@@
曹@@
平安
介入
海域
董@@
氏
善@@
心态
直
想起
28@@
行驶
怀@@
母
国产
行情
扎@@
前来
三是
捐赠
苦
博客
夜
轻
新鲜
盛
蛋
党委
Y@@
交易日
灵魂
被迫
顶@@
毒
限
辞职
万套
厨房
赢
勒@@
散@@
船舶
曼@@
极端
必
约束
领袖
消@@
了@@
这方面
为止
千
电器
宗@@
一级
背
待@@
牺牲
女生
芳
普
升值
总监
输出
抢
居@@
质@@
天然
第二个
交通@@
提取
承@@
思路
一体化
本国
电网
泰
爱心
会计
今年以来
即@@
神秘
停车
re@@
价格上涨
今晚
变动
on@@
胡锦涛
合成
罪行
不停
土耳其
组图
味道
最早
强劲
减排
76
呼吸
毫无
警
g
导@@
标签
转换
土壤
姓名
61
交往
往@@
派出所
恐怖主义
破产
游泳
一人
混乱
赛季
驱动
工程师
亲自
愤怒
获@@
丰@@
耶稣
万辆
陕西
恒@@
祖@@
零售
收藏
井@@
谈@@
69
贴@@
长沙
国有
扮演
30@@
显@@
乡@@
沈@@
开设
怀孕
奥运
业界
纤维
房源
护理
乔@@
庭
腾讯
性别
乘坐
就@@
受理
性格
封@@
赋予
表格
发动
前进
俄@@
退
容@@
使@@
恐惧
形@@
逻辑
尾
提起
账
锁
思
佳@@
优@@
送给
休闲
一路
一事
73
铜@@
吸@@
凭
00
碳
克服
耳@@
蒋@@
超出
商场
en
夏季
万科
青岛
在家
告@@
粉@@
肖@@
边界
胶@@
切
科技@@
母@@
脂肪
贾@@
狂@@
急
逮捕
弹
峰会
输@@
苏
政府部门
伤@@
缓慢
回去
缔约国
两会
阻碍
共计
炎
严厉
师@@
山区
五个
00@@
巨头
波斯尼亚
古
差不多
鸡
汤姆
健全
露@@
顺
桑@@
菲@@
伟@@
业内
齐
估值
Z@@
瑞士
席
事宜
平板
等级
禁@@
摆脱
秦@@
差别
拆迁
96
友谊
港@@
体内
甲
职@@
得出
纲要
短信
一本
电视剧
大楼
备@@
度过
王子
银
宪章
借@@
度@@
占领
韦@@
强制
步伐
镜
逾
助@@
首脑
扣
抓获
伴随
观察员
K
服@@
海地
增多
销
应付
奇怪
民主党
困境
洋
讯
玩具
举@@
属性
柱
和解
俩
行使
13.@@
丹@@
报警
男女
拖@@
处在
大厦
糟糕
灾区
1.8
当代
目录
道理
本质
申@@
债
饭店
常规
研究员
维生素
阿拉伯
房产税
补助
楼@@
文化@@
冰箱
鸡@@
谴责
寒@@
资
电信
商务部
供给
上去
联络
邮件
吉
县级
那位
ri@@
完@@
睡觉
冬天
种@@
最多
没什么
福建
建筑物
甲@@
板@@
成效
教堂
遏制
季节
无人
主办
走访
般
简直
执政
无奈
矿@@
不论
竞选
福岛
至关重要
佩@@
班@@
扶持
目@@
极其
变更
可谓
两大
生效
码
较@@
机票
大宗
一群
卢旺达
吸烟
态
音@@
旁
乡镇
惩罚
金钱
姜@@
湖@@
登
研讨会
前期
亲
找@@
一笔
暴@@
到处
泉
关联
约定
足以
终端
防范
泡沫
兴奋
针
一所
×
93
济南
广州市
镇@@
制造商
左
守
帮忙
希
张柏芝
上海@@
赶@@
编写
培育
争论
机器人
摄影
绿
选民
政权
分歧
摆@@
可见
葡萄酒
制约
歌曲
休@@
解决方案
夫@@
副局长
高管
孟@@
生日
2015
帐
法案
一篇
86
受益
祖国
灵活
终止
医@@
上来
敦促
制品
画面
干扰
书面
克斯
刚才
流量
跟着
救济
内心
方针
本报
对抗
写作
港口
黑暗
收获
气温
洁
伦@@
迷@@
主力
被告人
梁
秋
幸运
激动
全力
四年
奶
羊@@
判处
宏@@
持久
体重
损伤
邮票
一百@@
杀@@
不可@@
斯特
预警
荷兰
衡量
银行业
慢
餐
物理
就算
受欢迎
航@@
去世
反复
05
普及
省级
锋
浪漫
屏幕
怪
众
沉@@
谷
煤@@
一处
答
册
组成部分
养老
自行
设定
上海市
健
十大
蛋白
74
约@@
心灵
第十@@
不行
素@@
―
大国
新年
残@@
啤酒
时说
减肥
忽视
新西兰
数据@@
庄
不住
舞
街头
早就
110
推迟
蒙
代替
钟
继承
围@@
干净
盒
所述
密码
26@@
套@@
笔@@
92
丰田
杂@@
风电
真相
实质性
决赛
雇员
仲裁
玉米
舞@@
姓
应有
高温
附@@
商标
置
71
吸引力
查看
管道
搭
便@@
ST
越南
长江
14.@@
高度重视
上诉
对接
他会
怎么办
要么
社会保障
纯
检
不让
服务器
喷@@
羊
购
帮@@
转化
奢侈品
祝福
父
目光
边缘
另@@
亲爱
多边
精彩
各位
课题
迎@@
83
精力
种子
社会@@
鼓@@
人工
竟
减
姐姐
故意
结算
勇气
刺@@
梦@@
基本@@
汉语
虎
手里
责令
癌症
欢@@
薄
发明
携带
菲律宾
上年
议题
钟@@
乘
乃至
H
古巴
毫米
洛
省政府
观望
解除
亩
均衡
公示
坛
厚
倡议
念
诗@@
物资
82
单一
扫@@
变革
09
志愿
工作者
袁@@
设法
功
车身
奥迪
鸡蛋
造
89
改革开放
太多
古代
ol@@
垄断
姚明
区@@
科研
产权
备案
寻@@
再也
妹妹
企业家
涉@@
招标
汁
止@@
不变
呼@@
凭借
主导
尴尬
频率
抵押
时许
壁
也就是说
品@@
iPad
z@@
车展
彩
长大
mm
仁@@
胸@@
球迷
滥用
哪@@
个人@@
兵@@
生成
心脏
水泥
孔@@
封
消耗
吊@@
我省
am@@
财@@
灵
氛围
6000
吕@@
季度
营造
庆
骂
泽@@
对不起
淡@@
穆@@
细菌
外国人
隐@@
核准
事发
交警
有期徒刑
信息化
等于
积@@
il@@
买家
康
形态
琴
身份证
97
阿根廷
视@@
万股
仅@@
第三方
哥哥
购车
健@@
签证
1500
北方
蓝
国债
速@@
只会
困扰
一颗
注入
服务业
提及
稳定性
清单
扬
此举
撤销
79
火灾
87
宽@@
使命
哈
测@@
01
选拔
脑
听见
从中
乔布斯
确立
线索
寄@@
岗
功率
聚会
隔@@
策划
罗马
严峻
SUV
止
东北
镜头
首批
创业板
无线
接收
权威
顾@@
事业单位
益@@
有益
失踪
台北
去年同期
一方
一间
延伸
右
公积金
派出
一代
测定
增长率
肌肉
等到
舍
英里
辅助
并购
地带
着手
诞生
歌@@
折@@
视觉
撒@@
评
沟
年间
厂家
一同
买房
届时
表决
组建
忠
业@@
融入
券商
局部
惊人
室内
另有
校车
诸如
门槛
召回
树立
匹配
两者
上演
何时
舒@@
象征
莫斯科
炸弹
桌子
捐助
妮
势
宝马
菌
股@@
全球化
利息
相结合
回复
厚@@
15.@@
名叫
燃烧
公安
渐渐
论@@
房企
℃
首个
ing
签
角@@
外出
高位
赞成
据说
笑@@
白宫
外资
出国
企图
苏联
删除
企
借鉴
中部
汽油
季@@
到期
移@@
灵@@
距
餐馆
st@@
人民@@
销售额
仓
家园
敢
遵循
四大
向前
玲
调解
部位
老公
一时
气象
赚钱
爬
知
份额
美女
艺术品
陪
片@@
敬@@
玩@@
辛亥革命
新一轮
开采
94
晚会
工会
答应
大气
看待
编
时机
1998
大卫
开启
度假
钢铁
资@@
层次
颇
信仰
凯
唱@@
景区
有意
郑州
格式
穿过
大门
生气
触@@
平静
硬
害
月饼
据@@
81
丧失
统筹
大赛
派遣
佛@@
进出口
昌@@
街@@
黄色
春天
多项
邮政
次@@
岭
山东省
战胜
陶@@
新高
牙
体育@@
隆
诈骗
鼻@@
便是
地理
税率
正面
控制@@
惊讶
宜@@
双边
车站
机组
备受
古老
只好
薪酬
来讲
蛋白质
欲@@
着力
汇
学历
宽松
经营者
万人次
常用
冒@@
浏览
一组
认同
逃@@
专题
模糊
实质
轴
et@@
谈论
君
俊@@
论述
计@@
邻居
充@@
拟订
当作
07
情报
仿佛
奔驰
缩小
骗
辛@@
新生
幼@@
锦@@
行李
k
雄
几次
相继
紧密
ic@@
海啸
购@@
更改
函数
翻
飘@@
看好
美联储
达芬奇
本土
电价
总局
场景
中旬
朗
大城市
形状
预订
金融@@
复制
车主
遗@@
诺基亚
走上
震荡
玛
出版社
84
解读
案@@
进而
严肃
谱
昆明
三种
准备金率
随意
激情
挑选
扣@@
行政部门
原材料
忠@@
有序
黎巴嫩
与@@
位@@
一号
击@@
缘
盐@@
沿着
总会
栋
糖@@
甜@@
你@@
壳
虎@@
依
仅为
存储
熊@@
石头
瘦肉精
低迷
这句
大厅
订
将军
百年
900
池
弟弟
迹
柳@@
舒服
铺
材
个体
引擎
生物@@
故
骑
上下
挂@@
收盘
劲
初期
洲
布什
靠近
历史@@
久@@
酶
处@@
航天
搭载
泽
东盟
现任
单元
南斯拉夫
节省
检@@
只不过
座位
三天
统治
股指
办公
06
穿@@
碎
望@@
创下
CEO
浙江省
羊城晚报
谢
最小
温家宝
面包
抗
统计数据
动荡
之日起
玩家
礼@@
16.@@
潮流
大盘
地板
硬件
射@@
桥@@
1999
民主@@
撤离
听取
教训
拘留
爆@@
快递
嘉宾
事先
外汇
要素
换届
懂得
一声
人为
闻
自杀
主意
随即
医药
无数
燕
St@@
军方
算是
排队
堡
合资
院士
放心
一层
产业链
所属
赤@@
大批
抓@@
厘米
予
灯@@
疑问
外交部
百万
政治@@
半个
重量
将近
喜
解放
可行
储存
逐@@
宣称
哲学
北大
世界@@
人大代表
斗
大师
猜测
昌
Facebook
佳
可怜
02
职员
最快
摇@@
管理@@
宝贵
票@@
法定
指南
分区
勤
设想
钻石
怪@@
流入
女友
91
仁
雇主
燃油
is@@
莎
&lt;
中国青年报
精确
备
市值
成品油
铜
尸体
赞赏
绝大多数
作风
当晚
ch@@
限价
致电
闭@@
住@@
容
划分
新股
牌照
法律法规
射
修正
发送
该项
蔓延
迎接
商报
当初
截止
鬼
借助
号码
假设
限度
派@@
炒作
04
优点
1.4
震@@
文化产业
有害
审@@
服务@@
旅馆
堆
光伏
邮@@
返@@
情节
桶
累
政党
纪律
错@@
火箭
竞争对手
提问
公车
干燥
欣
维权
夹@@
一体
一次性
增进
智能手机
局@@
淘宝
词@@
这条
价值观
淘汰
遇
尾@@
市场经济
晚@@
跑@@
优雅
东风
人选
Q@@
艘
孙
干旱
妈
远离
终@@
18.@@
荣誉
之上
柴油
从不
豪@@
闹
进攻
科学@@
军人
可用
薄@@
租@@
j@@
咱们
喊
一根
省份
脱
决@@
摆
时光
一番
订@@
宇宙
测
场@@
节约
播放
抱歉
刀@@
回国
学家
协作
奋斗
康复
250
版权
ad@@
水利
三次
叫做
清洗
无需
贺@@
通讯员
03
帽
磋商
汪@@
不妨
疫苗
津贴
套房
用电
安全@@
批@@
热门
追究
焦@@
少量
登陆
出租
童@@
驻@@
三线
公安部
自觉
插@@
倾@@
尿@@
款项
过后
增大
收益率
令@@
消防
难以@@
亮点
枚
通货膨胀
实用
专用
运营商
双手
饼
索赔
京沪
工业@@
直至
水库
约会
家乡
表情
涂@@
小麦
寒
恐怖
结果显示
付@@
卫生部
领取
老婆
万名
胶
优
罕见
吴
脆弱
撒
这张
跌@@
罐
安全性
17.@@
杰克
暴雨
刻
保险@@
一类
厦门
污水
固@@
马来西亚
IPO
控@@
坦言
恶劣
这笔
间@@
刑法
al
级@@
人会
分散
桂@@
类别
似的
二级
1.2
青春
眼前
议案
某人
三十@@
监察
猛@@
奖金
生产总值
毅
善
沿海
翼
天下
长远
f
行政@@
款@@
瑞典
国民党
水资源
限@@
移
美国政府
IT
脱离
柜
第四@@
聊天
无限
谋@@
文书
样品
窗
对策
大街
查明
金牌
下发
商业@@
低价
医
赞同
戈@@
正好
弹性
户籍
智
高档
附属
u
练
样本
香港@@
这款
奇迹
魏@@
霞
偿还
身材
施行
人力
欣@@
密度
版@@
言论
观察团
十一五
暴露
凤@@
文本
注意力
儿@@
损坏
帅
图案
填@@
管辖
联网
短缺
刺
曲线
二人
进度
弥补
丰
25@@
监督管理
动员
婚@@
珠
劳动者
炉
敌
演@@
粮
8000
内涵
电视@@
法治
磊
雄@@
窗户
耐心
晒
挂牌
手指
岩@@
喝@@
河南省
模@@
致使
个股
浅@@
学费
暖@@
从此
塑料
子公司
纳税
当下
源@@
省市
扎
餐饮
欧美
中国队
告
发票
消化
向上
姚@@
艺
空军
长度
NBA
号线
将要
副总裁
率@@
莱
洪水
菲
授予
临近
仿真
渐@@
展出
话@@
帽子
戏@@
原有
评选
护士
老鼠
签@@
澄清
尖@@
透@@
工作@@
电子邮件
每人
拼@@
命名
略@@
课@@
发育
跨@@
三公
乘@@
层@@
白天
隐藏
癌
今@@
立法会
社@@
正规
蛇
势头
韩
重庆市
舱
拯救
型@@
温
播出
棉@@
表态
万亿元
冒
词汇
整改
新一代
战士
中小学
W
茅台
os@@
书籍
劳工
孙中山
学员
枪@@
牙@@
留学生
精品
大胆
负@@
大连
蛋糕
般的
先前
大队
折扣
床上
颁布
航母
小幅
门店
投放
劳动@@
济@@
教室
路径
歌手
语文
周刊
年报
丢
争端
分公司
证@@
稳
机动车
名人
成人
不良
审
宗旨
避@@
战机
没收
少年
南方日报
伊斯兰
24@@
误@@
对应
场地
违法行为
性感
营@@
头上
多位
汇报
标识
一阵
圆
挖掘
燕@@
单纯
题目
指引
十足
超标
传出
征@@
何
调动
商城
财经
责
世界各地
卫视
19.@@
全民
旅游业
联想
不起
无关
迫使
票房
形容
中断
茨
精
议定书
扩@@
欺诈
千元
书店
斤
导
坚强
很小
改为
婚
分开
侵权
居然
检察院
23@@
本科
胆@@
li@@
文化遗产
热烈
拖
一期
内在
搭@@
国际化
生育
带到
风暴
高等教育
油田
略
肿瘤
间接
竞赛
点评
世界杯
长城
钥匙
欧
签名
运转
边境
预定
模特
私营
器官
废物
实习
节奏
准@@
针@@
海岸
系@@
仪器
余额
逃
收回
饰
上课
商人
大幅度
从前
过多
交谈
胃@@
磁@@
男友
年纪
纠正
万亩
大声
鲜@@
激发
认知
直辖市
好事
忽略
观测
叫@@
坑
讨厌
m
柔@@
浓度
市场份额
&gt;
姐
阶层
受损
既有
课堂
涵盖
滑
熟
培@@
载@@
学位
之类
腰
公共服务
暂@@
正当
合法权益
阿尔@@
烟草
栏
3.5
铺@@
模
反馈
国美
当今
旅行社
例外
le
密
修建
玛丽
缺@@
轻易
资深
信息@@
美的
粘@@
珍
珠宝
境
奖@@
日内瓦
不太
丹麦
外来
解决问题
一向
森@@
纪@@
一行
夜间
微博@@
眼镜
访
动漫
民航
0.5
穿越
鹰
和政
弄@@
实时
春运
农场
舞蹈
开会
效力
IMF
青睐
扔
效
电动
擦@@
设有
仍@@
民进党
赞扬
任职
勇敢
绝不
个案
感激
头脑
珍贵
借贷
搜狐
经济学
侧
策
点击
录
上限
拜@@
印刷
圣
疼痛
分裂
甘肃
信念
垂@@
感冒
宣@@
东莞
制止
人事
水电
约合
净@@
午餐
不见
多元化
体会
一日
正义
熊
2020
细
耶@@
恋
清除
拨
诸@@
引领
好友
卫生@@
ur@@
睡@@
_
不算
蒂@@
光明
工业化
碰到
关税
天使
挑@@
此案
收于
停车场
巨额
威廉
经纪人
英译汉
事后
显
漏洞
人大
执行官
润@@
隆@@
家伙
崛起
4S店
毫无疑问
回升
图为
遗址
赵本山
攀升
猪@@
场合
金融市场
失
抗旱
最具
列出
景观
链接
宿舍
滚@@
∶
储@@
莫
导航
恶
毁
示@@
湿
对付
夏
变形
译文
清华大学
祝贺
旋转
教育@@
血管
传闻
官兵
as@@
警惕
剪@@
体制改革
抢劫
显现
顶级
昂贵
闲@@
侦查
露出
合作伙伴
辽宁
运送
欢乐
乙@@
混凝土
高价
屈@@
2.4
鞋@@
热量
早餐
桥梁
核电
热爱
野
孕妇
冒险
后期
公交
旗
文献
系数
圣诞节
充分发挥
项@@
走过
附
近来
乌克兰
当场
判
出资
剥夺
一架
寿命
同行
社保
中原
耶
暗示
索尼
灰色
烧
原始
动机
奶@@
ia
力争
传输
裁判
见证
火星
竞@@
颁发
操作系统
刻@@
驾车
财务@@
共和党
车市
核实
纹
竹@@
漫@@
焦虑
大事
榜
号@@
好莱坞
合计
尽力
育@@
移植
联合会
卫
民意
涉案
宏
白酒
锅
民族@@
区县
中华民族
一贯
带给
赛事
办学
密集
虚拟
附加
疗效
隐患
争夺
货车
疡
跨越
肠
巧克力
数值
列为
任期
乐趣
细则
拆除
亮@@
一遍
用水
海底
迄今
入境
围
势力
三亚
隧道
多久
贯彻
千年
入学
扬@@
来临
疲劳
自然灾害
公交车
国土
监管部门
险@@
引用
找出
U
p
雾
公务
故宫
教学@@
村庄
问责
制成
国家级
也门
拔@@
酒吧
详情
俊
大道
预约
报考
目的地
浪
降温
腔
糖尿病
谭@@
瘤
以内
证件
爱尔兰
少女
广阔
每股
物体
大于
芬
园@@
车上
大片
觉
河北省
鲁
短暂
眼下
三分之一
房贷
克罗地亚
360
页面
不清
持@@
马英九
双重
辉煌
洛杉矶
1.3
奉@@
鲍@@
勇@@
支配
地质
摩托车
说出
公主
加州
一头
勤@@
恋爱
鸣
Ch@@
周二
真诚
国防
安静
突@@
万个
管理人员
稍@@
七年
柏@@
铝
杀死
额度
LED
瞬间
传感器
耕地
拒
国民经济
尊敬
死刑
截@@
历程
家居
沉重
浩@@
珠@@
泛@@
罪犯
检察官
气质
纳税人
村里
多样化
墓
相处
复兴
首相
尤@@
复合
深圳市
视察
停留
参考报
州@@
灾
活着
晋@@
矿业
南海
交付
募集
椅子
潮@@
缩短
实例
知情
规格
地雷
制备
视野
ro@@
百分之@@
船只
意志
粒
废@@
剩余
缅甸
江苏省
葡萄牙
架构
豪
肝@@
所在地
稳@@
译
建筑面积
队长
火车站
割@@
宏观
摇号
20.@@
际
ir@@
司@@
刑事责任
精英
开幕式
码头
自由@@
防御
砸
水分
置@@
证券日报
征
置业
27@@
湿@@
铁矿石
com
激@@
低调
三星
那边
侧@@
皆
救灾
玫瑰
义务教育
妨碍
才@@
岸
分手
妆
罚
衫
占有
宁夏
引
确@@
人气
ou@@
积极性
写道
事务所
尊严
增值
采集
x@@
挥@@
晶@@
许
多万
新人
新娘
抵@@
挪威
登上
地沟油
导向
腰@@
凌@@
海盗
必将
卖出
眼中
周一
le@@
180
随之
英寸
市场化
人文
搬
嗯
拨款
报告员
海水
擦
化工
征求意见
缺点
默@@
悲@@
仙@@
铅
员额
国庆
递交
封闭
选出
英镑
强迫
el
贯彻落实
缺
交通事故
震惊
清华
宫@@
欺骗
起草
区间
团伙
免@@
自称
印尼
势@@
衰退
煮
登录
奠定
长期以来
疑@@
祝
端@@
鼓舞
透
靠@@
路边
圈@@
的@@
合肥
狼
海口
安哥拉
永久
物种
放到
不小
功效
激光
艺@@
苗
北京晨报
压缩
规
研@@
奶奶
新房
泡@@
艺术@@
洁@@
炮
保密
悲剧
在外
句子
潜@@
企@@
第三次
不时
Android
哈尔滨
部件
缴
都@@
J
销@@
卓@@
爆
搞@@
豆@@
翔
化妆品
以期
众人
两周
孤@@
想想
富豪
据统计
出手
目前为止
李娜
双汇
过分
全身
输
看过
耳
冻@@
免疫
区内
高出
请问
接口
童
采
这块
胡
师傅
诉
次数
酒精
一轮
甚@@
吻
缺口
而成
风景
乔治
系统@@
谷@@
餐@@
2013
闪@@
监@@
皇家
题材
三季度
芯片
吹
随机
卷@@
噢
苑
相互@@
灭
猎@@
沙漠
鼠
错过
一个@@
猜
慢@@
牙齿
泡
雷达
富裕
桌
票价
传承
偶尔
尊@@
电影@@
比亚迪
媒介
一股
布朗
国家统计局
此项
负面
保守
酷
买入
历@@
填写
泥@@
甚
辛苦
暨
全国政协
安慰
座谈会
摩@@
徒
作物
西南
谢霆锋
非正式
ed@@
伏@@
艳
以免
流域
脸@@
薪
热议
受贿
首发
拟@@
统@@
130
嘛
过年
寺
恨
任意
务@@
模仿
宾馆
都市
央企
适@@
柯@@
幽默
播@@
大地
束
资讯科技
凉
首要
战场
一手
续@@
耳朵
六个
波兰
远程
服用
剑@@
意图
水面
往年
教会
英尺
养殖
出让
举动
上级
经纪
un@@
妹
逼
槽
稀@@
不当
组件
侯@@
牵@@
鸿@@
使用者
未成年人
挡
墙上
源于
天天
很长
抚@@
函
廖@@
电动车
专访
倡导
售@@
花钱
区分
预报
园区
随便
QQ
队@@
科学技术
锡@@
凸显
一流
跨
烦恼
影像
范畴
中小
贤
中等
29@@
骄傲
累@@
污染物
旺
环境@@
臂
自治
军官
长春
液体
柬埔寨
温和
低收入
热线
宾
刷
强势
驾
飞行员
艺人
无效
天价
闹@@
往来
沿@@
裤
龄
洪
寒冷
设@@
起飞
按摩
川@@
ab@@
坚@@
宾@@
日常生活
胎
参赛
商业地产
赖@@
普京
画家
诚@@
刊登
大桥
不合理
贝
券
分发
女王
缺失
冠@@
透明度
总共
收紧
艳@@
马克
史密斯
姿态
赶紧
杰出
比如说
自然@@
必需
外形
命@@
资质
原子能
工商
唯
不止
突尼斯
益
贫@@
犬
二次
容量
尔斯
律
几种
追踪
使用权
娃
美食
证监会
中说
欠
大臣
构造
遍
支持者
负债
盯
坡
交通运输
下属
朗@@
独自
全程
弃
冬
网球
加热
车票
历
途中
训
碰@@
摧毁
干涉
河流
章@@
说服
涨@@
通告
舰
得不到
肯
肯@@
真理
硕士
ig@@
故@@
钙
福特
不去
消灭
采取措施
爱好
座@@
退役
起点
荷@@
标准化
这点
辞
凉@@
劝
投机
名额
荒@@
旅@@
壮@@
豆
实习生
手动
出版物
行程
厕所
内阁
一幅
疑
该校
通知书
祖
呈现出
理财
不已
几十@@
牛肉
汗
干什么
助
我方
半岛
剧@@
仿@@
球场
网购
时间表
枝@@
北美
卢
一律
击败
造假
四川省
根源
幕
两地
支队
价格@@
频频
残疾
出门
教材
锁@@
养生
诱惑
芝加哥
魔@@
绘画
生态环境
保罗
铁道部
世界银行
奉献
民营
入住
艰苦
心脏病
乔
通行
新兴产业
朱
定制
生于
高尔夫
化解
上游
桃@@
勘探
垫
变为
深深
放大
简化
量化
处分
拒@@
比尔
反思
传说
无力
气息
锁定
修正案
税@@
店@@
3G
借口
献@@
针对性
探测
新政
社会各界
牌@@
萎缩
创始人
闻@@
象@@
孝@@
湖南省
场面
情景
加重
播
多样性
败@@
所长
国家队
裁定
160
味@@
扶贫
盗@@
7000
崩溃
裁决
从小
倾斜
阳市
容忍
内饰
掀起
转发
看作
赵
人大常委会
诚实
过高
不确定性
评审
庄@@
西北
失业率
杰夫
特大
战略性
彼得
南昌
携手
同情
沃尔玛
岩石
刑@@
党组织
钻@@
美容
市场@@
琪
冷静
终身
护
苗@@
化名
140
代表性
邵@@
出具
迈@@
愿@@
我家
体检
陵
示威
200@@
扫描
一共
一杯
预售
宋
受灾
源头
卓越
娟
头部
看似
段时间
生猪
女星
洗衣机
十二@@
加盟
亲切
锐@@
不明
手法
後
宣传@@
岳@@
底部
题@@
帖子
健身
惊喜
标记
等候
高科技
把@@
传奇
投标
复
宇@@
前所未有
会同
洞@@
鼻子
不出
证人
储蓄
失误
窗@@
嘉
年末
不准
拜
湿地
佛
被捕
绝
革命@@
屏
脉
神经@@
马丁
兼@@
伪造
国有企业
城管
受访者
几十年
斗@@
手册
肥胖
阻@@
连锁
行走
萍
拉动
操@@
院@@
电路
迁@@
缩@@
捐@@
自豪
参照
遭@@
不该
艇
遗产
死者
菌@@
几位
刊
军事@@
狂
持平
黎@@
拨打
支票
24.@@
黑人
符号
荒
岛屿
税务
凡@@
持股
好转
界定
分数
临
腾
搭建
群岛
扬子晚报
窝
之旅
Y
老年
地域
电视机
分成
凝@@
电源
研
英格兰
寿@@
小小的
喝酒
生活@@
有限责任
主演
不高
颗
宁波
穷人
50@@
末@@
汽车@@
利亚
援引
红军
扶@@
节点
伸@@
之声
吓
墨@@
噪音
莲
仓库
骗@@
吞@@
施
悦
人口@@
夜晚
值@@
上次
跨国
含义
醉
崔@@
时段
跳舞
获利
忧虑
纪委
外长
飞船
户口
树木
郊区
完毕
录像
病情
赠送
偶然
街上
违背
相机
反恐
致命
忍受
葛@@
键
圣诞
着重
湘@@
沿
降幅
适宜
检疫
催@@
卖场
帖
沉默
座椅
席位
县@@
巡逻
宜
西亚
同一个
拆@@
草原
渔@@
这会
颖
集团公司
释@@
署长
斑
主场
裂
冲动
丑闻
卡车
id@@
跃@@
霜
短期内
怒@@
周三
澳
豪宅
一眼
崇@@
办案
产物
零部件
盲目
占用
价格指数
恰当
各种各样
杀害
生产力
家乐福
电台
增添
副总经理
帐户
集成
竣工
肺
眼泪
天堂
公认
鲜明
罪@@
抢救
拨@@
具体@@
规@@
户型
炒
停产
恒
集合
飙升
裙
灰
星期五
违约
车子
流离失所
挺@@
鑫
会晤
亲属
上映
谈谈
唯@@
传言
英语@@
免
供电
好多
电影节
绕
中毒
专业@@
展望
盖茨
胸
尘
全国人大常委会
火爆
th@@
某某
四周
延误
精心
衬衫
不可避免
一身
炒@@
君@@
om@@
新城
务实
亭
ac@@
赫
影视
丝毫
布置
碗
计算机@@
男生
撤@@
泄漏
司法@@
马克思主义
坏@@
日元
融
身为
电机
恐慌
线条
参与者
分局
讲座
善于
彬
蜂@@
Mar@@
城市化
流传
瘦
饭@@
入侵
哥@@
碰撞
外表
擅自
驾驶员
维也纳
汽@@
专注
用作
吐@@
屋顶
坐下
处境
博览会
演唱会
开出
共同@@
不肯
薪金
迷
什@@
诉求
脂
仆人
耀@@
生动
坝
碳@@
这起
攻@@
莉@@
水中
出任
顺序
华尔街
一倍
排查
回避
漫长
塔利班
建设性
谋
是@@
皇帝
摸
暖
协@@
旅
灾后
未必
初中
共同努力
星期一
迈克尔
妻
月球
办事
跟随
轨
福州
当成
友@@
注射
有钱
除此之外
敏@@
企业@@
简历
午@@
产品@@
权限
晶
前途
入市
减弱
委会
何种
油气
海南省
操纵
阴影
李某
迫切
患有
挖@@
下行
全都
有毒
瓜
有效性
报表
悦@@
350
讨@@
宝贝
验@@
渔业
第一步
提倡
诗人
文档
所致
留言
孤独
生病
均匀
长达
移交
开拓
征税
踢
耶路撒冷
混
贸易@@
醒
病例
录音
原先
绑架
弗
印度尼西亚
廉租房
单身
指令
唐
谨
第三个
型号
贷
苹果公司
偷
Q
服务中心
最长
挖
共产党
罩
异
ut@@
清醒
建设项目
神奇
技@@
调价
埋
顾
帝
23.@@
渣
照明
唱歌
麦
法语
老家
陈述
整
浅
如果说
管理层
总书记
大使馆
600@@
可惜
穆斯林
浓@@
强奸
兰州
该车
喂
悲伤
穷@@
现代@@
大战
秋季
鬼@@
开辟
AT
漏@@
事态
检讨
内外
全方位
我来
更高
年均
挤
口头
精致
检察机关
购置
et
现身
石家庄
每当
判@@
控制系统
万千瓦
比率
查阅
幻想
姐妹
料@@
拍照
水位
既@@
厉害
游行
小女孩
月亮
乐队
枝
单词
中医
戈
砖
思想@@
碧@@
协
五大
仔
论证
选项
哈利
处以
捧
陕西省
抛@@
奥地利
晚间
主角
防护
1200
上个月
第五十@@
载体
近几年
电脑@@
智力
述
包裹
负荷
抱@@
卧室
暗
从来不
路段
下次
酷@@
不及
熟@@
l
堆@@
肝
眼里
送往
下游
活性
短短
子弹
赶
im@@
就让
经营@@
员@@
一下子
报酬
堵
无论如何
繁@@
分解
十一届
口袋
旭
日后
石油@@
计划生育
吉林
后悔
第一位
眼光
欲望
放置
急性
签字
钻
立案
ot@@
ag@@
宏观调控
预案
挤@@
驾@@
纵@@
杀人
贪@@
被动
报导
帝国
侵害
篮球
康菲
尖
1989
得分
恶意
清新
全文
代理人
姆@@
发给
昆@@
订购
贝尔
奔
半小时
空白
新款
息@@
育
菅直
党委书记
米兰
礼貌
笑容
平常
堂@@
啥
轻微
容器
剧院
称赞
诚
传达
几家
政务
玻璃@@
门前
澳洲
礼服
新区
告别
廉价
日产
削弱
火山
and@@
损
十三
执@@
扭@@
水质
升高
利好
殿
遗传
纯粹
夹
材质
更具
时常
记载
提请
漫画
步入
南宁
Sh@@
航行
1.1
式@@
配件
用人单位
肥
劳
记者会
店内
撞@@
否定
AR@@
皇@@
绕@@
修理
臣
溪
小岛
安居工程
常委
辖区
放射性
1980
经贸
决
山西省
奖项
黑塞哥维那
生涯
裁@@
湖北省
两只
咬
常驻
辞@@
隔
泪@@
积极参与
爱好者
创办
困
工地
灵感
应力
中石化
纪
徐
筹措
例句
插
惯例
难得
中西部
严
法人
信息系统
ar
泵
传来
所有权
赏@@
卡尔
下车
屋@@
揭示
阵
探
十几@@
筒
胃
供水
史上
一副
征集
直播
破裂
北京晚报
行星
塑造
青海
在场
饲料
战术
60@@
爆料
按钮
捕@@
实地
挂钩
偶像
浪@@
开门
动物园
氧
位居
柏林
休
亲密
浸@@
放下
路面
财
信息技术
一双
晨
周五
组织部
大S
22.@@
宏观经济
紧紧
验收
危@@
其后
灭绝
延
产品质量
改正
适度
巧
流失
事儿
定向
25.@@
振动
es@@
站@@
己
聚
频
可靠性
列表
低碳
PC
一再
春季
产出
车祸
指望
伤亡
瓜@@
晚餐
薪水
砂@@
再说
文中
谋求
散步
加深
溢油
交代
看不到
一月
语音
俗
农业部
保护@@
床@@
自动化
值得注意
泥
曝
电流
树林
戏剧
怒
银监会
机理
情人节
市中心
收缩
囊
离职
肥@@
会长
润
三级
额@@
黑龙江
尼亚
华侨
存放
死亡率
国际贸易
鞋子
麻
r
珍惜
军事行动
说起
尺
演绎
沙发
不像
白领
稍
开创
弯@@
模块
邻国
客厅
引来
派对
盆
大选
亲人
虽@@
暑假
作文
多达
首位
幼儿
客流
哪怕
渡@@
再生
饰演
狗@@
裸@@
恒大
二氧化碳
浦@@
悬@@
递@@
凯特
东南
养老保险
华丽
嫩
数十@@
云南省
时速
搬迁
26.@@
爬@@
部委
空袭
身高
or
受害人
发帖
北京大学
对面
缸
苏州
刑
阴
爷爷
台风
踏@@
起步
问道
中国人民银行
寄
亲戚
不适
善良
国际货币基金组织
听证会
追
盛大
手上
以至于
这套
径
开发区
打折
行人
缝
打出
字母
民事
悬挂
普通@@
该市
夺得
方程
陌生
高压
同胞
贾
抵抗
掌@@
冠
格外
食堂
质检
框
下周
帕
楚@@
习@@
职权
关怀
大致
oo@@
耗@@
刘翔
邱@@
辅导
六年
女孩子
编号
扣除
比利时
降雨
依托
建党
名词
一口
佛山
服饰
确切
灯光
幕@@
肯尼亚
留给
发表声明
景象
消费@@
宣告
国人
太大
前夕
产业化
整顿
几分钟
明亮
多万元
us@@
伴侣
阶
溶@@
选用
进化
甜
大人
遮@@
慢性
范
口号
激素
址
门票
属@@
哀@@
福建省
英国人
塘
热闹
泉@@
石化
结构调整
迁
4.5
一看
进军
多方面
岁月
开办
浆
发售
客车
变速箱
电压
精度
孔子
哭@@
热带
荡
温柔
商品住宅
大面积
功夫
斜@@
陶瓷
房租
研究者
外套
•
罗斯
小镇
十一
机械@@
数码
整整
泄露
内幕
护照
获奖
掌
卧@@
不予
关爱
开关
币
印发
拉丁美洲
中央政府
两款
茂@@
共同体
愚蠢
溪@@
四十@@
默
学期
店铺
烂
加油站
织@@
点钟
维尔
合金
拖延
广告@@
太原
不便
概率
迟到
涌
雅虎
桩
总之
em@@
不久前
公报
误解
兆@@
牧@@
清晨
前者
肚子
分红
终结
摩
周四
私募
生产商
伴
棉
缩水
斑@@
可行性
分割
均@@
没法
雇用
有名
已达
船上
腹@@
八年
稳健
兑换
周六
1988
不然
手臂
做成
停火
帆
谣言
始@@
丢失
裁员
不宜
块钱
早些时候
口味
每吨
享
is
称之为
腾@@
周恩来
黄河
赞
给@@
法律@@
答@@
重返
测算
刮@@
遥远
早日
撤出
葡萄
盘点
付费
诗歌
大雨
之地
四处
赌@@
万户
动用
染
夺@@
设在
走高
忍@@
忙碌
要说
齿
走私
确信
焦
好奇
长假
身亡
的黎波里
吉林省
划
马力
人心
咸@@
眼球
不上
痕迹
日本@@
起床
摊@@
促成
强有力
肩@@
开玩笑
救治
再生能源
肩
伍@@
年期
手工
演变
尽早
款式
光线
宴
坤
浏览器
每平方米
界面
兴起
成年人
妙@@
商务@@
迷人
儿女
消极
报复
礼品
按时
军区
管理者
沮丧
中级
宠物
第一季度
所用
肿
抛弃
三月
督察
简要
安徽省
浩
卡恩
燃@@
鼎@@
CO@@
急剧
沟@@
剧本
傅@@
杜
叙述
忧@@
建国
逃避
铭
城里
分行
祝@@
实验@@
本田
有何
骑@@
全球性
咬@@
鹿
师生
一辈子
原告
降至
做些
牧师
肾@@
回购
订正
车厢
碎@@
抓好
化石
分化
昨天下午
抵制
带走
注定
高潮
散发
规章
扭矩
ul@@
治安
阵@@
第一天
凡是
薇
免税
驶@@
不利于
弘扬
用以
投产
对冲
医疗卫生
不禁
一艘
委@@
似
最少
水域
袭
小男孩
绝望
亿吨
7.5
颜@@
股本
步行
部落
碎片
棚
两条
犯@@
具@@
神圣
警示
挑
不易
学前教育
医疗机构
船长
看望
液@@
被困
是非
眉@@
兹@@
晴
滩
罗伯特
常态
手表
过快
脖子
致辞
增至
庙
慧
误差
还给
小朋友
户@@
永恒
侵略
你好
演习
押
Google
诊
充分利用
好看
拉登
这类
弃@@
坎@@
盗窃
英国@@
创立
疗法
克林顿
轻轻
芳@@
冻结
首届
监视
晨@@
陪同
服务员
苏格兰
肌@@
拟定
尼日利亚
优良
国资委
颗粒
漏
因子
走路
人民检察院
庭审
甜蜜
垂直
国企
此种
伸出
高原
土豆
锐
扭转
海峡
ie
拥@@
音乐@@
上线
载有
市委书记
奖学金
败
住院
指挥部
虐待
骨折
看电视
东北部
拥抱
频@@
优惠政策
一带
鹿@@
调度
保利
各界
跟@@
想着
缩
农药
父@@
打扮
有待
罪名
假冒
延迟
忠诚
阀
祈祷
考古
六月
凶@@
期刊
日渐
娶
放入
减持
中国日报
多岁
涂
客机
of
增发
编码
范冰冰
筹资
搬@@
大豆
舍@@
按揭
联手
京城
升至
镜@@
动摇
鼓
授@@
出境
武汉市
毫不
粤@@
钓鱼
零件
磨
先行
宿@@
不顾
传染病
快速增长
狼@@
映@@
上报
邓小平
坦@@
雇佣
x
淡
今
承办
价钱
科威特
齐全
丧@@
演唱
一枚
尹@@
议
2.3
商品价格
不佳
狮子
隔离
价位
软件@@
战斗机
限额
被判
东南亚
钢琴
逆@@
变量
交会
营运
最有
架@@
指挥官
中新社
智利
高新技术
明确规定
鲜花
发现自己
四是
射击
犹如
中药
选购
票据
使人
裂@@
商会
江西省
绿城
结构性
养老金
急需
聚焦
工程@@
行列
剂量
济
绩效
倾听
小学生
w
赌博
偏
预
金属@@
大海
概算
中外
旋@@
不堪
身穿
所作
埃
积分
晖
核能
认
据称
联合@@
丙@@
武力
上方
专
稍微
躲
减灾
地处
娘
而来
郡
腹
技术人员
门外
万余元
意向
数百@@
气味
典@@
排行榜
下雨
面部
除外
大奖
胖
摊
伤心
ed
当事
南北
兑
配方
金色
瓶颈
栏目
比较@@
放宽
便捷
破解
趋@@
缴费
每桶
难过
科目
怀
脚步
口岸
限于
实物
噪声
借款
一门
逢
营养@@
首选
墨
林业
乳
城市@@
公关
困惑
降水
估算
电厂
深受
28.@@
对称
绿化
解析
瘦@@
党中央
动脉
国籍
较强
昏@@
2500
渡
择@@
40@@
通往
硫@@
加油
认购
动画
必要性
朝着
王菲
国防部
灌@@
管理工作
旗@@
四月
吃惊
祭
标准@@
就读
son
视角
中华@@
DNA
言语
现年
启用
负面影响
忍
处理器
蒸@@
特权
疏@@
卖家
穷
多方
女朋友
源自
承包
发掘
燃
摸@@
历史性
碰
利比里亚
粗
↘
个人所得税
时装
吸毒
日本政府
人次
获胜
膏
加班
废
娱乐圈
磅
两市
生理
一则
剩
推销
温馨
平方公里
习俗
纽@@
慧@@
醇
阿里
胎儿
乎
同等
学到
詹姆斯
三国
公共@@
陌生人
粒子
底线
九龙
局局长
哥伦比亚
负有
禁毒
格鲁吉亚
芬兰
暴跌
民用
情侣
新闻出版
积极@@
有意思
配偶
医师
运气
演奏
定于
赤字
党内
原谅
五月
要点
膨胀
木材
督促
车队
逆转
拥挤
众所周知
敬
乐意
一顿
萧@@
使馆
农户
红十字会
互利
情人
星期六
做事
凸@@
十分@@
通州
上扬
锅@@
王先生
筹集
自家
迁移
钉
备忘录
这部分
途
两项
镜子
高调
侨@@
提价
综述
基准
工商局
书法
住户
推翻
按规定
动词
摘@@
柜台
宝石
顿@@
踩
长久
塑@@
有过
国家有关
社会保险
爱人
用工
协同
器@@
高水平
大西洋
笑话
关节
劲@@
实惠
野生
流感
构@@
便于
责任感
忽然
欠@@
兔
5.5
必不可少
吸
低温
Al@@
理财产品
一一
伪@@
驰
希拉里
箱@@
亦@@
童年
力学
喜悦
两倍
喀@@
市场需求
人格
上行
下旬
赞助
银行卡
近年
对联
搜寻
小伙子
行政长官
书写
赶上
氧化
工程建设
充分@@
本港
化合物
天才
党组
伤者
开发@@
法制
油脂
颇为
粥
凤
特有
戒@@
电力公司
高质量
中超
生产线
本着
楼梯
即时
博弈
旺季
察@@
其间
财政@@
开业
集会
海滩
开口
大力发展
添@@
三家
奢侈
离子
锌
佣金
贵阳
椅
溜@@
杜绝
逃离
家住
客运
日记
供应量
住宿
拐点
首日
从根本上
全是
销售@@
之处
序列
加之
弱@@
身后
夸张
聘请
音乐会
大米
累积
嫁给
搜@@
案文
傍晚
死去
结局
毁灭
亏
嫁@@
关键词
段@@
堪称
建筑@@
极度
申诉
微生物
肠@@
秋天
争
北京日报
三名
1.7
无可@@
三维
食品@@
苏宁
隐私
遇难
人事@@
第一批
绳
围观
话语
江南
车间
一汽
综合性
东亚
上门
优美
加沙
大自然
升温
陷阱
猫@@
气象@@
包围
外汇储备
中美
欧洲央行
医学@@
高尔夫球场
总价
来源于
达标
雨水
橡胶
公共汽车
图表
仰@@
大都
余名
不应
五十
鱼类
马自达
妥协
坚
开罗
下达
在建
稳步
很强
逃跑
教育局
男士
遇见
降到
ec@@
查获
迄今为止
模范
注@@
脏
主义者
消费品
仍旧
过剩
娅
三十
宣传部
这才
好人
衡@@
文艺@@
城镇居民
学业
扎实
化学品
网点
追捧
细致
增值税
面孔
战役
艾
整车
丘@@
出身
呼声
兴建
整天
开学
走廊
饥饿
出示
华西都市报
后代
人来
参展
高涨
展会
南航
好象
偶@@
神话
执行@@
电视节目
妇
疾@@
运动@@
二手
宁愿
入选
@
高盛
那条
店里
三位
贵州省
阿里巴巴
亚太
购票
伤口
监
样@@
壮
竹
缝@@
参议院
沃
可达
白银
续
全国@@
面板
名校
黎
遗体
道德@@
贬值
热潮
不符
像@@
限期
货运
作案
折磨
己@@
松动
振兴
亡
世人
奢华
Ma@@
伯爵
这事
贿赂
滞后
十五
候@@
帝@@
美术
自律
独家
多重
旱情
访谈
炼@@
残酷
积
增长速度
灭@@
塞尔维亚
碱
所得税
Windows
攻
首付
2.2
中关村
家庭@@
序
一点点
电话@@
AM@@
太阳@@
让@@
求职
援
强国
心理@@
南京市
迈出
运动会
十二
比分
陵@@
苦难
邹@@
庭@@
成千上万
打印
没能
叔叔
漆
醋
兑现
化学@@
大运会
赔
特意
贪污
输送
布隆迪
天地
马路
侧面
海事
采取行动
行长
点燃
加勒比
蛋@@
与会
撰写
惹
媒
乌鲁木齐
看不见
肾
岛@@
毕@@
摩擦
摄入
黛@@
烤@@
底下
ry
肉类
ap@@
会计师
似@@
欢
起初
述@@
基准利率
戒指
养成
逊
人性
吓@@
人工@@
串@@
婚纱
拉开
辩护
冷战
效@@
不成
脑袋
测试@@
温室
延安
念@@
消防@@
京东
无意
原子
著作
冻
医保
三人
总计
文艺
一瓶
不动
纪念@@
求助
赖
屋里
术语
聘
流向
无线电
席@@
全场
听众
摄影师
炉@@
勾@@
联保
传销
市盈率
无辜
此基础
奋@@
ent@@
汶川
开来
四分之一
淮@@
操作@@
制服
载人
入口
空间站
桌@@
同类
港元
打死
巧@@
瓶@@
平均水平
管理员
觉@@
恰恰
每一
封锁
棉花
会计@@
无比
佐@@
屋子
晓
计量
邻@@
一个个
姿
建立健全
埋@@
短时间
渗透
立体
训练@@
上空
婆婆
ay@@
鸣@@
售票
第四次
解放@@
现已
箱子
出血
一幕
深处
禁令
颜
典礼
从业人员
影子
砂
现时
公办
往返
罢工
撕@@
雕塑
疼
祥@@
欧债
销毁
几率
主教练
接连
奔@@
简
导师
惊奇
阵容
离不开
小品
郎
身着
县城
深远
变换
发展趋势
总署
联动
会面
领导小组
平面
承
屿
培训班
葬
莎@@
促
0.2
跑车
在职
选定
披@@
忘@@
李先生
次级
交叉
那次
阁下
兽
全家
祭@@
廷
捷
传统@@
战略@@
比起
延期
谅解
王某
冷却
发酵
信誉
赞@@
商定
草地
能源@@
娃娃
发型
蕾
征求
全系
惹@@
泪
敲@@
天生
80@@
拼
个性化
没错
它会
这辆
瞩目
天宫
财政收入
减免
武警
35@@
融@@
法令
娇@@
万亿美元
诚意
榜样
调用
职业@@
菜单
下挫
进球
站点
人才培养
稻@@
op@@
29.@@
争吵
富人
贤@@
拿下
仲@@
毫无@@
野生动物
讲究
紧迫
敌@@
空前
辣
蒋介石
执法人员
招商
奈@@
国家机关
严禁
物价上涨
郭
塞族
①
还款
下乡
炼
点儿
脏@@
la@@
回事
满意度
交货
不大
经济效益
不怕
风波
莹
谈及
铝@@
行事
亨利
回合
黑龙江省
郁@@
弥@@
0.1
1985
做过
我市
净化
宣判
旁@@
熊猫
艰巨
嫁
面貌
全国性
摆在
自我@@
对照
例行
几周
概括
担当
瞧
抽烟
人民代表大会
风情
没事
小企业
辅@@
转身
淘@@
DVD
盆地
一夜
增持
全线
医疗保险
水准
王国
周岁
政治家
再见
经济损失
不难
国家标准
全区
调查结果
称号
填补
该行
避开
坪
长安
飞往
五一
当地政府
一首
证券公司
筛选
产地
习
指向
唱片
司长
辽宁省
身影
---
us
廊
原则上
评委
减缓
桌上
组织@@
拘@@
决不
感恩
铃
畅
排列
拉丹
携
抵
肇事
成年
不同于
简洁
周日
绍@@
万多
标价
最美
Th@@
明智
皇
置换
组长
零售商
小孩子
几名
旭@@
尊
覆@@
俞@@
征地
充电
再现
胆
龙头
1986
问及
自制
中国移动
灵活性
现阶段
侵@@
多大
彰显
代谢
已于
三条
炸@@
ov@@
外交部长
27.@@
海报
世上
收拾
解答
Re@@
大方
一家人
吐
途@@
行政处罚
渝
感慨
验
足协
山市
支付宝
访@@
香蕉
观光
希尔
170
弟
船员
滴@@
七月
爷
八个
薛@@
国情
兼职
住所
强行
衔接
擅长
快捷
熔@@
弯
匆匆
纺织
托管
两侧
6.5
伞
安全隐患
阵营
馆@@
0.3
时髦
闲置
描绘
多月
空气质量
农业@@
商品@@
这片
中将
饮
ra@@
环球网
CA@@
公式
人间
落地
陷
伊丽莎白
美洲
极限
拜访
珠海
星期二
政府军
管理制度
先是
不足以
薄弱
政协
发展@@
彩色
楠
不乏
发展观
兼顾
规避
帐篷
迟@@
地价
声誉
航空@@
州长
吉利
扑@@
年限
酱
羡慕
适时
坚信
地段
防守
台上
保姆
取出
逸@@
斯特@@
一封
丸
拉萨
刘某
纠结
多云
副本
第五@@
进城
影院
表述
图形
契机
生物学
水源
历时
网游
收受
欧洲@@
世锦赛
也好
讨论会
性价比
省长
梅德韦
ay
促@@
众议院
一刻
微型
疫情
参议员
抬@@
原文
生源
摄氏度
凌
分摊
毒素
ev@@
浓
商量
东航
等国
逐年
万台
窝@@
终
降落
二季度
用语
慰问
甘肃省
不容
九年
陪伴
尘@@
扭曲
感叹
瓦斯
贵方
视线
电话号码
教徒
co@@
分工
体积
柄
烦@@
尤为
尔德
出炉
一般性
拳
数年
沃尔沃
译@@
御@@
下班
前任
烤
纷@@
陆地
带上
掩盖
一审
滴
把手
昭@@
生产@@
黄金@@
身体健康
报案
中心@@
壁@@
不必要
后勤
雕
又@@
奉
财物
万亿
馒头
乐园
传送
写下
干细胞
ip@@
号召
监禁
网易
巴士
警车
村官
信件
一会
消毒
九月
快讯
六个月
拉斯
之道
生态系统
车道
经济区
前天
添
七个
硅@@
墙@@
华裔
以致
刚性
尽管如此
温泉
有效期
大火
电站
业务@@
棍
巴菲特
克里@@
法则
饮用
贵族
充当
专门机构
申
能耗
孤儿
路透社
华北
拖欠
酯
试行
水量
停下来
开局
小时候
剧组
字样
非凡
充实
氯@@
第三季度
太高
助手
文学@@
精美
官方网站
美方
押@@
储量
美味
契约
惨@@
动力学
焊接
莲@@
火电
公顷
领导班子
看重
伏
出路
跨境
爱国
误
推测
肌
qu@@
山上
工商@@
宅
创造性
老化
服从
商户
凝聚
平凡
说明书
至此
发射@@
危及
凤凰
识
十月
这边
宴会
澳@@
坦克
供需
聊@@
敢@@
注视
原创
og@@
心理学
枪支
两岸关系
ing@@
聊
高血压
跳水
砖@@
留守
楼宇
天上
光明日报
天赋
突发
永
电讯
审美
流出
小偷
实业
金融服务
臭
隐瞒
中止
香港特别行政区
出自
客服
1987
县委
疯
非线性
联通
翅膀
基督教
药业
同年
出演
趣
跨国公司
小于
sh@@
预先
舟
批次
食用油
ak@@
跟进
肩膀
倒闭
议@@
总队
星期天
据此
德尔
出局
睡着
猛
相连
长得
简介
辈
基督
脂@@
虚
汗@@
赛场
略有
詹@@
三峡
裙子
染@@
失衡
解救
被害人
弱势
供应链
瑟
上传
老虎
攀@@
转为
干脆
向下
易于
筹@@
荣耀
全局
陪@@
伦理
地向
先锋
植入
棒@@
威尔
杯@@
制药
更能
大跌
麦克
头痛
剧烈
率领
抓紧
风光
大局
外交@@
畅通
趋于
国防部长
导游
荣幸
第六
旺盛
一千@@
细化
宽容
高级@@
忙@@
第七@@
2.8
无聊
蓄@@
琴@@
角落
电缆
发性
此间
暴利
黑客
挽救
一般来说
债权人
坚守
卫生局
盒子
唇
诠释
as
常识
贫
接纳
召集
去除
年级
与否
热心
以人为本
禁
握
留意
竟@@
旗帜
开庭
掉@@
闸
投资人
ine
体质
厂@@
环球
一到
缓和
器材
户外
语法
冷空气
扇
自有
批发
试试
雾@@
合作社
日趋
进一步提高
查找
出场
盆@@
二手车
疏散
辉@@
高清
嫌
盼
烈
院子
黎明
去过
信赖
患@@
分泌
实名制
震
警官
呃
单价
轰炸
挣扎
联邦政府
搜救
舰@@
过滤
前不久
差价
苍@@
琼@@
圣经
光荣
还原
缔结
鲜
内战
裤子
早报
缺席
优秀@@
惠
羽
墓地
断裂
毫不@@
21.@@
矿产资源
法制日报
www
星球
谎言
这批
光辉
灌溉
广州@@
慷慨
招收
第二届
秘书处
篮@@
宽带
坦
搜集
加紧
蟹
出差
津
极具
轴距
果汁
下一代
骨头
姿势
殴打
预示
相差
虹
胳膊
好消息
找个
发病
浴@@
心思
析
锦湖
挨@@
严格执行
种族歧视
反射
之初
琼
报刊
崭新
仪@@
长江@@
av@@
抽
病房
灿烂
欺@@
涡轮
查出
第六@@
敢于
宇航员
狭窄
巡@@
二者
目睹
ic
醒来
协调员
高额
昆
律@@
符
水下
陆军
担@@
休假
给力
繁殖
假日
核算
各家
主办方
第四季度
珍@@
普通人
乘车
狄@@
日均
外科
22@@
盗版
0.4
8.5
行贿
现货
坡@@
孙子
封面
柔软
冰岛
鸟@@
入手
考场
中长期
扯
恐@@
庞@@
专辑
合伙人
练@@
拥堵
相亲
v
会场
大风
轰@@
意味
解雇
媛
各省
评定
偏见
蜂蜜
伯格
贩卖
茂
诉@@
援@@
茅@@
聘用
多余
瘫痪
这本
腐蚀
烂@@
丧生
辽@@
全额
报销
落户
不远
重心
掌声
城镇化
凭证
墓@@
数月
行车
责任人
秋冬
笔试
从没
插入
保证金
试着
星期四
个人资料
映
兆
雷曼
抹
尿
斯顿
景点
诊所
选票
望远镜
渠
氏@@
拆
启示
国土资源部
匠
上任
揭开
摩托罗拉
马车
预言
氮
玄@@
婚后
香烟
抗生素
悲观
火焰
氢
小事
旅程
几何
柴@@
处理@@
演练
合力
敲
饮用水
直径
典
半数
配额
样式
误导
黄金周
沙特
南极
彼@@
之情
巨人
树脂
繁忙
路口
骚乱
绝大部分
产值
墙壁
例@@
捐献
ell@@
管理系统
停牌
漂@@
衣物
机型
外商投资
废弃
第六十@@
昂@@
种族主义
午饭
徒@@
巧妙
玩耍
1984
厚度
市政
上周五
相比之下
资源@@
ey
置于
新版
师范大学
普遍认为
动手
夜里
刷@@
队友
兔子
副会长
亚太地区
下台
水稻
密封
研究成果
弯曲
流浪
农村@@
几百@@
深夜
每位
IC@@
整体@@
遂
之路
起义
梯@@
星星
崇拜
这话
债@@
张某
犹太人
多地
无人机
为准
外语
振
公共卫生
区域性
二年
1949
增压
AC
服装@@
od@@
劝@@
写字楼
尺度
某种程度
锋@@
离去
上车
磷@@
年会
问候
醉酒
朝阳
前列
一大批
念头
亚马逊
完工
牢@@
热水器
阔@@
永不
奥林匹克
看病
郎@@
矿山
达成协议
秦
三项
出动
39@@
宪@@
土著人
组委会
震撼
震动
废除
倘若
抹@@
闻名
强制性
表彰
高昂
急于
挣
过期
赌
入围
参选
直线
国防@@
and
谋杀
邢@@
前方
卖掉
外贸
发了
100@@
统一@@
戒
容纳
着急
反应堆
Sp@@
酝酿
天文台
贯穿
阿姨
星期三
域名
祸
十个
不在乎
名牌
异议
抚养
揭秘
资金@@
忠实
自动@@
盈
前一天
阿尔及利亚
腹部
大学@@
光学
氧@@
牢
迎
炮@@
一分钟
美妙
三成
安保
移徙
打着
码@@
旋
构成犯罪
捷@@
it
烹饪
前日
主观
强硬
示威者
爵士
这使
销售量
卡拉
奏
写信
职场
AS@@
MT
封信
崇高
海尔
追问
宁静
产业@@
二代
次日
儿童@@
萨科齐
本赛季
常年
收支
造就
视力
重新@@
税费
开发者
规划署
鼻
An@@
哲
ation
发布公告
概@@
港币
幽@@
致力
拔
民营企业
郝@@
朝阳区
期盼
违法犯罪
商铺
爸
查尔斯
夺冠
状@@
第二轮
ion
集体@@
瞄准
讽刺
浓厚
示
另据
阻力
彩票
裔
过得
键盘
农历
中共中央
2.6
笔记本
减小
uc@@
链@@
匈牙利
中海油
阻
茶叶
圆形
风力
招募
预料
昆虫
2014
筑@@
约旦
辩
质量@@
最高@@
处长
1978
毛病
陆
荡@@
韵
办公厅
iv@@
交易@@
识@@
吩咐
坚实
预见
多媒体
三分之二
小鸟
钱包
奇瑞
地中海
饮酒
效能
上将
暑期
砍@@
须@@
桑
眼神
证券时报
鲁迅
就是说
房地产业
36@@
有所@@
钱江晚报
精华
保管
脾气
本级
纠@@
活泼
抓捕
历经
密切相关
钢铁@@
质素
AT@@
滥@@
秘鲁
驱@@
万公里
最受
建部
依法追究
捡
仗
萝卜
辰
更要
悄悄
赠
9000
迟迟
月末
订立
偿
缩减
况
中秋
僵局
中日
殷@@
四季度
努@@
火炬
医学院
军备
旧金山
发生变化
标致
壶
农作物
舌
um@@
情愿
挫折
始
人员伤亡
美术馆
商贸
低估
迈克
傻@@
华夏
税款
翠@@
加价
面子
借此
定量
理学
侠
追逐
引人注目
蜜@@
阳县
斯坦@@
术后
开枪
最低工资
航运
抬
池@@
〕
昔日
掩@@
贷@@
咨询@@
里程
概述
强力
3.2
一丝
邓
囚犯
罚@@
不服
合影
极了
万一
国别
电气
广播网
客户端
喜剧
为首
原定
团长
裂缝
理智
37@@
广汽
保护区
摄@@
土地@@
毒性
解散
芝
深厚
体操
勉强
掌控
拓宽
间谍
账号
科学研究
非法@@
技
泛滥
刹车
拳@@
妮@@
逸
海洋@@
防汛
苯@@
色素
骏
一点儿
大笑
门诊
注明
介@@
起征点
真空
时会
并处
拐@@
表示@@
氢@@
痒
炎@@
搭档
螺@@
兔年
承载
右手
反抗
运河
用车
让步
到场
内存
场上
商学院
公共场所
委内瑞拉
不下
收费站
抵御
躲@@
家用
致富
通车
听力
生殖
扰乱
2.7
寻常
哨
国旗
或者说
耕@@
芦@@
郊
滞留
1800
国家海洋局
全国人大
昂
山东@@
党派
讲解
赞美
异地
可观
难点
34@@
香水
妙
弦
豁免
摔@@
一出
魂
慌@@
投资@@
嘴唇
市场竞争
滨
轴@@
各有
胸部
警报
界限
急救
程序@@
间隔
〔
Ⅱ
科特迪瓦
卖淫
迫@@
定居
期内
杠杆
时代@@
默多克
北京市@@
卖方
自发
日摄
锦标赛
杭州市
工作室
核定
专案组
坊
中山
建材
显而易见
退还
沉
第九@@
目击者
拦@@
买方
投行
信访
列举
纲
难忘
财力
谈起
代言
彩电
乌干达
痕
轨道交通
中院
缓@@
总公司
可疑
窃听
资本主义
不可思议
难免
扶
谘询
工程处
争执
年薪
第一条
违纪
富含
男朋友
肺@@
山寨
初级
慕@@
恐怖分子
患上
统计局
国民@@
傻
金砖
晋级
今天上午
界@@
一九@@
轮廓
利润率
扑
车位
鸭
手套
租用
管理中心
滑坡
国航
屑
深圳@@
愈@@
期满
主帅
都市报
氧化@@
大牌
色情
婴幼儿
潜规则
尔顿
矿物
清算
反正
央票
牵头
下令
惠民
抬头
火锅
标注
农田
用药
1982
卸@@
力求
廉洁
黏@@
来回
归还
滚
邀
摄像头
免除
电磁@@
填
护航
固然
牢固
梳理
定为
俗@@
鉴@@
悄然
职业生涯
设计@@
一经
良心
天后
曼谷
摩西
懒@@
以防
一员
捉@@
过量
人能
烈@@
白俄罗斯
依次
电动汽车
征服
领导者
奥斯卡
一口气
好几个
滋@@
嘿
民政
鸿
偏低
迈
植@@
特区
抛
余人
高点
105
衍生
滤@@
所知
深信
说来
卡塔尔
吉姆
青年@@
市级
雷斯
公益性
困@@
词语
决定性
分流
魔
动感
申购
0.8
投向
3.3
幕后
规范化
寡@@
养护
腺
法例
血压
西瓜
干活
工作日
卵
直言
胎@@
探测器
跑步
片中
餐桌
拼命
操
大涨
火车票
棋@@
疑似
指着
生产者
糖果
群众@@
中国银行
IS@@
境界
总收入
新任
潘
安娜
占地
五粮液
纳米
中欧
第二章
得益于
无锡
银行家
面上
油耗
固定资产
防空
爽
阵地
敌对
加固
辣@@
卷入
激活
粮农组织
控制器
回头
嫌疑
丘
培
城堡
地下水
对外开放
复杂性
品尝
珠三角
对外贸易
ch
大部
大雾
引渡
布什总统
怡
估价
这台
用心
贼
口语
锡
学术@@
厨@@
ad
公信力
重庆晚报
带头
牌子
摇
轨迹
数字化
变速器
重伤
杂
地步
雯
饮水
污@@
紫色
专业化
两点
邪恶
不吃
大为
ow@@
挤压
净值
总有
手续费
旅游@@
世博会
并用
世园
35.@@
华为
本署
芯
无所@@
猛烈
录用
.@@
红酒
大熊猫
判定
耗
索取
集中@@
夸@@
亲友
楚
值班
配送
虚拟@@
饶@@
肚@@
评为
银行@@
岁@@
呼
存量
杀手
好评
浪潮
专卖店
格林
过时
网络游戏
细分
检索
操控
简短
劫
环境污染
港澳
售出
铸@@
好吃
愈
条文
糟
疲软
光标
↓
阿拉@@
过大
女童
38@@
水管
称呼
准入
搜索引擎
套餐
公爵
外围
族@@
览
叹
经济危机
沾@@
邦@@
天内
陈水扁
过敏
唇@@
救人
潜艇
网址
海拔
泄@@
创造力
迟
不锈钢
雅典
属实
中秋节
垃圾@@
演说
哭泣
著作权
经由
放开
天津@@
心目
古典
走低
大衣
高晓松
PS
听证
元旦
进出
内向
特价
南京@@
股东大会
通风
禽流感
登记@@
赔@@
畅@@
多处
运输@@
残忍
首尔
纱
东南部
身心
当地人
多样
店主
倍@@
硬币
仙
知名度
第二十@@
专业人士
承包商
拱@@
杰克逊
桃
这段
搅@@
产妇
几点
不良@@
厨师
家务
严密
地毯
所能
棕色
雕@@
游览
涌入
单个
同伴
沿线
王室
四川@@
公务用车
行为@@
采矿
慈@@
穆
国务卿
双胞胎
箭
轩
保加利亚
副省长
良好@@
喊@@
照料
郑
时装周
饱和
前行
违规行为
准时
时任
司法机关
催化剂
扫
替@@
银行贷款
传真
除去
最高人民法院
高层次
被誉为
逼近
批发市场
与众不同
字典
呆@@
0.6
愁
日志
保卫
Ar@@
波音
窑
勃@@
刷新
察
排斥
簿
互信
书画
防卫
网吧
符合@@
重启
ard
民办
大中城市
与会者
失效
依赖于
楼房
嘴里
退货
拟议
来访
绵@@
贩运
ob@@
没人
责任@@
此刻
舰队
狮@@
工信部
适用房
廉租
发作
妇@@
在意
务工人员
阅
酒后
阁
有机@@
棚户区
化妆
政策措施
却@@
成像
登场
参保
位列
踏上
西装
1600
眠
姑@@
妥善
雀@@
挣钱
失控
捞
被盗
分担
六大
破获
烦
法律责任
绒
下方
魔术
速率
理工大学
法制@@
纺织品
施加
干事
卵@@
相识
101
革新
钩
岳
所涉
腐@@
海湾
潭
东方@@
忍不住
标的
受过
辛
植
我爱你
苹果@@
联合王国
值得一提的是
案子
莫桑比克
废水
低保
峰值
航天飞机
渗@@
合伙
大有
二期
尸
存货
伙伴关系
滨@@
用力
3500
脚下
关门
枢纽
买下
通讯社
毛主席
四条
接入
助学
峰@@
枯@@
绞@@
3.6
刚好
寂寞
渔民
中标
高等学校
全面@@
水晶
电影院
薄膜
县政府
泰勒
双双
成品
布拉@@
保湿
减税
花朵
肝脏
村子
腕表
梯
编列
同性恋
破发
一举
概念车
平原
波特
刊物
返
守则
堵塞
调查组
绿地
臭@@
殖民地
因涉嫌
亿股
34.@@
受害
笔记本电脑
2.1
疯@@
第三章
羽@@
调查报告
高低
排出
场馆
热水
名片
捐
拥
汀
乌
阐明
始于
询
该片
狮
适量
阶段性
可不
骨干
颇@@
卑@@
二线
发誓
饿
跃
介质
演示
涵
采纳
该案
醉@@
Le@@
海里
逾期
徘徊
歌唱
当做
客场
地为
微小
二战
网店
模样
扰
面粉
残
第二季度
窄
美德
罗马尼亚
人质
一栋
洗澡
礼仪
全过程
国务院@@
双语
第@@
进驻
壮大
依法@@
台阶
脉冲
中央电视台
并于
可不是
骗子
PS@@
紫
剧中
胺
豆浆
无人@@
检方
砍
审讯
草根
倒塌
寨
肤色
五十@@
不可或缺
一堆
CT
丰厚
大兴
比前
晋
220
时至
烈士
1979
太过
ers
驻地
膝盖
廉政
突发事件
销售收入
阻挡
线性
━
原油价格
裁
来得
倩
早前
扁@@
这支
过境
微博中
示范@@
储
毫升
面对面
名下
遇难者
首度
去年底
集资
金价
闯@@
蜡烛
学子
装有
工商部门
涉
营收
件@@
逝世
审视
定性
粽子
基点
束缚
已成
魔法
mp@@
这时候
冈
凭@@
够@@
初始
复古
新品
顶部
内部@@
专题@@
受审
放进
烫
无法@@
短语
解放军
犹@@
岗@@
成都市
东北@@
舱@@
限量
身子
本能
发光
体育馆
反腐
开头
不通
正值
维和
琼斯
淑@@
悉尼
交通工具
嘴@@
品位
民调
禁区
广泛应用
55@@
排量
祝愿
讲习
盘子
排水
近代
压制
劳务
危
启发
西北部
堤
新生儿
公司@@
绘制
废墟
骗取
卡片
世界卫生组织
账单
夏日
趟
来信
改良
昨天上午
熏@@
Z
反击
绳子
马德里
平息
贸
沙滩
深切
疗
尼克
口碑
开销
换句话说
坑@@
营地
远处
非政府
余万元
动性
调试
摆放
历来
签发
共产党员
二十年
奴
飓风
序@@
茜
塞浦路斯
响@@
返还
斯坦
渔船
雨雪
恰@@
秘@@
贺
万达
打扰
政绩
神舟
大鼠
创新能力
假装
瓣
高企
二十
耕
燃气
大纲
48@@
献
CD
亡@@
克拉
取向
害@@
陈某
祖父
无知
GPS
面料
恋@@
矮
霸
婆
反腐败
长寿
竞技
渴
剪
咳嗽
双向
美联社
摩洛哥
45@@
潮湿
需求量
不定
240
章程
揭@@
冰冻
用人
所示
远洋
婚前
医改
反腐倡廉
纹@@
十二月
选取
胶囊
地质@@
产业结构
情节严重
汉族
躲避
握手
俯@@
ha@@
犹豫
恶心
串
转动
公安@@
安全监管
丑
尾巴
不断扩大
一九九@@
450
起码
屡@@
弱点
两国关系
衰老
虾
元件
参考@@
洁净
未知
冈@@
运费
不动产
中称
蓉
一词
时要
厌恶
犯罪@@
束@@
八月
刻意
旦
层层
精神病
曼联
切断
理论@@
探访
落下
挪@@
重点@@
信用证
华南
求解
链条
普尔
垫@@
棵
限定
实名
主席团
高贵
遣返
复出
貌
z
嘲笑
拐
镀@@
睁@@
眉
售后服务
初衷
饱受
土地出让
留下来
尤
人性化
空缺
举止
挡@@
艾伦
多为
新生代
湖泊
检查@@
侵蚀
现实生活
纪念馆
首家
3.0
支柱
仅次于
并称
恋情
海面
只得
魔鬼
梨
旅游局
一波
元首
摩根
任用
红利
千瓦
编剧
武装部队
电子产品
走红
帮扶
香味
服役
篇文章
晴@@
佩戴
接管
海峡两岸
伟业
西安市
捕
创伤
章子怡
立足
修饰
分支
百元
改组
夺
中非
经济衰退
铅@@
为民
科比
胡子
ud@@
老太太
二月
室@@
越过
国际金融报
已知
孤立
基础@@
鸟类
尝@@
治愈
柱@@
深感
快点
丰收
经受
优异
客观@@
之心
夺取
man
尼斯
法新社
捍卫
初次
淹没
出入
不论是
指明
盟
贴近
无条件
特质
首歌
模板
人身
变迁
做饭
转入
000@@
残留
天线
赛后
天津市
矿工
凑@@
单方面
塑料@@
切尔西
访问@@
高跟鞋
第八@@
前沿
审判@@
外援
人寿
下表
腿@@
一旁
者@@
揭露
营业执照
岛上
增收
国土资源
长者
分辨率
包装@@
3.8
责@@
放假
布鲁塞尔
良性
新界
囊@@
海边
居高不下
七成
白人
何处
北极
建委
其一
惟一
罢了
湘
犯下
公开市场
检察
替换
劫持
否决
激起
46@@
厂房
口气
0.7
社团
西非
具体情况
闫@@
跑道
改制
欣慰
在此之前
推高
』
靴
角度看
退化
大力支持
嘉莉
假定
政协委员
蒸发
举例
旺@@
生前
超声
申请书
果断
明确提出
寸
势必
涂料
逃犯
官网
对口
会否
体力
中学生
回报率
贸发
归属
教导
信中
第四章
赶快
华商
暂
发力
恒星
高官
筑
行业协会
祭司
阳台
预备
献血
OS
尝
肯德基
促请
教育厅
多功能
猜想
零零
科普
误区
讯息
工作岗位
仇@@
收费公路
管理条例
轴承
热销
精灵
am
前锋
47@@
光纤
感知
过往
婷
击毙
出游
破碎
阴谋
今年年底
疑虑
猜@@
录制
淋@@
填报
II
矮@@
斥
遥@@
上台
缓
艰辛
触
大夫
天气预报
看成
不力
特设
认出
外资企业
快要
赠@@
猴子
海内外
屏@@
歌声
千人
处处
机密
垮
商机
抵消
有助
起源
脉@@
劫@@
两张
上衣
芭@@
蒸汽
老大
侮辱
不断@@
36.@@
矩阵
横
一圈
穴
收养
城乡居民
文职
景色
国八条
AN@@
高峰期
高手
中小学生
两党
赶来
在校
古怪
牛仔裤
标明
拿来
私
有所不同
力气
羊肉
带回
焊@@
社会福利
审慎
消息人士
献给
皇马
109
中间@@
闭
副作用
选择性
出名
费率
只见
抽查
注册资本
at
第三届
身处
安心
金融体系
排放量
固体
逼@@
露面
出事
想像
预防性
岸@@
甘
巴格达
叶子
变相
1300
贫困地区
犯人
IC
滑雪
向来
饰@@
功能@@
39.@@
歌迷
打动
推向
中小板
我用
赵薇
旱@@
见义勇为
瑟@@
增量
连同
合法性
激增
工委
撞击
这篇
里程碑
亿港元
科研@@
海淀区
驱逐
柴
侯
乒乓球
主机
房东
切割
创先争优
本轮
埃塞俄比亚
饲养
金融时报
沿岸
125
麟
做生意
疲@@
铁路局
惠普
会费
醒@@
连任
陈先生
击中
辩@@
茅台酒
愚@@
蛇@@
领导@@
夸大
停下
盟约
乐器
技术创新
常务
中信
乳业
妆@@
驰@@
后卫
溶液
中美关系
11@@
if@@
趁
推介
奴隶
刑罚
受访
俄国
名誉
龚@@
法国人
响起
地形
赏
抛售
火热
核对
字符
微妙
起伏
抽象
益处
遇@@
十七届
店员
袖@@
用户@@
辞去
未有
文凭
盲@@
外交官
巨星
降临
宽度
上文
高尚
细胞@@
送来
大众@@
生态@@
之争
逛
一味
万余@@
全国人民代表大会
互助
文物保护
中央银行
文化交流
中美洲
地表
无须
基数
Twitter
浇@@
津@@
邮箱
#
整齐
经委
态@@
萧条
通话
纽约时报
中国联通
董
同级
主打
寿
叠
动车
冷漠
可吸入颗粒物
建华
乘用车
行动计划
Car@@
绯闻
动车组
赛车
油画
晕
承包@@
坚定不移
变暖
女郎
乙烯
ill@@
低成本
祖先
舞会
雕像
鼠标
补救
副教授
姜
牲畜
商讨
鹤
爽@@
乞讨
仔@@
种族隔离
跨界
eb@@
频发
党员干部
膝
浮
编程
真实性
一小
妇人
符合条件
盘中
『
规矩
勘查
庇护
触及
境地
重重
丹尼尔
会议室
打交道
畅销
关键技术
乃
向往
新低
潘基文
恐怖袭击
就业机会
风气
瓶子
楼下
想过
之势
商界
瓷器
齿@@
首饰
覆
铭@@
炸
发行价
郑州市
海外版
忙于
肠道
督@@
并发症
伍
保值
果然
37.@@
色调
公立医院
意识形态
独立@@
第二期
藤
附加费
美分
规例
108
头顶
外籍
晕@@
无视
爆出
隐形
物料
鸭@@
最先
严谨
帐@@
必定
而后
300@@
了不起
生活费
难受
劣@@
卧
饮@@
发挥作用
号称
甜美
投保
陶
禽@@
邻近
炭
碧桂园
树枝
时节
小S
便会
掩饰
盈@@
电煤
游艇
涅@@
奎@@
最高法院
浓缩
女演员
鼎
代理商
佛教
瓷
录@@
沈
红包
手持
句@@
村委会
总面积
渤海
革@@
语气
嫌犯
浦
贩毒
集群
号楼
不惜
防灾
不懈
国强
浴室
周杰伦
方向盘
装配
反倾销
改编
黄瓜
孕@@
总能
新农
新盘
中共@@
哈萨克斯坦
几分
相关性
参
幸福感
柔和
以南
粗糙
室外
委任
档次
一角
顺便
尔特
实实在在
tr@@
援助团
cn
低廉
积水
光芒
模具
荷
il
复旦大学
典范
皮革
邮寄
打断
党史
偶
品味
颈@@
恐龙
女主角
案情
古城
青海省
批判
作弊
上前
细心
SO@@
中队
乳腺癌
叫停
雕刻
事迹
新春
功课
还好
双眼
磷
标志性
粒@@
IP@@
克隆
缘故
气象台
晚饭
懒
详尽
电报
巢@@
自然保护区
茨@@
身旁
界线
彦@@
今天下午
中是
乃@@
未曾
分量
朵
磨损
鸟儿
瘦身
用法
嫉妒
该店
执业
时限
最强
脸色
狂热
颠覆
安检
求婚
民政部
哲@@
肖
供热
见解
起身
摔
可否
分支机构
液晶电视
矿井
巷
抢购
做起
扩建
溢价
1.9
营业税
就医
默认
文化部
面膜
批复
窗外
新闻媒体
妻@@
乃是
控件
悠@@
服务体系
骚扰
自首
乾@@
上浮
勤奋
胆固醇
进食
沉积
199@@
布雷
水利@@
著@@
秘诀
畔
悔@@
涂抹
构
决策者
电力@@
珍珠
浙江@@
龙湖
硅
集装箱
口腔
接种
有无
体育场
幻@@
静态
避险
麦当劳
翁
本案
新规
食盐
畸形
oc@@
祷告
无情
成型
婆@@
点半
株
龄@@
平日
舌@@
翼@@
停滞
霖
议论
红外
咖啡@@
审计署
永久性
网格
小车
道路交通
问问
可乐
两类
土著
私下
身价
惊
训@@
加密
泪水
能为
听听
邮报
闪电
多条
碑
首款
乱象
38.@@
笔记
泥石流
搭乘
ER@@
七条
转载
写出
患病
IN@@
升起
矿产
此处
横向
柜@@
BS
索引
内衣
光电
打败
宿
博会
鹤@@
房屋@@
平均@@
山顶
煤电
获益
邻
头衔
冰雪
转而
中小型
子宫
榜单
树上
亏@@
大蒜
棋
涝
歇
构想
发电机
穆巴拉克
整洁
诱导
庄严
一趟
高等
政客
套数
酸奶
名声
余地
年份
权重
劣
深层
低端
消
江湖
定罪
决算
绣
相符
疲惫
TV
恢复@@
出院
拍戏
出庭
期权
不仅如此
专利@@
静脉
个人信息
阵线
10000
理应
县委书记
退市
制剂
校方
抑郁
笑声
当月
饱@@
酮
命题
摩根士丹利
虑
配有
不许
时分
庆典
保费
成龙
照射
平行
巡查
榜首
凶手
鉴别
党政
甩@@
强烈@@
一侧
一整天
回调
骑士
毁@@
淀粉
金银
善意
个子
醒目
百货
洲@@
荧光
高品质
组装
安全感
迪士尼
地去
书中
偏离
想象力
工作队
换取
右边
重金属
北海
物价局
西湖
侦破
综@@
年收入
跪
敷@@
专栏
不好意思
靖@@
忽@@
保持@@
不来
越是
煮@@
违@@
享用
浦东
约翰逊
引爆
办公楼
观赏
钠
重大@@
犯罪分子
深层次
口中
环保局
访华
乐于
1400
浑@@
吻合
手机@@
固有
比喻
反响
拉加
爵
邮政局
姐@@
卫生间
开着
炎热
流动人口
幢
一连串
没关系
脸部
流畅
公共交通
会议@@
戴着
萌
尼泊尔
提振
触摸
电邮
果实
io
母公司
诱发
北京地区
比上
弧@@
而定
坚固
发扬
荣获
厄@@
中科院
撰文
判刑
菲尔德
更长
压迫
不公
酷刑
在售
较长
纸张
长途@@
一大@@
光谱
数字@@
草坪
慎重
长官
省委常委
如实
好玩
织物
国有资产
钗
生存@@
放贷
尚无
奔腾
尾部
点多
驳回
存活
102
115
口感
来往
河道
辱
不至于
法学
销售价格
怎么回事
媳妇
第一届
腊@@
藏族
赴@@
显示屏
日程
99.@@
漆@@
邮局
你方
德斯
今年年初
外媒
1981
饼干
匮乏
项链
普查
维奇
吸纳
现款
毁坏
克莱@@
汉字
揭晓
有史以来
动人
而出
褐色
暴
滞@@
看书
袋子
筋
汇款
购房人
出面
芬@@
降雪
3.4
重要讲话
地下@@
收音机
诊@@
豹
免受
最大化
少于
屁股
硬化
低下
内陆
民俗
净额
塑化剂
斜
季报
执勤
题为
作证
西岸
轮流
珀
航天@@
灰尘
提拔
紫外线
新华@@
不合
一分
窝点
星期日
伯特
寻
缘@@
八成
拦截
精细
维修@@
自然资源
考量
阶级
高性能
高龄
候
劝说
ir
专项资金
头疼
关上
后方
颁奖
三聚氰胺
玉树
小户型
中华文化
司令部
淡季
欢呼
汉堡
杯子
常设
指挥@@
不曾
钢筋
赢@@
边防
往常
集聚
子孙
迈进
西班牙语
中性
心愿
天气@@
进取
立方米
1983
差额
二号
经营性
酌情
之称
美金
廉@@
台湾@@
Selina
全县
班级
订票
有罪
怕@@
换成
联络@@
首都机场
分级
柏
成名
刊@@
毛利率
工作量
冰淇淋
杆@@
丑@@
发展前景
美元汇率
节水
送礼
银川
染色
史蒂夫
包容
夏威夷
锦
淘宝网
金山
矩
燕窝
朋@@
泳
沦为
有色金属
试验@@
CBA
盟友
正确@@
调侃
碘
冒充
叉
to
淡水
敞开
中国电信
现今
320
一并
打发
胜任
赌场
爱上
河水
着陆
涵@@
出口@@
逆
防火
利物浦
佩
直观
广东@@
改装
蒋
TSI
东欧
支架
财报
楼上
耿@@
改动
260
狱@@
精选
早早
网上@@
聆听
发稿
耸@@
顿时
交际
统
公交@@
捷克
再融资
ff@@
胡同
顺着
CR@@
漏油
和谐社会
瘾
腹泻
全体会议
荆@@
偿@@
折合
姚晨
关键@@
空气污染
anc@@
三地
控制目标
飞行器
反对党
后排
材@@
素养
元至
专用@@
东海
那场
青年人
服务质量
律师@@
两边
沙特阿拉伯
聂@@
洒
皱纹
不相@@
喝水
关系@@
坠毁
追赶
物业管理
卿
拉德
车门
滞
免去
执政党
第三条
吸取
条纹
六成
eg@@
金融业
ib@@
改建
中海
李小@@
藤@@
可信
副校长
研讨
宪
ate
稳固
招牌
熟练
万多元
溢
幸@@
前款
划定
海鲜
前线
市县
台词
发觉
皇后
事关
同盟
测验
充斥
世贸组织
大雪
财长
硝@@
汇集
用到
尸@@
严厉打击
字体
专家学者
流产
美学
福克斯
经理人
梳@@
健康状况
西红柿
马云
次序
迦@@
本期
税负
赚取
媚
救护车
叠加
责备
乏
业余
钱财
交易量
用餐
山谷
迎合
评判
两场
汪洋
万英镑
摄像机
怨
湿度
客房
优越
患儿
纪录片
像素
接送
稍后
查办
筹划
珊
充裕
伤员
恐
时空
羽毛
750
跌破
重型
拿走
岂
展品
主编
精密
净资产
左边
泥土
活动@@
不能不
开发利用
可口可乐
决策@@
职业病
瓷@@
仕@@
施工@@
美白
毕业@@
备用
新颖
捐助者
积蓄
迪拜
闭幕
PM2.5
口径
太好了
一时间
蓝图
污
1100
公安分局
齿轮
晨报
招待会
锅炉
无偿
EC
考上
虚构
辆车
很棒
对立
TO@@
研究部
洽谈
切除
撑
晒@@
屠杀
撤回
斯基
颈
走近
防控
不说
疗@@
省内
膳食
简约
放学
疑惑
抽检
打扫
放射性物质
桑兰
卡特
该局
主教
独一无二
鲜艳
手枪
上旬
小吃
悲惨
非常高兴
鞭@@
逃脱
综合@@
art@@
早点
血糖
深入开展
尽情
王朝
Bl@@
49@@
惩处
第二条
必备
辨@@
恤金
不太可能
敞@@
差点
唯有
机油
屡屡
新书
春夏
建模
商用
复习
人手
侦@@
晚些时候
美国国会
雪花
招考
部长级
妖@@
财年
第四届
传到
表扬
总体@@
供暖
汇票
底层
甫
EC@@
近乎
德拉
赐
论点
信封
理查德
蝴蝶
En@@
北区
浓郁
海滨
解决办法
兼并
学生@@
井下
点头
较量
专心
ell
歹徒
新世纪
排序
铭记
撑@@
高大
处处长
挽回
台湾地区
彭
本报讯
分娩
味千
综合征
白菜
堵@@
十八@@
组织者
不太@@
检修
背上
高职
债权
县长
强壮
旅途
园林
4.2
数千
怀着
流体
哄@@
不能@@
出发点
上周末
房管局
织
生产能力
碟
行径
奇特
捆绑
豫@@
履@@
增产
官司
丢@@
移送
SP@@
化肥
低位
放映
MBA
罪恶
仇恨
首轮
仓@@
节后
居民消费
模拟@@
白血病
桂林
骨骼
万多@@
证券@@
病变
婴
晋升
早盘
厅长
银色
吊销
经适
张贴
侦察
责任制
IBM
增加值
驱
握@@
全美
棘手
高地
三菱
专职
出入境
国家电网
104
公开赛
灾民
认真@@
抢险
蠢@@
知识@@
呼叫
上司
那年
天鹅
变异
竖@@
坟墓
定点
抑郁症
浮动
提速
神情
乌拉圭
钢材
廷@@
遍布
接替
维多利亚
减速
中国人民大学
推理
悲哀
人中
毛巾
稿@@
自助
3.1
剧情
一把手
大象
保荐
氧气
词典
一棵
城市规划
礼包
会为
倪@@
塑
环境影响
使用@@
制动
空姐
分校
明明
突击
坏事
乳制品
人造
哈里
谨@@
硕@@
备战
干线
好几@@
朝鲜@@
中央财政
商业模式
本发明
午夜
液压
聪
散布
核泄漏
去向
顽@@
第八
管理机构
角逐
连日来
103
居室
弹药
加工@@
触发
东南@@
中来
公开@@
开除
106
一年一度
笼罩
法兰克福
馆长
野蛮
涨停
驴
难以置信
党组书记
娜@@
地狱
调查@@
相遇
红十字
顺应
半导体
篮
遍@@
T恤
泳@@
相互作用
浙@@
四种
眼看
长期@@
顶尖
刘德华
炫@@
糊
京剧
有近
中航
六十@@
更强
基本面
大学毕业
事务@@
三角
圆满
祂
四级
激进
显出
虫@@
中国足协
大力@@
涉足
里斯
紧凑
拉美
AC@@
个省
蔚@@
多于
蒙古
捕捉
现金流
务必
酸盐
价格下降
私人@@
精准
半决赛
常务会议
问到
萨利赫
购物中心
西藏自治区
项目@@
在我看来
所有者
分组
巨型
钾
摄影@@
包机
产销
四季
亚军
虹@@
吊
家庭成员
西南部
呼吸@@
医护人员
萨博
主营业务
化工@@
32@@
起火
泛
传导
债券市场
Su@@
思念
复议
准许
借钱
购买力
再有
告诫
他家
纳斯达克
约束力
经济体制
打压
每隔
地球@@
关键在于
传播@@
工程项目
应届
伐
质地
联合国安理会
ton
它@@
入睡
偷偷
张艺谋
文件@@
铬
外壳
安盟
就行了
炼油
剧场
光滑
不断完善
张国@@
军舰
剩@@
均线
铀
报收
IM@@
窖
智商
半夜
颁奖典礼
孟加拉国
番
4.6
祖母
某事
叛@@
班子
获准
好运
国有@@
洛克
说谎
无害
曹
亿立方米
打听
取缔
应聘
试卷
执法@@
Ex@@
饭菜
解禁
通信@@
美人
退款
哇
亦可
但愿
微弱
极力
职能部门
抄袭
体育运动
手下
小鼠
奏@@
建房
珠江
遥感
慈善事业
刮
第一名
苏珊
报送
路过
标普
应变
颈部
环绕
更多地
半天
恶性
禁运
La@@
以旧换新
程式
扫雷
一届
处级
专科
匆忙
梨@@
得主
盛行
免征
和平@@
财政部长
过错
三点
乳房
年里
不解
卡马乔
试点工作
吸附
入狱
生子
优于
位数
韦
过关
互相@@
交流@@
干嘛
机身
紧缺
收盘价
水上
柳
特使
偏差
障
团聚
万桶
完备
特别@@
内蒙古自治区
华语
赶往
葬礼
亿人
纽约@@
近两年
裕@@
露天
监理
4.3
怡@@
上校
遗忘
吁请
四成
生命力
准备金
承接
大爷
糊涂
耦合
夷@@
受众
快餐
ge
增设
亲身
愤@@
维斯
人要
得意
畜@@
建设工程
著称
栽@@
外人
主导@@
展览会
汪小菲
旱
油漆
查验
玩笑
局限
邮
先知
党支部
鲸
实用性
研究室
第一章
重现
中国科学院
利用@@
涌现
超载
交互
中文@@
0.9
奎
马尔@@
申请表
地里
完全@@
芋
出席会议
肇@@
气球
高度@@
资源税
覆盖率
坠@@
举起
福音
应为
猴
大增
西斯
尖锐
呈@@
企事业
司法解释
巫@@
白皮书
灶
废料
享@@
入园
描写
2.9
绝不会
相撞
管理费
想念
二百@@
走开
光泽
PE
隐
数百万
门户
私家车
烘@@
军团
克制
公安部门
绑
叹@@
大关
人有
迅猛
监察@@
拖累
绩
百分@@
控告
□
谷物
日经
搜查
硕
绅士
较差
1973
济南市
晶体
浴
CE@@
健康@@
凶
零售价
加纳
切换
货品
厌倦
长长的
惠及
49.@@
歌词
胚胎
焚烧
经贸合作
微观
颇具
菊
唤醒
反驳
RA@@
外交政策
该院
祸@@
呼唤
序幕
芝@@
弟兄
风貌
美观
谜
生机
戒烟
ub@@
敬意
简易
娘@@
之手
洒@@
青蛙
钞票
礼拜
奶酪
炳@@
各族人民
涌@@
党建
亲情
se
民间@@
肢
赚@@
霸@@
营救
付给
中场
动向
Br@@
WTO
景气
投资银行
三日
恰好
星系
会儿
匪@@
旅费
麦凯恩
迅@@
准确性
终点
3.7
老是
ter
多长时间
美好@@
驯@@
总和
政治权利
里氏
首长
广播电台
还贷
压抑
风机
馀
名录
理事
暗访
人才@@
舌头
洗涤
从业
走到
暑
厉@@
伟大@@
责任人员
广电总局
过户
听从
★
足迹
掏出
鉴
暴风雨
停车位
隐蔽
自由化
指导价
熟知
欧洲人
校舍
警力
备份
路透
面具
意在
间隙
才华
送达
技艺
小狗
年终奖
宠
开拓@@
中介机构
管委会
普遍存在
水流
下称
1970
王女士
4.8
节假日
拢
贫困@@
晚宴
伸手
转基因
蚀
上岗
知晓
管理体制
电荒
宽敞
战后
扣押
爹
珍妮
虚弱
后台
名列
克里斯
共建
黑白
着装
蜜蜂
独有
总决赛
秒钟
禁烟
银幕
十一月
悠久
曾任
支行
客户@@
小编
湖南@@
防务
下文
Con@@
算了
In@@
致死
彻@@
藉
彤
京都
左手
衬
非统组织
偏高
尽头
伙计
班加西
申花
产品价格
妆容
幼
老实
政府@@
筋@@
工资@@
改款
嘴巴
这天
赶赴
长征
烧伤
华润
前去
爱沙尼亚
拾@@
领事
扩充
ep@@
摔倒
快报
胜过
不受
傲慢
MA@@
炜
装扮
停电
勋
江市
可控
成形
受阻
劳动合同
反过来
车轮
球星
换代
开端
兑@@
通向
投入使用
耐
一新
山县
筹
雪佛兰
工商行政
督导
钛
朴
耗费
故乡
特许
知识分子
稀缺
机动
真心
肘
先进@@
沃尔@@
戛纳
附带
旬
弊端
瑶
六中全会
冷冻
两级
电线
指派
甸@@
棱@@
ID
野外
物质@@
琦
木头
暴涨
北非
安全事故
牢牢
犯罪行为
毫克
塘@@
片段
机体
临床@@
冯
省钱
召
不光
鼠@@
利用率
袍
嗨
攻势
资本@@
广播@@
退回
婚宴
细腻
女神
无线@@
罢
明码标价
幸存者
融化
衡
紧急情况
悟
这样的话
求职者
坍塌
层出不穷
发烧
奉行
国安
计算方法
儒@@
Web
科学院
拉姆
马克思
波及
另类
晚期
印刷@@
诱人
税法
大哥
自私
好坏
严格@@
涩
十八
ID@@
十多年
敦@@
橱柜
安妮
跟上
中山@@
刑事拘留
担负
卫生组织
敬畏
阿塞拜疆
叶片
烟台
斩@@
回暖
吞
辅
竭力
方可
抗战
国内@@
通胀率
蓝天
干部@@
羊毛
蜜
风险管理
能见度
浑身
视图
跻身
毫@@
70@@
贪婪
裁减
多哈
显示器
确
学问
王后
凹@@
毛衣
恭@@
微波
借给
现存
信息网
之多
问卷
话语权
石墨
重任
出让金
轧@@
气愤
野田
班主任
奇妙
监测@@
十五@@
盟@@
扳@@
盾
彬@@
深深地
研究会
几句
交纳
鲨鱼
异性
袜
支持率
闽@@
淡化
运力
华尔街日报
民工
叠@@
传染
制售
吵架
四十
丰富多彩
受不了
伪装
海岛
四次会议
ann@@
磁
全会
遵@@
借用
分明
分辨
遇上
省区
巴萨
原型
第七
电子书
秉@@
朋
小康社会
笼
ian
一个多月
高尔夫球
边上
190
IT@@
捕获
多层次
专场
澳门@@
总值
在乎
实施细则
上路
瞬@@
质感
底盘
呼和浩特
威力
230
持续增长
药店
犹大
阅@@
战线
邀@@
iz@@
关押
状元
编队
喜好
分析@@
风采
缴获
半月
全力以赴
住处
职业道德
世界贸易组织
巢
星级
当即
哥本哈根
已久
原油期货
谁@@
耀
师资
酒类
滋润
动植物
北京青年报
愉悦
第六条
分管
默克尔
归来
化妆@@
领带
特区政府
仿
应用@@
助推
婚姻法
利斯
550
再用
生境
拘役
万余
内置
评论员
280
持有人
伤势
111
美景
新郎
后市
创出
烟雾
严格控制
报社
溜
老款
身体@@
外汇@@
闲
同日
塑料袋
逝
愈演愈烈
越大
可笑
沪@@
承担责任
水道
武装人员
学术界
膜@@
经常性
山水
截
茎
汇总
糊@@
极少
复合材料
私有化
嫩@@
安定
sp@@
招待
偏好
珂
东帝汶
感应
仍会
沿海地区
璐
递给
小小
惩治
粮@@
千里
经济网
迈腾
饰品
偏远
ack
否
一页
情怀
托马斯
太小
巾
看中
防晒
如期
ity
盼望
齐鲁晚报
葵
玮
之作
ort@@
趣@@
亲吻
ang@@
伴@@
5.8
挪用
炫耀
醉驾
十届
证明书
班车
一致性
戴上
英国政府
发病率
能效
申请@@
曝@@
零食
桂
百名
翅
保险费
钱学森
越发
广义
说完
繁多
恢复正常
向东
常务副
国产@@
过热
航道
Groupon
兽@@
市内
砸@@
福布斯
村干部
社会化
滋生
房产证
中年
讯@@
原价
固
关口
印制
俄罗斯@@
概念股
呼吸道
函@@
第九条
两国人民
怀念
每公斤
菜价
深情
北欧
离岛
瑞银
穆迪
网帖
班上
另一名
有的是
反感
省会
明日
电量
滚动
咽
镇压
短片
盛宴
跌倒
股民
急速
老挝
背着
抨击
截图
哈哈
难怪
辣椒
椒
家禽
iPhone4
防洪
焦炭
测绘
标示
对阵
校友
亲近
实用@@
食品药品
闯入
高空
114
背部
处方
表示感谢
巴尔@@
撇@@
正视
灾情
买单
第五条
平和
灌
逐一
欧安会
下个月
光亮
59@@
共产主义
布莱尔
职称
闪
光彩
该股
暴露出
损@@
登机
不堪@@
取胜
避难
确有
曾多次
苦恼
打下
抽屉
尚有
一职
科大
罐@@
地下室
售卖
首府
空客
已婚
环保部
政局
送上
特纳
中立
脱颖而出
挣@@
教育部门
笛
挂号
薪@@
乏味
H股
役
系统性
汲取
空间@@
接过
最优
东北地区
魄
亚美尼亚
使者
抗拒
闷
安市
证券交易
量产
机上
套现
公然
圈子
控制权
称作
怎
武术
柬
星座
TCL
林志玲
相爱
强降雨
哈药
苯
中风
中国证监会
匙
海豚
不开
逗@@
基建
此番
中央党校
做人
供货
刘先生
示范区
民兵
实实
集结
十六@@
所处
津巴布韦
全球@@
印证
安全部队
莱斯
保住
盲
执导
双汇发展
演化
没用
裤@@
地道
熙@@
5.2
两份
这样一来
全资
悔
纪念日
管局
46.@@
张女士
扩容
博士学位
芽
锯@@
那一刻
5.4
仪表
财政局
穗
失眠
因特网
交替
叙
退税
庸
骂@@
橙@@
衬@@
树叶
过失
Je@@
阀门
公共利益
PDF
政委
小屋
买车
百分比
外债
牛仔
太空@@
44@@
携@@
格斯
特里
破坏性
两部
惜
相适应
灾@@
瑜
粉色
107
美利坚合众国
哈尔滨市
示例
流转
电费
右侧
豆腐
联合国@@
人际关系
脱落
赎回
之久
以求
Mac
开行
以至
栏@@
浮出
螺旋
抄@@
成因
辨别
欧佩克
教科书
交所
奥斯@@
测评
稻
乐团
第五章
闪烁
袖
定金
归纳
返乡
届满
社会公众
投票@@
壳@@
33@@
高利贷
重叠
做个
BC
Pr@@
饱
譬如
注释
米尔
耽误
HTC
歇@@
答道
车牌
根本@@
大腿
矿区
CC@@
开庭审理
左侧
毁灭性
财政预算
撤军
威尼斯
简便
召@@
六方会谈
数学@@
力图
通用@@
为宜
治病
斯里兰卡
市委常委
萨尔瓦多
酚
收据
东道国
四次
岸边
红网
专家组
雇@@
坠落
开花
骆驼
削@@
衰@@
第一家
沉淀
部份
210
硬盘
二楼
哲学家
多发
繁华
国际原子能机构
战友
新形势下
推断
新闻报道
ard@@
壮观
门户网站
雄厚
1976
买来
博鳌
合作@@
放量
慎@@
共鸣
落网
看点
植被
大家庭
简报
党和国家
枫
另一家
娇
俏
撒谎
胀
说实话
注资
根本原因
常委会
吵
留住
单击
映射
天文
其二
货币@@
街区
不休
风味
肩上
1967
内需
混淆
男孩子
直流
繁重
停放
就任
有效率
窥@@
凯瑟琳
上场
故宫博物院
严惩
复活
潜逃
处罚金
海口市
张力
着实
著名@@
华泰
转会
特殊@@
胖@@
卫星@@
恐吓
管理体系
资源管理
免职
已然
一脸
注销
Am@@
制度化
朴@@
务工
演艺
工序
流血
88@@
椰@@
见习
并存
纪检监察
渠@@
江淮
公款
国标
越来越少
一封信
正直
CN@@
厌@@
合资企业
伴有
城县
悲痛
汇聚
关注度
割
人生@@
第四条
纤@@
季节性
投身
抽取
海运
1960
嫂
分许
搞好
搅拌
疹
公用
傲
监护人
镍
重创
一两个
卡梅伦
客气
发来
检出
纳斯
康师傅
心跳
水手
政策性
探究
外衣
雀巢
一揽子
就诊
防水
份@@
今年初
升空
警察局
照亮
女足
突变
英超
空运
盲人
证券市场
ow
出土
腿部
选区
落成
修养
热衷于
警卫
标语
产业园
裹
喀布尔
滋味
叫声
到访
缺水
疟疾
掘@@
相声
股票市场
施压
合理性
山脉
日到
规约
老朋友
大军
重庆@@
结构@@
忧
6000@@
农夫
规划@@
http
温州市
民主化
粘
格尔
资金面
环球时报
专人
曲折
污水处理
AL@@
坚称
剥@@
南站
杖
这所
直觉
分配@@
引力
有所增加
贸@@
琳@@
rpm
所指
哈马斯
姓@@
阿联酋
学习@@
电极
三类
款额
普遍性
索要
误会
手势
取得成功
揽
金字塔
母语
风潮
镁
批量
丛
车库
发生@@
终生
人情
李女士
车头
电信@@
RO@@
厨
块@@
峡谷
端午节
柯
欢喜
增资
动辄
镇上
蓬@@
昏迷
六条
狐狸
该县
美术@@
大肆
心理学家
诱@@
屯
挽@@
栗
裸
心血管
出价
坐标
造林
脆
宗教@@
顽强
56@@
衍@@
旭日
化验
坎
持续性
租住
少年@@
迫切需要
而行
注册商标
器具
三十年
法律援助
营业额
乏力
打入
新政府
RE@@
办公@@
交通拥堵
填充
花园里
隔壁
吵@@
控烟
发明@@
量刑
迷惑
看守
解开
损毁
窦@@
毛孔
胡萝卜
米歇尔
附上
泼@@
考研
多多
就餐
招聘会
ik@@
非洲@@
光盘
婉@@
代表大会
开征
贩子
沈阳市
财政政策
小姑娘
顾虑
要花
1975
欧盟委员会
ong
田野
渝@@
自来水
财经@@
穆罕默德
金融中心
氨@@
营业@@
危地马拉
潜伏
地铁站
IE@@
护肤
总体规划
生产率
营业部
化学物质
相近
纯洁
all@@
日内
之意
清水
5.3
射线
卜@@
第一款
虽说
较前
提早
葱
洛阳
警戒
地质灾害
绒@@
戴尔
心声
跌至
深海
游泳池
建行
溢@@
中东部
高山
小雨
一个多
蹲@@
看守所
方言
三方
内政
财政拨款
物理学
指甲
不景气
编织
句话
翡翠
日军
征聘
4.4
刹@@
扶贫开发
世界级
连线
暖和
新一届
不知情
童话
缠@@
盛会
轮椅
对华
380
司法部
只用
竞争性
抬起
见过
出击
档@@
是否是
二手@@
提出申请
没见
逗留
保暖
应是
黑洞
该省
吸入
资金来源
蚂蚁
常会
打架
精简
眼部
跨越式
工艺品
市场占有率
技术性
陈列
金正日
科尔
溶剂
之子
渐
甲板
阿尔巴尼亚
Tr@@
居家
导报
冕
成交价
全天
330
催生
仑
um
兼容
银河
粮食@@
长三角
出卖
熬
冰冷
老总
税务局
在短期内
龙头企业
餐具
廉
中亚
呕吐
煤气
让利
交出
招呼
体外
林肯
历年
Bank
当今世界
既定
5.6
那段
清明
水产
侵占
走来
房产@@
抗日
专家建议
晓得
中途
心想
有种
规模化
闷@@
纺
喉@@
讨
计划@@
余家
参与@@
申请者
截然不同
潜水
店面
霉素
吃掉
站立
篇章
田间
GB
总干事
窗帘
海航
减产
负载
路程
中考
宣誓
多伦多
航天局
山羊
磁场
哈佛
颂
亟待
下巴
首创
格拉
中国民航
不平
坝@@
底价
嚷
转型期
授
紧接着
体面
不用说
巧合
基石
风能
妊娠
售后
掺@@
中产阶级
弗兰克
新近
监护
贱
分队
捡@@
妇女@@
期限内
特地
防线
塔吉克斯坦
侵入
凯美瑞
大伟
㎡
谋划
进口@@
书院
棒球
印花
自治@@
格兰@@
粉碎
多天
假冒伪劣
校区
曝出
蓬勃发展
凑
开列
发音
友善
公诉
过节
氟@@
藏品
博士生
之力
剖@@
积极开展
小额
月薪
半球
名将
人称
搞笑
居民收入
受此
迈向
段落
孜@@
流行@@
披
社会科学
血燕
地被
殡葬
从句
长途
遗嘱
9.5
降级
三倍
工夫
不怎么
独
牧
日向
狂欢
橙色
恨@@
鸡肉
里奇
教科文组织
感人
枣@@
发热
顺畅
近距离
参加者
十年代
管理处
气流
夹克
遵照
阔
流泪
地理位置
疲倦
加载
无罪
助长
站台
建设部
金九银
抗体
此地
雷诺
娱乐@@
足球@@
敏捷
钞
堪@@
加权
停车费
中东地区
余年
民事@@
阳刚
瀑布
族裔
修补
天花板
夸
月度
枪击
立法@@
地方性
删@@
晃
星光
j
胃口
小船
大叫
阮@@
特遣队
end@@
菲尔
MM
模糊@@
评分
浸泡
一楼
高等@@
涡@@
杭@@
屋子里
十五日
意想不到
极高
每晚
老年@@
大灯
一分钱
甲醛
审计@@
精明
深入@@
装满
风雨
无不
片区
违
并重
钢厂
伪
灭火
警务
造价
风云
漫步
蕾丝
打球
背叛
Co
苛刻
顾及
辩解
潜能
Be@@
疆
积极探索
郭德纲
考点
运会
流通@@
of@@
注册@@
保时捷
遗弃
标杆
创纪录
大通
袜子
开场
套装
记忆力
把关
豪门
ang
庸@@
保险业
58@@
哑@@
玲@@
基调
一如既往
门徒
8.8
友情
蜡
近东
拉面
商谈
很多年
吉尔
型基金
西欧
失利
119
蓬莱
一切@@
衰
煤价
粤
牟@@
尼加拉瓜
复原
不菲
扶梯
长效机制
桌面
俱@@
谋取
3.9
SOHO
手脚
贞
贸易顺差
奖牌
上汽
盗
歪@@
1950
供求
6.2
车内
打个
拍卖会
呵护
It
匿名
急忙
无缘
时而
伸
得来
主管机关
用电量
重回
兴业
实际@@
葡萄@@
朝鲜半岛
首领
China
双赢
安宁
购入
羽毛球
张建@@
住房价格
符@@
一笑
围墙
好比
脑子
停工
同居
无权
想不到
统计数字
教育资源
金陵
输电
文汇报
多变
十四@@
疏
穿梭
赴美
和服
授课
菱
多亿元
本科生
1700
Group
靠着
6.3
保障@@
狠
矿物质
建筑师
未成年
不负责任
art
减低
总人口
铺设
省区市
性行为
大类
召唤
实际行动
誓言
选址
卫生署
血清
缔约
女方
结实
先例
推开
万物
凤凰网
央视春晚
服务费
重力
两套
当务之急
该区
际@@
核辐射
禄
5.1
欠缺
关掉
第七条
贪官
浪费时间
衣着
投降
千克
打响
黑夜
悬念
基因@@
妹@@
崩@@
屏障
高新区
洞穴
构筑
万家
民政局
经济性
微波炉
男女@@
明知
信号@@
胰@@
接力
誓@@
疏导
随处可见
人口普查
仇
头来
ill
长沙市
放慢
行政处分
代号
关乎
非盟
Add
不知不觉
天窗
花生
开机
开水
确诊
万件
暗杀
揽@@
公元
古典@@
老兵
议事
饶
箭@@
个人电脑
核心技术
致敬
热钱
牢记
中投
缴付
雅各
筹建
透支
九成
学界
近似
善款
做梦
重工
犬@@
用手
募捐
愁@@
废弃物
追加
社长
电力供应
黑社会
源泉
禽
参观者
规章制度
执照
别忘了
受贿罪
新陈代谢
围巾
家庭暴力
两成
丛@@
大气层
器件
无私
纪念品
此人
知情人
别克
宗教信仰
大有@@
及早
饱满
财政赤字
敏锐
省委书记
孕
酱油
工行
奔跑
惑
纽带
惟@@
草莓
富力
4.7
玉米@@
乙方
陀
悉
重灾区
enn@@
架子
植物@@
市面上
怨@@
尖叫
连接@@
机能
触动
孟买
基础教育
妥
山路
6.4
Qu@@
昨
盒@@
非常感谢
英特尔
家门口
谘
积雪
有余
订阅
高级官员
对准
罗伯@@
怎样才能
痰
税制
诚挚
年终
数次
阜@@
考评
还应
查理
资产重组
收报
碗@@
不容乐观
早晚
小子
生计
趣味
络
来文
年产
助力
转播
一心
抽出
第二位
楼面
糟@@
Ad@@
老乡
铸
纪念碑
小规模
人文@@
首套
展厅
罚金
Ac@@
瑜伽
室内@@
客运@@
番茄
运算
奸@@
羞@@
昆明市
同期相比
热衷
调配
平安@@
窟
生命危险
入世
物业公司
168
病床
侦探
追捕
冀@@
兵力
4S
署名
哈佛大学
氮@@
一团
别说
背面
隆重
喷发
往事
保质期
客户服务
改成
自在
one
科技部
钻井
计算@@
谣
淡定
孙女
福祉
利亚@@
1.0
第八条
闯
惨
音响
令人满意
入股
税务机关
ECFA
热点问题
受限
交由
铅笔
天性
标本
ES@@
轻轻地
勇于
钦
荐
柠檬@@
各个方面
数个
逃逸
肺癌
友人
Inc
无所谓
入场
五星级
魏
中央气象台
仰
im
彩虹
挤出
鄂@@
榜@@
气管
中低收入
道琼斯
汪
事务处
歉意
路线图
木马
询@@
第二年
亨@@
华中@@
通用汽车
一年@@
打招呼
督办
本领
水池
从严
地缘
初一
预留
结尾
英雄@@
马里@@
天桥
用量
党政机关
装载
固定@@
配售
这幅
96@@
135
美国市场
阻挠
分析方法
氨酸
苦苦
居民家庭
离岸
营养不良
关键时刻
有点儿
小册子
鹰@@
千万元
洗净
尔森
疮
球赛
保卫@@
抄
首场
入党
口音
十分钟
狠@@
踏
完整性
锤@@
抗震救灾
大户
围着
很漂亮
品牌@@
梦幻
笋
连衣裙
地层
学年
喘
山坡
Ne@@
显微镜
做客
自然界
面条
不介意
分销
小心翼翼
链家
职务犯罪
更深
局限于
核事故
雁@@
德黑兰
4.9
脂肪酸
一案
爆炸@@
橘@@
肯尼迪
术@@
趋向
一回
番@@
环保部门
办好
更为重要
猎
表演@@
曙光
午后
犯罪案件
中粮
无期徒刑
太快
海伦
昊
ber@@
动工
研究@@
股份制
实证
共和党人
多出
堆积
思索
挑衅
传动
侵袭
身分
腐败@@
艺术节
肾脏
新闻界
县市
两难
请来
受益人
咨
游玩
那座
中国台湾
炸药
特种
该剧
奶油
素质教育
考试@@
实事求是
管控
币@@
受到@@
相邻
事实证明
丢掉
稳妥
八大
断层
雇
手腕
有色
鹏@@
老爸
红旗
回流
就近
字符串
兄
内有
另一方
战绩
捏
蛮
坦桑尼亚
五六@@
切实加强
文件夹
卜
乙
心头
一大堆
摊位
缓刑
复印件
照看
班长
蓄电池
os
丽莎
宏伟
珊瑚
化疗
抑@@
教委
宣扬
甲方
利于
迷信
发言者
极致
病理
我刚
指纹
洗钱
全国人民代表大会常务委员会
十几年
舆情
4.1
1974
坠
合一
乱收费
坦诚
酸性
军用
放射
精子
账@@
评论家
不胜@@
河边
CBD
封建
湾仔
紧急@@
矫@@
三农
检察长
伊始
航空器
团结@@
财税
饥@@
栖@@
编译
落入
入户
兼任
单调
肢体
歌剧
诺言
粮食安全
效仿
深陷
Mc@@
推导
定律
远高于
飘
钉@@
杆菌
抢眼
各项@@
加薪
来时
阿森纳
完好
佐
年头
着眼于
基础性
王晓@@
智能化
爸爸妈妈
栽
华文
网络安全
薪资
充分考虑
八号
交响@@
报业
大麻
47.@@
联邦@@
继而
皆@@
解体
铸造
心理健康
大省
幻
跳跃
奇异
消防安全
会馆
情报@@
趁@@
有空
河南@@
TVB
在此期间
华东
伊利
摸索
钦@@
侨
机电
表达式
自卫队
断定
为生
头号
计入
中型
督查
光大
风尚
重症
马铃薯
伊斯兰教
冲洗
主城区
造福
巴林
贝卢斯科尼
先决条件
至上
一季
米饭
五是
预告
经典@@
腰带
求学
励@@
九个
煤炭@@
衷心
CD@@
来不及
充
IP
每逢
向导
莫过于
ant@@
各区
傻瓜
宽恕
霍
推移
无尽
节前
缓缓
做工
进修
第一部
先驱
外币
葬@@
牵手
匹
布拉
LG
抢劫@@
司令
利益@@
阶梯
忧郁
萌@@
滥用职权
魁
暴雪
搁置
这门
开放式
平壤
防腐剂
De@@
大大的
纳德
惊艳
逢@@
疾
时隔
洋葱
这颗
事务局
单品
抗议者
甸
呼应
增长点
获救
衰竭
追溯
多半
翁@@
物件
区委
少见
神经网络
熙
贪
绘
枣
蒲@@
民族自治
忽悠
着眼
数学模型
感恩节
工作效率
打通
灼@@
多款
oun@@
缔造
代言人
范例
广播电视
综合治理
并不知道
问世
第一年
年仅
余个
高分
恋人
忠告
放过
催化
周转
公职人员
疏忽
荒谬
基本法
电商
践行
太原市
瑕疵
接待@@
窃@@
数十年
护肤品
收视率
究
扇@@
之夜
照样
老龄
语言@@
仔细@@
谓
65@@
消化@@
定论
竞价
亚历山大
冷淡
谭
安抚
翻新
动乱
心意
饮品
魂@@
弓
何以
第十四条
空中@@
划算
革
AP@@
轰动
被控
脚本
无非
校正
交易员
为难
睫毛
画作
高楼
削
逊@@
短线
辖
居委会
地盘
驱车
突
野心
凝
吉他
挑剔
稀少
东区
杉
为名
堤@@
普通话
医务人员
兜@@
脑部
惩@@
麻醉
未见
锤
假药
打印机
宁可
纵向
厘@@
说不@@
武侠
工具@@
于本周
王妃
不太好
戴维
接收@@
策@@
五天
病菌
乡下
暂行办法
建筑工程
the
蹦@@
克尔
五次
抉择
抬高
予@@
选中
戏剧性
高雅
蹄
振华
涂层
去掉
贫困人口
千名
信托公司
时才
工艺@@
片刻
谍照
核心@@
各异
管理水平
前排
滨海
宣读
走强
症@@
一说
蜂
序言
协调@@
医药@@
募
接手
随身携带
竞争者
仓位
聚合物
选秀
默默
踢@@
采取有效
民国
搞定
口罩
农行
国际性
亚冠
停顿
LO@@
书法@@
逃亡
高中生
头皮
锥@@
开工率
房主
一百
Cl@@
颤抖
爱德华
无形
煽动
结冰
大笔
而不@@
递
4500
姚
布满
刑事@@
太久
ah@@
新台币
湖区
逃生
调低
计价
写入
第十条
西北@@
一次次
荆楚网
南亚
侍@@
继承人
厚厚的
膏@@
118
启
ent
重塑
惊叹
制片人
拟任
稳定@@
勃勃
驾照
卫生部门
点缀
遗失
援建
代办
棚@@
茵
拥护
监局
硕士学位
炎症
说不定
高速铁路
并不多
per@@
争相
余下
濛
描@@
照相机
信息中心
蒂斯
润滑油
影视@@
水务
规程
窒息
喜庆
始终保持
充分体现
MINI
经济运行
科索沃
量子
El@@
陷@@
早年
寸@@
实效
获批
198@@
一切都是
不慎
大山
霜@@
时装@@
潜
本项
安全法
刑事案件
小客车
惠州
这首
脑子里
七八@@
出口商
宫廷
管理模式
努力@@
扎伊尔
波士顿
for@@
碍
鲜活
结晶
辨认
献上
退休金
礁
臂@@
沾
48.@@
单车
纠缠
房山
世博
开阔
耍
试用
焦煤
高高@@
影视剧
结婚@@
指导@@
万分
文科
合同@@
面包车
十七
执教
明确要求
老旧
党和政府
皱@@
多种形式
低点
厚重
掷
手头
流利
卡罗
拉手
不料
抛出
划拨
宾客
分数线
习惯于
外地人
篮子
Sch@@
印度洋
长春市
一审判决
宫殿
逃走
机车
克拉@@
一斤
墙面
归属于
位移
现实意义
苍白
某一
事故现场
常务委员会
屠宰
越高
娃@@
兰人
领到
活性@@
天主教
捕鱼
臀部
蕴@@
耀眼
光环
骑车
时有
购物@@
独立性
出新
倾倒
车里
变频
离家
关键性
同业
每到
聚合
会令
MS@@
戈尔
尊贵
大幅提高
违法@@
九龙@@
两起
折叠
主线
绪
光源
镶嵌
刷卡
爆破
月生
白云
欧阳
漫
全日制
反垄断
转运
搬家
山地
轮毂
城墙
交易市场
从容
③
张家@@
德国人
佳节
何在
纽约市
面向@@
复发
在世界上
发生爆炸
黑莓
捂@@
斥资
节食
楼价
保育
公益事业
充足率
配租
一国
本性
咆哮
oy@@
舟@@
方便面
131
看一看
和谈
诟病
Pro@@
先天性
最差
剖析
出版@@
四天
归咎于
亚运会
杠
蜘蛛
汝@@
安德鲁
义工
免得
国道
近几年来
新快报
小家电
救出
FD@@
西城区
红灯
会以
买不起
培养@@
售楼处
而上
另一半
视作
北汽
招投标
塔拉
局地
回扣
表达@@
附加值
LE@@
直销
登山
握住
第十三条
中行
多来
外层空间
270
兽医
拉脱维亚
莎拉
风头
后人
藻
初选
花卉
朴素
屈
落到
资源配置
第十九条
赢家
世界纪录
周期性
绝非
找回
ug@@
数以@@
大坝
家族@@
恶魔
韶@@
不信
6.8
犯罪事实
就职
过渡时期
稀释
以东
合唱
更名
粗暴
致歉
出货
五分钟
由此可见
一两@@
冰川
桨
契税
罚单
询价
装机容量
救援队
刃@@
结识
宝座
裂纹
圣诞老人
第八届
摄取
装运
ach@@
怪物
175
染色体
蜡@@
颅@@
首都@@
各人
遗迹
成本上升
电子地图
don
武装冲突
血统
互补
交火
菠菜
阻塞
同比增加
格林@@
火花
玩游戏
武器装备
院线
驱使
ind@@
热情@@
Sc@@
矫正
电磁
壁垒
舒适性
帅气
印有
英文@@
消费量
长发
供不应求
英勇
菜农
该书
探望
每斤
旅行@@
租车
男方
踏实
字眼
屠@@
剃@@
西区
降解
偏向
深水
渍
帝国主义
产后
事实@@
在一起
搬进
投资额
核心区
大体
镀铬
红线
五日
情绪@@
退房
科长
反倒
解放日报
实务
政治部
纺@@
PC@@
专门知识
双腿
下放
交织
乙醇
免税店
框@@
遴选
元宵
高素质
本合同
无声
花瓶
试题
ash@@
肤
下手
悟@@
息息相关
古迹
112
爱国主义
骑马
第十一条
医疗@@
特工
通航
十二个
天体
行进
三层
一书
募@@
甩
炮弹
变质
于民
陀@@
有效@@
113
第四个
名家
轿
迷失
Bar@@
德国@@
页岩
体温
不法分子
晃@@
折射
董事局
用处
农家
铝合金
徽
人员@@
赋@@
社会学
一班
进货
长裙
车速
探险
委屈
氟
种群
民生银行
澳门特别行政区
该部
昌平
马里
服刑
奴@@
肤@@
胜出
理所当然
ET@@
土地利用
撤退
七日
禅@@
换乘
粮价
90@@
不容忽视
人流
缠
来电
匹@@
财政部门
最深
派驻
组团
高三
正要
消协
新开工
牟利
周到
堕落
陪审团
精通
尾声
人行道
补给
高风险
气象局
道具
瓦尔
骗局
网签
上榜
肺炎
傲@@
盈余
归案
吉祥
时钟
动画片
优先@@
紊乱
广发
压缩机
中信证券
提炼
证券交易所
孤单
批示
过敏@@
桐@@
爸妈
专业知识
爱美
迁徙
款人
日本首相
地基
生化
某种意义
钙@@
领军
佑
歼
新年@@
环境保护部
窜
皇宫
粉红色
总务
猎人
起着
莎士比亚
主业
洗牌
Har@@
世间
第二阶段
保全
最新消息
回忆起
取暖
韵@@
5.7
水产品
解脱
可取
出错
平板电视
遣
樊@@
巡视
缴@@
奶牛
脊
渊@@
郁闷
斯洛伐克
会后
蘑菇
捞@@
公共安全
被称作
副总
早饭
开往
30.@@
辨
金斯
西宁
解密
叉@@
不可否认
根本性
小儿
镇政府
房门
破灭
第五次
有限元
护送
拽
袋@@
说服力
荒唐
哄
五角大楼
载荷
价值体系
看清
振奋
咏@@
奔波
老龄化
欣喜
为本
测量@@
儿童医院
丢弃
农牧民
ess@@
弥漫
腔@@
这艘
申领
查封
北方@@
民意调查
雪铁龙
主板
胰岛素
诸
饥荒
写给
来宾
关键问题
小伙
勺
遗传@@
进场
亲手
朵@@
小学@@
专利权
该死
存有
喂@@
丝绸
妄@@
叙@@
物理@@
摘
外观设计
大肠杆菌
私自
换来
电能
与时俱进
脑筋
服务水平
亮度
225
晚年
赋
语境
维亚
冀
扎根
亚当
Ph@@
建军
适应性
每盎司
发文
伤残
壁画
不理
金星
破损
关键因素
再三
延缓
颖@@
弦@@
前妻
进气
饺子
大洋
剥离
68@@
介
靖
副所长
辊
雨量
315
食欲
收看
连夜
And@@
下水
ass@@
笨
剥削
制冷
戴维斯
则@@
喔
低头
第四十九届
静止
籍@@
ick
流逝
微微
无忧
松下
国学
大意
互联
懒惰
惧怕
John
闪亮
倒下
〉
Fr@@
第九
变数
冷清
幸
ist@@
年夜饭
中以
信用@@
运到
主管人员
赔偿金
负责同志
容许
鼓掌
之大
全职
层楼
坪@@
作坊
踩@@
翻番
货架
受益者
超大
塞尔
不减
轻型
付诸@@
焊
仓储
纱@@
钢板
软弱
一站
美林
ot
老太
BO@@
长相
适
潭@@
奋力
冲刺
额头
火力
招股
转到
大闸蟹
创新型
黄某
爱因斯坦
机床
1972
降水量
调制
放出
图标
该机
三明治
耶夫
自尊
五百
液晶
大中型
克莱斯勒
看不出
睿
海淀
黑名单
影迷
ER
筷子
PMI
下架
万里
123
候选
肃@@
伤病
三款
期货市场
情况@@
冯小刚
联席会议
点火
送交
天文学家
炭@@
务局
风筝
哑
扑灭
熟人
皱
高技术
危险性
体型
喷
汇丰
诽谤
孕育
居多
责成
深入研究
碘@@
平淡
盛典
戒毒
莲花
相等
总工会
损耗
何况
阿布@@
共赢
6.7
墩
清爽
一队
自行@@
邪@@
低谷
布莱@@
保安@@
水体
特殊性
贮存
国际标准
伙
雯@@
涨势
库区
布兰@@
垒
ust@@
敏感性
宣传教育
沥青
高举
绝对@@
马耳他
看不@@
伯南克
曼哈顿
况且
玛丽亚
进京
共用
6.6
不管怎样
约瑟
些许
公投
住房@@
敷
第九届
震后
立项
最佳@@
台下
沉浸
座谈
两座
推崇
濒危
架飞机
海港
乞丐
没想
歧@@
TD
如意
垂
两组
掩护
坐落
高房价
矿石
第三十@@
法郎
米勒
细微
腺@@
二审
116
害羞
语句
气象部门
蒸
谦
年龄段
ce
取得联系
摇滚
安全带
绽放
赐给
57@@
迫
黑山
失职
铁矿
以北
山村
幅@@
新民
根基
靶@@
抽样
印度@@
旅游者
香料
昨天晚上
收购@@
开朗
出品
大大提高
系列@@
转账
报废
指示@@
局限性
房委会
过早
发行量
金币
金子
挑战性
江县
性关系
片子
鸽子
汽车产业
带入
而据
教养
收敛
全心全意
ack@@
谎@@
77@@
日历
接轨
豪华型
三分
恳求
丛林
议长
失调
水污染
终审
理赔
近几个月
一环
交叉@@
保护主义
切尔
→
本应
亮丽
一排
三届
实施方案
上天
房贷利率
霸王
展现出
佣@@
足坛
螺旋@@
动物@@
法学院
阳光@@
西南地区
翘@@
案发@@
请假
湖南卫视
三环
枪手
开放@@
传记
解说
知情权
烟花
非常@@
监测数据
调和
侧重
威尔士
年度报告
蚕@@
打捞
撒哈拉
踢球
第十二条
激怒
外贸@@
合作项目
相片
128
145
老伴
保护环境
分会
持续时间
精心@@
暑@@
并列
音频
供养
南瓜
牧民
粪便
连连
起源于
肋
杀伤
泊@@
硅谷
直达
价格战
骨干@@
入驻
建构
99@@
中央军委
个个
都市@@
步枪
贫血
买进
煎@@
通讯@@
竞标
SS
边际
人用
冷水
方正
调节@@
案发
控制中心
新奇
多点
有事
追溯到
中医药
男主角
郊@@
1977
香气
法老
最坏
自卫
触犯
重量级
本场
贯
数码@@
坚持不懈
倾
察觉
不息
肥料
品格
同一天
贫富差距
第三轮
株@@
巡逻@@
阿曼
澳大利亚@@
开发银行
理事长
旁听
怀特
风俗
all
第七届
领队
国际奥委会
第一阶段
太低
绘@@
勇士
沉没
偏爱
前瞻性
最能
耗资
扔掉
捣@@
法国@@
怜悯
存储@@
狭@@
重要@@
接听
县域
外空
正向
拆卸
传给
北上
赔付
螺
毗邻
冷却@@
两块
发电厂
等离子
公墓
抑或
姜文
男装
商业化
信任@@
青春期
网银
扬州
五条
发货
稠@@
国度
超额
亲眼@@
大阪
枕头
竭
参会
即日起
犹太
补充@@
新片
宝安
到时候
不良反应
第二批
第十一届
前卫
头目
线程
变压器
基金@@
夏令营
侠@@
之美
犀利
畜
成份
抗震
巴博
蹲
爪
且@@
跟风
鄂尔多斯
血液循环
少有
合理化
漠
四方
恩斯
脊@@
价款
强拆
失落
尼亚@@
窑@@
勘察
慈善机构
歌舞
全港
热器
打包
署@@
生死
江苏@@
较弱
设计方案
坦白
可知
会员卡
粉末
溃疡
合法@@
换上
乳品
草拟
栽培
事例
伸展
不快
感谢您
环路
郁
日益增长
时间@@
空地
深色
贺卡
轧
氨基酸
骨髓
统筹@@
公安厅
生产成本
工党
联大
民主主义
抗菌
扁
又称
防扩散
逛街
语义
架次
沙拉
----
忌@@
撤
月光
司令员
充满活力
本金
斯蒂@@
李晓@@
资金投入
重中之重
争辩
缩影
光灯
秉承
导入
沧@@
废止
精湛
烷
骤@@
旱灾
陈冠希
绿灯
木板
加利福尼亚州
酗酒
闪光
大树
畏惧
纸质
随手
ion@@
面纱
珀@@
来得及
our@@
姿@@
关键时期
一幢
舰艇
喂养
刘嘉玲
千方百计
HIV
共同利益
不敢相信
魁@@
打来
崇尚
保监会
谱@@
不失
现场@@
色泽
水利建设
老外
7.8
前身
起价
路易斯
嘉年华
陷入困境
安县
时尚@@
数十
预算案
挡住
狠狠
专门@@
多层
华谊
零售业
博文
一小部分
肮脏
一无所知
突出@@
播种
友好@@
中广网
缀
少数@@
装机
北斗
统治者
四名
沙龙
性命
抵押@@
第六章
匀
他俩
覆盖面
平均价格
丽娜
换言之
7.1
厦
保健品
洪灾
上层
画像
任免
亚地区
三包
排污
放射@@
杨幂
莱特
阐释
下同
剔除
抢占
The
拉开帷幕
会话
纶
使用寿命
川县
喇叭
点心
短裤
订货
信徒
窄@@
大都市
灾难性
新闻周刊
吼
检查组
二氧化硫
极有
睹
马拉松
飞行@@
亿英镑
走动
主人公
管家
运往
窃
疆@@
经验丰富
B股
航空运输
温哥华
翔@@
一滴
阵阵
哀悼
哩
维持@@
伽@@
啃
GL@@
能干
真皮
英国广播公司
费力
席卷
法定代表
夫妻俩
废气
墓葬
MV
折腾
妇联
斯塔@@
现役
俭@@
源代码
伙@@
抒@@
象是
DS@@
赞比亚
考证
查实
时不时
上下文
基督徒
云集
党代会
宣
122
本年度
宅@@
修缮
牵引
俨然
动议
方形
运载火箭
做点
原产地
发生冲突
货款
澡
径@@
寄托
拿破仑
警队
ial
杭
燥
氯
极好
皇室
饭后
打假
第一代
严重性
决不会
闻到
理科
控诉
常有
窗子
Col@@
仕
NO@@
CDMA
请参阅
联军
周迅
医治
明说
总算
古董
杏@@
肿@@
传授
满脸
联合体
占地面积
奕
毅@@
妥善处理
分布式
婚姻@@
委托人
信函
有偿
抵触
黔@@
陕@@
〈
裸婚
尺@@
愈发
不得已
莫文蔚
吾
第十五条
上下@@
赫斯
骆@@
阶@@
努
就象
水里
塌
忌
类产品
1961
更正
跌停
居住@@
导航系统
倚@@
过夜
要紧
求证
面包@@
倒卖
存入
免疫系统
蓬
圣地
常州
两三@@
治国
阿拉伯@@
真情
临到
输液
惯性
ke
厄瓜多尔
更糟
保持稳定
文库
处决
淫@@
耐用
建交
校内
陡@@
中国区
纯属
各界人士
卫生院
距@@
CH@@
寒冬
过重
接获
怎能
农田水利
飞翔
核试验
ml
立委
上班族
微不足道
民航局
恤
花样
小路
突袭
肚
gov
中环
察看
活儿
愤
可贵
概况
钧
如是说
并行
的士
诊疗
出人意料
李嘉欣
获得成功
偏少
中世纪
不尽
葛
&#124;
BP
Fed
帆@@
微量
楼层
旋律
牧场
肉体
门将
肽
篮板
四项
冶炼
发短信
责任心
附有
静静地
大妈
榆@@
7.3
姬
ue
十条
招录
碑@@
est@@
汗水
供述
绑定
悬浮
防疫
变形金刚
杂交
1955
日方
Cor@@
外电报道
零时
加利
立体@@
着想
实战
最牛
首要任务
未婚
招致
钟头
二十世纪
混合物
绿茶
自如
双边关系
死后
斐@@
几款
一节
要不是
BBC
屏蔽
一步@@
按键
简单@@
开具
6.1
阵雨
并不大
十几个
两军
期末
克鲁@@
风景@@
葵@@
炽@@
发债
古人
PK
评议
焦急
折射出
首脑会议
简陋
ess
告终
乒@@
事业@@
国会议员
犯罪团伙
引人@@
大酒店
AP
若干@@
犯规
竟是
见识
民主党派
一朵
医疗保健
符合国家
社论
终极
扯@@
好奇心
积压
掌管
寺庙
殖民
深思
微调
连结
旷@@
倒霉
默契
总资产
公共财政
宰@@
南区
收缴
怪异
中国人民解放军
台商
拜登
溶
侦查@@
外星人
境况
必要条件
履行职责
林地
顶峰
这一@@
官场
面目
第六届
金矿
调查局
弹簧
有幸
ah
惯@@
投融资
1945
真话
屋内
中全会
德里@@
东城区
溶解
垦
ew@@
女工
难民营
沐浴
冤@@
加倍
财务状况
悬崖
颊
顶端
科技大学
松弛
中共中央政治局
追随
地方@@
放行
混合@@
菲亚特
推进@@
田径
透视
寄给
iPad2
功能区
伊拉克@@
芽@@
格里@@
顺差
书包
非常重视
多头
原件
下线
另行
预备役
教学楼
布尔
友好合作
社会保障部
阅卷
父子
普斯
孝
诡@@
蚊子
特长
高度评价
执着
货币基金
警觉
香港媒体
谐@@
切身利益
安德烈
不振
绵
第一件
取证
世代
一早
第六次
养活
其为
有益于
市场营销
排毒
知名品牌
清白
航空业
申办
多种@@
书本
苍蝇
航空母舰
滤
纵观
坚挺
九条
根据地
大年@@
向外
宽大
阎@@
雷锋
一段@@
曰
管线
彦
贞@@
第三代
外国@@
角膜
旗舰
焕发
忧伤
那辆
学习型
越狱
俗称
十七@@
结石
埠
阿盟
连续性
大王
教皇
构件
罢@@
致以
弓@@
筹款
黄山
国足
大举
往前
ner
稚@@
专属
成功@@
赔偿@@
河里
塔尔
庙会
按计划
跪@@
福利院
创造条件
媒@@
城市居民
强制执行
职工@@
同意书
奥的斯
互联网安全
天然@@
兔@@
崔
迪克
心爱
反向
断言
璇
之战
柏芝
文明@@
ore
理会
英文版
汉王
卸
天真
中国社科院
挥霍
课本
染料
驻扎
轮机
唤起
主导地位
霉
斡旋
半径
效用
请教
泵@@
胞@@
相伴
巴西@@
忍耐
猛增
巨大@@
农贸市场
敲定
邮政@@
残余
大姐
辟谣
缴税
李登辉
托尼
鄂
执行长
洗手
医患
祈求
图画
直属
养育
航海
当当网
126
女士们
摒弃
热度
2016
生活习惯
缅@@
村镇
各式各样
四家
市场秩序
靴子
出众
权法
高强度
For@@
一等
章节
杨某
守护
纤维@@
银联
达尔
纪委书记
前辈
四肢
贝拉
他用
缕
科技成果
筹码
梅花
副厅长
贡@@
秃@@
斯塔
燃煤
城乡建设
滑稽
种植@@
违章
主要@@
吸收@@
游戏机
哥斯达黎加
地税局
并举
首页
备选
市场价
con@@
卡通
优惠@@
ST@@
1971
iOS
李克强
面值
冶金
超级@@
明朗
上证综指
私营企业
菜市场
民政部门
扭
组合@@
中起
刚刚开始
坯
分层
甚么
市镇
权威@@
衬衣
估@@
追查
迭@@
菜肴
写成
公司股票
鑫@@
ace
ath@@
财产@@
战斗@@
研究进展
灯笼
中国工程院
叹息
窃取
液化
警察@@
感官
贵阳市
age
发泄
神经元
而生
私奔
萃
介意
市场供应
年度@@
深交所
篇@@
特约
所有制
交友
买到
班机
117
免疫@@
EL@@
里克
胸前
霆
三峡@@
偷走
庄园
严重后果
换届选举
军营
闪耀
磁盘
切实@@
警钟
拘捕
洗衣
西北地区
再造
创业者
爱护
专项@@
任天堂
越野车
任教
租户
君子
掀@@
马拉@@
副处长
差异化
企鹅
维系
第一轮
拜年
坚硬
琪@@
途经
构架
起因
维度
聘@@
公馆
而至
收视
更进一步
本条
学说
ice
不一
辗转
政坛
发电量
儿科
另一边
厌烦
资本金
兵团
学系
业已
珍藏
舒缓
大运
当庭
电阻
昕
147
游人
水电站
受体
点子
吉林@@
雪地
彩排
卡路里
轮船
循@@
有钱人
愈合
精品@@
亚洲@@
纬
降低成本
想方设法
誉
八卦
昨@@
拉克
现代人
一条@@
交易会
守法
喉咙
仆
ina
身家
怀抱
五环
持枪
可变
推盘
小国
33.@@
口译
32.@@
详@@
上阵
潘石屹
财政支出
矿泉水
期货价格
刚果
预估
上证指数
话剧
起始
典雅
商贩
追寻
溢出
ley
危急
全能
消逝
3600
前台
布鲁@@
当当
汞
图书@@
生产工艺
百思买
暂无
主语
鲍勃
人道主义法
乙肝
改观
体贴
竭@@
鳄鱼
高效率
智能@@
丁俊晖
走入
波浪
一步步
良机
66@@
分店
四点
找寻
分类@@
不容@@
逮@@
多公里
综合利用
MS
停运
特曼
地理@@
碾@@
澳元
转速
周边地区
病症
共青团
获知
480
猴@@
耳机
行之有效
家电@@
裙@@
玛格丽特
匪
多一些
滋
怎@@
凝聚力
接受@@
纯净
并发
集邮
多套
化率
小提琴
豁@@
犯错
两厢
帕萨特
复审
局部地区
并入
绍
发抖
规管
平坦
时间段
下落
人去
提供@@
谦@@
背包
转交
南方@@
上海大众
擅@@
赛前
荣威
平均值
七大
凭着
二十一
总统府
全景
图纸
厅级
马拉
西方人
饮食习惯
一房
所学
科研人员
不可分割
已故
恳@@
专柜
利空
随之而来
公会
每种
Bo@@
印章
互换
园艺
名册
此行
养殖户
寓意
一等奖
关头
定额
勿
家门
获得者
驾驭
预算外
酬
交通安全
志军
余万
吸烟者
递增
NA
7.2
刘女士
获刑
CVT
供货商
俄方
一万@@
职人员
承租人
捉
ter@@
宁市
一派
怀有
唉
单日
背心
怀里
清凉
后备
风景区
电气@@
飞跃
画廊
合理@@
回笼
出版商
禾
勃
CC
决不能
五分之一
孟
一户
喝茶
联系方式
根本利益
敲响
粗略
这为
特尔
公民权利
oh@@
国庆节
监督@@
小贩
进站
倒挂
无用
检控
帽@@
塑性
卫生厅
骆家辉
盾@@
极易
直指
并会
悼念
de
155
幸好
多一点
聪@@
眼影
地问
流水
稿件
风险投资
新星
贝克汉姆
形容词
惨淡
七天
影星
下决心
惯
Gr@@
自救
高级人民法院
起诉书
肝炎
那家
第三者
车企
食谱
领先地位
Lucas
生产厂家
本色
时应
婷婷
化物
不全
妞妞
党风廉政
兄弟姐妹
信息安全
堵住
沿途
仁慈
养猪
特拉@@
脸颊
内政部
车窗
31.@@
人造@@
西南@@
拨付
精髓
敦煌
敲门
国有土地
核证
回馈
品德
清明节
难看
裕
理工学院
视听
封存
袁
牧区
参见
全长
破旧
下半场
溃@@
变性
MO@@
律法
这人
沁@@
欠款
一碗
时有发生
点名
镇静
结成
阳性
无助
略微
在生活中
继续加强
交管部门
超重
烃
巨资
坏消息
张扬
长虹
得多
措辞
格栅
祁@@
总工程师
喻
耻辱
af@@
游说
私隐
2300
课程@@
背离
参股
第二十三条
遗留
名气
学士学位
麦克@@
生姜
上届
埋葬
籽
第十八条
卖点
当心
宁县
螃蟹
脾
工伤
后退
科学化
残骸
青岛市
几条
帆船
各州
垃圾处理
建设银行
佛罗里达州
中国人民@@
解剖
工程质量
钦佩
扎堆
零下
长短
汇编
耗时
行者
哺乳动物
咒
基会
喊道
栅栏
向着
天下@@
碱@@
重演
馨
兴奋剂
勾兑
释
叮@@
担
叔
胁迫
芳香
就业率
雌@@
意大利@@
订婚
动力系统
两层
分之一
第四十@@
承销
千万@@
布伦特
前段时间
征用
慰
日出
外加
缪@@
烧毁
圣诞@@
锚
坚果
菊花
梢
布里
股票@@
碳水化合物
遥控
空域
挨
输给
纯收入
err@@
倒车
五成
技术水平
出头
法网
汽
渣@@
刃
136
千米
一年级
发生率
寒假
预付卡
一辆车
陈晓@@
第十届
踪影
扔@@
明珠
梯度
改性
妍
1964
战斗力
敦
黄海
略显
野兽
衰落
2200
公募
IS
宽阔
说不出
几张
自定义
奖杯
反省
言辞
免于
地用
攻读
封建@@
一顶
名言
TC
事前
生殖@@
每秒
政变
扮
民用航空
问卷调查
蒙牛
干得
宋丹丹
远方
负债表
丈
或多或少
饭馆
中铁
突破口
定时
沉降
第二十五条
交割
党的建设
悬
CT@@
好心
大专
芒
漂浮
派别
欧冠
捅
追尾
越野
南宁市
本该
复牌
副县长
立马
物理学家
朱德
劣势
刀具
反复@@
中间价
厉
对外@@
雄性
不断加强
降雨量
代表作
日间
迷你
颂@@
服务公司
海浪
淋巴@@
消费市场
应予
集团@@
低开
转弯
后门
转折点
豪华版
重度
每户
漂
纹理
成交额
着迷
赞助商
错误@@
每名
脑海
保险杠
牙买加
Lin@@
畏@@
重构
承运人
明显提高
黄油
被子
弹道导弹
夫妻@@
二零零六年
渔
航天器
9.6
山庄
首席@@
奈
瓷砖
克拉克
貌似
赞誉
补偿@@
项目管理
舒
原始@@
方方面面
努力实现
中式
秘
晶晶
之星
单身@@
首钢
分子@@
总的来说
喉
高频
搬运
大巴
名副其实
B2C
配饰
站长
144
创业@@
摇晃
缓冲
三亚市
Fl@@
虔诚
650
空闲
转达
午
成败
画展
柠檬
康乐
车载
广播公司
首例
无故
一来
应收
日夜
并不一定
新加坡@@
皇冠
一百一十
时称
性别@@
技术支持
DS
2800
金黄色
棕@@
烨
光临
有理
兴业银行
科夫
民事诉讼
带队
兆瓦
子弟
邑
张晓@@
压低
理顺
炮轰
谚语
签下
抽签
爱丽丝
138
角落里
供应@@
演技
渥
为重
扛@@
毅力
电解@@
那件事
菁
特色@@
一代人
ee
充满信心
遵从
滕@@
池塘
预选赛
落幕
连锁店
关键字
单据
散文
关停
重庆晨报
抗氧化
奔赴
私有
推手
小肥羊
应考
石块
取而代之
烟囱
几十
布里@@
林斯
过低
加利福尼亚
第十七条
详
Un@@
大屠杀
空气@@
火山@@
骄@@
令人担忧
带宽
137
切实可行
2400
独联体
任志强
聋@@
庄稼
珠宝@@
谋生
轻度
漩涡
目击
梵@@
变化@@
后天
全家人
议定
广电
不法
国家税务总局
横跨
121
伐@@
美化
感性
宏大
航天员
杨洁篪
第二代
驾驶@@
新疆维吾尔自治区
士气
公司业绩
产品线
倒数
两件
世界冠军
镇长
光明@@
权威性
int@@
背诵
急切
借款人
队列
1956
华东@@
转过
辽宁@@
大餐
幽灵
压力@@
经营范围
经营权
蒙德
常规武器
环评
嫖@@
邪
东路
南美
领会
证词
公务车
生死@@
文化节
路子
健康成长
荫
业态
眼线
谦虚
在实践中
荷尔蒙
女排
国际足联
临界
少许
暂缓
病因
改写
两岁
匀@@
新来
贴心
渭@@
拜托
试运行
大堂
第二十六条
天王
卖房
7.4
不均
体能
明代
买票
翟@@
分段
培训@@
拉尔
推动力
布莱克
社交@@
之年
辛格
失事
强震
沙田
敏感@@
六十
纳米@@
兴趣@@
罗马@@
巴拿马
合乎
匿@@
女单
指针
公立
政法委
赖斯
Sy@@
水泥@@
Gl@@
忆@@
攀登
急救@@
最高点
汹涌
承受能力
西藏@@
安居
华南@@
泊
约瑟夫
这些年来
领衔
最高人民检察院
亚伯拉罕
蓄水
投影
渲染
讨好
熬@@
你家
梗@@
农资
飞天
空洞
133
萨拉
张大
交警部门
张开
翩@@
应由
常见@@
自查
ne
ET
民族主义
画画
保障体系
OK
捧@@
适用@@
拌@@
咪
女婿
来华
弟@@
十天
9.8
年老
清淡
达赖
货源
肠胃
有效途径
一大早
汽车行业
劝告
邮品
牛排
便秘
价格比
雷人
掘
拓@@
A380
引诱
笑脸
穿衣
编造
声响
当面
5.9
一般@@
扎克
棍@@
蛮@@
人均收入
屯@@
商议
祭祀
九十
巡航
高处
文体
各级党委
不朽
寂静
耍@@
烧烤
七届
沙子
从政
溶性
多所
起亚
家庭教育
外商
灯泡
上星期
迷恋
售房
经验@@
财产损失
腰部
挤满
134
启程
苏贞昌
在座
卸任
陷于
区域@@
十一@@
彻
母乳
AIG
充分肯定
着火
福田
住房问题
处理厂
斋
粗鲁
美貌
案发后
法拉利
代理@@
武昌
远东
探寻
主营
高速@@
锐减
我军
Corp
行业标准
显眼
垄断@@
布料
韩国@@
质保
魔力
节俭
行动@@
抗日战争
动静
龙卷风
透明@@
摇头
沦@@
华锐
上缴
欺负
捕捞
不多
遥
月间
隔绝
沸腾
批发价
十字架
咖啡馆
PA
毛钱
拘禁
跳槽
晚点
早起
裸体
师范@@
引述
今年春节
高标准
尘埃
67@@
咨询服务
朝向
睁
点球
不感兴趣
诗词
付钱
寡妇
专线
亚硝酸盐
扰@@
花儿
暮@@
东莞市
az@@
无缝
主体@@
移居
干部群众
鸭子
手袋
小汽车
雷克萨斯
该文
音乐家
专家@@
各市
肺部
信箱
竭尽全力
恍@@
闺@@
总督
开张
千万别
国务委员
坏人
经商
交易中心
自杀式
配建
玮@@
陈旧
熟练@@
互联@@
逻辑@@
失明
小行星
举报@@
熬夜
有线电视
保健食品
可口
试飞
维克
减压
第七章
石家庄市
枯竭
合肥市
8.6
受邀
咋
冬雨
颤
万至
房企@@
丰台
飙@@
逼迫
综合症
花旗
市政@@
营利
说些
Michael
无处不在
更何况
公证
回信
冥@@
土壤@@
鹅
一路上
7.6
泻
报告书
弗朗@@
酱@@
痴@@
皮鞋
只想
偿债
199
第十六条
追逃
第五届
未获
镶@@
贫困县
上半场
得出结论
节省@@
赛跑
觉醒
诅咒
烹调
五千
书房
俏江南
高危
注意事项
关联@@
一元
硫
分期
隐性
死因
节制
往后
系列产品
微薄
藏身
停业
陛下
第二十条
鲁能
锚@@
储户
滞销
顶层
双脚
屁
花旗集团
选人
巅峰
联系@@
视网膜
132
老牌
入伍
步兵
ire
迫害
棠
托运
和睦
忘掉
补水
机械化
中所
区长
海洋法
悄悄地
之王
台州
平价
季后赛
掩
谈恋爱
风范
沉思
扛
贺岁
祛@@
私立
每家
邮戳
十六
落到实处
CS@@
协议书
中指
账目
三轮车
四国
帷幕
蝶
很难说
西城
骏@@
代人
偏僻
执
售货员
噩梦
Phone
山体
公营
不善
一桩
DP
西门子
拼搏
尾灯
一脚
补课
轰炸机
自然环境
治堵
谊
那份
溅
无序
并进
特警
第二十一条
大亨
感触
岛内
年长
煤层气
沿用
角质
纸币
铁路@@
离散
提起公诉
排练
猖獗
娱
过半
勿扰
更快
9.7
太平
实践证明
自学
开发人员
时所
知觉
一扇
福德
女装
一票
捷径
检察@@
插件
遍及
指标体系
暗中
for
绝佳
总产量
真实@@
免疫力
热播
形象@@
亿千瓦时
赵某
建起
赤
低水平
奋进
李冰冰
金华
摊款
通行证
电动机
红毯
暴行
缅怀
红楼梦
马其顿
大棚
消费税
普遍@@
盐酸
举行会谈
诈
刻苦
陈志@@
保险金
一匹
远见
高薪
伤痛
下述
理事国
弄清楚
交通管理
增加@@
University
伊朗@@
渊源
协会会长
屋宇
2600
碧
淋
弱势群体
平均工资
低声
保持良好
迫不及待
受惠
三期
核桃
二世
red@@
归功于
怀旧
新开
奏效
小张
不爱
十四
储蓄@@
声望
调集
避难所
加仑
牙医
全人类
UN@@
读取
毛额
东方网
850
纵容
青藏高原
债务人
南水北调
湖人
适于
自决
贡
小王
真菌
德曼
第二十七条
四位
妓女
强生
应得
工商银行
展区
学习成绩
四驱
弧
性生活
万公顷
吸气
致癌
北大@@
孚
颐@@
睛
蕊
造血
育人
诚恳
草药
饭碗
赛特
足球队
勾勒
附表
不带
钢管
世界性
Di@@
昼夜
舞弊
发展潜力
说了算
第一百@@
贸易额
萝@@
交房
趁着
移动@@
蜜月
不免
替补
绿色通道
企稳
剧团
类节目
小巷
互惠
沉闷
井冈山
民主党人
囤积
救生@@
GT@@
四人
第二节
校园@@
奋战
第四十八届
好些
复杂@@
部副
对流
终究
历史学家
举足轻重
宣讲
元宵节
三网
农业银行
临时工
料理
下定决心
酪
饲@@
领空
刁@@
AN
留有
绝不能
故居
纷争
英国首相
救护
太远
追回
历届
雀
非诚
一模一样
黄晓明
殿@@
XML
撬@@
无常
勋章
考虑一下
远比
尘土
本是
公元前
资历
堡垒
诺夫
海归
嵌入
教辅
澄@@
预防措施
诈骗罪
各个领域
情书
酬@@
交涉
捆
根除
辨识
国土局
无误
江河
贯@@
精油
信访@@
交战
尔曼
好不好
附录
无穷
八条
陈家
吉米
家居@@
趋紧
穗@@
咱
重重@@
换个
答辩
男篮
容积率
民族团结
受人
南昌市
查证
应聘者
严肃处理
戏称
倒退
丰满
切勿
助学金
王建@@
避
69@@
科技进步
干吗
诺贝尔@@
无损
舟曲
211
64@@
春秋
联合利华
故事@@
和平部队
男女平等
公路@@
上下班
虹桥
史料
数据处理
中所@@
惬意
缉@@
Mac@@
顽固
清晰@@
亭@@
玫瑰花
妃
喝咖啡
军校
明显@@
圣灵
高等院校
转机
陆上
产业政策
搏
那人
拉伸
委派
吞噬
心底
不俗
涉案人员
婚恋
五岁
检查和
ile
抢修
数千@@
重点项目
百公里
风度
124
地利
女性网
蚊@@
劳资@@
发展局
热带@@
构思
克森
ATM
清查
派系
海豹
融券
吃不@@
1900
游资
母亲节
达沃斯
攻坚
实事
乔丹
包袱
驴@@
羹
口水
所在@@
负增长
转折
大理石
礼堂
Sm@@
印记
有意识
下沉
细小
迭代
辛亥
海岸线
光顾
叛乱
富民
葡萄糖
公职
哮喘
三岁
证明文件
用钱
好感
药监局
攒
禁忌
比利
南路
古希腊
帧
镇定
新世界
饷
万港元
人参
三周
尚武
喧@@
考官
年满
调剂
嚼
1959
顺利进行
强盗
监督员
美国银行
co
许诺
僵尸
感染者
广大@@
仅限于
扮@@
肥皂
浊
入门
两三个
大不@@
万份
1952
周报
筒@@
万张
志强
别处
愈加
传统媒体
世俗
可言
两旁
庙@@
首映
阀@@
起降
读物
瓦解
试探
碰上
不规则
公屋
85@@
玻利维亚
步步
车手
防护@@
吃喝
专程
地站
小费
后裔
社科院
读完
考查
一般而言
抽奖
生产性
天籁
发展壮大
第一场
徐州
他称
大本营
融洽
乡镇@@
该款
真是太
叔@@
牛市
中要
斜坡
辍学
出访
貌@@
顺义
id
广西壮族自治区
马吕斯
加名
赣@@
LV
对峙
合成@@
展台
皮特
Me@@
严查
风扇
涉外
虚伪
庐@@
达州
积聚
爵夫人
问政
格雷@@
迭
稳重
猎物
毁掉
开裂
收割
浮现
兰德
打理
攀
粮油
一千
蓝光
惶@@
征得
顺利完成
成语
餐厨
征兆
并不需要
逍@@
HO@@
理发@@
范儿
主因
拳击
国务院办公厅
韧性
木质
聋
资产阶级
无限期
矢@@
用不着
眷@@
推销员
接通
社会治安
磁带
贴着
第二十四条
新民晚报
徵@@
层次@@
迹@@
充满@@
伟人
注水
岭@@
回想
上访
讲台
瞭望
踪
一对一
稽@@
贵宾
认罪
墨水
万能
版权@@
憧憬
手掌
拳头
挠
迫于
局级
禁用
好不容易
先天
贵金属
劣质
抵抗力
技师
演戏
土地储备
保佑
旷野
浸
警员
赢利
外貌
贩@@
固化
力拓
公牛
凝胶
耗尽
栋@@
次要
完后
75@@
威士忌
ment
十字路口
椒@@
持刀
使劲
不良贷款
海马
一小@@
A3
补助金
新德里
双层
招商引资
独资
安全检查
塞人
百万元
打仗
刑拘
限电
萨尔
微粒
弟子
痘
清代
庆幸
15000
话费
静电
定下
保人
双臂
朴实
墨尔本
稀有
钉子
橄榄@@
女明星
Ab@@
勾结
162
毫不犹豫
栅
攒@@
夫斯基
统计@@
无从
二维
证交所
8.2
意见@@
送入
丑陋
民心
排雷
娥
就业@@
想一想
自然人
老式
听话
阿布哈兹
腐烂
酿造
排球
心事
七一
孙俪
志刚
蔽@@
核反应堆
幽默感
沉船
总成
椎@@
美国国务院
ure
联合声明
跳动
IA
中央政治局常委
之用
农副产品
开立
逛@@
档案@@
海关总署
总产值
弊
观光@@
推算
违建
公诉人
要钱
每克
不着
好心人
健身房
素材
献身
休闲@@
乎@@
保有量
巾@@
泰山
工业园区
下级
1948
智库
复仇
煎
新手
市场部
蓝皮书
重整
整容
敬业
吃晚饭
绊@@
一点@@
太晚
省公安厅
多米
零售价格
特高压
III
居留
相传
药品监督管理局
可为
158
谢谢您
因公
铲@@
八十
脸谱
km
本周一
黄蜂
拍卖@@
困局
届@@
采购@@
散户
谈判@@
煲
记录@@
经查
公道
他来
荧屏
乾
终端@@
端午
堕胎
整形
赛义夫
这回
噱头
yn@@
墨镜
关照
43@@
居住区
东电
东城
介于
十分之一
发疯
发式
眼皮
高考@@
人民大会堂
三口
维护@@
铃木
覆盖@@
罕@@
德勒
建筑业
挫败
顺德
高明
堵车
岌@@
领事馆
姆斯
爆炸事件
时时
微风
抗争
设计者
心存
应从
高洪波
前门
尤为重要
坦承
官邸
锣@@
男童
复核
甚远
质押
跟不上
号牌
120@@
发脾气
咳
但据
咽@@
驳
主题公园
族群
吞吐量
iPod
斯科@@
舍不得
股份公司
湖北@@
平滑
一宗
马尼拉
提前@@
各个环节
缓存
中国香港
芹
皮带
以上学历
思潮
原子@@
CR
最低水平
口服
ith
风靡
弘
永生
适中
落马
械
火箭队
不靠
选择@@
头晕
主页
账面
趋
罗德
稀
奸
弃权
多部
统计调查
幸运@@
富翁
呵呵
解决@@
结余
1965
参谋长
时效
腺癌
碰巧
拉尼
菊@@
该是
营养素
1951
句型
临时@@
该处
物业费
脱硫
之风
功能性
高产
僧@@
老区
佛山市
化身
社会效益
直航
隔离@@
乖@@
洗手间
谍@@
开展@@
琢磨
固执
基因组
不懈努力
大同
破案
看得见
外婆
得起
单是
现代农业
清真寺
太贵
吕
十九
抢夺
胜者
抗击
军演
高发
示意
轩@@
第三期
售楼
北韩
恼
无能为力
新村
低落
时能
不离
民生问题
援疆
订金
屡次
é
年货
ance
纵
长远@@
萨拉热窝
蒜
清扫
加拿@@
仇敌
域@@
今年夏天
命中
应邀
本事
靓丽
四环
内罗毕
有害物质
欠发达
一任
合格@@
附中
动力@@
料到
反之
舵
关机
多时
霞@@
0.25
场外
领馆
严寒
合办
7.7
逗
疲弱
139
无家可归
梅西
抢走
诉讼@@
蕴含
我该
购进
火鸡
威廉姆斯
出厂
共和
情结
那名
ation@@
媚@@
花纹
不良影响
业务员
成绩单
单项
青山
叙事
采样
8.7
绳索
桐
水泵
房里
气势
送货
上床
一盒
诊治
USB
极强
直面
大河网
时至今日
溺@@
麻木
跟前
衣柜
德利
末端
紧随其后
平面@@
踊跃
技术标准
敌意
香港大学
恕
看房
渡过
采摘
欧洲联盟
打人
不需
三元
大满贯
一瞬间
公选
拎
写字
位子
工商管理
慌
壹
缺钱
得罪
地标
航站楼
并非如此
件事
望去
矿床
用具
ook
各处
安卓
大喊
搏@@
在京举行
邱
深造
很感兴趣
判处死刑
湿润
分给
斤@@
学生家长
给定
之物
银子
里人
上赛季
纳粹
油污
中下游
大洋网
罗斯福
亲朋好友
懂事
副司长
猩猩
ex
正版
斯克
迈阿密
神经系统
丰盛
乍@@
集中精力
等同于
五名
表面@@
浮躁
跳出
喘@@
帐单
事业部
黄昏
凉爽
偏偏
药材
惊恐
卫队
若有
堆放
讨价还价
衍生品
摩尔
酒瓶
新品种
长辈
鲜血
取款
有位
报名@@
咖啡因
MP@@
配套@@
工作站
税收@@
巴里
联名
接电话
沂@@
两头
竞
晴朗
喝一杯
巡回
修好
MPV
屈服
囤@@
海军陆战队
三角形
失灵
雅阁
契
对话框
129
关岛
却说
稻草
滚滚
福利@@
漠@@
免费@@
入院
三板
再次发生
润滑
洗礼
2700
三十日
根本无法
可望
寄宿
迎战
上千
出厂价
一年期
庭院
脱水
接见
故意@@
温总理
枫@@
计时
贿@@
地震@@
日语
末期
7.9
减至
一岁
提车
黑板
秤
两辆
哈弗
CL@@
第一夫人
XX@@
收录
录得
中外合作
凶猛
运载
冉@@
经济总量
型车
质问
刑侦
犯有
中药材
家用电器
方便@@
贸易法
本山
这栋
具特色
河谷
满怀
改名
无证
紧密结合
首富
军火
霄@@
斯蒂芬
法新
主宰
定居点
良知
刘晓@@
多钱
很差
奖章
委员长
508
ML
广为
根深蒂固
洋品牌
放电
争斗
这有
谜@@
开火
芝麻
瑾
役@@
复合@@
十日
社会秩序
1968
积极支持
上要
心肌@@
膝@@
甲状腺
浆@@
随机@@
身体状况
辐射@@
陈晓
过滤器
第一百
贝克
一夜之间
911
检查站
深知
配料
买主
财政厅
旅行者
编排
风向标
数以千计
拉近
国家体育总局
收成
数百名
登台
香港特区政府
雪上加霜
万年
倡@@
内分泌
余元
连胜
绝缘
救命
方位
皓
本章
慈善@@
绣@@
她家
真假
支柱产业
are
亚特兰大
Bro@@
悬殊
贪污@@
新闻记者
全城
废旧
糕
积金
正常化
威慑
驻军
引致
127
射门
165
网络媒体
慈爱
大吃一惊
影后
审定
合营
菱@@
外墙
霍华德
滩@@
科医生
轻而易举
奕@@
曾一度
优酷
倍感
获释
五矿
代购
柔性
借着
攻关
通过@@
主播
皮肤@@
数据中心
有多@@
一空
毕
蓄意
保温
交接
农机
湾@@
查韦斯
热切
服务平台
难求
宜昌
二年级
服务项目
深刻@@
1963
消息@@
不成@@
坦率
经贸关系
相互尊重
宴@@
DI
俄语
族自治州
线上
熄灭
西班牙@@
阳澄湖
到手
格雷
粪
胜地
估量
散发出
摆设
女婴
接触@@
而过
李阳
收藏家
心血
世界排名
衷心@@
五星
慕
差错
促进会
消遣
觅
第二种
达赖喇嘛
荧@@
里昂
共同点
徽@@
显著@@
保镖
不经意
受灾@@
床位
相当@@
千龙网
记下
度量
有如
骇@@
交通银行
学生会
杨澜
小巧
辟
打消
瞎@@
12.5
上证
有点像
转递
日为
繁琐
器械
容貌
牙膏
基本原理
团圆
区位
污泥
日系
主旋律
增高
严格遵守
限贷
飞快
指称
纤维素
盼@@
尽全力
公平正义
第二十九条
裴@@
少年儿童
把门
低空
隙
第一期
中学@@
子里
极地
空虚
汇市
讲课
雌性
谈不上
丰台区
想必
刊发
稍稍
查清
联动机制
哀
ers@@
尼日尔
选房
幼儿@@
大屏幕
小腿
中等职业
家协会
港岛
一例
充分认识
大成
公平竞争
美式
酒会
世卫
铁路运输
富于
出海
北京地铁
春运期间
吉尔吉斯斯坦
1958
零点
中央纪委
冯绍峰
边界@@
鹅@@
西侧
上个世纪
就行
ica
AB@@
报告会
6.9
合格率
认捐
通俗
巍
太阳系
笼子
中共党员
战事
那件
眉毛
电力系统
杰出@@
每天晚上
德里
打击@@
不间断
标配
专制
张杰
揉
Par@@
小米
安东尼
剩女
肉制品
雍@@
斯大林
质监局
理工
里约热内卢
地主
守候
习近平
药家鑫
分隔
羞辱
5500
台办
中山大学
多晶硅
萤@@
保单
95@@
路易@@
狐@@
零星
综合体
蒙特@@
居住证
钓@@
打量
夏普
真想
一世
外汇市场
育种
明显增加
趁机
名誉@@
开个
宠物@@
滑动
霸气
ive
鄱阳湖
历史悠久
we@@
领土完整
连环
花样@@
居于
纤
Ge@@
交锋
扼杀
升学
嫦娥
海波
琐事
武装力量
言行
基层干部
发展势头
灵敏
互通
贡献@@
倩@@
出钱
杨善洲
扣留
路况
偿付
受挫
励
消防员
噪
致意
个体@@
所在单位
专业性
欢快
交错
往前走
懊@@
挑起
迟缓
田地
更显
面容
机长
具体措施
有否
GA
再创
冠名
支教
DA@@
德州
酸钠
式样
理想@@
受雇
门窗
儒
远期
点亮
阴道
春节@@
离奇
情报局
一站式
高耗能
煤油
最贵
经社理事会
创投
畜牧业
相貌
臻
德语
其所
两队
半年报
辩称
净流入
阴暗
帅@@
公平@@
肖像
面谈
正确性
访者
盯@@
不言而喻
曦
所行
那双
灭亡
物力
红色旅游
静下来
运动型
寓@@
多渠道
系统工程
亨
然无@@
党和人民
PM@@
8.9
冶
颜料
足额
驱动器
学分
深入人心
散落
咸
新鲜@@
治安管理
外滩
数周
拉斯@@
六日
两条@@
中国社会科学院
见面会
共存
感悟
效果图
两者之间
流露出
毋庸置疑
小额贷款
廉署
堰
碟@@
时日
不及格
稳定物价
癌@@
琳娜
十五条
出口国
房地产商
那本书
医疗保障
ick@@
五项
育儿
高新
大连@@
明晰
之名
电池@@
保修
访客
质监
梭@@
自然而然
克里
摇摆
杂质
硬度
率为
洗衣@@
牵动
提高@@
购买者
褒@@
绕过
飞速发展
过硬
绮
质量标准
财政资金
塌@@
氧化物
man@@
翰
萃取
短裙
整数
银行存款
亚洲地区
整套
340
处女@@
创性
而今
N1
弱化
字头
对本
霍乱
拓
技术改造
各不相同
权衡
再者
来京
纳米比亚
头盔
区域合作
月经
四日
调整@@
铲除
用房
德班
舒淇
五十年
三者
枯燥
高层@@
侨胞
Pad
体育局
飙
韩寒
第一节
和尚
正当@@
告上
通货膨胀率
巴塞罗那
酒驾
库存量
镇江
短短的
曾荫权
价值@@
无可
轮子
7500
剪辑
得上
寨@@
多彩
商圈
市场准入
交易平台
刘海
豪车
颁@@
佩斯
南县
新闻稿
舒适型
本世纪
转变成
第三节
指导思想
继续下去
缆
常任理事
列车@@
淫秽
比亚
近海
接头
恶意@@
光棍节
温情
家电网
总统大选
集成电路
牛津
几千年
缤纷
一连
副手
这组
新婚
狭小
EA
在世
天涯
这架
欠薪
老汉
海洛因
北川
芹菜
反差
该类
相匹配
火烧
混杂
二元
卒
居所
各派
农村居民
脚踝
不知所措
后备@@
建设@@
斑点
Ca@@
播放器
区政府
何等
林区
新式
8.3
加装
明显改善
长老
西路
歪
星际
居民身份证
辅导员
王亚@@
外资银行
归于
文盲
心疼
拼接
中东@@
哼
烤鸭
钟表
全军
李亚鹏
顾问@@
深渊
才行
励志
不大可能
娄@@
法宝
拇指
一两年
自民党
能源价格
撕裂
交大
摇篮
级车
关键环节
Gre@@
喻@@
风云@@
焕@@
传统节日
撞倒
课时
8.4
不得@@
突如其来
扫除
两位数
动身
颠@@
设区
视频@@
精彩@@
肇事者
本刊
接吻
周边@@
CF@@
黄牛
含糊
库克
供选择
不妥
机舱
檀@@
虾@@
总有一天
巴德
说到底
详情请
大叔
分析家
东县
戴安娜
榨@@
出产
赶走
文风
一汽大众
看做
辟@@
持卡人
野餐
wor@@
几项
选派
村落
非但
凝固
自助@@
相聚
暗淡
扒@@
徒步
投资收益
纸条
痊愈
胞
一中
全盘
甜点
葱@@
心动
成功率
原副
纳州
思域
斧@@
介绍@@
战时
为数不多
QDII
对决
百货@@
认真学习
人权@@
哈尔
大暴雨
1962
驾驶证
哎
拼写
毕业典礼
发行人
输血
媲美
心得
HT@@
厦门市
冠军@@
苏尔特
炼厂
富春山
早上好
相位
林青霞
接班人
三代
专长
两面
酒业
中转
不约而同
虐
高等法院
外企
大河
恶性循环
共产党人
阵风
桂冠
筹办
驾驶者
橱窗
刘少奇
现房
母婴
林木
短板
还清
小组赛
大陆@@
清朝
富强
销路
载入
失恋
集训
大气@@
眼界
申明
校服
皖@@
独生子女
减去
性格@@
普森
侵权行为
居住地
海关@@
教学质量
马桶
养费
严重@@
何必
复活节
血流
视点
啤@@
经销
得体
生命安全
超声波
嗡@@
绿色@@
清洁@@
加码
关节炎
依存
千亿
暧昧
迫在眉睫
混沌
9.1
生产国
巷@@
何不
遂@@
重生
留学人员
尽显
判决书
燥@@
大大降低
小猫
无礼
安全措施
不得而知
重要途径
人才队伍
嗓子
Ed@@
哟
共度
黄淮
下山
版面
肆虐
棺材
两口
冒犯
畏
一包
短文
英俊
成瘾
倒入
初步@@
红火
质询
㈡
寒风
把戏
秒杀
乘务员
亚足联
伊朗核
光子
海区
中组部
大大增加
陕北
148
银川市
飞越
领导层
竞相
擦拭
政治委员
武警@@
习惯@@
霍尔
几近
三厢
公厕
海军@@
派发
葫芦
烫@@
烟花爆竹
尽量避免
每张
高中@@
上岸
樱桃
自强
性情
史无前例
佛罗里达
莉莉
困难群众
膛
海平面
家里人
悖@@
倒计时
全体@@
省城
沸沸扬扬
平均年龄
辖下
Cit@@
战略伙伴
暨@@
栩@@
值得@@
长子
隋@@
钢铁企业
邀请@@
中央社
工期
万圣节
年青
政界
生意@@
安放
打赌
举报人
人民代表大会常务委员会
奖品
工业生产
一纸
G20
扫描@@
伺@@
下岗
常人
投案自首
资料@@
T台
缴款
联社
过长
慰@@
五种
淫
87@@
仍为
婚变
第二名
收听
即将来临
卫士
超高
云南@@
巴沙尔
篇幅
停战
单打
停泊
美感
通关
针织
公益活动
妥善解决
从轻
第二次世界大战
152
难堪
加拉
尧
例证
陵园
佩服
冥想
浴缸
先期
张学@@
要约
北爱尔兰
中央人民政府
历任
劲儿
学好
游离
实拍
人保
体育锻炼
讽
第二十二条
ect
联利
八十年代
有形
墙体
oo
罐头
占款
持仓
生产日期
上当
一家@@
韩国政府
倍增
卓
鳞@@
防御@@
手机用户
西雅图
拨通
万事@@
徐某
才智
重温
眶
贪腐
整机
塞内加尔
周某
祈福
亦庄
丧
自主权
发行股票
Win@@
诚然
重大项目
武汉大学
趴在
林业局
窘境
法定@@
合规
留心
销往
两轮
1957
9.2
个头
监察局
惧
迷茫
因应
山洪
小康
慕尼黑
Mon@@
战略目标
香山
冤
夕
寂
碱性
喷射
PLC
一章
工商联
人格@@
复旦
大白菜
行贿@@
不知@@
数万
劫匪
小店
不远处
实用新型
手稿
气压
唐山
不在少数
痛心
提成
迅猛发展
教士
宫城县
上交
李敖
圣诞树
om
展馆
娱乐场所
跟帖
销售员
除夕
圈内
加工厂
ht@@
修剪
滋养
万维
壁纸
可想而知
滕
外语@@
精神文明
排行
所幸
肝癌
萨达姆
群众反映
九二
全科
缩写
未果
层级
突破性
拖车
迷路
电车
诱因
往日
家庭作业
南山
pl@@
今夏
中为
有损
贯通
巴赫
国营
竞拍
府@@
89@@
腻
抛开
尹
之苦
醇@@
牵涉
凡事
鞠躬
国泰君安
源源不断
真伪
比拟
学士
消退
停靠
得手
果树
US@@
裸露
路桥
洋洋
紧凑型
抚
受托人
财政年度
践踏
预付
成才
保健@@
小雪
齐白石
铃@@
昏
合同法
悉数
很久
嘎@@
养猪@@
年龄@@
学习者
付清
营养成分
巴斯
神秘@@
康熙
移动电话
发起人
任务@@
盎司
表层
照着
深沉
辩护人
努力学习
A1
措
母子
厂区
最低@@
潜意识
青春@@
表中
顺从
即便如此
同台
海量
雷雨
Ver@@
雨林
罪人
高超
允@@
受旱
诺贝尔奖
特制
招办
迦
血性
巴尔
赛区
推到
演变成
ETF
6500
Pol@@
封顶
把头
工商户
满面
殿堂
离场
光明网
美国公司
咏
hk
之机
常说
国立
产品销售
默默地
经贸@@
华龙网
缝隙
华盛顿@@
统计学
艺术团
吸血鬼
将领
水利工程
报答
Morgan
退缩
医务
账款
全款
偏紧
中南部
偷窃
高油价
人居
省纪委
法兰@@
主旨
饮食@@
英语口语
三四@@
纺织@@
文斯
组分
胜利@@
轮候
死神
转战
进口商
ou
析@@
愈来愈
威斯@@
太少
挥舞
代为
爱立信
几小时
公子
捐给
业者
冲着
环境卫生
靓@@
标人
巩@@
出版业
限制性
官僚
咒@@
作出贡献
蹭
血腥
兴旺
放款
清澈
嵌@@
Gal@@
个人住房
借机
国界
储藏
排污@@
袭击者
表征
化为
大佬
斧
重病
催
聘任
十二条
菇
恼火
玩忽职守
内核
赐@@
国际事务
臣@@
七十
强加
汕@@
人人@@
不入
泄密
一谈
民办@@
架上
助攻
荒漠化
家政
安全事件
炒股
秦皇岛
20000
谍
舞蹈@@
可比
美国财政部
姑
嚣@@
闸@@
科维奇
幸存
成绩@@
精装
热词
剂@@
王小@@
上瘾
福林
打碎
菲利普
馅
闹剧
表现形式
麻醉药品
香槟
百亿
敌军
力所能及
促进作用
出线
始终@@
aw@@
仰望
安全区
世纪末
份子
院内
据报
居图
杀人@@
尖端
萎@@
值钱
滑冰
普通高校
规范性
打拼
联考
重负
插座
水利部
劳累
巡演
北路
张朝阳
阴阳
许多年
雅思
建中
升幅
官僚@@
枕@@
揭幕
盟国
玩得
办公桌
扩大内需
家具@@
新作
计数
此轮
荷载
按期
刷牙
警戒线
读过
侵略者
185
心理咨询
篷
双人
道义
损害赔偿
可持续性
维他命
股息
档期
亚锦赛
仅靠
煤化工
管辖权
产权@@
好于
发布@@
枕
他妈的
幸福@@
波长
固体废物
升华
林中
履行@@
最低点
不争
园林@@
风声
系统地
骨架
开户
欢迎@@
诉诸
离任
公章
珥
蔑
毫无意义
边境地区
还债
血管@@
西单
招商银行
栖
感到@@
南沙
宜居
火腿
唐代
金发
置评
油炸
大哭
南通
意料@@
反导
低收入者
记入
进门
精确@@
科学性
纷纷表示
笨@@
供求关系
厅@@
送回
饿@@
手机号码
过冬
试验区
圣地亚哥
平房
考题
帅哥
癌细胞
下雪
写真
166
羞愧
绵羊
花瓣
宁波市
鲜有
物价部门
南极洲
李家
梦中
殉@@
森林@@
装船
发展史
黄光裕
阵列
获得@@
虫子
转换成
城中村
两分钟
信息时报
全套
底座
◎
奥尔@@
ep
蒙古国
178
医疗器械
蒂姆
滤波器
包包
国库
买不到
探险@@
中心区
皮埃尔
如是
在读
排名第
暴力事件
雨润
小型@@
书记处
9.4
恶人
编辑@@
互
喜剧@@
染上
恶搞
抓住@@
蟹@@
从业者
工商总局
冉
空头
更让人
1969
蓬勃
听觉
不遗余力
扇门
牵连
厌
三角洲
清偿
平整
总厂
五花八门
少将
冬日
发言权
孩童
优选
正经
优秀人才
窃贼
钢笔
试用期
香肠
出口额
莫斯
群众利益
这群
魔术师
灌输
榨
本季
缆@@
厢@@
第一种
垮@@
儿童节
缺氧
表皮
风速
守卫
蝙蝠
反对者
闻名@@
移民@@
郑重
临时性
狗狗
原装
崖
显露
李明
CNN
520
节约@@
密切联系
何方
保有
我敢
ok@@
一文
157
脱离@@
钢铁行业
分拆
赃款
莫名其妙
裂变
赶回
洛夫
第二十八条
注射液
王星
劝阻
法国巴黎
不舍
西尔
创造@@
校外
浓缩@@
绍兴
下水道
王志@@
车次
中华人民共和国@@
有太多
咀嚼
两台
两艘
水军
不切实际
VS
耐力
存折
获赠
丽江
密钥
菜篮子
闹钟
续约
元帅
百万富翁
耕种
吓坏
明确指出
百合
173
非常明显
躁
妥当
调理
收入水平
响亮
挥
142
金融公司
极化
变频空调
接任
敬请
善待
小组@@
冉阿让
腾出
㈠
余震
馅饼
一改
AI@@
不耐烦
房款
贩
上海市@@
荔@@
炼油厂
宋祖英
非常适合
食物中毒
为啥
东道主
增长幅度
中高级
领巾
新兵
洋房
行政诉讼
飞过
洗脸
义乌
耽搁
达斯
特别强调
那会
前年
转化成
狩猎
蕴藏
转子
扒
艳丽
建筑材料
ex@@
易建联
kW
op
纬@@
造纸
光照
身心健康
荫@@
课文
升级@@
各种@@
焚@@
晓明
盛世
东芝
出汗
过日子
轻质
预后
抱负
器皿
玛丽@@
鸟巢
所称
课税
疯子
便利@@
驻华大使
初三
自治县
法制晚报
该报
缺损
生育率
交互@@
坟
本行政区域
谢娜
考入
跨度
供图
坊间
势在必行
执法检查
照相
专责
立案侦查
狡猾
公务机
税额
尼尔
上身
操场
劳工@@
在校生
湄公河
中英文
防火墙
里根
戏剧@@
短发
发证
人则
围攻
特派团
逐
应运而生
达尔富尔
底特律
卡尔@@
想来
豪华车
李明博
ler
2030
服务商
日益@@
这要
已过
人物@@
几内亚
中国外交部
教员
银牌
跳楼
南下
两支
统统
掠夺
自力更生
卢布
竖起
好几年
山姆
靓
贴身
搜
聚在一起
药性
啦@@
\
ett@@
早先
车顶
室友
乌兹别克斯坦
惋惜
没人@@
北青网
一女
一概
资格@@
退票
ros@@
父母亲
欧文
两度
万千
招来
社工
自此
崎@@
限行
相约
新意
itt@@
十岁
通缉
拖拉机
抽调
光碟
专利申请
预想
于求
相较
本意
哪些@@
霉@@
苏拉塔
同情心
源性
扮演着
一遇
无一@@
凯蒂
激
砌
史诗
西服
凄@@
震中
戚@@
手提@@
乳腺
成都@@
暇
建于
高速路
打黑
两房
优先权
这则
冷藏
万条
曹操
漫游
弄清
誉@@
每一件
生物学家
切成
老人家
DE@@
气泡
弗里
端口
腌@@
彪
考试院
发球
喝点
生命周期
乞@@
净利
79@@
总编辑
首部
浪漫@@
四届
恐怖@@
封堵
科室
全面实施
配制
各行各业
勋@@
醒过来
大三
林丹
贸易逆差
一片@@
极其重要
税收政策
如愿
泰达
侥幸
雅加达
市场监管
定理
点滴
领养
油墨
疫
酵@@
另一只
投掷
洪都拉斯
信息产业
台独
汽车业
纽约商品交易所
流浪@@
各路
坠入
持久@@
邮轮
结核病
垃圾桶
摆动
充沛
风电场
畜牧
优良传统
白云@@
雨天
北京师范大学
不计
百胜
交管局
超速
曾于
42.@@
征程
国资
伤人
编者按
老将
新型农村
骋
公映
驼@@
愿景
非官方
征管
贬@@
42@@
随时随地
海南@@
滤波
深化改革
兼具
俊杰
甄@@
掉下来
大额
不同寻常
动态@@
龙门
高精度
少儿
抓起
顶上
高压@@
近视
原产
工业协会
事变
大大小小
缺乏@@
跃进
装潢
减负
布鲁斯
一整套
交换@@
施救
面世
交易额
小型车
TA
满分
加长
客源
丫@@
地平线
车险
所作所为
职业培训
光是
识别@@
休斯敦
一至
反应@@
姗@@
煤炭资源
发愁
广大群众
每件
发车
公开信
中路
ME@@
中奖
挂职
硫酸
水肿
海参
文学奖
雁
q@@
娜塔@@
夜空
拉长
外包装
隐喻
部族
发出通知
应用软件
多件
la
依法行政
扶手
素有
拌
战火
凿@@
头像
乔纳森
溺水
立陶宛
苔丝
之以@@
钻进
兰花
天黑
飞利浦
苏区
栏杆
出乎意料
速腾
宝钢
成就感
蝎@@
涪@@
僵硬
克利@@
民企
南美洲
勒索
约翰@@
清网
调任
坛@@
超强
响声
雷电
大体上
色彩@@
阻断
有线
int
掠
早教
市价
钢琴@@
酿酒
正当竞争
社区卫生
辩护律师
漏水
累累
导购
不问
前言
刑警
抄底
笼@@
寝室
毕加索
iss@@
不见@@
人民银行
自费
普拉
颠簸
As@@
156
自闭症
计税
大手笔
更有@@
要命
吴某
中共中央@@
挥手
黯@@
日化
信道
记者@@
非常简单
芒@@
Ass@@
重担
联检
孕期
点点
实情
新进展
沙漠化
旦@@
附着
译者
上风
枯
绳@@
第三位
中宣部
联系人
怨恨
写照
屯门
祺
较少
州政府
城内
啸
再次出现
ash
182
博得
膜炎
SE@@
分部
Comm@@
123@@
倾诉
班次
一阵子
自治州
长线
文革
传染性
当红
取样
驶入
毛发
成长性
夜总会
线下
各式
呵
参赛者
假币
好极了
生产资料
河区
第三十条
造访
大到
柱子
喧嚣
86@@
丈@@
伍德
ort
连忙
脚趾
明信片
同名
喋@@
机关@@
作案@@
以示
支部
越南@@
嗅觉
历次
不明朗
无障碍
总要
第二百
议院
俗话说
交朋友
厄
呼喊
更佳
淘
阿里@@
觅@@
143
剑桥
满载
163
灌木
所持
一地
二零零四年
迟钝
西安@@
龙虾
大程度
海信
广受
传单
住院@@
粘贴
V6
克莱
SA
合照
句号
篡改
ra
遣@@
ana
独立自主
首期
离谱
小家伙
行性
收窄
得当
307
黛
严肃查处
比特
打字
大唐
印第安人
城际
情妇
讯问
沉寂
两处
贵重
反倾销税
日照
殡仪馆
制图
乌龟
人口老龄化
遍地
吃亏
马尔
弄虚作假
存贷款
早些
百家
亿日元
超人
薄弱环节
轻视
轻盈
国门
必有
装饰@@
资源整合
大院
宰
搏斗
镑
我必
使用率
复试
东侧
木地板
品牌形象
Nm
信奉
奄@@
TC@@
国家博物馆
移除
过路费
失窃
复方
口腔@@
二零零@@
第三天
欧亚
泼
布斯
孵化
骨灰
勤劳
加盖
不难看出
许许多多
罗纳尔多
漆黑
普拉@@
大腕
方舟子
分批
节能@@
淹
无能
砍伐
无益
广东省委
风口浪尖
潜入
山西@@
本月底
翠
IF@@
揪@@
食用@@
正以
自信心
解放思想
搁浅
分居
周年纪念
李宁
主力军
感谢@@
宋庆龄
大炮
188
推选
向量
芒果
曲面
罕
一击
混蛋
初恋
萨姆
八一
自负
全队
踪迹
干练
身份@@
犯错误
警务@@
拉斯维加斯
还称
夺目
周密
紧紧围绕
底气
砷
无畏
明星@@
HP
破门
精打@@
伊尔
为人@@
价差
Wh@@
咯
蔡依林
狭隘
夯实
药房
泳池
ly
枢@@
耘
就绪
诬@@
改革方案
蒸气
AR
杀菌
酿
植树
瑞克
龟@@
盘旋
避孕
巴巴
兜
格力
京津
餐桌上
起家
概要
放纵
万立方米
须知
危险@@
导出
代名词
沼@@
联合国总部
摄入量
总裁兼
其他@@
墨西哥湾
瑞士@@
惊吓
中兴
数百
est
发怒
观察@@
抚摸
伤痕
近十年
国境
郭美美
无现
缴存
酵母
肥胖@@
浇
兄弟@@
母鸡
连贯
产品设计
车尾
田园
乘机
相隔
泌@@
报告@@
盗窃@@
香港特区
HK
海绵
录取@@
地产商
撒上
感情@@
忏悔
妈@@
全权
成功经验
沛@@
拉里
拉大
三一
美债
东北亚
作秀
飞去
工作日内
论者
在讲话中
听懂
文学作品
涨跌
商船
汶@@
外部环境
处所
烯@@
下个
咄@@
同伙
张德@@
大马士革
出生@@
霾
惊醒
选择权
列明
上马
人马
冲浪
旅游景点
中小学校
财务管理
凝结
艳照
畸@@
上楼
用尽
叛逆
食者
小儿子
鞭炮
交换意见
乘飞机
加斯
周边国家
破坏@@
日光
殊荣
集体土地
DA
大部地区
420
举个
两样
医科大学
集中度
住址
地貌
埋单
赠与
数码相机
电子设备
败坏
出狱
戏曲
心协力
光大银行
情境
澜
台资
看护
入口处
产区
承保
咋@@
甲醇
转过身
工商时报
之谜
杨先生
特种部队
活化
深表
斯科特
希德
答覆
醋@@
毛细@@
六届
哪种
当着
所提
万平方公里
th
巴克
句意
水土流失
黄奇帆
新闻办
价格调整
油门
蒂娜
租借
富国
奖赏
魔兽
紧邻
瑶@@
Don
煤炭企业
梧@@
元到
葆
党的@@
David
本地人
分析法
马达
牧业
脊柱
轻柔
沼泽
挚@@
夕@@
情趣
大势所趋
紫金
RS
昌市
教师节
荒凉
淤@@
工业区
放手
精力充沛
小微
监察部
226
声援
初审
网路
泉州
算不上
亚太区
达西
机械设备
省略
锂
居前
买卖双方
痛哭
茱@@
信贷政策
驴友
家装
拍卖行
乳液
保护法
不折不扣
考试成绩
后视镜
陈女士
鸽
隶属
献出
153
货量
ung
鲸鱼
住房贷款
穿透
节目@@
为题
毯子
ada
巨
险情
一块儿
纪检
潜水@@
歼@@
宽广
硬朗
里奥
1966
民居
油品
行踪
试驾
称得上
GS
闵@@
检验@@
稳定增长
肢@@
由衷
汽车公司
课外@@
生命财产
cm
卷发
后勤@@
精神状态
大韩民国
大头
访美
燕子
ier
餐饮业
拷贝
不断创新
OP@@
比拼
二字
异味
Ind@@
希腊@@
内脏
痴迷
小林
徒弟
片酬
素食
嗓音
新车型
76@@
羁押
奶制品
年轻@@
一粒
淡出
特罗斯
法典
躺@@
领跑
经济委员会
丙烯@@
叫醒
烯
当属
端的
惟有
那块
湘江
百分之百
热烈欢迎
左右@@
讲师
护栏
戏份
屡
海通
国政府
ef@@
坏习惯
数日
两端
亿多元
水龙头
抗衡
栖息地
坎坷
发行@@
公车私用
erv@@
臭氧
催促
速器
大戏
9.3
鲜明对比
ence
技术手段
欢笑
橄榄油
大洲
揭发
可不可以
班里
可喜
很深
主动性
几句话
半月谈
起舞
国家主权
认真落实
写明
大学教授
付诸
兰特
加强@@
联合报
长跑
正试图
分离@@
DC
远超
输掉
146
落空
前端
猥亵
这道
8.1
先到
豫
车灯
第三十四条
指导员
两架
ear@@
相辅相成
GT
重用
内疚
复查
名流
懂@@
进口量
Kar@@
截面
太难
户外@@
澡@@
糯米
南车
浇水
轻伤
薯条
旗号
以供
出力
打乱
朱丽@@
夺走
车辆@@
小城
般@@
上街
凯文
碳酸@@
下届
0000@@
恭喜
斯柯达
一具
交融
里德
上海通用
脑海中
蹄@@
旧址
下功夫
创新性
档案馆
专案
GS@@
管子
年幼
足球赛
流动资金
法律效力
小便
伊斯坦布尔
以为@@
浮云
远远不够
供参考
称职
录音@@
买菜
下场
复印
单向
Ev@@
俘虏
海外投资
不严
囊括
突起
耳光
主题@@
触摸屏
干警
凤凰@@
巴拉克
Op@@
淼
西蒙
指头
直属@@
诉说
人力@@
原地
加勒比海
流氓
传球
现实主义
反叛
营养价值
先进性
这般
实话
中区
热力
未满
懦@@
用过
路由
吨@@
嘱咐
好时机
比照
禁飞区
北风
001
兮
斯图@@
邓超
接地
12000
版图
彩妆
特殊教育
海龟
少不了
VIP
银行信贷
美国纽约
长久以来
揭
超前
泥浆
实施办法
成本低
高峰论坛
逼真
辞退
老妇人
粉红
锰
现正
同龄人
金银@@
出租汽车
一袋
151
板凳
如火如荼
丛生
魅@@
208
二十四
堪忧
日称
待命
横幅
防辐射
流通股
宾语
乐曲
民事责任
演进
会展
磁性
盏
淡淡的
上部
丝网
五位
几件
年时
索纳塔
庇@@
犯罪活动
口子
称其
多平方米
ano
胶原蛋白
配角
54@@
杀虫剂
Ber@@
评奖
执政为民
重要环节
巴勒斯坦人
看得@@
客流量
容积
要死
Pa@@
驾入
照耀
热带风暴
养殖场
跌落
星空
睡不着
五点
广大党员
亲子
舆论监督
斟酌
亚伦
UR@@
去处
岸上
已到
205
花销
李文@@
唇膏
水县
毛利
限量版
锋芝
片方
达到@@
无产阶级
不敌
上下游
・
单体
折断
太棒了
豆芽
世行
留念
主食
联合国儿童基金会
鞍@@
一记
公共资源
蛋白@@
其三
基督山
遮住
倒逼
联合政府
亚运
卤@@
巴比伦
液相
缘于
走走
多种多样
290
002@@
宋代
铝业
奥秘
加以@@
命案
井喷
外交关系
圆满完成
切尔诺贝利
近些年
上山
政法大学
天数
的哥
无一
与日俱增
袭@@
一棵树
树干
出走
本杰明
瑞安
水瓶
党务
Ⅲ
特征@@
交界
不好@@
埋怨
第一份
ich@@
节能灯
总金额
挺进
置疑
孩@@
王上
机电@@
沸@@
嵌
实属
包头
一束
QFII
old
低俗
变脸
年人
血浆
感到高兴
西山
茹
低级
福克
Char@@
富足
色谱
生出
台湾同胞
众议员
交流活动
小女儿
前大灯
公共关系
外伤
甲烷
面额
裁缝
梁洛施
res@@
九十年代
医疗费
安然
书信
宾夕法@@
果园
发件人
电讯报
航程
套利
尼克松
版画
省政协
林市
潍坊
同感
经得起
紧张局势
悉@@
性爱
底蕴
右翼
人身@@
内侧
音量
技术开发区
ics
中西@@
铜牌
密切合作
重大损失
公共政策
原子弹
出资@@
火柴
怜@@
举例来说
争夺战
挑战@@
录入
消亡
岂@@
少林寺
歌星
富豪榜
书上
契@@
余件
万通
群落
努力提高
看涨
爷@@
文交所
各族
集市
日本队
庄重
坐飞机
城建
门上
晾@@
指使
李连杰
沫
玛利亚
工程技术
母校
银行业务
高烧
无处
橙
内科
联会
拉丁@@
冲破
村级
渎职侵权
一如
重磅
洲际
谁知
计算公式
什叶派
常规赛
存量房
收纳
语言学
华北@@
掏
常任
几十万
产品开发
不出@@
散热
热火@@
倚
主任医师
香港特别行政区政府
视觉效果
评比
巴方
主产区
中职
松散
大二
鉴定@@
斐济
契合
倾销
洗衣服
倦
高级别
缺位
参演
销售商
讲故事
启蒙
日落
散射
作曲家
365
提供商
保险费用
歌舞@@
一八
酒店@@
控股公司
不致
管网
睿@@
78@@
人大@@
致癌@@
伯克
姨@@
镉
承租
板材
眉头
咕@@
莓
歪曲
畅销书
要价
皮质
企业界
接踵@@
本会
奶茶
剪切
三只
蔬菜@@
格子
迟早
替代品
要用
拉着
斯科
思想家
捷豹
经济特区
梦见
雌激素
做好事
脱口@@
家教
诞@@
外侧
射手
议会选举
交通部
630
马甲
坦然
me
编纂
水文
监制
哈姆雷特
高一
引以为@@
希特勒
煤气@@
哪家
肩负
彭帅
出世
全然
支线
个星期
沉着
开赛
密不可分
远景
更难
渗漏
全党
造势
超模
放着
导管
并不@@
打车
所起
嫌疑犯
自营
改扩建
岚
成熟@@
鳄
强制措施
幼稚
捣毁
命中@@
款待
齐齐
计画
不见得
键@@
子座
最高峰
正常人
敬佩
154
制定者
尾盘
场内
来袭
重复@@
拆借
常住人口
出轨
真功夫
豆类
指导意义
得奖
多辆
打分
程序员
渗
盖子
教师@@
钻戒
停摆
遐@@
交到
武装@@
力士
切片
不复存在
蓄
冲击力
收购价
郭富城
分列
41.@@
睡衣
果子
亿万
161
无名
恪守
筐
即刻
钩@@
打伤
血迹
巡回@@
恶性@@
Kh@@
支招
泣
幸福生活
绚丽
征战
腱
处女
高得
军工
习惯性
清纯
总长
雄心勃勃
交了
限售
打倒
370
毯
普通住宅
油腻
中证网
展示@@
空军基地
橄榄球
江区
下楼
阿巴斯
终将
这比
脓@@
裹@@
非殖民化
卢萨卡
反常
下星期
气场
入门级
中情局
剧目
各有@@
今年底
喝醉
举重
木星
首开
数最多
优越性
试水
前夫
适用范围
成人@@
差别化
嗜@@
脊梁
十字@@
每日电讯
收场
出货量
石油价格
俺
可操作性
阿萨德
厂长
总分
人为@@
滚筒
租约
狱中
苗条
梦境
罪孽
大潮
掠@@
吾@@
摸底
直喷
跨省
芬芳
珍视
操心
IM
Med@@
逐步形成
循环@@
布宜诺斯艾利斯
科级
抵挡
辱骂
萱
拣
逝去
开拍
中超联赛
44.@@
市场行情
手术@@
洛克@@
欠佳
驱散
不惜@@
盛开
进口关税
定做
IN
港区
中资
国际公约
惩戒
核设施
河县
罹患
大奖赛
汾@@
per
百年@@
招生@@
非国家
钟爱
由市
茫然
每届
炒房
酿@@
拉拉
热能
蒜@@
里头
招工
捐出
改用
总冠军
婕
有所提高
药剂
储备@@
每分钟
中信银行
错综复杂
缺血
发动@@
文物局
行李箱
矢量
一价
汉口
总而言之
两院
真有
机智
词组
情势
款机
北京市政府
私营部门
很久以前
巍@@
安德@@
可供
收钱
腕@@
坚持@@
本部
踪@@
冲出
厢
识字
颗@@
社会工作
责怪
谢意
收款
迪斯尼
YouTube
平庸
检测@@
身份证件
引出
相恋
不败
经合组织
一列
第一项
您好
副委员长
中国经济时报
之感
安居@@
184
军阀
International
罐子
本体
满是
观音@@
亵渎
刺绣
罪魁祸首
受力
法师
剪刀
回返
脸庞
万左右
行政村
Fin@@
推荐@@
顶点
曳
不定期
冰雹
该不该
薯
人到
姊妹
发微博
市住
利润总额
旋风
攻击@@
运价
计较
新药
择校
罗兰
砰
劈@@
ini
馆藏
炖
美容@@
切除术
那头
醚
量身
大幕
针灸
141
几十个
索尔
及时@@
全书
全村
河口
兵营
非得
民情
E3
权属
草稿
想得到
渴求
笔录
铁道
落水
卡斯@@
投机性
索性
水性
暴力@@
SE
海洋环境
摇摇@@
特立@@
和平利用
给付
非公有制
神父
服药
自然科学
结合@@
暴发
筹集资金
重金
十字
推广应用
中控台
独自一人
169
保持一致
地参
输出功率
ank@@
太累
提供者
南太平洋
胚@@
纯正
沪市
戳
牛顿
作业@@
Rober@@
问答
有利条件
据点
施加压力
拐卖
写信给
蒙受
流行病学
这两项
结账
些@@
风向
自备
安监
一见
时刻@@
管齐下
驾校
飞涨
保障制度
营店
美欧
焰
应立即
公民@@
护理@@
发财
已获
详细@@
使用费
疏远
公务@@
IE
监事会
昊@@
名著
腕
冶@@
拱
栗@@
六级
9.9
郊野
蜗牛
形式@@
禧
作响
敲诈
Hz
长队
再来
汪峰
1953
僵持
枉@@
克利
泄
窦
严防
颁奖礼
从头到@@
钟声
新浪网
一端
分钱
受苦
易事
组织部长
人意
养分
耶稣基督
兵役
密封@@
方舟
You@@
悬赏
歧视性
人体@@
斋@@
郭晶晶
软件开发
数据分析
管理机制
螺栓
三个代表
勒斯
1947
联合国教科文组织
冠心病
风雨@@
吴先生
下半@@
别致
万亿日元
废品
每套
四分之三
筛查
奇怪的是
中山市
图象
哨所
生长@@
一有
皮草
品类
整夜
麻疹
凳
小将
成本@@
滨江
渎职
大四
血栓
火炉
讳
韩元
心智
不谈
爆竹
暖气
极小
那间
生命线
埃尔@@
管教
副董事长
活塞
师大
保本
张庆@@
分散@@
胡须
肾上@@
过山车
最重
江北
交流会
斯洛文尼亚
之家
假货
事是
出战
五分
炮击
Bu@@
一曲
大众化
笨拙
坚持下去
老头
AA
监管局
杰作
门类
翘
重大意义
买得起
均值
剪裁
公共设施
非要
邓华德
风趣
阿拉斯加
灵敏度
时尚界
纪律@@
浓烟
迫切@@
小平
化学反应
增补
活下去
时政
美国宇航局
政法
两手
海外@@
金融监管
塞进
靡
开放性
拖鞋
医药费
可信度
打工@@
之时
茄子
较之
工伤保险
税种
得住
後@@
快到
增生
淄@@
自大
热电
环形
教书
缠身
相间
颇受
建平
磁共振
奶瓶
掐@@
帘
开店
一个半
一跳
令人震惊
罪案
里边
天河
缘何
氨
接待费
可可
We@@
匆@@
休克
哨@@
昔
及格
半左右
山里
大兴区
战舰
译成
音译
辱@@
如欲
断电
循序渐进
蠕@@
性状
阿拉伯人
MP3
蜀@@
白内障
最难
尚待
教育家
射程
零钱
首映@@
电容
便携式
亟需
浙江大学
Mob@@
格里
X射线
原籍
足球比赛
妇女儿童
货运@@
珍品
污染源
初二
谎
温度@@
十几岁
阿拉伯语
上合
牵扯
批出
向南
Bri@@
揭牌
系主任
善后@@
酿成
培训中心
苷
表现@@
保守党
致病
传奇@@
虫害
闭幕式
议席
锯
正月@@
执行力
双汇集团
数十亿美元
彼
Wor@@
教练员
费德勒
水涨船高
麦克风
炉子
共性
新专辑
别国
110@@
第三产业
棕榈@@
董秘
微量元素
旭东
富余
拣@@
科技日报
劳力
按下
陈坤
脱掉
推介会
慢跑
装入
手感
死于
多得
防伪
慈
征询
打造出
第三十五条
尤指
保持沉默
女主人
扩大@@
樟@@
武士
降息
二零零五年
特效
保定
310
柔
考古@@
事无@@
落泪
革命性
表白
工件
Amer@@
图文
紧张@@
旗舰店
白糖
制片@@
嫌@@
消极@@
无异于
售罄
荡荡
纪念活动
哈利@@
周立波
公义
公司债券
达尔文
丹东
幻觉
单月
困苦
黄素
非议
眩@@
楷模
凯利
广度
翻开
监管者
毒药
边缘化
驳斥
龚
象征性
陈奕迅
好书
钓
初中@@
状况@@
贱@@
世界遗产
允
米拉
密歇@@
代孕
才干
威尔逊
计算结果
脾@@
六七@@
惊慌
校门
软骨
百个
利器
爱意
特派@@
恶作剧
金龙
郊外
旅店
盈利模式
文化背景
佩里
公司章程
住宅区
寿险
严重威胁
南大学
沉睡
商住
替代@@
煎熬
母乳喂养
大病
来港
筹备@@
工作力度
河北@@
更新@@
羊群
暴躁
第二款
性化
浓重
之分
删
退学
千伏
焰@@
办证
用户界面
深加工
洛斯
鹦鹉
执掌
军民
卡斯特罗
承付
十万
回笼资金
义词
违反规定
主持会议
伤感
软化
爱是
卵巢
亚洲杯
仙女
学府
希伯@@
空管
一百年
回老家
好日子
廖
难关
预知
巡视员
包钢
忠于
矣
瞒报
适房
离合
无事
疤痕
社会关系
妳
似地
封装
健身@@
睦@@
环保署
危险品
德里克
评卷
儿时
杯赛
玻@@
不亚于
行善
绘图
一时期
164
瞧@@
扎伊
瞒
剧照
桓
北京西站
百科
突显
中金公司
上涨幅度
修女
中南
通缉@@
辽阔
符合规定
客商
过渡期
航空工业
牵
之死
遥遥@@
可悲
可见一斑
恰逢
自带
当家@@
矛头
柳州
弹头
吓人
装甲
斯巴鲁
问起
激光@@
赫尔@@
悖
工商业
怪圈
山林
迈入
况@@
网络化
答题
冰块
AAA
餐饮企业
三四
北侧
大打折扣
集体经济
交钱
敛财
信服
纽约州
全面落实
起飞@@
伊斯
环境监测
Stev@@
拥有者
CCTV
渗入
小轿车
东家
黄花@@
Net@@
盐水
因果关系
争抢
专科@@
携程
一堂
正职
布达@@
引人关注
一席之地
血小板
抓手
圣洁
ie@@
状语
长期存在
杂货店
蜿蜒
隐含
手机短信
助人
准妈妈
撰
僚
冰毒
助者
逐步提高
减退
保鲜
抗癌
AV@@
祥和
发表意见
学前
举报电话
手艺
滑落
投射
渔业@@
进口车
上级@@
1954
节庆
Play@@
抢救无效
阿内尔卡
单单
成群
该州
融资难
依赖性
wh@@
儿媳
ox
汕头
羞
弘@@
Se@@
插手
磅@@
一目了然
失常
油菜
我愿
调解@@
OL
这么@@
直飞
塌陷
爱情故事
谨防
手提包
财政补贴
erg@@
后遗症
教师队伍
蚊
豪华@@
驱逐舰
金隅
98@@
三百
一筹
治本
多米尼@@
久远
火势
波斯
喝彩
可行性研究
作文@@
纾
味儿
愧@@
建筑工地
比比皆是
记忆@@
结算价
勉@@
枪杀
产业基地
大学校长
会员@@
乌鸦
颁布实施
神色
多米@@
都是
三鹿
卖淫@@
塞拉利昂
寻觅
强省
广泛@@
起重机
穆里尼奥
心痛
翻译成
伊斯兰堡
213
上尉
施政
更少
潇洒
加分
自治领
市场机制
僧
讨论@@
遗传算法
红枣
坚韧
麻醉@@
佣
求救
轨@@
锋利
科罗拉@@
国泰
作法
作好
桃花
珊@@
几百万
吸食
瞪
推车
费城
1937
家暴
收率
州区
宜人
脆@@
栅@@
忙忙
国家旅游局
下一阶段
诞
GU@@
看得
仓促
40.@@
十国集团
希望工程
崎
民办学校
建筑设计
全力支持
尽量减少
梅尔
友好关系
详细信息
军装
头条
佐证
杭州@@
大埔
工程学院
外边
夜班
一阵@@
选举权
取名
忐忑
最远
龙年
市场前景
深证
亚裔
动脉@@
法律顾问
清洁工
二层
合法化
停止使用
生理@@
不顾@@
之策
帐号
押金
燃放
等离子体
航展
肥沃
男单
无法忍受
颁
碳纤维
陶醉
睡前
升迁
停职
招聘@@
后院
尽责
驻外
吼@@
认清
批发商
王振@@
民族区域
讥@@
人民解放军
生命@@
冗长
建设厅
涨到
第四节
富士康
温水
焚
王家
凸
嘶@@
黑马
观察家
资费
遗漏
极少数
栖息
鞭
繁
内裤
紧闭
215
产生@@
耕作
疲力尽
杏仁
奥林匹克@@
恶性肿瘤
精装修
嘉兴
美人@@
颠倒
hon@@
拍品
兴市
高高的
干部队伍
普罗@@
香精
格格
王立@@
活动中心
投资总额
腹地
现如今
通行费
和平解决
前两天
杨红@@
德意志银行
李宗@@
欢庆
脐@@
公社
铁岭
继承@@
甄子丹
病历
门头@@
朗诵
哈马
流淌
MG@@
NASA
美国队
奥运@@
调味
大拇指
斯特劳斯
李宇春
百米
生长发育
刑事诉讼
纸箱
屡见不鲜
讲坛
先机
新居
上一年
IV
学过
副行长
亚利桑那州
第三十一条
莉亚
美国商务部
相似之处
个人所得税法
液态
住进
羡@@
外来@@
第三十二条
无阻
正交
单元@@
一族
前脸
ere
同位素
无线网络
格言
甬@@
大气污染
雨夹雪
体坛
SL@@
尾气
当上
Jo@@
福建@@
廊@@
蓝牙
协会@@
批评家
秀丽
承销商
病毒@@
钒
弗兰@@
激动人心
普通高中
解冻
公用事业
多日
不正
富兰克林
遮盖
县里
劳资
斐
救赎
所思
支派
腐
小明
令人吃惊
般地
私利
比基尼
忆
向西
一战
誓
扰动
跨过
求得
港澳@@
出奇
联合国大会
式化
一成
打拐
工况
言论自由
riv@@
数组
人身安全
食材
深发展
大队长
紧密联系
领地
享年
AS
节节
搓
内心深处
最合适
剧集
每人@@
亿多
吃药
槟@@
势必会
院里
唤
蕾@@
商标@@
不值
极为重要
自立
笑了@@
尔巴@@
服务行业
国际金融
知名企业
股票价格
叮嘱
多户
喷雾
保守派
珍稀
散装
中枢
满月
砾
Christ@@
撤消
就够
团体@@
房利美
传入
赦免
本科@@
佟@@
萌芽
白金
SH
HD@@
逆境
扑救
热门话题
历代
交投
抖
龟
戈登
瑞德
图中
华纳
床单
多只
第三十六条
详细资料
春风
国贸
武商
ings
泉水
两届
黄埔
VT
暴动
只为
文献@@
其事
测控
锂电池
六一
胡某
第三十八条
电工
发明专利
吟@@
出乎
肉眼
三号
容性
画出
飞扬
530
学习网
区议会
q
铮
小城镇
可视化
难者
纲@@
李俊
减半
馨@@
LTE
生肖
搞清楚
互不
吴邦国
霸权
1946
凹
下垂
衰减
杀伤性
行李@@
结盟
186
未知数
建新
运动鞋
气门
乡间
实力@@
语调
不失为
头等舱
Part@@
不尽相同
脊髓
一米
康复@@
159
笛@@
唱响
美誉
挖出
梭
悬而未决
十二日
突围
性侵犯
虎妈
监护@@
螂
进口产品
oci@@
手写
埃尔
岗区
径直
路灯
能以
投资方
文具
贝宁
实际操作
国家文物局
马路上
曼德拉
每升
长约
至多
3000@@
篱笆
报上
唔
大部份
三角@@
濒临
房客
激进@@
让人
IO@@
编者
出厂价格
桶@@
倒地
非洲统一组织
安区
第三名
奥斯陆
那不勒斯
人心@@
特种@@
国有银行
璀璨
膨@@
之宝
自我介绍
激励机制
衰弱
维基
男婴
家庭主妇
增殖
紧迫性
耳边
海湾@@
定价权
房市
受制于
好意
胸怀
怠@@
心境
下落不明
极富
难事
低速
林森
钳
芯@@
西伯利亚
地势
晏@@
任由
印度人
保障局
双方同意
在线@@
直通
驶
波多黎各
水价
车程
游击队
归因于
红薯
公文
多加
昏暗
跌势
涕
急诊
甘蔗
荃湾
近一半
花粉
财务报表
投影机
一盘
香港中文大学
增长势头
刘易斯
矩形
疑犯
乖乖
银河系
繁荣@@
三千
履职
该法
意甲
叫好
ock
很久@@
雨伞
境@@
中西
没多久
海洋生物
善用
现成
观众们
外国语
之举
伯利@@
长江日报
不足为奇
剪纸
町
门市
岛国
要害
306
存储器
消耗量
职业技能
渐进
数千名
露西
两千@@
广告宣传
端倪
GM@@
不长
断面
检举
制卡
专营
世家
募资
安逸
广大干部
憎恨
火灾@@
受让
大儿子
航空航天
跃升
ph@@
自由基
瞎
贵国
鹏飞
招数
田径@@
主动@@
柜子
合唱团
市公安局
推力
带回家
干净@@
毙
频谱
2100
书面@@
友谊@@
隶属于
小升初
单人
讳@@
园长
贾庆林
玺
缠绕
援手
蔑视
令人兴奋
曼城
与非
帮手
积极主动
阿姆斯特丹
出生率
舒适版
专区
鲍尔森
麻将
憩
基本建设
技术转让
货船
南侧
头戴
办事@@
物价指数
分泌@@
mg
毋@@
长阳
震慑
堰@@
每平米
给人以
ix@@
梯子
301
真挚
万册
SC@@
Richard
通宵
圆梦
再创新高
教练@@
鼓吹
服务站
改变@@
釉
UFO
灌注
纽交所
1920
煤矿安全
香草
毅然
加里
晕倒
初始化
缘由
市容
驾驶执照
里亚
谈过
结交
备考
原则@@
奥林匹克运动会
拍出
波音公司
马尔代夫
突击队
鬼魂
刚过
陈独秀
颅
小龙
唾@@
308
预防@@
十分重视
期房
Or@@
绩@@
保证@@
企业法人
1921
起色
湖人队
手术室
难于
秘密@@
国税
直到现在
克里斯蒂娜
振荡
严打
sk@@
纯真
重仓
三年级
彰
兢@@
为的是
嵌入式
负责管理
除掉
力挺
核裁军
冷落
水货
徐静蕾
开幕@@
从那时起
失败者
结婚证
176
阿兰
数控
盖章
助阵
了结
比作
一刀切
可卡因
贬低
女职工
深圳特区
煞@@
朝天
有加
隐忧
保护措施
间距
孙燕姿
记名
冬奥会
爱卡
幌子
哈特
飞速
百人
提法
拓扑
玩乐
亚太经社会
领略
吨级
自传
山峰
速冻
对照组
Ba@@
珍珠@@
峻
身在
不干
不多见
头寸
爱国@@
公吨
缺电
华中
侵
因地制宜
交界处
海员
洼
纬度
完全相同
表率
交配
伦敦@@
工人@@
变态
轻薄
177
热忱
华美
薛
张雨
十周年
MI
公鸡
联队
流星
观摩
琉@@
化学成分
普林@@
相见
持有者
钱币
mb@@
斯德哥尔摩
喀麦隆
人工智能
怒火
嘘
201
亿万富翁
阁@@
停机
页@@
辜负
寄生虫
刚需
通畅
亲王
腾飞
霄
伯明翰
次列车
建业
躯体
立方
不改
▲
次年
阴霾
深入调查
杉@@
∕
克劳@@
大型超市
卑鄙
六次
备有
国际交流
铲
新兴国家
居民区
心动@@
凿
陆路
浙
沙尘暴
幸亏
片面
配以
NG
批发价格
欧洲委员会
家务@@
车费
离子@@
旁观
雾灯
境遇
白痴
蛙
恩爱
两三年
木制
劳动报酬
ank
沉稳
周小川
MA
行不通
美股
滇@@
佩林
主义@@
锻炼身体
商业区
地产股
参阅
风吹
肠癌
工业园
洋溢着
太忙
家境
隔夜
苗头
消防车
实木
瀚
ABC
航油
杜马
ood
竞得
甘心
海市
礼盒
弱者
严重破坏
舆论@@
栓
滑雪@@
眼花缭乱
加盟@@
掏@@
听不懂
工友
名贵
举债
广泛开展
辐@@
抖@@
减慢
交通委
Ro@@
一秒
45.@@
相对来说
卵子
征兵
交警大队
胜负
中电@@
克什米尔
课题组
=
博士后
149
私家
无可厚非
非洲人
湾区
陕
出逃
167
大庆
优劣
堡@@
以备
张家界
血症
凯迪拉克
烹@@
排气
德国总理
内特
而起
一万元
理论体系
全国代表大会
主题曲
反射@@
世茂
幂
大不列颠
越来越@@
第三十三条
怒气
湍@@
被忽视
看管
Mark@@
州立大学
赶赴现场
传统产业
创建@@
伊利诺@@
佬
气田
修路
大婚
禅
轮番
姬@@
施工单位
未婚夫
淋浴
英菲尼迪
法律依据
演讲@@
大爱
种地
君威
会计准则
无耻
五四
气动
恐怖组织
运动版
娴
铃声
视而不见
问津
亿年
返程
洗浴
手机游戏
考察@@
国家森林公园
中等@@
资源优势
灶@@
已近
苏丹@@
M2
历史博物馆
游戏规则
王府井
秀场
轮值
约束@@
必需品
矿业@@
兰达
竖
一档
师范
薄熙来
党的领导
骑着
贝蒂
血脂
收藏@@
漠视
共同社
挟
考古学家
留存
水印
子系统
西甲
掩埋
桔@@
探头
基层工作
嘟@@
唐人街
辑
调料
上周四
完成@@
坠楼
喆
中意
43.@@
教给
尼美
195
米左右
首付款
炖@@
克罗@@
共事
多谢
福州市
客票
直奔
遵行
悬架
简述
星巴克
填妥
代理律师
97@@
瞻@@
谎称
一发
火器
十二届
生日@@
通州区
选举法
望京
捆@@
后座
慢性病
变电站
跋涉
会用
海牙
妇幼保健
民俗@@
型师
纵横
兼备
耳环
售假
九江
贮@@
矗立
重新考虑
长着
舒利
度假村
湛江
芜
hat
举手
明清
会展中心
五倍
斗士
绑@@
概念@@
利润分配
通路
比较严重
刺痛
证券化
壮丽
让你在
曲子
厕
脑瘫
古籍
开播
养老院
巴勒斯坦@@
圆桌会议
说好
性骚扰
机组人员
全天候
新鲜空气
包子
刚度
工薪
粉底
激战
教育规划
笔下
西班牙人
彝@@
冲绳
心地
首当其冲
水土保持
布雷@@
足足
渺茫
所罗门
浓浓的
韩国队
犹豫不决
芭蕾
广告牌
暂行规定
于世
民事行为
预赛
吧@@
哎呀
消散
生日礼物
灵通
正文
天安门广场
卫生防护
酯@@
林峰
捏造
舍得
高声
影城
纳达尔
ies
区委书记
室温
从那以后
无关紧要
定局
丛书
锥
eld
1930
无烟
成套
沉默@@
闷热
权威人士
交巡警
灯塔
AD
相互了解
酒杯
阿美
娱@@
追缴
卢比
皮层
走了
两性
柴油机
脚印
中国国际@@
游戏@@
引起@@
不详
肿胀
奥数
之源
判罚
公害
行政复议
随身@@
X光
嬉@@
营销@@
低压
安全局
中锋
利差
向前走
绵阳
摸清
海藻
围栏
岔@@
为先
手握
爷爷奶奶
蒙特利尔
肆意
自主@@
垢
三门峡
胸口
展位
坟@@
氢气
公立学校
履
惨遭
kg
记号
政策法规
冗@@
艰@@
二十五
所要
眨眼
大便
厦@@
制假
名牌@@
赤道
企业主
献策
区划
妄
震源
脂肪@@
直升飞机
民房
究@@
危害性
锈
劳动密集型
购置税
多糖
万昌
村支书
暂定
配对
多用
水厂
货柜
免遭
努尔
香奈儿
牛米
陇@@
未遂
老子
哗@@
豚
自由贸易
4G
汽车网
法制办
纯度
Tech@@
族人
御
酒庄
喊叫
家电产品
李大钊
乐乐
World
有失
疾控中心
吴菊萍
麻痹
埋藏
定型
目不@@
肛@@
外流
三省
拉特
若干意见
五国
界别
巴士@@
赛道
番禺
李国@@
围棋
刀子
尚需
葛优
深刻印象
名师
折旧
难免会
几步
葡萄园
劳伦斯
八日
拉夫
孩
回忆录
赡养
啼@@
归宿
辅导@@
布罗@@
核动力
探底
重拾
Serv@@
满意@@
扬言
PO@@
套取
副区长
太湖
几日
肆
中级车
本校
浓密
商业性
耶鲁大学
ip
人世
学术研究
追求@@
总指挥
高雄
聊天@@
大连市
四款
Res@@
昭
紧紧抓住
黔
供地
盘整
大户型
三甲
烟民
单边
重在
画上
煤业
屎
注册处
几百
北极@@
串联
技术含量
蓝筹股
宝藏
事故@@
雨季
两日
全面完成
劳作
甲基
ary
蝶@@
路虎
DO@@
独立国
不为@@
天亮
几秒钟
锈@@
都行
军事力量
订定
气旋
文物@@
入息
通电话
实为
糙@@
亚历@@
下肢
当事@@
日趋@@
边疆
续期
无果
ase
面试官
在编
极佳
剧作家
付出代价
欧洲共同体
使用量
济源
卖得
发亮
tion
竞技@@
二环
太重
圆润
埃里克
钻研
发器
并不认为
力量@@
年华
六点
实测
蝴蝶@@
世界观
蔽
农家@@
用户数
读书@@
国外@@
流行音乐
Skype
发到
昆士@@
207
意大利人
严峻@@
随心所欲
大型@@
严酷
日本共同社
争霸
坏死
电荷
身躯
英美
每亩
高分子
SI
芙@@
评述
及时发现
骑兵
报关
出港
贫民窟
穴@@
淳@@
千金
追随者
KTV
渥@@
中国式
家喻户晓
国安@@
科协
贝尔@@
解放军@@
口香糖
双倍
恙
新疆@@
略带
悍
相称
古镇
能源安全
表达方式
故意杀人罪
诞辰
不衰
书屋
然大@@
体系结构
严肃@@
长效
通报批评
遮挡
行政许可
吉隆坡
定语
减刑
伤亡@@
消防队员
4.0
而论
小丑
茸
报批
惑@@
君主
主任委员
每星期
新举措
阿尔贝
弗洛@@
王永@@
手足
钵
婚事
个儿
拾
宵@@
盛事
发问
顺势
揉@@
酰胺
离心@@
出没
象牙
带子
老先生
up
向性
Ⅰ
远程教育
高密度
终了
吝啬
管用
电图
抗原
赔钱
关系密切
绿洲
小型张
百强
语言文字
德纳
房顶
皆知
多德
瘫
窍门
张望
小红@@
生下
前列@@
星云
心肠
很近
说明@@
白白
印第安@@
衣橱
PI
吸取教训
海鸥
壳牌
同性
来之不易
天主@@
花花@@
陈嘉@@
水温
喃@@
轮换
千瓦时
脾胃
污垢
后经
发炎
豆浆机
商标注册
学堂
ster
逼人
太极
餐饮@@
拐杖
灵顿
狂风
今冬
帕克
淑女
奥组委
阁楼
收容
amm@@
杂草
离世
闲暇
吉普@@
四大@@
我想
开挖
不在意
总的@@
翻倍
ock@@
招待@@
无意识
成本增加
沸
皖
厄立特里亚
旱区
老字号
正规@@
1911
炮火
食品行业
中线
指点
近三年
英亩
酷似
臭味
护者
芸
美洲@@
船队
中文版
平衡@@
最低价
抢先
难逃
一串
美国空军
同等@@
车流
敛
勘测
价签
建设者
紧跟
早有
身份证明
由来已久
海清
艾滋病毒
刻画
喀什
该名
矿难
小波
入室
套件
据调查
墓碑
樱花
侄子
党校
进行谈判
经办
校准
床边
护卫
装饰品
稀缺@@
筛@@
只管
立志
能比
同质化
过渡@@
咖@@
往外
大热
紧急通知
一周年
莹@@
指认
别无选择
军力
后继
证据@@
em
提取物
本网
工程学
电视电话会议
淋漓尽致
莫大
摔跤
科学界
赫然
机票价格
黑色@@
留出
保险资金
北京站
宏观政策
亚尔
第五十
住在一起
载机
庞
我俩
躁@@
防盗
基层@@
打磨
有赖于
根治
防备
电力企业
复员
洛伊
隐身
激光器
误读
各部
同步@@
甜食
业务范围
芙蓉@@
SEC
特惠
踏入
阅读器
相一致
下课
阿卜杜拉
世贸
磕@@
个人账户
台湾海峡
与此@@
如图
日本央行
听过
XX
过头
再审
遣散
新秀
远距离
无动于衷
膀胱
俄亥俄州
登山@@
米德尔
批捕
任择
蹿@@
效性
ins
胶片
座率
蚁@@
降下来
闲聊
基督@@
亲戚朋友
1927
短时
总司令
钾@@
注射@@
沥@@
保持联系
艺术作品
证券网
两颗
牡丹
榨菜
猫腻
旁人
本篇
资源共享
移植@@
妞
讨薪
透水
拒绝接受
摩托
陈建@@
大得多
猜疑
古墓
圈地
花掉
复杂化
赞叹
无望
缓冲区
填满
搂
伤情
绪@@
梁咏琪
总线
仆@@
十名
赶超
刊载
费尔@@
参谋
外相
手提
业委会
出口量
一栏
黄奕
饿死
航班@@
另行@@
中度
向北
忧愁
悲
181
外科手术
开发新
文人
北美洲
陶器
赌注
专业人才
塑胶
露营
理发
意志@@
安息
服务部
防总
无名@@
刘明@@
小金库
数天
恐惧@@
屑@@
诧异
机动@@
旅行团
无与伦比
卓有成效
终身@@
新旧
春天里
试射
英国伦敦
离异
蝇
毫
牛队
吃些
无敌
尚属
湖水
公益@@
巴尼
红星
人力资本
母女
中间人
央@@
生活必需品
两岸@@
冲向
全身心
卖地
资格证书
环境质量
橡皮@@
披上
克族
输出@@
苏越
边防@@
委党校
反垄断法
吃紧
加元
普通百姓
172
体形
污染环境
满足@@
牢骚
进屋
壁炉
峡
影帝
卫冕冠军
第七十@@
得救
好笑
领头羊
围剿
分包
遥控器
系车
上半@@
Intern@@
可耻
杨千嬅
比不上
就学
安迪
立足于
生平
赣州
吁
有氧
便士
单子
四强
虐@@
美满
菩@@
靶
一伙
燃料电池
腺炎
实业@@
入库
快速@@
我本
冰山
劳务@@
轴线
环卫
节日期间
业余时间
垫付
避孕药
籽@@
鹭
梁朝伟
数十万
无止境
瘟疫
挪用公款
釜@@
美术学院
原题
开放日
会诊
究其原因
齐聚
段子
存档
那英
波罗的海
该党
卫兵
PP
芥@@
雪莉
平县
亿人次
木乃伊
掏钱
联接
两所
缘分
试者
掀
发放贷款
路旁
半个世纪
数名
朗读
采写
闸门
定位系统
两间
东西方
之计
另一面
古罗马
获奖者
省直
很早
立面
本土化
眩
惊险
起居室
装在
贡献率
蒙古族
捧场
宁夏回族自治区
第四十三条
太平@@
用油
收入者
签合同
地笑
书架
5.0
小花
艰苦奋斗
旁观者
迅雷
公开选拔
死伤
风口
特斯
措@@
中国记协
三楼
这间
198
哗
财政投入
水灾
防腐
第四十一条
歌唱家
词义
一天天
有条@@
小溪
更应
巡游
痘痘
举证
婚纱照
183
乐坛
公开课
高炉
雪橇
驳@@
殆尽
寄来
三百@@
Ra@@
投票权
赞成票
匹马
椭圆形
德育
消防官兵
开源
卫报
地想
登记手续
逃税
第三十九条
杂技
四海
趋缓
髓@@
中医院
平方@@
投资性
非理性
可用性
胞胎
过世
蚁
蠢
罩@@
谦卑
无独有偶
茧
部长会议
辛勤@@
演艺圈
IPv@@
Che168
脚跟
近两年来
色系
归根结底
多亏
精良
购得
三轮
脉搏
否决权
万块
逃出
压缩@@
几只
中国女足
荣誉称号
北京警方
点到
强于
第一句
走遍
发声
电波
要不然
快车
褪色
纳特
构成威胁
一刻@@
460
羚羊
耻
准备@@
确凿
眼前一亮
军训
种种原因
无论@@
玩意
电子化
摩加迪沙
租客
应许
西门
ony
赛尔
杂物
婚庆
小队
试想
想见
逊色
死人
New@@
负面@@
多夫
甲壳@@
没到
玩意儿
罗杰
回味
奥运冠军
和平统一
入学率
中市
雪山
絮
波段
机器@@
补丁
专有
羊羔
sc@@
掌门人
Sa@@
辛辣
非常复杂
崩
城乡@@
犹
烦躁
猝死
退休年龄
大好
使出
巫师
可依
智者
公私
黄金价格
绥@@
珊瑚礁
裁判员
肇事@@
深入基层
上架
会期
不起眼
RAV4
央
11.5
好似
退伍
扔进
插图
德森
王老吉
发源地
牛津大学
诉状
火山灰
压岁钱
股东@@
人类文明
辐射量
离境
橡树
搬走
履历
由省
夕阳
地壳
做手术
惠誉
基层组织
拦住
灿
严重不足
套型
轻信
out
利民
组织部门
党政领导
离家出走
巡
检获
不凡
于众
灯具
调味品
聪明@@
年轻一代
墨西哥@@
偷拍
选题
凋@@
机会@@
相提并论
东海岸
课外
好久
交易价格
陡峭
攻克
条件@@
独栋
领海
衢@@
院方
合剂
成真
毛毯
心肌
好得多
华盛顿邮报
2050
检查一下
永磁
狱
音乐学院
全面提高
票数
帝王
交待
频现
主城
WiFi
刑期
由此@@
迸@@
云层
师范生
黑猩猩
国际机场
便利店
操守
利息@@
赐予
铯
学籍
透镜
光华
钰@@
绰号
不无@@
黯淡
心仪
核危机
孔雀
就读于
片场
翻身
°
一面@@
权证
重镇
赦
王军
婚姻登记
张月
两人@@
真主党
感染力
积淀
我怕
错失
MB
土星
再也不能
实况
得克萨斯州
橘子
政务@@
竞购
港澳台
月均
准确@@
代尔
规划设计
观者
宇宙@@
洁白
惊呼
掺杂
轻便
分立
优质服务
那张
时起
哈克
淹死
非法经营
变现
纪实
斯卡
停滞不前
该村
资料库
可追溯
健壮
扶贫@@
饮水困难
光束
鸿沟
选美
密集型
仍能
填海
虞@@
拍电影
大案
节气
乌鲁木齐市
不管怎么
徽章
家长@@
佳缘
荷兰@@
紧身
痛快
歌颂
皂@@
略高于
偷运
10.5
谣@@
常数
打篮球
元朗
婴@@
化学武器
眼圈
残暴
管好
体育中心
ut
快感
供职
淀@@
第五个
撒下
总站
信任危机
粉尘
头儿
储层
日以
老一辈
教育界
全校
禁止@@
格尔@@
位一体
中应
钢价
医管局
诉人
委托@@
卢森堡
工头
谬@@
430
之高
动能
双核
大字
长满
天上@@
缄@@
榻
一分@@
超值
总结@@
电灯
罗夫
油轮
IP地址
海明
二零零三年
蔬果
湘潭
答卷
招揽
眠@@
小猪
堪
联想集团
一月份
贝壳
模特@@
绩效考核
如此一来
莱克
瑕
巴塞尔
炫富
履约
鞘
意外@@
工薪阶层
湛@@
在历史上
减除
印度政府
应酬
克莱尔
吴晓@@
字号
仅用
连续@@
知悉
谱写
探亲
几千@@
成衣
蔗@@
防晒霜
再也不会
隐秘
市场主体
冻雨
每每
九日
水箱
科研机构
线圈
平等互利
李永@@
后背
先河
参加考试
熠@@
建有
围困
天山
眷
na
渔夫
另一端
愤慨
Ros@@
明示
南南合作
小河
乎乎
或作
贫富
无数次
初步统计
铂
共创
快门
崩盘
反面
中介@@
志愿@@
决战
保税区
行业@@
烫伤
输入@@
交通管制
不胜
林先生
五届
雄心
该条
烟气
今年@@
ish@@
仙台
以下@@
奇观
相对@@
高中毕业
领先@@
油箱
调查取证
支流
近现代
彗星
冰激凌
楼顶
囚
出境游
电子信息
毒贩
公开场合
病痛
穿戴
合署
赛马
单程
天安门
电源@@
空子
尉
南湖
橱
忘却
红地毯
佳彦
报盘
以房
房管
灿@@
医药卫生
红木
商业秘密
中央军事委员会
ant
橡@@
主攻
理论依据
巨变
营办
烤肉
BB
刺激性
铺开
击落
照会
入主
纪要
大众汽车
尘器
釉@@
哈里斯
嬉戏
铜矿
娘家
加大力度
该地
共产国际
逆势
广告公司
馈@@
Te@@
布赖@@
3200
妖
纸板
CPU
债市
想像@@
黏膜
俯瞰
re
车体
PR@@
新生@@
厥
保险业务
爱德@@
Sar@@
水果@@
沧桑
Capital
兜售
当众
碳酸
炙@@
并肩
总行
减肥@@
迪奥
继续@@
试剂
港湾
地望
课堂教学
劳拉
台北市
含着
西站
朦胧
约旦@@
急诊@@
规模较
两省
宽裕
无核@@
阿波罗
夺回
簇@@
翘尾
阿布
流亡
突出贡献
地税
调研@@
排水@@
学童
开到
212
变种
金融风险
ool
使命感
一言@@
评选活动
真人
生怕
来个
煽@@
分院
农业大学
邻居们
这桩
最新进展
修道院
两国之间
捕捉到
果蔬
北极熊
腮红
更会
勉
风水
维艰
伤不起
竹子
重挫
计生
烧结
传输@@
自由主义
比赛@@
候鸟
重振
信贷@@
憔悴
现况
真诚地
皂
筛
掠过
书面通知
206
椭圆
侍者
枪击案
大作
小贝
盛装
实录
疫@@
总体而言
边坡
万多名
摄像
创作者
游记
爆炸物
热恋
道教
挪
布莱恩
破除
US
赔偿损失
一线@@
结构设计
小鸡
重新启动
美地区
矮小
文字@@
水器
检视
祖父母
责任意识
教学方法
扶助
之行
买房人
松懈
劳斯
缇
平抑
民用@@
家庭收入
药厂
违禁
ii
哈文
母爱
DSG
妩媚
串通
吃力
许久
三江
盛名
盈江
背负
买个
体育课
价廉
enc@@
王牌
干涸
SNS
也罢
吉祥物
泥潭
农民收入
施肥
军事演习
城中
中国红十字会
经期
蒙古@@
撞车
坚实基础
琨
218
踏板
LCD
加尔@@
癖
功劳
避孕@@
总价值
63@@
斗篷
奋
假象
之于
团员
创收
㈢
总协定
念书
基质
Ta@@
外科医生
絮@@
王明
最爱
实体@@
一贯@@
两国政府
原著
攻击性
两根
支撑@@
煮熟
叛军
自决权
MR@@
有别于
接访
博主
主权@@
微乎其微
预警@@
孰@@
音乐节
长出
上会
班同学
更趋
癫痫
稠
新台阶
尽如人意
休息时间
错觉
自已
骗人
河市
落差
身手
战车
签订合同
沃尔特
绚@@
财务报告
环保@@
风行
尿液
同一时间
Stanley
50.@@
唠叨
如能
问责制
DIY
眼角
FC
民歌
上万
实践经验
1.25
要强
藏家
事件@@
民办教育
洗发水
孙兴
un
丽斯
放大器
武林
茉@@
农村土地
温饱
创维
海丝特
摇摇头
三场
压倒
椎
经验教训
利落
侦察机
参考价值
科科长
羟@@
鼓动
踢足球
收受贿赂
法文
214
运输业
二等
塑像
秒@@
浅色
调皮
6008@@
入冬
吃点
一问
相关@@
解放军报
这番
权主义
艾哈迈德
琅@@
管理学
保障机制
抗氧化剂
牺牲品
哈里@@
Pl@@
埋伏
增减
催眠
凯西
攻略
在校学生
伤疤
西海岸
误以为
马赛
Tou@@
焦化
平顶@@
以西
客舱
照常
据信
手镯
率高
......
计算机系统
农场主
度假区
Mat@@
亚欧
会合
耐克
吏
铎
ite
痉挛
万头
承建
歉@@
李建@@
小说家
招行
逾@@
计划经济
危险废物
截留
苟@@
多亩
Pow@@
麦田
弗吉尼亚
王文@@
绊
代数
流浪汉
曙@@
特产
烟酒
畅游
冷酷
翅@@
从重
陕西@@
伞@@
卷土重来
安全形势
口令
留着
也@@
相关联
禁不住
所见
K5
QQ@@
启迪
场次
樱@@
彼得@@
孵@@
荒地
华晨
打牌
是如此
ade
以致于
亚洲区
印花税
大力加强
竞争@@
每场
说成
吃苦
粮食价格
垒@@
你别
不育
特异性
对台
冠以
amb@@
放任
物流业
托克劳
江门
情调
瞧瞧
工会组织
神州
负担@@
核计划
继任者
地名
宋楚瑜
涌向
SZ
美国国防部
刘晓庆
办公时间
惨剧
变通
十点
新潮
庭长
粪@@
与其说是
迟疑
葡萄球菌
批准逮捕
1940
芜湖
给与
自尊心
ime
熊市
缺货
哪位
发胖
本位
女性@@
You
杂志社
静静
联运
204
觉悟
后顾之忧
醋酸
刘强
万次
投资规模
差钱
数位
重仓股
归类
中暑
牙刷
卧底
杀戮
簇
民政厅
se@@
姓氏
请愿
凯尔特人
见效
无几
不难@@
喷出
相通
孙先生
Wal@@
漳@@
发卡
新闻纵横
安全气囊
假发
曲目
越来越近
监督权
3800
热血
消磨
任何一方
林熙蕾
树下
黑车
生态建设
值班@@
箔
运行机制
ily
收银@@
装卸
溥@@
过难关
财团
只顾
粘土
随身
机关干部
权人
1936
235
藐视
同盟@@
事要
摘得
绿叶
阿卜杜勒
印机
治好
体罚
这下
复制@@
紧急会议
商用车
雪茄
发电机组
国信
重大事件
幸免
卷烟
烛光
真爱
嗅@@
受困
弗里@@
某项
举办@@
不得了
Web@@
落脚点
离退休
大师@@
必要措施
und@@
林彪
爆炸案
蛛@@
买房子
困难重重
左翼
TP
咨@@
檀
猕@@
出租屋
做大
巴特
税后
白雪
试一试
着头
静脉@@
茬
揣@@
聚集@@
建议@@
兴高采烈
惨重
漂流
市里
俄罗斯联邦
澳网
赛程
AD@@
打起
上当受骗
胶带
韬
红外线
唑
大展
网络平台
重大突破
炸死
海涛
民航@@
中加
穿行
减磅
腋@@
函件
健力宝
赃
伴着
棍子
普通股
买账
射频
好孩子
休息室
网络文学
动画@@
名目
打猎
韧
更多人
苏伊@@
足球场
琛
活在
观主义
军事基地
蔓延到
联谊会
东湖
稳中有降
慎
崇
主办@@
芙
一举一动
透析
红歌
外传
179
爬行
中签率
社会制度
多边@@
湖边
中专
好听
碌
峡@@
轻声
房地
悸
出版单位
研报
PG
家常@@
打过
深邃
再起
绝地
斯托
正宗
原状
凝视着
遇袭
多分钟
此时此刻
这辈子
代表处
先导
韧带
公署
尼克@@
诗意
所得@@
积分@@
瞿@@
赶不上
重压
新机制
汛
拆开
害虫
打字机
前述
改版
维拉
手柄
港股
圣火
漂白
借此机会
正气
看病难
善后
金门
蒸馏
那本
bl@@
病患
虚报
干杯
大旱
汛期
苔@@
法测定
符合要求
君王
钓鱼岛
松树
师长
庇
二等奖
经常出现
英伦
张志@@
环卫工人
只能靠
一桶
形体
初级阶段
月工资
炸毁
1.00
唯美
学科@@
作主
合作开发
一波@@
音调
收官
引得
悄@@
手无@@
韩方
文化教育
大同@@
攀比
被执行人
施展
蹈
晃动
螺丝
计算器
施工现场
转手
取水
产假
技术开发
蜘蛛@@
暴风雪
哽咽
反转
合物
酒厂
巴厘岛
枪声
之音
Lyn@@
卷心菜
结案
CN
李志@@
纵深
192
舍尔
舅舅
沉积物
药方
390
美国联邦
王储
切入点
梗死
优先发展
迷宫
日新月异
era
不看
综合国力
1929
墨西哥城
白发
才艺
洋溢
德罗
专为
此起彼伏
基准@@
期货交易
处理结果
禹@@
骤然
水晶@@
共振
喝杯
襟
粟
转增
黄先生
被调查者
百货公司
双边贸易
外来工
彰@@
空乘
路费
招股书
我花
分词
沙尘
共生
187
骚
俏皮
胃癌
SQ@@
地级市
陈慧琳
东斯
减价
换器
千岛群岛
下层
皮毛
预处理
用意
政要
昌平区
宛如
暂行条例
负于
拂@@
遇害
对系统
遇到困难
白雪公主
自理
斥责
红豆
售票@@
间断
前部
中国女排
回首
Pet@@
几大
ne@@
字幕
兴奋@@
3C
第一线
陈毅
林业@@
长处
植物油
自觉@@
下限
殷勤
学区
加班费
眼科
多国@@
用血
侦
名利
大钱
Sal@@
何去何从
胀@@
炫
分阶段
自用
无害化
大中华区
哈萨@@
大块
在野党
王力宏
丝绸之路
襄@@
华西
上时
Sachs
当期
适应@@
样板
骨质
顶替
江宁
吃饱
年画
使团
隐形@@
这枚
丹尼
艾米
咱@@
到家
疏松
条目
心病
京津@@
文摘
月刊
刑警@@
商业活动
四十年
洛特
站上
提出@@
特拉
入境@@
金鱼
隆重举行
BR@@
捏@@
沐@@
黄小@@
莱德
杏
外来人口
行使@@
围住
蜕变
钮
搁
知识经济
徒劳
决定书
一帆风顺
经济舱
瑞士法郎
克赖斯特彻奇
巴拉
煌@@
打得
玉石
认错
生来
氯化@@
盾牌
情谊
颤@@
物流@@
固态
营企业
信息网络
新锐
克萨斯
睿智
Gaga
观影
岭市
前提条件
真谛
补偿款
保护性
华电
大胜
博爱
涌动
旨
未婚妻
起誓
世纪@@
滥
奇虎
圣保罗
献礼
日常@@
背道而驰
居民楼
流露
一时@@
变色
疏通
金刚石
揍
737
草场
逆向
专机
刻不容缓
马拉维
化器
宣传片
喷嚏
会议记录
抛光
亲生
螺纹
厮@@
现金@@
人因
修长
健美
黄埔@@
发火
小山
议价
完全符合
路网
580
VO@@
法医
无遗
大行其道
走向世界
职守
木屋
松鼠
瑞典@@
周期@@
ight
跳进
即兴
拍打
顾忌
异化
肺结核
He@@
细细
置身于
最起码
大步
轩然大波
琅
双边@@
翻阅
巨大变化
消毒@@
维稳
电脑游戏
据估计
科学依据
兴办
华安
高估
收买
张兰
倍数
相配
hold
旅游节
商业街
懈怠
金像奖
覃@@
上床睡觉
涉农
导演@@
墓穴
诺德
飞抵
小马
暴乱
江西@@
中餐
暴力行为
水力
蝉联
之光
吕秀莲
充值
具体内容
李泽楷
脚踏实地
结了婚
亏本
出血性
三星电子
进口国
天平
北京市公安局
str@@
直降
滨海新区
中游
分项
车船税
颌
甚微
确保安全
很受
启事
流行病
横扫
礼拜@@
心怀
打进
造影
和平共处
思绪
标书
技术员
2900
强悍
解决不了
叫喊
二次@@
近些年来
BM@@
宠@@
意象
拆迁@@
切斯特
步行@@
喂食
难以想象
缔约方
热身
绷@@
拆解
分布@@
无机
亮光
穿衣服
010
父亲节
船厂
主推
变化率
股票交易
们@@
灵活@@
全员
描绘@@
拭目以待
第八章
仲裁@@
啸@@
原名
第四十二条
树丛
病假
致胜
宙斯
问过
宝来
炮兵
雷霆
管理法
集中力量
信条
免收
连通
芸@@
张裕
归结为
升降
篮球@@
回乡
重头戏
不忍@@
端庄
中层
顺风
谷底
别样
了之
伙食
钻探
事事
文联
种菜
卡洛斯
凹陷
未受
上以
陈云
克雷@@
奋发@@
天文学
三重
今天@@
钻孔
打赢
婚姻关系
扩
含糊@@
主创
阿拉
闫妮
硕士@@
FA
主办单位
蛋黄
六年级
内斯
龄儿童
讲授
埃德@@
户外活动
洽@@
镁@@
麻省@@
会商
宠爱
金条
资金紧张
那套
拦
抱住
我校
他于
迁往
力不@@
铸铁
阿鲁@@
白热化
倪萍
ak
切开
有所改善
直立
那片
海燕
顿饭
闯进
早熟
括
贝格
新进
A4
咯@@
文静
岂能
仲
手铐
扫帚
随行
发芽
1931
灾祸
理睬
德文
一万
全国妇联
EN@@
亲生@@
警醒
交易商
影视作品
亲和力
殖民@@
自相@@
四岁
卫生保健
珈
切合
东盟国家
托福
代会
RIM
全部@@
得天独厚
监督机制
白金@@
神气
一动不动
来过
云山
传动@@
自给自足
长裤
驻华
没有@@
治安@@
全面推行
大呼
硝
ish
椅@@
经济基础
四面
无法控制
晒太阳
多些
工作坊
称谓
渤海湾
打了个
挨饿
面向社会
业务量
惩
小牛
败诉
看得出
te@@
蘸
手帕
总医院
回头@@
林立
科研院所
哈德
常客
广告商
塔吉@@
陈浩民
一个男孩
草率
其内
垮塌
诸如此类
联姻
费解
小人
VC
前额
问号
纵队
超时
柴油@@
新购
神仙
假酒
第四十五
东京@@
侦办
模态
三餐
13.5
第二步
涌现出
久久
八路军
内陆@@
活生生
国务院发展研究中心
教资会
战国
玩儿
大学校园
昼
石膏
杨一民
500@@
画报
精神疾病
谦逊
击打
知名人士
王学@@
仑@@
WT@@
十九@@
ES
附加@@
店家
跟踪@@
这趟
公海
非传统
紧急状态
几千
书目
纸巾
收藏品
复制品
限时
韵味
多场
县乡
Jam@@
铂金
钢丝
空隙
捐赠者
WS@@
楚天
好客
热卖
住宿@@
项目经理
机芯
姨妈
青菜
路人
包揽
心人
瞌睡
意见书
短路
卖力
剑桥大学
最低气温
流动@@
桥面
衔
驱动力
像样
厄运
游泳@@
统计分析
清点
F1
机翼
参看
前人
亚瑟
过瘾
6005@@
个人财产
相距
表示祝贺
某处
群体性
无一例外
博茨瓦纳
人际@@
袖子
托斯
起跑线
达人秀
智障
茄
之痛
尼古拉
世界大战
科考
砌@@
食指
私密
别看
韦迪
外包
整晚
波斯@@
苔
供需矛盾
翻一番
弗雷
载客
空巢
泥沙
国米
受骗
帐目
成本价
城门
楚楚
孩儿
呐
润滑@@
摆放着
汁@@
秸秆
导线
请原谅
不道德
硒
夜市
水深
就会
一卡通
处死
具体办法
谢天@@
骚动
四处@@
您@@
小觑
代工
粮食产量
应征
一首歌
丹尼斯
喧闹
华能
委婉
宣泄
类股
罗斯@@
账本
日益突出
张玉@@
不同之处
伴娘
北车
意料
抑制作用
审计报告
这能
练习@@
夺去
重要依据
茫茫
he@@
气囊
中级@@
破烂
莺
ISO@@
长成
oft
尚存
更广
照曝光
该软件
保户
嗓@@
安德森
何鸿燊
直接@@
两眼
阈值
当代艺术
行政区
徵
表象
侄女
显现出
搬到
河岸
伊德
FBI
营利性
纤细
辛辛@@
成章
棋手
精巧
天鹅@@
撰@@
第四十四条
哈瓦那
再生@@
淳
真实情况
有奖
国际品牌
赎金
平地
171
磷酸
马萨诸塞州
任何@@
全境
德兰
中医药@@
不留
涂鸦
介词
义务@@
偏股
一举@@
优待
法国政府
教程
兄@@
得逞
合同规定
笨蛋
海峰
嗦
中人
规划局
马达加斯加
客运量
喷气@@
全自动
停用
小红
感觉@@
反应器
提防
沪深股市
拆分
水汽
表单
熨@@
民服务
中美@@
赃@@
舍弃
行至
牡丹@@
救济@@
Lady
中国国情
仅凭
客栈
ich
盘面
聚一堂
烟火
准予
八强
水路
文华
出过
3DS
囊肿
旧约
正为
收集@@
师父
亿斤
不如说是
昆山
攻击者
钢结构
CM@@
个人隐私
德市
瞥
贝尔格莱德
唯物@@
笼统
上载
奥利弗
选聘
平等@@
隐私权
兰州市
提高效率
俭
痴呆症
详见
停车@@
大船
回击
草图
厦门大学
计征
回访
谓语
忧心忡忡
新纪录
反补贴
大幅度提高
弥漫着
方向@@
仔细观察
啥@@
李鸿@@
负责制
徇私舞弊
我爸
婚外@@
磨合
电路@@
更衣室
吉斯
同类产品
理想信念
平民@@
乌云
佳绩
假想
群星
过渡政府
石器
偷盗
深思熟虑
老城区
真切
不由得
下部
驻守
中日韩
强健
选拔@@
一袭
非常规
脱节
乔治@@
202
宝山
错位
继续执行
建设局
ange
石榴
激化
本币
配电
苏里@@
李玉@@
PPI
阿斯
伴奏
领涨
开明
零年
论据
老兄
慰藉
结核
火炮
中学校长
百事@@
判断力
俗语
联欢@@
研判
守住
七点
客家
朝阳@@
鸡尾酒
省去
陨石
爬山
绿色食品
国家一级
七夕
莫名
淮
河西
在政治上
园子
爱民
通达
囚禁
抽样调查
违约金
ane
Alex@@
数十名
net
藉此
大都会
消化道
免责
ts
爱国者
国事访问
地理信息
频出
侧重于
切口
局域网
猛地
痴呆
议事日程
江山
变幻
有利可图
直言不讳
瞎子
乡亲
活跃@@
非正常
工人阶级
收支平衡
坯@@
惠农
军售
奋斗目标
重写
Dior
音速
分社
囚@@
压倒@@
中安
香格里拉
内尔
巩俐
高喊
贝尔斯
三门
业务收入
时针
公务人员
上百万
我妈
地区性
之遥
汽车销量
同龄
人类学
凳子
6007@@
搅
业余@@
观赏@@
报到
人以
清清@@
百万@@
苏泊尔
莫里斯
书画@@
课后
举着
松开
氮氧化物
舞者
新学期
热处理
浓烈
斯说
蓝筹
所定
制冷@@
53@@
广交会
递减
明细
独裁
住宅楼
斯托@@
考前
哥伦比亚大学
切忌
北京大学@@
箭头
首日封
权势
连带
糕点
L1
办园
数百人
战乱
多用途
整修
含金量
告示
乐见
一动
教职工
绝缘@@
空话
荒野
大一
恺
街市
申科
berg
敲打
南京大学
臭氧层
牡@@
采编
协管员
冲刷
活得
汽油价格
依存度
该司
法律文书
一格
代代
孝顺
盛传
卡罗来@@
做广告
四类
勾
音像
中华民国
花边
李启@@
邓小平理论
好几
唯独
被保险人
卖完
钓鱼@@
书记@@
Tom
钛@@
第四十六
白皙
box
中北部
复数
接洽
抗衰老
POLO
农林
从未见过
心来
苏州市
瑞斯
编辑器
豌豆
一郎
他州
报请
言不@@
烟熏
抑
生日快乐
相干
从市
运营@@
不配
佳丽
ike
标榜
意外事故
沉沉
先烈
年轻干部
参差不齐
而入
恰恰相反
圆圆
人寿保险
效忠
筹备工作
表演者
CFP
乡亲们
公司员工
髓
大礼包
不计@@
果酱
俚语
卖空
青铜
雷德
玷污
在经济上
四年级
原以为
分期付款
可到
梓@@
圣人
功利
一去@@
咕
学历@@
堆满
学派
插头
库房
不利因素
斯汀
蹒跚
解毒
方圆
灌溉@@
嗜好
安乐@@
划船
夷
试试看
内贾德
列国
游荡
吴奇隆
强奸罪
SAT
PD@@
投篮
请勿
暂未
童工
有生@@
埋头
残奥会
禹
知识产权@@
电场
节约能源
52.@@
尖沙咀
粘度
党报
填料
必拓
大专@@
摘自
无核武器
推倒
灵性
志明
景德@@
断绝
藉由
爱迪生
大不了
发表@@
水壶
梗
不齐
扫地
褐@@
迈尔
奥克兰
让给
房山区
博览
愚昧
嘴角
食品卫生
教育经费
加收
糊口
明朝
徐克
周文@@
牵挂
装着
水井
芭蕾舞
青岛@@
发地
匡@@
须要
彭德怀
泗@@
羞涩
Ag@@
410
凋亡
憎恶
包容性
分派
总参谋长
做爱
贯彻执行
候车
边远
水星
eBay
廊坊
服务生
卸下
字形
寺院
慰问@@
探明
夜色
疗程
受限制
核潜艇
陈德铭
诡异
宪政
身患
国脚
学校@@
安全可靠
开封
侃@@
排在
转包
FS@@
公共场合
仅剩
发送@@
闪闪发光
沛
状告
瑰@@
摩纳哥
当之无愧
畅谈
资产负债率
统一战线
闭上@@
整形@@
张春贤
声势
犁
之母
切削
油井
骥
襄阳
连锁反应
亚丁湾
庚@@
制造者
质朴
脱发
隐约
纹身
路易
演艺@@
不为人知
娱乐节目
监事
考取
We
合作者
科院
之又@@
索尼@@
控性
自嘲
单行
地要
满满
生命科学
拉低
男演员
时事
正当理由
严厉@@
嘎
蜷@@
滑行
祠
侏@@
一应俱全
感言
学得
利用效率
视网
中年男子
无期
出国@@
惩罚性
米亚
长城汽车
燃起
球形
BMW
琐碎
往下@@
教派
号召力
甄别
涌出
舜@@
八国集团
生活用品
奔走
立方@@
食品类
满怀@@
放眼
BA
222
刺耳
时用
央广
控制技术
母牛
巴拉圭
ens@@
党政@@
上作
见于
刺杀
王者
诱饵
本地化
擒@@
教义
参事
颗粒物
记忆犹新
当有
罢免
承压
常理
树种
大将
193
花都
征婚
年版
那好
卫生室
关键所在
美国股市
当真
荔枝
缴交
溯
名胜区
兰博基尼
菜品
李彦宏
权力@@
喷泉
腾翼
虚荣
原发性
万部
戏院
威海
0.05
复读
石灰@@
例会
燃料@@
LL@@
不具
空置
任性
挖掘机
征途
可视
齐鲁
之歌
嘲讽
寄出
诀窍
考录
不以为然
体谅
坎大哈
妇产科
唐太斯
话筒
工作进展
金奖
均等化
摘下
真心@@
伙同
族自治县
万岁
太平洋地区
期望值
高雄@@
香港政府
狙击手
不合@@
砖头
编译@@
彻底解决
凝视
铺天盖地
爱丁堡
合众国
恢@@
涛@@
经费@@
侵略@@
高高
可比@@
俑
ax@@
兴致
警卫队
停业整顿
干掉
扬声器
和县
惊异
娴熟
拉开@@
统计资料
ama
液晶@@
嘉实
银河证券
拧@@
镜片
可恶
台市
年产量
产下
人时
比较复杂
批准@@
st
Step@@
下探
库尔@@
瓶装
天府
衬托
佛罗伦萨
布鲁克林
证言
一帮
斌@@
长足@@
小到中雨
儒家
腐败现象
外国游客
滴滴
考核@@
得失
超级大国
物管
加州大学
高音
江泽民
时评
第三十七条
存贷
诱
邻里
一二
上海交通大学
合璧
男星
收件人
建筑节能
逆市
配音
肋骨
赞许
书桌
特罗
公用@@
罗恩
425
外泄
存取
正统
服务提供商
零售店
大门口
收费@@
圆满成功
金庸
养殖业
主动权
不人道
病态
图示
批评者
换挡
蔚
甜甜
大容量
彩绘
惨烈
清远
新家
国际收支
游乐场
事主
真能
楼面地价
平平
涤@@
驾乘
Store
242
寥
河湾
发表文章
总得
量级
锭
客体
回放
污染@@
制高点
第十
食宿
麻醉品
比较突出
豆油
伎俩
衍
化工厂
稽查
10.3
李学@@
扑克
栈
运输机
住院治疗
政体
希腊人
高招
击球
省部级
宝贵@@
覆盖范围
加油@@
闪烁@@
灵动
前置
喷涂
每条
操作性
伸向
但会
生产方式
稻田
立法机关
三部
爱慕
安葬
Bur@@
太子
驶过
种业
明年初
强加@@
缸@@
贻@@
开战
审计工作
昧
架设
群山
第四十条
宅基地
竿
by
基本一致
快餐店
妨害
残疾儿童
澜@@
FO@@
雷阵雨
凡客
谐波
消费国
推诿
不买
汇丰银行
英军
这幢
以利
太阳镜
等效
贴士
退休@@
Man@@
糖浆
调拨
生菜
炯@@
攸关
经济繁荣
幼年
禁赛
流星雨
大客车
一百万
几百元
喜乐
大旗
小盘股
庚
矿山企业
止步
同心
阿比让
油藏
塞尔@@
和善
鱼肉
221
月期
长丰
84@@
隔开
洪涝灾害
很重
保密@@
二要
殖民主义
应声
相对论
檐
气候@@
地头
自卑
旅游区
沙湾
参考资料
驱赶
农业部门
刑事诉讼法
槌
警用
国栋
小盘
带头人
谱仪
明尼苏@@
主队
远征
解码
提供援助
吹嘘
天水
全球股市
各个@@
男子@@
四军
一流大学
中国工商银行
山洞
取得胜利
人民警察
水解
光合作用
入账
平方
报应
商务区
爪子
有朝一日
三房
超薄
硬着陆
10.1
利用外资
信息管理
混合型
暗藏
第一手
导火索
重拳
失主
特技
遇冷
浑身@@
没完没了
独裁者
核电厂
蠕动
流派
胃肠
Fi
牙科
掉落
处理程序
瑛
橡皮
预谋
销商
摸摸
副产品
升降@@
利益冲突
洛普
der
性能@@
下基层
落叶
540
王金@@
造船
无私@@
有礼
花草
新东方
熔化
Goldman
ure@@
百老汇
奶业
抗性
立国
占到
缅
增派
职业化
触角
诉讼法
冲高
短期@@
可调
豹纹
诫@@
苏维埃
边框
教育工作者
瘤@@
险些
年生
阿拉伯国家联盟
图片展
等奖
不止一次
管炎
联席
乘船
调离
山河
哺乳
得名
渣土
出征
阻拦
227
亿万@@
北京市委
汤圆
189
海合会
ker
聚餐
乱七八糟
行政区域
全靠
年制
对岸
实则
赎罪
变卖
圆明园
监督局
失去@@
中巴
摩擦@@
试点@@
心有@@
周先生
植物园
载明
抓紧@@
质性
胡乱
我见
高院
在所难免
阴性
苛@@
血型
哗然
纸业
裂痕
透出
李春@@
四射
出现@@
宴请
声中
军事设施
经济师
色情@@
诵读
进补
787
冬小麦
第三种
三厢@@
爱着
谢尔@@
症结
hone
裨益
亏损@@
统战@@
乌兰@@
氰@@
优势互补
遮蔽
逃往
狠抓
收盘报
而应
而战
打官司
营区
人生观
坐牢
密切配合
蚌@@
出道
灌木丛
娼
主犯
淤泥
酒楼
显微
郑洁
满满的
橄榄
反革命
Secur@@
凯恩
形形色色
工人日报
land
标牌
党代表
待人
呦
呵@@
Peter
分析表明
欧式
掌权
艺术馆
融通
象征@@
公关@@
脆弱性
那句
环境友好
口吻
嘲弄
教育网
烈士@@
国产化
药价
叫作
传开
新路
mail
增白剂
西贡
经济日报
政治局
cl@@
惜售
王岐山
记录下来
临床试验
传票
热身赛
土族
尿布
亚太经合组织
18000
教育者
工程款
人多
长宽
蝗@@
共同富裕
必修课
盲目@@
部门@@
推上
贝特
吵闹
急躁
三份
全食
禁试
连队
米处
连年
礼节
新疆生产建设兵团
头角
周转@@
城商行
周围@@
1942
悚@@
题型
而异
停板
隆起
调换
投递
紧迫感
业务流程
能源消耗
贩毒@@
下周一
纳闷
盗贼
慷慨@@
扼要
奠基@@
本局
isa
人帮
安装@@
明义
哲学@@
660
一百零@@
豆腐@@
房间内
经济型
弯腰
洽谈会
定式
受孕
回路
非常容易
旅游胜地
劈
磺@@
赎
略低于
演奏@@
高开
日程表
独具
社会活动
兵器
安监局
新鲜事
自古
兴国
水坝
告一段落
刘延东
认真贯彻
Is@@
代表队
寡
高科
衣裳
敬礼
解释@@
感想
刊文
内政部长
饺
今晨
肆无忌惮
不明@@
一大笔
ute
漱@@
一厅
应用领域
万字
无休止
公司总裁
赤裸裸
严控
同仁@@
力作
一抹
保释
聪明人
声名@@
展览馆
多数@@
投诉@@
美国大学
科学合理
亲民
壮举
第八次
鲜为人知
m2
最高价
燃烧@@
大名
番茄@@
接壤
英格兰@@
简朴
教学模式
XV
得利
大大@@
400@@
训练营
耶利@@
人命
幔
拟合
二极管
第四十七条
靠拢
务求
马特
汉堡包
前夜
国民收入
挣脱
谢谢你们
波澜@@
融为一体
如需
南方电网
麓
欢迎您
雏形
隐匿
Gen@@
粟@@
人与自然
核心内容
赠品
名模
苏醒
州大学
倒票
镶
擎@@
各样
妈咪
危房改造
台面
浦东新区
中青年
特写
眼睑
这令
共谋
泸州
鱼雷
海选
一跃
卡斯
张曼玉
潮汐
多少@@
优缺点
电话会议
晟
政策@@
6003@@
冲锋@@
以待
缎
境内外
多长
年迈
CI@@
穴位
耸
爱戴
合作医疗
温差
战争@@
第一周
据我所知
施瓦辛格
利士
受援国
塞夫
警长
外型
北京城
pe
网上银行
该次
硬性
不设
公分
驾驶室
均等
1939
那颗
仿效
伸进
严重危害
出水
远大
叁
列宁
犹太@@
赠款
犀牛
闲逛
我试
悠闲
核燃料
邯郸
刘若英
交通部门
斯通
三件
崎岖
阻抗
吸引@@
停住
拉夫罗夫
不了@@
必然@@
渗透到
挨着
结伴
炮制
恐怖活动
余生
续航
财产权
生存环境
App@@
促进@@
14.5
城南
笃@@
舔
蔡康永
一齐
精细化
走弱
机率
尼特
布利
乍得
义务人
路途
HS@@
听说@@
戒备
贫困家庭
Zynga
胡主席
聚居
绵延
口市
大业
不提
太阳光
不渝
出租房
字节
鸦片
规制
长年
毒气
缓期
恰到好处
代词
流言
旗袍
张大@@
一两天
袁世凯
录音机
保护伞
涉毒
独处
见成效
有所作为
斯利
急功近利
报料
特鲁@@
点击率
Cr@@
故障诊断
恩赐
眸
狙@@
格调
Inst@@
装水
绕行
一视同仁
好好@@
超低
遏@@
赣
191
磐@@
交通局
年轻化
明月
交付使用
机遇期
女将
悼@@
亚的斯亚贝巴
大娘
会考
普及率
反对@@
颓@@
度假@@
屠宰@@
十倍
乾隆
庄村
参选人
与生俱来
中南海
受到限制
ans@@
坦率地
不由
奴役
图形@@
跨国企业
Em@@
铁塔
撑起
反问
扉
审问
圃
冒用
休息@@
头球
虚高
凌乱
后部
保修@@
标准煤
合理安排
携带者
富商
直截了当
箴
弗拉@@
支持@@
蜗居
女服务员
运动场
脊椎@@
新思路
社区服务
软硬件
197@@
茂密
膺
膀@@
坐火车
这番话
浇灌
方市场
柔道
1935
新闻联播
郴@@
脉络
修身
献血@@
斯坦福大学
火箭弹
机枪
突击@@
回过
自动扶梯
被选为
淮河
路基
约翰内斯堡
交警支队
开放平台
轰轰烈烈
效劳
怯
凯莉
幼虫
白细胞
老天
电视广告
很想
大修
颌@@
一声@@
哈曼
易观
up@@
行政拘留
磨难
技工
实地考察
税前
三峡工程
火速
业主大会
备件
飘逸
集中营
现为
琢
睡得
一条街
德赛
长治久安
玩弄
作协
私事
结构化
谢绝
良性@@
危机@@
芙蓉
遮掩
中国海
碎石
外向
三桥
剽窃
255
水塘
参战
千亿元
坐落于
矿权
死者家属
自由泳
名列前茅
多纳
骤降
冲击波
低沉
狡@@
若能
ix
鸦@@
扑朔迷离
葡@@
殊不知
拧
九届
牧羊@@
告诉您
避风@@
违例
疑点
走私@@
巷道
999
焕
创新@@
布鲁克斯
Coupe
延后
褶皱
斗殴
甚者
盗取
创办人
热线电话
App
一晚
鳍
0.0@@
说得对
离合器
外逃
挂出
制造厂
意境
对内
公公
雅致
偏远地区
副词
淋巴
不无
不掉
含税
指挥员
三毛
速递
空心
所列
会因
德鲁
某地
打成
堪比
策划@@
莴@@
电饭@@
比萨
翻拍
跨文化
笔直
沉重@@
遗传学
司法部门
前后@@
财政状况
共体
工匠
斑斓
显赫
日益严重
珍宝
果真
尘埃落定
综艺
绿营
预算内
铵
系统对
中子
巴巴多斯
iT@@
里斯本
安全部门
ult@@
李小姐
板球
霍尔@@
两厢@@
十佳
苍
涅
婚姻家庭
远远@@
亨特
愕
散播
互访
阿尔法
职工工资
涯@@
杂项
ia@@
电器@@
烟草专卖
厘
相差@@
风衣
成正比
监测站
集约@@
敌方
非常低
真不知道
兄妹
钊
飘扬
弗雷德
妓
贫困生
麒@@
光头
气象专家
田里
热狗
多媒体@@
预测@@
下单
外汇局
喷洒
诈骗案
钱江
游走
攻坚@@
Ltd
不爽
语录
赌王
基站
市教委
采取相应
气派
最让人
高浓度
国家元首
羌@@
优惠活动
昌县
外事
203
著作权人
电力行业
度日
快活
比方说
斩获
理化
亿亩
咎
6006@@
跃居
丽萍
胡萝卜素
平均气温
这么久
连接起来
人际
厂里
仪表盘
等同
几下
相对而言
偏重
明智@@
今夜
申遗
万起
高配
很累
吴淑珍
从头@@
波尔
后腿
106@@
折算
病害
新工艺
身陷
如期@@
膨大
工程机械
弱小
论调
鲁尼
难民@@
期末考试
不端
裸照
前科
流下
大路
无锡市
计时@@
228
逾越
便民
华侨城
而下
寅
个州
端正
婧
民法
武汉@@
下岗@@
几百年
解除@@
最小@@
形态@@
丢脸
观音
FT
逆差
稀土矿
满目
Sa
谜团
郑秀文
市郊
搀扶
森林公园
买点
王玉@@
丢下
接线@@
鲤@@
台湾当局
优惠券
嘴边
彷@@
布尔@@
Wi
第二类
两枚
强暴
佳肴
驱动@@
匣子
一招
用功
丰县
阿尔
哥们
借壳
月租金
净水
刹
拉链
万到
乐业
军费
拴
申银万国
聚氨酯
睡眠不足
日报社
侍
纷呈
维特
美容院
ara
相册
羞耻
四起
寝
软组织
栓塞
致信
爱情@@
慈悲
那样的话
sch@@
叨
遵义
床头
一箱
如出一辙
弄错
紧绷
照明@@
可循
领导力
父辈
当今社会
外务@@
凯歌
ol
出去玩
深有@@
通透
犁@@
师德
经济圈
马州
调情
敬老院
利弊
PL@@
搜房网
银根
ational
嘻@@
万军
未定
数为
装成
繁衍
年青人
放牧
补习
精神障碍
僻
托盘
鞠@@
兴隆
异物
发电@@
株洲
马术
品行
韶关
全神贯注
做文章
圭@@
窟@@
彻底改变
资源分配
以身@@
陷害
直门
请示
74@@
正义@@
山水@@
中小@@
建筑群
不成问题
安吉@@
国际形势
梯队
装进
雾气
听不见
视窗
定格
波澜
花冠
GE
回顾性
直机关
危房
沂
外卖
之神
就职@@
辫@@
0025@@
涟@@
Java
不实
先进事迹
低利率
包厢
鲜见
pro@@
开进
男子汉
医用
归国
ani
续集
十多个
接驳
梳
制导
轶@@
无所事事
编入
外经贸
彻查
疫病
卫平
PP@@
取得@@
时数
黄兴
南北@@
担架
尼奥
特务
名酒
利害关系
John@@
间歇@@
锦旗
三大@@
引进@@
种粮
制胜
津津乐道
社区@@
八届
凡人
亿份
探员
薯@@
后要
雪华
黑客@@
轻松@@
自上
越长
贷款额度
烷@@
ci
旅游团
地面@@
尼罗河
文艺复兴
皇家@@
末日
返回@@
..
海宁
致函
ement
嘈杂
舵@@
踞
脑血管
腺素
实绩
络绎不绝
服务提供者
拷问
满足感
大大减少
辛勤
柔美
寄生
货物运输
蒂尔
救助@@
加开
惨败
接续
爵士乐
幻灯片
无心
My@@
马伦
第一张
560
EX@@
色苍白
研究生院
怨言
郸@@
区区
早产
一再@@
寻租
防治@@
制作@@
散会
掉头
一性
授权@@
贪污罪
置之@@
安稳
经济合作@@
中央空调
军备竞赛
风俗习惯
乖
霸主
学徒
光耀
太极@@
第一类
轴向
两到
更多@@
本版
喊声
二百
翻了一番
农用
ds
莱尔
失信
套管
分配制度
攻打
始发
借助于
双亲
不缺
本行
匹林
同桌
末尾
参军
陪审员
快件
数以万计
调查核实
建局
毛泽东思想
ma@@
水系
赘@@
上周日
添置
谕
珠海市
艰难@@
名次
韦德
操场上
雏@@
俏@@
素描
法团
马德@@
更年期
一日@@
卫东
交通枢纽
萌生
深爱
be@@
骨髓@@
妄想
多亿
万年前
变小
截获
换量
入学考试
沉迷
起步@@
主治@@
碍@@
广告主
沁
A6
号角
经合
自由度
客串
辜@@
冰冰
辈@@
政协@@
积极意义
中下旬
王海@@
看不懂
勒令
摩斯
即期
通红
华商报
洛阳市
维和部队
康佳
Her@@
电镀
之快
萦@@
殴
记述
ove
安康
元器件
悯
香河
示威@@
史蒂芬
茂名
计费
姥姥
综艺节目
渺@@
祖儿
希腊政府
莫雷尔
216
红细胞
生物医药
堂皇
百事
飚
党籍
泰安
首架
治疗师
覆辙
定期存款
罗列
特兰
追究@@
市政协
沼气
潜质
事务所律师
大惊@@
黄土
长篇
惊心
装甲车
长距离
恼怒
百花@@
非洲联盟
纽
地爱
窗前
淘金
史蒂文
睦邻友好
现金流量
河段
独木@@
菌株
0005@@
贸易协定
除夕@@
屡禁不止
潇@@
抚慰
洪博培
倔@@
节课
灰烬
公证@@
尝尝
勘@@
拙@@
战略意义
AL
秀区
国歌
又名
保尔森
彼岸
陈伟@@
属单位
东北虎
哥伦比亚@@
花岗岩
认知@@
增益
大相径庭
环渤海
浆果
聆讯
女巫
市场推广
品牌价值
签订协议
无味
转给
花香
飞到
铆@@
亟待解决
信用社
议政
临客
无偿献血
白云区
吉布提
可享
九点
对白
Paul
露丝
在手
正对
368
名城
山下
子孙@@
多远
巨大贡献
措词
武则天
Al
二氧化@@
拉菲
按压
挂断
马龙
呻吟
康巴
公共事务
倾注
审查@@
画质
圣彼得堡
蹬
榴@@
北纬
坊市
一键
燕麦
该厂
资产@@
办公大楼
定位@@
家电企业
巡展
英联邦
过河
于事
院院长
涡
杀伤力
危难
遇险
国奥队
憎
CS
ps
亩@@
大洋@@
离别
悍@@
旺角
科幻@@
轻率
苇
一课
诺贝尔
扼@@
罗杰斯
全民@@
胶水
逐步@@
不分
DH@@
流水线
甲酸
弗吉尼亚州
出版发行
勤勉
苏格拉底
0008@@
爱车
触目惊心
文说
鲜肉
伶@@
货轮
燕赵
班加@@
这根
无形资产
持续上升
消瘦
罪过
Per@@
艾琳
药剂师
一枪
中日@@
前程
疼爱
惯用
唬
根部
藉@@
主妇
挫伤
图像处理
酷爱
王宫
短道
丹阳
渗透率
基线
施政@@
烈日
1938
佘诗曼
校庆
先试
楼花
坏账
按着
国投
汽车站
寄宿@@
马戏@@
单靠
蹈@@
头脑@@
王小姐
多巴胺
乏@@
驶向
丙烯
挡风玻璃
括号
光速
稳态
编码@@
宠儿
物美
工资收入
桦
‰
计算机网络
腐蚀性
一大群
滋事
媛@@
贴息
较慢
深入分析
哪有
面团
Manag@@
意味@@
科员
MySpace
上门@@
LA
雅居乐
贮藏
有目共睹
外公
休养
红人
伊斯@@
明治
今起
墅@@
爹@@
胡椒
有违
隆重@@
艺术类
常务@@
火化
游击@@
梦想@@
干扰@@
摩天大楼
住宅小区
引向
绑匪
绿豆
假使
能源供应
来者
盛夏
阿什@@
慧敏
第三世界
数家
躬@@
最短
详细情况
起云@@
含蓄
史前
纪律检查
火锅店
Micros@@
绳之以法
陈醋
速手
竺
红花
入场券
爱玲
立交桥
土豆网
晚安
未经@@
提出异议
拉升
重达
公司法
日用品
多普勒
批量生产
强者
俊华
Co@@
邂逅
羽绒服
资格赛
课上
愚人节
诸位
横行
硫磺
令其
标有
◆
无穷@@
雷尔
顺利@@
杂费
林伯@@
公安民警
金花
老妈
从未有过
耐人寻味
In
罗姆@@
肩负着
情报机构
燃放烟花
预设
小房
掐
表盘
换货
荟@@
借来
政治经济
公仆
中签
台当局
肾病
葡萄牙@@
新奥尔@@
皮球
收治
扫罗
iy@@
牵涉到
之人
加速度
趾@@
支气管
腾腾
大中@@
公正性
其父
处方药
漾
时长
回顾@@
石油化工
美元兑
卡罗尔
省外
户籍制度
万里@@
铁生
女仆
自由市场
有声
中国男篮
ai
残联
Mer@@
北海道
日圆
圈套
解释一下
东边
女人@@
瞅
八点
资源量
饱和@@
自言自语
秉持
击退
多党@@
鲁莽
二个
外宣
青铜@@
牢房
过场
尔逊
头骨
中央委员会
白兰@@
赡@@
叛徒
ux
野战@@
我心
潇
Gu@@
斯市
第四十九条
发扬@@
老王
职系
刨@@
Av@@
开建
默默无闻
违章@@
范本
大人物
MT@@
艺术展
划出
宫颈
鞍钢
二零零八年
免税@@
所获
砺
羡
会堂
导性
侨联
因在
污秽
金融资产
蹊跷
麻雀
Mot@@
做作业
一丝不@@
荣誉@@
逆行
消化不良
朱莉
国税局
找准
快速反应
导体
氧量
一见钟情
活人
利基
不正之风
巨大成就
年化
博彩
纪检@@
终日
凭借着
脸红
门面
坞
购销
吸金
海冰
垦@@
猎犬
分到
求助于
风中
疙@@
总区
西柏坡
过火
应答
十九世纪
霍思燕
双酚
几经
靡@@
登记注册
噜
学时
屹立
带我去
循
主修
铁轨
配置@@
咧@@
投机者
得力
中央财经
会想
下载@@
摧残
色谱法
深呼吸
女孩儿
翌@@
理解@@
回声
冠状动脉
极低
作出反应
喷气
ide
藏匿
穷国
美洲国家组织
红木家具
四十八条
致残
470
乳头
国电
伦斯
忿@@
三十一日
赛迪网
金龙@@
秘方
茵@@
宛@@
酬劳
痛恨
重获
拔尖
限值
胡适
网络服务
失业者
力推
严格要求
南市
疼@@
卡拉@@
不如说
当家
大伙
官方@@
特例
白电
热点话题
哉
敲诈勒索
凌潇肃
攀爬
垫底
执著
做主
若想
福尔@@
Lou@@
婴儿@@
API
亲子@@
寄予厚望
飞度
签字@@
进步@@
VA
任重道远
剥
Comp@@
价格便宜
第七次
少校
敞篷@@
55.@@
细长
瑞麒
西洋@@
颈椎
V8
窘迫
宵
娱乐活动
极端@@
mon@@
创业投资
啮@@
粉刷
沿江
广东队
珑
摊贩
信心@@
管理费用
怯@@
只眼
微米
了名
CO
植树@@
导读
尔公司
家产
名人@@
更为严重
坐车
校园内
性病
同住
神学
社保卡
IR@@
APEC
蜥@@
诵
防范措施
资企业
开除@@
寓所
马鞍山
当兵
佼佼者
群众性
交行
我读
出口商品
蟾蜍
一致同意
统称
集散@@
胆怯
宝库
950
中小城市
岳父
建制
回转
Kin@@
情操
药水
肘@@
网络营销
正确处理
消耗@@
可亲
左脚
信使
污点
关键作用
失措
长篇小说
神马
就座
过路
五金
劲松
长期性
翰@@
孢
票面
开门红
外层
跳板
陈致
忘不了
波拉
专户
主干道
迥异
惜@@
给钱
伸出手
人品
温网
ari
世界末日
珠儿
就是指
近郊
文明办
港台
脸型
城市交通
法拉
一成不变
生性
明文@@
出租人
淋巴结
工资水平
科斯
汉斯
不足之处
中兴@@
旧城
提单
水费
建议书
软件产品
外勤
泰晤士报
雅克
登记册
ct@@
央企@@
K2
松绑
卫浴
脊椎
工钱
鱿鱼
威严
法式
如山
财险
KB
内塔尼亚胡
中国气象局
单片机
阿娇
第二套
声波
立下
哨兵
浩大
不可抗力
答记者问
轻轨
原料@@
忻@@
吱@@
头巾
贾利@@
大龄
舟山
令人遗憾
小丽
第一副
莫测
希尔顿
北面
独家代理
Invest@@
有机物
平均数
后会
私生活
水浒
大屿山
网络时代
爲
交费
领导职务
比利@@
开动
预算赤字
着力点
1941
超额完成
Mo@@
税金
美国作家
背景@@
卸货
领悟
Brothers
特快专递
物项
抢险救灾
不比
效显著
转嫁
1912
水母
SR
生根
洋河
虚设
估
昔@@
石景山
指导性
年关
安全意识
慨@@
阅览室
和园
演讲时
港交所
唾液
记着
Val@@
正因如此
TFSI
结肠
惶
分不开
木瓜
建筑施工
远古
过问
做空
福利待遇
轨制
ress
导员
金石
POS
公共部门
不择@@
聚糖
不诚实
有名气
揣
严苛
文化大革命
吆喝
升职
潇湘晨报
测量师
空置@@
基辛格
传媒大学
墙角
极光
签定
回响
闭嘴
消减
舒适度
寥@@
不大@@
消防队
个市
文化名城
弗格森
清早
航天事业
文化馆
脚步声
涉嫌犯罪
万日元
王春@@
问好
天前
用水量
办实事
调味料
英语水平
51.@@
工程设计
瑄
华西村
剿
舰船
中级法院
ma
手电筒
锄@@
人听闻
恩典
整场
旷
分心
卡通@@
袋鼠
酰@@
灌区
刘亦菲
取笑
每一项
腓@@
肥皂@@
邵
机滤
锻@@
文集
Fre@@
着重于
摊主
报网
诉讼请求
高层建筑
人行
国策
易发
关卡
受精
岭南
远去
节余
周润发
服务型
沈阳@@
台军
南阳
去往
县区
不向
木门
辩证@@
王健@@
讲讲
Kind@@
our
署理
营业员
打气
宝骏
④
山药
传遍
餐会
刘家
特勒
爱马仕
稳步增长
生物质
我以
马布里
意向书
必然趋势
气概
C5
执意
气血
一通
姑姑
悠
精心设计
劳工处
一拳
推论
不前
奚@@
用料
皮细胞
国华
杀人案
器官移植
距今
战略规划
自古以来
Hu@@
套用
440
商品交易所
B70
六是
篱
英语教学
飞舞
蔻
王位
取保候审
邮递
诙谐
双重标准
口区
布什@@
图谋
0007@@
锂离子
爆裂
过生日
卖出去
波形
省高院
胆量
未免
分形
对非
熄火
倦@@
买卖@@
子弟学校
粗心
办成
说得@@
废话
传唤
车改
立竿见影
管理部
毕生
徒刑
摄氏
时尚杂志
科研成果
悉尼@@
捕食
在案
司空见惯
电容器
橡木
北京人民大会堂
核发
失真
军长
胖子
不合时宜
纠葛
好戏
蒙迪欧
进水
呐喊
列祖
贫困学生
研究课题
驻足
毒害
公允
教学改革
悦悦
胎盘
富贵
模块化
Hold@@
柚@@
摄影机
国内法
IG@@
预热
亲密@@
盎然
植株
销售者
冲冲
返港
达拉斯
邻苯二甲酸
导电
团委
呛
强烈反响
承德
生锈
衅@@
恰巧
利害
奢@@
主席@@
随迁
动器
后半@@
离婚率
劳动法
爱尔@@
209
古装
196
维克@@
ta@@
精制
城镇职工
洗涤@@
你去
请求@@
人身自由
吸烟@@
iPhone@@
叫卖
神像
辫
数学家
终点@@
简明
陨@@
停飞
枯萎
重大进展
实践@@
内线
付息
孔隙
荐@@
担负起
ory
相似性
增城
否@@
Mur@@
魔幻
某位
库里
光鲜
烤箱
博纳
视乎
地震局
监督机构
HS
TR@@
出对
怀柔
呈上升
阴雨
交汇@@
协办
迪亚
出入口
克里斯托@@
译本
温度计
HD
uk@@
排挤
驻留
意念
上海地区
创造者
展望未来
户口@@
样机
生活品质
神态
操练
心率
闪婚
详解
let
不断深入
几场
教研@@
奥拉
腼腆
通气会
吴敦义
证号
8500
物色
孤岛
食品饮料
阿里斯蒂德
一氧化碳
充电器
小道
落选
大计
记账
同属
工场
一览
安东尼奥
声学
塌方
崔永元
汽柴油
使徒
刚到
一大笔钱
归属感
螺钉
六岁
衣食@@
斗志
巴布亚新几内亚
东东
我区
易卜@@
女兵
储蓄存款
改善@@
没来
中仅
计生@@
ham
ro
ino
中年@@
直呼
按摩@@
失业@@
力学性能
Adobe
铺垫
53.@@
零售额
被害
泊车
属地
夹心
无声@@
Tw@@
拐卖儿童
穆沙拉夫
卡萨@@
车价
辰@@
亟须
嘀@@
拮据
EX
借调
家家
that
封闭式
缜密
直击
藩
Jon@@
琳达
da
陈炳德
脯
定期@@
入网
泡泡
笑笑
破冰
童话@@
可真
领军人物
大势
恬@@
张广@@
人财物
非同寻常
错峰
lay
误认为
风湿@@
噪声@@
勿@@
汉姆
北京电影学院
劳工部
上用
流感病毒
法子
康妮
预应力
守信
原诚司
生活费用
夏粮
跨入
全班
见闻
680
黑幕
育出
unes
避免@@
麦当娜
从何而来
挂失
大小@@
太长
睫@@
优厚
运输工具
新格局
阿基@@
刮起
理工@@
寄予
迎面
爪@@
拼车
崇敬
党首
组别
能源部
加工业
发帖人
北平
腹痛
所受
恭
陈文@@
负重
伺候
军控
无言
罐车
消解
充气
接二连三
持牌
象牙@@
突飞猛进
录像带
ur
主席国
194
播报
饱含
王刚
市属
SAR@@
一株
第十三届
俊卿
老房子
剩余@@
坚定@@
镇痛
歇尔
小声
倍受
极端主义
女篮
苏菲
身受
平底@@
陈年
原汁原味
情有独钟
日程安排
胫@@
缝合
跆拳道
喝完
音像制品
活鸡
团组织
GR@@
地以
一众
购物袋
采矿权
急促
行凶
制片
手边
讴歌
制度性
诲
水源地
而言之
诱骗
菜刀
百姓@@
讲演
美酒
胡润
美国联邦储备委员会
巴车
调停
尼古拉斯
一票@@
江汉
有法@@
大赦
两车
土木@@
两幅
改签
要件
刘建@@
军警
负债率
过会
枚举
刘淇
价格水平
余种
息日
瓜分
独行
庆市
百亿元
艺术创作
邹
汽水
X1
憋@@
港市
ey@@
官房长官
翻转
GP@@
每件事
电脑系统
悠悠
琵@@
组成员
岩浆
旧车
Ga@@
天乐
正品
舅@@
选战
军事训练
黄豆
标定
客户经理
李亚@@
调查表
内华@@
价目@@
咽喉
协同@@
结转
开馆
寥寥无几
阻尼
折价
约书亚
谋杀案
开走
起航
国土@@
期价
乒乓@@
歌剧院
删去
roup
佳能
宫颈@@
Office
每份
音乐剧
李昌@@
郭某
户户
街坊
团结一致
奢望
味精
巴罗
论断
投案
运行@@
动员@@
尼龙
承载力
市建局
季军
私立学校
情不自禁
音响@@
年鉴
飞来
萧山
沧州
对儿
乡政府
粘膜
反观
患难
京籍
偷偷地
马匹
黑恶势力
本区
玩偶
虞
不差
没人能
病毒感染
角处
Apple
青藏
Int@@
人想
趋于@@
盈亏
通力@@
关系人
依靠@@
憾
四五@@
收复
懒散
律性
中国化
书面形式
愧疚
行政法
非遗
小鱼
超负荷
生态旅游
维修保养
周总理
瘠
ks
红润
尽快恢复
工程施工
僵
罂@@
分文
大利
销员
新闻社
竞选活动
金融界
贝鲁特
西九龙
代下
渗透@@
园内
黑心
卸载
发电站
舞台@@
适用性
新途径
Sus@@
720
预告片
美中
高学历
骄傲@@
出书
即时@@
豆子
旅客@@
望而却步
Angelababy
这头
颤动
体重@@
匕首
面带@@
斯托克
燃气@@
科幻
布拉德
Li
讯网
网秦
具名
存续
贿
华人@@
继母
拉丁
闪闪
对人
心理压力
基本农田
辛劳
楼道
诋毁
连发
必然性
太慢
不幸@@
打斗
说真的
立足@@
提要
感染@@
拔出
密布
有误
体化
下身
绸缪
良多
快艇
外汇管理局
制造@@
独到
数字电视
帘@@
新月
韧@@
志向
一局
白纸
G8
珠江三角洲
异国
拿给
计划单@@
俄勒@@
1933
特里@@
技术培训
特里谢
尼克斯
流过
古埃及
iri@@
督
奠基
ander
清盘
经济指标
致人
第二项
动力车
云彩
观测@@
陈小@@
捉襟见肘
磨练
户数
不妙
研究部署
柑橘
革命家
十几
前列腺
刘国@@
七岁
眼妆
一听
服务设施
补缴
阿迪@@
平静下来
绑架@@
面而来
搞错
核酸
追讨
步走
缔@@
华夏@@
挂靠
预感
该会
前十
撤职
今已有
执法局
官兵们
应变@@
紧锣密鼓
燎@@
便饭
享乐
毛里求斯
诈@@
被动@@
家畜
啪
增援
目瞪口呆
海景
供认不讳
欧美国家
之恋
液晶面板
执飞
会来
惦@@
逼供
伺服@@
合议庭
产科
适得其反
十万元
假若
窿
苏黎世
羔羊
三要
ong@@
湖面
社会党
少先@@
西式
战俘
杨树
拖动
国防科技
网名
MO
吃法
复合型
这届
震级
奥委会
剖腹产
清香
必定会
洞口
960
民意@@
拍拖
酸酯
公权力
卖菜
上火
订约
外省
国际惯例
正中
社会学家
玻璃杯
硼@@
飞碟
本省
密云
摆满
杂乱
十位
腹腔镜
多孔
利马
提货
汽油@@
内生
凄凉
国宝
腑
虫病
明斯克
不分@@
烙印
商标局
德国政府
状态@@
憨@@
参展商
洼地
工艺流程
和蔼
224
杰西卡
躲开
S1
封杀
先于
安眠药
宇宙飞船
各色
919
萨摩@@
先行者
万象
长安汽车
七次
半成品
扮成
韦伯
冤枉
高技能
西边
天灾
大半
陋@@
巴基@@
焕然一新
手榴弹
任何理由
食客
高庆@@
醛
归入
预备@@
枸杞
猫头鹰
转眼
奥马尔
盯住
音符
甲级
聊聊
周海@@
烈火
街道办
木偶
暂时性
一国@@
心理准备
汉代
海南岛
之事
并不比
互补@@
保税
科鲁兹
反赌
朽
口述
丸@@
来来@@
运输成本
斯蒂
Chanel
漳州
搪@@
双反
打中
球场上
州人
差异性
揣测
连云@@
摇滚乐
辅以
长方形
正本
吵醒
悔恨
挤占
文本@@
适应能力
连环@@
Chrome
次生
深成指
壹@@
并报
大麦
菠萝
罗宾@@
Busin@@
大谈
所生
走得
好了吗
廉政公署
标识@@
沉迷于
功权
泳装
僵化
三军
昨夜
10.6
土库@@
社会舆论
塔尼亚
用词
呜@@
电子游戏
重罚
盖住
rip@@
补救@@
连带@@
遗留@@
4200
零售总额
用例
PVC
红红@@
珍爱
车牌号
垃圾邮件
作答
切实做好
喜事
各种因素
ave
水市
中外合资
易懂
亲身经历
但他却
柏拉图
增开
行医
速度@@
二进制
同仁
H5@@
不绝于耳
淇
一览表
交集
租给
初学者
前瞻
欧国家
插曲
摆着
乌有
高校学生
丽丽
肿块
粥@@
现场直播
上能
每台
很多@@
石油气
火电厂
新纪元
观察者
克鲁斯
停靠@@
夭折
沃兹
公正@@
联袂
榆林
心情@@
狂欢@@
亚斯
掏腰包
派员
化成
233
兰队
习以为常
笼罩着
马哈
级风
吉尼斯世界纪录
撞死
变身
赞助@@
应激
ities
分之
夸奖
实际意义
周折
纳金
准确度
他信
医疗队
追究责任
撼动
半壁江山
放在首位
ez
诺斯
进晚餐
应税
大起@@
五年级
阿胶
第十二届
欠债
Ju@@
建材@@
乘火车
咖啡厅
担保@@
荆棘
扎尔
法定程序
围脖
道菜
盲区
汽车集团
除此以外
借阅
uro@@
算得
悦达起亚
有数
酋长
赫尔
恩惠
键入
为数
区别对待
解剖@@
成天
太后
中会
默许
繁育
珞@@
裙装
内膜
膝关节
殷
举世@@
弊病
上船
茄@@
Lehman
自始至终
自由贸易区
地面部队
处事
王勇@@
两国间
心灵@@
质子
Dav@@
怪兽
港人
放在心上
之火
转租
阿克@@
融资@@
依法处理
值守
解放战争
三洋
情事
艰苦@@
深受@@
集中体现
翻天覆地
二零零一年
责任书
交汇
剧增
不明智
耳目一新
销售部
微机
Wii
藕
GL
红茶
不对劲
俘@@
高居
ark
水桶
布鲁克
联系电话
其人
国际象棋
调到
萨斯
节油
腰线
长安街
口红
平缓
转企
不法行为
56.@@
黄酮
硝烟
窥
比价
道格拉斯
4800
受聘
轻重
与其说
天国
平衡点
站不住脚
飞鸟
地政@@
米德
搬出
慎重@@
蹂@@
涨至
暴徒
李玮@@
烛@@
知情者
故里
Not@@
前晚
盖销
At@@
集约
连续剧
Jac@@
斯诺克
公事
交税
抽水
卵石
两制
Mich@@
久之
镂空
转录
考察团
生机@@
细数
桥下
噪@@
出生地
一集
化剂
小排量
感应@@
时装秀
纽约市场
呼气
ek
Willi@@
408
人民政协
何地
所欲@@
社保局
223
Sol@@
纸上
金刚
S6
耳熟能详
一顿饭
超限
髋@@
候机@@
免不了
修理@@
脑汁
老爷
最终@@
起居
随从
篮协
发生意外
每瓶
恤衫
党委委员
利德
钮@@
导弹@@
越好
法兰
壮年
调校
身世
Book
中国航天
北京奥运
咒骂
损失惨重
通报@@
跨区
哺
未人
排泄
当行
惯常
油荒
计提
祭奠
自贸区
农林@@
肩部
磁铁
报仇
泥泞
萨克
黑帮
Fi@@
格陵@@
1932
合体
iPhone5
前要
在位
联结
不是@@
教父
举世瞩目
一日游
能源需求
新泽西
择校费
惭愧
大鱼
瘩
詹
教官
球门
修订@@
性地
恼@@
身材@@
年检
针织@@
军衔
无形中
确是
双打
讲堂
承载能力
地亚
未作
无理
恭维
采访@@
人头
烘烤
变化规律
围城
各项政策
爆满
山木
1944
老客户
哈哈@@
孤儿院
驻华@@
多边贸易
见证人
坊@@
联机
卡卡
见状
睡觉时
颓势
漂泊
奥尼尔
面色
包里
十五年
诱惑@@
减掉
16000
第一百五十
城市群
投票站
ome
检疫局
圣者
率达
慑@@
喜马拉@@
参谋@@
正轨
牙龈
强赛
算下来
血站
参半
详谈
小到
妮弗
第一任
船体
战区
Kim
琰
地面积
古巴@@
司法鉴定
椎间盘
Fa@@
径向
肤浅
补习班
小泽@@
便衣
事由
挽
建工程
Research
钨
最迟
躲过
调器
成行
产学研
重置
药片
上班时间
赈灾
孙楠
就业指导
和平奖
包头市
并网
骸
大落
祟
β
虑@@
承诺书
让路
174
藏室
作废
幻影
材料@@
永安
钱塘江
胜诉
大典
情理之中
狐
公德
体征
可数
潮水
彼此之间
光度@@
都江@@
口渴
任意@@
受罚
sm@@
妇科
相助
利性
林某
过激
多花
面向全国
朔
米长
睾丸
漯@@
半数@@
生育@@
拉票
小心@@
薄薄的
会社
73@@
周董
此以后
岁末
花钱买
半场
样板@@
心里@@
一致意见
梅森
公平性
酒馆
发自内心
发自
吐温
地方法院
北部湾
迄今@@
恶毒
身形
置业者
小楼
口角
鄙视
柿@@
宿主
生物体
到此@@
呼和浩特市
价值链
爱看
开园
北师大
次贷
默里
团购网
游船
年费
元年
华远
一团糟
姆林宫
两代
闭会
绝妙
纱布
展览@@
烧钱
威士@@
燕郊
学着
实训
孟建柱
微软公司
338
上升@@
服务器@@
哺乳@@
财季
结合实际
头子
高到
总在
濒临@@
俘
北方四岛
新泽西州
逐步完善
易购
李嘉诚
一变
琥@@
中均
武广
宏伟@@
百余
周强
避税
点播
炙手可热
海带
誉为
滴水
足协@@
MG
0.50
贸易商
太平洋@@
正忙着
挟@@
状及
WIND
费劲
取自
完好@@
皮肤病
秋雨
奥斯卡@@
帕特里克
腹腔
C30
现实情况
家庭医生
霸道
穿刺
闪现
需要@@
预审
商榷
四门
酚@@
来源@@
笨重
一车
此书
之士
推波助澜
戴眼镜
形同@@
桃园
拍下
荒诞
湿透
ame
趴@@
玩玩
一盏
隔阂
红牌
要花费
售票员
平方英尺
发展商
甚少
影音
牲@@
几块
盈科
新婚@@
动情
小布什
闪光灯
阴茎
孤独症
清华@@
三分钟
有价证券
盗用
深市
稳居
副理事长
无虑
杀掉
四倍
形式多样
婉拒
牠
凉鞋
民间组织
阴沉
奴隶制
病原体
槽@@
灰姑娘
宣誓就职
协商一致
太华
精炼
婚房
藏獒
迪斯@@
霉菌
动听
政治学
膳
球拍
称道
搐
热火
太早
拆掉
链断裂
斯皮@@
区块
主轴
巴克莱
施密特
巨款
赫尔辛基
享誉
史玉柱
男足
测定方法
数控@@
面霜
受训
海事处
一亩
婉
存钱
灵巧
花生油
李长春
72.@@
无可奈何
ass
一无所有
黄河@@
小作坊
确定性
抗病毒
尚且
陈列@@
圭亚那
因伤
一不小心
普里
撞伤
流长
高斯
SD
僧侣
涉黑
四面八方
谁家
贪污贿赂
知之@@
挠@@
示意图
购买@@
莫少聪
关注点
业务部门
水泡
卡尼
票务
钟情
de@@
分裂症
迈上
适配器
旗鼓
做得好
打火机
锻造
陈云林
李源潮
友会
中国农业大学
漪
晶体管
pe@@
个别@@
杜洛埃
售票处
配色
净收入
伯恩
经不起
不甘@@
淡水@@
无穷的
合共
青藏铁路
临界点
天主
粘性
太子港
心不在焉
甲骨文
国力
必然选择
纵然
运抵
讲得
黝@@
画卷
eral
尔多@@
尼科@@
中介费
阅历
党性
原生态
保留@@
木耳
连败
后盾
尔多
情报部门
尤文图斯
隆平
宿舍@@
密切@@
范式
150@@
在技术上
宝洁
六号
节约型
表现出色
孢子
脸蛋
BD
蒙上
岩手县
旨意
毓@@
她@@
火场
走运
廉政@@
宋美龄
喇@@
巡回赛
昨天中午
前首相
动因
煤灰
河床
水滴
公债
不以
流程图
二度
百万计
李鹏
文稿
详述
要务
阿拉伯联合酋长国
辈子
认真对待
锌@@
行为准则
看不清
不为
演讲者
国家图书馆
装点
代表人
青海@@
电动@@
常在
恶习
炊@@
血液@@
郭敬明
本院
障碍物
思科
路由器
度夏
钳@@
姜伟
走时
参赛选手
喘息
德军
上位
两极
密切关系
妒忌
哥伦布
拜仁
胡杏儿
不孕
零花钱
愣
寄希望于
残留@@
噩@@
乌龙
今明两年
或用
圆圈
苏打
詹姆@@
零散
情理
次世界大战
出栏
点位
木工
服务队
社会性
太婆
蹴@@
个税
作品展
粹
配股
郑某
教育法
不结盟
钨@@
太迟
尼古@@
通用电气
知己
苟
脑中
泰坦@@
法人代表
洞察@@
DR@@
助于
蒲式耳
晴天
股改
邯@@
病逝
不强
尾随
时多
11000
水生
资金短缺
硼
房屋产权
韩庚
ABS
怂@@
防震
管理器
狼藉
寓言
比赛项目
成片
捷克@@
逝者
以价
澎湃
多有
贸易壁垒
迷雾
帕内塔
商业中心
所订
安徽@@
为时过早
菲斯
口试
EP
62.@@
星辰
AF@@
塞班
罗巴
最终目标
不由自主
辅助@@
屁@@
音箱
物价水平
奇才
一字@@
政治化
令人信服
著作@@
救灾@@
熟睡
寰
商务英语
违规@@
宝马车
专车
亮出
密西西比@@
算术
呈交
监视器
一吨
架起
Bern@@
透彻
滔滔不绝
猿
混战
三分球
学术交流
生态学
南开大学
玩法
法对
保温@@
清算@@
野猪
颁奖仪式
开垦
持久性
亿至
精深
金枪@@
梦寐以求
明令禁止
今早
留情
盔@@
插播
濮@@
漂移
曼彻斯特
拼音
掳
密欧
学位@@
沙洲
内销
假释
滋病
三居
玟
李刚
浒@@
学识
护卫舰
桌椅
困难@@
眼帘
保鲜@@
视频会议
粒度
米花
光栅
两件事
完结
深表@@
刑事法庭
神八
居留@@
三到
韭菜
射杀
民声
金香
阿联
弟兄们
伤害罪
策略性
与会代表
完全一致
工种
那家伙
建成@@
穆森
谷类
断断续续
渣打银行
肺病
风清气
卡拉奇
LOGO
受贿案
赝@@
龙舟
收储
波尔多
鱼儿
采光
XP
策略@@
进境
宏达
瑜@@
征信
岩体
法理
算盘
折衷
工作服
共同开发
山大
山头
顽疾
信贷资金
GIS
北角
竞争能力
桃子
社群
自拔
救命@@
省人民政府
承建商
廓@@
卷起
传真@@
胆子
可危
说教
华山
小泽
共分
戴夫
和约
永康
藻类
甲型
侯佩岑
屈原
大江网
卢卡斯
友爱
孪@@
攻入
指尖
佐夫
缉毒
食品质量
礼金
强降水
溯源
照搬
52@@
损益
降生
渡轮
评出
溺爱
侬
预料到
补足
瘦肉
政见
国民议会
维德
忠诚度
坤@@
汽车品牌
烧掉
摩登
54.@@
决定权
这轮
铤而走险
院落
16.5
333
敌对@@
出嫁
较长时间
计算机信息
正大
玉器
工业品
青草
定量@@
西里
哇@@
排水系统
心酸
当过
追忆
李子
小报
拉尔夫
巡航导弹
换算
魄@@
抖动
袁纯清
砍掉
美美
股神
姆勒
直接参与
跳过
泡沫@@
能手
长于
力军
改革@@
进场费
还林
弗雷@@
绷带
新西@@
孜
谩@@
楂
矛@@
峥
祈@@
饥
胺@@
绅
粹@@
绰@@
沓
蕉@@
org@@
杠@@
百计
现实@@
缓冲@@
不敢@@
择
测器
腮@@
中央政治局
蛎
阑@@
躏
昵@@
盹
巡警
CP@@
棵树
谧
粕
鲑@@
霹@@
朔@@
惫@@
不起@@
攫@@
灼
蜴
决权
媳
小到@@
燔
苓
遮
镕@@
傅
事局
克萨斯州
疱@@
被告@@
亢
国土资源@@
恿
葆@@
海中
耻@@
注目
蟑@@
中外@@
汹@@
瞄@@
郝
人类@@
造出
家用@@
石景@@
保险人
仗@@
双重@@
莆@@
不尽@@
疲
轰
闩
烟草@@
汰@@
加利@@
承担@@
陷入@@
晏
蛀@@
球菌
雷特
形势@@
保守@@
叩@@
迂@@
漓
惰@@
花生@@
纠
控股@@
拘
⑤
斯州
戊@@
寇
腰包
彻底@@
互联网@@
预算@@
心上
损失@@
居民@@
络@@
帕特@@
峭@@
花旗@@
SU@@
婶
凛@@
投机@@
作假
远地区
威廉@@
诫
卡梅@@
羁
簿@@
樊
广西@@
嗅
辙
热烈@@
商行
渊
锏
驿@@
钰
卡罗@@
腊
看病@@
胱@@
钚
售楼@@
眨
秧@@
锦赛
绮@@
碌@@
匠@@
自杀@@
晦@@
挫
彪@@
一无所@@
天文@@
茁@@
磊@@
贝利
阿卜@@
蛟@@
说是
农民@@
熵
疲力@@
夥@@
卯
衷@@
玫瑰@@
中有@@
芝加@@
pos@@
珐@@
腥@@
妥善@@
皓@@
菲利@@
炳
酣@@
踌@@
兮@@
吟
尽量@@
蒲
瘾@@
煞
摹
紊
风险@@
孤
鲸@@
蛤@@
棺@@
泻@@
犊
饵
哼@@
林志@@
惚
崖@@
姗
收益@@
酥
世贸@@
鲨
驹
吉尔@@
馅@@
眺@@
人道
监会
俐
裘@@
囧
榕@@
缎@@
中华人民共和@@
受益@@
哆@@
袄
惇
秃
馁
观众@@
维吾尔@@
进行@@
身于
海洋局
环卫@@
{
萨科@@
听闻
贝克@@
焙
波罗
蛙@@
协商@@
泾@@
鲍
尼亚州
法人@@
重于
流感@@
秦皇@@
食物@@
薇@@
城镇@@
Rob@@
伽
丙
樱
死亡@@
萧
马克思@@
TV@@
不觉
优势@@
头等@@
列颠
荟
成就@@
玖
蒿@@
鼹@@
濒@@
新社
土耳@@
惟
蔼@@
篆@@
有害@@
铰@@
苹
篝@@
摁
蛾
成指
杞@@
美国家
潦@@
颐
万国
昨天@@
治疗@@
剔@@
崭@@
赁@@
绸@@
骷@@
玻
楔@@
吻@@
擒
布伦@@
堃
斩
躯@@
苣
蜚@@
览@@
昧@@
博士@@
大兴@@
小到中@@
纭
锹
党人
瞒@@
酥@@
发现@@
佟
昙@@
酰
壤@@
物价@@
盏@@
不在@@
民党
泸@@
攘
方面@@
眯@@
挎@@
LT@@
峨@@
不绝
蚤
炬@@
胳@@
忽
疮@@
哈拉
怜
标志@@
穹
吝@@
采取@@
嘟
熏
肆@@
害性
澄
补助@@
GO
蕴
印第@@
钞@@
选举@@
璋
土豆@@
作出@@
丫
嚷@@
钴
紧要
煌
臼
鳞
占有率
太子@@
菁@@
DV@@
禀@@
桅@@
褪@@
庐
礁@@
轭
图像@@
舷
扮演@@
碁
不同@@
谙
妃@@
负起
比亚@@
医务@@
蜻@@
弊@@
了个
宕@@
痕@@
喱
镰@@
马克@@
嘱
瀛
踱@@
啃@@
DI@@
唏@@
臃@@
鸠@@
鸥
砥@@
萨利@@
勺@@
不复@@
装箱
萍@@
榕
兖@@
瘪
矛
娓@@
钼
溴@@
瑙@@
丹丹
共青@@
翱@@
实地@@
动不动
菏@@
发出@@
谚
琶
ld
社会科学院
嫉@@
峻@@
翩
狄
脐
掷@@
级市
多尔
鹃
钧@@
髻
迅
同性@@
坳
丽丝
lay@@
大会@@
亚特兰@@
纳税@@
}
褥
IB@@
提琴
莘@@
掺
岚@@
aby
工会@@
岔
矢
债务@@
麟@@
颗粒@@
汰
葡
旳
叼
贯彻@@
李克@@
并非@@
垣
诣
遗
一下@@
篇小说
统治@@
箍
②
修课
袤
象棋
依赖@@
供需@@
嵩@@
施瓦@@
阜
吁@@
房地@@
稳步@@
姨
喽
视觉@@
公有制
蜀
浏@@
巴塞罗@@
绌
添加@@
----------------@@
糕@@
筏
臆@@
浊@@
殖@@
邢
蓓
饮水@@
门人
臀
芭蕾@@
罔@@
林顿
霓@@
撩@@
以色@@
大革命
嫂@@
禄@@
非同@@
匾
些年
丞@@
事会
铣@@
箴@@
莽@@
斯巴@@
共处
人秀
呗
讼
擂@@
帜
脚踏@@
烁
龋
私营@@
钝
武器@@
讪
蓓@@
嗒
砝@@
颚
克劳
浚
UF@@
汾
占有@@
花园@@
闽
恰
电讯@@
理财@@
勘
谐
滔@@
茫@@
概
目的@@
疤
轿@@
渤@@
伊斯兰@@
裁判@@
峪
雳
瞠@@
海峡@@
Window@@
谟
册@@
茹@@
痹@@
传媒@@
上加@@
攘@@
幽
殊@@
青年报
峪@@
秤@@
咫@@
柬@@
张春@@
崽
氙@@
廓
加勒比@@
蹊@@
亢@@
侄@@
沼
泣@@
晔
惺@@
明确@@
胁@@
图片@@
od
珺
弥
薰@@
一惊
鄂尔多@@
踹
Chri@@
共产@@
洼@@
榈
淬@@
旗舰@@
潍@@
瘙@@
侥@@
俞
马来@@
姻@@
呱@@
国务@@
增长@@
巫
需求@@
归根@@
悚
资银行
撮
ov
啡
ht
牒
风雪
汹
蹋
嗜
箍@@
邬@@
北市
蜱
盘股
锣
廿@@
阪@@
嬷
芪
通知@@
刨
嗤@@
放大@@
大会堂
圆满@@
叽@@
毡
洙
诀
残疾@@
靳@@
场费
成长@@
之急
撼@@
泔@@
赎@@
两国@@
烽@@
心脏@@
西西@@
西州
琍
岑@@
如此@@
牌号
琦@@
赘
褶
地铁@@
沽@@
毗@@
袒@@
蚀@@
粽
有限@@
阅读@@
穹@@
窜@@
嘘@@
羲
蚝
铀@@
研讨@@
愚
毯@@
抢救@@
慵@@
傍
粱
不论@@
拂
唤@@
放射性@@
击手
戳@@
央视@@
俸
Wil@@
鞍
辽
B2@@
发言@@
馏@@
天里
罹@@
煜
结为
集成@@
屠
焉@@
Com@@
撼
怠
调查者
袒
可口@@
俱
毛里@@
通货@@
楠@@
兀
戎@@
传染@@
捂
攥
钥
芜@@
Goo@@
瘸@@
茸@@
僵@@
暇@@
不经@@
甥
咳@@
檐@@
偎
小刚
镐
源地
沫@@
梧
驭
几内@@
噶@@
种族@@
孢@@
焱
溧@@
昱
有线@@
亚特
甲状@@
吱
邝@@
为时@@
殃@@
骁
邸
足联
滇
货物@@
阿根@@
巅
然不同
泓
拷@@
蹦
十一日
那州
锵
病率
髅
撮@@
棕
瞥@@
斯堡
未决
臀@@
瞪@@
酶@@
衫@@
滔
撕
⊙
紧密@@
淤
巩
棺
敖@@
红十字@@
规模@@
倪
日来
铿@@
玥
巴拿@@
欺
饽
承受@@
个月
摞
耗能
衙@@
蔓
加尔
奖者
鸵@@
立案@@
国会@@
协力
拐卖@@
戟
镀
久性
装甲@@
驱逐@@
癣
不言@@
刺激@@
饽@@
犷
趾
涮
闵
投入@@
宙
不知道
议会@@
遛@@
军委
瓣@@
搀@@
啶
吠
郅
卒@@
稼@@
钝@@
芬奇
违约@@
憋
最大@@
谋杀@@
写字@@
录像@@
出人@@
不绝@@
讹@@
害人
来水
莅@@
足轻重
冽
各族@@
木家具
徕
愧
鸳@@
内心@@
Ap@@
寅@@
博物院
隽@@
西洋
搂@@
妨
楂@@
鹜
衷
多巴@@
瘀
妥@@
鳄@@
歹
注意@@
螨
多元@@
и
愈来@@
禾@@
耿
普及@@
播放@@
祎
啧@@
鄱@@
哈尔@@
评论@@
瞳@@
谓@@
呕
禺@@
谈会
空军@@
傍@@
羚
肃
加索
骐
柚
妓@@
一试
不动@@
长治@@
优良@@
矩@@
委书记
信托@@
言之
绢
唆
为数@@
芷@@
皮书
沽
正常@@
蜓
代表@@
癫@@
时性
茅
海淀@@
鞍山
胚
沓@@
定书
蕙
殃
羽毛@@
枷@@
隽
春市
寇@@
渴@@
盔
打折扣
射出
理查@@
妾
李大@@
所罗@@
侗@@
立大学
里程@@
彤@@
殖
美国联邦@@
淑
搓@@
----@@
固醇
嘲@@
不在
哈尔滨@@
桩@@
甄
咎@@
奥林匹@@
Adob@@
窍
污水@@
熔
巴马
皋
猿@@
缉
堕@@
吗@@
粳@@
Inter@@
蹑@@
龋@@
玫
赓
笈
侦察@@
垠
筵@@
楷
锰@@
陈德@@
傣@@
政法@@
特兰@@
对性
嵘
拙
寓
痴
可信@@
强奸@@
头市
邋@@
鳗@@
㈣
诅
陡
淅@@
弛
洛杉@@
舜
锢
初级@@
圩
铬@@
纫@@
摇滚@@
霆锋
札@@
嚣
乞
疵
派出@@
贼@@
娣
饼@@
绰
长沙@@
拗
簧@@
生生
僻@@
迥@@
侣
对话@@
祯
唁
莠@@
水土@@
资讯@@
掳@@
过滤@@
焘
羁@@
痣
妊@@
大肠@@
葫@@
障@@
贷款@@
奄
跤
爵士@@
筱@@
满满@@
压器
褶@@
务工@@
谑
壶@@
揪
踝
儋@@
特人
党委@@
线图
gle
遢
冕@@
趸
邰@@
搁@@
抗日@@
涧
纫
嚼@@
贬
高校@@
一无@@
券@@
岱@@
罗拉
荆
溃
箕
亳@@
敝
静静@@
举例@@
棘@@
浏览@@
棘
优质@@
供求@@
咧
洽
么@@
执政@@
寂@@
矶@@
部级
议事@@
猛进
建立@@
炯
α
苷@@
們
去年@@
嫣
褥@@
边境@@
姣
别无@@
蝠@@
矸@@
有成效
淌
监视@@
哝
晓松
啪@@
橘
手可@@
秧
共和@@
塾
璧@@
麝@@
作品@@
TF@@
萨尔@@
HO
维多@@
议书
铐
捐赠@@
焙@@
推广@@
沦
者之间
蝙@@
呢@@
不如@@
蚓
躯
邑@@
圻
家辉
前一@@
珏
斯勒
酮@@
颧@@
烛
定居@@
字符@@
艘@@
痤@@
私用
桔
瓢@@
笃
近几@@
病学
雌
梓
啤
炬
闫
敛@@
掣@@
富士@@
艾哈迈@@
吡@@
一想
主任@@
独秀
蓉@@
绸
啰
╱
舷@@
洪波
缕@@
台币
焉
珩
朽@@
熄@@
兢
腌
渎职@@
腩
湮@@
老院
薏@@
帼
鄙@@
骇
五花@@
当代@@
摩天@@
汛@@
襄
骡@@
威尔@@
Luc@@
踉@@
环球@@
溺
晦
寮
大江@@
事长
煦
之重
芮
撬
脖@@
囤
格兰
洱@@
镳
疽
瑙
熠
监管@@
负债@@
厦门@@
±
千岛@@
褪
住宅@@
柑@@
蚕
鹊@@
三星@@
摩托@@
辖市
鸽@@
盥@@
嗪
蓿
槐@@
克兰
臻@@
激动@@
宋庆@@
钠@@
舶@@
喃
养老@@
厚望
痒@@
虔@@
恺@@
呕@@
怎么@@
尼斯@@
华尔@@
中秋@@
尔夫
Fac@@
魇
蔷@@
壕
痼@@
衔@@
咪@@
挖掘@@
海地区
障碍@@
贮
溅@@
蝉
捣
庵
喙
荚
阿姆斯特@@
名列@@
拒绝@@
克里斯蒂@@
ul
珉
阿尔及@@
绽
峦
运人
寝@@
戎
涎
栾@@
哒
拈@@
澎@@
孽
奥会
投影@@
户籍@@
土著@@
楣
愉
墅
雄心@@
洱
沉积@@
苜@@
不懂
苏维@@
界人士
爵@@
瘫@@
暄
偌@@
一十
隅
蝎
礴
婷@@
鞠
铉
肋@@
腻@@
亲戚@@
茜@@
Cap@@
枞@@
豚@@
昵
獭
苇@@
总统@@
秆
在此@@
札
懈@@
荞@@
一夜@@
酪@@
倘@@
学前@@
Angel@@
遏
骆
原市
格拉斯
跷@@
惴@@
番话
榔
脓
克林
佑@@
无愧
如其@@
购房@@
钡
倘
猬
择校@@
佰@@
獾
旸
鳅
甘肃@@
可见@@
禧@@
嚎@@
妒@@
火箭@@
趴
括@@
嘻
婶@@
骚@@
寺@@
妍@@
翟
滁@@
浑
麋@@
剃
噬@@
戛@@
怦@@
黏
镌@@
金刚@@
懵@@
痢@@
掰
孀
娶@@
瞳
褛
Jav@@
离婚@@
绛
猝@@
迩
棱
铛
拴@@
褂
汀@@
蟋@@
首要@@
进制
瘢@@
自给@@
斥@@
讷
宏观@@
秩@@
郁症
俑@@
滦@@
西门@@
栓@@
伫@@
蟀
逮
馥
隧@@
发起@@
年终@@
基亚
津津@@
骤
贸市场
普勒
运载@@
奴隶@@
啄@@
窘
萨拉@@
卦
熄
镍@@
辖@@
顷@@
觎
蒿
婊@@
分裂@@
蟒@@
抠
藓
徜@@
一汽@@
媒体@@
厕@@
桦@@
现出
乒
為
胭@@
描
加勒@@
厩
眺
零售@@
湄@@
蚯@@
敲诈@@
苑@@
三门@@
侃
哺@@
驮
甫@@
琐
泰晤士@@
跛@@
瘘
独家@@
秽@@
NS
主管@@
娠@@
诧
臧@@
唠@@
恃@@
璧
基金组织
史蒂@@
坨
强制@@
龛
灞
阮
踮@@
貂@@
平板@@
砾@@
疹@@
螳@@
漱
觊@@
奂
切尔@@
记协
窍@@
潲@@
野生@@
枭
踝@@
淹@@
渍@@
佘@@
洄@@
苞@@
埔
㈤
癖@@
缨
胤
烙@@
傀@@
讽@@
啜@@
赊@@
鳌@@
涎@@
效果@@
钥@@
专卖
埠@@
临界@@
⑵
格鲁@@
芮@@
姥@@
麾@@
煜@@
蔺@@
戚
汶
叨@@
瀚@@
莞@@
有点@@
箫
叭@@
践
圭
为人知
贵州@@
醛@@
熨
楞@@
ww@@
原体
羯@@
不由@@
竿@@
遁@@
望而@@
沃斯
懿
栈@@
抠@@
穆斯@@
矜@@
柯达
桁@@
湛
ebook
萝
撇
求是
辗@@
与会@@
多见
沐
嗝
外线
铢
蕃@@
放在@@
弩@@
偕@@
灏
岷@@
壑
特别行政区政府
瞩
深深@@
匙@@
拄@@
一不@@
私家@@
磋
藕@@
Ⅳ
举行@@
〇
闪闪@@
常任@@
缰@@
伶
佯@@
突发@@
加利福@@
绅@@
内蒙古@@
爱好@@
在我@@
皈@@
红色@@
加拉@@
偷偷@@
潼@@
蹩@@
叱@@
生人
持续@@
酌@@
技术上
璞
歉
许可@@
--@@
耽@@
绩效@@
Sk@@
恣@@
覃
夭
讹
高新@@
出租@@
入式
躬
桢
经理@@
窘@@
尧@@
奠@@
飒@@
祢
排名@@
鳕@@
瘁
巴布@@
镖
寞
夭@@
体制@@
巡视@@
指标@@
中证@@
幺
既往
晟@@
苞
金正@@
笺
疣
粽@@
亚硝@@
支柱@@
弭
乍
精力@@
婺@@
防晒@@
呎
簧
矶
扪
睽@@
roid
嘿@@
综
嫣@@
擂
可图
晾
绎@@
美利@@
路交通
濡@@
袜@@
瓯@@
辐
浐
叮
沱@@
糜@@
咀
筠
炅
谤
贸易区
〖
蓟@@
咚
固体@@
大吃@@
荔
鞣@@
缀@@
招商@@
龄化
人行@@
徨
個
打字@@
染色@@
沧
司令@@
帜@@
吭@@
讧
名胜@@
一览@@
虱@@
烘
路军
国际金融@@
谌@@
挫@@
诛@@
不管@@
冢
恪@@
霁@@
干道
徉
萨德
不决
法拉@@
驼
綦@@
氦
掣
萃@@
驯
酉@@
茴@@
Ale@@
〗
锗
躇
蛹
根据@@
求职@@
鼾
审判决
榄
饨
捺@@
俱全
用性
夙@@
有量
锷
筷
褚@@
忑@@
滓
牛仔@@
忐@@
不对@@
濠@@
托人
国主义
之为
瞭@@
瓢
税务@@
恫@@
荨@@
惘
喀
锑
垣@@
呜
调味@@
裘
买房@@
篓
稳中有@@
呱
税务总局
开门@@
犀@@
羧@@
贫民@@
李明@@
海事@@
遨@@
豹@@
璃
售货@@
Off@@
撂@@
诩
盂
优越@@
黑龙@@
扪@@
鬃
疟@@
交通大学
奥林@@
悄悄@@
骁@@
碉@@
问责@@
卉
秭@@
哩@@
缭@@
务员
旨@@
无处@@
口处
诵@@
崂@@
翡@@
烩
亚利桑@@
嬷@@
不负@@
雍
日内@@
荤@@
馄@@
^
实习@@
渺
褐
噼@@
ady
骰@@
鸯
崧
翀
卑
明市
褴@@
儡
匍@@
呷
摈@@
骅
涝@@
一氧化@@
不及@@
郜@@
蜗@@
恸
晖@@
乓
馋
置信
主人@@
炘
切尔诺@@
格拉@@
溴
节日@@
何鸿@@
Sel@@
睾@@
殊
曜
唧@@
貂
酐
燊@@
岱
川市
巿
掖
尼日@@
芋@@
γ
清明@@
荤
姝@@
膳@@
锆
瞄
值得一@@
谱法
來
确保@@
愫
墒
合肥@@
晶体@@
耙
organ
负着
劾
馏
鼬
陌@@
变频@@
情有@@
咭
蔓@@
纾@@
晔@@
广电@@
发挥@@
狈
鹫
新型@@
玄
袍@@
俺@@
三亚@@
吠@@
大手@@
啼
私有@@
遵
桎@@
膀
豇@@
前所@@
譬@@
墟
物业@@
槐
掂@@
篷@@
牦@@
职务@@
恳
梏
擘
骐@@
洗手@@
潞@@
萝卜@@
腮
俪
氡
鹭@@
鸦
办人
还价
糠
牟
搔@@
襟@@
啉
鄙
ube
珠江@@
拮@@
完整@@
摺
哮@@
潺@@
疡@@
士们
郡@@
援助@@
葺
啻
畸
阿森@@
靴@@
蕉
斟@@
埃塞@@
小川
炜@@
甙
嵩
篡@@
喳
雪佛@@
南克
帷@@
橡
莽
搡
跋@@
密集@@
匝@@
判断@@
睽
暮
岐
娆
婀@@
新月@@
俟
脍@@
炕
Rich@@
煲@@
轼
孟加拉@@
炊
真是@@
隼
冼@@
兰卡
狸
经纪@@
国集团
疸
阿姆@@
磕
环境保护@@
显示@@
习班
聂
蔷
饕@@
起诉@@
杳@@
疝
亚马@@
嗣
姊@@
滥用@@
珲@@
国泰@@
藻@@
摧
伪劣
谆@@
夏威@@
歧
锶
诶
一块@@
一辈
恢
常规@@
巴勒@@
利尔
砚@@
扈
奥利@@
葩
拖拉@@
⑶
鹊
戾
轶
唆@@
逞@@
铠@@
砚
孤独@@
轻轻@@
iP@@
辘
儆@@
NAS@@
會
综指
长安@@
痔@@
稀土@@
祺@@
搽
无家可@@
壤
Sky@@
岸线
掬
酵
多克
白剂
克力
124@@
辕@@
牺牲@@
胄
一次@@
澈
枭@@
渤
利昂
嘱@@
华侨@@
说家
铮@@
匿
帖@@
管员
救援@@
蜗
噎@@
璐@@
※
俾@@
薰
晗
隅@@
萦
藩@@
姊
控器
捎
馍
淖@@
庶
猖@@
械@@
脲
earch
酌
切身@@
吋
浣@@
姣@@
嘶
袅@@
腭@@
戍@@
毙@@
地产@@
埂
中信@@
奋斗@@
剿@@
愣@@
old@@
糙
窈@@
谟@@
鸠
宇航局
翊
烃@@
蛰@@
峥@@
玫@@
唧
喇嘛
眯
竺@@
嘹@@
Gold@@
蹿
宸
捻
情节@@
灸@@
工程院
⑴
Bus@@
赟
昼@@
召力
成品@@
波器
吮
钕
蟆
伊利@@
研究中心
蝇@@
殓
跄
初始@@
如说
犀
囍
警戒@@
麓@@
独裁@@
嗖
德华
笋@@
笠
荪
椭@@
汝
金字@@
懦
癫
蝌@@
跛
研究生@@
蜕@@
尉@@
垛
润发
瓮@@
蚌
岑
原味
啾
燮
霎@@
坂@@
捎@@
参赛@@
餮
缪
鹌@@
耒@@
吞吐@@
匣
咔@@
弋
蛛
銮
桓@@
胥
汲@@
吭
牍
躇@@
蚪
迷离
演唱@@
蹶@@
专卖@@
铟
呤
煤矿@@
鳃
四面@@
导航@@
俩@@
itter
星人
膦
璜
流水@@
淖
嬗@@
皑
交道
搜索@@
短短@@
阿富@@
小小@@
职能@@
萨卡
嫡@@
砰@@
陆战队
某种@@
忒
倌
北海@@
淆@@
涓@@
盎@@
捍@@
睛@@
捅@@
怖
蝉@@
澎
拉夫@@
蕨@@
卤
巴巴@@
芥
遣队
僭
祷
..@@
沥
闰@@
金库
哎@@
喳@@
摧@@
站不@@
眨@@
岐@@
馈
续续
绷
有色@@
枸@@
踵
汕
陲
马斯
楞
维吾@@
膊
亵@@
浜
旎
浦东@@
熹
漓@@
pm
雹
嗡
潺
沅@@
瞬
猩@@
测定@@
嘌@@
节性
亘@@
拎@@
殡@@
卞@@
蜢
筝
洗发@@
怅
锲@@
一席@@
瘦肉@@
白石
婿
″
芃
庄市
关节@@
锻
从业@@
着眼@@
漉
悼
iPad@@
泯@@
泓@@
鬣@@
妒
缥@@
Joh@@
Wi@@
贫富@@
寄生@@
皑@@
席会议
娟@@
绥
鬃@@
烽
盱@@
烙
⑥
腈
相比@@
吮@@
俄亥@@
Che@@
赛义@@
擞
黎巴@@
蟒
拭@@
必会
魔术@@
撵@@
讫
侵权@@
棣@@
啊@@
外部@@
rou@@
成交@@
亘
舀
Mic@@
声器
菲律@@
糯@@
媳@@
歹@@
偃@@
来得@@
孰
藜
垩
糖尿@@
拢@@
谅
国家联盟
搔
吉尔吉斯@@
甾@@
焖
膊@@
丕@@
琶@@
显微@@
中广@@
犒@@
裱
潟
缈
醺
孚@@
崽@@
杰斯
魅
耷@@
牲
淼@@
支书
韬@@
匐
哈佛@@
卡因
弛@@
恶势力
公信@@
鲶@@
眶@@
卿@@
舅
任重@@
道远
殇
谄@@
涯
荃
籼@@
焯
啬@@
克逊
之忧
瞰
捶@@
仝@@
鄢
惆@@
隧
愉@@
卡人
辘@@
猥@@
囔
鲫@@
珊瑚@@
嗷@@
榆
嘲
茗
增值@@
萨特
啕@@
鏖@@
铣
硚@@
斯敦
舒适@@
涿@@
亚太@@
以致@@
密斯
瞻
壕@@
感器
芭
侮
赂@@
住脚
钎@@
懵
Ang@@
≤
纷纷@@
蛀
扳
榛@@
琐@@
嚓
舫
观设计
漉@@
苒
渭
●
湎
ital
结核@@
不容易
霏
了婚
郦@@
菲特
è
骄
笙
啄
铵@@
ga
襁@@
缚
〞
quo@@
编者@@
疱
樽
羯
佝@@
婢@@
釜
地化
喏
理所@@
垩@@
姝
狭
铌
格达
院所
剐
Sec@@
讣@@
aga
虱
镭
蛊@@
党员@@
蛆
峨
不失@@
诏@@
边缘@@
褓
BI
惕@@
觑
矽@@
龙头@@
腭
合唱@@
炀
可靠@@
樵
街道@@
有钱@@
伤害@@
炔
大体@@
麼
璟
槃
镣
柩
每天@@
宕
绞
轨道@@
佃@@
大理@@
骥@@
迢@@
会展@@
eB@@
吉尔吉@@
刽@@
μ
扬子@@
皎@@
疚
为一体
谏
弼@@
燎
痂
眈
啫@@
馥@@
涣@@
氛
宁波@@
裴
浃@@
触摸@@
佘
眈@@
糠@@
樟
枢
辆@@
酣
鳖
全日@@
汨@@
展商
娼@@
跷
珏@@
痍
饯
聆@@
碴
见义勇@@
蚤@@
威特
脖
亵
期货@@
平线
救护@@
琏
嘈@@
导火@@
朦@@
茫
侄
揄
榭
便携@@
灸
小康@@
妤
龅@@
幌
孳@@
阄
甭@@
掴
瑟夫
丰富@@
饲
萸
利物@@
Cou@@
领军@@
鹑
鼾@@
祠@@
引资
蜈@@
嗣@@
裳
畅销@@
药家@@
莎白
阐@@
锄
苯二@@
不久@@
人队
票价格
楷@@
绽@@
钯
蜇
鄞@@
不知所@@
谊@@
纳森
圩@@
锴
分之@@
大幅度@@
剁
墒@@
糗
芩
瑕@@
一见@@
无偿@@
挞
有利@@
′
驹@@
伉@@
明书
艾哈@@
抡
柑
五角@@
隙@@
忖
匈牙@@
折不@@
麸@@
汪小@@
麸
暧@@
颞@@
揶@@
偕
蚱@@
辛亥@@
图斯
囿@@
封闭@@
难说
铨
尼西亚
陂
霭
酩@@
棣
翎
睹@@
鞑@@
昱@@
忻
迢
主持@@
聚力
阉@@
所为
泾
小伙@@
泯
砧@@
决书
诽@@
外商@@
沭@@
醴@@
潸@@
带头@@
鲟
定会
施加@@
乌兹别@@
耦
混凝@@
更生
规范@@
墩@@
李泽@@
嗑
自语
膘
台区
螨@@
涮@@
渚
氧化剂
衢
毡@@
狸@@
娄
禀
睑
诃@@
批发@@
茧@@
菅
艇@@
祷@@
犹豫@@
桨@@
帑
侮@@
罗纳@@
王府@@
凰
鲜明@@
㈥
阙@@
领土@@
腓
圄
卞
毛泽@@
锂@@
胰
掸
旖@@
☆
蚜@@
稔
吉布@@
伙人
绺
地区@@
硐
茎@@
揩
祁
养殖@@
烊
窕
鳌
磡
半月@@
奈何
狒
囹@@
奢
堑
睦
弈@@
澍
挛@@
掂
寰@@
工薪@@
连串
胥@@
箩@@
淞@@
匈@@
讼@@
梵
东盟@@
遛
跺
匡
渎
跻@@
网膜
鲤
创始@@
砷@@
惭
睬
天安门@@
棵@@
陋
毋庸@@
晶硅
钽
劵
膈
承租@@
艰
骸@@
娅@@
纰@@
拚@@
瀑
铛@@
衣裙
每日@@
八方
肱@@
嘧@@
批评@@
钵@@
矾
糅@@
利润@@
犸@@
峋
颠
富春@@
不法@@
萼
天花@@
粑
长久@@
瞟
谤@@
毓
嗖@@
嫖
尔卡
重来
甥@@
马尼@@
因于
幂@@
瘟
高尔@@
千嬅
醺@@
涓
◇
铈
倡
撅
咦
居高@@
赦@@
腥
钕@@
爱丁@@
懑
率地
庾@@
鲈@@
嶙@@
英译@@
蓦@@
课堂@@
耄@@
歌唱@@
跺@@
嚎
胁
教科文@@
椿
颍@@
满贯
镊@@
一丝@@
摹@@
佛罗@@
茅台@@
佩克
在所@@
桉@@
明尼@@
鹳
在生活@@
瘀@@
痿
拗@@
所得税法
呛@@
镛
庶@@
皋@@
拉塔
恃
驿
踱
录片
⑷
鸡尾@@
璃@@
噎
巴比@@
孱@@
憨
糜
奚
э
新民@@
娲
缰
磐
新兴@@
罡
恪
呐@@
枉
卉@@
王老@@
桅
一站@@
腔镜
亚哥
地人
碾
浪费@@
体育总局
伎
ぃ
痞@@
卯@@
蚣
蚂@@
蜃@@
锵@@
箔@@
崴
剌
俯
噻@@
斯洛@@
抽样@@
分辨@@
蛾@@
交警@@
赅
恬
炣
鲱@@
实处
狒@@
榴弹
斯拉夫
贝卢@@
世界贸易@@
岫@@
领头@@
狰@@
鬓@@
故障@@
掰@@
贲@@
淡淡@@
飒
长的
酊@@
蓖@@
有价@@
零零@@
滘
擎
达姆
啧
愕@@
掮@@
┈
印花@@
浚@@
壬@@
痧
盅
秸
提起@@
黍
鳝
百思@@
一团@@
夯@@
花岗@@
考虑@@
羌
西方@@
随地
以上@@
幔@@
镝
农田@@
笞
遁
猷
歆@@
阎
叁@@
违反@@
袅
祟@@
利华
榭@@
中海@@
樵@@
差别@@
哈姆@@
篱@@
璞@@
电影学院
此机会
仨
联播
邺
诡
鳗
宇航@@
蔬
氓@@
龌@@
爸@@
遑@@
长城@@
啰@@
瘟@@
琌
Univers@@
钼@@
孺
瓮
址@@
indow@@
栀@@
沱
桧
波士@@
桡@@
噬
保质@@
密西西@@
茯@@
琰@@
撵
锺@@
不利@@
一斑
李嘉@@
燊
冗
海洛@@
鬓
峙
国庆@@
衩
提取@@
蜥
埔@@
桀@@
喵
LO
支付@@
伙伴@@
狞
吏@@
蚀性
镣@@
业主@@
对照@@
÷
呀@@
忱
龊
班人
狈@@
不足@@
挎
赭@@
不用@@
砼
麂@@
殒@@
虔
痫@@
栢
诘@@
岿@@
斯坦福@@
鹃@@
顷
基尼
濠
氨基@@
奢侈@@
懋
甦
股份@@
远程@@
今明@@
分期@@
莱坞
逵
唬@@
窒@@
实施@@
舛
骛
践@@
憾@@
潢@@
余力
不足为@@
成千@@
坍
铄
跋
中关@@
子弟@@
受贿@@
柬埔@@
罄
昀
懿@@
咿@@
遴@@
癞@@
WIN@@
阙
鳟@@
重机
MIN@@
旬@@
巳
钜
弈
仄
玑
歆
俨
垄
↑
谬
鄢@@
岖@@
骼@@
沙尔
莺@@
吝
我爱@@
身心@@
羲@@
尤文@@
周立@@
贰
悯@@
媺
別
翊@@
卦@@
合会
撷@@
汞@@
肽@@
谅@@
垄@@
寐
宦@@
极其@@
邺@@
俸@@
筏@@
氦@@
镓
未婚@@
匾@@
购置@@
菀
啡@@
落定
沙特@@
其道
眙
峭
宁夏@@
维加斯
始至终
豉
家宝
淀
舶
呋@@
携带@@
辕
搀
滢
蛤
氏度
殡
祗
丶
觐
羿
唷
噗
捶
油厂
利维亚
谙@@
讬
濑@@
缦
受制@@
宥
髁
多斯
房网
连锁@@
鲟@@
骊@@
铧
蓬勃@@
心菜
同位@@
勐@@
垚
自足
涤
螈
公车@@
枇@@
藿@@
栉@@
....@@
逯@@
侪
走向@@
瓒
瀑@@
绯@@
靛@@
羸@@
噙
蛟
捋
都会
克萨@@
突破@@
揩@@
昕@@
ü
楹
菇@@
⑦
芷
战队
诚地
阱
豺@@
叻
眸@@
恕@@
利害@@
昀@@
杈
娑
柘@@
比克
民进@@
剁@@
蛆@@
叽
煨
沅
西雅@@
道而@@
飕
拭
獐@@
滦
咚@@
漕@@
嘭
议者
中村
筐@@
陇
辩护@@
咤
哧
捻@@
轫
畲@@
陈云@@
妇幼@@
■
蹇
唉@@
昶
孺@@
皿
快餐@@
收入@@
嘉玲
胛@@
傢
吉祥@@
锒@@
辑@@
≥
旻
嵊@@
獒
佰
得其@@
畴
灞@@
盂@@
殚@@
有制
不以为@@
装机@@
碚
旌@@
唐太@@
黠
羟
绛@@
麒
艮@@
抑制@@
邡
氩
涉案@@
曦@@
凛
弥漫@@
独生@@
莪
白雪@@
宛
咖
帛
陂@@
塬
叟
怆
潼
妞@@
夯
夥
劼
外科@@
垢@@
噌
腱@@
弩
嗲
睢@@
飨@@
首脑@@
Ⅴ
时宜
默德
飕@@
茆@@
皎
瞅@@
荀@@
谒
铂@@
黜
佼
芊@@
逝@@
酋长国
和谐@@
腴
溥
雏
辍
饵@@
邬
轲
拯@@
墨尔@@
芍@@
娴@@
颞
馀@@
槛
靳
蛉
煦@@
窨@@
保障部
翎@@
聩
螯
內
分之二
篑
迴
岬
西红@@
燃放@@
粼@@
李宇@@
煅@@
榔@@
挪用@@
扬扬
桁
鹂
咤@@
哆
心所@@
坩@@
尕@@
杰明
疟
偻@@
修道@@
弼
晌
默默@@
瘸
粼
鹦@@
珐
义勇@@
涕@@
辍@@
弋@@
限制@@
不锈@@
幄
稽
少林@@
誊@@
莓@@
阚@@
蓟
嫔
稞
莞
蝗
--------@@
彧
册子
挝@@
汉堡@@
僚@@
踊@@
忌惮
鸯@@
芦
肼
埚
漠化
入量
留学@@
秀莲
叛
蔫
荻
铰
犄@@
徇私@@
咛
胯@@
秘书@@
氰
菖@@
蛰
缙@@
髂
抯
咩
可视@@
銮@@
镨
转折@@
茗@@
不自@@
惺
疽@@
仃
栎
泱@@
俐@@
羽绒@@
泠@@
婧@@
灌木@@
梆@@
說
分支@@
啁@@
保税@@
矍@@
咔
谀@@
蕃
矗
电筒
巴尼亚
咆@@
戌@@
肓
嵘@@
掸@@
唛
修正@@
祚@@
癜@@
讶@@
全心@@
戊
擅
曙
茏
弢
腈@@
期末@@
偎@@
马萨诸@@
喇
暹@@
蔬@@
防火@@
唳
砒@@
灏@@
苄
湟@@
多伦@@
缛@@
克什@@
宓
鲭
在必@@
辋
碚@@
实在@@
畈
阖@@
拉图
锇
埗
经常@@
纪元
佻
年纪念
不移
珺@@
瞑@@
承诺@@
喱@@
不应@@
臊
荏@@
琢@@
紊@@
⑸
蝠
卟
侣@@
巅@@
髌@@
彻斯特
蛔@@
殆
骶@@
越野@@
橱@@
铋
锃@@
滂@@
舸
啷
胶原@@
恻@@
击队
簸@@
宙@@
因果@@
邛@@
鞘@@
朕
诏
犊@@
楔
寥寥@@
瘴@@
乌鲁@@
慕尼@@
绢@@
昉
咀@@
禺
祸首
睾
枷
蜊
戕@@
咙@@
摒@@
钿
镧
藜@@
冥
幢@@
琚
在京@@
锟
或少
通行@@
仟
霓
薷
见惯
趵@@
刍@@
抿
宝网
拄
柞@@
涟
刁
镭@@
上证@@
乌兹@@
坍@@
无关@@
镯
榉
瓴
耆@@
時@@
懋@@
杷
壑@@
痔
烬
韶
诀@@
臼@@
倏@@
辜
昇
达尔@@
咂@@
荞
杨一@@
唑@@
粮液
随者
有者
郫@@
蠡
聿@@
顽
椿@@
呸
蕙@@
忏@@
鹬
娥@@
妨@@
片机
哌@@
町@@
虏@@
ivers@@
工伤@@
痞
籁@@
瀛@@
摺@@
婵
稚
绶@@
诨
淦
平区
涧@@
贝鲁@@
高尔夫@@
跄@@
斟
赈
件人
谌
而同
钱买
领事@@
佤@@
胍
闺
喹
蒡
蚱
最新@@
骶
怔
龈@@
涞@@
澈@@
脲@@
蹉@@
窠@@
窖@@
擀@@
Stan@@
鳏@@
喹@@
怅@@
醌
呻@@
淌@@
淞
葳
瞿
秉
筵
饬
吸入@@
刘易@@
锆@@
苡
无休@@
流星@@
诺克
浪尖
蝓
篙
饺@@
荥@@
纷
各行@@
刘少@@
瑞拉
狩@@
肇
血病
闾@@
羹@@
南极@@
菅@@
波里
佔
熟能@@
隘
骜@@
惰
汩@@
丽特
淑珍
信部
㈦
痹
杀人罪
埼
菡
苹@@
域网
蕊@@
伱
荠
瓤
绉
肄@@
认不@@
钹
杂货@@
羚@@
颍
盹@@
莒@@
簌
迪瓦
溯@@
特网
敞
钣
邕@@
蘸@@
发点
刈
罗拉@@
汩
郧@@
舐
斯科尼
槲@@
榄@@
缢
晞
屡禁@@
國
门户@@
跨越@@
峤
Micha@@
泽民
青藏@@
叵@@
苏黎@@
胡锦@@
个世纪
棂
昝@@
慑
炙
蘖
砜
孑@@
铿
四岛
這@@
匝
蝮@@
鸩@@
兀@@
衍生@@
曼哈@@
隶
国际货币@@
痰@@
郯@@
厝
剖
戌
殴@@
祇
凇
硂
谲
攸@@
沣
孽@@
丞
忒@@
变形@@
骅@@
溯到
选为
對
试用@@
隋
内人士
蛊
屎@@
間
货商
锉
鎏@@
晤@@
曳@@
却步
无锡@@
忿
畦
捱
竽@@
帼@@
母舰
音像@@
杵
怦
蜷
稷
恽@@
萘
蝾@@
坂
嗎
淇@@
斛
瑰
澧@@
锑@@
骞
瘘@@
场主
酉
叩
周知
砧
涩@@
能性
羰@@
无形@@
峁
Grou@@
粱@@
畿@@
超额@@
蚝@@
圣彼得@@
anel
吡
氚
疝@@
徇@@
判处@@
萼@@
舆@@
从那@@
柿
布隆@@
证会
荸@@
钊@@
嫉
婚纱@@
簌@@
跎
楸
殖民化
下一@@
入点
姻
胫
诮
菸
嗓
知名@@
大马@@
椁
铩@@
嵋
邳@@
鍊
擤
昶@@
靥
扉@@
妳@@
摄像@@
蛭
鲵
戋
鲨@@
荠@@
隶@@
晷
础
分球
亥
自尊@@
限量@@
鹄
缮
時
选赛
悸@@
鲎
嗔
匈
囗
芊
铑
前茅
槎
鸬@@
鹚
人街
香奈@@
撂
碜
璀@@
驭@@
瑛@@
药剂@@
陈奕@@
次于
噔
髅@@
┱
蒽@@
洺
焗
犸
妪
意识@@
蛳
失败@@
婢
马其@@
樾
祛
馊@@
陌
证明@@
阡@@
薹
鸾
噩
美联@@
髋
蕨
蚴
芎
扦@@
晁@@
嶂
拇@@
拉克@@
鹕
湜
蕈
燧@@
溟
庖
辄@@
涸
噜@@
候审
鬈
睐
蛞@@
绦@@
分数@@
万计
榻@@
大林
诈骗@@
出乎@@
Ф
徘@@
臧
屹
榫
鹮
霁
堕
无止@@
骊
出让@@
裆@@
鞅
默默无@@
讲话@@
颚@@
灾难@@
嵴
箐
氩@@
氪
憩@@
嬛
鹈@@
让你@@
疴
蘑@@
膛@@
沆@@
倔
俪@@
博物@@
阈
鄯@@
菠@@
源源@@
楹@@
炽
蔺
瀣@@
翕
幡
厥@@
韦斯
伺
舔@@
续费
炕@@
筲@@
惧@@
裱@@
舂
馋@@
糯
蜓@@
蹭@@
谳
俱乐@@
®
癸
耙@@
舀@@
斯特罗
雉
检疫@@
哔
受害@@
夏令@@
芡@@
氲
裆
pon
萘@@
胧
隍@@
印件
唠
桠
艏
螯@@
砀@@
脯@@
芍
赈@@
梢@@
痢
蹬@@
佗
捱@@
秽
嵇@@
嗬
俣
硷
力点
南水@@
缔
酊
私权
延到
竣
吸取@@
偻
愆
霰@@
悌
蔗
影响@@
大本@@
茔
谛@@
焓
蒺@@
话说
玛格@@
离家@@
瓯
耶稣@@
氖
汊
伦比
潴@@
鳍@@
揖
湃
蟠@@
冰激@@
抗力
肛
蚜
蛐@@
掇
祚
徊@@
李彦@@
嗳
与时@@
彻奇
锉@@
杓
吲@@
祀
汴@@
鸶
哚
椰
耋@@
耋
处方@@
防腐@@
琬@@
倭@@
特市
屐
元前
正比
滟
芘
靼@@
Inv@@
徙
沏
醣
浠@@
西卡
獠@@
唰
布宜诺斯艾@@
希望@@
中新@@
鲁兹
鲢@@
矾@@
锨
胧@@
戟@@
铍
热线@@
檬
剽@@
嫦
茬@@
笔钱
联体
俨@@
香格里@@
秩
晰
亲和@@
勐
哉@@
随时@@
蝽
好了
虏
邓小@@
遽
幽默@@
橇
舆
俳@@
岷
歙@@
痫
彀
肱
蠡@@
擢@@
睇
谗@@
哈根
喧
螟
镯@@
掖@@
堇
艮
靛
韪
璩@@
卅@@
沒
RAV@@
皲@@
骺
俎@@
青霞
私立@@
衅
還@@
阿塞@@
戮
他命
渑@@
入场@@
教科@@
见度
昴
杏儿
森堡
讥
ω
悻@@
棗
瓦纳
沏@@
幡@@
帚
弑@@
写信@@
睑@@
棠@@
筠@@
蹼
汐@@
枥@@
煊
鹉@@
馼
之而来
鳝@@
荚@@
螅
閒
畿
耦@@
佬@@
苋
讷@@
啟
趟@@
冲击@@
癜
崮
收盘@@
鬟
铁道@@
承建@@
蘅
§
闆
储备委员会
滓@@
揆
恩来
芫@@
柠
泗
格森
笙@@
囡
胴@@
建联
毽@@
倭
讪@@
捲
尕
痱@@
呃@@
纂
珂@@
漳
斯加
抿@@
开工@@
篆
鲲
藁@@
兩@@
敖
大势@@
骛@@
⑹
贾德
宦
桡
硖
伢
觞
诬
濂
剑桥@@
鸢@@
忧心@@
河网
洮@@
冼
诘
髯
舢@@
雳@@
合器
发自@@
颏
之无愧
亚美@@
鸪
专案@@
迳
碇
麦当@@
伎@@
樑
制定@@
看守@@
参加@@
讓
苎@@
≠
宁夏回@@
Ω
唢@@
妩@@
氤@@
蠹
睐@@
旮@@
阆@@
臾
新几内亚
瑁
争夺@@
荽
芡
傩
鹞
咂
剜
颁奖@@
醍
缚@@
稼
叭
⑧
淬
哽@@
噤@@
仞
膑
珲
劭
蜒
开庭@@
入门@@
聿
à
膨
筹股
慨
莨@@
轮车
篾
發@@
鲔
钇
儆
泮
一刀@@
珅
玳@@
á
旯
趔@@
戡
垌
槭
萎
枳
一对@@
从来@@
噻
郴
倡廉
約
闰
隘@@
胛
簋
瘪@@
撷
馑
崑
衆
以人@@
甬
纨@@
濯
悻
贠
谔
玎
褒
憎@@
蹙
靼
哌
群体@@
學@@
癔@@
护人
倜@@
怏@@
庆林
必不可@@
烨@@
龈
热点@@
筝@@
朊
秀文
丹利
醍@@
痨
捺
依存@@
蝰@@
人与@@
耽
除术
荼@@
θ
鹗
薮
谴
未知@@
晤
钍
体系@@
箩
ó
陈炳@@
栃
璶
笏
捍
讦
铼
莪@@
抗震@@
挞@@
辊@@
铱
眙@@
褚
卅
巽
嗽@@
芾
ぐ
囫@@
纳斯达@@
鲲@@
婵@@
汲
胼@@
珣
珙@@
苋@@
傥
腋
羔@@
癀
岙@@
委内@@
沌
专递
苕
铒
立信
衙
仵@@
迤
妲
忾
硒@@
溱
娓
鸫
马萨@@
敝@@
镰
柠@@
至关@@
试看
氘
△
感恩@@
濮
俾
睡觉@@
虻
锺
诺斯@@
飨
鹧@@
璨@@
犟
槁
觐@@
缤@@
峦@@
斯洛伐@@
啖
玺@@
烹
前例
痉@@
镫
疵@@
澙
护肤@@
栩
摩根@@
绉@@
砻@@
侑@@
侗
磺
铖
民政@@
陨
而知
栾
西伯@@
收支@@
泠
燕姿
阖
嘀
埃塞俄@@
巡航@@
制宜
酞
波罗@@
高利@@
篼
角度@@
珑@@
弹道@@
佚
愛@@
惭@@
祈
均收入
恸@@
炷
趄
塞拉@@
黝
該
崆@@
赳@@
陈慧@@
裾
晌@@
璀
柒@@
南开@@
滨海@@
産
龃@@
吆@@
孖
ê
椽@@
忪
矫
陈浩@@
甭
珞
聃
祐
子怡
孵
別@@
其妙
溆@@
绫@@
不正@@
斡@@
⑨
艉
塞浦路@@
蟾
抻
淦@@
厮
人道@@
馬
在实践@@
稱
霆@@
矽
玘
龉
骧
激励@@
Chro@@
穦
颦@@
见面@@
現
毗
怔@@
奠
么样
邝
甲骨@@
堑@@
此时@@
㈧
乎其@@
砣
热门@@
欧安@@
来之@@
樨@@
Space
垸
鸢
臭氧@@
僜
究其@@
说服@@
热身@@
匣@@
傧@@
怵
颉@@
橹
癸@@
敕@@
邙@@
得好
趸@@
砭@@
鄱阳@@
埕
況
中超@@
邡@@
泸
龇@@
除此@@
撩
胯
椹
咣
觥@@
嘞
狞@@
馕
鲑
胬@@
坷@@
傈@@
帛@@
扈@@
犇
尘暴
抰
鸨
丕
內@@
皆是
游乐@@
丝绸@@
玷@@
岜
膈@@
榫@@
咝@@
赞成@@
了算
部长@@
艋
湄
抒
朦
鞣
大幅@@
科特@@
镂
不耐@@
鳕
鲈
裟
鑑@@
噶
裡
镂@@
异于
淄
葚
钽@@
钎
薄弱@@
明园
特别行政@@
安哥@@
诛
腑@@
镖@@
哔@@
钜@@
矿山@@
资会
伢@@
簪
豢@@
价比
好了@@
嬴
邨
聒@@
书亚
嗷
韭@@
青网
冠状@@
螫
李连@@
了当
瞰@@
缮@@
牛津@@
迪拉克
琮
颓
√
军事委员会
拯
势在必@@
匐@@
愠@@
房贷@@
過
视镜
睫
樣
萜
椽
帷
峇
仟@@
栎@@
柒
苄@@
角落@@
肴
诒
组委
胪
虬@@
圣地@@
嗤
秣@@
掼
溏
與
磬
蹙@@
鹑@@
危地@@
馍@@
铊
烜
應
嘅
达成@@
嫦@@
一流@@
玖@@
诰
菪@@
話
韫@@
境游
鳐
纣@@
〃
彝
众所@@
从何@@
贯注
啮
庹@@
同情@@
澍@@
创新高
梆
檫
限性
焱@@
佚@@
华德
檗
茉
迳@@
嘛@@
迄
鲇@@
洵
霭@@
谏@@
谯@@
需品
進@@
迄@@
阈@@
捉到
谒@@
祜@@
淙@@
業
鹞@@
毁灭@@
浣
渎@@
变速@@
穆罕@@
垭
咻
謇
逞
琬
忠诚@@
钴@@
耆
二连@@
邈
铢@@
妁
蹒@@
電@@
啲
資@@
馐
踟@@
钇@@
谕@@
内塔
蕲@@
圳
肟
笵
萄
垛@@
溘@@
赳
浏
灵敏@@
ㄓ
瑾@@
僳@@
毂
闾
人节
榛
豁
裥
攫
挚
砭
跖@@
萁
忸@@
颉
力宝
怂
沉迷@@
刍
鼐
广西壮@@
遒@@
挲
蒴@@
訇
楝
當@@
缢@@
镦
雹@@
QF@@
赟@@
長
阑
鲫
碞
茭@@
至终
奘
尘埃@@
涔
蛐
区别@@
萜@@
购网
糌@@
稞@@
谀
镗
尴@@
恻
蜉@@
诌
窠
跤@@
遑
氙
糅
窕@@
诧@@
舺
钡@@
归根结@@
发改@@
跚@@
法兰克@@
屹@@
衪
滉
Τ
蟾@@
鲆
霏@@
應@@
挝
虫剂
泰晤@@
陪审@@
绀
璨
姹@@
蒐@@
馊
斯蒂德
姘@@
息息@@
據
豌@@
洮
沒@@
蔻@@
岬@@
垅
胝
嗟@@
睦邻@@
骢
馔
噁
出厂@@
峒@@
準
曜@@
郄@@
碛
牡
段性
井冈@@
跖
壬
饴
纔
罅@@
悭@@
戮@@
啜
煳
馗
莠
鳖@@
菘
疤@@
堀@@
哙
π
阪
蚧
学金
澧
帶
汨
巯@@
杰伦
斯达@@
加迪@@
杜洛@@
劇@@
佔@@
睚@@
镬
啐
飑
給
麝
曰@@
笔记@@
楦
渲@@
桷
驮@@
彗@@
‧
格鲁吉@@
琥
筚@@
内政@@
行之@@
慷
爱迪@@
丐@@
⒉
归属@@
踯@@
疃
撸
缄
見
咁
哥斯达黎@@
吩
乌鲁木齐@@
黯
谛
哧@@
躅
锱@@
淙
侩
天候
噤
钸
袈@@
霈
鳜@@
怩
甑
荇
thers
令禁止
翳
幕式
铁龙
闿
椋@@
勍
民生@@
蚋
力宏
珈@@
腆
经济时报
啭
钌
臆
炀@@
能及
耶路撒@@
凋
佃
Φ
學
凼
西省
碲
矜
嗄
浒
嘣
嶝
缬@@
镗@@
搡@@
龙网
邕
虢@@
痘@@
蔑@@
吴奇@@
哞
菟@@
猁
颢
谢谢@@
俱增
傩@@
滹@@
膨胀率
诙@@
關
茁
疚@@
中控@@
⑺
鹬@@
犰@@
嬉
嗲@@
嗦@@
停止@@
焜
牵涉@@
潞
厄瓜@@
铽
铤
绍峰
逻
酞@@
碣@@
篓@@
糍@@
苫
岘@@
⑩
咣@@
咝
奬
翱
或缺
崔永@@
镐@@
郭德@@
而不见
猞@@
嫔@@
浪网
枰
缙
些时候
侈@@
诳@@
經@@
琉
箫@@
粳
惮
將
國@@
冇
飞利@@
理事@@
筷@@
泞@@
橼@@
罘@@
半壁@@
哏
嘁@@
雒@@
黉
凄
燮@@
倨@@
脆弱@@
製
濉@@
擀
微波@@
焯@@
氓
孤儿@@
鸮
岐山
逄@@
畑@@
瘿
蓼
冰淇@@
钪
鳃@@
煸@@
蝣
衲
湍
胡萝卜@@
益于
郾@@
莼
種
並@@
標
拷
亥@@
时有@@
可不@@
郇@@
饕
囗@@
铕
蜕
襞
の
Leh@@
惴
點
鱿@@
鱲
戍
鼬@@
奇怪@@
英菲@@
谵@@
斯里@@
根深@@
蘑
辄
安东@@
骜
锝
暌@@
埸
臬
胤@@
了然
逶@@
擘@@
稗@@
蓣
郗@@
籴
饴@@
亲们
恁
仝
为重要
喽@@
佢
谶
辇
姮
不穷
莘
晢
祢@@
渚@@
枧
屉
胰岛@@
邰
加利亚
狳
開@@
罗河
攸
菊萍
籁
會@@
车组
偲
呲
呓@@
噗@@
骡
驸@@
无能@@
琇
惚@@
骠@@
轱@@
闇
閒@@
動
δ
那不@@
波罗的@@
疥@@
脘
承载@@
簪@@
娭
噘
嫡
篦@@
飏
蠓
芑
愎@@
纂@@
力于
碣
砟
齐鲁@@
嗽
预付@@
蚵
Tube
酗@@
悱@@
㈨
捌
入学@@
蜇@@
钺
锭@@
筱
伊丽@@
尔蒙
羔
務
荻@@
苁@@
崃
剖腹@@
嫘@@
結@@
栌
亟@@
绫
狍@@
™
颦
勰
麵
囵
镊
极管
邃
漪@@
明翰
←
莳
皴@@
嵬
湫
徙@@
莆
浆机
黢@@
钋
㈩
笤@@
嗫@@
鹩
赁
垤
浔
闱
悄
中金@@
铳
麂
旼
í
橛@@
燧
夔
垭@@
三个@@
更为@@
泺
路由@@
拚
怿
裒
⒊
槿
鳟
沮
菈
伯拉@@
婕@@
髂@@
膻@@
绔@@
结果@@
作曲@@
樯
劭@@
巽@@
雎@@
稷@@
迪欧
濒
榧
徳
废弃@@
吒
知情@@
哐@@
颔@@
煸
檄@@
尬@@
殁
刎
卡扎@@
丐
踮
刘延@@
到困难
莜@@
宣誓@@
數@@
荼
螭
¨
猾@@
眔
經
劾@@
槲
联想@@
⑿
雉@@
睨
综艺@@
嗥
落于
芎@@
迸
僮
藿
傣
笺@@
將@@
衮
吖
嗔@@
税局
炻
過@@
绗
富兰@@
镒
毑
機@@
烁@@
藓@@
懈
潍
墉
洪博@@
邸@@
玢
亳
笹@@
乩
合众@@
篡
驷
德意志@@
庥
纛
盃
北调
箝@@
浔@@
仨@@
唁@@
饯@@
訴
邦国
旺达
杨善@@
⒈
捭@@
这样@@
傑@@
蚬
学森
坭
茱
ㄆ
赀@@
跆
褂@@
類
鲠@@
嚅
潛@@
壅@@
穑
爰
徐静@@
苡@@
峒
亚利@@
瑗
汆
祎@@
劇
燠@@
铆
护卫@@
娩@@
媪
蚶
蓥@@
颀@@
醣@@
葺@@
袢
髡
嗉@@
毋
美龄
钒@@
査
盎
〝
無@@
屙
回忆@@
菂
那样@@
揿
桂园
疖
酗
嶦
驷@@
糨@@
昙
镱
囿
黟@@
缭
斓
剔
產
褫@@
质化
楝@@
凫
氵
热窝
硌
泮@@
琊
產@@
硙
儡@@
澹
长国
鹪@@
蹚
囝
辎@@
萋
谆
枳@@
笪
娌
郏@@
泅@@
ababy
上市@@
芨
蓁
條@@
姥
忤@@
管辖@@
揠@@
诲@@
密特
殒
复活@@
喆@@
上涨@@
跹
袂
貉
纳塔
濛@@
铡@@
珉@@
桉
╳
特里亚
鲷
赊
产资源
腘
匮
怏
抎
鋆
嗥@@
銤
铙@@
認@@
狺
不自禁
钏
黄光@@
隍
澂
璠
埭
甾
牯@@
莳@@
蹼@@
徉@@
鳔
鲛
稣
铷
扼
乐道
狨
媾@@
鸥@@
枥
俚
⒄
班费
椟@@
嫒
舸@@
颊@@
各业
防范@@
苤@@
肥羊
或多@@
笆
⊿
幷
語
俬
继任@@
绎
钤
佶
哥本@@
桧@@
⑾
肮@@
孟建@@
樽@@
獭@@
喁
珩@@
点击@@
秕
眭
憧@@
瞟@@
℉
诤@@
桢@@
钬
俚@@
颢@@
绯
郢
斯德哥尔@@
收视@@
濑
醮
翚
赖于
嘤
洪都@@
抟
蠊
蠹@@
囔@@
凳@@
郦
跶
逯
流程@@
迂
厝@@
痪@@
搪
苓@@
帧@@
論
雎
起跑@@
苛
壅
戥
窸
方说
栲@@
叟@@
廪
蟠
迤@@
涿
塚
ǎ
芹@@
歎
杞
拇
阉
佯
г
眠药
岿
俱来
谡
黩@@
鲢
禮
沭
鲕
醯
項
楮
憬@@
咩@@
怙@@
惕
娈@@
現@@
⑻
よ
湉
绦
缤
闳
萤
笥
瘩@@
溦
旻@@
火机
鲣@@
垡
钱江@@
逦
請
同于
輋
拋@@
饪@@
喑@@
琵
马达@@
芗@@
猾
醪
枋
立陶@@
风俗@@
洩@@
佛罗伦@@
晗@@
汇丰@@
崮@@
帏
隰@@
缒
⑽
圜
恹@@
氣
ī
瀍
澳大@@
ā
樸
堺
逡@@
實@@
璇@@
丝特
ぷ
形容@@
岘
嫄
帚@@
喀麦@@
挹@@
色色
代夫
鲡
倜
茆
皴
璜@@
沵
雅居@@
镞
铱@@
亓@@
稃
寄予@@
忱@@
疖@@
拳道
辗
籼
條
蛱@@
涔@@
资委
嗳@@
曷
珮@@
剌@@
錾
逻@@
蒗
渌
疥
八门
榉@@
痉
嗑@@
匮@@
赧
鹋
鲽
載
蹊
轭@@
蹰@@
跆@@
沙咀
赓@@
撺@@
嚓@@
琎
暧
濯@@
黢
栉
茼@@
汐
加达
炝
槿@@
焐
光棍@@
赫尔辛@@
凃
戕
愀
齐下
場
缨@@
鸸@@
暹
绻
魟
缫@@
弑
和华
秣
缔约@@
箬
抦
俄亥俄@@
亞@@
巴塞@@
清气
漩@@
佼@@
恹
旌
配器
挈@@
竣@@
璟@@
粲
員
齡
泱
涣
頫
纶@@
洩
崛
莙
陈冠@@
胳
斯德@@
髑@@
别于
呶
喟@@
迅猛@@
復
啕
酢
澔
漩
辚@@
爿
铡
醐@@
通气@@
≈
埇
大哈
惘@@
係
冢@@
用人@@
瓦时
囵@@
怼
許@@
羣
曩
阗
镴
毖@@
聽
柢
鼩
庠
音机
岫
孬
朐
τ
娉
跨国@@
睥@@
祀@@
車
朊@@
缁
遽@@
浈
蔼
圪
伥
邻苯二@@
抣
妯@@
茨瓦纳
庑
火锅@@
谩
發
罔
党风@@
當
弄虚@@
蓑@@
т
髌
摩纳@@
裏
怄@@
實
缟
阿比@@
戗
庖@@
霑
铪
鲉
蓊@@
箸
逖
柘
黃
獴
橼
葭
娉@@
運@@
喑
薅
力所@@
熹@@
鳎
崛@@
枚@@
餍
亚太经@@
捩@@
颛
砦
屉@@
從
贝巴
黒
睪
涠
科大学
此起彼@@
呯
鲼
鄄@@
坻@@
徊
猩
齣
淝@@
全意
粿
彭德@@
笆@@
奁
邗@@
钆
鲅@@
呣
瑟琳
戉
张曼@@
QD@@
骈@@
⑼
莼@@
瞌@@
潤
热衷@@
總@@
赉@@
好奇@@
猡
荙
慷@@
罗毕
侈
笕
碴@@
蟆@@
∑
飞速@@
芗
憷
睡眠@@
缶
坦桑@@
镚@@
參@@
htt@@
富尔
佾
话语@@
壆
歡
垆
虺
峯
坻
豕
郞
覺
秸@@
涐
埝
證
Ⅵ
錢
給@@
體
恙@@
噘@@
匆
員@@
敗
怵@@
徳@@
蛭@@
瑀
张艺@@
漾@@
哐
婳
鑑
金九@@
元宵@@
雙@@
阕
付出@@
痈
铠
魆
戡@@
桀
耘@@
当当@@
脒
诓
潋@@
髭
嶷
庵@@
鹘
鸵
诂
墨西@@
踽@@
不足道
潢
罄@@
蒯@@
彷
醫@@
肟@@
炸机
幺@@
痈@@
變@@
眦
荀
ㄒ
˙
朐@@
蕤
钲
箕@@
椋
墀
戢
尬
挛
聘者
嘈
┮
∠
瓿
谪
遐
東@@
谶@@
啟@@
キ
佈
啓
亚于
逍
禤
螫@@
爱沙@@
筁
㎝
楫
子丹
牝@@
赂
識
君安
鹫@@
椴@@
锜
诠@@
韭
纨
荏
杷@@
葳@@
遠
击者
劢
毛泽东@@
甯
出一辙
區
槌@@
褔
處
總
宓@@
宥@@
霖@@
宋祖@@
玉柱
遒
逑
氅
辚
兒
氰胺
骋@@
亟
綮
报率
间盘
溇
虢
眦@@
阅览@@
璁
没了
恤@@
椤
陟@@
廿
際
圹
颀
唾
颁布@@
阡
篦
笫
膻
計
同意@@
疸@@
发帖@@
│
绔
里尼奥
孬@@
眬
砵
靜
恚
髹
堇@@
谢您
煅
愎
筘
文蔚
許
睢
ε
俎
霰
塱
过身
闳@@
敎
隈
七八糟
伊斯坦@@
杖@@
増
捯
槟
薄薄@@
簸
诽
负责@@
柄@@
篁
岙
瞭
埌
呓
仡@@
哈兹
幌@@
钐
竒
須
鸲
處@@
∞
奭
缛
ǐ
髭@@
⒋
歲
晰@@
裝
蟥
芶
沔@@
意向@@
貿
杲
咄
嘬
箨
這
疍
蝈@@
窣
稹
▼
蠓@@
翡
梅德@@
卻
襻
鄱
诿
尓
菽
孛
靬
鲷@@
ㄇ
分之三
領@@
眞
鎏
哋
隹
並
垡@@
怙
樂
咻@@
跟鞋
彼此@@
狯
帙@@
藐
亚那
譞
氖@@
夠
蚩@@
佤
建设兵团
中央政治局@@
р
耷
骝
阋@@
哮
ˉ
縩
叡
浯
ⅹ
所趋
骰
螂@@
矸
煊@@
硪
氐
擞@@
叱
华西@@
蒻
裡@@
瑚
绶
ō
⋯
媾
为力
Ⅷ
暾
卡马@@
號
ô
镕
暻
狷
觥
記@@
倥@@
憬
菸@@
業@@
猓
袪
郜
機
粲@@
蚬@@
笳
證@@
鸷@@
泌
膘@@
鬲
疾控@@
鲳@@
脔
嚯
浠
翮
營
比比@@
啵
蒟
辦
橄@@
嗵
目惊心
抢险@@
罟
镧@@
訊
欤
畠
琯
屌
豺
缬
谴@@
力学@@
珮
敕
颏@@
Sach@@
幻灯@@
褓@@
大韩@@
蝼@@
一目@@
纡
蛹@@
猗@@
刘亦@@
秆@@
赀
吖@@
偃
玷
弱势@@
坨@@
妁@@
缐
疭
酃
缱@@
呔
體@@
美利坚@@
貅
則
ň
箅@@
鲥@@
寻味
陉
蟮
琯@@
圾
自力@@
豔
な
溧
嘚
嬴@@
蕸
杵@@
佞
古以来
搵
忖@@
褡@@
畊@@
韫
赉
漷

蔫@@
铐@@
尼迪
號@@
舨
瘠@@
直升@@
鸰
仃@@
胝@@
陉@@
ⅲ
樨
谥@@
阿让
胨
濡
氹
崚
哥尔@@
庹
趿@@
茛
护人员
竑
钗@@
強
貔@@
俱进
註
杳
生素
蟊@@
暸
菰
淅
涸@@
圳@@
裝@@
親
豸
憧
迥
俅
髦
鉧
辏
乜
舐@@
肮
沤
祼
鹦
運
砻
乓@@
褔@@
相成
疣@@
粝
塞内@@
伧
畲
仫@@
痨@@
圬
い
妫
Δ
荧
柁
抳
碏
兵们
護
編
疳
愈烈
羧
反倾销@@
螽
κ
е
∥
烩@@
咗
绾
枱
赭
橇@@
泺@@
祆
咐
竦
迩@@
马铃@@
醪@@
肯德@@
恁@@
邋
大行@@
心所欲
榀
擢
代之
鹳@@
苴
聍
慊
瘢
菠
⒌
唏
辙@@
劬@@
湟
皒
∪
锛
為@@
腧@@
瓦多
铨@@
ネ
碲@@
畹@@
猝
耵@@
鲂
環@@
侑
哂
蹰
丌
卣
腠@@
忤
漕
金率
笄
光合@@
绚
蛄
數
愠
峙@@
煽
戶
嗞
贰@@
∩
燚
芨@@
啬
袮
聚氨@@
荑
曌
魈
㎜
ú
洹
稗
艿
厍
旃
皙
黍@@
萬@@
嵊
媞
桫@@
箧
偬
網@@
滿
兰博@@
進
隗@@
蠖
紧紧@@
谥
兒@@
邯
觸
郓@@
内塔@@
減@@
採@@
玒
匦
檄
邾
孓
氘@@
も
邊
變
丁俊@@
总裁@@
獎
渲
奂@@
師
枧@@
垴
椟
書
羊城@@
屣
刋
髒
药品@@
砺@@
ン
斫
疳@@
竽
肫
鸻
訾@@
椐
赝
豉@@
館
記
禁飞@@
轾
俤
三聚@@
乇
聆
龑
峄@@
熘
产商
怍
雒
钤@@
翌
埭@@
跗
贲
а
西柏@@
嫚
鲶
铗
狻
親@@
贽
謝
尽致
岀
颔
祕
殄@@
翕@@
嗐
珶
乜@@
殉
褊@@
郄
屾
專@@
浈@@
醅
旎@@
蚺
觚
锍
犟@@
酐@@
谗
鳊@@
藐@@
肪
劃
槊
丟@@
惫
阓
悳
玠
鸷
葜
鄄
阛
富城
诅@@
烟花@@
娑@@
禊
醚@@
費
砑
镙
茴
砩
釪
協
珵
黧@@

罟@@
锔
坜
穰
榖
挡风@@
蒌
σ
怩@@
轳
視
鸸
塍
硏
跬@@
斯本
聲
構
拽@@
偈
毽
來@@
介石
抉@@
搋
λ
熺
风顺
的斯
锾
糸
坷
自言@@
徹@@
挢
崤
陟
者说
庾
層
達
幾@@
蓦
鞯
炅@@
菟
苫@@
∧
挈
可行@@
­
計@@
原子能@@
鲁大学
椴
炷@@
蒽
嫘
槛@@
ㄈ
限内
阗@@
塊
蔡依@@
禬
饷@@
檢@@
萬
阒@@
牾
砒
胂
邛
捋@@
联谊@@
鋐
搐@@
彿
噫
蒡@@
崃@@
惋
亲身@@
罘
诠
椭
ē
說@@
泷
準@@
谘@@
黴@@
蔔
饧
吶@@
鱿
疔
不及待
亍
萱@@
畚@@
決@@
圮
紅@@
覺@@
牺@@
Α
衞
獺
阊@@
茕
恏
马自@@
Ⅶ
蠕
湧
鳙@@
脚点
剎@@
签订@@
独厚
傳@@
爨
胗
咿
沮@@
瘛
愛
⒁
一如@@
垟
問@@
湲
踅
卟@@
胱
幫
頭
貝@@
題
峣
琊@@
嗟
绀@@
吉隆@@
祉
阿卜杜@@
嚏
炆
塾@@
甪
價@@
錄
沬
奧@@
丨
遯
ò
经社@@
世凯
鬣
争优
唿@@
葫
呒
罴
癒
倬
捩
範@@
戬
馐@@
悭
滢@@
钣@@
一段落
汴
党组@@
稜
槁@@
刈@@
蕻
栳
赡
垧
脷
元区
馓@@
∙
妩
鲎@@
荦@@
搧@@
榴
蹓
訾
倗
桤@@
瞋
喟
篾@@
凰@@
镲
衾
诃
悒
毘
波多@@
呤@@
诤
孀@@
羸
鲐
鼢@@
搽@@
劻
請@@
铈@@
凖
濟
磴
鲇
鹩@@
禗
鞑
毖
更衣@@
瀉
揖@@
試
烺
谪@@
蝈
鼋
构成@@
洌
祜
浥
髯@@
菏
義
痊
稱@@
資
蛲@@
骟
菝@@
吆
殭
耑
蝰
痦@@
4S@@
恣
胙
宬
в
罹
诚司
榷
梁洛@@
綦
摈
ρ
岢@@
倏
揾
乌干@@
洑
郿
遹
热化
顼
鰂
谚@@
汎
裢
φ
圪@@
衽
邴@@
報@@
布宜@@
農@@
镌
С
魑@@
吒@@
咴
牍@@
貿@@
逅@@
别忘@@
贻
鲯
幛
詅
詈
而易@@
砥
創
橥
菩
線
毬
沌@@
兴高@@
蓿@@
阊
蚨@@
杼
節@@
龢
苺
Х
燏
艽
蕗
厓
总有@@
萄@@
↗
尢
嘢
榘
ě
強@@
牖
大相@@
诓@@
帔
そ
鸬
酽
對@@
翼翼
毎
佀
決
璎@@
鹜@@
马耳@@
涞
璘
報
滗
ず
揾@@
峄
ⅴ
蛴@@
獎@@
骼
斯洛文@@
螬
哦@@
思议
泊尔
璎
鹄@@
出一@@
久安
掇@@
澐
卲
崀
氣@@
誌
檩@@
畀
癬
吔
節
诟
鏊
獐
蕻@@
喔@@
爻
屬
車@@
剎
模块@@
苻
狦
繇
芰
邂@@
∫
隨@@
陈水@@
霎
虮
眭@@
跸
翦
诨@@
镏@@
礅
葑
垃
康永
旼@@
語@@
李登@@
蹁@@
А
颛@@
鲮@@
壓@@
ㄊ
挹
滏@@
譬
而然
嫱
毂@@
弁
睨@@
貘
蛏
縻
滿@@
抺
嵛@@
轰轰@@
塝
俙
絲
笱
猇
轸
俦
如人意
癯
晩
級
窒
厩@@
湫@@
眾
谲@@
跚
暐
И
柢@@
垓@@
問
禮@@
区市
辔@@
假冒@@
蟑
崐
相似@@
囟@@
鲞
Ⅹ
瑷
崾
岣
峩
暝
柽
書@@
芴
誰
啶@@
涉嫌@@
谖
鎔@@
Ο
苾
撙@@
還
怿@@
黙
蜣@@
蜴@@
阍
鲦
禇
議
喺
衮@@
屿@@
惦
沣@@
橐
笷
寶@@
讚
嵯@@
尻@@
腙
骎
溼@@
悫
榮
蝻
濉
濞
凯尔@@
濂@@
酋@@
洇
蠃
畦@@
摩洛@@
熟虑
衄
野党
灣
巳@@
踵@@
蘩
膺@@
微量@@
锕
檩
阚
傳
⒎
紙
咲
悴
娩
龇
礽
≡
僅
以旧@@
斡
镔
丏
必要@@
幫@@
枞
風
執@@
卺
汊@@
眞@@
咲@@
维也@@
兖
千计
琤
曈
旒
鋈
提条件
錯
陽@@
煩
偉@@
炔@@
蝥
绡
辔
无动于@@
栀
乂
楤
鲛@@
統
緊@@
认不讳
臊@@
茌@@
学研
趺
嶙
仅如此
煺
碶
壸
癎
鹱
鲀
栁
顸
恶作@@
關@@
連@@
偌
掬@@
蛸
皞
χ
魉
潟@@
铫
崁
葶
張@@
堃@@
篠
凫@@
妲@@
獲
透社
銷@@
荨
戾@@
璱
ま
怄
砯
目一新
决定@@
屍
菔
新加@@
爾
樘
塭
秈
鲳
沢
​
拿破@@
傢@@
鼱
馒@@
佩岑
钅
浬
俳
ǒ
醴
ー
鬻@@
虛@@
铩
疠
业银行
矣@@
眉睫
歷@@
槑
跫
剀
忡忡
違@@
珪
埙
觯
ア
缏
td
⒀
獨@@
較
攷
祓
浉
莫桑@@
陬
阿塞拜@@
タ
癞
不折不@@
跎@@
嘁
こ
В
囟
ì
磴@@
葭@@
ù
俶
楚网
柽@@
裨@@
孪
檬@@
堋
點@@
忝
溫@@
磲
眖
缟@@
鼢
鳉
о
だ
锦标@@
斷
存者
想象@@
踫
菪
猭
務@@
圣节
诂@@
碓@@
臓
昝
蟳
⒂
桕
棹
诒@@
眇
Ы
礚
锲
趄@@
晁
楸@@
茲
遊
笠@@
芫
訊@@
嗒@@
芈
箝
ж
動@@
潆
個@@
螟@@
伫
フ
盍
酡
た
圖
麥@@
扞
窈
み
淩
刘若@@
霍思@@
螃@@
鼙
鳢
罅
翃
逹
樂@@
氽
暲
砗@@
耜
铤@@
驗
呑
茕@@
凱@@
颡
殍
杂志@@
氛@@
荜@@
ㄚ
荦
潔
吿
舾@@
焗@@
鸩
潦
骠
鲧
鮨
纥
狀@@
多样@@
昰
祯@@
砀
艹
鲠
蛎@@
夂
鐘
ǖ
┰
畴@@
妣
夢
Ш
吥
雠
苌
開
当地@@
┑
缭乱
匕@@
磋@@
婺
衲@@
亓
耧
狥
選@@
何从
棻
韻
杨洁@@
買
脁
歃@@
见影
里约@@
蒹
張
ū
镪@@
科索@@
栖息@@
ǘ
噹
備
県
嫲
ゞ
殚
蠼
蠵
玑@@
裨
舉@@
權
溉
垃@@
铄@@
歡@@
宣部
嫫
課@@
嵇
轉
玡
樗
镟
信片
巉
∝
飯
噼
倬@@
纡@@
泷@@
る
優@@
丅
ノ
玕
谠
欸
僖@@
纮
塍@@
漈
镏
蓥
镢@@
鸾@@
噚
ⅶ
鹎
瘆
坌
瓤@@
爾@@
幵
砬@@
钭@@
猖
坼
巉@@
續
嗨@@
咡
隗
氆@@
郵@@
腦
ɑ
尋@@
悒@@
崝
稦
堽
殛
帙
沕
檠
銀@@
涑@@
ㄧ
凼@@
髀
中签@@
財@@
谝
遺@@
耒
懽
腚
跗@@
鬍
浤
細@@
吩@@
鹪
屄
刂
箪@@
貨
蘭
怛
佶@@
槠
瘿@@
渌@@
創@@
翦@@
诟@@
津巴布@@
妊
飛
權@@
Σ
狎
憶
к
Θ
枨
№
换新
離@@
泞
ǜ
剡
回笼@@
堠
拈
咛@@
殆@@
奘@@
ぱ
羅@@
ㄤ
鱀
辇@@
衿
木乃@@
珣@@
猢@@
髎
櫃
痲@@
龅
戽
犍@@
鈎
設
陛
導
セ
佛罗里@@
锻炼@@
勸
電
闼
瓠
組
恍
菀@@
冏
ゎ
朝伟
氇
侥
澹@@
菓
妗
蚍@@
舄
嫌疑@@
嫚@@
旿
帏@@
庋
汭
不言而@@
伛@@
蕖
熱
驽@@
◥
徭@@
鸹
淸
勖
禳
郇
瞩@@
嗰
纣
菖
ぇ
肴@@
ⅰ
痴呆@@
郏
轉@@
燈@@
誤
兩
凌潇@@
納
靈@@
帝汶
費@@
硎
慵
諾@@
拮
凈
漶
鲹
圆桌@@
镡
華
仄@@
嗾
魚
讶
嵋@@
茚
編@@
蔘
蓠
漁@@
鸱
崞
▶
镅
癿
牤
卮
飲
堌
謢
颃
钱塘@@
岢
逋
曛
ㄕ
談@@
鄣
菔@@
金量
葸
慾
牺
徇
缷
卫冕@@
硖@@
魍@@
罙
埰
鹍
亚丁@@
蘋@@
苳
贠@@
燿
娲@@
决于
参差@@
榧@@
豢
乐福
茍
弌
⒒
蜻
蘖@@
酋
勞@@
頭@@
┅
輕
礡
俣@@
ゲ
К
浼
朕@@
筮
窨
硗
鸱@@
樓
淯
寧@@
微软@@
碼
蛩
棰
織
蘼
颧
跣
Γ
義@@
痳
孃
謦
せ
夼
習
堞
章制度
磔
彌@@
鈥
髦@@
調
橫@@
は
富豪@@
廋
缵@@
制度@@
廢@@
囱
铎@@
夙
铧@@
礛
釆
搦
聯
蜮
鲩
稔@@
郭敬@@
如火@@
両
碛@@
驽
杮
裰
殇@@
糍
莅
麇
討@@
暘
酝
賽
颙
貼
踬
嚟
剡@@
汜
顧@@
箅
於@@
讠
石家@@
榇
迺@@
剜@@
惩罚@@
耄
б
赜@@
翛
採
庫@@
詞
猷@@
星期@@
壞
幹
び
忡
碓
骓
僖
洄
堀
満
癘
砆
嚒
蹴
踉
稅
婪@@
隳
墣
嬖
羿@@
诜
穫
矻
妫@@
椪
痷
淨
渖
麋
无家@@
饹
瑱
畬
淠
藝@@
悃
豿
鲃
廸
绐
聲@@
龖
冮
規@@
適@@
湯@@
彥
鐽
亻
蓁@@
評@@
脫@@
独钟
螋
当其@@
戆@@
頔
魃
紈
狎@@
り
誕@@
濞@@
蹶
恽
鳥
酦
餾
窮
并发@@
犭
陽
∈
酝@@
箇
与众@@
舛@@
禛
亞
哈瓦@@
塡
渃
ㄖ
翥
袼
ジ
饸
嗝@@
蜿@@
溫
苚
く
锶@@
範
遊@@
酺
阆
烈烈
屍@@
飧
┆
痱
興@@
週@@
合议@@
戆
ˇ
毀
噹@@
煙
碡
鹣
銷
洨
蓍@@
瓈
骃
涪
靑
哓@@
梁咏@@
鳙
瘌@@
诰@@
飾
抡@@
婊
踞@@
踭
夜饭
廛
瘴
風@@
遠@@
沔
廠
雜@@
卍
蘭@@
暄@@
っ
誊
奧
蓋
楦@@
趵
近利
鲱
垓
哒@@
岺
殁@@
狙
療
不切@@
鸳
孮
钫
玳
镎
〜
莊
璸
闶
彙
丄
怎样@@
黾
波多黎@@
缱
┘
一成@@
魑
筌
貴
婦@@
齑@@
飛@@
忸
拋
剛@@
隊
確@@
阇
飲@@
葉
壓
嘌
谄
郯
沩@@
缯
鑞
彘
夔@@
壯
鹟
粆@@
險
講@@
壼
螳
責@@
標@@
仳
绨
單@@
跻
鼹
淏
鲻
姞
帶@@
矬@@
翴
鶄
骈
綫
委员@@
旖
疪
欷
囡@@
苤
ゑ
狍
爀
聖@@
侔
洫
庠@@
柞
猗
圍
汔
蔟
盖地
鼋@@
¸
Ч
蝥@@
砘
妏
靜@@
さ
摰
缜@@
婪
馺
佺
名副@@
狩
芟
蜊@@
儘
℅
瑆
踐
梶@@
稰
Ë
甡
缣
畫
顚
絔
姒
鸨@@
談
鬚
癣@@
嚥
雲
孳
畛@@
谞
ウ
㏑
玆
筦
願
ㄠ
缂@@
ぁ
攝@@
η
複
黥
綜@@
栊
窳
垱
焖@@
м
穩@@
镚
翻天@@
梣
诼
€
臟
小板
旣
痲
锪
蠲@@
賓@@
噍
裉
鹀
墉@@
團
梿
糁
┏
幹@@
内障
徹
髈
蘅@@
炤
杌
一无二
歩
荩
瑈
搧
邶
柰
蒎
職@@
诳
徬@@
肪@@
臁
上班@@
や
錯@@
莸
き
蕞
昳
嵯
値
槻
镪
苊
蕲
稣@@
扃
謝@@
杓@@
設@@
胊
簡@@
膠@@
中组@@
屺@@
麼@@
柃
踊
厶
牴@@
诋
掟
帡
偲@@
量房
肈
術
圜@@
纭@@
去玩
組@@
釋
攵
滙
髮
繫
岽
颟@@
玱
羨@@
iPhon@@
ゅ
戶@@
詠
缵
痪
願@@
殺
瘰@@
醢
饫
宾夕@@
崭
円@@
蔹
ヘ
窺
坜@@
訢
賓
├
堉
墁
蒗@@
钺@@
诎
噱
袪@@
遨
倨
晧
杲@@
蒴
虜
钶
谂
杼@@
诔
塄
樹@@
戛
诿@@
蠔
剘
掮
烎
陳
伲
觋
罰@@
浵
僳
Ψ
棼
喈
鳊
垯
湔
懔
岞
悛
換@@
堍
瑅
谰
走险
伋
英九
◢
猥
薨
石流
铥
藨
碭
琹
Ι
骙
髻@@
絜
ㄘ
磙@@
弗吉@@
哂@@
鄉
曈@@
ら
萏
潇湘@@
酢@@
僦
蓇@@
橦
盿
蜒@@
熙来
圃@@
匜
刿
襦
歐@@
麈
囬
伋@@
腍
谯
跩
獲@@
绂
褰
円
湴
珰
鳇@@
訏
堙
尼加拉@@
無
鱇
蔸
鮟
閧
説
芄
鎚
垠@@
裼
笩
娈
绋
歴
佥@@
臌
傑
廻
笏@@
擔@@
鬆
鈊
迨
┯
蛴
鉾
蠋
懷@@
缍
卝
て
矗@@
擇
龊@@
視@@
掴@@
锸
愀@@
陞
嚴@@
覽
ミ
菫
蚩
玹
酹
ι
蟋
ふ
鮭@@
岈
紅
鰕
ψ
Χ
確
鄞
響
嬿@@
⒏
棗@@
⒆
厣
異
筿
倮
芏
疋
鼔
О
と
姹
狀
士丹利
雖@@
熳
鼯@@
礎
貝
荛
肷
廳
興
阐
炱
聱@@
窣@@
鲖
东道@@
試@@
旄
れ
佷
誸
訪@@
舯
蔴
訪
ぶ
媲@@
篌
洇@@
过山@@
铙
埽
頒@@
镥
區@@
缗
禨
嚐
觍
虼@@
枱@@
肶
产阶级
┤
霈@@
缫
譯
檎
覧
維@@
琨@@
痊@@
柙
に
⒔
杪
從@@
餸
囹
绲
暌
郃
見@@
薜@@
户晓
湓
在眉睫
螽@@
ど
滞不前
す
杧
虒
东省
腸
У
淠@@
ゼ
巯
尻
觜
則@@
豕@@
俉
昃
誽
佗@@
阂
缥
袛
繼@@
屇
缳
璈
睲
⒐
廔
艟
俆
艨@@
眀
鹇
熱@@
粦
穌
扌
菽@@
課
墕
扺
搠
蹯
焌
溼
敍
蕈@@
敂
枇
黼
聒
媸
埴
嬗
ξ
戰@@
忭
歜
膂@@
負@@
捨
玂
榃
徕@@
袗
厚非
漯
吶
菡@@
并论
廝
嚜
氎
聖
僟
輪
和浩@@
蚰
胴
痍@@
笸@@
湄公@@
尙
牝
楚瑜
霹
彖
嵛
陔
艄
廨
蚣@@
鬏
項@@
霙
糉
ざ
叶派
枓
痤
軍
呋
缡
底特@@
瘊@@
嵫
∽
荃@@
寤
车船@@
络绎@@
対
埂@@
胭
锫
澥
骹
鍚
缜
葖
ㄉ
剋
瞇
▁
氾
疒
髙@@
毀@@
璩
岡@@
愦
郸
╔
褀
溁
ㄟ
僞
趑@@
毳
饔
钏@@
鞒
瞶
└
栝
犍
儷
沤@@
逺
言人
避难@@
轇
蟛
坳@@
恰恰@@
讵
宮@@
栲
玙
砫
連
歔
堿
遄
陸
Э
各不@@
鍪
俍
態
㏄
貉@@
剣
勝@@
鉨
驩
餮@@
輕@@
堅@@
垆@@
谑@@
脢
蛔
鬅
倶
近平
認
髪
獻
單
價
雲@@
徑
囯
覆地
蝮
煕
畢@@
婦
圏
阿密
不鲜
戲
⒍
н
鬻
烝
梃
恂
欹
饪
貓
槔
約@@
誠@@
頓
瘗
盥
園
簃
漢@@
л
ハ
栿
殳
搆
枋@@
琮@@
該@@
而走险
儍
睒
▇
业率
淆
盡
朙
筇
聽@@
箬@@
Г
銶
剤
鳽
坲
暕
衎
玥@@
墟@@
媽
剛
粢
閤
迪网
偈@@
黑塞@@
効
Щ
臾@@
篴
缧
垵
暋
蝂
皈
盉
詢
煩@@
弒@@
蝜
薜
╝
哝@@
嵗
圉@@
湎@@
黨
浞
華@@
瞑
埤
蚶@@
聰@@
岖
泫
堐
衝
奥队
鵟
監@@
獠
莛
ぎ
緒
迕
愍
隊@@
樋@@
黜@@
枘
弇
蓑
鞥
逄
鐵
祉@@
朮
牙买@@
墬
積
瞽
宸@@
狲
佞@@
瞤
艄@@
濬
導@@
ヴ
チ
細
¤
瑢
蝌
狝
侉@@
竑@@
蠔@@
觇
Ⅸ
絋
∮
臵
猊
講
ㄎ
扦
餅
洐
ね
痿@@
け
釴
徂
银河@@
⒃
璆
垚@@
辻@@
騋
犹新
魨
鳜
袓
瑪@@
矍
鳀
パ
膦@@
┎
帯
╯
蟻
傷@@
轕
贇
戻
蕺
蒂固
噯
侏
硄
┄
測@@
哽
駡
骘
仉
嘗@@
惬
瘼
塚@@
離
掊
箓
塆
隱
荬@@
稓
馬@@
喦
関@@
楯
幣
唼
锴@@
亻@@
ド
忏
砲
╗
珽
甶
谰@@
損@@
抔
罂
趱
溽@@
蜘@@
罣
劉
腦@@
滁
蘇
韡
ち
羼
難
鬯
匕
钔
哥伦@@
伹
ル
敫
拊
鳏
碉
舁
選
窪@@
笾
ス
房间@@
啝
難@@
娊
泖
萩@@
矇@@
衝@@
啁
天盖地
Б
餘
莰
尼亚胡
酆
庀
垜
锎
搥
┦
鮰
勫
幇
嶋
堎
圍@@
蒥
糴
脩
牆
託
乸
妝
玢@@
搛
規
愲
厖
轺
紙@@
崦
蓍
跹@@
酩
嗍
穏
锃
瘳
場@@
岵
嘨
绲@@
诹
瀼
鳓
情理@@
先决@@
識@@
ǔ
桠@@
鱂
劏
蹩
耨
袷
怍@@
赜
坶
痾
椹@@
芠
嵎
吸血@@
皤
‌
荜
瞀
摭
暸@@
異@@
⒖
酎
葎
江省
驣
絲@@
籐
踌
箜@@
抏
渫
腼
輸
塅
絡
瑷@@
訂
蛞
薏
迓
洳
籲
洎
滆
搿
羅
樣@@
麿
檏
絕
漸
蹀@@
础@@
贊@@
ㄑ
躞
蛑
蹂
驸
鲗
⒘
橫
歷
獗
镠
蛘
ピ
螩
磙
ㄌ
骕
蛱
摩加迪@@
詩@@
寫
孑
簅
诙
鐨
絶
谮
舟子
鏻
倕
⒛
玓
撃
唸
綠@@
辶
楽
う
隠
撖@@
撙
砹
虬
審@@
褊
隻
鹖
壒
碿
北省
ァ
虷
苘@@
阌
獗@@
骒@@
嘧
罍
姘
劦
鱆
柺
盡@@
硷@@
預@@
╰
讀
頁
⊥
〆
吢
龌
蛏@@
緊
觀@@
唿
ラ
噸
臫
昺
ㄢ
艾滋@@
莶@@
豨@@
毛里求@@
晳
琩
晡
簟
慝
菉
夤@@
㎞
哕
⒅
阳澄@@
坵
啱
见不鲜
栱
氽@@
旮
爭@@
寶
聼
雩
愰
嬢
廚@@
漥
藥@@
蜚
茺
皕
糬
尅
侪@@
顯@@
燹
倫
漿
如荼
嗙
由来@@
┃
藝
結
搌
硇@@
锞
阒
羑
侩@@
埿
匏
砉
秱
袂@@
蜉
士尼
榱
舄@@
瞵
畑
簽@@
晛
埘
帳@@
瑒
硋
砢
钷
營@@
硑
锘
頣
忽职守
崁@@
礐
顔
寘
狟
挐
秾
で
相辅@@
養
曽@@
桴@@
然一新
臃
舉
莒
賀
绱
瘃
鮋
喏@@
┒
勢
曁
嵒
午节
鉆
麾
擁@@
鲅
洓
赧@@
嗉
諾
覓
舻
跣@@
鑒
特快@@
髫
麗
賴@@
═
臨@@
冊
萂
紹
駕@@
藠@@
襯@@
鯆
尴
掾
禔
牯
話@@
鹈
‖
蓐
蓊
耪
臜
烚
舭
娫
狲@@
檔
蘇@@
仚
坰
灠
一帆@@
週
貍
瘜
交界@@
凵
豊
琁
遲@@
楊@@
鼍
莨
槓@@
崟
眼花@@
浄
枬
哓
玦
伕
艶
憍
鄉@@
淚
調@@
種@@
漖
█
弶
掛@@
綉
繧
舧
滔滔@@
佉
湪
ッ
え
葉@@
М
僱@@
溲
護@@
俜
陛@@
▷
ツ
獸
懁
╚
缇@@
西班@@
餚
丆
豳
嚴
砼@@
矪
籔
苈
椤@@
ш
换届@@
檞
镘
秂
尪
霧
貯
実
蜿
Р
饣
廝@@
醡
槓
蔯
卷风
鸺
惋@@
塞州
ㄏ
蜃
₂
嗮
遴
讴@@
亽
▪
箇@@
楜
郛
旰@@
島
陸@@
討
雱
怫
⒑
荾
お
蚚
寫@@
喋
Н
繆
訴@@
深思@@
硇
榶
煥
镔@@
共睹
藁
觌
视性
鵥
頂
茺@@
踰
羙
陰
茛@@
葢
屆
競@@
撅@@
籀
聯@@
噐
籠
笊@@
吲
黻
殍@@
六方@@
門
镄
功于
╃
缃
≌
惱
¬
紗
²
ë
咙
嗌
匚
洣
兎
ぞ
暱
陃
擊@@
稂
轵
尒
≫
ㄝ
湃@@
厗
晄
顰
昇@@
澉@@
癡
訛
琏@@
锔@@
滏
鍒
郗
熙蕾
醫
師@@
Ъ
♢
遷
輭
蓼@@
惬@@
燒
倰
揍@@
瀹
摒
咎于
寐@@
倢
怱
揿@@
髀@@
腽
捌@@
锢@@
築@@
醐
锖
溚
鲣
ㄔ
躄
紀
ャ
烔
逅
囯@@
収
≪
藷
圓@@
喬@@
潸
香糖
嘣@@
蚨
卋
鋆@@
紀@@
旆
蹑
算价
鏡
颋
踔
淉
蘿
垕
熘@@
否是
恧
钭
專
痼
姽
踺@@
牴
涫
餬@@
騄
趼
南省
郧
眍
尷@@
肒
³
盨
鳯
喥
傺
窀
呙@@
戦
┪
極@@
鄯
邳
緻
眏
檔@@
等化
兲
蒯
繕
痁
猵
沚
璺
耶路@@
熵@@
鐘@@
旃@@
醵
跐
镞@@
昉@@
禆
榮@@
桴
竸
灘
铖@@
珙
瘕
冴@@
薑
掃@@
菴
槍
犛@@
訟
寛
邙
鹁@@
尥@@
熒
姵@@
墜@@
涑
負
俰
秖
以赴
譽
圖@@
珹
盱
廑
纉
慜
悬而@@
祩
刳
歙
柝
順@@
郾
拉脱@@
年青@@
滅
彡
貯@@
綷
尛
姉
僱
蠎
骉
诗曼
顧
鱓
棐
瓠@@
芟@@
錾@@
蛝
嗫
勝
観
黄奇@@
習@@
戝
適
勔
農
玭
愆@@
協@@
倮@@
秫@@
ひ
î
黃@@
冚
鹣@@
鲽@@
揎
皊
翾
橄
爝
┗
夲
睆
踽
褡
溆
か
睺
冖
砞
с
坢
苎
彆
駐@@
扞@@
論@@
鼗
圴
稅@@
琭
廱
情局
隱@@
茌
妟
琛@@
骱
敗@@
齁
茇
銘
娠
⒙
発
惪
Л
職
嵝
め
滂
犦
沄
渓
犤
棨
酆@@
逖@@
♥
南南@@
參
泃
荳
ń
丟
旯@@
跏@@
佥
▽
澌
兂
睴
羰
婥
賀@@
啣
據@@
荑@@
靭
ъ
瑚@@
骀
濸
績
嬿
爐
盢
鎴
┚
全神@@
倫@@
撚
燭
矬
肵
脍
撘
癳
鹛
蠟@@
鬘
ㄛ
碹
ㄗ
穈
終@@
鳇
侘
跏
耱
洸
儀
屴
様
窭
軌
維
灣@@
慣
盞
樓@@
竊
浯@@
劬
嶢
洈@@
盝
を
磬@@
綝
貨@@
蛯
遈
â
蒌@@
阄@@
忐
畹
ⅵ
痠@@
崆
澤@@
З
吽
緾
峁@@
塲
蒺
質
螲
蘋
舖
锞@@
蟷
疬
崄
脇
龕
蠲
睌
美瑞
远镜
補@@
憔
目瞪@@
鏊@@
寔
ん
枘@@
貔
敉@@
蚂
氺
橋
懷
鶤
桲
翥@@
粜
帻
順
貸
俠
苁
褆
薤@@
樯@@
斱
╁
臥@@
祧
財
網
縱@@
摽
郈
‥
鎌
蕞@@
妅
閉@@
仵
驚@@
抉
毵
繞
徼
賭@@
摀@@
齧
锬
遶
鍾
渼
鹓
媖
飓@@
馃
沖
僕
飾@@
蟀@@
刭
瓿@@
遙@@
戀
漸@@
傈
宮
樹
櫥@@
雞
雰
厐
畯
螵@@
牗
鲚
焢
睥
闓
杻
茈
楢
弨
琇@@
橛
浍
昫
屺
磝
納@@
窰
洧
殼
É
昺@@
冧
襍
讴
剟
誜
湮
韾
載@@
慮
珎
蕹@@
灜
棄
鬲@@
甏
豀
龍
辂
伛
抨
馒
蒐
誏
減
傾@@
圉
擋
曉@@
乊
蹠
喪
闀
墻
聞
呖
葙
鏈
揟
峧
顛@@
谇
獨
痩
屲
コ
橿
芐
サ
闩@@
恆
侉
窿@@
轹
邠
饨@@
前瞻@@
尐
彳@@
邁@@
℡
鹡
日程@@
鐵@@
钑
蘧
辯
嬑
朓
愽
ö
炻@@
嬅
麗@@
锕@@
扙
腞
嫈
禵
們@@
塗
偁
鼷@@
仓股
肆无@@
彗
賦@@
東
路里
茏@@
藥
蝲@@
郤
赕
滹
蚪@@
絬
桕@@
鹘@@
玎@@
廣@@
瑫
ユ
渑
鍙
侞
睱
苧@@
击案
瞢
屽
単
抨@@
П
鹾
銆
嘠
囦
螚
齑
甓
ザ
舎
テ
瘐
徴
篙@@
茑
浰
歛
カ
庅
讟
経
苣@@
唸@@
劼@@
豋
冨
亊
萊@@
呙
烿
縳
聃@@
╆
戯
鈺
⌒
飆@@
禫
詳@@
シ
居们
寃
犼
擬
赒
覑
粅
恫
麴
鴞
厭@@
畛
湳
劧
┲
闸蟹
鬶
发达@@
貴@@
四次@@
囉
鯓
嫪
柰@@
卽
逭
撫
贸区
纞
庫
╟
蚰@@
仂
茀
Υ
菹
瘉
瓒@@
殅
扥
拏
耞
反倾@@
楮@@
滾
奓
桎
夢@@
笞@@
嘏
醑
蜞
繙
軎
型期
⒇
桤
籤
┐
銙
鎯
员国
攞
玍
荭
步声
臌@@
璓
鹆
診@@
嶺@@
妺
剽
肏
孥
廣
瑭
礒
楧
悌@@
宄
吳
ェ
剝@@
嚅@@
遗症
篥
‵
較@@
意大@@
須@@
跡
栺
焼
甁
昄
穎
睃
褙
釐
玗
爭
ブ
睏
叆
擕
凱
紐@@
糞
厘岛
扽
Zyn@@
ゴ
袆
伝
⒚
叻@@
茭
趕
廇
铍@@
爔
籣
Μ
萣
杩
門@@
虿
曾荫@@
寳
嗪@@
裣
閉
鴷
镩
傘
裑
螃
穀
ぜ
筍
胩
儗
帀
ダ
懊
亁
獀
塬@@
跽
筼
謒
葰
塗@@
嵖
糵
纐
滟@@
濙
廙
纒
嫰
彀@@
灐
唫
僮@@
靿
穂
塨
莫少@@
類@@
桿@@
殑
Ю
擡
憂@@
碦
踺
潲
睩
椇
郵
笮
ä
関
燚@@
潔@@
薤
犽
瑿
殺@@
ュ
儲@@
鉻
媽@@
缂
胔
昐
謊@@
‎