<s>
<pad>
</s>
<unk>
the
.
,
of
and
to
a
in
is
for
that
on
I
you
@-@
it
with
be
as
&apos;s
are
was
by
&quot;
this
he
have
at
not
or
from
we
an
)
(
will
:
?
has
but
his
can
they
all
their
your
;
its
one
my
which
had
-
&apos;t
more
if
were
there
been
up
so
she
out
when
do
me
her
would
people
also
time
said
what
about
other
our
no
should
who
some
into
like
new
China
them
than
him
shall
/
two
&apos;
these
may
only
any
such
work
!
after
how
could
development
now
make
well
over
first
just
many
very
system
United
most
made
good
know
year
under
years
get
then
through
us
must
take
international
world
between
use
way
countries
life
see
man
don
those
go
day
before
because
Chinese
much
need
right
Nations
used
even
long
where
think
important
The
did
down
information
high
article
economic
country
being
back
last
General
three
come
Council
1
still
each
want
here
while
States
government
during
2
water
say
off
part
both
great
too
same
without
every
$
human
un@@
own
public
&apos;m
Committee
company
number
help
process
&apos;re
little
against
business
women
let
support
always
report
never
old
control
set
law
market
love
children
give
however
order
s
A
different
since
per
put
within
going
am
place
&apos;ll
3
another
Mr.
level
does
national
based
social
study
able
activities
end
look
S@@
re@@
rights
paper
next
better
including
financial
management
i
says
money
Government
found
home
peace
why
today
State
method
got
around
person
find
again
things
small
according
security
cooperation
state
away
power
please
provide
might
change
non
research
data
days
few
best
men
become
resolution
Hong
less
areas
often
Kong
among
really
in@@
further
foreign
resources
technology
%
something
large
local
4
5
10
area
problem
quality
came
food
&apos;ve
application
measures
health
education
full
family
service
special
meeting
problems
&#91;
Secretary
efforts
second
means
case
.@@
B
hand
land
keep
services
once
school
working
P@@
political
--
given
T@@
upon
D@@
following
members
trade
tell
using
house
making
called
results
o
6
organizations
went
thought
future
B@@
&#93;
situation
present
period
production
C@@
taken
together
field
community
M@@
effect
point
already
kind
economy
students
developing
form
growth
million
design
far
above
took
big
name
air
five
major
face
feel
left
group
term
policy
role
possible
four
night
products
energy
body
past
city
thing
&apos;@@
light
relevant
yet
young
English
open
several
job
value
e
cent
1994
needs
action
G@@
F@@
H@@
A@@
Assembly
room
free
whether
heart
current
main
line
building
necessary
believe
L@@
whole
s@@
related
view
show
others
hard
week
continue
provided
New
held
industry
question
age
ever
rate
party
price
head
implementation
training
er
environment
result
various
effective
objective
decision
real
God
cost
course
region
t
American
issues
low
hope
global
play
general
cannot
until
early
side
told
increase
enough
having
lot
call
K@@
pay
ing
programme
e@@
times
live
N@@
common
experience
conditions
plan
nothing
assistance
project
analysis
companies
therefore
President
ate
7
regional
20
matter
staff
military
model
Commission
done
1993
least
meet
words
asked
mother
legal
&apos;d
child
self
mind
try
R@@
oil
US
International
Mr
fact
es
key
basis
E@@
issue
y@@
t@@
To
ensure
8
ed
30
15
d@@
parties
operation
strong
father
investment
half
administrative
recent
care
sure
didn
months
office
Beijing
car
improve
protection
test
W@@
woman
established
developed
particular
though
interest
total
month
higher
accordance
Republic
attention
especially
saw
performance
taking
book
Security
account
dis@@
C
doing
makes
bring
soon
ability
team
start
friends
construction
example
respect
population
12
seen
space
9
run
eyes
progress
society
son
available
living
along
k@@
session
force
later
certain
leave
ation
short
cases
position
People
third
structure
required
red
Development
looking
hours
technical
basic
levels
programmes
al
include
product
top
en@@
ago
won
war
ask
methods
draft
capital
property
treatment
led
rather
known
cause
language
forward
South
close
clear
concerned
percent
subject
almost
World
prices
changes
...
risk
amount
provisions
specific
America
type
difficult
history
understand
y
systems
due
nuclear
bank
o@@
turn
morning
natural
m
thus
p@@
computer
bad
Law
class
g@@
although
11
environmental
ers
private
himself
began
O@@
b@@
n@@
an@@
fire
Department
institutions
word
date
read
Africa
anything
talk
equipment
D
death
projects
al@@
groups
six
Conference
door
material
ated
adopted
serious
someone
gave
persons
proposed
ways
deal
police
outside
mean
operations
idea
department
return
easy
safety
quite
requirements
knowledge
towards
particularly
terms
stop
culture
considered
learn
reason
everything
practice
nature
true
appropriate
addition
promote
table
importance
decided
poor
i@@
received
trying
heard
move
king
And
wife
fully
single
friend
across
hold
happy
develop
3@@
usually
step
likely
goods
pressure
l
longer
network
Special
wish
looked
1995
European
University
individual
cut
materials
exchange
income
girl
finally
buy
workers
share
m@@
comes
reports
coming
rules
lost
on@@
themselves
enterprises
access
capacity
relationship
demand
policies
theory
white
responsibility
approach
agreement
It
directly
I@@
paragraph
50
near
14
itself
review
sometimes
member
yes
personal
planning
parts
Group
Japan
moment
brought
parents
December
getting
l@@
Convention
1996
National
increased
needed
late
cultural
er@@
road
S
n
behind
personnel
create
ting
lead
court
effects
4@@
yourself
beautiful
modern
traditional
offer
c@@
delegation
V@@
front
administration
letter
act
success
sea
responsible
boy
impact
authorities
hands
16
plans
hear
markets
u@@
item
blood
25
address
w@@
rest
f@@
works
doesn
sense
keeping
tax
funds
Organization
game
cold
costs
felt
news
billion
You
regard
list
18
expected
ground
de@@
eat
13
supply
es@@
ch@@
questions
consider
function
5@@
ating
credit
everyone
banks
principle
continued
saying
officials
stay
provides
forces
simple
it@@
h@@
wanted
follow
regulations
medical
either
organization
r@@
im@@
enterprise
started
remember
apply
actually
Asia
domestic
additional
relations
became
civil
complete
over@@
21
central
ready
former
instead
contract
k
learning
seems
speak
Europe
factors
status
significant
note
sound
visit
introduced
music
lower
stage
ts
media
May
interests
carry
software
June
laws
Oh
post
existing
build
gas
positive
agencies
sent
potential
shows
similar
lives
reform
standards
surface
concern
points
charge
fine
greater
at@@
growing
July
answer
source
bed
whose
sector
deep
carried
turned
science
Lord
bit
He
Office
round
thank
st@@
ar@@
wide
standard
purpose
black
ten
art
fall
exercise
active
caused
crisis
opportunity
d
activity
criminal
J@@
en
takes
size
direct
6@@
a@@
response
U.S.
earth
story
7@@
request
as@@
sales
ted
knew
17
final
studies
joint
re
agreed
insurance
met
stand
alone
departments
establishment
section
September
24
reduce
statement
Israel
stock
average
achieve
allow
paid
mechanism
establish
involved
site
disease
inside
Y@@
am@@
scale
z@@
content
In@@
program
East
&amp;
In
understanding
range
consideration
or@@
hour
E
unit
increasing
鈥
speed
b
2008
19
image
chapter
record
influence
Article
representative
check
thinking
books
budget
ly
focus
ant
stability
Central
added
reported
principles
written
hot
recently
March
official
rich
teaching
Bank
wrong
v@@
sub@@
comprehensive
overall
meetings
governments
ic@@
u
minutes
fast
solution
quickly
ship
beginning
machine
commercial
strength
board
ates
agenda
O
governmental
rates
flow
concerning
prevent
_
strategy
limited
nation
below
conclusion
discussed
reached
communication
enjoy
is@@
2@@
African
ab@@
100
yesterday
1992
avoid
Z@@
strengthen
write
October
else
8@@
effort
teacher
gold
drug
bodies
tried
voice
rise
22
patients
nor
perhaps
April
regions
di@@
evidence
presented
conflict
issued
designed
units
Shanghai
transfer
text
remain
schools
scientific
president
mainly
North
document
task
j@@
probably
running
seem
characteristics
provision
condition
40
th@@
weapons
ro@@
essential
el@@
approval
green
protect
applied
wind
9@@
de
seven
g
distribution
Board
humanitarian
India
crime
2007
rule
physical
export
heavy
II
fish
U@@
series
arms
weeks
ad@@
co@@
sun
anti
lack
ine
23
ti@@
documents
Programme
industrial
chance
town
walk
functions
send
con@@
loss
professional
goal
cover
Member
damage
balance
dead
temperature
fell
forms
card
myself
January
ones
base
applications
studied
facilities
efficiency
phone
mission
break
ac@@
built
procedures
leaders
John
travel
ol@@
31
poverty
items
tomorrow
prepared
sleep
previous
maybe
looks
ag@@
Centre
spirit
regular
trust
steps
gone
showed
throughout
cities
Re@@
actions
French
tree
immediately
rural
leading
providing
safe
ap@@
middle
firm
hair
ations
monitoring
debt
sign
annual
accept
watch
Party
le
maintain
writing
welcome
included
os@@
York
contact
normal
Governments
reach
confidence
code
traffic
reading
goes
wait
p
expressed
investors
nearly
primary
F
successful
event
matters
style
P
opening
feeling
earlier
created
film
reasons
summer
internal
seemed
processing
ings
2006
urban
competition
ice
isn
places
48
sustainable
century
skin
customers
British
be@@
plant
enhance
London
ar
practical
noted
inter@@
color
Olympic
train
Economic
ethnic
eye
anyone
despite
circumstances
hit
benefit
waste
weather
heat
beyond
receive
connection
original
co
approved
November
framework
decisions
search
employment
states
mine
pre@@
simply
add
complex
authority
choose
uses
fear
x
worked
degree
wall
truth
Internet
sorry
stress
weight
kept
fund
representatives
worth
th
context
August
gives
fields
users
reference
talking
benefits
wants
participation
Rights
difference
remains
compared
win
el
direction
ic
If
events
box
changed
produce
clearly
ing@@
largest
improved
We
doctor
affected
giving
27
Social
pass
types
popular
dollars
concept
save
indeed
freedom
generally
currently
user
shown
dark
husband
violence
26
college
yuan
character
student
--@@
easily
implement
die
conduct
drive
opened
acts
clean
choice
TV
examination
submitted
skills
aid
agency
station
allowed
survey
passed
ous
T
sides
window
chief
ideas
Iraq
require
entire
assets
dream
recommendations
opportunities
file
priority
Japanese
coordination
28
Human
online
als
manner
begin
sh@@
spend
feet
serve
um
em@@
il@@
dog
grow
to@@
blue
huge
except
aspects
ec@@
sell
emergency
ad
baby
calls
net
Fund
eight
Service
sp@@
standing
street
steel
ill
happened
measure
playing
gonna
failure
maintenance
press
experts
target
..
om@@
le@@
fixed
id@@
useful
unto
views
ent
cash
registration
ator
includes
piece
spent
2005
equal
op@@
Union
discussion
object
individuals
ri@@
speech
c
died
born
payment
brain
regarding
est
conference
lose
floor
pain
resource
limit
message
etc
climate
listen
speaking
interested
details
daily
Korea
cross
trees
effectively
chemical
fight
seek
famous
manager
determined
Court
figure
promoting
improvement
played
store
completed
drink
families
highly
independent
core
features
elements
City
evaluation
Russian
pe@@
Information
Taiwan
picture
per@@
election
memory
ancient
brother
29
raise
mass
enter
ahead
mutual
expect
phase
contained
factor
raised
advanced
nations
duty
actual
advice
certainly
ter
pollution
perfect
assessment
citizens
ling
mis@@
animals
kinds
biggest
conducted
G
river
agree
transport
goals
improving
mentioned
achieved
described
li@@
out@@
followed
ist
investigation
gets
sky
glass
causes
thanks
bear
whom
evening
toward
critical
he@@
France
pro@@
ex@@
bus
se@@
Asian
nice
moving
commitment
movement
advantage
clothes
lo@@
prevention
cell
ness
rain
notice
returned
ball
L
unless
ul@@
signed
jobs
Chairman
discuss
trouble
relief
M
attack
Con@@
produced
ha@@
latest
published
daughter
60
killed
customer
inspection
hundred
owned
cells
Congress
teachers
completely
girls
vote
Secretariat
covered
mouth
contributions
external
center
ons
soil
fundamental
arrangements
coal
opinion
meaning
afraid
negotiations
medium
determination
territory
rapid
trading
waiting
double
h
Russia
procedure
values
relating
February
proposal
marriage
sports
happiness
Al@@
West
join
requests
ed@@
consumption
lines
researchers
ism
supported
couple
organs
affairs
employees
animal
season
encourage
stood
operating
concerns
holding
sale
resolutions
learned
challenges
stone
obtained
Mar@@
tic
warm
sex
married
Executive
sort
wear
requires
armed
knows
requested
agricultural
reduction
spread
moved
housing
strengthening
television
negative
justice
System
ors
man@@
peaceful
appear
forget
affect
ia
cancer
aim
setting
Agreement
author
entitled
contribution
2004
spring
generation
Services
et
rose
securities
device
forest
fair
plants
objectives
couldn
assist
sources
thousand
difficulties
becomes
numbers
master
technologies
technique
thousands
healthy
preparation
mandate
lay
legislation
senior
qu@@
1.@@
video
unique
ans
te@@
sit
dialogue
concrete
career
ah
announced
promotion
director
clinical
page
ent@@
What
electronic
hotel
closed
ring
determine
multi
proposals
registered
widely
movie
fresh
engineering
decide
r
drop
match
Americans
Management
challenge
trend
whatever
scientists
properties
increasingly
shape
associated
committed
settlement
talks
s.@@
doubt
purposes
agreements
offered
scope
element
Tibet
dinner
estimated
happen
path
Germany
committee
placed
ot@@
Minister
Games
helped
claim
medicine
university
changing
express
offices
behavior
hospital
proper
bill
becoming
dry
testing
notes
Action
specified
&#124;
der
sold
Obama
abroad
collection
bottom
Health
lived
tr@@
efficient
participate
flowers
organized
Administration
supervision
starting
An@@
otherwise
rising
labour
thou
delivery
island
slow
sir
realize
UNDP
-@@
pretty
fuel
electric
tions
addressed
Day
algorithm
49
ds
articles
western
twenty
fl@@
pl@@
officers
ite
suddenly
drugs
expression
democratic
majority
contribute
thy
inter
Foreign
R
19@@
par@@
closely
afternoon
religious
Monday
advance
finance
believed
Year
wood
bo@@
zone
45
foot
reduced
presence
ran
illegal
separate
permanent
compensation
border
analyzed
su@@
yeah
ter@@
secret
guarantee
recognized
mail
solve
leadership
draw
47
mode
neither
lie
Ministry
sat
lies
distance
shop
This
disaster
threat
ding
tea
winter
reality
dynamic
ity
accepted
beauty
35
noise
accounting
variety
failed
highest
sister
pattern
suggested
ative
female
H
car@@
ence
rock
economies
refugees
buildings
stable
excellent
bought
developments
relatively
broken
accident
race
leaves
agent
leaving
powerful
educational
entered
me@@
Ar@@
Tom
democracy
kill
foundation
executive
Ch@@
David
moreover
and@@
implemented
none
bi@@
cars
Australia
spending
mo@@
My
appeared
shares
aimed
version
initial
driving
background
tive
Britain
鈥@@
2000
extent
friendly
ance
mark
wine
plane
leader
differences
minute
submit
flight
dangerous
ks
trip
soft
games
St@@
soul
wasn
import
star
ch
output
sight
map
suitable
.The
integration
signal
location
organ
Street
broad
cl@@
obligations
eating
carrying
host
fourth
aware
scheme
herself
si@@
labor
digital
operational
formed
greatly
solid
touch
1991
boss
wouldn
actively
integrated
ally
handle
strategic
guy
extremely
boat
responsibilities
bright
for@@
financing
contains
av@@
species
mobile
delegations
18@@
garden
behalf
quarter
ir@@
gain
High
ur@@
Trade
names
index
strategies
peoples
continues
inflation
under@@
component
radio
锛
south
selling
historical
autonomous
indicated
0@@
okay
overseas
vehicle
currency
technological
appears
loved
arrived
enable
larger
wealth
facing
Pacific
army
adopt
Friday
detailed
willing
located
mechanisms
pick
marketing
dollar
ong
village
vehicles
Western
shot
desire
the@@
reasonable
sites
correct
coffee
meanwhile
haven
practices
diseases
prepare
explain
et@@
relation
release
finished
us@@
Christmas
filled
seeing
bl@@
br@@
Canada
sitting
competent
exactly
dress
caught
But
attempt
When
tool
creation
stated
explore
defined
length
guide
gradually
profit
track
fun
busy
Declaration
ies
obtain
fruit
Mission
recovery
Director
tools
patient
troops
Public
Charter
consultations
investigate
sing
planned
techniques
facilitate
youth
Washington
6.@@
referred
transportation
2009
Bush
arm
significance
straight
models
components
losses
prior
ps
ty
brand
No
dont
mental
tests
listed
ended
processes
offers
His
structures
Road
interesting
metal
ob@@
70
House
residents
hurt
2003
trans@@
factory
laid
aircraft
En@@
carefully
perform
experiment
Affairs
debate
infrastructure
fit
screen
forced
tasks
Middle
walked
manufacturing
smile
recommended
judge
remained
finding
ked
ton
ph@@
campaign
consumer
nine
Palestinian
website
iron
statements
Sunday
milk
risks
enemy
Institute
=
bilateral
link
wrote
purchase
For
stopped
00
kids
sc@@
worry
z
corporate
storage
transition
ties
Sh@@
Li
*
follows
ages
resistance
acid
telephone
claims
S.
extra
copy
statistics
adequate
x@@
bar
Region
spot
instruments
catch
proved
ish
bridge
Jesus
slowly
sets
recognition
36
combined
duties
severe
so@@
ical
funding
exist
accounts
figures
80
German
forth
birth
miss
ve
database
N
les
volume
32
released
entry
identify
wave
UN
partner
effectiveness
seat
X@@
ters
soldiers
named
England
corresponding
weak
situations
horse
adoption
immediate
count
mountain
heads
ded
conflicts
Women
partners
fly
male
trial
Association
do@@
disarmament
That
gr@@
Administrative
answered
allows
tion
firms
K
records
instance
centre
players
bird
greatest
consumers
90
ment
error
impossible
solutions
county
north
forty
V
engine
respectively
ang@@
Control
existence
500
frequency
load
suggest
multiple
continuing
ends
attitude
quick
mining
faith
creating
Tuesday
pre
reflect
manage
Ex@@
participants
fighting
Earth
tonight
engaged
programs
interpretation
meat
ou@@
200
unable
no@@
Technology
warning
No.
judicial
appeal
feelings
besides
walking
expansion
thee
sweet
watching
display
LORD
receiving
helps
Q@@
communications
dealing
id
Working
bearing
plays
possibility
Y
businesses
layer
fat
formation
ie
academic
treated
defense
ver@@
rec@@
hole
consequences
Advisory
Agency
objects
boys
seriously
moon
33
controlled
rapidly
civilian
hopes
Iran
industries
ni@@
Company
carbon
everybody
identified
De@@
injury
1997
deeply
suffering
suit
earthquake
multilateral
Force
fill
thoughts
houses
ordered
introduce
specialized
sons
innovation
posts
2001
scene
consensus
W
remove
X
square
aged
combination
cast
awareness
danger
relative
crimes
supplies
ization
34
ized
valuable
Mrs.
sectors
Pro@@
ourselves
maximum
guidelines
loans
furthermore
ut@@
signs
1@@
reporting
undertaken
edge
discovered
simulation
respective
selected
cutting
smaller
instrument
port
lots
elections
formal
birds
province
professor
sufficient
+
appearance
consultation
liquid
anti@@
U.
spoke
increases
victims
faced
institution
informed
wonder
res@@
regulation
Ordinance
invited
finish
tired
f
establishing
urgent
orders
can@@
demands
park
ens
Your
respond
considering
seeking
launched
vision
violation
treat
concluded
dear
OF
um@@
Com@@
gate
37
requirement
dance
careful
player
managers
comments
expert
implementing
asking
song
restaurant
offering
U
helping
1990
cr@@
snow
broke
independence
block
west
corner
investigated
certificate
District
ents
Education
cards
contain
silver
51
agriculture
Wednesday
observed
enforcement
pleased
missions
thesis
extended
School
interview
feature
divided
e.@@
studying
expensive
46
mon@@
reaction
easier
turning
monitor
All
structural
wild
ne@@
end@@
positions
Bureau
One
believes
characteristic
prove
apart
minimum
39
banking
involving
tri@@
plastic
ge
focused
fault
atmosphere
drawing
adjustment
Province
miles
shoes
membership
thin
falling
po@@
supports
ful
ye
res
parameters
worse
pieces
till
principal
officer
holiday
command
era
44
rice
ian
chain
intended
tend
Arab
41
mid
River
gift
library
III
observe
prescribed
ery
smoke
annex
moral
Afghanistan
Division
via
2.@@
shared
served
advantages
guidance
non@@
tourism
38
meant
Li@@
charges
cool
lady
telling
detail
hearing
joy
equity
gender
expenses
buying
discrimination
decades
spokesman
grass
Authority
eventually
Thursday
loan
ators
ology
putting
quiet
confirmed
pleasure
As
attached
Summit
football
ore
Se@@
attacks
calling
motion
promise
up@@
farmers
bu@@
competitive
ard
reducing
ly@@
battle
letters
selection
Bosnia
guess
estate
supporting
Di@@
realized
Research
ry
electricity
managed
cycle
aren
Mary
plate
sick
ten@@
How
ve@@
v
crucial
ble
delay
vi@@
Egypt
twice
Ad@@
satisfaction
stocks
temporary
push
package
older
fail
ordinary
Regulations
43
secure
elected
decline
achievements
joined
sensitive
equality
te
UK
bound
we@@
bar@@
Where
Paris
topic
Chief
Olympics
wonderful
discussions
Peace
stars
expand
ality
newspaper
IT
Web
ker
oc@@
experimental
There
grown
tears
sanctions
ideal
Wang
partnership
properly
stick
els
attend
pointed
Car@@
\
depth
resulting
savings
os
obvious
Cooperation
grade
powers
forever
experienced
#
truly
Pakistan
imposed
evaluate
fashion
ves
wishes
constant
grew
wh@@
southern
ary
platform
courses
dropped
initiative
ley
vital
characters
sample
frame
initiatives
languages
rent
communities
universal
ise
decade
pair
writer
recognize
diagnosis
der@@
measurement
appointed
images
millions
exports
remote
ant@@
handling
depends
faces
schedule
continuous
east
driver
taste
10@@
prison
Federal
appreciation
drawn
weapon
experiences
minister
dr@@
terrorism
bag
facts
violations
outstanding
ev@@
ists
occurred
ensuring
Rwanda
glad
friendship
dated
introduction
club
ars
emerging
ants
performed
angry
reply
row
Protection
strange
smoking
networks
teams
classes
3.@@
Jack
Michael
micro@@
replied
nobody
owner
hi@@
producing
indicate
virus
War
integrity
Iraqi
empty
extend
onto
stations
familiar
shopping
Israeli
all@@
weekend
relationships
considerable
resolve
significantly
acting
airport
hundreds
encouraged
ping
yellow
ge@@
rare
Business
capable
quantity
input
revised
counter
of@@
doctors
devices
happens
2002
saving
26@@
teach
fee
Plan
alization
client
mistake
ins
composition
struggle
White
sl@@
regime
Le@@
intellectual
Q
com@@
emphasis
grain
storm
ics
ang
go@@
75
conversation
criteria
difficulty
reflected
deposit
42
cry
hardly
connected
mostly
ying
raising
minority
raw
EU
upper
examples
dreams
alternative
ceremony
guys
destruction
Great
prefer
ma
Co
ak@@
refer
literature
ig@@
ending
sounds
strongly
church
Indian
showing
ation@@
files
secondary
dec@@
sought
chairman
liability
imagine
consistent
vast
wearing
salary
brings
harm
stuff
hey
ren@@
Commissioner
option
gu@@
proof
sexual
linked
mechanical
flat
utilization
ST@@
adding
branch
Unit
frequently
transmission
gl@@
typical
identity
inner
cur@@
dispute
pull
fifth
treaty
crowd
beat
drinking
explained
proliferation
presents
suffered
Saturday
execution
pr@@
RE@@
clients
du@@
evil
maintaining
whenever
collective
Federation
remaining
suggests
computers
introduces
provinces
ratio
contents
ste@@
click
shut
options
numerous
thirty
An
represented
authorized
definition
ner
motor
substantial
stories
district
gh@@
sharing
sentence
audience
cat
fees
ll
patterns
expenditure
bringing
Yugoslavia
journey
cre@@
combat
Representative
commitments
novel
First
000
IN@@
King
ke
limits
sharp
ching
marine
cor@@
sub
az@@
George
UNICEF
web
recorded
pace
select
ships
suggestions
exchanges
license
advertising
Singapore
bone
containing
Italy
granted
au@@
abuse
welcomed
voluntary
title
commodity
accordingly
occur
pictures
represent
customs
achievement
cup
perspective
describe
0
bid
Co@@
birthday
salt
Report
surprise
appointment
ay@@
sand
ke@@
OK
anger
ongoing
wise
diplomatic
Dr.
300
politics
declared
timely
likes
phenomenon
dust
brief
division
successfully
missing
intelligence
turns
55
designated
Post
conclusions
server
Do
wedding
centres
estimates
str@@
painting
applicable
es.@@
flower
protected
shift
visitors
unemployment
conservation
automatic
Constitution
flying
achieving
multi@@
meal
jurisdiction
sad
usual
stressed
bigger
gi@@
applying
satellite
ched
previously
4.@@
Treaty
se
tu@@
ement
Latin
compliance
ler
reconstruction
supposed
operate
throw
ments
substantive
paying
findings
ought
gap
homes
ticket
represents
worst
reviewed
channel
min@@
Be@@
accurate
sum
rescue
burden
lesson
fifty
diet
ches
5.@@
detection
passing
faster
Herzegovina
normally
latter
grave
begun
oriented
appreciate
heading
welfare
af@@
suffer
origin
mat@@
household
examine
repair
band
decides
translation
false
links
SCO
absence
lunch
alive
鈥檚
ru@@
THE
ay
ological
aspect
closer
obviously
deliver
root
bread
holds
occupied
stands
outcome
jointly
launch
profits
Scheme
chair
hoped
largely
wisdom
talked
ms
sts
investments
ast@@
favorite
excuse
her@@
observers
comfortable
extension
printing
fellow
mar@@
Harry
Gu@@
9.@@
identification
ade
belief
Center
contracts
papers
Bo@@
nevertheless
driven
marked
rehabilitation
somebody
contrast
ster
electrical
fishing
venture
skill
slightly
employed
institutional
newly
feed
Mainland
smooth
ease
regarded
entirely
sovereignty
owners
Th@@
merely
listening
uc@@
super@@
ain
patent
targets
guard
waters
assembly
inform
Agenda
Civil
estimate
ride
approaches
col@@
undertake
ver
escape
reserve
punishment
replace
El@@
overcome
satisfied
opposite
arrangement
capability
lights
heaven
removed
Mexico
reliable
maintained
extensive
complicated
sugar
proportion
rooms
lock
Bar@@
strict
roads
ci@@
feels
Ms.
thinks
theoretical
cu@@
teeth
therapy
dogs
.I
st
neck
Su@@
marks
pure
agents
ina
ber@@
Korean
comment
giant
jump
analysts
gun
UN@@
tough
streets
leads
ash
air@@
engage
circuit
constantly
comparison
Sea
amounts
recommendation
candidates
subjects
visited
^
blind
cooperate
distributed
headquarters
theme
IC@@
massive
farm
marry
lift
har@@
controls
8.@@
struck
Food
calculation
lasting
Dis@@
victory
coat
charged
understood
mal@@
ecological
courage
confident
spoken
socialist
ites
sheet
measured
losing
mineral
lying
gross
nose
stronger
creative
Man@@
They
ically
valid
trends
chosen
ide
walls
Is
percentage
ownership
Spanish
clothing
fe@@
outer
transformation
hate
flows
terrible
causing
mixed
Financial
Section
collaboration
delivered
unfortunately
conventional
poly@@
hu@@
union
protecting
passengers
ines
honor
formulated
y.@@
AR@@
blow
lets
yield
accuracy
ocean
commission
ale
calm
biological
watched
mom
angle
foods
silence
revenue
Island
taught
falls
runs
iz@@
flexible
ours
prime
work@@
ingly
fallen
reforms
productive
commerce
leg
mountains
opinions
Wall
smart
honest
tall
commodities
humans
enhanced
proud
refused
Science
equivalent
stream
ably
back@@
informal
category
worldwide
legitimate
strike
Rapporteur
gained
preparing
prosperity
reaching
payments
infection
Peter
arbitration
colleagues
equally
hand@@
constitute
disputes
transaction
collect
She
mines
Qu@@
tic@@
Red
deals
depend
tie
AN@@
IV
pool
hang
indigenous
ep@@
concentration
incident
opposition
functional
ink
Park
resulted
experiments
territorial
convenient
sudden
knowing
la@@
arrive
bs
hat
implications
composed
asset
judgment
ational
interface
bottle
ai@@
dad
thick
pulled
ai
everywhere
desk
expanded
surprised
regularly
luck
kitchen
machines
strengthened
surgery
AT@@
monthly
employee
revealed
waves
Mon@@
genetic
hall
displaced
universities
Bill
begins
mer@@
afford
messages
keeps
entity
Vice
organize
plus
radiation
hell
On
tested
shoulder
Smith
convinced
California
picked
puts
wake
og@@
sport
pursue
discharge
ure
aims
Miss
sur@@
steady
tradition
association
recommend
mention
aside
Tibetan
ily
organic
ou
mistakes
courts
2,@@
northern
protein
ID
consists
65
decrease
federal
tor
solar
Brazil
fi@@
elderly
destroyed
worker
aging
Tribunal
noticed
vice
ys
railway
Dr
ati@@
77
totally
surely
visual
ra@@
covering
eliminate
encouraging
ach@@
height
personality
Democratic
sessions
od@@
applicant
Am@@
measuring
expectations
legs
verification
ER
tight
iness
regret
saved
permit
ill@@
collected
attended
enhancing
captain
defence
balanced
exists
burning
argument
interaction
tor@@
magazine
ban
regulatory
lessons
legislative
alized
Im
machinery
scheduled
taxes
fied
representation
Tr@@
switch
ud@@
younger
secretary
brown
Mc@@
breath
ER@@
earnings
Non
Sudan
indicates
ned
serving
Geneva
Haiti
tour
breaking
With
flood
windows
owing
consent
wash
are@@
possibly
ns
route
uh
fore@@
aries
golden
alcohol
contrary
audit
ear
absolutely
camera
Ab@@
tobacco
Mo@@
clock
roll
description
enjoyed
fiscal
ho@@
1998
wet
ering
AND
invention
52
religion
Inter@@
ears
Ne@@
sw@@
winning
cease
tells
evolution
corruption
tiny
oral
mood
analyze
ky
mankind
photo
starts
participating
spare
laser
600
derived
talent
bonds
succeed
ze
powder
biennium
pi@@
grant
Hu@@
intergovernmental
Ms
acute
internet
He@@
ff
completion
Cor@@
contributed
racial
returns
committees
planet
eggs
College
UNHCR
shadow
Wan
rely
alism
managing
refers
Greek
summary
Spain
urged
penalty
ao
boost
drew
intention
define
pu@@
pipe
Paul
IS@@
zones
priorities
ase
hardware
Kingdom
guests
worried
enormous
reflects
Zhang
examined
approximately
yours
colour
Christ
automatically
gains
25@@
attractive
discipline
generated
cheap
degrees
54
invest
controlling
obligation
categories
ot
emotional
den@@
atic
53
coverage
branches
samples
bond
fiber
Ro@@
format
meter
wheel
tension
retail
exploration
secretariat
detention
citizen
stores
sal@@
qualified
extreme
welcomes
tender
magnetic
fying
7.@@
reputation
shareholders
AIDS
pursuant
specifically
arranged
coordinate
assigned
ung
strictly
HK
namely
programming
helpful
zed
Par@@
burn
makers
ised
Water
ize
IT@@
&apos;i
apple
observation
cream
covers
entering
promised
acceptance
imports
ess
candidate
hydro@@
fo@@
publication
ving
register
vulnerable
forming
witness
lawyer
philosophy
presentation
involves
camp
dy
explanation
mor@@
narrow
conferences
Planning
shock
war@@
earn
eastern
adjust
formula
primarily
print
Environment
Sha@@
56
definitely
statistical
column
handed
habit
paragraphs
ously
warned
lu@@
directors
breakfast
wire
eng@@
rational
pri@@
~
assess
tone
ass@@
swimming
productivity
declaration
sending
AL@@
chicken
settled
Police
certificates
lucky
suppose
destroy
est@@
aff@@
involve
cloud
alia
Customs
installation
email
Him
discusses
ped
occasion
minorities
cleaning
squ@@
mortgage
criticism
circle
boundary
reserves
cable
disabled
cha@@
deployment
wing
Jerusalem
lake
breast
arrested
12@@
thermal
zero
adult
recalling
domain
describes
replaced
bro@@
sees
Meeting
acquisition
unity
illness
ell@@
smell
17@@
fans
Policy
tube
Community
tissue
Somalia
monetary
answers
plenty
blame
exception
ak
EN@@
ely
finds
Gr@@
Territories
historic
sustained
SC@@
trained
capabilities
virtual
expanding
adults
calculated
proceedings
attempts
J
favour
accused
survival
participated
substance
everyday
cuts
pilot
mix
58
comfort
HK@@
documentation
stages
head@@
symbol
allowing
ently
assume
ming
hi
gathered
visiting
servant
shirt
moves
density
award
prospects
Power
claimed
Chen
66
pages
ES
subsequent
arts
alize
ening
channels
Me@@
string
laugh
Global
sha@@
laboratory
hidden
vessels
hence
des@@
post@@
brothers
hide
singing
hol@@
Italian
ened
invitation
tics
AC@@
furniture
seed
thereof
400
ey
Ltd
occurs
Lebanon
sin
architecture
portion
beside
servants
refuse
Project
gene
exam
exploitation
coordinated
heavily
transactions
ass
directed
recession
Chapter
fairly
1999
pen@@
roof
favor
compare
28@@
sleeping
lending
Standing
apartment
Un@@
Life
vegetables
ane
noting
separation
oo@@
transferred
contributing
tis
ths
hill
Application
involvement
sed
disasters
victim
provisional
imported
fewer
Air
precious
behaviour
Treasury
Joint
abilities
ion
tw@@
sk@@
PC
psychological
donor
signing
killing
tur@@
native
ma@@
summit
tons
ING
linear
ex
permission
}
CH@@
exposure
peak
Lee
down@@
fix
seats
pa@@
Festival
forecast
Per@@
funded
ick
demonstrated
organizational
static
affecting
innovative
receipt
harder
ning
restrictions
intervention
anyway
spite
tors
coast
preliminary
button
{
unknown
expertise
Study
fails
thereby
passage
30@@
voltage
cried
preventing
Kowloon
parent
rolling
Islamic
communicate
commonly
economics
atory
hearts
fin@@
uniform
comply
optical
graduate
formulation
artificial
acceptable
Protocol
San
Parties
nearby
tickets
ats
pump
stipulated
57
0.@@
fortune
landscape
periods
Google
paint
somewhere
complaints
transparency
contacts
procurement
wished
Caribbean
Prime
typically
85
mer
headed
&apos;clock
attract
liked
Macao
Industry
shouldn
civilization
coach
mainland
Queen
dressed
ear@@
constructive
reconciliation
absolute
symptoms
cul@@
20@@
ges
solving
generate
logic
silent
custom
harmony
inc@@
honour
Legislative
auto
secondly
ser@@
A.
gen@@
15@@
unlike
Cuba
basically
ber
somewhat
Her@@
revolution
izing
profound
Microsoft
tongue
WTO
pounds
yl@@
exhibition
beer
3,@@
cotton
SA@@
ered
ne
shaped
films
demonstrate
declined
necessarily
violent
Prince
sized
ee
movements
occupation
widespread
hoping
shipment
ial
judges
humanity
Justice
resolved
damaged
elsewhere
lips
settle
wheat
Population
default
beneficial
gar@@
e.
chemicals
visits
iting
Members
manufacture
unusual
ger
threats
para
installed
presidential
copies
performing
suggestion
mouse
loves
filter
preventive
rough
Henry
Liu
devoted
strain
governance
64
concepts
crops
configuration
arrival
geographical
Greece
Regional
closing
locked
passenger
EC@@
Act
Indonesia
95
vacation
beings
dealt
Martin
injured
realization
carrier
fluid
encourages
precision
Sun
childhood
Har@@
allocation
Children
1,000
pocket
So
threw
score
Zealand
tech
Eastern
diversity
speaker
modified
parallel
stayed
lion
obstacles
firmly
mad
Ac@@
72
migration
hor@@
cooperative
fears
darkness
liver
forum
00@@
restore
cloth
colors
egg
Br@@
dependent
nowadays
promoted
naturally
governing
amp
vessel
accidents
anniversary
repeated
discount
tion@@
expenditures
sm@@
analyses
anywhere
ography
ath@@
arrange
territories
harmonious
depression
valve
photos
ads
flexibility
roots
interference
guilty
sun@@
restructuring
minor
seconds
applies
enti@@
ff@@
impose
leaf
innocent
clouds
acquired
Lu@@
impression
Min@@
confirm
panel
James
remarkable
hy@@
61
bn
Vienna
roles
fired
songs
theories
trafficking
68
solved
Thailand
assistant
donors
1,@@
maritime
dies
beach
signals
essence
Training
mothers
admit
printed
cake
considers
shipping
16@@
publications
Time
Or@@
profile
copyright
modernization
necessity
onal
entrance
campus
59
fication
w
emphasized
residential
cargo
med
Limited
recall
14@@
availability
destination
off@@
resume
09
Tokyo
Labour
hath
variable
instructions
ets
lam@@
Go@@
tail
fingers
wider
exact
compound
accompanied
belt
operators
Col@@
ca@@
plain
bri@@
excess
ta
un
choices
Building
bur@@
excessive
wi@@
restricted
addressing
withdrawal
admitted
ultimate
designing
mirror
funny
mu@@
aw@@
missile
sa@@
terrorist
ain@@
oxygen
Brown
fate
cultures
Angola
classification
pot
crazy
shell
belong
istic
cat@@
reliability
Second
ture
visible
OR@@
Cultural
ray
praise
magic
lovely
badly
produces
routine
Decade
pal@@
illicit
ders
tin
maker
char@@
63
73
kid
newspapers
finger
survive
resident
facility
wages
contemporary
ultimately
loving
rel@@
spiritual
exciting
sole
conclude
apparently
consciousness
depending
intelligent
optimization
tank
Ge@@
ther@@
oring
rid
Croatia
highway
sion
urge
injection
continent
pers
conducting
ip@@
safeguard
sheep
surrounding
regardless
authors
vocational
prohibited
pride
sections
star@@
tape
regards
founded
exposed
entities
invite
Code
nationality
deposits
chronic
nervous
imprisonment
ile
Don
superior
kiss
Rec@@
sequence
08
perfectly
habits
ae
Ap@@
belongs
Exchange
arising
iti@@
05
systematic
topics
Let
ba
Army
em
d.@@
phones
sword
satisfy
stamp
convention
AS@@
thr@@
my@@
ose
1989
collapse
athletes
Australian
copper
substances
coastal
Rules
stuck
ited
kers
stroke
continuously
Three
Robert
towns
Energy
62
stones
forests
ved
zing
Analysis
movies
operator
partly
split
basketball
stem
pan@@
dying
voting
doors
dignity
eness
hum@@
Permanent
tendency
beam
Space
excited
autumn
heating
integral
utility
rejected
actor
AC
meters
pen
cooking
twelve
hasn
improvements
populations
pleasant
cy@@
burst
bags
initiated
employers
circulation
operative
bills
executives
Society
emissions
sake
allocated
classroom
missed
ging
minds
chest
negotiation
intense
disposal
discover
Design
lawyers
lin@@
700
gifts
generations
Safety
guest
Support
grounds
fy
originally
67
Lo@@
anybody
civilians
satisfactory
ular
pose
eg@@
arrest
ses
genuine
Ma
numerical
soldier
stomach
Sch@@
murder
similarly
prospect
exercises
stupid
UNPROFOR
hyper@@
Sal@@
underground
yard
globalization
ra
flag
ana
ric@@
ret@@
tourist
Commerce
municipalities
chances
frequent
prisoners
Mi@@
exceed
propose
lowest
Environmental
chart
Ireland
gre@@
rubber
god
intensity
ail
dish
artist
ell
stored
val@@
01
checking
dimensional
gear
cure
commit
cope
pushed
fer@@
couples
ha
Bi@@
earned
sions
permitted
rush
dancing
tip
urges
tries
recommends
fan
tered
Green
gro@@
knife
Housing
attracted
lands
Review
cook
indicators
vibration
speakers
76
parameter
apparent
sentenced
announcement
Why
ue
ham@@
sil@@
ash@@
logical
Pe@@
briefly
truck
affects
EL@@
errors
desert
intensive
Criminal
IN
acy
oning
la
Of
relatives
update
cant
ene
residence
For@@
licence
dumping
que
holy
tourists
repeat
binding
ny
jumped
2010
book@@
71
applicants
Turkey
bul@@
grateful
che@@
Dynasty
Headquarters
acc@@
proceed
happening
RO@@
discovery
serves
connect
replacement
bike
ann@@
rocks
economists
74
At
checked
pur@@
mid@@
Sir
forgotten
micro
zhou
loud
Mor@@
chose
Jane
corn
holder
ack
Land
induced
dedicated
Mrs
designs
fur@@
Forum
Carrie
sy
preceding
feedback
tical
equation
divorce
submission
Area
municipal
entertainment
super
constitutes
functioning
EM@@
ox@@
ninth
premises
den
threatened
hal@@
DC
ali@@
crop
aggression
im
water@@
passion
onic
Clinton
ya
hello
optimal
800
harmful
tes
shoot
tower
Burundi
hospitals
loose
vertical
employer
rarely
buried
guns
seal
reflection
returning
array
prize
crack
signature
relate
Georgia
chemistry
commissions
Ambassador
CO@@
meets
tied
hel@@
wanna
subsequently
guided
hungry
muscle
cal@@
realistic
relax
Organisation
locations
exclusive
oneself
Jim
preserve
separately
freely
osis
ruling
refugee
tips
manufacturers
handled
hom@@
Sichuan
composite
5,000
preparations
determining
removal
Bur@@
M.
secrets
cap
feeding
kin
usage
Love
dle
fruits
ast
packing
ine@@
metres
Long
Officer
pursuit
sixth
shore
treating
chocolate
Disarmament
ol
asleep
drinks
punished
remembered
ens@@
99
curve
consequently
provincial
qualities
chip
eighth
directions
ist@@
steam
06
emerged
container
argue
ju@@
equipped
taxi
drove
ency
Supreme
au
amazing
Cal@@
TH@@
auction
HIV
treaties
tin@@
Iranian
creates
tables
adds
ari@@
honey
tolerance
celebrate
crystal
Soviet
suppliers
reverse
but@@
Reserve
characterized
pressing
IS
expense
luxury
Chicago
adapt
shops
hurry
wound
log
heritage
dirty
ow@@
touched
tennis
surplus
pat@@
ier
alarm
Ru@@
emb@@
schemes
producers
ards
reward
wor@@
societies
remind
feasibility
Finance
ls
As@@
electoral
rer
seized
semi
remarks
possess
silk
So@@
Professor
dare
fac@@
Legal
recognizing
preferred
William
03
pol@@
analyzing
leather
bacteria
sensor
instruction
Roman
clearance
Joe
ware
dimension
you@@
incidents
grand
wings
form@@
seeds
ous@@
homework
lonely
ven@@
margin
Cup
07
stake
150
separated
washing
corporation
focusing
eless
mi@@
unified
validity
uncle
advisory
enemies
Christian
trademark
dem@@
crude
departure
mature
Part
complexity
da
unlikely
matrix
Measures
acquire
4,@@
tropical
households
relates
fathers
Fe@@
Sustainable
lat@@
keys
gather
Mike
correlation
competence
deployed
sted
readers
GDP
worthy
assessed
sol@@
universe
bas@@
analyzes
constitutional
Prevention
Yang
filed
observations
extraordinary
acted
waited
ination
Bri@@
enthusiasm
ick@@
Offr
ce
ances
retirement
carries
Who
ong@@
wage
fed
broader
conformity
villages
88
amid
sen@@
Jones
ising
ore@@
crew
lists
voters
glory
glasses
Res@@
suspect
denied
ord@@
constraints
beneath
ah@@
holes
mere
romantic
rats
pop
tro@@
Ma@@
ish@@
immune
ft
win@@
69
han@@
suspended
farmer
brush
&gt;
logistics
spectrum
nursing
shooting
top@@
investigations
sincere
temple
Two
02
eli@@
Ti@@
Father
angel
78
pul@@
ple
whereas
ids
C.
ums
memories
Tai
dramatic
ished
shortly
representing
Shenzhen
sponsors
hung
exit
posed
drivers
98
ide@@
ov@@
Covenant
accelerate
initially
politicians
arise
reproductive
13@@
Richard
ur
clo@@
gs
lamp
holidays
viewed
invested
ory
Construction
ban@@
bil@@
Pl@@
Charles
ere
ow
bor@@
rivers
workshop
elling
eng
mate
imagination
juice
land@@
advised
Quality
instant
defend
Well
formulate
Man
ides
possession
blocks
treasure
pregnant
dozen
ing.@@
sive
anymore
Can
investor
IC
adjusted
hero
Ministers
moments
aviation
Deputy
random
County
toxic
After
Dr@@
purchasing
deaths
gentle
Guangdong
graduates
ged
Im@@
upset
uncertainty
asks
cement
mil@@
anc@@
hanging
Moscow
29@@
AD@@
96
underlying
reveal
League
ministers
transform
Mer@@
simultaneously
bomb
firstly
sacrifice
Morgan
disk
distinct
foreigners
filling
forgot
equitable
ath
concert
lit@@
stepped
concentrate
emotions
deficit
Yes
rac@@
Data
shelter
artistic
IAEA
Hu
rolled
ess@@
Jordan
abandoned
hydraulic
adverse
mortality
telecommunications
Ming
displayed
sec@@
lifted
transparent
vary
shake
accomplished
allowance
troop
crash
subsidiary
detect
kick
conscious
elimination
supplier
ach
79
inventory
fever
compete
ities
flu
grows
Station
dri@@
ans@@
Ukraine
Fifth
86
mice
lim@@
failing
pe
partial
ham
inevitable
10.@@
organisations
pres@@
Good
abide
bitter
electro@@
feasible
shortage
install
processed
quit
pile
trace
prof@@
wore
ED
Fi@@
tens
92
influenced
drought
organizing
cas@@
imp@@
soup
districts
abstract
tremendous
defeat
bones
transit
epidemic
climb
conversion
searching
particles
duration
restaurants
flesh
observer
suspension
Home
staying
Communist
horses
sti@@
ment@@
professionals
precise
rep@@
com
dates
fies
swim
museum
manual
qualifications
undertaking
desired
borne
dev@@
surveillance
emphasize
thoroughly
mixture
painful
lend
loading
jet
correctly
assumed
Bu@@
suspected
Political
reporters
debts
bo
hem@@
socio
approve
factories
Cambodia
she@@
lifetime
Wu
fulfil
school@@
complaint
ta@@
opposed
oned
B.
pension
seventh
AP@@
orientation
momentum
kin@@
Mal@@
PR@@
Fed
odd
ays
terminal
distant
chamber
injuries
Bay
inv@@
ey@@
Form
Academy
Times
advise
nerve
by@@
Rome
strive
slip
q@@
guaranteed
fulfill
Model
Moses
reviews
Nor@@
Apple
gray
classical
boards
bet
ladies
94
04
wireless
sovereign
alleged
Jean
The@@
ek
dual
extraction
brilliant
Medical
tly
Po@@
Jo@@
gathering
essentially
internationally
buyers
exp@@
borders
fabric
ome
recording
News
ON@@
Pol@@
Argentina
SO@@
affair
demonstration
81
drag
L.@@
Northern
parking
updated
pursued
ind@@
curriculum
recover
ji@@
CD
bell
existed
unprecedented
ious
worn
93
journalists
dissemination
mathematical
module
und@@
Dec@@
festival
Shi@@
responses
Elizabeth
jo@@
constructed
att@@
limitation
colleges
pack
robot
CS@@
download
backed
forgive
compulsory
centers
diverse
valley
behold
classic
Based
gratitude
Other
Corporation
ka
intend
Islands
RMB
engagement
La@@
By
Panel
deemed
graphic
velocity
declare
actors
wherever
brave
endorsed
Any
navigation
ake
Hongkong
aggressive
ac
bling
ented
repeatedly
fool
sharply
centuries
tim@@
youre
TO
frozen
pray
deserve
flew
91
pale
synthesis
ole
talents
ei@@
Bl@@
del@@
pushing
girlfriend
radi@@
occupational
adopting
weakness
preservation
900
D.
listened
accomplish
nutrition
dic@@
interior
subregional
outlook
engineer
assignment
fuzzy
82
Fourth
des
Foundation
Network
traveling
that@@
VI
syn@@
layout
bars
compromise
bath
dered
hire
Contract
Gaza
babies
profession
oma
Palestine
AM@@
broadcast
cer@@
occasions
1988
walks
genes
AT
tunnel
Liberia
fracture
literary
autonomy
methodology
specify
welding
protective
ack@@
mm
warming
boxes
Ben@@
crying
eager
seminars
Pi@@
Resources
hunger
winner
deeper
tends
IL@@
folk
83
wooden
guarantees
Manager
evident
reservoir
our@@
Tri@@
Atlantic
flame
ements
somehow
Ver@@
Governing
battery
speaks
thorough
awarded
cooling
any@@
Family
alist
alizing
assisted
withdraw
bel@@
countryside
Are
na
soci@@
sor@@
executed
ures
potentially
87
borrow
tide
promptly
expresses
budgetary
loaded
WHO
respected
reservation
ton@@
capture
cigarette
hadn
Cha@@
interim
decreased
mandates
singer
Black
personally
emotion
cher
afterwards
predict
editor
combine
bears
resistant
liable
ports
menu
ame
kingdom
possibilities
quietly
Gen@@
collecting
consequence
spots
anxiety
introducing
concentrated
periodic
equ@@
meaningful
virtue
eligible
suicide
sn@@
Engineering
Trans@@
tumor
focuses
holders
corporations
SA
keen
promulgated
verify
Joseph
hedge
packed
CE@@
peacekeeping
appeals
Registration
Daniel
pet
operated
pricing
diamond
delayed
passes
assure
IP
prince
grid
Hall
acknowledged
amp@@
tional
craft
por@@
settlements
favorable
11.@@
pos@@
wounded
seminar
ices
ulation
packaging
Third
explains
barriers
responded
flights
Technical
advances
salaries
outs
1990s
cap@@
mut@@
bow
counter@@
choosing
manufacturer
eling
tracking
Republican
Switzerland
DNA
considerations
Vietnam
thread
Nuclear
Canadian
vers
Hotel
plenary
USA
molecular
din@@
knee
dose
laughter
ir
explosion
dictionary
publicity
subsidies
advancement
12.@@
resort
ries
Museum
unexpected
Library
Cl@@
artists
UR@@
consult
ino
convenience
didnt
sting
willingness
mud
checks
foster
graph
integrate
grace
drunk
preparatory
thrown
targeted
ignore
calculate
isolated
enjoying
rises
i.e.
islands
Ber@@
writers
Sam@@
ills
ID@@
disappeared
shoe
harvest
protocol
We@@
gently
200@@
ward
ades
mutually
Master
day@@
favourable
Lake
ium
virtually
fiftieth
influences
ET@@
Under
ians
Self
coordinates
reporter
quarters
modeling
tear
seller
damages
qualification
il
mill
physics
thats
Sweden
risen
tooth
finite
AS
Work
enabling
nurse
ef@@
fu@@
tering
diplomacy
eaten
budgets
construct
prominent
delicate
play@@
Lehman
comm@@
medal
int@@
Si@@
boom
psychology
bus@@
pregnancy
pay@@
dimensions
there@@
night@@
Mother
Cross
Military
discussing
sentences
hired
ishing
skilled
hydrogen
expressions
united
pending
UNFPA
5,@@
ws
independently
Whoever
Southern
stresses
variation
rail
IP@@
84
coordinating
bite
UNCTAD
bio@@
recruitment
bidding
capacities
Assistance
PL@@
audio
rev@@
steadily
daughters
orange
89
advertisement
oid
dly
princess
dawn
Guangzhou
tragedy
pity
fought
gy
norms
enabled
slight
computing
votes
burned
assessments
contr@@
lung
retain
gravity
euro
tation
Sha
shoulders
dishes
resumed
shed
yl
coating
retired
brands
woods
Tang
patience
weren
stranger
accurately
prompt
encountered
incorporated
constitution
moderate
At@@
lifting
producer
absorption
Han
breathing
.It
joke
restoration
arguments
lighting
Please
sensitivity
consistently
ace
offence
120
deputy
supplied
floating
snow@@
comp@@
associations
developers
bankruptcy
mol@@
transmitted
fil@@
HA
10,000
Ste@@
modest
comparative
Assistant
crowded
combining
Netherlands
arm@@
def@@
2,000
attach
ok@@
mile
Ocean
horizontal
Airport
.A
rope
flu@@
casting
royal
piano
roughly
bled
entrusted
gentleman
ute
Wen
gotta
breaks
PO@@
Be
dering
painted
ave
rank
vacuum
Now
throat
conducive
severely
fun@@
solidarity
connections
Muslim
masses
immigration
scholars
detected
annually
assured
engineers
sto@@
Tax
summarized
specially
sorrow
one@@
ables
requiring
critics
ce@@
eg
bedroom
ble@@
carriage
stamps
fre@@
promising
rap@@
rival
Hospital
smiled
ugly
generous
inf@@
alloy
defects
precisely
gran@@
ney
shan
Pre@@
fa@@
opens
renewed
inspired
cluster
rem@@
recalled
torture
scientist
Child
Inter
lecture
notify
ils
controller
PS
develops
arch@@
expects
Use
Journal
designer
admission
prosecution
tre@@
lawful
Du@@
rows
Gar@@
wealthy
Ba@@
attacked
No.@@
Transport
s.
sth
conventions
diabetes
PA
wed
lease
ama
Malaysia
bases
kindness
analysed
Vi@@
assisting
reflecting
meals
abundant
Ger@@
terror
gri@@
Mag@@
surveys
Sub@@
FAO
fraud
Industrial
landing
km
priest
divide
crossed
freight
Cap@@
efficiently
succeeded
Pr@@
pm
Yuan
Award
vegetable
Coordination
radar
reserved
matching
generating
infected
fr@@
plan@@
Kuwait
calendar
petroleum
winds
ire
volunteers
with@@
ethics
affection
handsome
ises
resist
bowl
enables
eth
Survey
icity
fatigue
Senate
spell
letting
poetry
dominant
economist
purchased
qui@@
competitiveness
rat
pulse
attitudes
privacy
hai
inquiry
bubble
Insurance
sel@@
contest
Capital
97
inclusion
enc@@
knock
identifying
stretch
cont@@
ther
smiling
Swiss
e.g.
red@@
impacts
Mac@@
IM@@
shook
Thomas
ups
promises
€
investing
2nd
Works
zz@@
segment
leisure
automobile
bulk
pursuing
Not
clever
fold
grey
Z
governor
publishing
don@@
indispensable
SS
Norway
shame
consolidation
ranging
membrane
sisters
joining
minded
crossing
offset
expecting
inadequate
reader
outlined
stri@@
acknowledge
boring
Investment
degradation
visa
temperatures
pig
ences
cheaper
quantitative
unnecessary
nights
appoint
ON
jacket
seldom
traditionally
distinction
Club
RA@@
bicycle
DVD
.com
meantime
Products
tures
capita
efficacy
Los
analytical
complain
pressed
sponsored
ceiling
,@@
ster@@
creativity
seismic
fusion
workshops
mess
Rio
spatial
ple@@
p.m.
unhappy
pays
Town
From
CC@@
Ji@@
itation
GM
disorder
bal@@
hon@@
sophisticated
cheese
wars
real@@
steal
LO@@
threshold
ingredients
MO@@
shaft
negotiating
ministry
circular
phrase
sincerely
appraisal
expressing
Five
grasp
bly
El
lover
tar@@
law@@
Austria
amendment
china
syndrome
cattle
US@@
spirits
anticipated
Gulf
sheets
subjected
prediction
Lands
Our
lab
revenues
accepting
label
trick
chi@@
notification
witnesses
mathematics
tan@@
elegant
Program
fined
cro@@
ty@@
journal
attempted
stolen
hunting
7,@@
sul@@
strip
Then
drama
spreading
om
musical
charity
imaging
These
slept
Fu@@
NGOs
confirmation
EC
Operations
accountability
hotels
cultivation
Sr
ethical
pressures
nonlinear
beef
issuing
bent
analyst
pink
yp@@
ED@@
loc@@
clerk
barrel
Open
differential
posted
tot@@
Goldman
phenomena
Wal@@
Sol@@
buyer
Team
ail@@
portfolio
decisive
migrant
anxious
breeding
Des@@
accommodation
wives
valued
ram@@
mit@@
Stanley
Susan
blessed
insufficient
sooner
boats
plug
pin@@
ella
installations
Territory
listing
neuro@@
scared
hoc
captured
AN
mic@@
person@@
authorization
Letter
Tur@@
v.
legally
poses
loop
clay
drops
Standard
reception
accounted
considerably
surgical
infant
SP@@
tensions
surrounded
men@@
ica
AP
happily
pillar
noble
wolf
rocket
Is@@
fierce
Bob
proposes
Johnson
ces
Afghan
yn@@
Preparatory
enhancement
dro@@
Al
illegally
aps
argued
premium
Certificate
delays
Implementation
midnight
cancel
CO
intr@@
ruled
dull
delicious
camps
Crime
hills
upgrade
Countries
1st
py
ographic
Steve
hear@@
fire@@
new@@
reservations
rental
attending
Strategy
slope
alike
perceived
economically
colored
Basic
occasionally
ao@@
quarantine
motivation
timing
Do@@
ranks
unions
ax
Ob@@
shower
emission
Pri@@
outline
supplementary
pharmaceutical
ger@@
Philippines
Market
Art
amendments
flowing
pan
modification
lig@@
predicted
sunshine
apping
educated
classified
CC
ure@@
oul@@
riding
elled
conviction
traders
Me
black@@
screw
likewise
TA@@
toys
med@@
Old
1980
associate
CT
appreciated
Xinjiang
obtaining
struggling
conscience
officially
taxation
challenging
barely
Order
Its
aking
fled
invites
Wil@@
deformation
OAU
displacement
kilometres
statutory
IMF
ignored
Provisions
notion
til@@
ug@@
LE@@
lit
MI@@
Gi@@
magnitude
conservative
bing
witnessed
hygiene
creatures
fax
styles
pit@@
Nigeria
publicly
Val@@
Frank
Subcommittee
foot@@
traditions
Spring
contingent
Poland
temporarily
ros@@
blade
objection
deny
bol@@
incentives
aesthetic
Turkish
lab@@
dy@@
allegations
knocked
Bosnian
deliberations
aluminum
ound
boyfriend
Mu@@
ater
vo@@
creature
inhabitants
No@@
bold
Scientific
transfers
spl@@
passport
threatening
isolation
specifications
washed
eth@@
safely
Securities
aming
dioxide
differ
lord
snake
ate@@
Angeles
muscles
earliest
extending
impressive
devil
proven
insisted
plates
neighbouring
ris@@
certification
IR@@
PC@@
port@@
rear
correction
revision
protest
---@@
Hy@@
pro
desirable
striking
conc@@
receives
ude
tackle
fragile
revolutionary
layers
performances
SH@@
globe
focal
barrier
counsel
spec@@
uring
6,@@
endless
IF@@
poll
ancy
racism
postal
Je@@
quantities
1987
recovered
elect
liquidity
ford
toll
substantially
indication
congress
calcium
substitute
kes
bre@@
Ri@@
bles
ners
approached
sells
wondered
Parliament
owns
custody
nit@@
extract
Myanmar
reaches
deadline
Will
ush@@
Have
mobilization
encounter
freedoms
researches
guiding
stimulus
limitations
perception
hur@@
restored
incurred
sis
time@@
trigger
ax@@
surprising
drilling
competitors
noon
grandfather
pec@@
settings
pin
Windows
reinforced
assurance
ori@@
geological
sphere
Trust
Royal
Yu
mystery
employ
dynamics
persistent
tent
distinguished
congresses
avoided
paintings
negotiate
junior
planted
disappointed
awards
queen
insist
mighty
versions
fulness
EN
emergencies
Er@@
prisoner
circles
voted
MS
soccer
counties
ep
tations
pitch
ok
champion
laughing
Humanitarian
impressed
Corp.
altogether
destiny
conception
lar@@
Po
Export
Sam
She@@
oh
particle
Because
trials
humor
palace
Premier
shi@@
ard@@
Method
boundaries
Texas
a.@@
UNITA
extr@@
accessible
bride
sorts
Mil@@
basin
thief
Hol@@
graduation
sho@@
slide
defendant
IG@@
fake
Inc
ES@@
midst
UL@@
cruel
neighbor
consolidated
matches
identical
troubled
Autonomous
sunlight
inate
neighbors
imperative
neighbours
reduces
dam
ishes
ential
liberty
ams
Em@@
CPC
exercising
Agriculture
monopoly
Kim
ran@@
mild
occurrence
ese
ashes
Pearl
Tin
poet
criminals
ship@@
seeks
pole
basket
alter
scores
Card
conf@@
pped
relay
therapeutic
lip
responding
Staff
vitamin
mounted
council
Drug
weekly
t.@@
sing@@
CEO
beating
rod
regulate
AL
ette
safeguarding
dressing
entrepreneurs
ki
ined
ining
golf
butter
alert
Treatment
demanded
Nature
corrosion
engaging
magazines
variables
pound
thirds
Mark
fancy
respects
trap
examining
prevented
probability
despair
ner@@
mercy
facilitating
intends
Harvard
voices
bare
moisture
gods
closure
constituted
Wong
Professional
essay
tribute
blast
laying
bon@@
uni@@
radical
optimistic
references
width
coefficient
amended
tal@@
contractor
credibility
concerted
laughed
apples
demanding
dar@@
crises
ATION
Principles
elastic
ank@@
removing
farming
shit
13.@@
son@@
tract
Relations
Te@@
Mount
climbing
publish
synthetic
Cur@@
launching
peasants
Ford
accumulation
absorbed
poultry
flo@@
Denmark
Movement
compounds
grandmother
travelling
termination
contractual
Test
eradication
ata
VII
deserves
breathe
them@@
plot
furnace
ket
embargo
infectious
dining
plasma
masters
grades
rushed
metals
span
Ben
drafting
alists
www.@@
fitting
long@@
defect
placing
Marine
Press
ect
proceeds
supervise
bun@@
orbit
creditors
announce
currencies
kilometers
add@@
popularity
belonging
loads
edition
tically
suits
incidence
Church
Dutch
influenza
orderly
atomic
swear
gotten
specification
spr@@
algorithms
isation
organisation
financed
Por@@
det@@
BS
incomes
owed
instances
calculating
enter@@
250
Mat@@
Operation
questioned
repatriation
100@@
Bal@@
PDF
probe
tap
confusion
a.m.
CSCE
themes
Holy
mag@@
mayor
fulfilled
,000
biology
HKSAR
greenhouse
way@@
wondering
rotation
owe
attribute
inch
idi@@
inherent
stricken
lifestyle
1980s
medi@@
hiding
engines
Ros@@
Youth
stops
indicating
abl@@
billions
Valentine
flies
viable
trains
convey
guards
marking
delight
aling
Local
environments
flash
rating
congratulations
capit@@
alistic
quar@@
reactions
Ju@@
shelf
Saudi
deadly
medicines
pot@@
Barack
enquiries
nic@@
addresses
blog
obliged
UNESCO
Property
toy
deb@@
reminded
connecting
14.@@
Administrator
Hel@@
evaluated
acti@@
lacking
excitement
modes
glance
codes
displays
Hollywood
bin
Cyprus
agrees
ro
script
stimulate
tragic
facial
Culture
gang
net@@
respondents
3,000
swing
Cre@@
routes
wrapped
raises
draws
socialism
beliefs
commander
breeze
Pen@@
hood
Hon@@
aunt
radioactive
utmost
warehouse
dried
blank
incentive
torch
wa@@
leg@@
hazardous
villagers
proves
escaped
tile
St.
conjunction
locally
stretched
obstacle
luggage
relaxed
lin
forestry
100,000
sectoral
decent
bother
accord
worship
hostile
maintains
robust
realizing
poem
theatre
Point
11@@
Change
shine
oldest
Big
vaccine
BC
threaten
rings
jury
Welfare
payable
reconsideration
Helen
Dalai
stairs
adjustments
ashed
Yu@@
bi
int
garbage
1985
pledged
thickness
safeguards
conform
consolidate
toilet
Platform
eve
attaches
pit
Observer
mapping
cats
adhere
Commercial
sodium
dramatically
bankers
cognitive
contractors
detained
immigrants
wal@@
convened
show@@
asting
node
bonus
environmentally
macro
ech@@
sweat
cabinet
fifteen
merger
arbitrary
za
diagnostic
instability
ologist
dating
minimize
electron
celebration
grief
cents
inal
sav@@
inevitably
smuggling
definite
inheritance
reg@@
stan@@
administering
Circular
friction
Cu@@
Florida
AB@@
let@@
promotes
tal
pulling
cow
planes
Char@@
wool
Fr@@
transnational
supervisory
shorter
eas@@
resolving
renewal
directory
placement
ye@@
Some
Palestinians
shade
filing
ili@@
progressive
Grand
tale
berg
Fl@@
attributes
tioned
wind@@
therein
ideological
Dad
breach
lows
differently
thrust
Spirit
Cy@@
gates
trac@@
comparing
mas@@
worries
prevailing
vis@@
confused
Judah
sympathy
exceeding
pipeline
Language
doc@@
diversification
Macau
ION
crown
Cr@@
oth
purchases
freeze
verified
accelerated
Portugal
emergence
Pur@@
continuation
brains
uncertain
1986
analyse
McCain
undertakings
cru@@
bathroom
Mongolia
Cairo
igh@@
absorb
mask
secured
prosperous
Little
behaviors
him@@
futures
tiger
consist
abnormal
oting
recognizes
Star
UNOSOM
FOR
approaching
nationwide
bury
mes@@
ron
clearing
Democrats
erosion
climbed
modify
cave
deeds
criterion
ink@@
relevance
powered
scenes
photograph
Pal@@
fat@@
hybrid
sealed
formally
27@@
solely
emerge
irrigation
eliminated
resin
adventure
desperate
rigid
abundance
grants
temper
emperor
maid
ins@@
disabilities
supporters
execute
break@@
undoubtedly
shy
spray
reviewing
founding
absent
campaigns
overwhelming
ural
shield
welcoming
cited
3rd
ign@@
Cheung
spo@@
verse
exceptional
Daily
embrace
fare
distinguish
equations
ambitious
hast
offensive
ti
flat@@
Tony
bit@@
cooked
chat
pping
prayer
reads
opponent
reasonably
slowdown
rain@@
Statistics
congratulate
cleared
hook
app@@
password
query
enjoys
sustain
Guinea
Natural
translated
ric
Branch
exhausted
economical
5th
roller
Medicine
Lin
hot@@
seas
sb
div@@
highlight
planting
charm
alised
dirt
exclusively
mobilize
mount
Au@@
aspirations
varied
neighborhood
envisaged
wil@@
clubs
permits
mul@@
dangers
dig
sewage
lic@@
projected
Serbia
enjoyment
balls
impl@@
stat@@
tier
21st
alities
feared
duck
wicked
adaptive
ski
.1
upward
worlds
gentlemen
bye
naked
employing
ket@@
silly
bridges
buses
Sports
wildlife
supplement
assumption
actress
renewable
Rel@@
uan
brick
pon@@
ut
equilibrium
liber@@
axis
fro@@
Round
invasion
favourite
foolish
Qing
transformed
reveals
50,000
parks
Small
nat@@
mysterious
passive
Str@@
apparatus
finishing
preserved
amed
scenery
Ive
Sarah
bore
combating
fortunately
preference
panic
Ser@@
duc@@
Uganda
nitrogen
Ku@@
roses
examinations
scattered
pupils
complement
surge
drives
flavor
durable
Valley
illa
diameter
adequately
liabilities
quoted
continually
Chung
improves
geographic
presidency
AD
Room
terrorists
broadcasting
hosted
indirect
honesty
optimum
SD
aying
ement@@
wastes
edly
tracks
heated
Mozambique
nationals
selecting
enters
drying
16.@@
Tong
founder
8,@@
Computer
expectation
referring
tariff
interviews
opera
neutral
counting
UNDCP
shaking
stro@@
pigs
judgement
math
reliance
accumulated
ains
initi@@
genius
faults
Systems
institute
depressed
Inspection
lean
accommodate
gener@@
pie
smoothly
reinforce
justified
110
designers
indicator
admire
colonial
wishing
mates
volunteer
positively
networking
disability
subprogramme
Arts
fitness
vain
generator
licensing
breakdown
landed
partially
Bel@@
textile
doubts
jail
vel@@
ained
grammar
gged
neural
retained
consulting
batch
backward
containers
entr@@
ions
borrowing
Persons
remuneration
wholly
stu@@
interfere
inspiration
Field
gay
dol@@
abandon
halt
estimation
pledge
ared
sters
harsh
chaos
baseball
scr@@
electronics
curious
condemned
sink
wanting
infrared
atics
clause
mediation
To@@
demonstrates
translate
comprises
purple
vocabulary
photographs
sanitation
persuade
preferential
races
ading
P.@@
poured
Just
lightning
aining
ounding
Senator
caring
Chang@@
ison
speculation
deck
tune
clinic
Task
dozens
ailing
highlighted
beaten
physically
defining
elaborate
compression
exploring
offences
reaffirmed
recipient
dom
eternal
deputies
ony
sman
catalyst
bamboo
spe@@
intent
nest
cli@@
ied
eller
sible
San@@
cord
violated
Regulation
touching
sensing
avoiding
dominated
apartheid
maturity
troubles
Main
assign
converted
urgently
eliminating
colleague
picking
Ham@@
lovers
Go
Mac
surfaces
appetite
embedded
zes
wn
Athens
Discrimination
fertility
4th
elec@@
spaces
Out@@
utilized
NATO
ano
Yi
disappear
Acc@@
microwave
varieties
Qi@@
shots
Mediterranean
utilize
internally
disclosure
A.@@
enforce
Pat@@
Sp@@
unfair
NO@@
satellites
oun@@
PRC
oxide
obey
render
baggage
kindly
nuts
readily
Ram@@
vector
van
dam@@
Enterprise
home@@
forecasts
compensate
thro@@
burnt
investigating
Bible
rendered
Tu@@
Benjamin
intensify
cylinder
dependence
aked
shining
rest@@
nail
encouragement
compact
ga@@
shocked
faithful
invented
enclosed
berry
spin
funeral
storms
arose
Jackson
diagram
pointing
hatred
Jiang
outbreak
drank
auto@@
grab
servicing
mandatory
nearest
atives
ap
liaison
drainage
hair@@
ghost
amine
succession
writes
coupled
Mic@@
Fin@@
vigorous
Sino
ress
bunch
Xinhua
deterioration
farms
bes
explored
Gre@@
adi@@
attain
Id
useless
transitional
throwing
quake
meteorological
drill
outdoor
flour
blew
sail
castle
Kenya
seize
sauce
supper
sentiment
dness
minerals
costly
evolved
it.@@
enacted
Studies
consume
&apos;the
arriving
Lu
Chamber
fastest
scenario
Jacob
hypo@@
jiang
lens
knees
varying
1978
politically
recurrent
monkey
aves
lately
explosive
Serb
huh
alleviate
sacred
ich
Port
emphasizes
Ping
delighted
charming
dragon
iled
UNAMIR
needle
administered
nowhere
Wei
Uruguay
elementary
ometer
novels
Ko@@
determines
od
ful@@
les@@
tactics
Election
hazard
fications
gases
tle
Hor@@
mainstream
deficiency
ys@@
met@@
TR@@
thanked
manufactured
excluding
blocked
ed.@@
realities
countermeasures
initiate
casual
inspections
organised
missiles
multinational
slipped
Weapons
Ter@@
testimony
exchanged
presently
forbidden
ologic
Emperor
ji
policeman
trips
specialist
thirdly
inspect
ranking
worm
gradual
frontier
Kar@@
altered
mus@@
beds
dismissed
Hill
adjusting
punish
intermediate
hop@@
phases
combustion
aiming
distress
Cap
reaffirms
Sur@@
Super@@
soap
1.5
hes
forthcoming
banned
vol@@
rated
confrontation
consultants
CR@@
failures
TS
interactive
ity@@
Offices
unemployed
rers
mel@@
Wh@@
oversight
cultivated
elder
Reform
eh
remedy
consultant
C.@@
motivated
attempting
fox
Can@@
My@@
profitable
diesel
carpet
sixty
titles
consisting
cigarettes
desertification
Enterprises
offshore
reportedly
websites
lazy
Finland
boo@@
ump
certified
doesnt
Ke@@
workplace
ze@@
ET
compatible
dat@@
1.
strikes
relieve
constructing
conditioning
hat@@
dairy
ager
ith
1984
parliament
ately
Electronic
talented
straw
incredible
Ni@@
psych@@
hunt
packages
provider
insects
genocide
demographic
B.@@
Tower
prejudice
gaining
residual
governed
fires
controversial
Bro@@
lav@@
reiterated
foundations
turmoil
read@@
&apos;it
Ed@@
hosts
Sydney
fucking
XX@@
subway
Francisco
iss@@
Assessment
Mars
Son
Square
Coordinator
cultivate
saith
sen
wheels
AR
Rent
libraries
Theory
Rev@@
OR
managerial
warn
CT@@
catching
rivals
readiness
hometown
peasant
Observatory
popul@@
maps
transmitting
Zhou
ition
Palace
Stephen
MA
maternal
rape
overnight
counted
dial
destructive
rage
beloved
manners
Bas@@
fulfilling
Free
sni@@
attendance
cadres
trunk
Liverpool
umbrella
ambition
Questions
BO@@
electromagnetic
venue
woke
awake
rum@@
tightly
morality
iling
bureau
shapes
theater
vic@@
kidney
liquidation
deciding
Right
gam@@
experiencing
protests
gated
now@@
Uni@@
ball@@
activated
sends
texture
providers
stopping
tom@@
ara
envelope
reject
phot@@
inches
lateral
staffing
Colombia
lane
evaluating
rude
orally
Chinas
slowing
Scotland
gg@@
eye@@
utter
yen
Madrid
class@@
anda
miserable
Tajikistan
ani
pour
casualties
suspend
grav@@
colorful
continental
Bre@@
mos@@
Ag@@
industrialized
Class
j
traded
competing
restriction
drum
consuming
Gates
consumed
Chelsea
cop@@
screening
ort
scandal
structured
restrict
Country
mad@@
Bridge
convert
frightened
nurses
commits
regulators
statute
Serbs
itis
ab
Tourism
hip
supportive
sponsor
1949
measurements
Xiao
fame
sits
collapsed
react
well@@
quest
violate
stir
ome@@
Somali
Bangladesh
scal@@
Anti
icated
.He
sampling
Sa@@
cleansing
2.
Mel@@
olds
collar
columns
dense
ases
obesity
specialists
fier
ez
bottles
ratification
adjacent
undermine
lessly
Mao
swept
0,000
consultative
damn
attraction
neg@@
yi
assessing
confined
magnificent
mur@@
cou@@
allies
Jews
consecutive
105
instantly
pled
bull
heal
winners
monitored
pants
valuation
longest
mechanics
DP
stainless
inferior
Head
trades
Sil@@
tru@@
loyal
Commonwealth
league
year@@
Book
circumstance
ayed
centr@@
airline
Republicans
formulating
Alan
plat@@
bullet
candy
ba@@
medals
blessing
pine
sizes
counterparts
nan@@
Alice
tra@@
ratified
shouted
io
alongside
bot@@
justify
sign@@
convicted
confidential
War@@
anch@@
part@@
livestock
apologize
ala
advocate
graduated
cancelled
subtle
researched
izes
penalties
Shan
here@@
indoor
stole
lied
motherland
dissertation
mal
24@@
chains
Chi@@
Men
adopts
kings
some@@
hard@@
systematically
mounting
unclear
shallow
Fre@@
reluctant
trusted
CN@@
amounted
twin
Del@@
selfish
CL@@
macroeconomic
ache
drain
disc
remark
act@@
bleeding
skirt
sle@@
Garden
silicon
helicopter
inclined
fence
accession
proceeding
ignorance
celebrated
Saint
aster
endure
texts
reaffirming
monitors
assuming
horizon
EA
Edward
relics
doubled
Four
Habitat
rein@@
CP@@
cage
deepen
Zone
protects
suited
Age
issuance
aching
distribute
blowing
etc.
cautious
automation
eu@@
Emergency
Xi@@
sion@@
pun@@
Customer
nationalities
sufficiently
keywords
divisions
trillion
emp@@
runner
liberal
IV@@
SE
zation
Heads
headache
negotiated
VIII
Lesson
cousin
comparable
poison
auditing
roc@@
arch
sup@@
9,@@
Sk@@
ater@@
candle
tanks
criticized
seated
speeds
curb
Personal
declining
Dar@@
nut
cinema
disclosed
neglect
gun@@
tended
liberation
ASEAN
reductions
axial
Han@@
mentally
treatments
rad@@
tery
assi@@
trapped
refined
fond
Digital
row@@
Steel
Catherine
asylum
other@@
on.@@
zinc
tangible
wat@@
Thank
slave
Index
band@@
---
Mom
wins
pollutants
cameras
Sim@@
advertisements
delegates
incorporate
urgency
tag
kg
eful
visitor
dil@@
proteins
BP
ensures
idle
journalist
regulated
ame@@
restraint
fiction
life@@
participant
spar@@
dropping
coalition
gas@@
Defense
wears
Bor@@
Catholic
Stock
withdrawn
Yahoo
alien
Dan@@
Import
dge
yang
additionally
mixing
sticks
aled
Come
ILO
aboard
esti@@
happier
Vol@@
convince
endeavour
23@@
aches
classmates
institutes
may@@
Berlin
appointments
alliance
hid
Ha@@
wont
strangers
rejection
TO@@
Dan
worrying
altitude
Exhibition
commands
eco
companion
possessed
Syrian
Village
hammer
optimism
conv@@
immense
odds
ulated
romance
interpret
grinding
shear
invisible
hostilities
Simon
behave
ts@@
ental
adaptation
municipality
warmth
Commander
switching
Citigroup
oot
upstairs
sunny
Chile
ko
praised
contracting
licensed
inputs
transmit
dor@@
chips
lob@@
how@@
horror
sco@@
tum@@
mp@@
iously
fairness
vigorously
recycling
Song
breed
backs
Nobel
aph@@
polymer
complementary
ena
coherent
reactor
rays
wholesale
fits
forums
Hon
survived
Santa
healing
oceans
Refugees
ands
optimize
aks
101
ada
infl@@
chairs
formerly
Sun@@
hyp@@
je@@
Tai@@
Light
coupling
contracted
describing
ceramic
refuses
freezing
cleaner
sadness
intake
zoo
steep
supermarket
adapted
Jewish
molecules
zo@@
rabbit
Line
timetable
inations
exc@@
gasoline
ologists
arity
Estate
crum@@
mist
march
practically
mold
mac@@
debris
cerebral
exporters
Stamp
....
intensified
ever@@
infringement
PLA
18.@@
complications
fel@@
sem@@
lining
vit@@
judged
disturbed
staring
Bon@@
20th
DS
Czech
20,000
ideology
complained
influential
Reuters
borrowed
legend
Huang
literally
yan
bench
Andrew
tense
potatoes
zi
wilderness
sang
Louis
Rom@@
fantastic
Phase
torn
UNRWA
bronze
Arabia
claiming
Yao
oms
hollow
proceeded
Blue
refrain
waiter
Ki@@
tory
Cs
consistency
ock
hun@@
solvent
AG@@
briefing
tenth
decoration
sailing
Mobile
Chan
Albert
ques
hearted
defensive
garage
CON@@
call@@
bits
ories
CD@@
tively
Princess
hiring
vitality
gambling
operates
quote
nie
elite
industrialization
Committees
1982
ailed
Salvador
bat@@
appropriately
matched
ecosystem
album
recruited
Guide
HO@@
motor@@
clarify
pharmac@@
ashing
&apos;we
loses
2.5
lov@@
learnt
Timor
History
fried
cavity
List
atmospheric
miracle
coll@@
sensors
assembled
oxidation
stock@@
sustainability
door@@
renal
Cat@@
UNEP
weigh
prompted
downturn
curiosity
eleven
integrating
Pos@@
litigation
van@@
Production
nominated
----@@
ough
Baghdad
Libyan
pork
overhead
licenses
log@@
poems
arian
artery
attorney
caution
lem@@
awful
confiscated
explanations
thine
scan
ca
RC
blamed
Patent
vari@@
cut@@
Session
humble
ashamed
fleet
err@@
alternatives
ona
breakthrough
Independent
females
coin
encies
fuels
palm
mak@@
outcomes
Urban
disciplinary
cute
Egyptian
AI
carriers
pets
donation
repairs
subsistence
arc
migrants
BR@@
Copenhagen
shortcomings
slower
yields
ols
New@@
WFP
sent@@
Revolution
scarce
strongest
opponents
val
sit@@
Eve
wit@@
ideals
eman
refusal
GA
partnerships
collision
set@@
Coun@@
glorious
unfortunate
exploit
Traffic
reimbursement
yourselves
jumping
factions
infinite
advancing
Don@@
Abraham
invalid
Ir@@
potato
wounds
Lincoln
selective
incomplete
n.
quantum
splendid
Take
rav@@
imposing
Fire
minimal
Venezuela
lawsuit
cleaned
Zhejiang
forecasting
chess
carcinoma
township
cough
lively
chang@@
dist@@
OS
accompany
figured
unacceptable
distinctive
Cas@@
notably
insul@@
spouse
oped
shalt
metric
han
fatal
petrol
Registry
conce@@
insect
curtain
paths
wood@@
flooding
Ethiopia
di
aded
occurring
replies
beans
Ho
swe@@
ington
tastes
serum
stared
charging
seasons
Captain
mod@@
defeated
cri@@
mic
volumes
folks
rhythm
loyalty
main@@
firing
ventures
overview
goodbye
downtown
tible
priests
suspicion
urbanization
ag
Ph@@
strengths
misery
shipped
prolonged
regulating
documented
Six
trucks
PRO@@
trail
deliberately
esses
servers
Ten@@
heart@@
Level
olog@@
reasoning
beast
cho@@
Bulgaria
rainfall
matic
frog
youll
hitting
commanded
prerequisite
lers
souls
throne
linguistic
confronted
liberalization
illustrate
symbols
Monitoring
contributes
argues
fic@@
Lama
Shel@@
far@@
viruses
15.@@
Sec@@
Media
desires
males
inviting
itors
Sy@@
asts
Tianjin
130
keyboard
universally
Tre@@
upgrading
Download
farther
isi@@
leap
prop@@
wasted
Cheng
backup
colours
ceased
sand@@
bending
exceeded
understands
stance
stepping
pragmatic
requesting
1979
ri
shareholder
pipes
successor
Real
situated
gym
tran@@
uncomfortable
shirts
establishes
gauge
renew
killer
simulated
undergoing
answering
accustomed
UT@@
care@@
May@@
sy@@
Monetary
Paulson
drift
FT@@
otic
Dear
infections
suggesting
Belgium
Best
oted
Acting
rs
Young
deploy
databases
Tor@@
phrases
explicit
inherited
ministries
linking
pockets
imagined
oper@@
ston
depend@@
tops
Nanjing
kissed
Ann
yed
Shu@@
Sen@@
ided
handful
OM
Ill
disappointment
exercised
Most
depos@@
guilt
liquor
4,000
horrible
forcing
prevail
devote
Sciences
comprising
clam@@
limiting
stealing
eds
Nicaragua
delivering
zy
Activities
IR
W.
harbour
tives
tun@@
fitted
ean
unilateral
rot@@
kins
shifting
CF@@
waist
richest
Mountain
Process
studio
Syria
portable
faint
nd
enting
pairs
spiral
primitive
melt
prone
legacy
6th
intentions
collectively
inger
MP@@
XML
rewards
scarcely
determin@@
unt
Note
Oil
presenting
oppose
thetic
asted
expiration
EM
ren
gan@@
inform@@
ull
procedural
AA
anim@@
Practice
Reg@@
sounded
rit@@
gal@@
yer
zer
fisheries
importantly
aer@@
disposition
terminate
Rol@@
Immigration
minim@@
sometime
pic@@
Jud@@
tel@@
atively
cheque
unlawful
panels
Morocco
purely
reunification
eff@@
chlor@@
stadium
highlights
variations
esteem
verbal
sim@@
disadvantages
delete
op
Charlie
volatile
ree
Ly@@
Which
Pan@@
sch@@
dig@@
multimedia
low@@
abortion
oph@@
50@@
Long@@
aper
theft
disorders
locate
assault
ich@@
IX
surrender
booking
fog
Jin
acids
ari
teenagers
Wu@@
EX@@
ram
vent
scanning
lac@@
ove
Records
videos
blown
elders
ops
Fu
ffs
farmland
Series
smiles
hurts
vegetation
hua
bes@@
rebuild
energetic
damaging
Nepal
arr@@
mandated
Tom@@
sensible
uphold
rub
Paper
phen@@
Putin
guides
bra
impulse
sickness
extradition
flown
believing
convergence
Shakespeare
&apos;you
scored
ication
rid@@
itor
audiences
dreamed
reproduction
free@@
manpower
Competition
immunity
reiterate
gesture
gli@@
athlete
observing
aggregate
Software
retreat
surveyed
Conservation
referendum
sum@@
Yan
prescription
.We
bend
inated
ville
ken
was@@
safer
judging
Heaven
respiratory
Prize
fertilizer
sect
blanket
granting
ranked
serial
Shar@@
bra@@
sin@@
Zaire
bean
rolls
Shui
hopefully
garment
nec@@
EV@@
not@@
optional
thers
cad@@
uded
developer
backing
acoustic
merchant
boots
Deng
trousers
Irish
winding
Elimination
etic
merits
SU@@
deprived
brake
Investigation
where@@
lacks
bless
Chris
duly
wr@@
cables
discretion
enzyme
Articles
kicked
priced
weird
vine
executing
Sin@@
laundry
continuity
ologically
Oc@@
cle@@
cancellation
void
derivatives
steering
sty@@
oon
influencing
plac@@
Monte
stack
attracting
insur@@
cabin
lined
wastewater
defines
Governor
ruin
Yunnan
pling
II@@
patch
17.@@
educate
stop@@
fossil
varies
fri@@
abuses
compiled
detecting
nodes
dedication
gers
oming
Croatian
short@@
SC
Hungary
quota
ests
vascular
developmental
warrant
streams
va
elephant
calculations
brethren
atism
Algeria
cos@@
edi@@
insert
Thai
Brothers
compatibility
Under@@
ker@@
vivid
architectural
lasted
counts
bored
tian
gh
See
polar
Dong@@
exceeds
run@@
lest
elaboration
summarize
pick@@
privilege
bin@@
traveled
Ta@@
researcher
Virginia
graphy
francs
chapters
chem@@
dwell
illing
impetus
Taliban
plas@@
Shi
suspicious
bic@@
striving
lev@@
Senior
scor@@
merit
cheek
Guatemala
ption
interval
BA
appearing
ref@@
Tal@@
supervisor
Serbian
ho
spy
Ken@@
completing
Did
pig@@
ben@@
Blair
controversy
targeting
Kate
racing
ester
tivity
traits
timber
paste
benefited
fairy
cheer
occupy
cart
Status
amongst
blo@@
buffer
cellular
FC
vir@@
viewing
eries
Hom@@
mir@@
stipulations
ripe
Black@@
cour@@
prob@@
concluding
pond
doctrine
Ren@@
During
prevents
seemingly
Communications
insured
ares
locking
individually
globally
devastating
grati@@
Performance
bankrupt
wrap
benchmark
patrol
exported
smo@@
ured
umb@@
arrow
stein
whereby
attributed
Lam
Ross
gir@@
grip
arrives
speci@@
Cuban
disciples
Che@@
rang
ventilation
explaining
angi@@
boarding
insight
corrupt
fu
Tunisia
implies
pil@@
CI@@
Chemical
Montenegro
itch
ruler
trad@@
weaknesses
wipe
vulnerability
dest
lastly
Here
bargain
ladder
Forms
broadly
triggered
nal
surprisingly
avian
thereafter
exceptions
Marius
stays
Sachs
calories
Forces
massage
Golden
dreaming
after@@
mini
convening
correspondence
thermo@@
itable
lad@@
1967
bush
ultra
fur
inserted
livelihood
spheres
Lady
airplane
aters
consultancy
gardens
Lin@@
prec@@
Zimbabwe
nom@@
24.@@
notwithstanding
disagree
parliamentary
census
xi@@
reminds
scratch
relaxation
wavelet
ille
rounds
privately
aliens
discriminatory
shadows
CE
ensured
Anti@@
Ev@@
bands
cing
suspects
lap
pencil
machining
know@@
ender
ora
Powers
deepening
Promotion
foam
ini
Steven
lawn
Hurstwood
grand@@
keeper
positioning
compassion
you.@@
disturbing
ecology
scales
wid@@
pertaining
platforms
risky
odi@@
metallic
I.@@
LE
Learning
EP@@
Liberation
equipments
satisfying
Radio
longing
perfection
duplication
processor
fraction
Wat@@
shortages
phy@@
goodness
squeeze
high@@
gic
li
attained
ature
searched
etting
itating
template
salad
ament
statue
ST
closest
Final
animation
ticism
wan@@
settling
1000
Type
highways
gaze
planets
grams
underwater
glow
Jimmy
sliding
dium
Music
cam@@
Add.1
prote@@
Mun
stre@@
Or
aluminium
crowds
graphics
extensively
fore
lowered
weaker
hated
min
bility
ech
Haitian
canal
get@@
sac@@
adhesive
starch
intimate
donations
tain@@
Would
labels
yst@@
Chai
Cases
bble
exhibit
materi@@
pretend
About
Goods
s--@@
heels
Win@@
age@@
uranium
Chongqing
hazards
Shandong
accountant
Rice
ling@@
dialog
deaf
Bol@@
calibration
circum@@
bolt
Cam@@
countless
acks
optimized
simplified
Awards
airports
Adam
peculiar
ification
Wa@@
slowed
polite
tial
angels
108
scholar
urine
Mexican
Case
robots
downward
interpreted
AI@@
spinning
corners
p.m
struggled
lau@@
gaps
outset
agging
qualitative
diversified
gging
senses
idence
adviser
practiced
workload
rooted
unchanged
dental
ark
toe
fal@@
regimes
overtime
Those
hits
Pu@@
dynasty
prey
ation.@@
SM@@
originated
rains
ety
nos@@
receiver
ea
beg
aut@@
ult
upcoming
advisers
Care
Merrill
inity
reb@@
UNAVEM
Shan@@
sciences
prospective
Romania
lakes
Credit
UNIDO
releases
Len@@
wallet
fer
License
conversations
envy
Expo
F.
Mos@@
Standards
cia
udes
Chi
airlines
jeans
Multi@@
Rachel
ligh@@
alled
fruitful
organisms
bombs
house@@
darling
fixing
Internal
warmly
J.
rally
departed
malaria
poorest
cross@@
conceptual
diary
bers
strings
contamination
wow
exert
warfare
antly
cheerful
definitions
speeches
jewelry
preserving
deleted
ageing
hormone
appliances
Yan@@
Potter
chin
allocate
While
toast
mist@@
particulars
sporting
pel@@
aping
fighter
nation@@
Costa
loudly
earnestly
indexes
stiff
bud@@
leakage
activation
intervals
lec@@
batteries
premise
metabolism
earning
sore
Consultative
arians
ven
6,000
tribe
Comprehensive
dream@@
mes
cheat
frustration
Appeal
icate
Madame
youngest
ouring
nor@@
q
Plant
illusion
ting@@
earnest
disclose
ox
accelerating
AM
poorly
path@@
coding
bloody
pressive
Register
Xi
ICAC
Arabic
AIG
traction
mobility
Dem@@
strang@@
Pakistani
avi@@
chy
cel@@
subjective
Electric
Asst
yo
smallest
openness
administer
ape
slice
y.
dian
chron@@
bian
detective
erv@@
ounded
arises
inappropriate
rail@@
finances
izer
diffusion
tribunal
grains
formalities
tless
une
qualify
butterfly
ual
Mus@@
incoming
edges
Buddha
UR
fines
survivors
Educational
empirical
spends
Muslims
Tar@@
Buddhist
neglected
Kosovo
cups
mortgages
wax
predecessor
tan
Hai@@
Their
IA
dot
kit
Companies
appe@@
subsidy
accountable
Chin@@
accessories
Victoria
.In
Libya
Sales
Student
Channel
procession
ank
smokers
queue
struc@@
spectacular
say@@
cured
authentication
pop@@
Sarajevo
Strip
ei
FA@@
posting
marriages
sai
gum
hosting
floods
3.
oven
tire
motive
deer
Developing
monster
hoo@@
Solomon
taxpayer
coral
turnover
fe
transplantation
horn
clarification
coins
ached
viral
insulation
terminated
conductor
businessman
tuition
Ty@@
itan
1970s
exemption
1.3
san@@
securing
travels
ula
honestly
More
CM@@
deposited
distortion
ald
undergo
illustrated
flats
utes
disturbance
pleas@@
.But
merchandise
retailers
ix
muc@@
lor@@
keepers
Amendment
reintegration
notified
illed
refuge
quotas
7th
contradiction
Bear
fru@@
sank
Temple
protesters
inj@@
Like
past@@
Kennedy
bug
neighboring
prostitution
pad
jokes
boot
offerings
gang@@
lip@@
teaches
cakes
good@@
parti@@
jam
hospitality
ultrasonic
opposing
earthquakes
Ric@@
hesitate
idity
practicing
hunter
sed@@
ACC
challenged
Moon
spacecraft
triumph
lah
ni
inland
forehead
uding
admiration
bay
theres
hereinafter
outputs
thunder
sequ@@
interactions
vague
OC
circulated
aur@@
Municipal
penny
ov
interact
acker
exams
CA
exporting
urging
Framework
heroes
ali
quotation
anchor
Xiang
pillars
remedies
tricks
Qin
folder
balancing
cred@@
lunar
chi
stressing
superiority
Gordon
ulate
occasional
ridiculous
tant
gation
sunset
Peru
Yuen
warnings
utilizing
documentary
hardship
cows
computation
tariffs
hurried
Jeff
builds
week@@
Yellow
angles
poisoning
invoice
administrator
acked
Summer
sins
comparatively
exam@@
openly
tablets
tness
spokeswoman
interviewer
centred
melting
revenge
modules
ance@@
PE
crush
drawer
actu@@
clip
160
LC
Annual
unite
enforced
cares
Lebanese
drawings
see@@
extends
jing
squad
lid
kil@@
ancestors
sey
vac@@
lightly
elevator
pains
hub
attachment
vely
realm
gn@@
inging
Milan
wonders
outlet
excluded
solemn
businessmen
stry
Sig@@
deed
Prov@@
meditation
Lam@@
famine
LDCs
antenna
physician
conceived
memorial
fuck
submarine
Fer@@
IBM
Ad
damp
pass@@
geography
unpleasant
domin@@
SAR
altar
belly
interviewed
180
approving
soaring
symptom
Interim
atoms
concurrently
physiological
Arsenal
careers
lan@@
fighters
author@@
allegedly
SS@@
chers
peers
tar
ush
secretly
Nov@@
Hui
ects
thumb
jur@@
sne@@
feudal
Lev@@
Table
excellence
Chang
inspire
Aaron
propaganda
allowances
dock
tured
someday
Wi@@
ballot
righteousness
icon
Arthur
uttered
churches
innovations
tious
mam@@
amend
logging
var@@
boiling
er.@@
Climate
itary
Film
combines
nets
Jiangsu
frost
gol@@
gel
prohibition
possesses
sam@@
olive
watches
commended
leverage
level@@
Rob@@
slo@@
Sri
tool@@
chase
hen
nails
rence
circuits
alk@@
feng
contaminated
shrink
renowned
sellers
divine
simplicity
decreasing
eats
Maria
UV
road@@
decorated
lowering
gossip
linkages
supervisors
fills
infants
plum@@
updates
plight
Ministerial
Only
harmon@@
tax@@
glut@@
legitimacy
belonged
Prof.
GE
neighbour
shout
OP@@
40@@
pouring
indirectly
sou@@
Sarkozy
akes
Fair
archives
photography
politician
stand@@
Lau
prototype
purse
Boston
brain@@
fortunate
importing
fle@@
nomination
honored
modalities
judic@@
rightly
ounds
credible
govern
Employment
recalls
confront
idal
successive
Methods
pronounced
Taipei
Labor
quick@@
desktop
overweight
gy@@
wan
shells
Every
sheer
bet@@
sweep
refund
clean@@
alling
apped
20.@@
repaired
crashed
lasts
tomb
ME@@
1.2
ministerial
cool@@
exhaust
Delta
threatens
retire
frustrated
bacterial
inability
bloom
defending
championship
pause
Get
microscope
successes
appearances
Unity
democratization
slaves
cherish
tit@@
postponed
airspace
Gil@@
AV@@
deserved
centered
commencement
amm@@
rig@@
nonetheless
Ca@@
SP
floors
itter
ample
fatty
Den@@
Product
cervical
workforce
milli@@
Woods
editing
explicitly
expiry
foul
gly@@
sky@@
asses
Seoul
constraint
decom@@
ails
deliberate
Peoples
UNOMIL
upright
vein
marital
coun@@
ii
scholarship
recruit
hypertension
cycles
disposed
Brazilian
rests
yards
clarity
affordable
peer
heed
fon@@
digging
violates
reaffirm
reorganization
sig@@
premature
cheating
chasing
relieved
Pot@@
Jin@@
Procedure
irregular
tened
stor@@
Yugoslav
persist
practise
Off@@
Strategic
goat
BE
convene
FDI
diagnosed
102
som@@
hos@@
beneficiary
fibers
Universal
spontaneous
sour
ampli@@
ordering
Gor@@
tissues
seriousness
remarkably
gger
turbine
softly
bee
Hunan
Procuratorate
plastics
museums
blows
ISO
spark
joints
oils
daddy
arguing
imbalance
hu
juvenile
sli@@
Belarus
magne@@
ased
credits
slavery
semester
bees
beard
conver@@
Fil@@
116
ont
ion@@
jar
19th
seasonal
hereby
Rab@@
alleviation
binary
Tim
screens
rendering
stal@@
coated
Fo@@
beneficiaries
ancing
disadvantage
interrupted
dean
privileges
phosph@@
Kazakhstan
Dragon
pulmonary
norm@@
efully
extracted
stabilization
loo@@
eighty
Travel
FO@@
Scott
curse
Set
fetch
stom@@
Ho@@
tac@@
shaping
Economy
exual
125
performs
IOC
Death
morph@@
transferring
ki@@
uous
Alexander
allo@@
Jonathan
nutrients
inge
sexually
junk
Buddhism
twins
Gold
asis
bert
dealer
19.@@
filtering
ita
Oxford
strains
salesman
Net@@
automated
auspices
Major
Comp@@
observance
standardized
acity
segments
swift
orous
endangered
Account
harassment
cardiac
cav@@
disadvantaged
Licence
sanc@@
insulin
permanently
Doctor
uck
organism
Higher
acceleration
righteous
weed
glucose
origins
quarrel
Feng
float
retro@@
hem
instinct
bias
licences
Napoleon
improper
appealed
resumption
Look
dim
acqu@@
dresses
unlimited
declarations
cheeks
ingredient
advocates
NASA
Jenny
Zhao
Dol@@
tailor
iring
nu@@
portal
Her
Experts
step@@
thes@@
jealous
empire
system@@
tually
Indonesian
yn
eled
7,000
customary
medication
sa
Alex
s.The
Mir@@
rode
leaning
sealing
reminder
Ah@@
1983
put@@
Danish
unstable
clusters
reck@@
autom@@
nerves
t.
lobby
catalogue
1981
Atomic
Azerbaijan
cent@@
tolerate
notable
Il@@
ght
naval
Sudanese
intim@@
Waste
vitro
predic@@
disseminate
flow@@
onary
destroying
scri@@
consisted
Cambridge
loneliness
eyed
Way
Coast
folded
Over@@
edit
8th
stove
maximize
Kok
plo@@
bind
yers
induce
Columbia
healthcare
Railway
feast
broker
Tanzania
polluted
accepts
manages
proving
mitigate
shuttle
witch
advocated
impartial
Empire
tap@@
swallow
Es@@
NPT
inking
madam
mem@@
revol@@
Pic@@
renovation
accent
repay
restoring
aerial
imperial
accorded
Straits
Sub
Ra@@
responsive
Tung
chinese
Many
unreasonable
textiles
wo@@
Against
Manchester
Pharaoh
agreeable
precip@@
researching
decreases
cm
specifies
Sony
BBC
spotted
aj@@
Renminbi
dep@@
cit@@
wei
iles
recipients
thereon
addiction
mitigation
oration
ight
yu
Sto@@
burns
Gl@@
tam@@
agged
Thanksgiving
questionnaire
illustrates
photo@@
mould
qi
regression
HP
flock
chur@@
mann
Pierre
cracks
ook
arily
ffe@@
quanti@@
differentiation
aw
relying
viewers
blend
Teaching
Figure
motiv@@
emphasizing
shifts
fast@@
Bangkok
xi
rainy
discharged
competitions
rested
pa
vers@@
1973
likelihood
Areas
bachelor
respecting
anny
validation
destined
Economics
printer
fla@@
replacing
Latvia
literacy
dispatch
termin@@
spinal
curves
hierarchy
induc@@
Sue
usable
idly
narrative
Before
passionate
herein
Ltd.
Son@@
nam@@
surroundings
Xu
Mur@@
human@@
induction
illi@@
weekends
Navy
Armenia
Diana
Rose
phon@@
inflammation
ouse
wasting
supreme
hers
helicopters
interventions
unconscious
blu@@
lighter
wai@@
NPC
handles
30,000
repairing
enthusiastic
sensation
periodically
tel
meanings
Lim@@
gallery
elaborated
La
Harbour
cardi@@
stationary
gram
Gri@@
dissolution
pledges
refrigerator
liner
Co.
laundering
weighed
bac@@
Southeast
chickens
diving
rotating
aire
pho@@
ck
whis@@
whoever
mas
heavier
aki
ogenic
cholesterol
valves
ola
ounce
holdings
springs
Lab@@
banker
Ali
transported
blocking
thing@@
cracked
teen
Ul@@
harbor
115
undergraduate
lamb
retrieval
marke@@
ision
omed
ECOMOG
PLC
packet
foremost
updating
effected
investigators
geometry
mation
Students
arti@@
lodge
viewpoint
Star@@
SE@@
Resource
capsule
complaining
compilation
Tro@@
judiciary
ough@@
leak
alignment
tournament
reinforcing
frames
prudent
embassy
electrode
featuring
crushed
child@@
enquiry
0s
Mas@@
9th
Rad@@
resignation
specialty
neat
Howard
iss
entries
rebuilding
intentionally
Green@@
manifest
Gal@@
sofa
decay
Hangzhou
awkward
theoretically
conducts
crunch
wells
shr@@
coronary
beams
Net
10th
d.
ows
cher@@
architect
graceful
clin@@
physi@@
ulating
hypothesis
pret@@
twist
8,000
WH@@
aroused
Contin@@
nickel
pills
ew
hopeful
heavens
106
evolutionary
demobilization
homeland
civilized
endeavor
perspectives
authorize
ignorant
YOU
Loc@@
attacking
boy@@
Ceremony
Haw@@
Ghana
sively
Estonia
retention
apology
submitting
smen
deepest
voyage
echo
ested
ags
rubbish
vacant
oured
num@@
peripheral
ev
Site
Freddie
severity
noodles
dug
fashioned
scenic
asser@@
inequality
taxpayers
husbands
NOT
23.@@
Inf@@
remainder
eded
U.N.
ffy
fibre
ME
St
inflammatory
gloomy
charter
dealers
aria
Wing
Guidelines
Integrated
outward
compl@@
hotline
Modern
itate
townships
Tuen
2012
glue
bull@@
fts
Wilson
cra@@
lighted
Max
dia
justification
tenants
Hua
Prof
Bus@@
stating
Yangtze
manifestations
scheduling
aly@@
debates
sums
Iceland
Rica
Spe@@
acious
browser
artillery
brass
transient
High@@
thered
myth
homeless
faculty
nov@@
Amy
unrest
numbered
logo
insists
humidity
versus
noisy
flux
Marketing
Saul
margins
enduring
Xia@@
mon
FA
corridor
ja
fishery
tl@@
Inc.
Ali@@
riches
perceive
arena
assumptions
dominate
HD
3D
self@@
craf@@
flee
TA
Einstein
Sup@@
groundwater
tra
interrupt
hobby
Could
abdominal
afterward
departmental
persistence
sack
Snow
Ass@@
py@@
Agricultural
condemn
repl@@
Direc@@
aped
celebrity
trauma
robbery
declines
cracking
Number
acet@@
Ban@@
bru@@
tray
discrete
duplicate
Oscar
nutritional
grabbed
locks
this@@
symbolic
fir@@
martial
positi@@
Nan@@
MBA
plague
quo
sweater
fostering
vacancy
stimulation
proclaimed
Swedish
temptation
downloaded
org@@
Chairmen
resting
energies
lectures
Dim@@
seas@@
deli@@
140
professors
Value
Marx
capitalism
utterly
deficits
alternate
sacrifices
unanimously
Not@@
historically
public@@
northeast
corrected
auxiliary
terribly
aci@@
Supervision
neutr@@
regrets
persuaded
discourse
minors
ruined
buys
NBA
depart
gloves
fork
sandwich
standardization
acies
hint
n.@@
greeted
grow@@
cruise
fascinating
reign
Hawaii
lik@@
observ@@
adherence
da@@
tou@@
gradient
assignments
administrators
steak
shifted
carved
picnic
fs
supplements
depths
reforming
Valjean
faction
citizenship
embarrassed
dietary
corrections
faithfully
bubbles
yearly
DO@@
nel
mesh
Sai
kilograms
demonstrations
107
gies
Issue
si
cessation
intervene
hin@@
aqu@@
assurances
scenarios
attainment
featured
bucket
frank
tab@@
wit
traveler
Electoral
distr@@
sensi@@
brutal
tiles
Taylor
woven
Zhu
clu@@
Philip
Java
Lau@@
Chengdu
stall
aver
http
uation
fashionable
compile
widow
donated
technically
horri@@
easing
stabilize
merry
Ear@@
projection
4.
Television
Motor
pore
Transitional
Ther@@
power@@
dilemma
evolving
simulate
sweeping
anna
colon@@
religions
flav@@
Panama
resses
pain@@
promotional
comprise
dispose
mistaken
trustee
custom@@
recreation
Franklin
Annex
enrich
seventy
Sum@@
caus@@
Web@@
financially
lun@@
flames
fet@@
soybean
imper@@
Pres@@
buttons
dive
QU@@
right@@
Key
recipe
Stone
tonnes
acquisitions
garments
ry@@
propagation
1976
Cypriot
urs
ection
dumb
initiation
refr@@
arized
socially
manipulation
Chu@@
akers
.You
sincerity
ules
tubes
presidents
exclusion
dye
careless
Far@@
pumping
sleeve
detector
Mess@@
barrels
aned
speedy
tos@@
Maritime
ells
cks
Boutros
bail
committing
Lisa
practitioners
Disaster
inclusive
Jan@@
Cristo
switched
orth@@
commissioned
SARS
whatsoever
schooling
disturb
jum@@
molecule
cock
underlined
sel
deteriorating
jazz
graft
facilitated
lag
103
mall
appropriation
Address
ura
Tsuen
dump
turtle
travelers
sigh
inhabited
opol@@
inning
grim
Vir@@
alisation
credited
rebels
regulator
Hoc
curative
tual
tighten
contingency
scre@@
D.@@
FR@@
word@@
refusing
Disney
geo@@
amazed
tici@@
aloud
portrait
takeover
inks
recognised
dragged
marginal
tail@@
imply
paren@@
trash
supplying
Mul@@
Doha
inst@@
Tun@@
coup
weakened
accomplishment
uph@@
boil
directional
eph@@
Silver
creditor
healthier
LCQ@@
ems
undertook
footing
guitar
ice@@
dislike
activists
atin
UNU
Marxism
Word
eding
111
vin@@
cab@@
pus
DA
commend
consulted
dispatched
denial
thieves
renminbi
109
reiterates
towel
lofty
114
doll
silently
bosses
appealing
ABC
cartoon
oner
hug
ples
Broadcasting
Toyota
flags
basement
Notice
suffers
preferences
MS@@
terrain
exhibitions
spi@@
beaches
instructed
exploded
pertinent
fragrance
&apos;an
ENT@@
lent
Islam
turkey
stimulating
I.
Common
Arctic
soda
dew
guaranteeing
aint
pavement
inte@@
boiler
stakes
techn@@
wel@@
Bei@@
symbol@@
Bir@@
greeting
asas
pep@@
Ori@@
travelled
green@@
kn@@
tumors
kno@@
undergone
gastric
ust
assumes
oak
Ol@@
authentic
sexy
Equipment
reinforcement
ees
Private
aided
tick
lungs
probable
00,000
distributing
supervising
tiv@@
generic
alli@@
less@@
Price
voluntarily
mond
finals
accidentally
protocols
serv@@
Supply
fortunes
thematic
constrained
youve
Course
eighteen
Make
summarizes
disciplines
sperm
lenders
Gas
every@@
educ@@
15th
tem@@
stakeholders
admired
enders
fluctuations
1974
ambitions
weary
poisonous
dog@@
centralized
editorial
preambular
tz
ongs
Proliferation
ocr@@
Century
dre@@
tomato
ogen@@
Cosette
testi@@
Up
pensions
mot@@
plunged
inquire
mom@@
underneath
quarterly
ind
assemble
Lily
Initiative
Structure
Dow
stern
lur@@
shouting
heav@@
strife
spelling
Michelle
check@@
Insp
itted
Ash@@
eased
evidently
Hamas
tours
adversely
eradicate
unwilling
lessness
effec@@
alo@@
toes
Equ@@
Mr.@@
alcoholic
prosecuted
comedy
Roger
side@@
govern@@
ero@@
magical
block@@
Kevin
charts
struggles
GO@@
Sar@@
frankly
alarming
awa
advocacy
DA@@
balances
prints
Independence
atom
diamonds
fundamentally
endeavours
sleep@@
Williams
exempted
lays
limbs
oe
dividend
lowing
EF@@
1960
Even
marble
prisons
resonance
lacked
25.@@
Official
du
applause
dum@@
relies
sticking
paras
Scarlett
whale
&apos;S
helpless
surveying
suppl@@
garlic
jade
covenant
Nairobi
Machine
E.
bir@@
explo@@
Div
HS
aspiration
punch
absorbing
fermentation
Vis@@
forging
Samuel
Rem@@
spill
Brian
wires
nasty
slim
inspected
athletic
compelled
Millennium
yarn
collections
thoughtful
tribes
communicating
awaiting
exclaimed
urg@@
dom@@
repe@@
Dev@@
comic
procuring
subordinate
26.@@
wiped
tha
Access
MPF
convincing
ethanol
gle
decree
rhetoric
widening
Pas@@
3.5
friend@@
acquiring
soluble
finest
104
deviation
collateral
anian
OECD
pillow
expired
preparedness
railways
ousness
pes
Prosecutor
Taiwanese
suite
Up@@
aine
Wai
sick@@
opt
Macedonia
Document
yr@@
alise
Happy
greet
questioning
valu@@
sadly
Phot@@
iction
brow
miners
peri@@
landlord
ght@@
cliff
hop
Sul@@
Joey
dentist
1.1
eagle
bio
bum@@
tening
metre
ete
Euro@@
reuse
logy
analysing
clauses
heel
stems
ko@@
los@@
courtesy
grocery
Tehran
Hamlet
icked
Pyongyang
forge
rebel
token
queries
logistical
certainty
Fun@@
Met@@
grading
veto
immuno@@
Chandler
ammunition
endanger
UNOMIG
magni@@
philosophical
jungle
P.
cooperating
sia
skip
Collection
inn
isc@@
reli@@
Inner
ratings
Since
oath
Job
Communication
surgeon
Europeans
resettlement
astic
iding
purity
lesser
edible
pipelines
forgiveness
episode
courtyard
kets
setup
iah
sanitary
lymph@@
Darfur
22.@@
Fol@@
mach@@
orial
Fred
West@@
expedi@@
though@@
visas
shocks
Easter
Ful@@
broaden
subscription
lamps
SO
Wuhan
rotor
gon@@
nia
tia
reversed
waking
ots
fabrics
gul@@
booming
fic
Excellency
Stamps
yoga
collaborative
Rap@@
nan
vocal
drafted
partition
accompanying
Evaluation
traces
vag@@
violating
merge
voc@@
motorcycle
Aviation
nate
xes
shelves
swelling
Commun@@
salvation
Resolution
venues
Land@@
Brussels
Enh@@
usion
Portuguese
inward
connotation
a.
1970
.2
FOR@@
ranges
dared
bowed
pap@@
vicious
philosopher
hed
generates
simplify
theirs
arly
bel
Accounting
ditch
incredibly
multitude
exquisite
Using
iro
Sally
acking
Sixth
OL@@
Ze@@
cane
Tim@@
escence
dd@@
rist@@
Dor@@
Linda
resigned
inquiries
Cer@@
privatization
offspring
offs
semiconductor
Lanka
interpersonal
agon@@
aster@@
GM@@
resolutely
perseverance
peacefully
outing
expose
eting
Op@@
morrow
Sierra
DPRK
ign
Alliance
Hem@@
devi@@
indications
Embassy
tribal
absurd
legality
torque
hail
ility
snap
Guangxi
wrath
MIN@@
systemic
Avenue
Tsang
cil@@
Lynch
practicable
Christians
spac@@
Seminar
diplomats
Facebook
Guam
duce
gor@@
evolve
souvenir
Az@@
asc@@
assass@@
Cold
recourse
pizza
Fannie
southwest
arithmetic
biom@@
Centres
prosecutors
Aff@@
Zhen
ership
reactive
swine
iang
legi@@
prospecting
Micro@@
200,000
lap@@
Fujian
Bab@@
tuberculosis
bec@@
GRE@@
tioning
volatility
CIS
credentials
Yemen
intact
ankle
roast
absor@@
objections
vered
exterior
imbalances
puzzle
verb
Out
2011
list@@
declares
aquatic
thi@@
withdrew
ek@@
filters
laptop
insecurity
lay@@
Reduction
marsh@@
categor@@
dissolved
HSBC
eration
ultrasound
diver@@
comprehensively
oping
Donald
pel
Stat@@
embodied
policemen
Adobe
ozone
Behold
endorse
obs@@
Qingdao
mum
Colonel
revisions
Albania
cy
resign
seekers
1975
forged
dling
mentality
tism
swap
patri@@
ambassador
ogy
unification
Representatives
baking
commence
rounded
NC
isnt
nar@@
irs
MAR@@
offense
Laura
snack
chap
furnished
diligence
downs
proc@@
PD@@
hardest
implements
kernel
acupuncture
glimpse
pepper
programmed
fountain
delegate
flap
towers
pulp
definitive
releasing
decentralization
112
bou@@
impress
Yang@@
vase
inconsistent
tang@@
transforming
Autumn
balloon
vill@@
rey
concealed
Arbitration
Effect
malignant
Sand@@
econom@@
tightening
inous
aud@@
antibiotics
collector
pt
scar
sof@@
irrit@@
Billy
Financing
Trademark
Iron
Concerning
Wor@@
dwelling
stam@@
SMEs
Air@@
memor@@
Vietnamese
tes@@
railroad
parade
adv@@
Cancer
con
iel@@
simultaneous
hormones
qing
withstand
angu@@
000@@
pas@@
poorer
stabil@@
rents
bath@@
donkey
coma
adj
arduous
returnees
tales
english
conceal
escent
stretching
ECE
scoring
asing
Cop@@
festivals
ood
boiled
ori
regretted
celebrating
offenders
lump
similarity
Examination
pardon
sculpture
ply
lions
tertiary
activate
extrabudgetary
You@@
compares
chim@@
brokerage
prayers
dow@@
sport@@
vicinity
dun@@
Soci@@
Ur@@
fol@@
Swe@@
lemon
Ecuador
PM
cardiovascular
genic
organ@@
singular
Lhasa
watch@@
Antarctica
Autom@@
Period
Strengthening
ONUSAL
Heart
devotion
dip
exhibits
recovering
Lusaka
perme@@
Bac@@
consciously
af
question@@
Judge
sided
Aud@@
scent
GPS
kills
Cun
treasures
contributors
mill@@
revise
DC@@
mosquito
money@@
umber
morphology
evacuation
regain
coke
sens@@
spirit@@
Tsui
xing
Rock
tles
intolerance
500,000
buck
onally
transc@@
murdered
grassland
norm
e-
disruption
viscosity
robbed
Sav@@
worthwhile
polls
counterpart
sati@@
utilities
thirst
iter
Jun@@
predicting
cot@@
ruins
pesticides
Nick
richer
twisted
nonsense
trim
ectomy
tum
substrate
elbow
hing
designate
H.
learners
fantasy
pilots
Statement
his@@
heap
hall@@
threads
Atlanta
Juli@@
tones
bladder
uck@@
weighing
bank@@
LA@@
spoon
treats
harmonic
fulfilment
Dick
criticize
tore
bombing
Jintao
Michigan
transplant
habitat
rigorous
profiles
commenced
fade
liqu@@
competitor
raining
herbs
knot
Andy
outlets
vul@@
catalytic
ession
R.
voter
innocence
arbitr@@
cries
Antarctic
fan@@
Personnel
otes
iced
ration@@
postmark
stra@@
petition
sixteen
shrinking
Ron
Privacy
derive
IM
eventual
oscill@@
UGC
danced
tackling
Base
spoil
monkeys
guardian
Poly@@
milestone
ticul@@
Nordic
coloured
porter
deliberation
recruiting
painter
flooded
exempt
5.
remedial
needy
Cape
stubborn
Ven@@
Laboratory
enriched
0.5
Monica
gorgeous
CA@@
Supplementary
verb@@
Heritage
IA@@
Disease
accredited
esis
veteran
potassium
unti@@
monk
pumps
immer@@
tsunami
anytime
sediment
sym@@
reas@@
Forest
hinder
projections
polling
lic
Jason
attracts
Lucy
insult
CS
memorandum
Av@@
ried
incorrect
ks@@
kar@@
ues
generalized
lt
doub@@
light@@
receipts
Settlements
Hand@@
discrimin@@
1,500
Shanxi
Defence
communicated
sulfur
daylight
Statistical
rust
vity
Mand@@
Peninsula
.4
crane
manifestation
jer@@
cared
Dong
adap@@
abil@@
Mail
vin
foreigner
Budgetary
enforcing
On@@
Chrysler
disastrous
stipulates
Leo
commun@@
twentieth
Anne
perfume
reservoirs
sympathetic
burg
lawmakers
descriptions
implied
aerobic
concessions
notices
couldnt
logistic
intrinsic
teens
counselling
TC
privileged
motives
whilst
volcanic
imminent
shipments
Yi@@
offender
semantic
empowerment
dent
comb@@
diff@@
purification
toler@@
auc@@
reckon
aids
insurer
socks
shone
presentations
comprehension
Maintenance
downstairs
font
feathers
embarrassing
recreational
sno@@
Danglars
judgments
vanished
enlarge
emic
armies
rowing
digit
trait
Hebei
impe@@
facto
key@@
gen
confess
imposition
DI@@
arri@@
slot
Buildings
conquer
enhances
Drugs
peacemaking
loos@@
Today
cruci@@
misfortune
yah
ported
dispersion
cin@@
Aqu@@
separ@@
optic
Grandpa
equities
lad
insti@@
wear@@
sty
administrations
elevated
makeup
permeability
colony
--and
northwest
sten@@
Pa@@
indifferent
hap@@
refl@@
tom
piracy
Van@@
skull
cone
Rural
ef
Intergovernmental
continual
Sher@@
Ci@@
prophet
Show
agu@@
spur
telescope
anne
PR
inspectors
ania
divorced
ather
chaired
compliment
regener@@
aic
nish
petty
skies
meth@@
Aid
Kabul
alteration
eline
21.@@
Van
converter
priv@@
grap@@
deficiencies
erc@@
expectancy
Ban
touches
sev@@
condemns
cid@@
oss@@
Syn@@
lengthy
chloride
Tree
clue
chill
Qinghai
nas@@
fertile
thouse
retaining
linkage
Cri@@
ego
saves
endorsement
Os@@
Fro@@
pression
whats
Smart
spreads
acceded
U.S
&apos;and
coordinator
Command
ider
STR@@
kne@@
ado
Mad@@
natur@@
phil@@
pioneer
inception
ato
fulfillment
Mei
Eli@@
suppress
eagerly
Zambia
Men@@
bundle
warmer
cran@@
combatants
closet
grat@@
lo
junction
Sco@@
wrist
Rwandese
mistress
premier
wizard
ron@@
exporter
happiest
attributable
remembering
then@@
Yau
itch@@
ecosystems
Anna
Betty
cow@@
Indians
aler@@
chat@@
weights
hil@@
haste
compressed
minus
incl@@
communist
Wales
day.@@
couch
overcoming
confirms
Units
solitary
storing
shark
decolonization
revealing
IB@@
seals
medicinal
offici@@
imitation
tance
ool
GIS
acquaintance
deposition
drastic
repu@@
debtor
scrap
ence@@
Materials
essions
Contact
embarked
prohibit
stag@@
jealousy
inherit
anticipate
installing
Tol@@
asia
Give
booked
catering
Dave
essi@@
proxy
Growth
automotive
doomed
urt
nucleus
proportions
MA@@
lith@@
volleyball
Hen@@
Jerry
oste@@
weigh@@
Hillary
trop@@
Post@@
tis@@
Mis@@
submissions
everlasting
repayment
scare
discoveries
obstruction
adolescents
beautifully
modem
inary
marathon
Mid@@
aim@@
ometry
titude
29.@@
Ohio
ishment
UBS
Eric
Income
nutrient
lodged
hed@@
Banking
xed
uch
fid@@
thering
accusations
cherry
Mountains
EP
Namibia
Mid
best@@
candles
Kin@@
PER@@
turing
owning
Armed
relaxing
scar@@
amino
ost
Relief
sinking
transformer
pow@@
adjustable
hurricane
precipitation
enlarged
199@@
Qing@@
hears
discer@@
Barcelona
Once
job@@
Ann@@
Jing@@
Kung
Grade
Jia
Delhi
ond
oes
Ying
orn
117
GU@@
Jersey
rou@@
technicians
LD
subparagraph
vendor
Body
coaches
pedi@@
Applications
migr@@
rabbits
frameworks
leav@@
arium
rack
scrutiny
peaks
oos
Mont@@
deprivation
Hester
battles
biodiversity
Bil@@
Tian@@
PRESIDENT
cab
rectification
swiftly
cuisine
Hum@@
impartiality
heights
rotary
Fur@@
firearms
ped@@
occupying
sh
wre@@
Nancy
span@@
Doc@@
industri@@
overdue
universality
Schedule
Mol@@
goo@@
Audit
specimen
seizure
bad@@
crimin@@
.And
Telecommunications
disputed
zzle
que@@
huang
militia
magnet
consolidating
proposition
Depression
amy
detainees
stud@@
outfit
LA
travellers
compelling
bells
chemotherapy
fist
stare
bribery
speeding
banana
MENT
UNIFEM
bud
calligraphy
clinics
PD
infantry
wines
emphas@@
textbooks
cling
civic
appl@@
curing
vendors
McDonald
motions
toxicity
traced
descent
vitamins
trademarks
predictable
chol@@
ensi@@
Express
greetings
exotic
Auditors
able@@
distances
formidable
lif@@
oids
Pan
Notes
prevalence
compens@@
dings
announcing
eption
realise
macro@@
explosives
bed@@
lottery
grad@@
weeds
laboratories
ext@@
grapes
enjoyable
langu@@
mud@@
chambers
hostage
ck@@
bat
beverage
verbs
chiefly
diversion
chooses
nodded
LY
Roc@@
doth
firm@@
deplo@@
joins
soy
burdens
eman@@
Top
visibility
Carolina
direc@@
hospit@@
junc@@
arious
Psych@@
modifications
small@@
ector
backgrounds
cros@@
Pennsylvania
Spec@@
tidy
Projects
spectral
injustice
ESCAP
bran@@
spine
berries
Duke
Congo
hydr@@
porous
marrying
routing
tain
rob@@
Us@@
banner
aya
skating
oly@@
sued
leasing
prov@@
console
elly
nearer
iPhone
admits
aker
restricting
andy
whistle
potent
anced
illustration
Pope
goose
goodwill
geometric
simplest
amped
gle@@
company@@
rewarded
Cert
diligent
hes@@
doses
Water@@
Christianity
vaccines
mast@@
optimizing
bag@@
enact
unconditional
cubic
boxing
Malta
concentrations
Mine
Between
formulas
Conventions
ser
fut@@
80@@
According
Liberian
Hydro@@
Quar@@
Dur@@
verdict
Permit
pirates
Ruth
ames
cutter
hectares
oss
fireworks
plating
128
Related
did@@
Bat@@
paradise
exclude
Christopher
Sc@@
Nam
alright
vibr@@
Expert
fluor@@
disbur@@
wa
obscure
rainbow
22@@
deserted
kle
attendant
coping
outsourcing
hel
vian
galaxy
Rep@@
policymakers
straightforward
sigh@@
whisper
Consul@@
taller
tization
1960s
births
Hal@@
onset
18th
Talks
Sector
glob@@
Yin
percep@@
imag@@
invaluable
vapor
ound@@
linen
sequences
metaphor
Factory
abolished
bonuses
CHAIRMAN
sighted
charitable
schedules
BM@@
denying
Pass@@
unhealthy
DM
malnutrition
descended
sharp@@
banquet
obese
cycling
tenure
Cro@@
logs
propag@@
dash
Cola
Miller
ophy@@
iner
thereto
susceptible
Week
dio
battlefield
shri@@
ves@@
cache
paramount
Clar@@
Massachusetts
inating
Friends
ratios
dead@@
trivial
itated
astro@@
luckily
Grant
bearings
statistic
ometric
Seller
alarmed
es.
chil@@
fuc@@
rocky
kissing
housework
persisted
Lei
TC@@
Gam@@
coherence
furious
Outline
waved
reproduced
Each
31.@@
aligned
nineteen
penetration
clos@@
euros
misunderstanding
finger@@
wording
bang
retrieve
obstruc@@
trembling
Pollution
wave@@
SW@@
uration
Chap@@
defended
particul@@
dumped
PP
broadband
rescued
medic@@
yielding
emo@@
Chair
ggle
jun@@
synthesized
confronting
Bul@@
blan@@
omy@@
leaned
hut
stimul@@
gan
depended
sauc@@
relied
unexpectedly
Radi@@
statutes
ritual
eu
diminished
regeneration
rockets
cip@@
volcano
critic
suppression
grease
farewell
TER@@
handy
ridge
vacancies
ffed
cans
Da@@
Peking
Phoebe
maxim@@
Chau
pet@@
proportional
news@@
tomatoes
temporal
Ken
polarization
jaw
missi@@
Connie
ocy@@
playground
Alaska
unch
apt
formul@@
incur@@
sanction
haw@@
triple
onom@@
tuous
variance
chaotic
comfortably
seafood
unusually
tempted
vis
crust
sid@@
coil
halfway
Majesty
rab@@
killings
poster
Gao
ander
feeds
iser
Margaret
labourers
whe@@
intermediary
Tran@@
Early
appliance
modi@@
comb
watercourse
Baidu
Ye@@
look@@
prevalent
curved
Mart
Officers
Last
cottage
searches
bark
rulers
Dun@@
incense
FE@@
nightmare
Dalian
posters
implicit
300,000
accomplishments
350
debut
ignoring
academics
Env
legendary
chop@@
Cru@@
cumulative
Huang@@
jack
incorporation
bandwidth
indifference
Bos@@
has@@
bonded
eral
accessed
Manhattan
gus
constituent
posture
devise
.3
violin
tieth
33@@
giants
synchronous
eps
husbandry
Baltic
sympath@@
triumph@@
hepatitis
ground@@
atten@@
incompatible
typing
approves
foil
impoverished
Brit@@
xia
grandma
thirsty
asthma
Analy@@
originating
mers
greatness
inquired
Darcy
pleasing
metap@@
honoured
boosting
Trading
weakening
restrictive
riot
fai@@
Knowledge
catalog
sure@@
ferry
sufficiency
arranging
del
sights
blood@@
navy
interfaces
southeast
nes
markedly
decomposition
actic
dessert
bulb
weighted
evenly
Roosevelt
tow@@
liv@@
defective
weaken
warranty
Tech
fibr@@
positioned
harmonization
--the
need@@
simpler
2.1
bitch
Zhong@@
tele@@
publisher
S.@@
sex@@
superficial
creep
business@@
shor@@
Plan@@
revoked
overwhelmed
arization
arid
arg@@
eing
UNOPS
said@@
loom
curtains
tablet
than@@
conspiracy
zh@@
fools
recognise
residue
Innovation
desperately
defl@@
Stage
Karen
portions
philatelic
gown
aftermath
bosom
pedestrian
enrichment
Mit@@
APEC
teenage
escalation
tactic
whispered
Gener@@
1972
uneven
commented
123
exed
psycho@@
Polish
genetically
duct
body@@
yielded
beasts
Jake
che
feather
dled
fam@@
shire
fluctuation
Date
Venus
cushion
Carl
Norwegian
Dom@@
jol@@
nano
rifle
mand
worms
Ath@@
Fore@@
ero
wards
Ancient
world@@
28.@@
recurrence
sor
gent
postpone
peach
Jamaica
buck@@
inalienable
aser
disappointing
Uzbekistan
room@@
atable
entrust
Germans
teenager
segmentation
won@@
upside
dding
nur@@
pane
counterfeit
suitcase
rejoice
subregion
Jo
interrup@@
paused
Det@@
fa
remarked
modern@@
battalion
camp@@
neighbourhood
extinction
ester@@
ulations
brid@@
gent@@
entary
eable
stirred
rationality
lan
saturated
participates
mortal
onia
Memorial
sworn
Kai
thankful
Hey
amounting
Phil@@
laughs
Compl@@
temples
Paul@@
wis@@
Toronto
porcelain
ga
gloom
vigor
170
immun@@
gland
servic@@
Hil@@
ECA
gru@@
antagon@@
Organizations
Americas
Allen
humane
steer
discovering
Establishment
Cir@@
aver@@
implication
nt
tified
Bolivia
oscope
sponsoring
Hainan
litter
&apos;but
intestinal
cognition
Meteorological
pools
bust
recorder
Abkhazia
handing
interdependence
uo
pronunciation
textbook
mercury
Carol
dancer
Shen@@
ration
realizes
adsorption
strata
consular
bred
contradictions
mutation
atically
appendix
triangle
indic@@
stuffed
your@@
encing
olu@@
integr@@
viol@@
ales
stle
amplitude
blessings
lifelong
advantageous
compass
humour
Should
fixation
Listen
Opera
automobiles
incorporating
Uncle
excav@@
Kelly
Puerto
trader
heater
asm
peti@@
trophy
heroin
complied
thre@@
Lao
geared
scattering
disagreement
alloys
Hay@@
wandering
dispens@@
dupl@@
Presidents
4.5
miscellaneous
fellows
newest
will@@
brokers
Holdings
harness
goats
emotionally
deceased
dividends
ninety
magnesium
bie
explores
popularization
Heathcliff
appreciates
Transfer
illiteracy
hurting
destinations
60@@
coarse
treas@@
Kwun
uro@@
usefulness
tus
Villefort
haz@@
Davis
costume
trick@@
store@@
runners
anno@@
MC
deferred
baked
refriger@@
coexistence
stead
Sept
unauthorized
sales@@
hardness
briefed
peninsula
ony@@
subsection
E.@@
Vegas
unpaid
routinely
oversee
monument
Jon@@
calibr@@
Mandarin
earth@@
adver@@
Ga@@
reap
thal@@
hardships
Sem@@
evaluations
catastrophe
mobilizing
elle
equals
Jiabao
ored
fractures
prognosis
correspond
closures
IL
ICRC
Budget
.If
sab@@
Electrical
correlated
generosity
gall@@
Name
detec@@
Wen@@
Workers
Vic@@
crystals
aka
clearer
11th
bailout
flir@@
Francis
nasal
extingu@@
har
amateur
Russians
sandy
Nat@@
repeating
anonymous
View
griev@@
radial
Partnership
registry
spake
accumulate
inspector
Mgr
radius
ili
obedience
cater
needing
dread
slaughter
2.4
shrimp
farm@@
rant
Na@@
clone
Sel@@
expires
prestige
Tel@@
ascertain
ela
fling
icle
capitalist
mans
Houston
nes@@
sep@@
they@@
Bec@@
ggy
vic
meaningless
groom
aring
Ox@@
hostility
faded
asphalt
1950
eous
Tian
Dam@@
Rus@@
unwanted
rit
concludes
fig
Fish
tionally
ener
solic@@
cler@@
Shipping
Pack@@
lowed
proposing
occupies
cles
inoc@@
wilt
invariably
copying
arming
cooler
populated
Henan
appro@@
AF@@
vering
ultraviolet
benign
bal
17th
Bernanke
Lewis
conqu@@
Bretton
conserv@@
Question
Jamahiriya
AG
modal
discourage
TCM
locality
Fang
abst@@
Brun@@
functionality
freshwater
pearl
6.The
negatively
bilingual
AF
Wei@@
ambulance
uncertainties
defender
merchants
ocation
Qi
stationed
Seven
Buyer
Issues
earing
Buffett
tenders
cin
Sus@@
coincidence
splitting
outgoing
clan
parcel
sanctuary
Angolan
traumatic
ections
camping
prizes
Agent
Nation@@
fiers
Decision
osphere
disrupt
Pep@@
owl
1.4
bab@@
itude
movable
gracious
uneasy
accidental
Georgian
incumbent
fourteen
Kir@@
boun@@
fluctu@@
stiffness
compatriots
atures
Night
median
ost@@
fearful
unveiled
notebook
Liber@@
resemble
uality
procur@@
aught
tub
Speci@@
manually
apartments
ayer
MD
settlers
36@@
deceive
detrimental
Saharan
kindergarten
spider
uel
eves
possessions
UNFICYP
Basin
Wol@@
Vari@@
formats
Lan@@
Racial
liter@@
Dre@@
&apos;seems
tec@@
LL@@
Inv@@
ENT
synchronization
reconnaissance
rup@@
agreeing
lantern
shiny
Bus
mess@@
amusement
Identity
hats
Sharon
impunity
Spr@@
psychologist
Resident
photographer
poc@@
asp@@
Risk
shoppers
brightness
constituencies
Ethnic
armor
concise
identifies
cast@@
tle@@
recei@@
Amazon
liness
vent@@
maternity
weep
Leone
NP@@
Der@@
stain
coatings
heroic
inspiring
referee
eity
supervised
olic
Bruce
annoying
melancholy
icy
wary
Coca
awesome
CUHK
HR
olo@@
locals
Licensing
commentary
virtues
bushes
grape
Liaison
anterior
comparisons
companions
plun@@
N.
entertain
allergic
119
35.@@
Clark
orate
whit@@
Watch
uniforms
eping
Northeast
favoured
118
landmark
However
continents
ghts
booth
consum@@
pill
entrepreneur
manned
DE@@
GC
beats
achi@@
accuse
polished
cooled
constitu@@
sth@@
sional
pati@@
2.2
dang@@
Tan@@
Jobs
methane
herd
ambi@@
slightest
Guard
Exp@@
expire
woo@@
Da
uncommon
embraced
thrive
pigment
pots
rushing
wagon
punishments
produc@@
gie
famil@@
Senegal
lender
Som@@
pesticide
fry
snacks
Deb@@
PI
stic@@
encryption
circulating
Count
Luc@@
again@@
adversity
Future
expl@@
apers
Tao
translator
upwards
zy@@
importers
sticky
marrow
fury
Ak@@
mend
Winter
bullets
measurable
numer@@
Pop@@
unk
lum@@
infer@@
perceptions
round@@
employs
sue
discharging
delightful
biennial
esting
endurance
Money
panda
OPEC
restrain
icable
tolerant
raid
pretext
perpetrators
cyclone
Beach
Key@@
declaring
dys@@
embarrassment
tidal
ota
Mom@@
schema
caffeine
endent
Kal@@
Gol@@
overlap
blossom
drowned
hepatic
entail
grum@@
ross
sweetheart
Registrar
ITY
mammals
shel@@
sewing
interpreter
scary
ANG
Envoy
accum@@
dialogues
Law@@
unpredictable
prayed
baseline
insure
miniature
Emily
piston
Front
gal
turbulence
parting
flourish
kisses
7.5
master@@
BR
altering
len
Marxist
arrears
telecommunication
freed
ellip@@
hec@@
Qatar
slump
treasury
cancers
character@@
associates
slender
genus
limb
rang@@
dos
flush
Dream
kite
Sophie
tiveness
displaying
Mari@@
ellers
piled
Appl@@
duction
Delegation
intra
aug@@
morale
hic
trou@@
entrepreneurship
canc@@
comrades
rying
mock
soils
visions
Campaign
Bun@@
Years
rison
prosecutor
shaken
injected
forc@@
derivative
Ellen
TP
Hun@@
stunning
rop@@
supplemented
solo
colli@@
geology
Outer
ity.@@
wolves
ador@@
multipl@@
COM@@
cus@@
lon@@
asters
gos
raft
underwent
Franc@@
adapting
testify
congrat@@
Kyrgyzstan
genuinely
inconvenience
NO
IQ
enrollment
narcotic
instituted
Mechanism
prepares
legislature
Trav@@
ouses
bricks
smells
Fox
hiking
terrified
patents
poles
Bot@@
cheer@@
NT
vibrant
signi@@
attractions
ud
deco@@
brighter
ordin@@
preferably
biomass
flung
lords
organizers
UNMIH
Miami
emulsion
princes
tex@@
Babylon
gazed
clues
suburbs
Nixon
exile
knocking
laun@@
sustaining
rub@@
Def@@
Rick
Grad@@
rebound
eminent
URA
yeast
mony
Marguerite
thri@@
demining
yin
noticeable
Lakers
LIMITED
molding
correspondent
ulator
Although
Bad@@
ul
Cel@@
Teacher
repetition
Domestic
modulation
daring
iest
ogram
loser
mechan@@
tides
exploited
walk@@
recycled
understandable
Multi
girl@@
boasts
applicability
contacted
ele
emia
e.g
analog
sweet@@
tracing
acqui@@
1971
dissip@@
uk@@
chop
FT
Xiaoping
viewer
dow
Xin@@
Xu@@
illes
solidi@@
peace@@
Programmes
anth@@
profoundly
approximate
milit@@
melody
Lar@@
alty
ambiguous
thirteen
grandparents
sunrise
symmetry
Mongolian
historians
worsening
hike
Bernard
sar@@
editors
mistak@@
contraction
Red@@
burial
fresh@@
Stadium
mountainous
feren@@
rip@@
Larry
Joshua
sludge
conditioned
necess@@
dividing
puzzled
ench@@
elephants
demonstrating
ingu@@
affiliated
Cantonese
postage
akin
senator
ores
issu@@
waving
abused
Re
Zheng
Thus
sap@@
seam@@
revive
scrip@@
Dialogue
Tell
aning
Burma
Logistics
Walter
fus@@
four@@
surviving
mouths
staged
connec@@
1977
Consumer
enrolled
mindful
nap
arrests
noises
civilizations
undermined
devised
introductory
viability
Game
halted
boast
Online
vinegar
cloning
sailed
marketplace
currents
dine
screaming
conveyed
unavoidable
candi@@
drums
commends
descendants
poets
IE@@
HR@@
nominal
agony
terminals
celebrities
wed@@
congregation
inverse
runway
realised
protectionism
ceremonies
clim@@
spir@@
Resid@@
elasticity
K.
chairmen
swallowed
chew
Ran@@
Ted
ather@@
enlargement
whip
nationalism
plateau
apper
Shaw
mother@@
coded
Fisheries
Mes@@
Boo@@
encro@@
rhe@@
9,000
Jing
Fab@@
slu@@
dispersed
endant
cafe
seabed
optim@@
199
parted
cep@@
sprink@@
é
resentment
cand@@
Secondary
alls
ope
irrespective
configured
Oper@@
fishermen
Slovakia
tram@@
impaired
monks
journals
incapable
eland
civil@@
Mechanical
topped
tentative
instrumental
vism
formations
personalities
indul@@
belts
Chu
C.5
commu@@
opted
subscribe
contingents
necklace
rob
Facilities
strained
vet
aden@@
separating
soared
cloudy
Lic@@
astronauts
tage
assimil@@
piles
pher@@
await
tab
.They
canceled
accountants
Yue
Trial
elevation
stripped
Cla@@
Hos@@
SM
malicious
isa
Combat
Rod@@
aesthetics
Primary
122
shoots
indig@@
fix@@
oo
adul@@
ESCWA
impatient
moder@@
precautions
exceedingly
chant
Tokelau
Sahara
ept@@
doorway
Illinois
vern@@
blin@@
Place
possessing
inters
markers
prophets
lure
tol@@
acres
Former
Compensation
doubtful
.This
erect
kee
profitability
skeleton
rumors
copied
breath@@
slopes
excuses
crow@@
113
ouch
butt
Xiao@@
torate
phosphate
bler
perish
Hong@@
millennium
ective
brightly
briefings
exploiting
spoiled
enzymes
veins
inqu@@
dreadful
arthritis
hay
country@@
Sundays
federation
intangible
nationally
Response
stringent
spit
motivate
vities
endured
Literature
turbulent
skiing
Gary
psychologists
mat
erie
conflicting
rels
inten@@
blasting
34.@@
furn@@
contempt
standpoint
emi@@
Newton
pharmaceuticals
ocular
methodologies
enumerated
bugs
overlooked
oling
MRI
wander
cosmetics
followers
youngsters
easiest
Port@@
expressly
ila
121
Conditions
coats
inhibit
trajectory
predictions
shattered
135
chair@@
H.@@
punctu@@
eurozone
Dep@@
racist
quen@@
wreck
Seattle
ede
tents
atical
PA@@
memorable
ning@@
situ
rat@@
staple
uti@@
substitution
superb
eligibility
temper@@
mourning
Ds
wetland
conserve
awoke
assassination
descri@@
Yale
fragments
Hague
Nothing
comprised
capac@@
pupil
obtains
narr@@
otype
insights
Properties
disguise
unjust
snu@@
stered
Low
stirring
pathological
Search
generators
intimidation
abruptly
162
foreseen
fool@@
proximity
gin@@
Anhui
bear@@
Dou@@
haul
compul@@
sings
airing
performers
Industries
dialect
militants
resh
opportun@@
sured
spring@@
Morrel
thick@@
slogan
iter@@
accessibility
Jupiter
levied
commemorate
designation
Determination
cen@@
Patrick
desolate
ducks
ference
una
microstructure
43.@@
ghua
critically
eternity
honey@@
fabrication
30.@@
ano@@
wash@@
reside
radio@@
aerospace
bids
manship
presses
inexpensive
dominance
brow@@
boosted
strokes
vaccination
hopeless
justi@@
globalisation
GR@@
Vehicle
hunters
chef
Ling
rented
begged
sque@@
overly
oppression
instructor
cookies
headlines
Person
@
Gold@@
altitudes
70@@
deem
Effects
b.
thir@@
inject
unanimous
clas@@
Intel
gee
canvas
Confucius
considerate
dough
advises
obsolete
horns
Arms
anes@@
Living
lame
convertible
Processing
L.
congestion
Hope
throws
Shenyang
widen
ribbon
posing
Kwan
anticipation
commensurate
icks
wildly
MR@@
complication
examines
UF@@
multiply
parental
Optional
donate
precedent
theorem
inflationary
thed
33.@@
republic
lethal
greed
aft
countenance
muff@@
awn
wom@@
pli@@
neurons
vegetarian
sleepy
projec@@
wavelength
ness@@
progressively
ming@@
aroma
herb
accommod@@
ECOWAS
ishly
bis
Engr
Detroit
erous
compressor
Arti@@
Kid@@
Institutions
computational
puppy
smashed
Matthew
invasive
Advanced
big@@
kinetic
&apos;s@@
glanced
Pil@@
tow
casing
paper@@
Intelligence
ask@@
Rehabilitation
Lai
Read
misleading
Kashmir
pros@@
ago@@
dict@@
cell@@
bum
rite
tings
lotus
engages
redundant
IFOR
Good@@
picks
tails
cereal
sculp@@
tag@@
tooth@@
ello
undertakes
Bar
reimbur@@
Yeah
Mayor
Dants
quicker
Tru@@
clarified
dusk
Liaoning
stressful
cer
NE@@
courageous
wept
Rog@@
rewarding
feminine
summoned
spared
Ninth
beforehand
GS
disregard
Tao@@
scripts
impede
Arizona
Rate
ordination
fi
musician
annoyed
socket
Lat@@
raw@@
reconsider
PO
Cou@@
Bishop
additive
Socialist
lace
MP
1,0@@
surfing
embryo
IVE
lucrative
rebellion
Wel@@
CER@@
ODA
sketch
tracked
professions
fragrant
purpos@@
hindered
quarrel@@
oxy@@
conservancy
hip@@
patriotic
schem@@
proprietary
IPO
Kwai
importation
Stewart
NGO
leased
slag
invent
computerized
indefinitely
iniquity
moon@@
unaware
explosions
Terry
me.@@
innov@@
biography
ode
phy
distor@@
tranqu@@
stic
discouraged
backwards
lime
Rue
atro@@
bow@@
allocations
Link
unremitting
celebrations
pandemic
responds
Gon@@
Bra@@
ital
stained
reproduce
Procedures
mountain@@
chromatography
Hut@@
brac@@
vowed
erup@@
opposes
rods
take@@
thorn
veil
tapes
Tari@@
common@@
fundamentals
OL
mons
variant
requisite
condemnation
aux
sprang
1.6
fif@@
insi@@
stit@@
cum
distinctly
exchanging
40,000
discloses
Nelson
Tam@@
Trad@@
Bay@@
decorative
scarf
bitterness
arer
leng@@
cop
sober
Zh@@
Merc@@
whales
fluent
alter@@
halls
microscopic
dale
catches
crab
Sor@@
hydrox@@
sway
tox@@
fear@@
test@@
idiot
indicative
even@@
authoritative
Opening
pulls
bald
furnish
spot@@
foun@@
kidding
Jennifer
Back
switches
peac@@
embark
deduction
scream
Jan
IST@@
omer@@
favored
nucle@@
changeable
Guizhou
Brow@@
melamine
chimney
hob@@
Beckham
bour@@
--I
epic
vanity
stere@@
denom@@
isol@@
Suzhou
gut
merged
zip
1.8
unused
endo@@
esh
bos@@
affirmed
immunization
pneumonia
hydrocarbon
kit@@
underline
entrepreneurial
chatting
sist@@
Tit@@
cies
wait@@
FBI
Dubai
Rule
glim@@
Tem@@
crystalline
whir@@
essive
obli@@
refining
pitched
Groups
borrowers
caps
translating
Blood
fain@@
intersection
enshrined
amplifier
disposable
irreversible
dependency
ceas@@
outbreaks
Directors
frequencies
restrained
awaited
ician
brook
disrup@@
Neil
Proc@@
Intellectual
advisable
Airlines
bounds
Xiang@@
phosphorus
monopol@@
luxurious
acknowledges
astonished
Hur@@
Las
blogs
iller
representations
striker
Hubei
children@@
hy
blockade
dra@@
alliances
chin@@
fetal
cultivating
fort
ener@@
Bird
clash
6.5
fares
MTR
shoul@@
pneumatic
defendants
Contractor
DE
flip
terrific
blades
Tsim
xenophobia
CAD
Nu@@
wrapping
aggressively
Zi@@
gaming
humankind
mo
cosmetic
localization
oxid@@
35@@
receptor
semi@@
moonlight
carbonate
sounding
acle
Improvement
verge
fats
electrons
ratify
intrusion
Ari@@
ted@@
Lo
shorten
flex@@
Boeing
buddy
idated
ARY
IES
endorses
sag@@
mobilized
bishop
PolyU
legisl@@
melted
Scottish
Osaka
Principle
Reading
rosis
atization
aving
UNIFIL
murderer
alas
assed
domination
taxable
titanium
elessly
Montreal
confidentiality
outdoors
ece
readings
grandchildren
inventor
conditioner
requ@@
16th
weld
par
blue@@
exhibited
ially
accreditation
aliz@@
moul@@
irrelevant
acquainted
worthless
TB
Barbados
tasted
tougher
Punishment
sorting
TRAVEL
porch
Through
contradictory
mills
aforementioned
ood@@
sow
diabetic
ensis
Statute
flowed
Le
forec@@
reversal
differs
Laws
Christ@@
WMO
arouse
kidn@@
ceramics
herbal
joyful
arent
it.
Bou@@
fights
Jac@@
behavioral
barred
additives
illnesses
expounds
corrective
tak@@
ERS
disciplined
siege
emails
pub
afflicted
clustering
surround
steel@@
deteriorated
mustn
deduc@@
Suc@@
ote
musicians
ive
deter
inefficient
dic
collaborate
assay
aristocr@@
demonstrators
needn
analy@@
ret
Block
succeeding
citing
Direct
Total
speculative
theyre
Hans
Bond
sailor
breadth
guil@@
folds
moderately
residing
resid@@
Greg@@
Biological
Efficiency
secrecy
Ow@@
shoot@@
Drouet
sailors
congressional
cau@@
scourge
gestures
evapor@@
backbone
Over
more@@
expounded
cholera
confusing
yle
Su
Facility
dissolve
Mo
posterior
tasty
enclosure
trans
albeit
domains
U.K.
stly
tunnels
commanders
mantle
ratt@@
counsel@@
Pentagon
imaginary
fabricated
hampered
sket@@
inflows
Understanding
discomfort
weighs
marker
excavation
smoked
Jer@@
nings
announcements
unsuccessful
.B
snapped
fit@@
configure
Arnold
plaintiff
ake@@
Malawi
expedite
BT
Tess
rationally
practising
armaments
owes
audi@@
glori@@
preferable
conveniently
journalism
GATT
blonde
god@@
mails
delivers
Reference
tled
Prof@@
suburb
King@@
1945
Maybe
chro@@
chap@@
assing
uniformity
Cle@@
fluids
endeav@@
smar@@
shave
finalized
pests
excessively
entation
watering
Jur@@
tendering
imitate
alis
defer
slum@@
subscri@@
iny
arisen
fum@@
pest
typ@@
tossed
Romans
Ide@@
harmless
pollen
validate
func@@
adhesion
warns
stray
ira
directing
proficiency
paints
ais@@
heightened
Marshall
mortar
fall@@
Fi
gla@@
backdrop
prevailed
Cul@@
renov@@
arrogant
ll@@
regul@@
crafts
animated
Haz@@
EL
Respon@@
metry
conspicuous
XI
distorted
guarded
calamity
hesitation
----
Robin
mono@@
eigh@@
diagnose
odor
ONE
endor@@
digestive
hooked
Guo
Principal
Tour
maize
masks
Technologies
gardening
typhoon
hearings
Chuck
Dist@@
disparities
Motors
repression
Double
Jos@@
ini@@
icating
retri@@
conditional
dude
Rho@@
Organiz@@
Chil@@
elli
tuning
workflow
sus
Whit@@
essed
assists
Procurement
ials
Publ@@
unsafe
lead@@
strips
underwear
valleys
ffic@@
Lantau
shines
navigate
enger
gling
Clo@@
balcony
Laden
Gate
hangs
isolate
nut@@
&apos;no
Shirley
Leg@@
sparked
Rud@@
diag@@
improv@@
abol@@
proudly
instruct
Nic@@
Cover
box@@
450
publishers
immortal
Corporate
flaws
expec@@
spike
Nicholas
e.The
ATE
interrelated
spectators
rubbed
Both
specimens
cheng
speak@@
bonding
Constitutional
dormitory
ecting
Daddy
2.3
Liang
arrows
provoked
upgraded
insurers
Protec@@
streaming
pearls
dless
cellphone
Image
arers
quotes
inorganic
secre@@
transporting
dum
Very
Stu@@
turn@@
respectable
Bell
CHP
subscribers
distribu@@
stool
CAR@@
precondition
1961
Wind
niche
vial
advent
hates
sung
och@@
Johnny
too@@
Corp
generously
angel@@
classi@@
Incre@@
EPD
bulletin
hose
avail
mei
ym@@
hamburger
pasture
snakes
pivotal
eld
bookstore
Buil@@
fish@@
extracting
maiden
ken@@
entertaining
wrong@@
Matters
Clinical
tempered
parked
Material
computed
classmate
Hang
incremental
Julia
Ret@@
uttering
nozzle
idol
beg@@
Being
swam
perfec@@
corpse
sacrificed
digestion
Leung
rel
ury
gateway
Fri@@
piti@@
Mogadishu
prefers
Mass
onation
rough@@
roadside
resisting
oda
indices
Regi@@
strangely
handkerchief
abdomen
rotten
Keep
Consultation
dosage
pollutant
Philatelic
Gazette
undesirable
12th
27.@@
Diego
een
squeezed
aires
157
Leisure
bis@@
distressed
desp@@
Ex
inflicted
129
handwriting
mun@@
hastily
prosecute
outlines
ONUMOZ
scroll
rupture
CNN
antique
congenital
bounded
nis
ridden
39@@
Nation
discounts
Spo@@
elu@@
Brad@@
ense
streamline
contend
aus@@
Hear@@
tensile
roar
Ce
Colorado
bicycles
Gallery
poetic
udge
infarction
Provisional
chores
Ps
downstream
Mississippi
onian
heal@@
kicking
abom@@
evenings
Distribution
savage
MDGs
uncovered
diets
hui
Eritrea
UNTAC
confession
De
mergers
hemorrhage
56@@
disappearance
ault
ected
MC@@
disrupted
Phoenix
stiff@@
mean@@
line@@
thunder@@
awe
Words
zen@@
Term
outdated
algae
tectonic
External
euph@@
&apos;If
connects
radiant
ui
din
compose
packaged
Ray
UNCITRAL
tful
whichever
Super
sexes
Call
spicy
TV@@
coefficients
rectangular
exceptionally
myocardial
rim
thly
color@@
culmin@@
comprehend
collects
tactical
neur@@
Rain@@
Produc@@
despise
exter@@
Aristide
cloak
Loan
14th
influx
adolescent
empowered
breast@@
icker
etry
Pel@@
abrupt
icing
totalling
Revenue
vy
Holmes
moth
rotate
incar@@
IPR
audits
eter
astronomers
Lou@@
fading
teenth
10,@@
cheers
ept
Play@@
ringing
suff@@
betrayed
willingly
grou@@
fli@@
teamwork
Terms
yness
cus
predicts
mia
cocktail
Traditional
Annie
ulted
maths
shut@@
bronch@@
Organ@@
2015
ary@@
conquered
ECB
Add.@@
ALL
126
warrior
levy
avoidance
Symposium
raz@@
leness
PS@@
Fran@@
gad@@
story@@
Impact
regi@@
slang
learns
max@@
aces
starvation
CR
2020
1965
app
Yong@@
vie@@
MD@@
Africans
naughty
deliveries
NP
artic@@
assistants
cupboard
Without
six@@
tags
escort
heir
Weather
dances
gifted
relocation
dest@@
hobbies
theor@@
revival
champagne
Stanford
Naz@@
1.7
Indigenous
G.
randomly
metabolic
WOR@@
hourly
Desig@@
combinations
zen
costing
goddess
moist
closes
manuscript
recover@@
bounce
Fire@@
Never
lean@@
homogeneous
redeployment
patiently
aste
conceivable
dismissal
Greeks
37@@
longevity
elia
concentrating
dismiss
Exercise
rubbing
glove
ts.@@
shortest
Subject
、
fuse
inclination
dams
Hygiene
Bud@@
Transportation
yo@@
Olympi@@
34@@
defe@@
oke
struction
descend
similarities
Hitler
Governmental
olig@@
Version
expedition
Aligned
mediate
opathy
whist@@
Requ@@
devastated
terr@@
Madam
scarcity
underway
intercourse
Pul@@
patriotism
tut@@
inlet
bypass
esc@@
Telecom
Saddam
aforesaid
decrees
weeping
Viet
Different
longitudinal
dou@@
Car
premiums
intrac@@
paraly@@
Carter
LL
browse
fair@@
TE@@
newborn
jurisdictions
pleaded
Phil
Apollo
Israelis
HPLC
handbag
Roberts
diversify
Belgrade
Schools
Emirates
comer
antibody
RD
fellowship
suck
Mah@@
mini@@
admissible
lesions
factual
230
HKU
acr@@
forefront
diminish
Experience
ly.@@
lifts
iner@@
Lithuania
Orig@@
commerci@@
knives
Terminal
partisan
Dean
Stre@@
servo
Linton
Medic@@
salmon
alkali
infrastructures
robe
intox@@
Thanks
ip
abolition
indictment
footsteps
violet
pronounce
Tsing
enly
rati@@
elet
Halloween
Regulatory
Steering
Wal
ineffective
lar
Dog
twink@@
Holland
messenger
evaporation
penal
bump
plunge
gymnastics
forgetting
conductivity
Prohibition
disgrace
architects
debugging
headline
waits
Disabled
Current
NA
daw@@
Bennet
addicted
revit@@
packs
perpetual
siveness
milling
postoperative
220
hang@@
fro
ammonia
chopsticks
transcript
psychotropic
drastically
embol@@
redress
solitude
plots
coffin
toss
quasi
virgin
lowers
enge
bureaucracy
UNTAES
slack
otropic
Venice
discour@@
realism
collec@@
cn
communic@@
cylindrical
13th
145
nicely
Ka@@
intensifying
N.@@
rash
anders
Cour@@
clicking
ballet
Program@@
clusion
navig@@
misuse
wisely
groove
estates
1968
harb@@
Help
uity
pointer
needless
crisp
irresponsible
muscular
hemisphere
Chancellor
Box
subprime
aise
diplomat
chiefs
refreshing
pretended
25,000
Nokia
carving
Marriage
breaker
Benin
Py@@
&lt;
lawsuits
phased
Lunar
terrestrial
pretending
cham@@
indefinite
depreciation
scarlet
Nile
Andrey
place@@
fastened
shocking
dusty
opia
ulates
artificially
tapping
fringe
immigrant
tricky
inventories
aisle
unclean
irrational
spectacle
360
feder@@
Yun@@
Mae
hierarchical
harmed
atio
Monsieur
rement
vt
restless
unmarried
Cambodian
reactors
pathway
warmed
ert
Animal
Collins
liar
shelters
header
bothered
Coal
unrealistic
cooperatives
pers@@
15,000
confuse
Fine
greedy
voiced
circus
sever@@
folding
initiating
surged
Controller
stric@@
aun@@
Camp
warrants
Ton@@
overs
lett
Pin@@
accords
trusting
Next
Conserv@@
roof@@
ida
tenant
icts
inhibition
salvage
manipulate
ICSC
pyramid
refine
converting
analytic
133
undue
discriminate
Nar@@
Dallas
medieval
uniformly
imprisoned
succ@@
wretched
stine
biased
differentiated
accoun@@
guarding
measles
Jie
concession
3.2
revolution@@
Pap@@
cutaneous
Tajik
disseminated
stalk
plex
extinct
veterinary
vert
respectful
miracles
Fiji
hardened
ipper
evol@@
lanes
nurture
embodies
anesthesia
timer
slid
orthogonal
shu@@
124
bribes
hex@@
biochemical
happ@@
pp@@
127
essness
hog
diligently
baff@@
correctness
messaging
praying
1964
resembles
battered
FP
38.@@
roman@@
hind
ellular
bargaining
helmet
emental
bang@@
eclipse
Armenian
fluorescence
swir@@
advising
obeyed
cocaine
PT@@
oscopic
Jay
passages
listener
damping
Advancement
jin
bureaux
Cao
132
reckless
replication
ami
claimant
HT@@
alley
cradle
Diag@@
plea
eldest
End
bets
lightweight
Nike
perfor@@
dim@@
reluctance
Electronics
cannon
astonishing
Isaac
swore
cabbage
Papua
homogen@@
Engineer
cherished
computer@@
bund@@
negotiable
cult
importer
cens@@
wav@@
Eng@@
curricula
supposedly
hysical
airborne
event@@
mama
plantation
dire
wi
CB@@
Lawspirit
Tea
daytime
escal@@
tren@@
xy
airs
nineteenth
expelled
Champions
&apos;should
Es
Characteristics
salute
SR
rell
Corps
decorate
Ryan
rationale
overlook
repository
Rwandan
poised
hairs
dementia
38@@
exaggerated
cian
abolish
Luke
chewing
polic@@
swung
Albanian
wrinkles
Arusha
isms
141
predominantly
guideline
alleg@@
procuratorates
tapped
agen
pac@@
scep@@
clutch
talk@@
rejuven@@
strengthens
Paragraph
assemblies
Edison
therefrom
Sn@@
revitalization
composites
colonies
bolster
aments
reclamation
Satan
inged
Payment
laborers
shes
want@@
generals
ulu
indoors
blackboard
twilight
Egyptians
contented
intellectuals
Gansu
surprises
thy@@
patented
Euro
wasnt
bidder
Additional
glo@@
WSJ
eddy
Exam@@
acknowledging
ady
recur@@
Source
confl@@
dictate
NG
distillation
graphite
tread
stimulated
pilgri@@
Warner
mailing
fractal
conferred
Flight
adhered
wart
H5N1
prestigious
atom@@
Anglo
provoke
correcting
preced@@
secular
Ji
collo@@
achable
hamper
cup@@
syntax
Austrian
ressing
hostess
ripped
catastrophic
protec@@
harsh@@
clashes
juncture
HE@@
pies
acad@@
ressed
carbon@@
Theatre
Citi@@
spouses
leton
scholarships
characterization
emin@@
quer@@
plu@@
revoke
elev@@
durability
Tan
invaded
remittance
offend
exten@@
copy@@
differenti@@
oud
Nob@@
SQL
ograph
breaches
landmines
PM@@
jewels
motors
lia
001
Congres@@
lenses
tent@@
omer
ph
embar@@
Supplement
herds
CP
insane
alog@@
annum
begging
rectify
Workshop
nursery
manifested
compounded
Beth
grandson
skins
away@@
Citizens
streamlining
blueprint
thyroid
glowing
cohesion
ivory
ACE
Page
liz@@
traps
rene
Reports
spark@@
seam
cris@@
Kyoto
thin@@
angular
executions
sound@@
microcomputer
rot
dit@@
peanut
138
gears
removes
fullest
Video
ventricular
filtration
Jacques
affirm
interruption
Poverty
syndic@@
eties
anning
blunt
T.
orable
hong
oblig@@
Overseas
etiquette
moratorium
ether
assert
cere@@
pistol
validated
veness
tip@@
compensated
publicize
OAS
agile
3.3
Med@@
sorties
marched
lumin@@
sk
beauti@@
jeopardize
ius
strati@@
mou@@
Contracting
Enforcement
drowning
idiom
Cooper
impedance
present@@
modifying
massacre
blindness
yea
spherical
underestimate
bizarre
inventions
physicians
intentional
Nazi
erected
circul@@
chorus
gaz@@
pinch
olution
insomnia
Zedong
Russell
annexed
itive
yelled
POR@@
ilt
Heat
Pay
confirming
i.
trustworthy
Twain
p.@@
interregional
dish@@
occupations
Imperial
disparity
45.@@
crushing
magistrate
elegance
reacted
gallon
advertised
lodging
WC
negligence
contention
Ning
deceived
buo@@
waitress
6.
chromosome
trainer
anguish
stark
trusts
Item
directive
212
Copyright
Listing
grind
affirmative
classify
launches
fice
Hello
fridge
M.@@
entre@@
microbial
shades
arc@@
Jiang@@
refu@@
embody
pursuance
aero@@
smith
liking
probes
naming
Peak
Cos@@
recap@@
noun
sightseeing
1,200
establishments
constituting
gazing
orphans
240
nay
89@@
disintegration
banning
Work@@
ja@@
hailed
Roy
OD
exacerbated
3G
headaches
ras
louder
cheated
pornography
microphone
Single
scissors
piling
cite
cyber
emer@@
Darwin
wea@@
flaw
ema
plainly
Munich
violently
Delivery
Fa@@
BL@@
su
behaved
Dell
led@@
basins
startled
diploma
portr@@
Gard@@
reciprocal
spraying
Problems
Palau
Certification
appra@@
Tiger
propri@@
preceded
indulge
Silicon
angrily
jection
facilitates
grin
compartment
thrill
fasc@@
swal@@
admi@@
exer@@
Ye
uals
Mali
demolition
Moore
Identification
neighbour@@
155
wherein
Bryant
neutrality
axe
infect
deception
Warren
Chad
Map
aller@@
cation
Fogg
Jessica
upstream
Alexand@@
jets
ackers
Promoting
Hi@@
flashing
VC
existent
pathy
dancers
RS
Better
tility
recycle
Clear@@
emen
separatist
labeled
fluorescent
crept
Lawrence
problem@@
distingu@@
embro@@
Wood
Les@@
digest
wouldnt
gospel
mar
endemic
ing.
impairment
temp@@
Composite
foregoing
moment@@
att
fang
perpetu@@
Tut@@
Coke
stabilizing
bolts
solemnly
Flu@@
Anderson
gladly
warriors
ICT
biotechnology
gravel
plain@@
Cameron
ginger
hyster@@
hydropower
jud@@
Wit@@
sensory
expands
itory
migrate
essing
diarrhea
stin@@
hitherto
enlightenment
Herbert
wild@@
breakthroughs
Virgin
comrade
reper@@
adventures
Fung
dissatisfied
capillary
reset
ATM
sponsorship
Bao@@
bodily
Patients
unequal
constituents
depl@@
snail
paradigm
Graham
repatri@@
Poor
chu@@
writings
Beauty
crap
topology
reef
Levites
slab
youthful
gren@@
salty
foodstuffs
saint
deems
Agreements
intuitive
Surveyor
tying
Ang@@
nephew
hour@@
destabil@@
Physical
icky
Elderly
Plaza
imperfect
graphical
Tommy
XP
table@@
allied
Angela
exhaustion
Reli@@
dragging
river@@
exerted
debated
yan@@
Ice
Situation
39.@@
convers@@
chir@@
stretches
&apos;am
resis
passports
lil@@
rides
fasten
OPS
tee
warranted
teller
Verification
Compu@@
SIDS
revelation
Treas@@
latent
dyeing
tants
retailer
setbacks
usher
12,@@
Chiang
rained
ske@@
lot@@
ballistic
truths
tailored
adju@@
estimating
pleasures
otted
oney
IE
Petroleum
sci@@
migratory
famili@@
nell
neatly
Back@@
refresh@@
veget@@
1950s
deduced
Interior
beware
olutions
oric
excre@@
bewil@@
slides
confron@@
assigning
calf
healed
Football
invoked
PH@@
hoods
overhaul
500@@
tendencies
mirrors
tighter
crip@@
sibility
Pay@@
divides
hab
plains
inseparable
ogue
equip
MR
analogy
Highway
shepherd
Marie
scol@@
Algorithm
rever@@
deteriorate
ova
ator@@
vault
strap
conscientiously
pioneering
forensic
gest@@
fraudulent
trainers
stroll
tumbled
Rico
Ball@@
gil@@
undermining
Ok@@
Certain
Iraqis
geon
tized
differentiate
canned
gigantic
aes@@
ime
Governors
Maur@@
solves
scientifically
ers@@
erly
Ralph
brisk
Slovenia
Grand@@
organise
idols
toil
Ker@@
soak
los
progression
reflective
outright
cyto@@
regrettable
whereabouts
gars
omni@@
Argentine
activist
spotlight
MAN@@
Memorandum
erase
reconcile
Joan
concur@@
granite
shi
circulate
bans
abstr@@
workout
signatures
hare
Floor
English@@
oft
straigh@@
nutri@@
morals
lapse
USE
resi@@
fries
hen@@
patches
213
aren@@
obstruct
cemetery
DD@@
3.1
illustr@@
imagery
ulcer
beverages
multic@@
compositions
proof@@
lumbar
bell@@
consignment
you.
clut@@
NT@@
deepened
passions
fronts
yu@@
Charlotte
on.
manufactures
mos
Duty
cum@@
yon
Rot@@
Pet@@
etr@@
CIA
stereo
wer
TD
Satellite
&apos;at
fishes
......
unilaterally
refin@@
sper@@
divert
approximation
strat@@
historian
technician
snor@@
urinary
Requirements
apparel
anted
adaptability
wartime
hij@@
bites
militant
workable
plum
urable
Sale
Entry
quad@@
Khan
assertion
iso@@
intro@@
emit
onin
prompting
swollen
fascinated
dashed
unsatisfactory
mati@@
meteor@@
drum@@
wardrobe
compiler
councils
satisfactorily
uries
Wide
localities
setback
sadd@@
acne
caves
bleak
Does
tilt
fuss
Happiness
climatic
IEC
swee@@
cooperated
Shen
Vladimir
Jun
betr@@
hist@@
Sou@@
153
tonic
spilled
Cont@@
havoc
brigh@@
indiscriminate
iti
maneu@@
Chart
benefiting
hints
indu@@
SI
budgeted
fin
humorous
fec@@
cortex
147
heterogeneous
chr@@
health@@
zo
floated
alumni
Owen
endowed
glycer@@
ferring
wrought
intuition
Release
desc@@
regrettably
Was
excit@@
utter@@
eus
ECTION
apoptosis
wrest@@
vern
LCD
follow@@
abbrevi@@
itous
calorie
blues
Anniversary
impending
medications
136
erce
forbid
bearer
keted
earmarked
month@@
ict
nbsp
pod
bikes
GP
hao
gram@@
Far
Well@@
alkaline
nois@@
ower
invoke
AE
roommate
view@@
Thou
chemist
informing
151
inser@@
frogs
youths
woe
Ie
Yong
betting
lem
antic
Cabinet
ones@@
lings
abode
flora
gel@@
participatory
persists
Perhaps
158
conciliation
Tong@@
cardboard
bon
Hung
Boat
rol@@
calmly
precarious
Wayne
broadcasts
femin@@
rebuilt
ONG
principally
Hot
temperament
WA@@
Testing
ideally
denti@@
invari@@
sociology
fantas@@
franchise
bully
137
butterflies
Robinson
Ah
agro
blending
auditors
sover
friendships
annexes
Nathan
costumes
photographic
match@@
ghosts
overthrow
IONS
Alber@@
Claus
hips
Hot@@
ularity
ROM
ycle
Honduras
Philadelphia
anticip@@
permissions
conve@@
folly
jan
questionable
communal
electro
cornerstone
moun@@
vings
gur@@
pheric
cocoa
cosmic
Democrat
resolute
grounded
ishable
nod
ephedrine
periodicals
locating
atis@@
Hop@@
Hussein
chalk
ateral
trem@@
potentials
cyclic
asa
hus@@
windy
idate
fei
Departments
encapsul@@
disseminating
colon
arities
weaving
lever
Doppler
aggravated
liquids
capitals
pag@@
basics
frightening
pact
cruelty
weave
appren@@
obsessed
registr@@
refresh
User
sunk
pottery
frow@@
time.@@
Andrea
Angel
Associ@@
overload
1948
rinse
affor@@
alg@@
Anthony
edul@@
origin@@
eccentric
awakened
Electr@@
joys
Noah
proactive
Dum@@
alternatively
fisherman
wired
shorts
qual@@
excitation
slain
Pension
prostate
mb@@
beggar
swell
complementarity
heavenly
KB
deline@@
unfamiliar
facilitation
Taxation
deadlines
tabl@@
Jedi
belongings
OSCE
idating
CPPCC
transgres@@
Samsung
narcotics
dealings
Us
Si
itting
sterile
counseling
sufferings
distinguishing
Parks
Arrangements
yeah.
demise
penetrate
Exc@@
Victor
thank@@
bursts
democracies
enactment
sulph@@
Associated
excell@@
Asi@@
Server
arteries
Cho@@
mating
Strait
Tak@@
ensee
Ch
Commit@@
LED
UT
Making
tack
seri@@
deducted
stalls
coli
Voluntary
prescri@@
practised
format@@
strategist
ricular
physic@@
dignified
CEPA
Stockholm
Objec@@
maj@@
182
crews
footage
autism
scaling
emerges
singles
rationalization
vested
naive
recogn@@
nap@@
pandas
dwarf
mosquitoes
Live
processors
uss
attentive
upheld
login
seaside
IMO
specializing
ishan
oxin
authenticity
Lyn@@
God@@
eleventh
grazing
guessed
impres@@
gos@@
Bow@@
Prote@@
thermod@@
infusion
linguistics
1963
2,500
hostages
44.@@
Medvedev
reformation
assembling
cooper@@
moistur@@
fetched
ologies
shud@@
Orleans
newer
Gang
Wars
thec@@
Rat
promulgation
Relationship
custo@@
wee
Large
gravely
Golan
concerts
aval@@
depres@@
detached
ss
WE@@
henceforth
relativity
vious
onion
sly
holistic
rol
Stearns
bitterly
Auto
EF
secon@@
Chernobyl
objec@@
align
conduc@@
Taking
thes
corresponds
acceler@@
corridors
edness
culation
flavors
bacterium
vacc@@
highs
Teachers
crawl
graph@@
install@@
peptide
barren
Os
intellect
fourthly
Chow
captive
intern@@
anew
suc@@
seventeen
ignition
wee@@
registers
radically
lam
URE
chun
Gun@@
agers
IMIS
continuum
Zeus
welded
tasting
honeymoon
stochastic
intercep@@
upholding
surpass
MT@@
paration
highlighting
complicate
unsustainable
builders
tains
Oriental
linger
Matt
stamping
crow
uated
dazzling
ml
antic@@
Chro@@
apolog@@
reproach
Rochester
ader
genre
breasts
Vit@@
modelling
Natasha
pat
mass@@
centrally
confiscate
timid
Boy
oshan
Chairperson
exemplary
listens
stamped
bucks
prose
pessimistic
oria
Advis@@
mum@@
Nicolas
postgraduate
deficient
confessed
iel
chunk
vide@@
grasslands
ennial
Protocols
educators
orchestra
haircut
versatile
plentiful
Had@@
unresolved
fleeing
Clu@@
motto
millionaire
embodiment
RNA
Integration
BY
ambiguity
pathetic
specifying
metropolitan
appropri@@
PV@@
Mining
delu@@
distrust
classics
verte@@
dedicate
wig
hmm
oti@@
Canal
waterproof
sweets
pier
mus
rend
deter@@
mastery
necessities
typed
Draft
stagnation
nity
adop@@
remembrance
ession@@
apo@@
thetical
shores
CV@@
problematic
ror
barn
Manual
me.
DR@@
ais
admirable
illuminated
Yet
polyester
rehear@@
denies
Ferr@@
thum@@
aperture
Harris
alcohol@@
headmaster
subsid@@
presumably
burger
smash
continu@@
slow@@
Carlos
tann@@
overlapping
pack@@
grouped
PF
ima
slippery
reflections
repro@@
sea@@
Purchase
CH
founders
tipped
156
restart
telegram
lobe
Full
sedimentary
infringing
5bn
graphs
uniquely
sie
suction
therm@@
astr@@
hale
centi@@
TRA@@
palate
Vocational
heter@@
pseud@@
spam
robber
edged
etes
DO
keting
swimmer
summed
harvesting
consequent
transmitter
1952
appropriations
fail@@
what@@
Pole
mega
indebted
elong@@
Mandela
Sister
pictured
incre@@
isions
Peri@@
camel
lier
affixed
disturbances
clamp
dark@@
cashier
budgeting
tices
informative
sluggish
Bingley
prefecture
dious
whites
icians
embracing
len@@
eter@@
NS
unpopular
mint
knight
chal@@
Origin
innate
derives
Progress
WS
standardize
thriving
neo@@
grasped
boycott
distracted
marty@@
Ling@@
accessory
cock@@
cursed
Fal@@
casino
compromised
Sent@@
supporter
urer
father@@
mercenaries
blossoms
saturation
Database
individu@@
Bron@@
CARICOM
sements
Sheung
Pand@@
referral
icons
Robbie
mium
sley
alin
enormously
plasm
adequacy
vap@@
hr
suburban
screws
casualty
sulfate
Jab@@
enh@@
umin@@
Jennie
quotations
bananas
irregularities
Qaeda
iteration
nicotine
about@@
integer
emitted
ority
wheelchair
irony
wandered
Derek
practic@@
right.
spacious
sails
hatch
handicapped
electroly@@
sentiments
Accords
surf
Castle
bait
endangering
kov
programmers
infringe
Hai
XV
jec@@
&apos;t@@
jewellery
Aunt
ally@@
parall@@
enclose
desks
Shaanxi
hud@@
onate
hasty
Lieutenant
425
Lester
fearing
rap
seawater
bill@@
dizzy
Arabs
inval@@
soothing
ethic
1.9
dripping
FD@@
Formation
Jericho
JIU
grin@@
genome
washer
HTML
88@@
Mode
Ref@@
sabotage
promp@@
experi@@
nod@@
Judiciary
flashed
academia
prop
graduating
Entertainment
enlightened
metadata
tenderness
Quali@@
conforming
prospec@@
guar@@
implantation
boundless
panor@@
rift
recruits
seepage
planetary
epit@@
obe@@
framed
coaching
performer
Maryland
corps
Deutsche
Alzheimer
discovers
Wherefore
hoe
extracts
Ng@@
PCs
Scienti@@
tutor
Arrangement
cle
INTER@@
peel
heartfelt
pixel
rumor
Azerbaijani
jun
captivity
ers.@@
compute
Raf@@
shaw
Diffe@@
Kobe
web@@
37.@@
Vancouver
backyard
tainted
inertia
152
5.5
abr@@
anec@@
food@@
appropriated
ranged
commercially
ICE
solicited
Timothy
mailbox
az
molten
revert
Postmaster
Xin
versa
Sara
Britons
simulating
dictatorship
understand@@
ig
omatic
Dark
amic
Conferences
gin
intimacy
LAN
pumpkin
Koreans
Surve@@
afforded
roster
slipping
king@@
believers
enrolment
TP@@
philosophers
splash
las
deliver@@
Oliver
creator
genetics
astronaut
List@@
achiev@@
Reagan
rum
weak@@
achieves
tortured
photocop@@
687
syrup
invitations
pric@@
differing
airy
Torture
infiltr@@
protested
omen@@
bacon
objectivity
Barclays
Normal
patrols
avenue
iz
dubbed
anic
API
mechanic
woes
1959
academy
registering
methyl
tend@@
havent
gold@@
normalization
chased
disguised
borrower
ingr@@
tempting
angled
Alfred
visi@@
roy@@
amy@@
handler
lars
surging
olate
Lenovo
append@@
champions
unloading
artifacts
stati@@
Girl
crosses
conforms
flute
32.@@
honors
postpon@@
zhi
55@@
adhering
jing@@
entails
counters
ced
Vatican
Chan@@
Douglas
humid
Abkhaz
prolong
brink
labs
Meth@@
imaginative
Botswana
Buff@@
5000
142
expulsion
paved
&apos;there
gov.hk
antibiotic
tractor
relentless
prefectures
coincid@@
Appointment
Brad
worldly
commonplace
jurisprudence
unforeseen
foreground
Electro@@
trumpet
stat
protracted
pins
darker
Lakes
pron@@
haun@@
unrelated
Edinburgh
resisted
dolphins
demon
Du
ayal
ockey
specialization
Hi
grassroots
eiving
60,000
spectra
Kor@@
trainees
Ombudsman
humility
suppressed
Lower
oscopy
recordings
dishonest
inde@@
ptive
weal@@
Guang@@
flash@@
dwelt
dynam@@
internship
grac@@
outreach
tity
alogue
LegCo
wet@@
marvelous
Temporary
Tel
impair
cultured
penetrating
polluting
evacuated
Astr@@
simulations
accessing
anyhow
John@@
SON
Thompson
functionaries
quartz
mob
electr@@
biting
bursting
Melbourne
Pass
illary
Ukrainian
withdrawing
orph@@
7.
precursor
Rmb@@
jeopardi@@
Squ@@
engineered
spacing
apes
terminology
crowned
ropes
doubling
gamble
ounder
Adv@@
haired
advertise
fo
irre@@
conversely
Website
Individual
staircase
IF
alphabet
soaked
stants
encounters
peculi@@
hides
foreseeable
--a
onwards
CCTV
Lung
apost@@
Cameroon
Cathy
synthes@@
jerk
odes
Ghali
plasty
Flo@@
love@@
pless
notorious
recoun@@
Antonio
bathing
Visa
Merkel
wen
clou@@
depicted
superint@@
ulous
175
cons
prescribe
aved
sessional
amusing
cursor
wrestling
think@@
collectors
transverse
perpetrated
inversion
Colonial
Philistines
encompass
Hus@@
escap@@
consortium
world.@@
confiscation
Return
evel@@
compel
graded
beads
politely
UNITAR
Wind@@
branded
MINURSO
ons@@
whisky
Tra@@
dote
bout
erupted
inaccurate
izations
anomaly
Cauc@@
dipped
individuality
visually
stripes
Indiana
netic
swings
Saturn
allegation
festive
Austin
tedious
rip
pom@@
sian
lessen
retains
Observation
ring@@
tling
p.
patrolling
convictions
cripts
delta
breathed
5.2
densely
Courts
reel
devour
pires
infring@@
eer
craw@@
shop@@
brakes
sizing
mast
GNP
cam
surpassed
manageable
polish
variability
Pete
bass
shrinkage
Jefferson
better@@
proverb
plugg@@
Renaissance
Persian
insec@@
reason@@
paradox
Adri@@
lipid
fty
folk@@
lattice
YO@@
vanilla
3.4
bei
Cad@@
How@@
fiercely
fragmentation
yogurt
disks
Broad@@
rein
ooh
Eight
expan@@
archy
Jian@@
delic@@
poker
cot
dresser
edited
majors
Dance
rheum@@
domicile
symmetrical
sop@@
ives
amorph@@
oners
Paraguay
gust
Conventional
ez@@
aths
ativity
permitting
Zheng@@
Within
mont
Counsel
persecution
jumps
humili@@
grouping
slices
Zhu@@
echoed
USB
unavailable
financi@@
hs
weve
UST
Formul@@
solicit
inhuman
nly
elt
anxiously
Tibetans
null
Cher@@
Mong
144
restructure
ozoic
opic
Enquiry
Atl@@
pyro@@
totalled
remembers
neu@@
addendum
compiling
fingerprint
stip@@
sual
Gibraltar
WITH
presided
Maj@@
cue
blun@@
eri
ribs
spun
extrac@@
Mister
Academic
Lor@@
transp@@
Shang@@
eks
cooperatively
sentimental
Experi@@
distributions
concurrent
replen@@
childbirth
oni
HD@@
ART
acknowledgement
buff@@
herewith
one.@@
ofthe
segregation
productions
intra@@
Bak@@
diction
rubble
powering
Ni
Dal@@
contraceptive
deal@@
Further
1966
forgiven
sol
arius
clad
specializes
skep@@
objected
multiplied
messy
duced
prow@@
conju@@
vividly
faulty
Ve@@
soar
feat
Sw@@
stumbled
Sof@@
centrifugal
paces
iority
deterrent
landslide
payroll
bureaucratic
assor@@
hearty
chlorine
dul@@
eme@@
Pip@@
mansion
tingly
ence.@@
condolences
chrome
operation@@
smarter
clari@@
cycl@@
vigilant
SEL@@
vention
skim@@
diffuse
spells
pumped
diaphragm
azed
scaled
enses
lity
temperate
interdependent
Textiles
defenders
orbital
forfe@@
laden
lou@@
placements
omes
just@@
attaining
bre
discrepancy
drained
1,6@@
apy
tigers
Optim@@
vest
ding@@
rig
stipulate
accusation
drow@@
Murray
distil@@
parliam@@
agger
grating
hottest
flourishing
cunning
Sheet
perfected
cucumber
datest@@
210
overtake
Applied
vel
controllers
osity
Paralympic
Plat@@
envel@@
formers
dreary
rud@@
Ian
Juventus
VER@@
ROK
Desertification
manuals
But@@
affinity
visualization
Accounts
.When
novelist
icket
mentioning
poli@@
discarded
hull
adj@@
sory
15,@@
avert
rons
asym@@
kettle
Wo
Jong
explor@@
spectro@@
Speech
professionalism
pressur@@
Thought
investigative
Liz@@
intermittent
insignificant
knowingly
shat@@
anatomy
mits
onym
athed
ults
raced
1955
knit
anded
transboundary
thinker
INSTRAW
programmer
AU
Sky@@
mute
galvan@@
oppressed
ventil@@
pave
normative
isher
tuned
omers
aromatic
atorial
cellar
Noise
oy@@
enligh@@
Agents
R.@@
wu
packets
Thor@@
precaution
intu@@
All@@
smoo@@
165
phe@@
regained
chees@@
tability
photosyn@@
trust@@
Introduction
specialize
54@@
ite@@
tex
Editor
pushes
ben
marching
submerged
hereof
summon
upload
yell
distributors
SR.@@
alment
VE
gravitational
DV@@
subsidized
Species
ince
ka@@
info
perc@@
eyebrows
www.51education.net
Dist
sarcas@@
nee
.There
prosper
gau@@
carcin@@
eously
cellulose
wiring
slew
pinned
Shek
hibiting
bribe
contributor
reconstruct
Minorities
hn
Desert
vocation
appreci@@
rescu@@
Dennis
Style
Bobby
awed
merging
gage
rugged
Therefore
File
piping
Rita
swarm
vor@@
subprogrammes
onau@@
favors
encephal@@
steamed
Average
sands
avo@@
1,4@@
drifting
Sad@@
Santiago
transfer@@
1969
stunned
mentary
sexuality
alien@@
Belgian
shampoo
ynamics
ellow@@
Rich@@
sequential
celestial
pid
WWF
rivalry
presiding
honorable
Molly
ject
36.@@
strenuous
Kat@@
widest
atal
planners
bare@@
squares
Plato
blankets
Problem
131
myriad
bene@@
relational
Gib@@
fracti@@
illumination
scatter
Chemicals
Provincial
diverted
demarc@@
doubtless
rampant
indignation
tear@@
symposium
BE@@
alizes
80,000
Esti@@
OM@@
mushroom
ture@@
troublesome
epic@@
flavour
fing
worthiness
collabor@@
longed
ogenesis
questionnaires
calcul@@
Nan
mim@@
grandpa
dove
dissatisfaction
ML
Book@@
Amsterdam
penetrated
fittings
Eu@@
marv@@
boldly
robbers
LD@@
Dak@@
underlines
tires
helm
Everyone
abound
buzz
phas@@
drafts
bering
Julie
benevol@@
aide
mit
cautiously
gastrointestinal
swim@@
reigned
runtime
aspirin
Concer@@
Kur@@
butcher
mary
atrocities
tioners
ashi
dinosaurs
procuratorial
regularity
Ring
214
redemption
loosen
perf@@
Request
4.3
widened
.5
customized
streak
Sac@@
boredom
Zhi@@
sparkling
madness
resembling
daunting
conceive
polymerization
pear
Mam@@
Automatic
obsession
epi@@
Goals
habit@@
nylon
lesion
discontent
Eden
tric@@
Andre@@
astronomy
tireless
buds
Gong
communism
combin@@
affluent
heres
hemat@@
aggregation
Angel@@
todd@@
receivable
Explorer
vigilance
Conc@@
assess@@
Mumbai
igh
Jilin
166
standby
stalled
silica
ocyte
showers
asso
Hotline
Magic
unbelievable
manoeuv@@
osa
Ages
fren@@
oop
irresistible
womb
resilience
deser@@
deflation
Develop@@
Fisher
rosy
tongues
characterize
supermarkets
lingering
cry@@
hardworking
adjudication
Broadway
Abe
decorations
oxidi@@
SAP
woman@@
assa@@
sip
invoices
vas@@
nickname
singers
achment
Resistance
spies
O.
SL@@
ambient
skate
jogging
lithium
Remember
vengeance
masterpiece
Spencer
paralysis
recre@@
ace@@
abiding
Mun@@
184
notions
Bo
Dig@@
bey
Wood@@
scars
sneak
passi@@
GB
ACT@@
lement
raging
Liability
rumours
190
fetus
needles
Off
mour@@
hero@@
Hungarian
deforestation
lyrics
bree@@
toxin
bitten
illy
xin
retard@@
hockey
damned
Supplies
lone
Qin@@
upro@@
appreh@@
Commodities
brightest
stranded
bouquet
swi@@
Kunming
olin
ange
Scrip@@
Churchill
assic
suing
Scre@@
sidewalk
Grandma
witnessing
fting
stature
brochure
simplification
disperse
vi
Ever@@
sta
2.7
Interest
barbar@@
shortfall
graves
aler
Institution
Kr@@
recommending
descending
ias
interpretations
Belize
lubrication
epoch
falsely
objectively
Ten
names@@
strides
like@@
offic@@
haunted
jac@@
Nag@@
aurus
wich
thermometer
tallest
UD@@
Sev@@
dan
stup@@
reunion
provocative
gain@@
seedling
Winston
roofs
0.7
spleen
Aristotle
habitats
And@@
Deep
reed
Gos@@
Florence
finishes
Ground
atric
Oversight
resides
Prev@@
statues
eper
insurgents
&apos;Ivoire
concer@@
envoy
cops
obedient
immunities
additions
cube
ister
stellar
tancy
Zoo
pref@@
167
Num@@
242
Contracts
composer
relinqu@@
cir@@
escaping
ranch
bowel
Role
curiously
cud@@
denounced
fog@@
FL
EIA
opium
thor@@
consolation
Barbara
spice
viewpoints
statesman
stocking
prudence
spear
ascend
ern
starving
earthly
extremism
Addis
CRC
compromising
hepat@@
exac@@
slap
SY@@
139
lick
uder
death@@
ultr@@
fertilizers
badminton
annihil@@
Occupational
Know
symmetric
Census
amor@@
petals
flagrant
ule
iff
entic@@
thinner
histo@@
seis@@
volt@@
scans
Franz
twelfth
Joh@@
OFTA
wick
archive
eon
axle
icles
Eur@@
tress
extrusion
streamlined
frown
pedestrians
dwellers
bile
censorship
locomotive
gar
osyn@@
Jiangxi
help@@
irritation
reciproc@@
blindly
lon
clumsy
toothpaste
notifications
143
Barry
pengu@@
pens
respon@@
sal
forwards
aze
Lot@@
ican
extremes
conveying
elusive
rocking
accept@@
throughput
reformed
conduction
Days
zu
argon
dyes
Zha@@
yacht
coincide
poisoned
tily
beta
mingled
sleeves
import@@
Truth
deserts
ascending
organizes
mort@@
ffle
nominations
211
decentralized
uate
Machinery
Non@@
Columbus
riots
amnesty
inda
classrooms
nick@@
Extension
59@@
depletion
razor
Hep@@
mobil@@
vows
sulphur
KONG
flushed
Phy@@
Bag@@
Midwest
clever@@
descriptive
aiah
defiance
governors
Gro@@
lengths
contagious
bedtime
ironically
tremble
vaginal
pur
labor@@
overlooking
tearing
stationery
charis@@
unlucky
monuments
unfinished
bbed
utensils
ascension
fabric@@
aspire
swinging
reciprocity
distributor
gangs
parity
CHINA
Wachovia
sson
dur@@
institution@@
loaf
interconnected
bracket
Danny
shui
offended
freshman
echoes
staffs
consumes
connector
&apos;What
Stop
contour
Kim@@
fungus
dismal
Cause
Client
hesitated
iodine
Glass
Tseung
handic@@
consol@@
Pre
Dat@@
sharks
umes
steward@@
Fortune
epoxy
ECLAC
explanatory
attractiveness
cryp@@
feeble
redeem
ende@@
outrage
homeowners
scanner
pervasive
Store
Disneyland
sergeant
134
noti@@
ckets
layered
ype
exist@@
apar@@
distraction
consig@@
Remote
impressions
overflow
Pressure
UP
physiology
inactive
containment
Zion
experimentation
Wy@@
stum@@
sat@@
arrivals
selectivity
chan@@
extrad@@
ery@@
Documents
Butler
scop@@
fiery
utting
earns
750
sar
bby
inspecting
cushi@@
literal
Javert
alum@@
frustrating
disp@@
Mach@@
DM@@
ffing
Jakarta
YouTube
Tab@@
Cab@@
eyesight
tish
Clean
song@@
phic
polishing
eck
fas@@
lod@@
steril@@
weaponry
Carlo
navigational
nosis
Okay
Conduct
148
Mouse
ield
condi@@
lounge
rus@@
recru@@
Silk
Niger
Plateau
Salt
000,000
antine
Abuse
emed
discard
contemplate
aman
limit@@
mage
asha
misunderstood
bumper
increment
ruthless
cigar
ficial
disapproval
Caderousse
listeners
sunken
implant
Cole
orient@@
prohibiting
quarter@@
cc@@
if@@
losers
years.@@
revolving
smel@@
Sat@@
inference
waf@@
depressing
signaling
vs.
teles@@
ubiquitous
Dav@@
Ababa
bulbs
PT
countermeasure
omission
1.The
majestic
Kam
vastly
lis
harmonize
attacker
freak
interfering
Yun
.She
0.1
birth@@
wedge
2.6
221
boot@@
Kan@@
million@@
rails
skirts
Ashley
announces
educating
comment@@
awning
&apos;a
conceptions
chairmanship
chatter
rul@@
Bell@@
Caesar
cheered
eBay
rug
puncture
screwed
Upper
Partners
perfecting
first@@
tailed
pharmacy
m.
portrayed
acry@@
zeal
essly
Brand
169
illumin@@
tyre
isition
effor@@
emblem
Bour@@
Publications
directs
Parker
rah
advisor
Honda
sleeps
Flow
Save
kidnapped
FM
apprais@@
empower
atter
debit
traveller
bloodshed
Log@@
Renewal
Follow
bureauc@@
desul@@
bah
ee@@
lore
blended
drop@@
fly@@
observes
walled
exhaustive
Djibouti
dynamically
bu
emaker
premi@@
MB@@
Behavi@@
inhibit@@
Dominican
Mutual
Kh@@
vanish
joy@@
interfe@@
christ@@
Stev@@
tus@@
Wang@@
lifestyles
asynchronous
Q.
tabernacle
dumplings
seizures
Confucian
dos@@
ITU
creations
factor@@
mentor
Gift
lawfully
conscientious
situ@@
Hank
audited
innovate
justifiable
truthful
midday
explode
resc@@
runoff
authentic@@
Meas@@
regiment
Technique
confid@@
Sing@@
Samoa
Schemes
pirate
Chun
abe
repercussions
atis
Corr.1
hau@@
ledge
nies
slips
scape
AND@@
thel@@
leaking
antioxidant
Acid
cord@@
ECT@@
quitting
testified
arrogance
polysacchar@@
conclusive
.s
prodi@@
penis
syner@@
rider
forwarded
outskirts
lique@@
Fan
Writ@@
Fac@@
oness
ipp@@
Zhuang
beheld
lor
burgers
SADC
populous
arbitrarily
consul@@
age.@@
limestone
converts
alt
ushed
colder
Kitty
Jap@@
tsman
oil@@
Side
8.5
intending
OIC
verifying
bibli@@
advertisers
Manila
Gabri@@
dolphin
vacations
drunken
feed@@
muddy
knowledgeable
sponge
writ@@
train@@
bourgeois
tease
gallo@@
iii
chopped
gia
doubted
flowering
rafts
SAT
SD@@
lance
advocating
refrigeration
Islam@@
startup
novelty
Organic
kits
Raymond
cowboy
irradiation
splendor
Istanbul
Kun@@
resemblance
tractors
Sens@@
issa
thresh@@
domestically
163
6.1
unsw@@
openings
commandments
Oct.
wast@@
trailer
drifted
Degree
investigates
Results
Meng
bust@@
encoding
Violence
recti@@
enthusi@@
Func@@
taining
Animals
Greater
futile
90@@
drown
jap@@
plead
Tam
incess@@
town@@
Anyone
bron@@
inmates
Ha
Jose
onics
clocks
Flag
submits
Dra@@
Fort
tightened
kong
arable
promis@@
soften
HB@@
Max@@
downloading
SMS
gardener
tally
villa
1951
pra@@
Fon@@
barley
EST@@
thrilled
Tau
Fle@@
esel
57@@
Abu
criticisms
pits
misconduct
acre
Harvey
thing.@@
Madagascar
chel@@
Junior
Defin@@
chann@@
coordinators
screamed
expres@@
ordinate
Say
Birmingham
Utah
agon
Americ@@
paced
Medium
unidentified
Vincent
choke
kou
experimentally
Grace
FS
cked
stled
bake
Manufacturing
aor@@
spices
187
astonishment
Has
.What
Condi@@
ggling
Books
trum@@
dissipation
awakening
suffe@@
arterial
baskets
disgu@@
deprive
enture
181
mu
eroded
miner@@
sturdy
saf@@
estion
hies
fores@@
extraordinarily
tiz@@
glit@@
draw@@
drip
remotely
Jill
neck@@
stabilized
Hab@@
athletics
repaid
ameli@@
reduc@@
imperi@@
Leader
Starbucks
development@@
basing
neighborhoods
mets
225
vortex
thetics
quities
rick
sche
promotions
mentation
booklet
Bao
Heights
artis@@
ody
minimise
staggering
iPod
Employees
carrot
casts
refractory
insertion
Arch@@
outh
spraw@@
exing
igs
Cable
porters
clips
reckoned
configurations
withhold
CHAPTER
pitcher
guarantor
fabulous
Twenty
electrodes
jack@@
Seas@@
deserving
ident
rejects
complying
icates
mis
wholes@@
expressive
plaque
Baby
insider
flood@@
dinosaur
Shu
Xia
imaginable
noticing
Walt
controllable
Oslo
sighed
detail@@
evasion
motionless
168
Tenth
termed
stereotypes
reassure
football@@
Bahrain
learner
contrav@@
midfielder
Woman
catalysts
Record
remnant
sm
homepage
disgusting
embroidery
dots
morphological
ptions
helpl@@
typewriter
fers
seng
Armistice
Titanic
defin@@
accede
firewall
Nik@@
chick
crackdown
affiliation
DU@@
brigade
Upon
misses
wardly
semen
agre@@
49.@@
cid
rod@@
&apos;he
bravely
nitrate
contested
pering
capacitor
morally
Author@@
Bern@@
storey
occup@@
austerity
plagued
Archit@@
abreast
clothed
Vo@@
Prison
caller
RMB@@
morbidity
scrutin@@
screen@@
landfill
Telephone
quadru@@
INE
LTD
Musharraf
154
reve@@
unseen
handset
es.The
Sound
develop@@
random@@
Cost
majesty
skillful
pal
modernity
marginalized
uristic
ARE
Greenland
trun@@
alising
Participation
Shin@@
course@@
Ephraim
PLO
dra
extra@@
plaster
bravery
seamless
resorting
fuller
till@@
149
Timorese
mastered
troubling
seaf@@
joyous
bottleneck
Nur@@
Textile
narrowly
substitutes
blouse
nuisance
braking
cussion
doubles
lust
illegitimate
USD
Holiday
moderation
Legisl@@
faith@@
prominence
slows
crowding
omas
mourn
entropy
Tow@@
ticity
ju
UNC@@
toughness
NBC
saddle
actuality
arre@@
nominee
redevelopment
J.P.
disinfection
phenol
ICC
mommy
complemented
unconditionally
Discipl@@
Hebron
4.1
manag@@
Freedom
episodes
flange
velvet
alleviating
warmest
ashore
sweetness
interpreting
brandy
Philippine
proclaim
Clinic
rock@@
greasy
LPG
Another
compassionate
paradox@@
CB
maneuver
48.@@
Janeiro
convoy
triangular
resist@@
EG@@
Luxembourg
summits
U.S.-@@
amin@@
Kis@@
1bn
solu@@
awfully
antibodies
Lag@@
allergy
rites
Kel@@
Promote
Human@@
Friendship
ht@@
creeping
mouth@@
virtuous
infe@@
irk
guan
compliments
strawberry
complexion
evils
nim@@
thigh
extravagant
Palin
secret@@
genesis
Wi
negotiators
lanterns
spelled
stains
bench@@
peril
dimin@@
diffraction
rian
Joab
EFL
vens
Reader
Peaceful
shap@@
Bhut@@
seniors
corrosive
PVC
anes
sheng
childish
Schwar@@
wheeled
ention
Zhang@@
gue
Vie@@
flakes
dong
Scandin@@
lava
Among
avail@@
bub@@
forget@@
tending
hallway
kingly
yce
benzene
mark@@
ardi@@
stylish
allotted
Ying@@
RENAMO
Testament
lain
surpluses
justly
Gall@@
Capacity
whence
anya
succum@@
cordial
substituted
arguably
wickedness
apologized
grammatical
redundancy
nin
afar
Strategies
persuasion
slurry
chment
Aug.
47.@@
ingham
demilit@@
spontaneously
plated
bak@@
cricket
rix
tizing
vou@@
unbearable
watered
tians
Ach@@
irritated
ounces
Vista
News@@
culturally
restructured
from@@
Brooklyn
essays
ords
northeastern
oh@@
Pun@@
menace
sus@@
Bulgarian
lavish
narrowed
Dispu@@
taxis
Phrases
Kra@@
colourful
underscored
progressing
hoist@@
teries
Infrastructure
interchange
lymph
oup
Rail
fright
nment
archaeological
spread@@
simpli@@
Marilyn
immensely
cautioned
analges@@
ami@@
Indi@@
pirated
eruption
TE
260
spectrophot@@
Guyana
essional
corn@@
IAL
exposing
ferr@@
IGHT
TN@@
Kigali
mph
verbale
triggers
rankings
sterling
aggrav@@
pater@@
innumerable
anity
pragm@@
preserv@@
contri@@
Sean
hygienic
99.@@
withholding
geal
Markets
42.@@
liest
templates
Recovery
bombardment
lush
burdened
shakes
pathogenesis
pedia
anmen
218
Kerry
qualifying
monies
multidisciplinary
fluoride
inflow
Trinidad
dysfunction
charities
tragedies
edy
knocks
Heilongjiang
rigidity
Mot@@
footprint
affirms
guts
deletion
enthusiastically
Hebrew
Serv@@
discern
tuna
Scale
ecstasy
Connec@@
ferv@@
allow@@
191
172
telegraph
kinda
oranges
tham
commencing
Dai
familiarity
Counter
vulgar
secretaries
humiliation
resis@@
Text
rectal
azole
worsen
kidnapping
Imports
royalty
Bet@@
thful
JP
bbing
electronically
rejecting
159
retiring
acidity
incur
prom
Harbin
mering
indi@@
Sex
gene@@
eship
manifold
vener@@
MICIVIH
carrots
acrylic
smuggl@@
siblings
beacon
summar@@
unconsciously
aty
usability
buffet
EST
spiders
pub@@
bleed
Ching
thetically
Cargo
porting
confidently
brittle
condition@@
Wall@@
ischemia
flour@@
trimmed
wob@@
envi@@
tenderer
diagnos@@
predecessors
3.6
mornings
tai
consents
Hagrid
sorrows
planar
periodical
conductive
eighteenth
carpenter
tolerated
ATIONS
fragment
narrow@@
prevent@@
tos
Narcotic
dw@@
interc@@
bottled
Harold
Dudley
dod@@
164
admitting
CONT@@
tranquil
WW@@
acidic
gio
Sky
Handling
Meetings
found@@
notch
mail@@
showcase
barracks
seating
bacter@@
asserted
PW@@
precedence
parable
ferrous
Naples
alienation
rus
hasten
mysteries
anal
vinyl
rehearsal
thward
endeavors
gists
anthropol@@
leaps
Lei@@
insistence
offline
Proce@@
stagnant
ible
Model@@
atic@@
46.@@
SEC
avored
ypes
Andro@@
ument
Mozart
plausible
Power@@
excel
casually
contexts
pris@@
avenues
sement
Stri@@
util@@
Berry
stair@@
Story
Attorney
Karl
who@@
preach
a.m
dot@@
kman
wiel@@
bloc@@
anchored
warehouses
corne@@
Eye
punishing
footprints
D.C.
Activity
Pharmaceutical
germs
Kremlin
Ya@@
Judicial
ilia
Sab@@
Smi@@
Diamond
instructors
coercion
sliced
revived
Englishman
admissions
impacted
plur@@
printers
broadening
construc@@
peg
stout
frighten
icul@@
tiest
microorganisms
Chase
5m
Week@@
colonel
Care@@
rations
modesty
Celsius
hillside
pine@@
Put
shutting
aqueous
phere
residues
blacks
inviol@@
outsiders
telecoms
apportionment
illus
Speak
redness
Though
glare
luncheon
idation
1956
iasis
Phelps
blow@@
oily
vow
cheering
inequalities
infrequ@@
abstraction
forb@@
2.8
Funds
pH
chec@@
MIT
laryn@@
algebra
provisi@@
successively
arial
chore@@
Day@@
predators
cookie
Princeton
staffed
assemb@@
TH
glands
wholeheartedly
murders
had@@
intran@@
shortened
expatri@@
circumc@@
tionist
Trusteeship
prolifer@@
pessimism
Af@@
cousins
strives
leisurely
titled
sterilization
okes
ND@@
Contributions
headway
Maggie
achi
trembled
ousing
hereditary
urious
powerless
collagen
Wo@@
Voice
Nab@@
abandonment
surfac@@
stride
whipped
yun
refinement
mutil@@
fifteenth
piercing
espec@@
discontinued
mindset
paving
dome
praises
Watson
logged
unofficial
Summary
Registered
Layer
outbound
bay@@
Gen
contradict
compani@@
LS
intensely
bation
ovarian
Content
batt@@
neph@@
dismantling
resection
hog@@
HAR@@
fibro@@
fungi
MAT@@
advis@@
stratum
articulate
178
eti@@
cob@@
inding
fixture
remin@@
genital
communicative
perennial
Sport
Cathol@@
itinerary
treason
ograph@@
uing
rane
speculate
tanker
democratically
disappoint
Martha
noses
ancies
chilly
exes
Tsinghua
pores
audible
deaf@@
arism
separates
accommodated
lee
Thir@@
ITC
latitude
ually
Accoun@@
disappears
RM@@
Ple@@
secretariats
AC.109
contemplated
quan
oscillation
unqualified
ferences
extensions
rightful
thel
punitive
Bam@@
BI
subscribed
painfully
campaig@@
shun
subconscious
delim@@
conserving
burgl@@
unfavorable
Singh
taker
therefor
SME
ESA
sandwiches
disciple
amation
Palmer
isibility
interpolation
eped
ott
inaccessible
meadow
Jian
Manufac@@
Cook
landscapes
Edition
instincts
chromium
nausea
Carri@@
cooks
saints
cartilage
okay.
Savi@@
MT
progresses
ses@@
Earthquake
Allan
Start
legends
quali@@
rh@@
unbalanced
walker
Apartheid
lock@@
Canton
tine
Bren@@
potenti@@
Penalties
bowling
enced
ushu
purified
securely
filming
panc@@
jo
stration
unceas@@
Changes
vomiting
looting
starve
2.0
stling
savvy
Admiral
Secret
Xie
diagrams
jewel
recurring
Virtual
cynical
Barri@@
contravention
them.@@
faceted
852
compensatory
luminous
skinny
extremist
incidental
MB
Correc@@
rib
URL
Emer@@
art@@
connectivity
Avi@@
spindle
idioms
commissioner
averaged
abor@@
pursues
Concept
Quarantine
retrieved
Xing@@
ante
slapped
Clause
Paren@@
share@@
nah
Wanchai
contentment
affectionate
Gand@@
Tax@@
O.@@
watchdog
sausage
cosm@@
Laz@@
lear@@
gymn@@
betray
exalted
HU@@
ocytes
amping
onions
Category
preview
professionally
apex
ava
trough
loid
sorted
devastation
bob@@
Function
bedrooms
snapshot
elight
Minnesota
Chartered
disappearing
dearly
styl@@
AC.@@
germ
bery
suffice
toxins
Surface
226
Tools
Almighty
Fried@@
cataly@@
8.
bows
subsystem
outweigh
phar@@
protectionist
karma
extremists
mistrust
ASS@@
attaching
ObjectiveTo
badge
hinge
zer@@
matri@@
Clau@@
Soil
knitting
shovel
rists
beset
doctoral
mischief
immature
vampire
withered
Lloy@@
mailed
seedlings
Claire
Inspector
topography
film@@
bastard
clockwise
blurred
tendon
mathemati@@
optics
Ot@@
insisting
jected
Baker
Capitol
myth@@
footwear
capsules
Norman
Tunnel
geologic
dynamical
bere@@
pox
&apos;cause
Influenza
pis@@
colonialism
unhappiness
HOS
undo
taxed
mattress
appings
dragons
flocks
addicts
unforgettable
pu
allocating
retirees
nude
prohibits
Talk
40s
newsletter
ency@@
hurdles
Meg@@
tice
modular
ague
embryonic
coal@@
leaped
eloqu@@
tame
161
spokesperson
Scot@@
wasteful
dispar@@
pudding
chocolates
Speedpost
Down
reefs
Xiamen
frontal
victories
guessing
Cell
1957
Kwok
insecure
demons
ska
instantaneous
rectangle
270
emphatically
spectroscopy
Geithner
discs
Ed
Ronald
74@@
Simulation
Polytechnic
Generation
iler
171
intricate
JPMorgan
revolt
esome
infringed
exempli@@
moss
Northwest
degrad@@
appointing
raged
tenancy
4.4
cyclo@@
yearning
Ka
Morris
Oce@@
compres@@
oclock
Turner
touch@@
Pier
Elec@@
blaze
ethylene
hue
mly
homes@@
mosque
happen@@
atus
charcoal
Luci@@
tour@@
bap@@
onward
Lane
evacuate
frying
Absalom
joking
ographical
G8
CPU
bodied
Tak
salv@@
aggre@@
deploying
ANCE
Cheng@@
symphony
confer
papa
0.2
pseudo
fuelled
originate
anci@@
Drive
Description
interacting
awhile
istically
cyclical
Discussion
state@@
&apos;this
edes
aven@@
infiltration
delaying
hospitable
electrostatic
Complex
fici@@
Kings
curry
Gorges
cover@@
second@@
eving
Jam@@
Ay@@
sunglasses
much@@
inauguration
hic@@
filtered
coo@@
Maxim@@
outlying
amending
remen
tech@@
Aberdeen
shopper
Xian
Karabakh
Cros@@
Wild
ruit
admissibility
climax
alterations
Gore
volu@@
Ding
contentious
Malaysian
startling
Facil@@
exor@@
Your@@
Expres@@
punishable
resilient
galaxies
underestimated
acetic
surrendered
227
ated@@
untold
Kay
Items
plex@@
Adams
qi@@
compar@@
promul@@
V.
polymers
deliber@@
UC@@
underscore
succeeds
Temperature
plotting
Var@@
habitation
auditor
grove
Isab@@
demobilized
ellant
asus
Iowa
completeness
folders
amalg@@
admon@@
revising
vertebral
Premi@@
epidemics
ism@@
pigeon
chest@@
Mitchell
fertilization
Commodity
Dynamic
scratched
together@@
Tina
thood
iterative
paramilitary
lading
CNC
contacting
Hui@@
jure
ticultural
Every@@
ulus
ramp
squir@@
invade
ros
endowment
opaque
Coordin@@
kiah
coughing
Olymp@@
UM
NA@@
ylene
ont@@
curvature
murmured
cadre
Chemistry
blaming
evel
inherently
Effective
auspicious
propylene
Active
2bn
Gerald
toilets
Invest@@
ocar@@
cubits
Ep@@
masculine
underdeveloped
Distribu@@
come@@
people.@@
cos
noteworthy
disable
Vernon
sinister
ucked
undergraduates
const@@
COMP@@
thanking
Qian
chau@@
ationary
magn@@
completes
renting
aceous
185
jackets
Liv@@
4.2
kie
umentation
roo@@
poss@@
deadlock
directives
countering
Kwong
forceful
ographer
Brief
Points
alties
dismantle
alphabe@@
Twitter
identities
collaborating
detachment
try@@
waiver
odic
dwar@@
otation
W.@@
smelling
therapist
BMW
ligent
monsters
organizer
LH
-1
orrow
great@@
Colom@@
defy
dispers@@
skeptical
agan
Beng@@
injure
propelled
elessness
principals
carton
SV@@
hanged
spur@@
bomber
ensuing
nig@@
Syl@@
unsure
perit@@
wiser
Check
Denver
pigeons
chloro@@
supersti@@
rection
Kansas
pierced
sideways
bliss
coupon
balloons
HKT
reven@@
pictorial
permissible
192
Translation
emble
Newcastle
Top@@
stun@@
fath@@
remedi@@
diminishing
dielectric
Excuse
Grap@@
adam@@
harv@@
flor@@
waterfall
throm@@
ims
trails
SCS
ancestor
ceases
desperation
blur
scu@@
Band
signatories
quot
ission
es--@@
tripartite
jelly
chilled
customize
triggering
cathode
tug
agit@@
lingu@@
Preparation
carve
6.3
dazz@@
vil
unify
Scorpi@@
politeness
blooming
predominant
17,@@
microscopy
dismay
bot
solvents
condensation
unreliable
Faculty
poon
0.3
brushed
otomy
Elijah
finalize
constructs
blink
itz
XX
energi@@
stormy
Cai
tornado
outflow
Transnational
Shang
Ax@@
crypto@@
iers
Gran@@
dost
avoids
secretion
lifes@@
PK@@
clap
commendable
afts
WIL@@
alitarian
eably
probation
sha
gion
ordinarily
hibit@@
fireplace
clear@@
mi
Bai
sust@@
oilfield
fring@@
issuer
ulls
GEN@@
Frenchman
philos@@
Shall
immersed
reness
mainstreaming
Bes@@
cultiv@@
Kam@@
PE@@
Recognition
tyranny
doom
Damascus
reiterating
Eighth
afforestation
fortress
Fig@@
intos@@
condemning
popped
mustard
chuck
modernize
Warning
teammates
commanding
Ming@@
dier
plumbing
itative
sucked
theoretic
neo
estrogen
revel@@
kingdoms
ferential
extor@@
146
webpage
impu@@
coastline
memorize
urban@@
inver@@
trusive
righ@@
pee
theatrical
reddish
Nor
TS@@
sures
thicker
cheapest
Driving
1,3@@
dryer
utely
dden
ension
yoke
Madonna
relieving
223
parametric
Visual
incision
subsidi@@
sors
wheel@@
formaldehyde
candid
commemorative
ylon
bidders
pliance
Aes@@
interrogation
nant
EE
phr@@
Missouri
Native
bins
Roma
constr@@
shields
obic
ferous
MI
Postal
ead
Rid@@
locker
utch
republics
palms
Main@@
flatter
Expl@@
sam
cleans@@
burner
smart@@
illiterate
lily
digits
fig@@
glamour
Learn
indulgence
pent@@
housed
brushing
arrays
have@@
constellation
nobl@@
bowls
esophageal
tort
foresee
Hob@@
retreated
contests
scanned
extravag@@
quot@@
rin@@
precautionary
piec@@
captures
Safe
unfit
ateness
astray
metast@@
Peng
Selection
wrecked
Yas@@
Employer
Edmond
airplanes
amidst
pathways
IO@@
5.1
leaflet
Estonian
chancellor
Xun
215
pathology
resourc@@
SWD
Measurement
crooked
likeness
Graduate
cozy
haem@@
oun
wand
ceasefire
Huck
simulator
persuading
coloring
unfolding
affiliate
prolet@@
ulent
Farm@@
towels
histor@@
commemor@@
ik@@
abad
synchron@@
adapter
monot@@
VOA
chet
abyss
Rotary
Mason
20s
hawk
odor@@
intestine
reminding
barber
deflection
mys@@
aper@@
dan@@
itas
Nec@@
inducing
stealth
ischemic
Recommend@@
vom@@
internation@@
Bai@@
wares
Won@@
interviewing
Bulletin
convex
gating
domestic@@
collegi@@
venous
ati
Gu
Fau@@
Shop
gins
inconvenient
Adviser
terrifying
receptors
coward
Berkeley
PRST
shelling
accrued
Ting
enson
diarrho@@
13,@@
warring
irrevocable
debu@@
hunted
meltdown
unload
Hoo@@
ammonium
horse@@
hill@@
tensive
delegated
alous
virtu@@
Outlook
400,000
Near
Cli@@
edict
Imag@@
cataract
slip@@
dynamism
Lok
derers
China.@@
nered
fortnight
ku@@
Rockets
Fuk@@
Libr@@
inos
nesses
Too
acles
bies
Jeremiah
repri@@
aberr@@
retali@@
receptive
commemoration
negligible
chen
modulus
stache
ipping
adolescence
exits
Wright
Tyler
pong
unimpeded
CO2
detergent
rogate
aggravate
atings
feel@@
ESS
phoned
Confucianism
structive
issions
prophes@@
338
Futures
barricade
barbecue
Restaurant
alan
Cent@@
platinum
gloss
sprung
abstentions
successors
mock@@
jian
apolis
Wan@@
J.@@
amber
tural
Forbes
Viol@@
lighten
portfolios
meats
practitioner
Sometimes
Candi@@
authorised
statistically
amen@@
egg@@
phasing
eme
zhong
Monrovia
momentous
unlock
warms
stumbling
slash
Appendix
versed
Ethiopian
pes@@
233
seeming
cylinders
gratified
chanting
emulsi@@
identifiable
anship
circu@@
footh@@
Lang
twisting
shortcut
Interpre@@
Class@@
moods
capped
roaring
fend
instructional
breeds
resent
SK@@
haul@@
Oregon
redistribution
Leonard
reliably
Face
sucking
inth
volunteered
Evans
appraise
etta
corpus
ogen
equi@@
hydrate
kilometer
RA
degrading
hydration
solids
Elev@@
citation
expeditiously
salts
richness
grieved
chord
Late
selfless
docum@@
reclaimed
bered
persistently
selects
retrospective
metropolis
eum
afting
turnout
berth
perimeter
speedily
colds
Pam@@
myths
killers
truce
77@@
Fit@@
reluctantly
slee@@
Negotiating
Suen
cleanliness
groundwork
disgust
CU@@
qu
World@@
vaguely
ionic
quet
affirmation
ushing
Everest
thirteenth
quiet@@
rog@@
Restric@@
sender
abled
Crystal
vibrations
blem@@
curled
repetitive
cong@@
behavi@@
injecting
dialec@@
hybri@@
entitlement
administr@@
lefto@@
osteoporosis
Madeleine
extrater@@
kes@@
transducer
elets
whirl@@
flake
Mauritius
agitation
flan@@
attle
uniqueness
otrop@@
Swit@@
pla@@
Speed
construed
vez
Bail@@
Toad
retinal
Granting
anical
dop@@
hotspot
atized
polyurethane
comers
wholesome
Used
cheques
bular
EMS
Milton
Colin
pastoral
discreet
PAR@@
stripping
onable
183
traitor
Settlement
Jen@@
Incl@@
minimizing
thous@@
faul@@
revitalize
config@@
preside
orch@@
Gill@@
bottom@@
ponent
China@@
dges
canopy
Auto@@
sock
xian
coconut
fascination
electrochemical
guaranty
gros@@
laz@@
ometers
hive
rituals
bumped
Consum@@
favourably
flawed
sacks
region@@
Ningbo
plankton
rags
Linux
inspir@@
leaks
exation
polio
abrasive
marsh
valent
smoker
strategically
Forec@@
Diploma
enko
Cham@@
bod@@
knob
eloquent
Short
850
ase@@
witty
recipes
dependable
loosely
degeneration
adulthood
hibitions
attic
FIC@@
coc@@
photographers
steamer
mushrooms
Ontario
Hermione
Geor@@
marketed
sic
Balkans
sies
digit@@
gious
RF
avro@@
ord
Ping@@
Secret@@
biopsy
blazing
Abuja
Cath@@
Welcome
puppet
investig@@
UNG
quartering
portation
originality
starter
causal
haunt
inaugural
Thomson
Approval
sine
ked@@
disagreements
cathedral
bombings
queer
chang
transfusion
Rich
armour
procrast@@
photographed
Reservoir
associ@@
clerical
ingenuity
impot@@
intensification
scorn
Conn@@
Fs
critic@@
Banks
presum@@
captains
swords
ACABQ
personalized
&apos;well
divergent
housewife
Things
xiang
conservatives
oxen
FL@@
suitability
maids
orage
mythology
lasers
magician
finder
tainer
design@@
Hills
gamma
leases
Michel@@
Lon@@
apron
09@@
harass@@
brutality
amer@@
mapped
scribed
etics
Comb@@
loop@@
Bissau
Whole
externally
copoly@@
commandment
screened
Forward
stump
pir@@
vectors
crawling
pavilion
Islamabad
Spl@@
divers
congratulated
membranes
Vessels
Improving
rotational
Oracle
peas
Mourinho
predicament
sheath
remorse
Mubarak
icism
capturing
Becky
yelling
impurities
rez
stipulation
browsing
habitual
proportionately
Mind
shaving
shrine
purchaser
tortoise
consec@@
meditate
maze
9.
concede
responsibly
scrape
monarchy
sewer
multiplication
Zar@@
mented
dorm
netiz@@
chas@@
30th
inhibited
tempt
Plenary
shedding
coaster
omitted
inthe
renounce
paci@@
drun@@
dubious
angs
terrace
empathy
shep@@
inher@@
allot@@
aline
AK@@
anism
convoys
NY@@
nip@@
provoking
enditure
fiel@@
thumbs
tandem
Carl@@
esse
stale
gon
stac@@
arsenic
retre@@
Arabian
mimic
chuan
VIP
illu@@
solid@@
Ball
Hampshire
illas
distract
CSD
sensed
Has@@
dir@@
pros
thyself
impediment
gency
ornamental
isco
Ky@@
Writing
ations.@@
youd
atitis
attentively
abs@@
pioneers
buil@@
exacerbate
infancy
Connecticut
thorns
orphan
Kuwaiti
magnetism
320
Yam@@
este@@
aig@@
eel
iceberg
nutritious
calculus
Play
convul@@
222
harn@@
reopen
abstain
swan
nurturing
Mathem@@
Quanti@@
Boundary
neutron
encrypted
rearing
translators
vo
synthesize
otyp@@
teachings
endlessly
Terrorism
Katie
grudge
uary
Carnegie
departing
abandoning
4.8
resol@@
summons
hydrogen@@
ornaments
aints
comforted
ICAL
liberated
PG
Twel@@
intern
modality
Councils
cape
Helsinki
fron@@
tonne
bullying
ube
resurgence
Khartoum
recite
kinson
mosaic
predictive
thru@@
provocation
override
trance
Border
persuasive
constituency
Orthodox
gallons
impulses
chuck@@
stitch
elaborating
plagi@@
177
Fir@@
serviced
strongh@@
spon@@
Networks
Crisis
smelled
elo@@
aton
represent@@
embryos
visualize
signify
Run@@
pounding
metro
condoms
ontology
Jiu@@
convict
UNV
Opportunities
forwarding
bats
goalkeeper
pian
Object
pliers
Hindu
appalling
unle@@
personages
last@@
shameful
Hamilton
summers
sophistication
Sorry
intriguing
dinners
wrink@@
cafeteria
asi@@
205
payer
DH
preschool
OF@@
paperwork
bedside
outw@@
enta
priceless
monarch
zers
Nutrition
onomy
wetlands
genial
.So
oks
rous
Constitu@@
Nas@@
facies
Hou
afterno@@
Beth@@
amused
spects
freshly
AB
Sid@@
destroys
tracts
despised
Than
keenly
DF
attentions
outrageous
Feder@@
tribunals
Himself
entirety
admittedly
opo@@
experim@@
interfer@@
Shim@@
sul
knitted
Storage
veri@@
confine
bidden
hugged
eda
trunks
anni@@
oundly
revi@@
CDs
--it
Cra@@
cost@@
ectural
geopolitical
lettuce
politici@@
dictated
Rober@@
congres@@
Shell
enor@@
histories
guardians
spade
scru@@
Consulting
industrious
stubbor@@
offenses
sad@@
conno@@
JV
reverence
Tha@@
Vision
attendants
icular
Sleep
eric
ANT
ski@@
flue
dime
mandi@@
eliminates
Hir@@
gulf
eta
iv@@
pelvic
Lang@@
lef@@
inhal@@
absur@@
join@@
Influence
catalog@@
Architecture
crest
601
Cypriots
sweating
G.@@
towering
prising
2030
Bahamas
River@@
campaigning
suspicions
201
type@@
mercenary
extrem@@
impatience
leukemia
scandals
decimal
aky
numeric
Focus
pathogen
remnants
stator
Player
sharpen
barking
invo@@
margin@@
ux
ec
foe
enda
Wetland
diner
Deli@@
predictability
prejudices
mr.
amen
cyan@@
clutter
ria
Eff@@
sintering
bloc
salesperson
Install@@
poo@@
readable
deceler@@
publicized
Hans@@
journ@@
undeniable
Presidential
Edgar
jia
Control@@
accusing
calculator
Basra
notic@@
divisible
slammed
olo
acrob@@
Nom@@
45@@
publishes
bothering
believer
tofu
proxim@@
Guardi@@
bedding
hort
ingenious
certify
mix@@
boarded
seg@@
specificity
pist@@
gencies
meticulous
Civilian
wits
ilers
receptionist
dwind@@
wish@@
Sax@@
susceptibility
knuck@@
looming
bridegroom
opener
nervousness
inscription
Set@@
Wenchuan
courtroom
truste@@
ael
po
radicals
leaching
Exploration
longtime
aggressor
billing
Buck@@
stumble
interpre@@
stockings
quilt
adept
identi@@
inflict
lambs
fleeting
bureaus
hideous
deem@@
seeker
frenzy
uric
Mercury
freshness
no.
Ningxia
tist
agendas
GOD
effluent
hackers
tremendously
agility
forcibly
Universe
repent
Half
al.@@
Syndrome
CI
wester@@
Zhong
omy
concre@@
Masters
True
By@@
puri@@
manifests
classifications
encomp@@
clout
frag@@
173
bei@@
plasia
birthplace
brace
entertained
Beg@@
malls
respiration
urry
drains
synchronized
intolerable
ironic
hotter
burglar
pathogenic
oli@@
erec@@
ould
Article@@
blist@@
antry
jah
jams
impolite
Zi
650
brother@@
AFCD
arize
impractical
kid@@
ted.@@
missive
comforting
disapprove
kitten
Cinderella
criticizing
complexes
slate
claws
antigen
mummy
pollu@@
secretarial
headings
adversary
Try
Coc@@
250,000
medium-
FDA
alternating
rewrite
imperialism
Person@@
Asset
tril@@
psychiatric
gastro@@
salon
taboo
roasted
fueled
replying
prun@@
umen
cartoons
dable
applaud
defaults
prioriti@@
noc@@
No.1
entially
unaccompanied
rudi@@
16,@@
enery
readjustment
aII
capacitance
Sewage
turtles
spaceship
Dao
Gat@@
artwork
erroneous
6.2
amin
CEOs
icting
circled
thrift
VAT
Inland
shadow@@
silicone
straighten
shack@@
areth
vineyard
tration
rhyme
plet
addictive
drawbacks
station@@
insolvency
cill@@
CM
vertically
blasts
sizeable
collectives
mania
stigma
withheld
people@@
Pudong
know.
Mai
implement@@
Luo
MP3
Seng
discre@@
blatant
anche
44@@
Hand
lecturer
Airways
tyr@@
Volunteers
DSP
nud@@
materialism
detain
eases
troubles@@
countri@@
Authorities
penalized
Dumbledore
exponential
instruc@@
Row@@
shrubs
cometh
wrinkle
Ferguson
ento
acing
were@@
torment
19,@@
embezz@@
pedic@@
lousy
alie
sely
exaggeration
trim@@
Bring
Serious
integrates
Reverend
wang
mel
delicacy
depicts
aven
cons@@
desirous
yester@@
broom
Trou@@
Nigerian
logically
ghtness
excl@@
theses
helper
listings
specialties
embassies
roughness
unduly
IZ@@
Cow@@
manganese
het@@
dialysis
Magistr@@
clerks
hind@@
cascade
commissioning
dispel
Solar
inev@@
NEW
inductive
ESD
fem@@
sourced
information@@
bral
haze
1m
downside
20,@@
societal
courteous
apps
cues
expati@@
disagreed
isk@@
locates
defra@@
open@@
ause
ordinance
Kah@@
dissent
Show@@
cleft
1940
keyword
Subscri@@
counteract
nonprofit
buster
speciality
Magazine
localized
Sl@@
evade
bestowed
ardent
drug@@
diagnosing
miner
Inspectors
FEM
iness@@
fee@@
Run
pleasantly
editions
Eth@@
Pon@@
pence
ulative
arbitral
watershed
agr@@
crocodile
decad@@
enium
unaffected
tackled
larvae
Freud
enties
isive
Faith
ICAO
reser@@
Saf@@
excer@@
accompl@@
obia
rogue
IDA
Oman
debating
Gan@@
Judy
hereafter
Sin
stab
broad@@
sewerage
digi@@
ophi@@
hurriedly
itters
overex@@
Beard
hugely
pered
3000
warts
occu@@
glomer@@
essor
Nad@@
ballots
Solution
coagulation
sourcing
legislators
Except
fou@@
ornament
hopping
condensed
Grants
timed
reson@@
unfold
3.7
Hind@@
HQ
12,000
rena
riddle
itations
accent@@
marines
arizing
Lanc@@
passwords
mutations
life.@@
semic@@
debug
SN@@
Dus@@
gathers
cha
scap@@
hearth
MOFCOM
eradicating
erection
Script
illusions
salut@@
alogues
ointment
hiber@@
rethink
Iy
sheep@@
RF@@
hosph@@
anthropology
jailed
mediated
&apos;that
obligated
polled
mechanically
tutorial
Mort@@
Zina
shaved
accomplishing
Amanda
veted
depleted
Indic@@
country.@@
restitution
Brother
pulses
rics
4.6
uploaded
Qu
BHP
uma
K.@@
Know@@
tat@@
icking
Kathy
exec@@
Feng@@
Lion
discretionary
76@@
rhetorical
paralyzed
smuggled
Finnish
serene
internationalization
avid
detectors
frail
said.@@
igen@@
contem@@
AW@@
esman
leaflets
deriv@@
ACT
southwestern
correc@@
verses
kicks
copes
expon@@
humanistic
kinem@@
Parliamentary
figuring
involuntary
landslides
ascri@@
Plastic
Appeals
irreplaceable
&apos;in
Fem@@
consist@@
It@@
serpent
swaps
Jar@@
Any@@
adaptable
floral
humanities
imperialist
Croat
stering
pouch
tize
abusive
lorry
Mental
prud@@
cann@@
alpha
metastasis
pable
pasta
hegemony
unfounded
witz
rential
prenatal
tubular
harm@@
oll@@
icillin
scoop
ORE
spinach
propeller
pads
fissile
Sen
seventeenth
uproar
cohesive
Shing
manure
Integr@@
strands
cription
prerog@@
Xing
saliva
s.com
undering
timate
&apos;They
wl
overes@@
217
memo
Having
emper@@
routines
slam
admir@@
parl@@
portraits
fortified
hairy
Crown
indebtedness
batter
supernatural
proficient
choked
downhill
Dead
Archi@@
perpetr@@
ocean@@
ryp@@
alters
todays
wret@@
Shatin
Melanie
Mali@@
ution
jects
reacting
frontiers
blond
Wisconsin
tucked
modeled
interdisciplinary
pickup
Gul@@
ingo
sparse
enberg
weakest
elbows
intellig@@
dramatist
Pro
tica
emy
Neg@@
inscribed
Ng
retrospectively
expropri@@
TT
Jeremy
Mt
nationalist
exposures
coexist
kered
lotion
Diseases
CG
Will@@
detriment
dislocation
him.@@
energetically
licit
i.@@
speculators
Photo
relocate
festi@@
XII
dotted
exodus
pus@@
comparator
melon
enlist
mind@@
29th
favorites
é@@
Reuben
carriages
trench
pixels
clung
retic@@
Fernando
flare
fruit@@
hash
metabol@@
vesti@@
grievances
axes
Hyper@@
galleries
Reconstruction
marvel
ilian
ruff@@
dissid@@
friendliness
polye@@
orthodox
superstition
signatory
awing
septic
telecom
Socrates
edema
gunmen
inverter
verifiable
rhiz@@
eed
dyed
pup@@
ensity
builder
horseback
Augu@@
Heal@@
asse@@
thethe
.hk
crack@@
Yor@@
sparks
pland
Develop
fraught
yol@@
sharper
Mohammed
oa
noodle
Get@@
nific@@
Core
TW@@
Navi@@
cardinal
40.@@
aqui@@
Bermuda
Pris@@
before@@
waterfront
perv@@
enig@@
sham@@
elope
tester
replaces
fluidi@@
glamorous
liti@@
Excise
depri@@
orphan@@
Yokohama
ications
upheaval
Also
Ronaldo
Clos@@
loy@@
dictator
Present
asymmetric
mixer
grounding
inadequacy
Jew
divul@@
count@@
uggle
jie
insulating
pendulum
Khal@@
hinges
sentry
unwise
ferocious
hael
firewood
Allowance
rich@@
Galileo
Janet
Thy
Pis@@
phan@@
Sak@@
altru@@
perturb@@
senators
Yat
constructively
wakes
dru@@
Nagorny
tees
fever@@
checkpoints
Lum@@
eval
broadened
Bed@@
referenced
watercourses
Aer@@
rebu@@
rusty
spurred
groupings
acetate
cartons
purify
itably
surcharge
arse
fallout
natives
resp@@
deton@@
victim@@
surve@@
shortcoming
monsoon
Negro
shaky
fossils
expressway
coff@@
astronomical
strapped
Corpor@@
Morning
paired
Nevada
substandard
SF@@
devaluation
Beethoven
5.4
pler
defen@@
Cooperative
favours
gyp@@
filler
viscous
injections
transformations
ghter
therapies
gens
motorists
basal
constric@@
SERV@@
equival@@
cassette
instructive
tomor@@
ordeal
antioxidants
quantitatively
die@@
villain
electorate
fractured
Lay@@
Add
jar@@
Prec@@
amiable
quiz
Democracy
Establ@@
apologies
robustness
canteen
rationalize
uncover
incompetent
vable
Fair@@
cords
evidenced
tok@@
3.8
shew
anese
plough@@
falsi@@
untrue
emanating
Nit@@
cheerfully
cryst@@
endocrine
anemia
poke
Lost
Racism
scrupulous
chu
craving
tionary
solicitation
truthfully
telephones
Zhuhai
SAR@@
syllab@@
Managing
aux@@
american
crystallization
sta@@
contempl@@
resultant
gadgets
REE
devoid
ces@@
tuc@@
pollute
requisition
dizz@@
1947
ripple
Tangshan
1958
Municipality
tunes
sandstone
Decree
KS
exic@@
Experimental
Siu
icably
Nine
bulls
Mickey
parrot
HS@@
Injection
entitlements
7.8
biot@@
tombs
progressed
pedal
fric@@
citrus
208
preoccupied
Tang@@
Liquid
selectively
distort
workpiece
.As
reliant
indemnity
Lucas
Israel@@
Wolf
7.9
Presentation
ENG@@
uri
Croats
Hog@@
hither
roll@@
fixes
conveniences
exaggerate
stereotyp@@
inct
dormant
OP
ascertained
Saturdays
relessly
tedness
insol@@
criticised
decor@@
Kuomintang
bathe
Rhett
amazement
elective
bloss@@
unsuitable
Salv@@
Lydia
seizing
mund
maple
oval
Harbor
niece
7.1
usages
mortgaged
Oli@@
edical
thrilling
foliage
END@@
150,000
camoufl@@
adsor@@
Prefecture
sprinkle
sinus
ghe
refinery
racket
correspond@@
smear
ulously
1,5@@
rescent
gres@@
onical
otid
Sant@@
rors
BF
transistor
fungal
obil@@
disposing
Practices
Route
attachments
kiln
prophecy
Quebec
Hist@@
nip
baths
Airbus
Frank@@
c.@@
applauded
installment
impart
duckling
HF
tioner
adren@@
practicality
thic
manip@@
gras@@
bridging
textual
handbook
ANG@@
Hard@@
olithic
tumble
inear
Alabama
podium
desol@@
flutter
waist@@
INT@@
itates
60th
shrunk
Wireless
beli@@
sublime
acs
Bonn
window@@
parenting
hooks
choir
usur@@
stricter
brackets
whoa
cedar
MAN
VO@@
Tele@@
Hua@@
overwhelmingly
tu
Pittsburgh
drills
encompasses
restricts
ING@@
Chloe
corrobor@@
Amar@@
snatched
selfishness
0,@@
eal
bombar@@
respond@@
occupancy
Guan
crashing
conveyor
bard
UI
Vill@@
moti@@
Chris@@
14,@@
Slo@@
Pitt
marginalization
comman@@
ancer
relapse
polarity
femoral
woo
uclear@@
cater@@
oasis
lieutenant
lax@@
Bin
scalp
osclerosis
Liao
laziness
fraternal
ste
awaits
incorporates
Responsibility
buz@@
Achiev@@
juices
Partner
carp
Immun@@
1,8@@
crafted
dress@@
antage
Fel@@
battle@@
eway
crippled
firstborn
coercive
hardy
Ai@@
Mill@@
force@@
trag@@
hack
simpl@@
Hilton
Conf@@
exemptions
mixtures
dehydration
incin@@
evergreen
SPEC@@
thiest
uously
literate
gob@@
Campus
Strauss
Asians
reconc@@
reclaim
abhor@@
decou@@
humanism
Subcommission
eners
onn@@
replicate
gracefully
point@@
apprehension
House@@
summaries
Ask
schizophrenia
thu@@
Juan
Ele@@
menus
204
petitions
attribu@@
pursuits
enriching
surname
jaws
engraved
lipstick
Louise
activ@@
psychic
compu@@
Eag@@
zhu
Midd@@
nobility
victorious
advent@@
nigh
semantics
topical
order@@
unnatural
fibres
winged
FDIC
dynasties
awaken
autocr@@
k.@@
adjour@@
Adel@@
08@@
adheres
comforts
brushes
Ug@@
0.6
faintly
parag@@
unborn
porosity
Kit@@
stew
oom
epider@@
feminist
Memb@@
applic@@
drinkers
Ownership
hae
clinging
Simpson
LAMV
subsidiaries
hysics
resur@@
TF
cumbersome
plurality
mov@@
Cindy
inhalation
prioritize
torpe@@
hush
uno@@
rans@@
istics
geop@@
Theme
lude
parasite
subscriptions
cuc@@
rees
archival
Metal
Substances
standstill
Louisiana
terminating
Approach
functionary
visor
masked
dues
203
aversion
heartbeat
unarmed
herd@@
48@@
otherapy
iners
iddy
translations
PRES@@
hypocrisy
abated
waged
eagerness
elles
attorneys
desirability
onization
derel@@
quire
Lib@@
granular
blooded
Chat
kindled
prosecutions
unauthorised
Perf@@
spat
fles@@
dearest
shot@@
cade
worsened
optimist
substitu@@
mined
Soc@@
archit@@
nervously
irac
ambush
Bachelor
success@@
proprietor
209
189
reti@@
ponder
compos@@
D1
Excellence
Elisha
1962
curl
aides
affirming
spaghetti
homicide
orchestr@@
206
renamed
complies
shipper
igns
brilliance
194
interestingly
Sham
Hak@@
matr@@
corpor@@
onica
foli@@
conson@@
tempo
Gloria
seams
journe@@
Hamburg
educator
188
itarianism
guide@@
pretreatment
sculptures
juicy
inaugur@@
freeway
Tobago
Dam
photon
Interests
Hudson
hefty
nouns
UND@@
midfield
claim@@
athle@@
ku
equator
Instr@@
harvested
reversing
envisage
Wick@@
resorted
cial
evidences
rejo@@
Buck
von
hardening
sticians
monotonous
nests
superstar
embell@@
anis@@
BB@@
condens@@
roph@@
corrugated
anomalies
lax
sear@@
Kyrgyz
cannabis
epidemiological
identifier
rectomy
Petro@@
riders
202
Marco
gynec@@
photocopy
Ship
marri@@
accru@@
enamel
Wave
puberty
Ferry
misunderstandings
entrenched
denominated
Kln
contrasts
tern
attackers
linearity
strand
Domin@@
topus
safe@@
dles
Mitsubishi
Prynne
visu@@
izers
geese
wiping
FROM
litres
renched
shuffle
speechless
sq
visionary
Step
carbohydrates
Plants
prerequisites
smog
io@@
blical
&apos;affaires
prevails
Choi
Associate
grieve
Chin
ographers
tification
CONF.@@
Changsha
jamming
Moder@@
spect
fancied
billionaire
Championships
squirrel
inflex@@
NAD@@
luster
upsurge
Perspective
meningi@@
intravenous
patron
germination
unimportant
cyber@@
awk@@
echan@@
arthro@@
affliction
noxious
inable
aromas
ransom
embarr@@
preser@@
vement
studios
VA
PUBLIC
presumed
Zurich
behaving
crater
5.6
simul@@
00m
protot@@
Emma
18,@@
Hez@@
electri@@
neighbor@@
lends
anyang
thence
oto
Hat@@
metallo@@
degraded
Teresa
swa@@
1946
Peg@@
paddy
near@@
fea@@
oyang
Langu@@
mediocre
Signal
Mu
covert
calculates
Movie
prin@@
Phillips
dreamt
Chron@@
upbeat
judgements
Operational
filthy
Publication
translates
Engine
redouble
organis@@
Kazak@@
Structural
buoyant
Kad@@
fertili@@
Bill@@
pulsed
concentrates
jamas
inverted
Byr@@
deep@@
pper
remit
1,800
resonant
abducted
destro@@
Lan
flexibly
messengers
redeemed
Alco@@
Least
vintage
impasse
Zoning
shrewd
states@@
zzy
hass@@
insulated
silhou@@
Sr@@
salient
shabby
68@@
elaborates
satisfies
warp
venti@@
dismantled
kinetics
Nicole
Moab
Forestry
probing
Queensway
Monkey
piezoelectric
complainant
333
bun
rag
cockro@@
blush
snowy
jig@@
gsten
Guinness
Ottawa
................@@
passionately
Himalay@@
Chain
constructions
crank
Tourist
pha@@
iters
frank@@
Dictionary
atri@@
dolls
overcoat
Cardi@@
beau@@
Life@@
escorted
carbons
reacti@@
hum
AU@@
EE@@
sorrow@@
Osse@@
CCC
sby
Singaporeans
Example
richly
brilliantly
e.I
glossy
oles
sage
risked
Karzai
disproportionate
gem
Cities
piety
superse@@
zoom
aquaculture
Sic@@
recollection
aam
honourable
sheriff
Provision
1,9@@
flea
Wiki@@
diluted
poly
Gray
Lab
Celebr@@
mainstay
va@@
adore
SOA
undone
vis--vis
lumber
Ny@@
scrub
discrepancies
Tennessee
Rou@@
Mass@@
goddamn
pope
ignores
envelopes
punc@@
Italians
Lesson@@
bipolar
RI
Mama
guerrilla
chunks
spitting
narrowing
tfully
apol@@
ent.@@
Ped@@
Zhi
Nasiriyah
suffrage
correlative
Coffee
expended
environment@@
Keith
s.It
Peacekeeping
oker
challeng@@
Wag@@
ION@@
emigr@@
intel@@
begg@@
orum
yar@@
trendy
geothermal
cious
halves
bulky
174
PROVISIONS
exportation
catheter
sulfide
Yos@@
rudeness
methyl@@
favorably
Galil@@
itry
fencing
radiotherapy
umi
diode
white@@
keynote
massacres
280
igning
LP
&apos;er
uminous
Chambers
animate
legged
blasted
&apos;so
Hit@@
SNA
meted
Cat
equivalence
ferment
Developed
renders
Kentucky
stoc@@
pianist
RES
je
ient
nem@@
palaces
preconditions
gatherings
turf
board@@
antibacterial
fledged
Several
U.@@
Cohen
Real@@
hardt
escalating
annot@@
tral
excep@@
3bn
boxer
trav@@
rhin@@
HKIA
survivor
Marya
abnormality
uprising
Farm
monastery
ossi@@
jeopardy
jobless
cyst
Courses
today@@
Abbas
Harmon@@
Fe
Dec
frac@@
tumour
Il
asymp@@
Waterloo
enacting
tarian
ise@@
migrated
GEF
flashes
deceit
directories
versi@@
famed
staging
Raj@@
latch
infinitely
spirited
Plus
emptied
Policies
acquaintances
heighten
fostered
murmur
slots
toothbrush
g.
0.8
Mole
geographically
C.3
itics
JO@@
inbound
Dublin
multiplier
NATIONAL
GO
denum
Say@@
wrongly
ified
Assets
cible
endothelial
devising
reconciled
technic
Laos
scen@@
ancillary
Institu@@
abling
232
nominate
derog@@
luck@@
tion.@@
oam
Motorola
cooker
senile
Buy
camels
competency
consummate
Suisse
Hughes
generalization
aken
hauled
trics
workmen
compress
Zo@@
saline
repeal
Still
Provide
counterfeiting
aye
tari@@
persecu@@
fingerprints
hr@@
blind@@
verted
Phone
cn@@
ight@@
ptuous
aul
186
subdued
clan@@
soothe
complexities
speed@@
PU
Canad@@
iton
averaging
glaciers
commercials
visibly
lact@@
arith@@
Mineral
idi
pois@@
clown
icant
tattoo
Hurricane
nour@@
odon@@
Henderson
slogans
Challenge
communicable
dust@@
Exit
journeys
stalemate
ulin
structuring
Acqu@@
Dha@@
anatom@@
safeguarded
Gin@@
follic@@
vigour
valiant
CCW
lobster
suppressing
Cann@@
PCR
senseless
destabilizing
pregnancies
transmit@@
Thre@@
halo
evangel@@
unnoticed
Cz@@
Stock@@
atl@@
endency
Laurie
Complaints
28th
imposes
malfunction
believ@@
feeder
SUP@@
scaffold
exasper@@
blogging
Plans
painstaking
oper
enumer@@
decency
runaway
oken
antenn@@
pol
Thaksin
Bin@@
analogous
opath@@
decorating
broadest
peaked
Prosecu@@
ancestral
mutton
sheltered
tresp@@
girder
Alter@@
Lind@@
Custom@@
cog@@
ods
stemming
scholarly
teth
invaders
sinned
auditory
flag@@
Monitor
ophthal@@
overriding
dilute
Gret@@
pea
LI
retina
Wenger
ophone
horizons
Feli@@
unrav@@
Inn
lunch@@
Sheikh
smil@@
resent@@
overseeing
odynamics
Ou@@
loops
sermon
emens
insensitive
Frederick
cio
carelessly
videot@@
Accord
microbes
souvenirs
hydro
workmanship
Sym@@
crave
affe
afloat
snatch
illustrations
Low@@
unsteady
engrav@@
rier
market@@
popl@@
Fitz@@
host@@
enlarging
Corn@@
aemia
Memory
omial
finely
climat@@
pancreatic
tec
addling
valuations
Important
discord
tify
orbits
invigor@@
malpractice
puff
Comrade
athe
compart@@
emitting
canny
BD
intently
ning.@@
cogniz@@
Historical
poster@@
inhabit
agement
hurdle
rehabil@@
depict
twists
hoar@@
Factors
esters
cook@@
esopha@@
&apos;is
wak@@
impeded
degrade
Pak
gaby@@
raids
attends
flushing
cheaply
oblige
coupons
70,000
obligatory
uper@@
composing
summarizing
meditated
wonderfully
ocul@@
Medi@@
oyster
guinea
U.S.@@
Horse
outed
bbles
immoral
Governance
jina
counselor
broadc@@
chromat@@
aggregated
complains
recess
AGE
collapsing
Everything
rehabilitate
Barney
bracing
miraculous
limp
Year@@
operability
methanol
ceremonial
Kon@@
oddly
confinement
necks
elevate
Plain
Eurasian
cabinets
hypoc@@
awarding
resurrection
Ves@@
Dro@@
grafting
Shopping
beak
elapsed
Psy@@
correspondingly
whos@@
clum@@
ancements
puzzles
Recon@@
pse
Providing
Head@@
attainable
intercept
proprietorship
330
playful
powders
onite
Character
bondage
jog
subjec@@
quickest
RAM
endogenous
bullish
dity
5ee@@
wrap@@
Swim@@
handicraft
hereto
requisi@@
captiv@@
b.@@
fowl
aciously
rowed
alysis
skinned
strawberries
trifle
Mozambic@@
armoured
Path
max
Moody
regim@@
eup
authoritarian
fir
superi@@
fermented
IK@@
brewing
thorough@@
charger
articulated
deceptive
owls
paw
discounted
frantic
Events
skeletal
flagship
fences
monstrous
4.The
Hz
Dayton
rhyth@@
smooth@@
evi@@
Parts
1930s
emini
Gene
Campbell
Sir@@
recognizable
sten
firefighters
presume
decisively
clen@@
countrys
mileage
Venture
Plas@@
Trop@@
aired
stan
&apos;she
ere@@
burn@@
Protestant
RPF
robes
Gren@@
workplaces
Biology
underdevelopment
retaliation
Tool
cuff
shouldnt
besieged
interrog@@
Unicom
disconnect
carelessness
kilometre
archae@@
softer
ripples
oi
chimpanze@@
2.The
Kang
manipulated
squeezing
solder
Ren
Conflict
hens
lacqu@@
ucle@@
Prac@@
Volume
kindergartens
1,7@@
hoist
claw
Causeway
majeure
gid
cork
Id@@
dictionaries
Mak@@
roared
Minim@@
quin@@
commenting
pyramids
FMLN
slippers
estyle
condom
Dangerous
liquidated
ometri@@
inadvertently
mine@@
securiti@@
Thenardier
SL
prehistoric
froze
Nasdaq
ITS
trailers
Prud@@
franch@@
.For
activating
respectfully
31st
lege
oter
inert
Cu
yb@@
defi@@
leagues
cough@@
shru@@
preface
physicist
handshake
restr@@
Vance
etric
pathogens
weddings
orr@@
hound
albums
biter
selves
ugg@@
luc@@
Left
reflec@@
Carbon
Neuro@@
cyclones
handicap
mitigating
impulsive
plural
hilly
ambassadors
initis
Pir@@
atra
bracelet
courier
Suppl@@
own@@
reconstructed
nally
zi@@
trailing
ethnicity
pluck
--that
oceanic
Charg
PID
bathed
airway
bytes
Gucci
gab@@
socialization
overboard
conjec@@
ritis
librarian
inhibitor
efulness
cropping
rocked
Basel
afe
Vinc@@
glaze
stacked
scratching
Mercedes
Establishing
fellowships
nourished
greens
Esau
isotope
ordinances
kled
Iike
homemade
Bau@@
refe@@
demol@@
shortening
3m
shar@@
mathematic
backstopping
reasoned
comprehensible
advers@@
dispu@@
Chall@@
epidemi@@
half@@
biologists
pointless
COG
Cyberport
retailing
sporadic
conquest
synag@@
Initi@@
oneal
superpower
pregn@@
softened
64@@
ultrason@@
ipel@@
microprocessor
PEOPLE
Crescent
attire
Bom@@
ainer
stom
fauna
deregulation
chariots
Castro
oods
excur@@
demolished
Kum@@
Australians
emption
snee@@
Wine
Engineers
fairs
poise
Jia@@
harming
invests
ethn@@
iv
Powell
mite
3.9
CK
inflated
geometrical
stillness
Metropol@@
ust@@
caliber
amide
furthering
experimenting
opes
abrasion
Some@@
Tos@@
mended
televisions
Hannah
illuminate
Peter@@
Hou@@
neglecting
SEM
zel
radiance
Sovere@@
forgiving
Giant
fugitive
Card@@
Mod@@
Sti@@
generative
categorized
Prin
peanuts
toff
psychiatrist
formality
fenced
liveli@@
aties
Range
Spectro@@
athy
touring
bony
transplanted
steadfast
lowly
ggl@@
brim@@
blasph@@
Pu
Mona
Rev.1
ickering
Iz@@
fret@@
1930
Spani@@
iris
Choice
ral
conte@@
firecr@@
thylene
ominous
orchard
23rd
Sequ@@
Cret@@
ostr@@
Sheng
crabs
midd@@
melts
www.youtheme.@@
ariat
pard
perpendicular
Fra@@
scramble
dispense
Duties
tou
ventured
augment
resorts
Butter@@
--------@@
waterway
curbing
Town@@
quity
eastward
Zhen@@
comfor@@
isers
Yin@@
obste@@
disinfec@@
unrestricted
228
Duncan
tique
Wah
Ethics
Buc@@
remuner@@
nailed
spire
heroine
Looking
infertility
individualism
Havana
Armstrong
fidelity
incidentally
Sawyer
beck@@
Stuart
multilateralism
Need
concub@@
Penal
Pyr@@
instinc@@
watermelon
49@@
Brain
yor@@
Leadership
constructor
fide
bula
strate
swamp
Event
motherhood
Reyn@@
Race
ulti@@
cereals
climbers
ativeness
repentance
mildly
IPF
flavon@@
justices
honorary
Pow@@
shady
Reporting
porridge
oody
doc
flattering
Healthy
PRH
Mario
hammered
EPA
thither
sushi
filial
unsaturated
icit
robbing
zhen
Leaders
supposing
court@@
Contrac@@
prairie
aut
Wenzhou
babe
646
Emerson
utiliz@@
Eddie
polyn@@
yel@@
weather@@
contemp@@
Batt@@
buy@@
sprayed
Journ@@
commend@@
Crimes
armored
laparoscopic
john
adventurous
backpack
vines
Classification
Nice
acknowledgment
peroxide
exhaustible
ason
LAS
Biden
perished
Falls
Guidance
itching
Eva
Advertising
bombed
tv
Caledonia
Heavy
poli
youngster
note@@
chromosomes
Stamford
rejoicing
iment
Yuan@@
Gui@@
essentials
carto@@
protagon@@
kitch@@
Seventh
liberalisation
Vac@@
banners
TU@@
ascent
Cain
LOG@@
Walker
hedging
Something
miti@@
crossroads
amphibi@@
stabbed
mani@@
Lantern
rushes
Pad@@
branding
derer
Blu@@
decidedly
Eric@@
subset
Tou@@
aerob@@
axi@@
phenomenal
Think
buckle
cinoma
Nev@@
arrang@@
petrochemical
antis
25th
preached
pool@@
Leonardo
methodological
cashmere
mammal
destruc@@
Coll@@
equate
7.4
fictional
nanop@@
ledger
disillu@@
Made
solvency
stimulates
pum@@
checkpoint
Trustees
Detection
democr@@
550
rebuke
homosex@@
squarely
Filip@@
sectional
shrank
utters
portray
Adjustment
distinctions
mund@@
bellige@@
ICS
maximizing
drawback
Cotonou
heral@@
synonymous
infra@@
aerodynamic
gans
Dame
attenuation
overheating
resembled
melan@@
garrison
cray@@
ris
Bertr@@
BU@@
versit@@
countess
Beautiful
clapped
suitably
skyscrapers
parachute
dermat@@
meteor
shielding
Learn@@
authorizing
1954
technics
looms
176
gled
Chec@@
inexperienced
Lamb
uns
1,300
paran@@
risking
droplets
Ris@@
something@@
aneurys@@
symbolizes
biologist
shrugged
championships
Ale@@
gear@@
cranes
Weapon
stripe
.6
upgrades
Cin@@
Jon
deri@@
inaction
stunt
y.The
switch@@
Gaddafi
Prem@@
Technological
UNO@@
Letters
instrumentation
yellow@@
sediments
whar@@
crashes
print@@
expanse
216
impeding
Finally
raped
hir
Devil
markings
Alumin@@
ego@@
lessee
Allah
impurity
compliant
hea
nightly
sown
ahu
Creator
radiated
minster
vogue
pancreas
transcend
multin@@
surgeons
anode
byte
Hiro@@
Moldova
CV
reassuring
ipped
coco@@
allu@@
FIFA
scout
235
softening
got@@
Whether
Chun@@
bourgeoisie
Sali@@
fraternity
watermark
s.I
plump
levard
Veget@@
Tobacco
Bei
0.4
sixteenth
acous@@
institutionalized
andan
lubr@@
mp
sinful
frivol@@
implants
a.i.
wrongdoing
arest
subjectivity
cargoes
Clerk
lustr@@
mug
Until
hydrolysis
Collective
metallurgy
suffoc@@
gaseous
intervened
ferro@@
hesitant
tre
glaring
protr@@
Sheetlet
gripped
urea
melo@@
sequencing
onomic
Cox
pert
Pati@@
stuffing
spong@@
periphery
ambul@@
wavering
lish
preacher
persevere
breached
tenable
mitochondri@@
swimmers
Frente
Maine
Miss@@
critique
encryp@@
Bure@@
metro@@
ANY
eh@@
Bad
pluralism
exuber@@
aerosol
HER@@
preamble
circling
brav@@
divor@@
complimentary
filament
480
vibrating
neuron
exhilar@@
andeli@@
Success
Economist
hindrance
asers
northwestern
differed
satin
Archives
damper
Bloomberg
stockpiling
Mum
tana
marijuana
glittering
answ@@
decon@@
doping
overcame
inhabit@@
vapour
edu@@
Frequency
Physics
gait
behaves
380
Gentiles
biofuels
enclosing
MY
mellow
ummy
birthdays
whiskey
frustrations
Hugo
1.I
qiao
dung
75@@
Metro
vented
originates
venants
℃
Disposal
leveraged
NET
Optical
tyrant
ARF
RP
bustle
explorers
propulsion
menstrual
summer@@
ectures
incible
Whe@@
[...]
