#version: 0.2
t ;</w>
q u
qu o
quo t;</w>
& quot;</w>
我 们</w>
一 个</w>
中 国</w>
2 0
他 们</w>
公 司</w>
没 有</w>
问 题</w>
可 以</w>
发 展</w>
工 作</w>
进 行</w>
国 家</w>
来 源</w>
0 0</w>
记 者</w>
标 题</w>
政 府</w>
自 己</w>
1 0</w>
这 个</w>
市 场</w>
可 能</w>
这 些</w>
1 9
经 济</w>
表 示</w>
已 经</w>
企 业</w>
如 果</w>
美 国</w>
什 么</w>
方 面</w>
通 过</w>
社 会</w>
认 为</w>
需 要</w>
1 1</w>
时 间</w>
一 些</w>
因 为</w>
提 供</w>
目 前</w>
国 际</w>
情 况</w>
研 究</w>
人 员</w>
就 是</w>
组 织</w>
20 0
开 始</w>
影 响</w>
以 及</w>
重 要</w>
新 华
现 在</w>
不 是</w>
部 分</w>
但 是</w>
有 关</w>
项 目</w>
成 为</w>
主 要</w>
活 动</w>
其 他</w>
安 全</w>
管 理</w>
这 样</w>
同 时</w>
部 门</w>
使 用</w>
这 种</w>
要 求</w>
世 界</w>
系 统</w>
技 术</w>
服 务</w>
价 格</w>
地 区</w>
建 设</w>
机 构</w>
产 品</w>
19 9
北 京</w>
会 议</w>
新华 网</w>
委 员
包 括</w>
委员 会</w>
生 活</w>
学 生</w>
必 须</w>
时 候</w>
一 种</w>
作 为</w>
所 有</w>
1 2</w>
政 策</w>
今 年</w>
出 现</w>
知 道</w>
孩 子</w>
发 现</w>
教 育</w>
对 于</w>
规 定</w>
其 中</w>
不 能</w>
人 民
计 划</w>
2 0</w>
合 作</w>
发 生</w>
由 于</w>
希 望</w>
报 告</w>
城 市</w>
投 资</w>
提 出</w>
银 行</w>
根 据</w>
. .
关 系</w>
中 心</w>
方 式</w>
联 合
还 是</w>
增 长</w>
文 化</w>
特 别</w>
.. .</w>
方 法</w>
美 元</w>
应 该</w>
因 此</w>
不 同</w>
关 于</w>
大 学</w>
不 会</w>
很 多</w>
增 加</w>
地 方</w>
相 关</w>
中 国
决 定</w>
继 续</w>
实 现</w>
或 者</w>
非 常</w>
提 高</w>
正 在</w>
能 力</w>
任 何</w>
信 息</w>
3 0</w>
了 解</w>
显 示</w>
环 境</w>
人 们</w>
得 到</w>
为 了</w>
行 动</w>
支 持</w>
一 次</w>
0 00</w>
万 元</w>
设 计</w>
所 以</w>
介 绍</w>
生 产</w>
分 析</w>
一 步</w>
能 够</w>
资 源</w>
一 直</w>
代 表</w>
不 过</w>
调 查</w>
全 国</w>
1 .
许 多</w>
作 用</w>
先 生</w>
而 且</w>
标 准</w>
执 行</w>
联合 国</w>
20 11</w>
20 10</w>
方 案</w>
看 到</w>
存 在</w>
行 为</w>
建 立</w>
我 国</w>
数 据</w>
具 有</w>
加 强</w>
目 标</w>
起 来</w>
之 间</w>
如 何</w>
接 受</w>
过 程</w>
选 择</w>
获 得</w>
措 施</w>
建 议</w>
一 定</w>
1 5</w>
告 诉</w>
解 决</w>
日 本</w>
5 0</w>
还 有</w>
亿 元</w>
这 是</w>
之 后</w>
报 道</w>
学 校</w>
结 果</w>
达 到</w>
全 球</w>
处 理</w>
资 金</w>
工 作
虽 然</w>
保 护</w>
一 样</w>
行 业</w>
是 否</w>
两 个</w>
你 们</w>
收 入</w>
以 来</w>
参 加</w>
制 度</w>
单 位</w>
努 力</w>
那 么</w>
进 一步</w>
上 海</w>
主 义</w>
造 成</w>
原 因</w>
一 起</w>
销 售</w>
超 过</w>
网 络</w>
国 内</w>
地 产</w>
只 有</w>
水 平</w>
最 后</w>
汽 车</w>
领 域</w>
完 成</w>
人 士</w>
集 团</w>
那 些</w>
未 来</w>
它 们</w>
期 间</w>
人 民</w>
最 大</w>
保 障</w>
进 入</w>
第 二
去 年</w>
实 施</w>
之 一</w>
举 行</w>
媒 体</w>
只 是</w>
条 件</w>
利 用</w>
甚 至</w>
区 域</w>
帮 助</w>
以 上</w>
香 港</w>
基 金</w>
有 效</w>
2 .
控 制</w>
朋 友</w>
基 础</w>
法 律</w>
采 取</w>
喜 欢</w>
关 注</w>
基 本</w>
产 生</w>
持 续</w>
一 位</w>
资 料</w>
开 发</w>
过 去</w>
改 革</w>
考 虑</w>
事 件</w>
不 断</w>
来 说</w>
责 任</w>
指 出</w>
消 费
成 功</w>
比 较</w>
产 业</w>
工 程</w>
导 致</w>
经 济
专 家</w>
按 照</w>
网 站</w>
业 务</w>
促 进</w>
0 .
今 天</w>
需 求</w>
直 接</w>
受 到</w>
历 史</w>
严 重</w>
目 的</w>
参 与</w>
之 前</w>
和 平</w>
学 习</w>
变 化</w>
不 要</w>
带 来</w>
家 庭</w>
北 京
质 量</w>
& a
健 康</w>
o s
来 自</w>
注 意</w>
觉 得</w>
减 少</w>
这 一</w>
各 种</w>
范 围</w>
应 当</w>
无 法</w>
内 容</w>
准 备</w>
大 家</w>
出 来</w>
并 且</w>
日 电</w>
完 全</w>
取 得</w>
发 布</w>
结 构</w>
上 涨</w>
个 人</w>
规 模</w>
社 会
机 会</w>
管 理
任 务</w>
此 外</w>
随 着</w>
然 后</w>
这 里</w>
事 情</w>
新 闻</w>
东 西</w>
电 话</w>
第 一
日 报</w>
调 整</w>
规 划</w>
2 5</w>
英 国</w>
保 持</w>
大 会</w>
小 时</w>
因 素</w>
1 3</w>
消费 者</w>
应 用</w>
压 力</w>
医 院</w>
1 8</w>
政 治</w>
开 展</w>
意 见</w>
1 4</w>
形 成</w>
办 法</w>
品 牌</w>
有 人</w>
的 话</w>
拥 有</w>
采 用</w>
食 品</w>
公 布</w>
如 此</w>
p os
明 显</w>
消 息</w>
1 6</w>
住 房</w>
然 而</w>
更 加</w>
pos ;</w>
&a pos;</w>
主 席</w>
当 地</w>
作 出</w>
积 极</w>
土 地</w>
申 请</w>
程 序</w>
传 统</w>
研 究
表 现</w>
有 些</w>
价 值</w>
成 本</w>
分 别</w>
尽 管</w>
确 定</w>
下 降</w>
稳 定</w>
左 右</w>
一 切</w>
法 院</w>
机 制</w>
改 变</w>
不 少</w>
交 易</w>
领 导</w>
一 般</w>
1 00</w>
机 关</w>
月 份</w>
总 统</w>
用 户</w>
房 地产</w>
正 式</w>
不 仅</w>
一 点</w>
4 0</w>
当 时</w>
3 .
一 名</w>
儿 童</w>
多 数</w>
费 用</w>
文 件</w>
整 个</w>
第 三
风 险</w>
全 面</w>
6 0</w>
比 赛</w>
决 议</w>
重 点</w>
专 业</w>
讨 论</w>
每 个</w>
8 0</w>
那 个</w>
& #
有 限
贷 款</w>
共 同</w>
最 终</w>
经 过</w>
除 了</w>
最 近</w>
大 量</w>
&# 9
一 年</w>
公 开</w>
空 间</w>
旅 游</w>
一 家</w>
人 口</w>
国 际
一 下</w>
怎 么</w>
确 保</w>
2 1</w>
程 度</w>
现 场</w>
1 7</w>
设 备</w>
容 易</w>
越 来
精 神</w>
行 政</w>
电 影</w>
下 来</w>
结 束</w>
群 众</w>
国 家
安 排</w>
1 9</w>
推 动</w>
模 式</w>
创 新</w>
运 动</w>
科 技</w>
负 责</w>
用 于</w>
感 到</w>
利 益</w>
实 际</w>
及 其</w>
危 机</w>
成 员</w>
购 买</w>
另 外</w>
科 学</w>
体 系</w>
妇 女</w>
投 资
代 表
欧 洲</w>
同 样</w>
真 正</w>
仍 然</w>
意 义</w>
事 会</w>
材 料</w>
能 源</w>
才 能</w>
金 融
相 信</w>
为 什么</w>
表 明</w>
经 营</w>
网 友</w>
越来 越</w>
手 机</w>
功 能</w>
工作 人员</w>
负 责
预 计</w>
2 4</w>
学 院</w>
这 次</w>
战 略</w>
有限 公司</w>
第 一</w>
协 议</w>
全 部</w>
主 任</w>
检 查</w>
这 么</w>
宣 布</w>
平 方
一 天</w>
保 证</w>
4 .
不 到</w>
面 临</w>
系 列</w>
阶 段</w>
几 个</w>
感 觉</w>
双 方</w>
形 式</w>
引 起</w>
贸 易</w>
其 实</w>
推 出</w>
找 到</w>
强 调</w>
针 对</w>
服 务
具 体</w>
居 民</w>
2 2</w>
昨 日</w>
经 验</w>
事 故</w>
成 立</w>
几 乎</w>
此 次</w>
200 9</w>
秘 书
治 疗</w>
设 施</w>
负责 人</w>
利 亚</w>
官 员</w>
上 市</w>
每 天</w>
以 下</w>
长 期</w>
权 利</w>
出 口</w>
5 00</w>
各 国</w>
制 定</w>
人 类</w>
困 难</w>
罗 斯</w>
平 台</w>
现 象</w>
联 系</w>
尤 其</w>
效 果</w>
台 湾</w>
部 队</w>
2 3</w>
说 明</w>
新 闻
比 亚</w>
干 部</w>
资 产</w>
推 进</w>
2 8</w>
采 访</w>
改 善</w>
面 积</w>
1 0
十 分</w>
最 高</w>
当 然</w>
学 家</w>
5 .
发 展
认 识</w>
犯 罪</w>
必 要</w>
i n
原 则</w>
秘书 长</w>
亿 美元</w>
自 然</w>
很 大</w>
消 费</w>
重 大</w>
国 务
中 央</w>
6 .
协 调</w>
证 明</w>
坚 持</w>
开 发
办 公
儿 子</w>
最 好</w>
老 师</w>
平方 米</w>
综 合</w>
似 乎</w>
每 年</w>
人民 币</w>
经 常</w>
数 量</w>
共 和
农 村</w>
民 族</w>
以 后</w>
下 午</w>
扩 大</w>
电 视</w>
再 次</w>
游 戏</w>
培 训</w>
世 纪</w>
提 升</w>
2 6</w>
援 助</w>
市 场
车 型</w>
分 钟</w>
医 生</w>
离 开</w>
简 单</w>
状 况</w>
首 先</w>
客 户</w>
涉 及</w>
父 母</w>
时 代</w>
俄 罗斯</w>
经 理</w>
微 博</w>
通 知</w>
以 前</w>
警 方</w>
只 要</w>
公 众</w>
交 流</w>
解 释</w>
明 确</w>
多 少</w>
年 来</w>
7 0</w>
力 量</w>
世 界
一 项</w>
近 日</w>
父 亲</w>
一 条</w>
发 挥</w>
监 管</w>
飞 机</w>
维 持</w>
理 论</w>
a n
合 同</w>
2 7</w>
重 新</w>
支 付</w>
通 常</w>
工 业</w>
至 少</w>
市 民</w>
书 记</w>
巨 大</w>
联 合</w>
理 事会</w>
时 期</w>
死 亡</w>
当 前</w>
正 常</w>
而 是</w>
地 震</w>
监 督</w>
统 计</w>
昨 天</w>
季 度</w>
多 年</w>
动 力</w>
自 由</w>
7 .
属 于</w>
0 0
状 态</w>
降 低</w>
调 控</w>
完 善</w>
200 8</w>
限 制</w>
房 价</w>
对 此</w>
透 露</w>
面 对</w>
商 品</w>
位 于</w>
公 里</w>
a r
英 语</w>
e r
公 安
首 次</w>
来 看</w>
反 映</w>
事 业</w>
避 免</w>
投资 者</w>
迅 速</w>
案 件</w>
网 上</w>
十 二
愿 意</w>
法 国</w>
总 是</w>
计 算</w>
欢 迎</w>
比 例</w>
一 份</w>
相 比</w>
只 能</w>
8 .
同 意</w>
同 比</w>
各 地</w>
大 多数</w>
母 亲</w>
集 中</w>
生 命</w>
女 性</w>
那 里</w>
20 0</w>
电 视
o n
结 合</w>
也 许</w>
地 位</w>
竞 争</w>
联 网</w>
半 年</w>
恢 复</w>
9 0</w>
速 度</w>
评 价</w>
处 于</w>
上 述</w>
运 行</w>
上 升</w>
武 器</w>
开 放</w>
领 导
生 产
2 9</w>
斯 坦</w>
三 个</w>
给 予</w>
作 品</w>
设 立</w>
鼓 励</w>
3 1</w>
肯 定</w>
投 入</w>
预 期</w>
广 州</w>
美 国
良 好</w>
财 政
合 理</w>
商 业</w>
优 势</w>
教 授</w>
指 数</w>
金 融</w>
经 历</w>
满 足</w>
这 项</w>
真 的</w>
资 本</w>
意 识</w>
不 得</w>
身 体</w>
国务 院</w>
方 向</w>
别 人</w>
就 业</w>
附 近</w>
知 识</w>
实 行</w>
相 对</w>
妈 妈</w>
员 工</w>
广 告</w>
广 泛</w>
即 使</w>
女 人</w>
保 险</w>
安 全
机 场</w>
电 脑</w>
日 前</w>
199 4</w>
交 通</w>
艺 术</w>
趋 势</w>
交 易
意 味
部 长</w>
大 部分</w>
利 比亚</w>
食 物</w>
预 算</w>
印 度</w>
电 子
人 权</w>
平 均</w>
选 举</w>
理 解</w>
污 染</w>
房 子</w>
共和 国</w>
财 政</w>
担 心</w>
加 入</w>
供 应</w>
动 物</w>
创 造</w>
比 如</w>
社 区</w>
符 合</w>
意味 着</w>
手 段</w>
事 务</w>
召 开</w>
例 如</w>
行 政
中 央
发 行</w>
现 代</w>
教 师</w>
组 成</w>
建 筑</w>
从 而</w>
反 应</w>
充 分</w>
利 润</w>
训 练</w>
语 言</w>
办公 室</w>
承 诺</w>
重 视</w>
连 续</w>
统 一</w>
农 业</w>
那 样</w>
晚 报</w>
位 置</w>
截 至</w>
批 准</w>
加 快</w>
更 好</w>
非 洲</w>
本 文</w>
女 儿</w>
实 际
思 想</w>
十 年</w>
变 得</w>
制 造</w>
危 险</w>
代表 团</w>
人 才</w>
而 言</w>
协 会</w>
独 立</w>
关 键</w>
做 出</w>
及 时</w>
新华 社</w>
整 体</w>
挑 战</w>
随 后</w>
内 部</w>
不 再</w>
股 份</w>
上 午</w>
一 方面</w>
依 然</w>
故 事</w>
评 估</w>
男 人</w>
吸 引</w>
维 护</w>
利 率</w>
最 新</w>
数 字</w>
当 天</w>
举 办</w>
来 到</w>
照 片</w>
女 士</w>
其 它</w>
曾 经</w>
记 录</w>
冲 突</w>
这 位</w>
回 答</w>
启 动</w>
进 程</w>
战 争</w>
如 今</w>
大 型</w>
物 质</w>
宣 传</w>
进 口</w>
可 是</w>
小 组</w>
损 失</w>
引 发</w>
发 表</w>
石 油</w>
军 事</w>
特 点</w>
互 联网</w>
职 业</w>
交 通
加 大</w>
享 受</w>
第 四
此 前</w>
承 认</w>
考 试</w>
适 当</w>
清 楚</w>
态 度</w>
车 辆</w>
199 3</w>
将 会</w>
9 .
审 查</w>
规 范</w>
快 速</w>
在 于</w>
落 实</w>
论 坛</w>
基 地</w>
德 国</w>
亚 洲</w>
确 实</w>
工 具</w>
公 共
谈 判</w>
使 得</w>
下 跌</w>
草 案</w>
收 费</w>
检 测</w>
年 度</w>
一 致</w>
不 足</w>
人 数</w>
普 通</w>
一 场</w>
进 展</w>
工 资</w>
家 长</w>
证 券</w>
公 共</w>
融 资</w>
令 人</w>
拉 克</w>
怎 样</w>
各 项</w>
节 目</w>
发 出</w>
收 到</w>
监 测</w>
公 路</w>
变 成</w>
住 宅</w>
第 二</w>
还 要</w>
运 输</w>
普 遍</w>
相 当</w>
特 殊</w>
债 务</w>
软 件</w>
幸 福</w>
登 记</w>
苹 果</w>
道 路</w>
多 个</w>
近 期</w>
指 导</w>
威 胁</w>
农 民</w>
她 们</w>
卫 生</w>
工 程
核 心</w>
出 台</w>
立 即</w>
基 于</w>
突 然</w>
某 些</w>
事 实</w>
卫 生
允 许</w>
妻 子</w>
证 券
男 子</w>
于 是</w>
文 化
3 00</w>
尼 亚</w>
仅 仅</w>
探 讨</w>
20 00</w>
测 试</w>
中 华
教 育
计 算
一 部分</w>
信 息
往 往</w>
19 8
晚 上</w>
条 例</w>
根 本</w>
类 似</w>
两 年</w>
老 人</w>
复 杂</w>
丰 富</w>
年 底</w>
从 事</w>
兴 趣</w>
音 乐</w>
后 来</w>
天 气</w>
年 轻</w>
一 个
以 色
贡 献</w>
实际 上</w>
规 则</w>
主 题</w>
女 孩</w>
移 动</w>
韩 国</w>
现 实</w>
咨 询</w>
1 ;</w>
&#9 1;</w>
优 惠</w>
成 绩</w>
文 章</w>
操 作</w>
很 快</w>
以 便</w>
革 命</w>
培 养</w>
员 国</w>
公 约</w>
委 会</w>
经 费</w>
以色 列</w>
意 思</w>
有 所</w>
缺 乏</w>
技 术
模 型</w>
第 一次</w>
事 实
指 标</w>
打 击</w>
细 胞</w>
患 者</w>
电 子</w>
房 屋</w>
深 圳</w>
警 察</w>
正 是</w>
逐 渐</w>
商 业
对 象</w>
拒 绝</w>
生 物</w>
唯 一</w>
高 级</w>
永 远</w>
声 明</w>
中 小
开发 商</w>
重 庆</w>
承 担</w>
是 因为</w>
年 代</w>
表 达</w>
成 果</w>
应 对</w>
3 ;</w>
&#9 3;</w>
大 幅</w>
免 费</w>
看 看</w>
做 好</w>
之 外</w>
体 现</w>
反 对</w>
想 要</w>
增 强</w>
错 误</w>
不 可</w>
不 得
一 旦</w>
3 5</w>
他 人</w>
几 年</w>
1 8
大 约</w>
一 系列</w>
动 机</w>
高 兴</w>
本 身</w>
审 议</w>
公 务
局 长</w>
北京 市</w>
高 校</w>
看 来</w>
力 度</w>
律 师</w>
星 期
艺 术
o r
严 格</w>
制 作</w>
e r</w>
运 会</w>
身 上</w>
发展 中
发展中 国家</w>
成 交</w>
疾 病</w>
时 报</w>
即 将</w>
发 言
协 助</w>
适 合</w>
声 音</w>
正 确</w>
有 着</w>
预 测</w>
展 开</w>
委 员</w>
值 得</w>
今 后</w>
近 年来</w>
试 验</w>
担 任</w>
紧 张</w>
观 点</w>
衣 服</w>
自 身</w>
股 票</w>
回 家</w>
背 景</w>
课 程</w>
防 止</w>
回 到</w>
达 成</w>
观 察</w>
非 法</w>
权 力</w>
建 筑
现 有</w>
自 治
酒 店</w>
200 7</w>
适 用</w>
提 交</w>
停 止</w>
理 由</w>
州 市</w>
观 众</w>
分 配</w>
运 动
医 疗</w>
概 念</w>
放 在</w>
o n</w>
访 问</w>
一 件</w>
共 产
效 率</w>
性 能</w>
商 品
楼 市</w>
不 可
发 言</w>
联 盟</w>
伦 敦</w>
保 险
民 众</w>
巴 马</w>
办 理</w>
海 外</w>
身 份</w>
听 到</w>
环 保</w>
事实 上</w>
实 验</w>
并 非</w>
特 色</w>
分 子</w>
遇 到</w>
寻 找</w>
较 大</w>
大 学生</w>
专 门</w>
视 频</w>
看 见</w>
禁 止</w>
奥 巴马</w>
家 人</w>
结 婚</w>
眼 睛</w>
想 到</w>
名 字</w>
估 计</w>
习 惯</w>
快 乐</w>
价 格
自 主</w>
游 客</w>
对 方</w>
基 本
百 分
全 国
- -</w>
加 上</w>
一 只</w>
环 境
出 席</w>
总 理</w>
形 象</w>
更 是</w>
公 民</w>
4 5</w>
一 张</w>
收 购</w>
距 离</w>
终 于</w>
平 衡</w>
难 以</w>
1 6
多 次</w>
新 华</w>
突 出</w>
感 谢</w>
纽 约</w>
铁 路</w>
里 面</w>
伊 拉克</w>
工 人</w>
出 版</w>
协 商</w>
第 十
传 播</w>
广 东</w>
外 国</w>
4 8</w>
自 动</w>
航 空
领导 人</w>
确 认</w>
出 去</w>
利 于</w>
我 要</w>
家 里</w>
央 行</w>
e n
结 论</w>
回 应</w>
明 星</w>
意 大
展 示</w>
回 来</w>
两 人</w>
或 许</w>
民 主</w>
直 到</w>
1 000</w>
竞 争
保 障
补 贴</w>
食 品
时 尚</w>
为 主</w>
限 购</w>
发言 人</w>
青 年</w>
涨 幅</w>
检 察
失 去</w>
20 12</w>
众 多</w>
欧 盟</w>
图 片</w>
十二 五</w>
法 规</w>
所 谓</w>
低 于</w>
航 空</w>
做 法</w>
显 然</w>
实 践</w>
丈 夫</w>
各 级</w>
业 绩</w>
破 坏</w>
尊 重</w>
资 格</w>
构 成</w>
对 话</w>
相 应</w>
不得 不</w>
依 法</w>
最 佳</w>
逐 步</w>
公 告</w>
大 陆</w>
形 势</w>
i P
西 方</w>
信 心</w>
临 时</w>
不 错</w>
放 弃</w>
设 置</w>
取 消</w>
人 物</w>
有 时</w>
日 起</w>
特 征</w>
主 动</w>
到 底</w>
高 度</w>
足 够</w>
著 名</w>
国 外</w>
财 产</w>
明 年</w>
分 析
内 地</w>
原 来</w>
协 定</w>
当 局</w>
据 悉</w>
社会 主义</w>
体 育</w>
类 型</w>
百 姓</w>
满 意</w>
199 5</w>
渠 道</w>
之 中</w>
转 变</w>
违 法</w>
相 同</w>
深 入</w>
货 币</w>
成 长</w>
面 前</w>
股 市</w>
老 板</w>
下 去</w>
试 图</w>
支 出</w>
采 购</w>
改 进</w>
三 年</w>
呼 吁</w>
民 警</w>
推 广</w>
体 制</w>
同 学</w>
方 便</w>
获 悉</w>
房 间</w>
风 格</w>
年 轻
个 人
充 满</w>
空 气</w>
就 要</w>
在 内</w>
预 防</w>
基 金
以 为</w>
助 于</w>
有 点</w>
地 球</w>
至 于</w>
么 样</w>
药 物</w>
我 会</w>
打 算</w>
强 烈</w>
无 论</w>
提 醒</w>
突 破</w>
幅 度</w>
情 绪</w>
关 心</w>
旅 客</w>
证 据</w>
不 了</w>
团 队</w>
适 应</w>
意大 利</w>
邀 请</w>
官 方</w>
考 生</w>
春 节</w>
伊 朗</w>
基 层</w>
200 6</w>
违 反</w>
年 龄</w>
股 东</w>
关 键
手 术</w>
销 售
配 置</w>
转 移</w>
南 部</w>
策 略</w>
通 胀</w>
1 5
公 园</w>
工 厂</w>
更 为</w>
西 部</w>
签 署</w>
接 近</w>
处 罚</w>
尚 未</w>
角 色</w>
管 部门</w>
在 线</w>
心 理</w>
道 德</w>
收 益</w>
新闻 网</w>
义 务</w>
称 为</w>
已 有</w>
199 6</w>
紧 急</w>
澳 大
统 计
1 4
a c
a t
接 触</w>
数 据
年 人</w>
感 受</w>
1 3
教 学</w>
政 治
至 今</w>
今 日</w>
质 疑</w>
公 平</w>
自 然
为 此</w>
刚 刚</w>
部 署</w>
补 充</w>
坐 在</w>
不 想</w>
消 除</w>
金 额</w>
受 伤</w>
说 法</w>
注 册</w>
进 步</w>
不 管</w>
第 一个</w>
i t
r o
安 装</w>
西 藏</w>
公务 员</w>
优 先</w>
发 动机</w>
前 往</w>
想 法</w>
矛 盾</w>
博 物
不 好</w>
民 主
加 工</w>
改 造</w>
1 7
颜 色</w>
留 下</w>
运 用</w>
依 据</w>
明 白</w>
发 布
详 细</w>
万 人</w>
绿 色</w>
环 节</w>
打 开</w>
200 5</w>
生 态</w>
履 行</w>
探 索</w>
现 代
提 到</w>
上 海
重 要
做 到</w>
过 来</w>
奥 运会</w>
控 制
重 建</w>
期 待</w>
提 前</w>
予 以</w>
日 子</w>
不 够</w>
有 助于</w>
看 起来</w>
评 论</w>
角 度</w>
现 金</w>
南 京</w>
真 实</w>
产 业
军 队</w>
作 者</w>
毕 业</w>
拍 摄</w>
赔 偿</w>
地 点</w>
计 划
运 营</w>
大 规模</w>
共 有</w>
请 求</w>
群 体</w>
演 员</w>
遭 遇</w>
红 色</w>
e l
加 拿
产 权</w>
药 品</w>
秘 书</w>
少 年</w>
理 会</w>
追 求</w>
各 方</w>
澳大 利亚</w>
自治 区</w>
上 去</w>
信 号</w>
升 级</w>
证 实</w>
推 荐</w>
有 限</w>
金 属</w>
纷 纷</w>
用 来</w>
蔬 菜</w>
优 秀</w>
说 话</w>
商 务</w>
具 备</w>
科 学家</w>
第 三</w>
名 单</w>
植 物</w>
袭 击</w>
显 得</w>
阿 富
段 时间</w>
治 理</w>
人 生</w>
是 不是</w>
阅 读</w>
南 省</w>
两 种</w>
北 部</w>
理 想</w>
小 区</w>
或 是</w>
共 同
外 交
积 极
皮 肤</w>
i c
对 手</w>
修 改</w>
不 久</w>
国 人</w>
研 发</w>
节 能</w>
两 岸</w>
事 长</w>
队 伍</w>
爱 情</w>
掌 握</w>
引 导</w>
一 半</w>
绝 对</w>
阿富 汗</w>
持 有</w>
娱 乐</w>
美 丽</w>
伤 害</w>
粮 食</w>
a n</w>
租 房</w>
理 念</w>
共产 党</w>
局 势</w>
配 合</w>
海 洋</w>
各 类</w>
事 项</w>
冠 军</w>
常 常</w>
伙 伴</w>
年轻 人</w>
暴 力</w>
能 性</w>
西 班
损 害</w>
表 面</w>
职 工</w>
居 住</w>
村 民</w>
失 败</w>
攻 击</w>
体 育
业 主</w>
存 款</w>
本 次</w>
制 造
科 学
境 内</w>
出 售</w>
首 都</w>
星 期</w>
总 经理</w>
小 姐</w>
网 络
司 法</w>
病 人</w>
全 新</w>
执 法</w>
飞 行</w>
o o
司 机</w>
工 艺</w>
毕 业
初 步</w>
先 进</w>
多 种</w>
男 孩</w>
球 员</w>
表 演</w>
工 商
二 十
尝 试</w>
楼 盘</w>
难 民</w>
法 庭</w>
充 分
当 日</w>
日 益</w>
一 边</w>
有 利于</w>
加拿 大</w>
标 志</w>
全 省</w>
前 景</w>
仪 式</w>
总 裁</w>
一 套</w>
不 起</w>
集 体</w>
无 论
最 低</w>
货 币
杂 志</w>
葡 萄
阿 拉
五 年</w>
法 律
办 事
成 都</w>
寻 求</w>
安 理会</w>
月 底</w>
指 定</w>
博物 馆</w>
人民 法院</w>
建 设
a l
4 9</w>
幼 儿
4 00</w>
描 述</w>
同 期</w>
几 天</w>
体 验</w>
今 年
装 置</w>
曝 光</w>
下 面</w>
中 新
作 业</w>
很 少</w>
的 确</w>
中国 政府</w>
上 面</w>
平 等</w>
沟 通</w>
3 2</w>
为 何</w>
认 真</w>
遵 守</w>
等 待</w>
民 工</w>
女 子</w>
电 力</w>
检 验</w>
途 径</w>
电 站</w>
始 终</w>
球 队</w>
讲 话</w>
权 益</w>
成 熟</w>
文 明</w>
定 性</w>
人 群</w>
相 互</w>
当 中</w>
议 程</w>
打 造</w>
大 众</w>
性 质</w>
超 市</w>
决 策</w>
医 疗
上 市
工 业
19 7
哪 里</w>
可 能性</w>
上市 公司</w>
灾 害</w>
判 断</w>
人民 政府</w>
私 人</w>
上 半年</w>
见 到</w>
股 权</w>
供 应
顾 客</w>
解 决
埃 及</w>
3 3</w>
先 后</w>
移 民</w>
武 汉</w>
微 博
广 大</w>
之 下</w>
校 长</w>
怀 疑</w>
能 否</w>
内 外</w>
办事 处</w>
英 文</w>
批 评</w>
否 则</w>
各 个</w>
条 约</w>
更 大</w>
优 化</w>
联 邦</w>
职 务</w>
成 就</w>
财 富</w>
不 用</w>
刺 激</w>
马 上</w>
尽 快</w>
那 种</w>
显 著</w>
立 法</w>
真 是</w>
保 护
好 像</w>
明 天</w>
内 人士</w>
总 体</w>
总 部</w>
框 架</w>
旅 游
试 点</w>
周 年</w>
以 外</w>
并 未</w>
新 疆</w>
当 年</w>
为 止</w>
累 计</w>
人 道
业 内人士</w>
纳 入</w>
3 6</w>
信 贷</w>
强 大</w>
3 000</w>
赢 得</w>
希 腊</w>
诉 讼</w>
俱 乐
幼儿 园</w>
油 价</w>
保 留</w>
小 学</w>
团 体</w>
浙 江</w>
中华 人民
接 到</w>
时 刻</w>
出 版
学 会</w>
收 集</w>
旅 行</w>
俱乐 部</w>
首 席</w>
计算 机</w>
货 物</w>
一 代</w>
万 美元</w>
品 质</w>
审 计</w>
这 件</w>
到 达</w>
痛 苦</w>
森 林</w>
伟 大</w>
基 础
产 量</w>
障 碍</w>
劳 动</w>
山 东</w>
看 法</w>
细 节</w>
另 一方面</w>
包 含</w>
申 请
信 任</w>
杭 州</w>
新 型</w>
病 毒</w>
董 事长</w>
人 大
遭 到</w>
装 备</w>
这 场</w>
观 察
梦 想</w>
条 款</w>
5 000</w>
场 所</w>
3 8</w>
高 于</w>
涉 嫌</w>
用 地</w>
阳 光</w>
职 责</w>
婚 姻</w>
与 此
黄 金</w>
保障 性</w>
对 外</w>
顺 利</w>
上 调</w>
香 港
发布 会</w>
婚 礼</w>
日 期</w>
知 识
每 次</w>
很 难</w>
财 务</w>
购 物</w>
东 省</w>
自 我</w>
民 生</w>
和 谐</w>
5 5</w>
一 是</w>
销 量</w>
研究 所</w>
劳 动
有 权</w>
嫌 疑
感 情</w>
199 2</w>
完 整</w>
一 辆</w>
6 00</w>
8 00</w>
下 列</w>
分析 师</w>
周 围</w>
和 华</w>
争 议</w>
一 批</w>
等 等</w>
耶 和华</w>
作 家</w>
图 书
4 7</w>
令 人
转 让</w>
警 告</w>
议 员</w>
爸 爸</w>
年 前</w>
使 用
基金 会</w>
创 作</w>
效 应</w>
四 个</w>
心 里</w>
秘 密</w>
责 任
高 达</w>
航 班</w>
足 球</w>
缓 解</w>
恐 怖
运 作</w>
实 力</w>
出 生</w>
局 面</w>
背 后</w>
年 报</w>
投 票</w>
一 块</w>
增 速</w>
卫 星</w>
包 装</w>
编 辑</w>
农 民工</w>
全 市</w>
决 心</w>
乘 客</w>
资 源
经 营
所 在</w>
环 比</w>
独 特</w>
定 义</w>
太 阳
降 价</w>
四 川</w>
领 土</w>
法 官</w>
同 志</w>
含 量</w>
照 顾</w>
授 权</w>
管 制</w>
高 速</w>
与此 同时</w>
空 调</w>
人道 主义</w>
高 考</w>
有 力</w>
子 女</w>
上 周</w>
新 增</w>
200 4</w>
1 2
民 间</w>
智 能</w>
答 案</w>
房 产</w>
总 额</w>
结 果
第 五
物 品</w>
爆 炸</w>
国 民
温 度</w>
给 出</w>
分 布</w>
思 考</w>
差 距</w>
漂 亮</w>
二 手
组 合</w>
定 期</w>
担 忧</w>
记 得</w>
售 价</w>
差 异</w>
分 享</w>
意 外</w>
武 装</w>
身 边</w>
一 片</w>
依 照</w>
驾 驶</w>
话 题</w>
实 在</w>
特 性</w>
导 演</w>
影 片</w>
将 来</w>
元 素</w>
这 家</w>
团 购</w>
毕业 生</w>
3 7</w>
巴 基
中华人民 共和国</w>
西 亚</w>
嫌疑 人</w>
租 赁</w>
h on
秩 序</w>
完 美</w>
成 交
感 染</w>
参 考</w>
一 周</w>
同 事</w>
设 计
转 型</w>
一个 月</w>
准 确</w>
动 作</w>
高 端</w>
地 铁</w>
危 害</w>
调 查
每 月</w>
连 接</w>
顾 问</w>
这 儿</w>
职 位</w>
想 象</w>
s t
7 5</w>
天 津</w>
男 性</w>
下 滑</w>
彻 底</w>
披 露</w>
负 担</w>
品 种</w>
一 段</w>
看 着</w>
上 帝</w>
3 4</w>
东 部</w>
营 销</w>
招 生</w>
热 情</w>
无 疑</w>
学 者</w>
发 达</w>
覆 盖</w>
流 行</w>
有 望</w>
城 区</w>
巴 勒
本 人</w>
全 世界</w>
报 纸</w>
未 能</w>
兄 弟</w>
太 阳</w>
强 化</w>
图书 馆</w>
胜 利</w>
密 切</w>
短 期</w>
资 助</w>
辐 射</w>
旨 在</w>
债 券</w>
编 制</w>
岗 位</w>
6 5</w>
产 品
冲 击</w>
电视 台</w>
京 报</w>
一 款</w>
精 神
建 成</w>
科 技
巴基 斯坦</w>
排 名</w>
以 往</w>
十 一
多 家</w>
技 能</w>
本 地</w>
储 备</w>
欧 元</w>
打 电话</w>
西班 牙</w>
投 诉</w>
释 放</w>
特 定</w>
二 是</w>
中国 共产党</w>
演 出</w>
食品 安全</w>
一 句</w>
哪 些</w>
总 结</w>
加 速</w>
支 助</w>
银 行
生 存</w>
救 援</w>
纪 录</w>
支 撑</w>
还 会</w>
查 询</w>
离 婚</w>
委 书记</w>
地 说</w>
期 限</w>
邮 件</w>
代 理</w>
运动 员</w>
增 长
主 体</w>
百分 点</w>
合 适</w>
是 从</w>
要 是</w>
更 新</w>
回 落</w>
主 管部门</w>
发 放</w>
毛 泽
会 员国</w>
万 吨</w>
家 具</w>
究 竟</w>
总 量</w>
实 验
文 学</w>
较 为</w>
两 次</w>
创 业</w>
新 加
否 认</w>
补 偿</w>
贸 易
路 上</w>
流 动
中 学</w>
i l
历 史
施 工</w>
主 权</w>
卡 扎
算 法</w>
排 放</w>
基 因</w>
选 人</w>
广 场</w>
黑 色</w>
垃 圾</w>
卡扎 菲</w>
通 信</w>
争 取</w>
中 间</w>
固 定</w>
重 组</w>
白 色</w>
该 国</w>
名 称</w>
测 量</w>
中新 网</w>
朝 鲜</w>
典 型</w>
罚 款</w>
返 回</w>
征 收</w>
福 利</w>
应 急</w>
一 座</w>
签 订</w>
行 车</w>
腐 败</w>
成 员国</w>
市 长</w>
极 大</w>
3 9</w>
当 事
涨 价</w>
周 末</w>
呈 现</w>
加 以</w>
商 务
含 有</w>
江 苏</w>
定 位</w>
o l
激 烈</w>
巴 西</w>
网 民</w>
海 南</w>
年 初</w>
合 作
创 建</w>
化 学</w>
违 规</w>
经 典</w>
关 闭</w>
视 为</w>
循 环</w>
4 6</w>
暂 时</w>
o u
股 价</w>
制 订</w>
巴 黎</w>
宗 教</w>
4 2</w>
纪 念</w>
正 如</w>
流 动</w>
早 上</w>
从 来</w>
华 盛
遭 受</w>
综 合
造 型</w>
地 面</w>
侵 犯</w>
博 士</w>
证 书</w>
一 度</w>
走 进</w>
获 取</w>
最 为</w>
此 事</w>
高 铁</w>
D P</w>
营 养</w>
陷 入</w>
选 手</w>
重要 性</w>
r e
整 合</w>
周 期</w>
青 少年</w>
成 分</w>
层 次</w>
信 用
各 自</w>
论 文</w>
通 道</w>
煤 炭</w>
第二 十
专 项</w>
礼 物</w>
围 绕</w>
救 助</w>
人 体</w>
乐 观</w>
开 支</w>
毛泽 东</w>
观 念</w>
汇 率</w>
保 健</w>
5 8</w>
企 业
5 1</w>
地 址</w>
公 正</w>
东 京</w>
均 价</w>
高 速
西 安</w>
生 意</w>
素 质</w>
好 处</w>
全 球
小 说</w>
效 益</w>
列 入</w>
一 部</w>
板 块</w>
相 反</w>
维 修</w>
合 格</w>
搭 配</w>
政 府
考 察</w>
参 观</w>
手 续</w>
翻 译</w>
全 年</w>
党 员</w>
制 品</w>
一 段时间</w>
其 次</w>
军 事
头 发</w>
现代 化</w>
动 态</w>
专 业
9 8</w>
到 来</w>
长 时间</w>
日 至</w>
有 没有</w>
队 员</w>
后 果</w>
当事 人</w>
无论 是</w>
新 兴</w>
销 商</w>
不 愿</w>
美 好</w>
临 床</w>
航空 公司</w>
旗 下</w>
依 靠</w>
动 车</w>
反 对
走 向</w>
士 兵</w>
多 名</w>
认 定</w>
却 是</w>
熟 悉</w>
P I</w>
南 非</w>
休 息</w>
普 通
认 可</w>
大 小</w>
步 骤</w>
新 建</w>
新加 坡</w>
1. 5</w>
文 物</w>
爆 发</w>
商品 房</w>
家 电</w>
约 翰</w>
主 管</w>
夫 人</w>
诊 断</w>
河 南</w>
深 刻</w>
议 会</w>
公 斤</w>
少 数</w>
拿 到</w>
读 者</w>
200 3</w>
招 聘</w>
媒 体
主 持</w>
解 放
气 候</w>
减 轻</w>
电 影
庆 祝</w>
6 8</w>
搜 索</w>
交易 所</w>
门 口</w>
4 1</w>
谢 谢</w>
受 害
外 交</w>
这 份</w>
现 状</w>
城 市
判 决</w>
巴勒 斯坦</w>
国 会</w>
院 长</w>
能 量</w>
春 晚</w>
万 平方米</w>
期 望</w>
监 会</w>
广 西</w>
延 长</w>
消 失</w>
两 名</w>
车 站</w>
提 议</w>
4 3</w>
接 着</w>
湖 南</w>
印 象</w>
下 调</w>
导 弹</w>
电 池</w>
繁 荣</w>
便 宜</w>
- -
放 松</w>
清 洁</w>
婴 儿</w>
后 面</w>
出 发</w>
本 报
份 额</w>
职 业
规 律</w>
总 局</w>
监 督
氧 化
分 为</w>
应 用
退 休</w>
非 常
遗 憾</w>
天 然
谷 歌</w>
早 期</w>
吸 收</w>
税 收</w>
省 委</w>
4 4</w>
监 控</w>
生 活
分 之一</w>
5 6</w>
配 套</w>
广 州
例 子</w>
必 然</w>
中小 企业</w>
教 练</w>
刑 事
审 批</w>
构 建</w>
iP hon
报 名</w>
知 名</w>
G DP</w>
起 到</w>
竞争 力</w>
中 介</w>
盈 利</w>
别 的</w>
理 性</w>
年 内</w>
9 9</w>
切 实</w>
现 车</w>
宝 宝</w>
机 械</w>
出 租
服 装</w>
专 电</w>
两 天</w>
高 等
本 周</w>
重 申</w>
麻 烦</w>
添 加</w>
5 2</w>
本 书</w>
轻 松</w>
计划 署</w>
r i
自 由
赛 季</w>
那 儿</w>
立 场</w>
m p
最 初</w>
候 选人</w>
版 本</w>
清 理</w>
信 托</w>
电 网</w>
据 介绍</w>
信 用</w>
推 行</w>
此 时</w>
账 户</w>
手 中</w>
坚 决</w>
对 待</w>
智 慧</w>
本 来</w>
穿 着</w>
所 说</w>
日 常</w>
西 省</w>
大 多</w>
2. 5</w>
参 数</w>
心 理
生 态
合 法</w>
阿 尔
亮 相</w>
人 均</w>
起 诉</w>
同 一</w>
工作 组</w>
那 时</w>
公安 局</w>
由 此</w>
商 店</w>
即 便</w>
抑 制</w>
上 网</w>
生 物
犯 罪
司 法
歧 视</w>
许 可
感 兴趣</w>
疑 问</w>
发 射</w>
询 问</w>
执 行
注 重</w>
汽 车
东 方</w>
会 谈</w>
发 改
如 下</w>
大 概</w>
街 道</w>
跌 幅</w>
不 多</w>
多 元</w>
一 线</w>
得 以</w>
发改 委</w>
列 车</w>
第 六
平 均
中 有</w>
混 合</w>
听 说</w>
一 轮</w>
拍 卖</w>
贫 困</w>
退 出</w>
层 面</w>
太 平
8 8</w>
通 讯</w>
购 房
成交 量</w>
若 干</w>
纪 念
分 类</w>
最 高
不 但</w>
华盛 顿</w>
过 度</w>
待 遇</w>
开 工</w>
燃 料</w>
媒体 报道</w>
8 5</w>
3 0
对 比</w>
创 意</w>
迎 来</w>
享 有</w>
海 军</w>
随 时</w>
异 常</w>
鉴 于</w>
影 响
指 控</w>
助 理</w>
管理 局</w>
宪 法</w>
修 订</w>
购 房</w>
依 赖</w>
抓 住</w>
许可 证</w>
人 力
夫 妇</w>
地 上</w>
A 股</w>
9 5</w>
家 庭
文 字</w>
输 入</w>
色 彩</w>
核 电站</w>
气 象
小 孩</w>
日 晚</w>
泰 国</w>
影响 力</w>
慢 慢</w>
相 当
玻 璃</w>
展 览</w>
评 级</w>
一 道</w>
周 边</w>
C h
命 令</w>
农 产品</w>
重 庆
学 术</w>
之 所以</w>
1 0.
指 挥</w>
吃 饭</w>
云 南</w>
日 本
许 可</w>
考 核</w>
格 局</w>
记 忆</w>
委 托</w>
用 途</w>
审 核</w>
轿 车</w>
经 销商</w>
南 方</w>
房 产
一 生</w>
建 造</w>
线 路</w>
太 太</w>
城 乡</w>
决 赛</w>
平 时</w>
欧 洲
看 上去</w>
慈 善</w>
是 说</w>
1 50</w>
公安 机关</w>
物 业</w>
机 器</w>
健 全</w>
保 存</w>
战 略
再 度</w>
因 而</w>
斗 争</w>
怎 么样</w>
水 果</w>
扩 散</w>
5 3</w>
凌 晨</w>
不 敢</w>
每 日</w>
图 像</w>
有 趣</w>
城 镇</w>
中 方</w>
定 价</w>
少 数
亏 损</w>
重 复</w>
个 别</w>
饮 食</w>
内 蒙
美 洲</w>
姑 娘</w>
复 苏</w>
原 本</w>
遗 产</w>
墨 西
3 D</w>
优 质</w>
原 料</w>
付 款</w>
活 力</w>
谨 慎</w>
化 学
人 次</w>
阻 止</w>
一 百
毒 品</w>
潜 在</w>
开 心</w>
交 换</w>
可 靠</w>
多 么</w>
宣 言</w>
潜 力</w>
组 织
害 怕</w>
天然 气</w>
新 浪</w>
北 约</w>
这 时</w>
舞 台</w>
专 员</w>
加 息</w>
回 顾</w>
个 月</w>
专 利</w>
合 约</w>
焦 点</w>
事 务
举 措</w>
生 长</w>
准 则</w>
克 斯</w>
排 除</w>
期 货</w>
互 动</w>
根 本
除 非</w>
举 报</w>
山 西</w>
花 费</w>
鉴 定</w>
布 局</w>
心 情</w>
自 行车</w>
老 百姓</w>
与 其</w>
过 于</w>
反 而</w>
任 何
关 切</w>
a d</w>
发 电</w>
身 份
常 见</w>
基础 设施</w>
走 势</w>
融 合</w>
样 子</w>
叙 利亚</w>
海 上</w>
国 有
采 取
促 销</w>
监 狱</w>
e s</w>
足 以</w>
三 大</w>
调 节</w>
力 于</w>
商 家</w>
志 愿
广 播
尽 量</w>
国 防
厂 商</w>
可 见</w>
前 提</w>
物 价</w>
像 是</w>
人民 日报</w>
常 委会</w>
从 未</w>
a s
致 力于</w>
B A</w>
结 构
得 知</w>
京 华</w>
生 素</w>
装 饰</w>
敏 感</w>
全 体</w>
不 住</w>
收 取</w>
中 文</w>
所 得</w>
饮 料</w>
知识 产权</w>
营 业</w>
a m
6 6</w>
接 下来</w>
面 试</w>
货币 政策</w>
火 车</w>
自 从</w>
说 道</w>
难 题</w>
不 幸</w>
C PI</w>
金融 危机</w>
0 8</w>
大 楼</w>
高 度
检察 院</w>
抵 达</w>
引 进</w>
核 武器</w>
迹 象</w>
区 别</w>
a l</w>
下 半年</w>
不 仅仅</w>
安 置</w>
打 破</w>
会 儿</w>
陆 续</w>
诸 多</w>
开 通</w>
立 刻</w>
本 月</w>
音 乐
战 斗</w>
小 心</w>
租 金</w>
联 赛</w>
5 4</w>
主 张</w>
纠 纷</w>
a d
毕 竟</w>
不 如</w>
前 面</w>
审 理</w>
残 疾
上 班</w>
强 度</w>
财政 部</w>
机 遇</w>
不 知</w>
餐 厅</w>
透 明</w>
号 码</w>
A n
深 化</w>
5 7</w>
二手 房</w>
金融 机构</w>
倾 向</w>
领 先</w>
调 研</w>
配 备</w>
额 外</w>
走 出</w>
回 归</w>
合 并</w>
营 业
农 业
7 00</w>
一 面</w>
忘 记</w>
外 部</w>
家 中</w>
用 品</w>
不 满</w>
外 界</w>
波 动</w>
模 拟</w>
地 下</w>
咖 啡</w>
相当 于</w>
不 见</w>
通 报</w>
恐 怕</w>
审 判</w>
主 持
地 图</w>
级 别</w>
本报 记者</w>
沃 尔
6 4</w>
本 法</w>
实验 室</w>
查 处</w>
蓝 色</w>
伊 斯
海 关</w>
单 独</w>
情 感</w>
会 员</w>
l e</w>
200 1</w>
活 跃</w>
6 7</w>
回 收</w>
校 园</w>
奖 励</w>
院 校</w>
太阳 能</w>
董 事会</w>
操 作
美 军</w>
高 尔
敌 人</w>
1. 6</w>
过 渡</w>
政 协</w>
此 类</w>
两 位</w>
缴 纳</w>
某 种</w>
物 流</w>
总 数</w>
本 市</w>
学 位</w>
夏 天</w>
人 家</w>
恶 化</w>
花 园</w>
心 中</w>
创 业
民 族
肌 肤</w>
合 法
舆 论</w>
主 流</w>
流动 性</w>
锻 炼</w>
宣 传
市 委</w>
短 信</w>
指 挥
回 忆</w>
经济 社会</w>
此 后</w>
共 识</w>
通 讯
种 植</w>
6 3</w>
新 能源</w>
增 幅</w>
大 力</w>
反 弹</w>
把 握</w>
传 递</w>
延 续</w>
6 2</w>
友 好</w>
有 效
路 线</w>
空 中</w>
命 运</w>
带 动</w>
传 媒</w>
什 么样</w>
地 块</w>
违 法
可 爱</w>
某 个</w>
付 出</w>
外 面</w>
电 器</w>
转 向</w>
1 20</w>
基本 上</w>
5 9</w>
志愿 者</w>
一 大</w>
带 有</w>
早 已</w>
代 码</w>
症 状</w>
节 日</w>
小 型</w>
e t
河 北</w>
两 国</w>
分 离</w>
彼 此</w>
原 理</w>
百 万</w>
告 知</w>
情 形</w>
马 里</w>
所 有人</w>
电 力
引 入</w>
拿 出</w>
简 称</w>
加 剧</w>
医 学</w>
猪 肉</w>
流 程</w>
高 中</w>
就 是说</w>
促 使</w>
阿拉 伯</w>
I P
透 过</w>
电 信</w>
稀 土</w>
扩 张</w>
团 结</w>
平 米</w>
事 物</w>
全 力</w>
削 减</w>
怎 么
相 似</w>
生 育</w>
出 于</w>
数据 库</w>
主 人</w>
库 存</w>
多 样
故 障</w>
布 斯</w>
既 然</w>
人力 资源</w>
有 机</w>
停 车
贵 州</w>
公 开
一 大
艾 滋
录 取</w>
教 学
忽 视</w>
e b
缺 陷</w>
有 个</w>
富 有</w>
少数 民族</w>
裁 军</w>
更 换</w>
担 保</w>
高 峰</w>
毫 无
发 起</w>
江 省</w>
源 于</w>
意 愿</w>
国 内外</w>
第四 十
不 必</w>
社 交</w>
发 达
发达 国家</w>
设计 师</w>
膨 胀</w>
市 政府</w>
干 预</w>
电 梯</w>
尺 寸</w>
谈 到</w>
自 愿</w>
澳 门</w>
舒 适</w>
尼 斯</w>
太平 洋</w>
添 加
仔 细</w>
华 人</w>
当 选</w>
大 脑</w>
其 余</w>
识 别</w>
好 好</w>
案 例</w>
成 效</w>
本 届</w>
观 看</w>
验 证</w>
不 断
公 寓</w>
占 据</w>
演 讲</w>
S t
附 件</w>
7 8</w>
中 东</w>
远 远</w>
系 统
第 五</w>
有 时候</w>
党 委</w>
缺 少</w>
修 复</w>
i s
捐 款</w>
为 例</w>
6 1</w>
夫 妻</w>
6 00
假 如</w>
聪 明</w>
旁 边</w>
技 巧</w>
家 族</w>
清 晰</w>
送 到</w>
航 天
粉 丝</w>
经济 学家</w>
出租 车</w>
国际 法</w>
实 体</w>
之 内</w>
便 利</w>
一 季度</w>
浪 费</w>
国 王</w>
不 利</w>
第二 天</w>
一 支</w>
窗 口</w>
看 出</w>
气 候
作 战</w>
疯 狂</w>
个 性</w>
灾 区</w>
净 利润</w>
苏 丹</w>
数 额</w>
大 使</w>
认 证</w>
事 业
客 人</w>
任 命</w>
频 道</w>
报 价</w>
开 车</w>
中 午</w>
牛 奶</w>
部 件</w>
工程 师</w>
保 养</w>
价 值
高速 公路</w>
高 层</w>
种 种</w>
名 为</w>
决 于</w>
读 书</w>
承 受</w>
原 油</w>
开 盘</w>
取 决于</w>
通 用</w>
i n</w>
落 后</w>
接 待</w>
湖 北</w>
愉 快</w>
宏 观
供应 商</w>
代 价</w>
c h
多 人</w>
家 属</w>
坚 定</w>
签 约</w>
温 暖</w>
残疾 人</w>
199 1</w>
北 省</w>
提 案</w>
摘 要</w>
两 家</w>
具 体
200 2</w>
留 学</w>
数 目</w>
难 道</w>
准 备
广州 日报</w>
竟 然</w>
形 态</w>
纲 领</w>
环境 保护</w>
微 软</w>
这 部</w>
愿 望</w>
打 工</w>
一 方</w>
刑 事</w>
下 载</w>
外 观</w>
核 查</w>
徒 刑</w>
共 享</w>
行 情</w>
轨 道</w>
直 升
有 利</w>
贫 穷</w>
装 修</w>
态 势</w>
广 东省</w>
主持 人</w>
财 务
发 生
驾 驶
证券 报</w>
外 地</w>
发 明</w>
充 足</w>
互 相</w>
脸 上</w>
思 维</w>
e s
大 大</w>
交 给</w>
阐 述</w>
声 称</w>
安 徽</w>
困 境</w>
第二 次</w>
中 华</w>
食 用</w>
购房 者</w>
防 治</w>
一 把</w>
微 笑</w>
暂 停</w>
名 义</w>
指 示</w>
圣 诞
第三 十
常 委</w>
之 际</w>
灾 难</w>
煤 矿</w>
扩 展</w>
出 色</w>
谈 话</w>
抱 怨</w>
为 期</w>
百 度</w>
魅 力</w>
考 验</w>
有 所
7 7</w>
气 氛</w>
我 能</w>
每 周</w>
智 能
流 量</w>
iPhon e</w>
添加 剂</w>
笔 者</w>
档 案</w>
渴 望</w>
自 信</w>
取 代</w>
美 联
处 理
申 报</w>
6 9</w>
比 重</w>
订 单</w>
电子 商务</w>
引 擎</w>
引 力</w>
轮 胎</w>
沈 阳</w>
生 命
反对 派</w>
商 标</w>
消 防
种 族</w>
剩 下</w>
超 越</w>
学 科</w>
高 效</w>
后 续</w>
研究 生</w>
江 西</w>
支 援</w>
艰 难</w>
各 大</w>
参 考
示 范</w>
结果 表明</w>
神 经</w>
一 人</w>
整 治</w>
元 区</w>
回 报</w>
明 确
欧 元区</w>
乡 村</w>
率 先</w>
微博 上</w>
中 期</w>
庞 大</w>
资 金
境 外</w>
一 级</w>
拘 留</w>
血 液</w>
特 派</w>
海 洋
平 民</w>
前 后</w>
旅 行
提 示</w>
筹 备</w>
替 代</w>
人大 常委会</w>
功 率</w>
现 行</w>
贫 困
晨 报</w>
纤 维</w>
奶 粉</w>
mp ;</w>
&a mp;</w>
标 准
柏 芝</w>
艾滋 病</w>
市 区</w>
职 能</w>
保 安</w>
2. 0</w>
八 条</w>
199 0</w>
追 究</w>
斯 特</w>
英 国
难 度</w>
气 温</w>
流 通</w>
思 路</w>
相 互
航 线</w>
央 视</w>
拓 展</w>
喜 爱</w>
平 稳</w>
保险 公司</w>
热 点</w>
难 以
进 来</w>
劳 动力</w>
球 场</w>
依 旧</w>
指 责</w>
1 1.
展 现</w>
激 励</w>
见 面</w>
印 度
体 化</w>
第 四</w>
期 内</w>
即 可</w>
感 动</w>
上 学</w>
信用 卡</w>
应用 程序</w>
呼 吸</w>
特 别
道 歉</w>
养 老
产 能</w>
内蒙 古</w>
不 安</w>
频 繁</w>
记 住</w>
经济 体</w>
出 行</w>
月 初</w>
l e
携 带</w>
跟 踪</w>
资 讯</w>
老 年人</w>
哪 个</w>
巩 固</w>
诚 信</w>
进 去</w>
国 民</w>
气候 变化</w>
千 万</w>
董 事</w>
放 缓</w>
昨 天
整 理</w>
图 书</w>
早 晨</w>
任何 人</w>
到 位</w>
假 期</w>
研 制</w>
逮 捕</w>
客 观</w>
制造 业</w>
积 累</w>
所 得
缔 约
那 天</w>
辩 论</w>
会 上</w>
紧 缩</w>
都 市</w>
改 革
土 耳
第 七
7 2</w>
响 应</w>
深 圳
青 年报</w>
失 业</w>
奥 运</w>
人 人</w>
会 见</w>
垄 断</w>
波 斯
最 多</w>
讲 述</w>
失 望</w>
气 体</w>
后 者</w>
这 名</w>
期 徒刑</w>
山 区</w>
常 务
可 怕</w>
研究 院</w>
太 空</w>
制 裁</w>
一 会儿</w>
商务 部</w>
成 年人</w>
欣 赏</w>
答 复</w>
原 子
这 座</w>
英 雄</w>
开 幕</w>
极 为</w>
公 益</w>
199 7</w>
u r
I n
中国 人民
得 出</w>
被 告</w>
创 造
抗 议</w>
以 此</w>
大 力
提 名</w>
屏 幕</w>
不 上</w>
4 000</w>
深 度</w>
面 向</w>
有 用</w>
超 级</w>
聚 集</w>
格 兰</w>
未 经</w>
居 民
睡 眠</w>
长 期
商业 银行</w>
深 入
神 经
派 出
1 3.
数 学</w>
种 族
而 已</w>
广 播</w>
墨西 哥</w>
尽 可能</w>
种 类</w>
赶 到</w>
买 卖</w>
中 山</w>
英 镑</w>
哪 儿</w>
如 同</w>
同 步</w>
网 页</w>
控 股</w>
受害 者</w>
一 般
设 法</w>
睡 觉</w>
虚 假</w>
兴 奋</w>
四 年</w>
医 药</w>
摩 托
中 共
申请 人</w>
代 理
新 车</w>
隐 患</w>
索 马里</w>
1 2.
别 墅</w>
一 对</w>
没 想到</w>
教育 部</w>
首 相</w>
学 历</w>
oo k</w>
中 共</w>
处 置</w>
人民 网</w>
带 领</w>
其 他人</w>
昨 晚</w>
直升 机</w>
艺术 家</w>
严 格
豪 华</w>
留 在</w>
精 力</w>
就 此</w>
关 联</w>
练 习</w>
合 物</w>
C E
冬 季</w>
天 空</w>
温 州</w>
一 台</w>
平 安</w>
介 入</w>
海 域</w>
蛋 白</w>
机 器
信 仰</w>
物 价
政 党</w>
心 态</w>
想 起</w>
2 8
行 驶</w>
报 告
国 产</w>
前 来</w>
三 是</w>
捐 赠</w>
博 客</w>
营 养
用 车</w>
新 鲜</w>
交易 日</w>
灵 魂</w>
被 迫</w>
辞 职</w>
万 套</w>
厨 房</w>
各 界</w>
胡 锦
船 舶</w>
阳 市</w>
极 端</w>
领 袖</w>
约 束</w>
露 出</w>
这 方面</w>
飞 行
牺 牲</w>
女 生</w>
总 监</w>
升 值</w>
年 级</w>
输 出</w>
尔 斯</w>
纽 约
天 然</w>
第二 个</w>
提 取</w>
一 体化</w>
本 国</w>
c o
爱 心</w>
会 计</w>
今年 以来</w>
生 日</w>
神 秘</w>
立 法
工 会</w>
停 车</w>
价格 上涨</w>
今 晚</w>
变 动</w>
厂 家</w>
公 司
胡锦 涛</w>
合 成</w>
罪 行</w>
不 停</w>
太 多</w>
土耳 其</w>
组 图</w>
味 道</w>
最 早</w>
强 劲</w>
减 排</w>
7 6</w>
用 水</w>
0 5</w>
毫 无</w>
标 签</w>
人 大</w>
转 换</w>
土 壤</w>
姓 名</w>
人民 代表
交 往</w>
内 心</w>
派出 所</w>
恐怖 主义</w>
破 产</w>
游 泳</w>
混 乱</w>
驱 动</w>
亲 自</w>
身份 证</w>
愤 怒</w>
耶 稣</w>
研 讨
大 国</w>
万 辆</w>
陕 西</w>
零 售</w>
收 藏</w>
拉 夫</w>
大 学
长 沙</w>
扮 演</w>
国 有</w>
开 设</w>
怀 孕</w>
被 告
业 界</w>
房 源</w>
护 理</w>
会 长</w>
腾 讯</w>
性 别</w>
乘 坐</w>
受 理</w>
性 格</w>
一 次
赋 予</w>
表 格</w>
发 动</w>
质 性</w>
前 进</w>
积 金</w>
十 字
恐 惧</w>
逻 辑</w>
景 区</w>
提 起</w>
送 给</w>
休 闲</w>
一 路</w>
一 事</w>
7 3</w>
克 服</w>
教 训</w>
超 出</w>
商 场</w>
夏 季</w>
e n</w>
不 良</w>
万 科</w>
青 岛</w>
在 家</w>
1 4.
边 界</w>
脂 肪</w>
放 射
新 西
零 售
峰 会</w>
石 化</w>
政府 部门</w>
黄 色</w>
缓 慢</w>
回 去</w>
缔约 国</w>
两 会</w>
阻 碍</w>
共 计</w>
匹 配</w>
严 厉</w>
电 话
五 个</w>
波斯 尼亚</w>
巨 头</w>
航 天</w>
差 不多</w>
汤 姆</w>
一 体</w>
业 内</w>
估 值</w>
瑞 士</w>
课 题</w>
事 宜</w>
平 板</w>
等 级</w>
摆 脱</w>
总 值</w>
差 别</w>
拆 迁</w>
现 出</w>
9 6</w>
友 谊</w>
体 内</w>
值 得
纲 要</w>
一 本</w>
电视 剧</w>
度 过</w>
王 子</w>
宪 章</w>
占 领</w>
工作 者</w>
步 伐</w>
强 制</w>
首 脑</w>
抓 获</w>
伴 随</w>
观察 员</w>
海 地</w>
增 多</w>
应 付</w>
主 角</w>
奇 怪</w>
民主 党</w>
玩 具</w>
属 性</w>
和 解</w>
行 使</w>
男 女</w>
报 警</w>
大 厦</w>
处 在</w>
糟 糕</w>
符 合
1. 8</w>
当 代</w>
目 录</w>
道 理</w>
监 察</w>
本 质</w>
土 地
饭 店</w>
常 规</w>
研究 员</w>
维 生素</w>
房产 税</w>
选 拔</w>
血 管</w>
至 关
补 助</w>
斯 科</w>
冰 箱</w>
谴 责</w>
势 头</w>
不 变</w>
罗 马</w>
使 馆</w>
消 耗</w>
供 给</w>
联 络</w>
武 装
县 级</w>
那 位</w>
冬 天</w>
没 什么</w>
福 建</w>
建筑 物</w>
遏 制</w>
教 堂</w>
普 遍
季 节</w>
无 人</w>
主 办</w>
走 访</w>
旺 达</w>
简 直</w>
无 奈</w>
执 政</w>
克 尔</w>
业 务
南 方
不 论</w>
竞 选</w>
福 岛</w>
至关 重要</w>
扶 持</w>
极 其</w>
变 更</w>
时 机</w>
可 谓</w>
两 大</w>
生 效</w>
并 不
能 源
广 告
机 票</w>
大 宗</w>
一 群</w>
8 7</w>
卢 旺达</w>
吸 烟</w>
测 定</w>
通 货
乡 镇</w>
金 钱</w>
惩 罚</w>
维 亚</w>
外 汇
作 物</w>
研讨 会</w>
火 箭</w>
前 期</w>
一 笔</w>
到 处</w>
约 定</w>
可 行</w>
国 土
终 端</w>
防 范</w>
泡 沫</w>
一 所</w>
9 3</w>
济 南</w>
娱 乐
广 州市</w>
哈 尔
蛋 白
制造 商</w>
新 高</w>
帮 忙</w>
张 柏芝</w>
统计 局</w>
编 写</w>
培 育</w>
争 论</w>
机器 人</w>
注 意
摄 影</w>
选 民</w>
三 条</w>
政 权</w>
分 歧</w>
葡萄 酒</w>
制 约</w>
歌 曲</w>
解决 方案</w>
副 局长</w>
一 番</w>
高 管</w>
20 15</w>
点 儿</w>
法 案</w>
一 篇</w>
8 6</w>
受 益</w>
祖 国</w>
灵 活</w>
终 止</w>
上 来</w>
敦 促</w>
画 面</w>
干 扰</w>
书 面</w>
水 利</w>
刚 才</w>
跟 着</w>
方 针</w>
救 济</w>
本 报</w>
对 抗</w>
写 作</w>
港 口</w>
黑 暗</w>
收 获</w>
S U
总 会</w>
黑 龙
主 力</w>
被告 人</w>
幸 运</w>
自 动
激 动</w>
外 资</w>
最 低
都 市
判 处</w>
I M
持 久</w>
体 重</w>
邮 票</w>
损 伤</w>
预 警</w>
议 院</w>
衡 量</w>
荷 兰</w>
阿 根
银 行业</w>
城 镇
会 计
物 理</w>
就 算</w>
受 欢迎</w>
反 复</w>
去 世</w>
省 级</w>
普 及</w>
浪 漫</w>
奢 侈
菲 律
联合 国
流 入</w>
一 处</w>
组 成
组成 部分</w>
大 大
养 老</w>
自 行</w>
设 定</w>
上海 市</w>
十 大</w>
7 4</w>
i d</w>
心 灵</w>
机 组</w>
所 在
不 行</w>
衰 退</w>
废 物</w>
新 年</w>
啤 酒</w>
时 说</w>
地 板</w>
减 肥</w>
新西 兰</w>
街 头</w>
外交 部</w>
早 就</w>
1 10</w>
推 迟</w>
代 替</w>
继 承</w>
o w
汇 报</w>
干 净</w>
所 述</w>
密 码</w>
2 6
9 2</w>
时 间
丰 田</w>
风 电</w>
车 票</w>
真 相</w>
实 质性</w>
雇 员</w>
仲 裁</w>
公 交
玉 米</w>
高 温</w>
应 有</w>
活 性</w>
救 灾</w>
7 1</w>
查 看</w>
吸 引力</w>
管 道</w>
户 型</w>
保 持
去 年
越 南</w>
S T</w>
长 江</w>
高度 重视</w>
上 诉</w>
对 接</w>
他 会</w>
要 么</w>
怎么 办</w>
社会 保障</w>
法 制
不 让</w>
服务 器</w>
转 化</w>
入 境</w>
奢侈 品</w>
祝 福</w>
目 光</w>
马 克
边 缘</w>
亲 爱</w>
多 边</w>
精 彩</w>
各 位</w>
8 3</w>
种 子</w>
支 持
人 工</w>
姐 姐</w>
故 意</w>
出 让</w>
结 算</w>
勇 气</w>
9 00</w>
不 出</w>
汉 语</w>
手 里</w>
责 令</w>
癌 症</w>
四 川
菲律 宾</w>
民 航</w>
上 年</w>
议 题</w>
环 保
t h
乃 至</w>
九 条</w>
古 巴</w>
毫 米</w>
省 政府</w>
观 望</w>
解 除</w>
污 染
均 衡</w>
公 示</w>
倡 议</w>
u n
新 区</w>
物 资</w>
8 2</w>
单 一</w>
变 革</w>
百 年</w>
0 9</w>
志 愿</w>
海 岸</w>
重 大
出 口
车 身</w>
三 十
预 报</w>
鸡 蛋</w>
奥 迪</w>
改革 开放</w>
8 9</w>
古 代</w>
暴 雨</w>
姚 明</w>
科 研</w>
细 则</w>
备 案</w>
再 也</w>
妹 妹</w>
周 刊</w>
企业 家</w>
招 标</w>
凭 借</w>
主 导</w>
频 率</w>
尴 尬</w>
抵 押</w>
卫 视</w>
时 许</w>
也 就是说</w>
iP ad</w>
车 展</w>
长 大</w>
硬 件</w>
m m</w>
球 迷</w>
滥 用</w>
生 成</w>
心 脏</w>
水 泥</w>
人 口
我 省</w>
布 什</w>
a g
氛 围</w>
进 口
6 000</w>
折 扣</w>
营 造</w>
对 不起</w>
和 平
细 菌</w>
外 国人</w>
核 准</w>
事 发</w>
交 警</w>
有 期徒刑</w>
信息 化</w>
等 于</w>
买 家</w>
9 7</w>
阿根 廷</w>
万 股</w>
指 导
第三 方</w>
哥 哥</w>
购 车</w>
签 证</w>
1 500</w>
北 方</w>
1 6.
合 资</w>
国 债</w>
只 会</w>
芬 奇</w>
困 扰</w>
一 颗</w>
注 入</w>
服务 业</w>
稳 定性</w>
提 及</w>
清 单</w>
持 续
此 举</w>
撤 销</w>
7 9</w>
火 灾</w>
使 命</w>
家 伙</w>
0 1</w>
奋 斗</w>
听 见</w>
从 中</w>
乔 布斯</w>
确 立</w>
线 索</w>
e l</w>
聚 会</w>
商 报</w>
策 划</w>
严 峻</w>
辛 亥
SU V</w>
东 北</w>
镜 头</w>
首 批</w>
创业 板</w>
无 线</w>
接 收</w>
严 重
权 威</w>
事业 单位</w>
有 益</w>
失 踪</w>
台 北</w>
去年 同期</w>
一 间</w>
相 机</w>
延 伸</w>
容 量</w>
斯 特
公 积金</w>
派 出</w>
肌 肉</w>
所得 税</w>
增长 率</w>
等 到</w>
爱 尔
辅 助</w>
英 里</w>
并 购</w>
着 手</w>
地 带</w>
诞 生</w>
四 条</w>
周 五</w>
基 亚</w>
周 一</w>
视 觉</w>
年 间</w>
场 合</w>
一 同</w>
客 户
买 房</w>
表 决</w>
届 时</w>
组 建</w>
融 入</w>
知 情</w>
局 部</w>
券 商</w>
惊 人</w>
室 内</w>
检 查
另 有</w>
门 槛</w>
诸 如</w>
校 车</w>
树 立</w>
召 回</w>
日 元</w>
两 者</w>
上 演</w>
何 时</w>
象 征</w>
莫 斯科</w>
炸 弹</w>
桌 子</w>
捐 助</w>
宝 马</w>
柴 油</w>
全球 化</w>
利 息</w>
相 结合</w>
定 书</w>
回 复</w>
1 5.
名 叫</w>
依 法
两 国
燃 烧</w>
化 妆
公 安</w>
渐 渐</w>
运 营
执 法
房 企</w>
首 个</w>
in g</w>
外 出</w>
高 位</w>
赞 成</w>
未 有</w>
据 说</w>
白 宫</w>
出 国</w>
企 图</w>
苏 联</w>
删 除</w>
借 鉴</w>
中 部</w>
克 里
零 零
汽 油</w>
到 期</w>
餐 馆</w>
销售 额</w>
小 麦</w>
港 元</w>
比 亚
家 园</w>
遵 循</w>
四 大</w>
向 前</w>
专 家
部 位</w>
调 解</w>
拨 款</w>
老 公</w>
伤 亡</w>
一 时</w>
气 象</w>
赚 钱</w>
黎 巴
美 女</w>
苹 果
艺术 品</w>
密 度</w>
辛亥 革命</w>
发 行
新 一轮</w>
开 采</w>
9 4</w>
晚 会</w>
瘦 肉
黄 金
答 应</w>
生 涯</w>
看 待</w>
大 气</w>
199 8</w>
大 卫</w>
开 启</w>
度 假</w>
钢 铁</w>
F ac
郑 州</w>
有 意</w>
格 式</w>
穿 过</w>
寿 命</w>
生 气</w>
大 门</w>
化 工</w>
平 静</w>
月 饼</w>
全 面
8 1</w>
丧 失</w>
统 筹</w>
文 书</w>
大 赛</w>
师 傅</w>
派 遣</w>
进 出口</w>
春 天</w>
多 项</w>
邮 政</w>
发 育</w>
集 中
L E
战 胜</w>
山 东省</w>
eb ook</w>
诈 骗</w>
地 理</w>
便 是</w>
税 率</w>
正 面</w>
惊 讶</w>
双 边</w>
空 军</w>
备 受</w>
交 所</w>
古 老</w>
收 益
英 语
只 好</w>
蛋白 质</w>
薪 酬</w>
来 讲</w>
着 力</w>
宽 松</w>
经营 者</w>
万 人次</w>
常 用</w>
浏 览</w>
一 组</w>
认 同</w>
幼 儿</w>
专 题</w>
模 糊</w>
斯 拉夫</w>
实 质</w>
阶 级</w>
谈 论</w>
南 京
论 述</w>
邻 居</w>
拟 订</w>
当 作</w>
0 7</w>
布 鲁
情 报</w>
仿 佛</w>
奔 驰</w>
缩 小</w>
家 宝</w>
大 队</w>
新 生</w>
千 瓦</w>
侵 权</w>
行 李</w>
几 次</w>
相 继</w>
风 暴</w>
成 品
2 5
紧 密</w>
海 啸</w>
a b
纪 委</w>
更 改</w>
大 战</w>
函 数</w>
好 友</w>
美联 储</w>
看 好</w>
达 芬奇</w>
本 土</w>
电 价</w>
场 景</w>
中 旬</w>
正 义</w>
密 切
金 率</w>
地 下
大 城市</w>
预 订</w>
形 状</w>
复 制</w>
车 主</w>
诺 基亚</w>
华 尔
走 上</w>
震 荡</w>
变 速
出版 社</w>
8 4</w>
解 读</w>
进 而</w>
严 肃</w>
昆 明</w>
台 湾
矿 石</w>
江 苏
三 种</w>
随 意</w>
激 情</w>
准备 金率</w>
行政 部门</w>
挑 选</w>
原 材料</w>
本 山</w>
黎巴 嫩</w>
证 监会</w>
有 序</w>
注 册
力 学</w>
马 来
性 化</w>
电 机</w>
一 号</w>
沿 着</w>
短 缺</w>
好 事</w>
仅 为</w>
存 储</w>
石 头</w>
瘦肉 精</w>
几 十
低 迷</w>
这 句</w>
大 厅</w>
对 外
将 军</w>
肿 瘤</w>
弟 弟</w>
管 局</w>
舒 服</w>
个 体</w>
义 务
上 下</w>
收 盘</w>
初 期</w>
靠 近</w>
空 气
搭 载</w>
羊 城
现 任</w>
东 盟</w>
单 元</w>
南 斯拉夫</w>
节 省</w>
座 位</w>
只 不过</w>
统 治</w>
三 天</w>
股 指</w>
办 公</w>
0 6</w>
创 下</w>
CE O</w>
羊城 晚报</w>
浙 江省</w>
最 小</w>
温 家宝</w>
面 包</w>
效 力</w>
统计 数据</w>
动 荡</w>
An d
之 日起</w>
玩 家</w>
潮 流</w>
大 盘</w>
199 9</w>
撤 离</w>
对 面</w>
听 取</w>
快 递</w>
嘉 宾</w>
外 汇</w>
事 先</w>
要 素</w>
克 兰</w>
换 届</w>
懂 得</w>
恋 爱</w>
人 为</w>
一 声</w>
低 收入</w>
自 杀</w>
主 意</w>
随 即</w>
无 数</w>
各 样</w>
分 局</w>
军 方</w>
算 是</w>
排 队</w>
院 士</w>
放 心</w>
一 层</w>
i on</w>
所 属</w>
产业 链</w>
大 批</w>
厘 米</w>
o m
半 个</w>
重 量</w>
将 近</w>
解 放</w>
侦 查</w>
储 存</w>
团 伙</w>
宣 称</w>
哲 学</w>
北 大</w>
人大 代表</w>
猜 测</w>
大 师</w>
Fac ebook</w>
限 于</w>
泄 漏</w>
可 怜</w>
0 2</w>
职 员</w>
最 快</w>
数 十
不 时</w>
自 治</w>
宝 贵</w>
法 定</w>
阶 层</w>
关 税</w>
指 南</w>
分 区</w>
钻 石</w>
设 想</w>
女 友</w>
9 1</w>
雇 主</w>
燃 油</w>
l t;</w>
& lt;</w>
千 年</w>
中国 青年报</w>
传 统
精 确</w>
i r
典 礼</w>
市 值</w>
财 经</w>
计算 机
三 角</w>
成品 油</w>
半 岛</w>
尸 体</w>
赞 赏</w>
优 惠
绝 大多数</w>
作 风</w>
当 晚</w>
限 价</w>
致 电</w>
电 台</w>
划 分</w>
新 股</w>
牌 照</w>
法律 法规</w>
发 送</w>
修 正</w>
该 项</w>
瞬 间</w>
蔓 延</w>
迎 接</w>
石 油
当 初</w>
来 临</w>
死 刑</w>
截 止</w>
借 助</w>
限 度</w>
假 设</w>
炒 作</w>
0 4</w>
优 点</w>
1. 4</w>
文化 产业</w>
有 害</w>
旅 馆</w>
览 会</w>
竞 赛</w>
爱尔 兰</w>
光 伏</w>
情 节</w>
纪 律</w>
电 厂</w>
例 外</w>
不 良
竞争 对手</w>
提 问</w>
处 分</w>
拉 斯</w>
公 车</w>
l i
维 权</w>
干 燥</w>
增 进</w>
一次 性</w>
智能 手机</w>
浓 度</w>
淘 宝</w>
这 条</w>
价值 观</w>
淘 汰</w>
市场 经济</w>
下 游</w>
长 官</w>
贯 彻
优 雅</w>
东 风</w>
人 选</w>
战 斗
干 旱</w>
远 离</w>
人 才
1 8.
荣 誉</w>
之 上</w>
从 不</w>
儿 童
进 攻</w>
而 来</w>
军 人</w>
可 用</w>
咱 们</w>
一 根</w>
省 份</w>
时 光</w>
宇 宙</w>
节 约</w>
播 放</w>
抱 歉</w>
回 国</w>
协 作</w>
信 念</w>
康 复</w>
发 表
2 50</w>
版 权</w>
学 习
三 次</w>
官 兵</w>
叫 做</w>
清 洗</w>
无 需</w>
通讯 员</w>
0 3</w>
磋 商</w>
不 妨</w>
疫 苗</w>
津 贴</w>
套 房</w>
用 电</w>
热 门</w>
少 量</w>
登 陆</w>
证 件</w>
出 租</w>
一 日</w>
三 线</w>
公安 部</w>
自 觉</w>
处 长</w>
过 后</w>
款 项</w>
基 督
in d
增 大</w>
收益 率</w>
消 防</w>
亮 点</w>
通货 膨胀</w>
实 用</w>
多 久</w>
二 零零
专 用</w>
运营 商</w>
短 期内</w>
双 手</w>
索 赔</w>
京 沪</w>
祝 贺</w>
约 会</w>
直 至</w>
水 库</w>
眼 镜</w>
家 乡</w>
势 力</w>
百分 之
表 情</w>
客 车</w>
a v
结果 显示</w>
恐 怖</w>
卫生 部</w>
领 取</w>
老 婆</w>
的 是</w>
万 名</w>
罕 见</w>
脆 弱</w>
这 张</w>
安全 性</w>
1 7.
杰 克</w>
都市 报</w>
流 感</w>
无 线
一 类</w>
污 水</w>
幕 式</w>
厦 门</w>
马来 西亚</w>
IP O</w>
坦 言</w>
恶 劣</w>
这 笔</w>
刑 法</w>
克 罗
身 体
所 长</w>
参 与
分 散</w>
人 会</w>
类 别</w>
似 的</w>
二 级</w>
1. 2</w>
青 春</w>
规 划
眼 前</w>
议 案</w>
机 械
投 标</w>
某 人</w>
奖 金</w>
生产 总值</w>
沿 海</w>
现 实
天 下</w>
民 政
长 远</w>
瑞 典</w>
国民 党</w>
革 命
公 益
水 资源</w>
五 条</w>
美国 政府</w>
各 种
I T</w>
脱 离</w>
七 条</w>
聊 天</w>
无 限</w>
队 长</w>
样 品</w>
二 氧化
对 策</w>
大 街</w>
谈 会</w>
查 明</w>
金 牌</w>
下 发</w>
透 明
低 价</w>
赞 同</w>
民 营</w>
正 好</w>
高 档</w>
户 籍</w>
弹 性</w>
清 华
附 属</w>
园 区</w>
样 本</w>
这 款</w>
奇 迹</w>
核 实</w>
偿 还</w>
辖 市</w>
身 材</w>
施 行</w>
人 力</w>
言 论</w>
观察 团</w>
十一 五</w>
暴 露</w>
公 主</w>
注意 力</w>
文 本</w>
贯 彻</w>
损 坏</w>
手 机
图 案</w>
管 辖</w>
专 门
曲 线</w>
二 人</w>
摄 影
进 度</w>
弥 补</w>
震 惊</w>
移 植</w>
监督 管理</w>
动 员</w>
劳动 者</w>
8 000</w>
内 涵</w>
法 治</w>
些 时候</w>
窗 户</w>
隔 离</w>
耐 心</w>
挂 牌</w>
o b
高 级
手 指</w>
河 南省</w>
致 使</w>
个 股</w>
学 费</w>
资 本
奥 斯
从 此</w>
塑 料</w>
纳 税</w>
子 公司</w>
当 下</w>
多 元
万 余
省 市</w>
餐 饮</w>
欧 美</w>
东 北
中国 队</w>
o r</w>
发 票</w>
消 化</w>
向 上</w>
长 度</w>
师 范
号 线</w>
N BA</w>
将 要</w>
副 总裁</w>
学 术
洪 水</w>
授 予</w>
仿 真</w>
临 近</w>
业 率</w>
展 出</w>
帽 子</w>
额 度</w>
原 有</w>
伯 特</w>
评 选</w>
护 士</w>
老 鼠</w>
澄 清</w>
电子 邮件</w>
每 人</w>
南 海</w>
命 名</w>
姆 斯</w>
三 公</w>
奶 奶</w>
白 天</w>
复 兴</w>
隐 藏</w>
日 内
熊 猫</w>
立法 会</w>
正 规</w>
特别 行政
地 亚</w>
重庆 市</w>
比 较
拯 救</w>
播 出</w>
表 态</w>
万 亿元</w>
e d
赤 字</w>
词 汇</w>
不 清</w>
整 改</w>
新 一代</w>
战 士</w>
中小 学</w>
茅 台</w>
书 籍</w>
孙 中山</w>
劳 工</w>
学 员</w>
政 策
不 在
留 学生</w>
当 地
精 品</w>
大 胆</w>
大 连</w>
蛋 糕</w>
般 的</w>
先 前</w>
颁 布</w>
航 母</w>
床 上</w>
门 店</w>
小 幅</w>
投 放</w>
教 室</w>
路 径</w>
立 方
歌 手</w>
语 文</w>
收 费
分 公司</w>
争 端</w>
人 心</w>
紧 急
机 动车</w>
名 人</w>
成 人</w>
不 及</w>
玩 笑</w>
功 夫</w>
宗 旨</w>
战 机</w>
没 收</w>
南方 日报</w>
伊斯 兰</w>
2 4
缺 点</w>
科 研
对 应</w>
场 地</w>
违法 行为</w>
目 的
王 国</w>
性 感</w>
头 上</w>
降 雨</w>
多 位</w>
标 识</w>
一 阵</w>
挖 掘</w>
天 堂</w>
记 者
单 纯</w>
题 目</w>
经 纪
指 引</w>
十 足</w>
超 标</w>
传 出</w>
不 开</w>
调 动</w>
商 城</w>
世界 各地</w>
19 .
全 民</w>
联 想</w>
旅游 业</w>
无 关</w>
体 制
反 应
批 发
迫 使</w>
票 房</w>
集 团
必 要
形 容</w>
中 断</w>
议 定书</w>
欺 诈</w>
千 元</w>
血 压</w>
纳 税
书 店</w>
之 处</w>
一 杯</w>
坚 强</w>
很 小</w>
省 长</w>
改 为</w>
分 开</w>
无 效</w>
水 利
居 然</w>
本 科</w>
2 3
文化 遗产</w>
热 烈</w>
一 期</w>
内 在</w>
东 南
新 兴
国际 化</w>
带 到</w>
高等 教育</w>
油 田</w>
民 进
如 说</w>
间 接</w>
点 评</w>
今 天
世界 杯</w>
长 城</w>
钥 匙</w>
不 太
洗 衣
签 名</w>
运 转</w>
预 定</w>
边 境</w>
私 营</w>
模 特</w>
器 官</w>
天 天</w>
实 习</w>
节 奏</w>
一 步
洛 杉
仪 器</w>
英 译
余 额</w>
新 生
收 回</w>
上 课</w>
商 人</w>
大 幅度</w>
从 前</w>
过 多</w>
访 者</w>
交 谈</w>
知 名
出 手</w>
男 友</w>
年 纪</w>
亚 太
纠 正</w>
富 裕</w>
大 声</w>
万 亩</w>
激 发</w>
认 知</w>
直 辖市</w>
忽 略</w>
观 测</w>
讨 厌</w>
电 路</w>
市场 份额</w>
g t;</w>
& gt;</w>
受 损</w>
既 有</w>
课 堂</w>
涵 盖</w>
整 天</w>
之 类</w>
混 凝
公共 服务</w>
独 立
正 当</w>
合法 权益</w>
烟 草</w>
年 期</w>
主 义
联 邦
3. 5</w>
反 馈</w>
国 美</w>
当 今</w>
旅行 社</w>
克 力</w>
修 建</w>
玛 丽</w>
轻 易</w>
资 深</w>
美 的</w>
珠 宝</w>
电 脑
日内 瓦</w>
不 太</w>
外 来</w>
丹 麦</w>
解决 问题</w>
一 向</w>
冰 冰</w>
一 行</w>
夜 间</w>
动 漫</w>
日 常
0. 5</w>
穿 越</w>
和 政</w>
实 时</w>
春 运</w>
农 场</w>
舞 蹈</w>
开 会</w>
IM F</w>
青 睐</w>
离 子</w>
I I</w>
设 有</w>
职 权</w>
电 动</w>
民进 党</w>
人民代表 大会</w>
赞 扬</w>
任 职</w>
勇 敢</w>
绝 不</w>
线 性</w>
个 案</w>
感 激</w>
头 脑</w>
珍 贵</w>
姐 妹</w>
哥 伦
借 贷</w>
搜 狐</w>
经济 学</w>
点 击</w>
上 限</w>
印 刷</w>
疼 痛</w>
甘 肃</w>
分 裂</w>
糖 尿
感 冒</w>
莱 坞</w>
东 莞</w>
制 止</w>
人 事</w>
水 电</w>
约 合</w>
午 餐</w>
动 物
多元 化</w>
体 会</w>
垃 圾
20 20</w>
清 除</w>
引 领</w>
4 S
i g
不 算</w>
工业 化</w>
光 明</w>
碰 到</w>
英 尺</w>
意 图</w>
天 使</w>
此 案</w>
收 于</w>
停车 场</w>
石 家
巨 额</w>
威 廉</w>
经纪 人</w>
科 学院</w>
英译 汉</w>
事 后</w>
漏 洞</w>
执行 官</w>
崛 起</w>
4S 店</w>
毫无 疑问</w>
回 升</w>
图 为</w>
数 百
强 制
遗 址</w>
赵 本山</w>
攀 升</w>
高尔 夫
金融 市场</w>
感 器</w>
不 同
抗 旱</w>
不 该</w>
花 钱</w>
最 具</w>
景 观</w>
列 出</w>
链 接</w>
宿 舍</w>
婚 姻
培 训
特 区</w>
不 明</w>
导 航</w>
一 看</w>
对 付</w>
不 止</w>
译 文</w>
变 形</w>
清华 大学</w>
旋 转</w>
长 春</w>
大 会
传 闻</w>
o t
中 毒</w>
警 惕</w>
体制 改革</w>
顶 级</w>
显 现</w>
抢 劫</w>
昂 贵</w>
合作 伙伴</w>
辽 宁</w>
保 罗</w>
运 送</w>
欢 乐</w>
混凝 土</w>
武 汉
高 价</w>
地 利</w>
e c
u s
2. 4</w>
热 量</w>
i v
桥 梁</w>
早 餐</w>
核 电</w>
热 爱</w>
数 字
孕 妇</w>
冒 险</w>
后 期</w>
公 交</w>
回 事</w>
核 心
文 献</w>
系 数</w>
科 院</w>
圣诞 节</w>
充分 发挥</w>
走 过</w>
斯 坦
近 来</w>
开 放
乌 克兰</w>
当 场</w>
出 资</w>
剥 夺</w>
一 架</w>
笔 记
群 众
同 行</w>
社 保</w>
中 原</w>
索 尼</w>
暗 示</w>
合 金</w>
灰 色</w>
无 人
方 位</w>
原 始</w>
i a</w>
裁 判</w>
支 队</w>
力 争</w>
传 输</w>
见 证</w>
火 星</w>
颁 发</w>
操作 系统</w>
驾 车</w>
沉 默</w>
共和 党</w>
车 市</w>
焦 虑</w>
大 事</w>
光 明
认 真
好 莱坞</w>
合 计</w>
忍 受</w>
尽 力</w>
适 用
联合 会</w>
民 意</w>
涉 案</w>
区 政府</w>
白 酒</w>
联 通</w>
ro id</w>
区 县</w>
中华 民族</w>
一 贯</w>
带 给</w>
霆 锋</w>
赛 事</w>
办 学</w>
密 集</w>
附 加</w>
虚 拟</w>
疗 效</w>
争 夺</w>
货 车</w>
审 计
美 术
跨 越</w>
化 剂</w>
数 值</w>
巧 克力</w>
列 为</w>
任 期</w>
拆 除</w>
住 房
乐 趣</w>
第 八
一 遍</w>
行 星</w>
海 底</w>
迄 今</w>
隧 道</w>
三 亚</w>
表 示
入 学</w>
奥 林
自然 灾害</w>
疲 劳</w>
公交 车</w>
健 康
资 讯
国 土</w>
监 管部门</w>
找 出</w>
引 用</w>
布 莱
环 球
公 务</w>
故 宫</w>
里 亚</w>
村 庄</w>
问 责</w>
国家 级</w>
制 成</w>
也 门</w>
酒 吧</w>
运 输
详 情</w>
预 约</w>
报 考</w>
大 道</w>
目的 地</w>
降 温</w>
糖尿 病</w>
以 内</w>
尔 德</w>
每 股</w>
广 阔</w>
少 女</w>
物 体</w>
利 用
大 于</w>
英 九</w>
l a
车 上</w>
大 片</w>
河 北省</w>
短 暂</w>
群 岛</w>
眼 下</w>
房 贷</w>
克罗 地亚</w>
三 分之一</w>
3 60</w>
马 英九</w>
页 面</w>
双 重</w>
辉 煌</w>
洛杉 矶</w>
1. 3</w>
支 配</w>
地 质</w>
山 市</w>
诚 实</w>
摩托 车</w>
说 出</w>
加 州</w>
一 头</w>
真 诚</w>
国 防</w>
周 二</w>
安 静</w>
h a
万 个</w>
管理 人员</w>
无 所
七 年</w>
杀 死</w>
LE D</w>
芝 加
传 感器</w>
耕 地</w>
尊 敬</w>
国民 经济</w>
历 程</w>
沉 重</w>
家 居</w>
M ar
六 年</w>
罪 犯</w>
检察 官</w>
软 件
覆 盖
气 质</w>
纳税 人</w>
相 处</w>
村 里</w>
多样 化</w>
复 合</w>
视 察</w>
深圳 市</w>
提 供
参考 报</w>
停 留</w>
税 务
足 协</w>
区 域
其 后</w>
矿 业</w>
活 着</w>
交 付</w>
确 定性</w>
情 人</w>
募 集</w>
M a
椅 子</w>
缩 短</w>
概 念
实 例</w>
规 格</w>
视 野</w>
地 雷</w>
咖 啡
制 备</w>
船 只</w>
意 志</w>
会 议
剩 余</w>
不 容
00 0
缅 甸</w>
江苏 省</w>
葡萄 牙</w>
通 知
架 构</w>
所在 地</w>
火 车站</w>
建筑 面积</w>
摇 号</w>
宏 观</w>
物 业
20 .
报 表</w>
分 割</w>
精 英</w>
刑事 责任</w>
码 头</w>
水 量</w>
开 幕式</w>
防 御</w>
水 分</w>
证 人</w>
证券 日报</w>
老 家</w>
置 业</w>
思 想
2 7
铁 矿石</w>
co m</w>
空 间
低 调</w>
三 星</w>
吉 林
那 边</w>
全 会</w>
玫 瑰</w>
十二 条</w>
义务 教育</w>
把 手</w>
妨 碍</w>
加 勒
分 手</w>
尼 日
一 九
心 脏
快 速
占 有</w>
辈 子</w>
宁 夏</w>
传 染
一 届</w>
高 压</w>
不 下</w>
人 气</w>
积极 性</w>
写 道</w>
尊 严</w>
事务 所</w>
采 集</w>
增 值</w>
in a</w>
多 万</w>
新 人</w>
安 哥
新 娘</w>
明 书</w>
挪 威</w>
登 上</w>
沟 油</w>
导 向</w>
地 沟油</w>
海 盗</w>
标 价</w>
必 将</w>
卖 出</w>
眼 中</w>
随 之</w>
英 寸</w>
1 80</w>
立方 米</w>
市场 化</w>
大 选</w>
人 文</w>
报告 员</w>
海 水</w>
六 条</w>
求 意见</w>
征 求意见</w>
i d
员 额</w>
国 庆</w>
飞 船</w>
递 交</w>
选 出</w>
封 闭</w>
强 迫</w>
贯彻 落实</w>
-- --
交通 事故</w>
清 华</w>
欺 骗</w>
起 草</w>
区 间</w>
自 称</w>
印 尼</w>
班 子</w>
登 录</w>
长期 以来</w>
奠 定</w>
口 气</w>
鼓 舞</w>
路 边</w>
防 护</w>
对 性</w>
合 肥</w>
海 口</w>
安哥 拉</w>
物 种</w>
永 久</w>
放 到</w>
多 月</w>
功 效</w>
不 小</w>
激 光</w>
P S</w>
压 缩</w>
北京 晨报</w>
报 酬</w>
文 学
新 房</w>
安 居
保 密</w>
悲 剧</w>
阿 里
在 外</w>
句 子</w>
流 失</w>
第三 次</w>
And roid</w>
哈尔 滨</w>
引 人
密 斯</w>
实 习
化妆 品</w>
众 人</w>
以 期</w>
两 周</w>
想 想</w>
富 豪</w>
据 统计</w>
目 前
目前 为止</w>
李 娜</w>
过 分</w>
双 汇</w>
全 身</w>
保护 区</w>
除 此
看 过</w>
奥林 匹
免 疫</w>
区 内</w>
高 出</w>
请 问</w>
接 口</w>
柬 埔
这 块</w>
次 数</w>
e d</w>
酒 精</w>
缺 口</w>
十 几
而 成</w>
天 津
风 景</w>
工 地</w>
乔 治</w>
20 13</w>
皇 家</w>
题 材</w>
三 季度</w>
芯 片</w>
殖 民
随 机</w>
人民 检察院</w>
克 斯坦</w>
沙 漠</w>
学 金</w>
错 过</w>
i m
牙 齿</w>
A T</w>
篮 球</w>
雷 达</w>
u t
e t</w>
票 价</w>
治 安</w>
传 承</w>
偶 尔</w>
比亚 迪</w>
法 人</w>
媒 介</w>
布 朗</w>
国家 统计局</w>
一 股</w>
此 项</w>
负 面</w>
保 守</w>
填 写</w>
买 入</w>
一 刻</w>
辛 苦</w>
高 原</w>
全国 政协</w>
安 慰</w>
座 谈会</w>
西 南</w>
谢 霆锋</w>
非 正式</w>
马克 思
以 免</w>
流 域</w>
名 词</w>
热 议</w>
受 贿</w>
首 发</w>
开发 区</w>
1 30</w>
过 年</w>
任 意</w>
文 物
精 度</w>
成 本
模 仿</w>
无 可
宾 馆</w>
央 企</w>
同 胞</w>
幽 默</w>
大 地</w>
金 山</w>
资讯 科技</w>
首 要</w>
执 照</w>
战 场</w>
一 手</w>
耳 朵</w>
中 海</w>
N A</w>
波 兰</w>
六 个</w>
营 企业</w>
远 程</w>
服 用</w>
水 面</w>
教 会</w>
往 年</w>
养 殖</w>
举 动</w>
上 级</w>
经 纪</w>
博 士
不 当</w>
组 件</w>
摄 像
承 包
成 年</w>
钢 铁
使用 者</w>
未 成年人</w>
假 日</w>
墙 上</w>
很 长</w>
电 动车</w>
多 地</w>
专 访</w>
倡 导</w>
区 分</w>
激 素</w>
随 便</w>
实 用
Q Q</w>
科学 技术</w>
凸 显</w>
一 流</w>
烦 恼</w>
影 像</w>
行 性</w>
天 文
代 谢</w>
范 畴</w>
前 所
中 小</w>
骄 傲</w>
中 等</w>
2 9
污染 物</w>
军 官</w>
液 体</w>
柬埔 寨</w>
温 和</w>
电 量</w>
热 线</w>
强 势</w>
飞行 员</w>
博 会</w>
创 始
艺 人</w>
天 价</w>
负 荷</w>
往 来</w>
拉 丁
寒 冷</w>
起 飞</w>
按 摩</w>
实 地</w>
日常 生活</w>
参 赛</w>
贝 尔</w>
商业 地产</w>
普 京</w>
画 家</w>
大 桥</w>
刊 登</w>
分 发</w>
不 合理</w>
粮 食
女 王</w>
透明 度</w>
缺 失</w>
总 共</w>
福 建
收 紧</w>
切 实
马 克</w>
史 密斯</w>
努 力
化 合物</w>
姿 态</w>
赶 紧</w>
比 如说</w>
杰 出</w>
必 需</w>
外 形</w>
资 质</w>
容 器</w>
原子 能</w>
工 商</w>
突 尼斯</w>
经 贸</w>
修 正
二 次</w>
剧 院</w>
几 种</w>
追 踪</w>
使用 权</w>
氧 化</w>
美 食</w>
中 说</w>
构 造</w>
大 臣</w>
支持 者</w>
o c
负 债</w>
红 十字
交通 运输</w>
玻 璃
贿 赂</w>
下 属</w>
铁 道
资 企业</w>
独 自</w>
全 程</w>
网 球</w>
an d
加 热</w>
途 中</w>
摧 毁</w>
干 涉</w>
河 流</w>
说 服</w>
通 告</w>
小 小
得 不到</w>
A R
真 理</w>
硕 士</w>
德 里</w>
福 特</w>
消 灭</w>
民 事
不 去</w>
采取 措施</w>
爱 好</w>
退 役</w>
起 点</w>
人 节</w>
农 村
标准 化</w>
这 点</w>
锦 赛</w>
扬 子
应 力</w>
之 地</w>
投 机</w>
名 额</w>
实习 生</w>
手 动</w>
出版 物</w>
行 程</w>
厕 所</w>
时 装
居 住
内 阁</w>
一 幅</w>
通知 书</w>
该 校</w>
呈 现出</w>
理 财</w>
不 已</w>
解放 军</w>
惯 例</w>
牛 肉</w>
干 什么</w>
我 方</w>
共同 体</w>
周 四</w>
网 购</w>
时间 表</w>
北 美</w>
界 面</w>
一 律</w>
造 假</w>
击 败</w>
一 下
根 源</w>
四川 省</w>
直 播</w>
适 度</w>
两 地</w>
江 南</w>
频 频</w>
残 疾</w>
教 材</w>
出 门</w>
养 生</w>
诱 惑</w>
芝加 哥</w>
教 科
各 个
绘 画</w>
拥 堵</w>
铁道 部</w>
生态 环境</w>
奉 献</w>
世界 银行</w>
专 利
集 体
登 记
入 住</w>
艰 苦</w>
心脏 病</w>
通 行</w>
新兴 产业</w>
大 中
I N
定 制</w>
明 显
高尔 夫</w>
生 于</w>
化 解</w>
上 游</w>
勘 探</w>
复 杂
深 深</w>
晚 餐</w>
变 为</w>
S O
量 化</w>
简 化</w>
放 大</w>
股 票
比 尔</w>
不 然</w>
反 思</w>
无 力</w>
传 说</w>
气 息</w>
锁 定</w>
铁 路
修正 案</w>
借 口</w>
3 G</w>
针 对性</w>
探 测</w>
尼 亚
利 润
社会 各界</w>
新 政</w>
萎 缩</w>
创始 人</w>
湖 南省</w>
整 顿</w>
场 面</w>
情 景</w>
加 重</w>
多样 性</w>
国家 队</w>
P M
裁 定</w>
1 60</w>
扶 贫</w>
7 000</w>
崩 溃</w>
塞 尔</w>
裁 决</w>
容 忍</w>
倾 斜</w>
从 小</w>
掀 起</w>
内 饰</w>
转 发</w>
看 作</w>
演 唱
首 位</w>
过 高</w>
不 确定性</w>
评 审</w>
西 北</w>
特 大</w>
杰 夫</w>
失 业率</w>
战略 性</w>
产 地</w>
彼 得</w>
豪 华
南 昌</w>
携 手</w>
同 情</w>
沃尔 玛</w>
岩 石</w>
封 信</w>
学 期</w>
T h
美 容</w>
党 组织</w>
某 种
冷 静</w>
终 身</w>
化 名</w>
1 40</w>
代表 性</w>
不 动</w>
我 家</w>
出 具</w>
小 平</w>
体 检</w>
示 威</w>
扫 描</w>
一 共</w>
穆 斯
限 期</w>
预 售</w>
源 头</w>
比 利
受 灾</w>
卓 越</w>
看 似</w>
头 部</w>
生 猪</w>
加 油
洗衣 机</w>
女 星</w>
加 盟</w>
从 业
亲 切</w>
手 法</w>
不 易</w>
底 部</w>
帖 子</w>
标 记</w>
惊 喜</w>
总 体
健 身</w>
等 候</w>
高 科技</w>
预 算
传 奇</w>
死 亡
鼻 子</w>
前所 未有</w>
会 同</w>
储 蓄</w>
失 误</w>
年 末</w>
湿 地</w>
不 准</w>
被 捕</w>
一 点
马 丁</w>
国有 企业</w>
伪 造</w>
取 得
城 管</w>
受 访者</w>
手 册</w>
几 十年</w>
肥 胖</w>
平方 公里</w>
连 锁</w>
行 走</w>
拉 动</w>
再 生
自 豪</w>
特别行政 区</w>
e m
海 峡</w>
参 照</w>
死 者</w>
几 位</w>
监 局</w>
持 平</w>
拨 打</w>
支 票</w>
萝 卜</w>
慈 善
四 十
2 4.
黑 人</w>
符 号</w>
附 加
岛 屿</w>
税 务</w>
持 股</w>
演 习</w>
好 转</w>
界 定</w>
分 数</w>
安 德
搭 建</w>
扬子 晚报</w>
之 旅</w>
老 年</w>
地 域</w>
电视 机</w>
分 成</w>
击 者</w>
电 源</w>
英 格兰</w>
小小 的</w>
喝 酒</w>
理 学</w>
有限 责任</w>
主 演</w>
不 高</w>
协 调
宁 波</w>
八 年</w>
穷 人</w>
5 0
援 引</w>
节 点</w>
红 军</w>
医 师</w>
之 声</w>
拉 里</w>
a p
噪 音</w>
仓 库</w>
t er</w>
尼 西亚</w>
夜 晚</w>
上 次</w>
跨 国</w>
含 义</w>
u c
天 气
时 段</w>
跳 舞</w>
获 利</w>
忧 虑</w>
外 长</w>
ro u
郊 区</w>
树 木</w>
户 口</w>
录 像</w>
完 毕</w>
辽 宁
赠 送</w>
病 情</w>
偶 然</w>
违 背</w>
街 上</w>
为 本</w>
致 命</w>
反 恐</w>
城 乡
圣 诞</w>
着 重</w>
理 工
吃 惊</w>
降 幅</w>
适 宜</w>
罗 斯
检 疫</w>
总 署</w>
卖 场</w>
座 椅</w>
选 择
席 位</w>
阿拉 伯
巡 逻</w>
草 原</w>
同 一个</w>
这 会</w>
集团 公司</w>
署 长</w>
两 项</w>
主 场</w>
u l
卡 车</w>
冲 动</w>
丑 闻</w>
乐 福</w>
周 三</w>
豪 宅</w>
办 案</w>
一 眼</w>
产 物</w>
零 部件</w>
盲 目</w>
占 用</w>
恰 当</w>
价格 指数</w>
生产 力</w>
杀 害</w>
各种 各样</w>
家 乐福</w>
主 办
增 添</w>
副 总经理</w>
斯 蒂
帐 户</w>
集 成</w>
竣 工</w>
眼 泪</w>
权 人</w>
重 新
鲜 明</w>
公 认</w>
抢 救</w>
爱 好
停 产</w>
实 施
集 合</w>
飙 升</w>
星期 五</w>
党 人</w>
违 约</w>
车 子</w>
统 一
失 所</w>
党 和
离 失所</w>
流 离失所</w>
会 晤</w>
谈 谈</w>
国务 院
亲 属</w>
上 映</w>
传 言</w>
中 间
好 多</w>
供 电</w>
电影 节</w>
服务 员</w>
展 望</w>
盖 茨</w>
全国 人大常委会</w>
火 爆</w>
某 某</w>
延 误</w>
四 周</w>
精 心</w>
十 分
衬 衫</w>
不可 避免</w>
一 身</w>
新 城</w>
巴 巴</w>
务 实</w>
影 视</w>
丝 毫</w>
布 置</w>
男 生</w>
房 地
马克思 主义</w>
安 徽
维 也
克 莱
身 为</w>
负 面
恐 慌</w>
预 防
行 业
线 条</w>
参与 者</w>
交 会</w>
讲 座</w>
善 于</w>
城市 化</w>
流 传</w>
入 侵</w>
碰 撞</w>
驾驶 员</w>
擅 自</w>
外 表</w>
维也 纳</w>
专 注</w>
用 作</w>
屋 顶</w>
演唱 会</w>
处 境</w>
坐 下</w>
博 览会</w>
开 出</w>
不 肯</w>
薪 金</w>
诉 求</w>
寻 常</w>
原 油
仆 人</w>
卫生 组织</w>
生 动</w>
平 面</w>
这 起</w>
水 中</w>
国防 部</w>
司 长</w>
顺 序</w>
利 班</w>
出 任</w>
排 查</w>
华尔 街</w>
一 倍</w>
漫 长</w>
回 避</w>
建设 性</w>
塔 利班</w>
皇 帝</w>
灾 后</w>
未 必</w>
初 中</w>
子 里</w>
耶 路
星期 一</w>
共同 努力</w>
迈 克尔</w>
月 球</w>
办 事</w>
耶路 撒
跟 随</w>
福 州</w>
A d
当 成</w>
乌 鲁
注 射</w>
有 钱</w>
除此 之外</w>
O S</w>
简 历</w>
互 利</w>
权 限</w>
前 途</w>
油 气</w>
减 弱</w>
入 市</w>
何 种</w>
海 南省</w>
操 纵</w>
红十字 会</w>
阴 影</w>
李 某</w>
在 此
迫 切</w>
基金 组织</w>
显 示
学 生
患 有</w>
全 都</w>
下 行</w>
有 毒</w>
有效 性</w>
决 策
下 班</w>
3 50</w>
宝 贝</w>
爆 炸
渔 业</w>
第 一步</w>
诗 人</w>
示 范
提 倡</w>
面 上</w>
文 档</w>
所 致</w>
留 言</w>
生 病</w>
孤 独</w>
a s</w>
均 匀</w>
可 乐</w>
长 达</w>
移 交</w>
开 拓</w>
征 税</w>
从 来
耶路撒 冷</w>
原 谅</w>
病 例</w>
录 音</w>
绑 架</w>
廉 租房</w>
宇 航
原 先</w>
印度 尼西亚</w>
指 令</w>
单 身</w>
苹果 公司</w>
第三 个</w>
型 号</w>
加 拉
服务 中心</w>
最 长</w>
清 醒</w>
调 价</w>
神 奇</w>
建设 项目</w>
公 顷</w>
固 定
2 3.
照 明</w>
唱 歌</w>
可 靠
人 员
法 语</w>
陈 述</w>
果 说</w>
如 果说</w>
管理 层</w>
总 书记</w>
大 使馆</w>
可 惜</w>
穆斯 林</w>
干 事</w>
强 奸</w>
兰 州</w>
该 车</w>
悲 伤</w>
秋 季</w>
塑 料
开 辟</w>
事 态</w>
检 讨</w>
全 方位</w>
我 来</w>
更 高</w>
年 均</w>
动 脉</w>
行 长</w>
口 头</w>
精 致</w>
检察 机关</w>
购 置</w>
石家 庄</w>
现 身</w>
每 当</w>
控制 系统</w>
万 千瓦</w>
比 率</w>
查 阅</w>
幻 想</w>
运动 会</w>
水 位</w>
拍 照</w>
厉 害</w>
游 行</w>
林 顿</w>
小 女孩</w>
月 亮</w>
安 市</w>
乐 队</w>
单 词</w>
中 医</w>
五 大</w>
真 实
论 证</w>
选 项</w>
处 以</w>
哈 利</w>
陕 西省</w>
晚 间</w>
奥 地利</w>
1 200</w>
上 个月</w>
第五 十
幸 福
载 体</w>
近 几年</w>
智 力</w>
包 裹</w>
卧 室</w>
从来 不</w>
路 段</w>
下 次</w>
送 往</w>
眼 里</w>
乌鲁 木
浏 览
短 短</w>
子 弹</w>
人 工
就 让</w>
广 泛
一下 子</w>
G oo
无论 如何</w>
分 解</w>
桌 上</w>
十一 届</w>
常务 委员会</w>
口 袋</w>
发 现
隐 私</w>
日 后</w>
计划 生育</w>
降 水</w>
第 一位</w>
后 悔</w>
吉 林</w>
眼 光</w>
欲 望</w>
放 置</w>
深 处</w>
签 字</w>
急 性</w>
九 龙</w>
资 产
立 案</w>
宏观 调控</w>
预 案</w>
杀 人</w>
有 过</w>
流 行
被 动</w>
报 导</w>
帝 国</w>
侵 害</w>
特 殊
地 质
康 菲</w>
198 9</w>
恶 意</w>
得 分</w>
下 旬</w>
清 新</w>
全 文</w>
代理 人</w>
发 给</w>
订 购</w>
空 白</w>
新 款</w>
半 小时</w>
菅 直</w>
用 人
党 委书记</w>
购 物
米 兰</w>
礼 貌</w>
龙 头</w>
笑 容</w>
平 常</w>
第 九
轻 微</w>
称 赞</w>
几 家</w>
传 达</w>
政 务</w>
门 前</w>
礼 服</w>
澳 洲</w>
廉 价</w>
告 别</w>
之 为</w>
上 万</w>
日 产</w>
削 弱</w>
火 山</w>
十 三</w>
毫 不
水 质</w>
完 全
升 高</w>
利 好</w>
遗 传</w>
g le</w>
纯 粹</w>
材 质</w>
更 具</w>
时 常</w>
记 载</w>
漫 画</w>
步 入</w>
提 请</w>
南 宁</w>
中 心
海 外
S h
航 行</w>
关 节</w>
不 能
1. 1</w>
配 件</w>
用人 单位</w>
多 样</w>
记者 会</w>
店 内</w>
i on
否 定</w>
修 理</w>
小 岛</w>
安居 工程</w>
黑 塞
经 贸
辖 区</w>
联 系
放射 性</w>
19 80</w>
黑塞 哥
山 西省</w>
学 前
奖 项</w>
黑塞哥 维
黑塞哥维 那</w>
放 量</w>
湖 北省</w>
两 只</w>
常 驻</w>
分 泌</w>
积极 参与</w>
爱好 者</w>
基 准
创 办</w>
灵 感</w>
中 石化</w>
筹 措</w>
例 句</w>
自 我
非 洲
难 得</w>
中 西部</w>
信息 系统</w>
琼 斯</w>
公 式</w>
a r</w>
文 艺
党 派</w>
传 来</w>
所 有权</w>
卡 尔</w>
国际 货币
下 车</w>
揭 示</w>
证 会</w>
无 法
供 水</w>
征 集</w>
史 上</w>
一 副</w>
破 裂</w>
塞 尔
塑 造</w>
北京 晚报</w>
青 海</w>
在 场</w>
饲 料</w>
战 术</w>
西班 牙
爆 料</w>
按 钮</w>
危 险
华 西
6 0
不 久
挂 钩</w>
创 新
偶 像</w>
开 门</w>
分 之
满 意
动物 园</w>
亚 洲
柏 林</w>
位 居</w>
亲 密</w>
放 下</w>
路 面</w>
原 则
路 口</w>
信息 技术</w>
一 双</w>
布 尔</w>
组织 部</w>
大 S</w>
2 2.
宏观 经济</w>
紧 紧</w>
验 收</w>
灭 绝</w>
产 值</w>
产品 质量</w>
改 正</w>
马 拉
定 向</w>
事 儿</w>
2 5.
振 动</w>
益 于</w>
可靠 性</w>
列 表</w>
低 碳</w>
一 再</w>
P C</w>
春 季</w>
产 出</w>
车 祸</w>
五 十</w>
指 望</w>
薪 水</w>
再 说</w>
理 论
就 业
文 中</w>
谋 求</w>
散 步</w>
加 深</w>
溢 油</w>
交 代</w>
看 不到</w>
ind ow
迄 今
一 月</w>
语 音</w>
农业 部</w>
自动 化</w>
恢 复
值得 注意</w>
电 流</w>
树 林</w>
戏 剧</w>
银 监会</w>
机 理</w>
收 缩</w>
情 人节</w>
市 中心</w>
离 职</w>
三 级</w>
黑龙 江</w>
华 侨</w>
存 放</w>
鞋 子</w>
死亡 率</w>
国际 贸易</w>
称 号</w>
面 板</w>
珍 惜</w>
塔 尔</w>
军事 行动</w>
说 起</w>
演 绎</w>
讨 论
用 户
沙 发</w>
食 用
不 像</w>
e v
白 领</w>
开 创</w>
模 块</w>
反应 堆</w>
不 知
邻 国</w>
派 对</w>
引 来</w>
客 厅</w>
亲 人</w>
项 目
场 上</w>
暑 假</w>
理 财
作 文</w>
多 达</w>
客 流</w>
哪 怕</w>
饰 演</w>
再 生</w>
B C</w>
恒 大</w>
咨 询
二氧化 碳</w>
通 用
训 练
干 部
凯 特</w>
优 秀
东 南</w>
养老 保险</w>
华 丽</w>
时 速</w>
云 南省</w>
政 局</w>
搬 迁</w>
2 6.
部 委</w>
身 高</w>
空 袭</w>
受害 人</w>
发 帖</w>
广 大
北京 大学</w>
苏 州</w>
监 测
爷 爷</w>
台 风</w>
监 察
问 道</w>
起 步</w>
大 众
不 定</w>
亲 戚</w>
中国人民 银行</w>
不 适</w>
国际货币 基金组织</w>
善 良</w>
听 证会</w>
高 新
盛 大</w>
办公 厅</w>
A T
手 上</w>
以 至于</w>
这 套</w>
而 出</w>
电 讯</w>
打 折</w>
A S
行 人</w>
打 出</w>
字 母</w>
民 事</w>
悬 挂</w>
该 市</w>
方 程</w>
夺 得</w>
陌 生</w>
抵 抗</w>
食 堂</w>
质 检</w>
格 外</w>
切 尔
医 药
下 周</w>
西 洋</w>
关 怀</w>
入 口</w>
大 致</w>
刘 翔</w>
辅 导</w>
格 鲁
女 孩子</w>
依 赖
编 号</w>
比利 时</w>
扣 除</w>
脾 气</w>
委 常委</w>
依 托</w>
建 党</w>
一 口</w>
佛 山</w>
波 里</w>
服 饰</w>
确 切</w>
灯 光</w>
肯 尼亚</w>
基 督</w>
留 给</w>
发表 声明</w>
景 象</w>
宣 告</w>
太 大</w>
前 夕</w>
产业 化</w>
过 渡
实 践
明 亮</w>
多 万元</w>
几 分钟</w>
伴 侣</w>
恩 来</w>
选 用</w>
进 化</w>
大 人</w>
慢 性</w>
公 平
口 号</w>
门 票</w>
情 报
福建 省</w>
英 国人</w>
表 达
热 闹</w>
免 疫
in g
结构 调整</w>
4. 5</w>
进 军</w>
多 方面</w>
开 办</w>
岁 月</w>
发 售</w>
电 压</w>
变速 箱</w>
孔 子</w>
规 范
热 带</w>
温 柔</w>
商品 住宅</w>
T V</w>
大 面积</w>
陶 瓷</w>
国 情</w>
质 量
朝 阳</w>
房 租</w>
研究 者</w>
外 套</w>
尼 尔</w>
数 码</w>
小 镇</w>
十 一</w>
整 整</w>
泄 露</w>
内 幕</w>
获 奖</w>
护 照</w>
工 艺
关 爱</w>
不 予</w>
开 关</w>
拉丁 美洲</w>
威 特</w>
印 发</w>
景 点</w>
师范 大学</w>
中央 政府</w>
两 款</w>
评 论
生 人</w>
愚 蠢</w>
店 铺</w>
加油 站</w>
维 尔</w>
点 钟</w>
拖 延</w>
概 率</w>
太 原</w>
不 便</w>
迟 到</w>
继 续
雅 虎</w>
总 之</w>
不久 前</w>
W indow
误 解</w>
公 报</w>
气象 台</w>
清 晨</w>
有 者</w>
前 者</w>
肚 子</w>
终 结</w>
瞩 目</w>
分 红</w>
私 募</w>
生产 商</w>
缩 水</w>
周 日</w>
可 行性</w>
没 法</w>
雇 用</w>
有 名</w>
已 达</w>
船 上</w>
而 易
稳 健</w>
正 确
两 岸
一 来</w>
兑 换</w>
周 六</w>
著 作
198 8</w>
手 臂</w>
做 成</w>
停 火</w>
谣 言</w>
裁 员</w>
丢 失</w>
o v
马 斯</w>
地 价</w>
呼 吸
不 宜</w>
早 些时候</w>
块 钱</w>
口 味</w>
每 吨</w>
称 之为</w>
i s</w>
黄 河</w>
周 恩来</w>
约 翰
重 返</w>
遥 远</w>
测 算</w>
早 日</w>
撤 出</w>
司 令
a y</w>
充 满
诗 歌</w>
葡 萄</w>
盘 点</w>
德 尔</w>
付 费</w>
大 雨</w>
四 处</w>
动 用</w>
万 户</w>
设 在</w>
走 高</w>
忙 碌</w>
要 说</w>
走 私</w>
交 流
专 辑</w>
确 信</w>
好 奇</w>
长 假</w>
身 亡</w>
多 种
黎 波里</w>
的 黎波里</w>
斯 科
吉林 省</w>
马 力</w>
眼 球</w>
痕 迹</w>
德 华</w>
起 床</w>
促 成</w>
强 有力</w>
开 玩笑</w>
救 治</w>
再生 能源</w>
手 工</w>
演 变</w>
日 益
长 江
尽 早</w>
款 式</w>
普 查</w>
浏览 器</w>
光 线</w>
每 平方米</w>
兴 起</w>
明 智</w>
影 视
迷 人</w>
儿 女</w>
礼 品</w>
消 极</w>
报 复</w>
按 时</w>
管理 者</w>
拍 卖
军 区</w>
沮 丧</w>
宠 物</w>
中 级</w>
第一 季度</w>
所 用</w>
抛 弃</w>
三 月</w>
督 察</w>
简 要</w>
安徽 省</w>
卡 恩</w>
急 剧</w>
剧 本</w>
C O
叙 述</w>
逃 避</w>
建 国</w>
城 里</w>
分 行</w>
本 田</w>
有 何</w>
全球 性</w>
贝 尔
师 生</w>
降 至</w>
原 告</w>
一 辈子</w>
牧 师</w>
廉 政</w>
做 些</w>
订 正</w>
回 购</w>
车 厢</w>
抓 好</w>
化 石</w>
分 化</w>
昨天 下午</w>
抵 制</w>
高 潮</w>
注 定</w>
散 发</w>
带 走</w>
规 章</w>
扭 矩</w>
第一 天</w>
凡 是</w>
免 税</w>
不 利于</w>
弘 扬</w>
用 以</w>
投 产</w>
对 冲</w>
医疗 卫生</w>
不 禁</w>
一 艘</w>
保 证
史 蒂
水 域</w>
最 少</w>
资 委</w>
绝 望</w>
小 男孩</w>
亿 吨</w>
7. 5</w>
股 本</w>
步 行</w>
部 落</w>
碎 片</w>
两 条</w>
神 圣</w>
警 示</w>
学前 教育</w>
医疗 机构</w>
极 了</w>
船 长</w>
看 望</w>
D V
这 样
被 困</w>
罗 马
是 非</w>
东 方
罗 伯特</w>
过 快</w>
手 表</w>
常 态</w>
致 辞</w>
脖 子</w>
增 至</w>
还 给</w>
误 差</w>
永 恒</w>
小 朋友</w>
跨 国
侵 略</w>
你 好</w>
贵 州
Goo gle</w>
风 险
安 娜</w>
充分 利用</w>
拉 登</w>
好 看</w>
这 类</w>
盗 窃</w>
疗 法</w>
创 立</w>
克 林顿</w>
轻 轻</w>
冻 结</w>
首 届</w>
陪 同</w>
监 视</w>
广 东
苏 格兰</w>
拟 定</w>
尼日 利亚</w>
颗 粒</w>
期 货
国 资委</w>
优 良</w>
因 子</w>
走 路</w>
财 物</w>
庭 审</w>
甜 蜜</w>
垂 直</w>
地 理
此 种</w>
国 企</w>
伸 出</w>
土 豆</w>
扭 转</w>
i e</w>
载 有</w>
上 线</w>
市 委书记</w>
奖 学金</w>
住 院</w>
指挥 部</w>
虐 待</w>
骨 折</w>
看 电视</w>
拥 抱</w>
东 北部</w>
优惠 政策</w>
一 带</w>
调 度</w>
建 立
保 利</w>
小 伙
存 量</w>
想 着</w>
官 方
农 药</w>
打 扮</w>
罪 名</w>
有 待</w>
发 性</w>
假 冒</w>
获 得
延 迟</w>
忠 诚</w>
祈 祷</w>
朝 鲜
考 古</w>
六 月</w>
期 刊</w>
十 年代</w>
准 入</w>
日 渐</w>
放 入</w>
多 岁</w>
减 持</w>
中国 日报</w>
客 机</w>
购 买
o f</w>
编 码</w>
增 发</w>
范 冰冰</w>
筹 资</w>
按 揭</w>
大 豆</w>
m an</w>
联 手</w>
升 至</w>
动 摇</w>
京 城</w>
E C
毫 不</w>
武汉 市</w>
出 境</w>
零 件</w>
钓 鱼</w>
先 行</w>
为 重要</w>
不 顾</w>
快速 增长</w>
传染 病</w>
细 化</w>
上 报</w>
壮 大</w>
邓 小平</w>
口 语</w>
雇 佣</w>
功 能
不 懈</w>
舒 适
承 办</w>
科 威特</w>
景 气</w>
价 钱</w>
齐 全</w>
演 唱</w>
一 枚</w>
施 工
商品 价格</w>
2. 3</w>
保 健
不 佳</w>
主 席
狮 子</w>
价 位</w>
限 额</w>
被 判</w>
战斗 机</w>
东南 亚</w>
钢 琴</w>
变 量</w>
营 运</w>
最 有</w>
指挥 官</w>
中新 社</w>
智 利</w>
鲜 花</w>
高新 技术</w>
明确 规定</w>
发现 自己</w>
四 是</w>
周 知</w>
增 值
射 击</w>
犹 如</w>
o h
选 购</w>
中 药</w>
票 据</w>
使 人</w>
商 会</w>
绿 城</w>
结构 性</w>
江 西省</w>
席 会议</w>
程 序
养老 金</w>
聚 焦</w>
急 需</w>
十 七
行 列</w>
剂 量</w>
绩 效</w>
一 年
小 学生</w>
倾 听</w>
赌 博</w>
构 成
金 属
地 方
中 文
概 算</w>
大 海</w>
中 外</w>
不 堪</w>
身 穿</w>
所 作</w>
积 分</w>
里 克</w>
三 角
核 能</w>
据 称</w>
水 器</w>
武 力</w>
上 方</w>
稍 微</w>
地 处</w>
减 灾</w>
首 都
门 外</w>
技术 人员</w>
意 向</w>
友 好
万余 元</w>
排 行
气 味</w>
排行 榜</w>
风 雨</w>
下 雨</w>
面 部</w>
除 外</w>
之 路</w>
大 奖</w>
当 事</w>
南 北</w>
伤 心</w>
G rou
金 色</w>
配 方</w>
瓶 颈</w>
栏 目</w>
格鲁 吉
放 宽</w>
重 点
缴 费</w>
破 解</w>
便 捷</w>
难 过</w>
每 桶</w>
众 所
科 目</w>
脚 步</w>
实 物</w>
口 岸</w>
噪 声</w>
低 成本</w>
借 款</w>
一 门</w>
受 益
首 选</w>
稳 定
犹 豫</w>
林 业</w>
困 惑</w>
公 关</w>
文 件
估 算</w>
深 受</w>
2 8.
对 称</w>
件 事</w>
解 析</w>
绿 化</w>
圆 形</w>
党 中央</w>
大 气
国 籍</w>
较 强</w>
必 不可
2 500</w>
通 往</w>
4 0
加 油</w>
认 购</w>
复 合
动 画</w>
主 教</w>
w w
王 菲</w>
朝 着</w>
必要 性</w>
野 生
管理 工作</w>
四 月</w>
就 读</w>
纺 织
s on</w>
视 角</w>
言 语</w>
D NA</w>
现 年</w>
负面 影响</w>
启 用</w>
处理 器</w>
特 权</w>
卖 家</w>
女 朋友</w>
多 方</w>
源 自</w>
承 包</w>
比 里亚</w>
发 掘</w>
历史 性</w>
利 比里亚</w>
个人 所得税</w>
赔 偿
十 五
颁 奖
考 试
时 装</w>
吸 毒</w>
获 胜</w>
日本 政府</w>
加 班</w>
娱乐 圈</w>
几 百
生 理</w>
推 销</w>
两 市</w>
一 则</w>
温 馨</w>
习 俗</w>
阿 里</w>
胎 儿</w>
学 到</w>
同 等</w>
詹 姆斯</w>
三 国</w>
陌 生人</w>
S I</w>
粒 子</w>
底 线</w>
局 局长</w>
负 有</w>
禁 毒</w>
哥伦 比亚</w>
格鲁吉 亚</w>
芬 兰</w>
民 用</w>
暴 跌</w>
断 裂</w>
配 偶</w>
有 意思</w>
新闻 出版</w>
情 侣</w>
S p
运 气</w>
演 奏</w>
定 于</w>
党 内</w>
五 月</w>
要 点</w>
木 材</w>
车 队</w>
督 促</w>
逆 转</w>
犹 太
拥 挤</w>
众所 周知</w>
足 球
乐 意</w>
一 顿</w>
基 层
农 户</w>
煤 炭
中 关
皮 书</w>
液 晶
星期 六</w>
做 事</w>
c e</w>
加 利
通 州</w>
王 先生</w>
上 扬</w>
非 法
筹 集</w>
迁 移</w>
自 家</w>
忘 录</w>
备 忘录</w>
这 部分</w>
话 说</w>
成 千
关 系
高 调</w>
镜 子</w>
an d</w>
提 价</w>
综 述</w>
基 准</w>
工商 局</w>
住 户</w>
书 法</w>
推 翻</w>
按 规定</w>
柜 台</w>
动 词</w>
宝 石</w>
朝 阳
长 久</w>
国家 有关</w>
社会 保险</w>
用 工</w>
爱 人</w>
协 同</w>
高 水平</w>
行 动
大 西洋</w>
笑 话</w>
实 惠</w>
野 生</w>
习 惯
责任 感</w>
忽 然</w>
便 于</w>
斯 达
E C</w>
5. 5</w>
必不可 少</w>
理财 产品</w>
先 进
低 温</w>
A l
一 一</w>
希 拉里</w>
童 年</w>
喜 悦</w>
收 支</w>
市场 需求</w>
两 倍</w>
人 格</w>
远 处</w>
上 行</w>
赞 助</w>
银行 卡</w>
近 年</w>
对 联</w>
里 斯</w>
行政 长官</w>
搜 寻</w>
小伙 子</w>
赶 上</w>
书 写</w>
本 港</w>
工程 建设</w>
天 才</w>
党 组</w>
颇 为</w>
法 制</w>
油 脂</w>
伤 者</w>
电力 公司</w>
特 有</w>
高 质量</w>
中 超</w>
颗 粒
生产 线</w>
本 着</w>
c h</w>
楼 梯</w>
即 时</w>
博 弈</w>
旺 季</w>
其 间</w>
开 业</w>
集 会</w>
海 滩</w>
星 级</w>
开 口</w>
大力 发展</w>
马 车</w>
奢 侈</w>
三 家</w>
佣 金</w>
贵 阳</w>
逃 离</w>
杜 绝</w>
异 议</w>
家 住</w>
客 运</w>
日 记</w>
供应 量</w>
示 威
住 宿</w>
拐 点</w>
国土 资源
克 萨
首 日</w>
根本 上</w>
全 是</w>
从 根本上</w>
序 列</w>
加 之</w>
身 后</w>
音乐 会</w>
聘 请</w>
累 积</w>
夸 张</w>
大 米</w>
案 文</w>
嫁 给</w>
傍 晚</w>
死 去</w>
结 局</w>
毁 灭</w>
布 隆
甘 肃
关键 词</w>
堪 称</w>
与 会
极 度</w>
申 诉</w>
微 生物</w>
秋 天</w>
北京 日报</w>
三 名</w>
1. 7</w>
主 管
三 维</w>
苏 宁</w>
遇 难</w>
人 事
马 自
第一 批</w>
话 语</w>
围 观</w>
车 间</w>
一 汽</w>
综合 性</w>
东 亚</w>
上 门</w>
专 项
优 美</w>
大 自然</w>
升 温</w>
加 沙</w>
陷 阱</w>
北京 市
外汇 储备</w>
包 围</w>
欧洲 央行</w>
害 人</w>
医 学
中 美</w>
高尔夫 球场</w>
总 价</w>
来 源于</w>
雨 水</w>
达 标</w>
橡 胶</w>
消 息
公共 汽车</w>
图 表</w>
鱼 类</w>
大 都</w>
余 名</w>
不 应</w>
马自 达</w>
开 罗</w>
妥 协</w>
在 建</w>
下 达</w>
稳 步</w>
很 强</w>
逃 跑</w>
教育 局</w>
遇 见</w>
男 士</w>
降 到</w>
迄今 为止</w>
查 获</w>
模 范</w>
主义 者</w>
过 剩</w>
消费 品</w>
仍 旧</w>
三 十</w>
宣传 部</w>
这 才</w>
维 斯</w>
好 人</w>
城镇 居民</w>
t er
扎 实</w>
学 业</w>
化学 品</w>
追 捧</w>
网 点</w>
细 致</w>
增值 税</w>
党 校</w>
面 孔</w>
快 报</w>
整 车</w>
战 役</w>
出 身</w>
呼 声</w>
兴 建</w>
开 学</w>
饥 饿</w>
走 廊</w>
出 示</w>
后 代</w>
华西 都市报</w>
人 来</w>
高 涨</w>
参 展</w>
展 会</w>
好 象</w>
卫 队</w>
南 航</w>
ar d</w>
神 话</w>
电视 节目</w>
权 威
二 手</w>
宁 愿</w>
入 选</w>
高 盛</w>
那 条</w>
店 里</w>
阿里 巴巴</w>
贵州 省</w>
罚 金</w>
三 位</w>
动 性</w>
亚 太</w>
购 票</w>
伤 口</w>
现 金
参 议院</w>
白 银</w>
可 达</w>
名 校</w>
遗 体</w>
道 德
晚 饭</w>
贬 值</w>
热 潮</w>
不 符</w>
货 运</w>
折 磨</w>
作 案</w>
松 动</w>
振 兴</w>
腺 癌</w>
世 人</w>
奢 华</w>
这 事</w>
伯 爵</w>
难 免</w>
高 中
滞 后</w>
十 五</w>
宗 教
身 心</w>
自 律</w>
美 术</w>
独 家</w>
多 重</w>
经 验
旱 情</w>
访 谈</w>
残 酷</w>
增长 速度</w>
塞尔 维亚</w>
Window s</w>
股 东
首 付</w>
中关 村</w>
2. 2</w>
一点 点</w>
A M
求 职</w>
合 理
强 国</w>
迈 出</w>
南京 市</w>
比 分</w>
厅 长</w>
十 二</w>
苦 难</w>
胞 胎</w>
临 时
en t</w>
成千 上万</w>
打 印</w>
没 能</w>
巨 大
叔 叔</w>
高 点</w>
兑 现</w>
越来 越
大 运会</w>
贪 污</w>
特 意</w>
输 送</w>
布隆 迪</w>
马 路</w>
澳 门
天 地</w>
侧 面</w>
采取 行动</w>
海 事</w>
点 燃</w>
周 边
加勒 比</w>
撰 写</w>
与 会</w>
莎 白</w>
看 不见</w>
乌鲁木 齐</w>
地 毯</w>
萨 科
数 学
想 不到</w>
摩 擦</w>
摄 入</w>
底 下</w>
肉 类</w>
r y</w>
会计 师</w>
起 初</w>
所 知</w>
辆 车</w>
基准 利率</w>
国 政府</w>
言 之</w>
湖 南
戒 指</w>
养 成</w>
支 付
电 气</w>
人 性</w>
婚 纱</w>
为 民</w>
难 者</w>
辩 护</w>
拉 开</w>
冷 战</w>
不 成</w>
脑 袋</w>
温 室</w>
测 试
延 安</w>
著 作</w>
无 意</w>
原 子</w>
京 东</w>
文 艺</w>
总 计</w>
医 保</w>
三 人</w>
一 瓶</w>
求 助</w>
屋 里</w>
术 语</w>
流 向</w>
无线 电</w>
招 呼</w>
全 场</w>
注 目</w>
听 众</w>
盈 率</w>
摄影 师</w>
联 保</w>
以 为
市 盈率</w>
传 销</w>
无 辜</w>
准 确
此 基础</w>
章 程</w>
en t
近 几
汶 川</w>
开 来</w>
四 分之一</w>
载 人</w>
尔 特</w>
制 服</w>
空间 站</w>
屠 杀</w>
同 类</w>
尔 顿</w>
打 死</w>
县 长</w>
管理 员</w>
恰 恰</w>
平均 水平</w>
每 一</w>
棉 花</w>
封 锁</w>
无 比</w>
屋 子</w>
在 一起</w>
语 言
计 量</w>
一个 个</w>
建立 健全</w>
短 时间</w>
不 通</w>
渗 透</w>
立 体</w>
此 刻</w>
婆 婆</w>
上 空</w>
a y
售 票</w>
第四 次</w>
箱 子</w>
现 已</w>
主 导
出 血</w>
一 幕</w>
禁 令</w>
潜 艇</w>
从业 人员</w>
现 时</w>
影 子</w>
菲 特</w>
公 办</w>
合 同
下 文</w>
详 细
罗 拉</w>
往 返</w>
罢 工</w>
农 田</w>
雕 塑</w>
中 介
销 毁</w>
欧 债</w>
几 率</w>
写 字
主 教练</w>
接 连</w>
导 师</w>
人 能</w>
阵 容</w>
惊 奇</w>
国 主义</w>
离 不开</w>
小 品</w>
身 着</w>
称 作</w>
县 城</w>
深 远</w>
自 首</w>
数 以
变 换</w>
发展 趋势</w>
联 动</w>
旅游 局</w>
领导 小组</w>
会 面</w>
不 着</w>
高 峰
培训 班</w>
0. 2</w>
跑 车</w>
选 定</w>
在 职</w>
李 先生</w>
次 级</w>
佛 罗
交 叉</w>
阁 下</w>
那 次</w>
氏 度</w>
全 家</w>
比 起</w>
延 期</w>
谅 解</w>
海洋 局</w>
王 某</w>
发 酵</w>
冷 却</w>
商 定</w>
信 誉</w>
草 地</w>
征 求</w>
娃 娃</w>
发 型</w>
海 湾</w>
全 系</w>
介 石</w>
天 生</w>
记 忆
个 性化</w>
8 0
电 动
布 什
没 错</w>
这 辆</w>
它 会</w>
台 阶</w>
财政 收入</w>
天 宫</w>
反 倾
减 免</w>
武 警</w>
法 令</w>
3 5
诚 意</w>
榜 样</w>
万 亿美元</w>
调 用</w>
中 全会</w>
菜 单</w>
进 球</w>
站 点</w>
下 挫</w>
人才 培养</w>
o p
西 藏
富 人</w>
争 吵</w>
2 9.
拿 下</w>
野生 动物</w>
讲 究</w>
紧 迫</w>
异 性</w>
空 前</w>
蒋 介石</w>
执法 人员</w>
招 商</w>
国家 机关</w>
物价 上涨</w>
增 加
严 禁</w>
塞 族</w>
品 牌
还 款</w>
下 乡</w>
满意 度</w>
酸 盐</w>
经济 效益</w>
交 货</w>
不 大</w>
风 波</w>
坚 持
不 怕</w>
谈 及</w>
测 器</w>
行 事</w>
回 合</w>
亨 利</w>
黑龙 江省</w>
观 者</w>
优 先
0. 1</w>
斯 基</w>
我 市</w>
净 化</w>
做 过</w>
198 5</w>
宣 判</w>
艰 巨</w>
面 貌</w>
摆 在</w>
对 照</w>
全国 性</w>
久 性</w>
概 括</w>
担 当</w>
几 周</w>
例 行</w>
风 情</w>
抽 烟</w>
没 事</w>
小 企业</w>
妇 人</w>
转 身</w>
DV D</w>
盆 地</w>
增 持</w>
全 线</w>
一 夜</w>
医疗 保险</w>
水 准</w>
周 岁</w>
政治 家</w>
再 见</w>
经济 损失</w>
民 国</w>
国家 标准</w>
全 区</w>
不 难</w>
调查 结果</w>
该 行</w>
填 补</w>
长 安</w>
避 开</w>
飞 往</w>
不 足
当地 政府</w>
五 一</w>
一 首</w>
证券 公司</w>
筛 选</w>
一 切
指 向</w>
土 著
外 线</w>
唱 片</w>
C D</w>
辽宁 省</w>
身 影</w>
u s</w>
- --</w>
评 委</w>
原则 上</w>
减 缓</w>
决 不</w>
感 恩</w>
排 列</w>
拉 丹</w>
肇 事</w>
简 洁</w>
不同 于</w>
万 多</w>
最 美</w>
阿尔 及
伊 丽
置 换</w>
组 长</w>
零售 商</w>
工 资
小 孩子</w>
几 名</w>
价 比</w>
征 地</w>
再 现</w>
充 电</w>
问 及</w>
198 6</w>
自 制</w>
现 阶段</w>
灵 活性</w>
多 大</w>
中国 移动</w>
彰 显</w>
已 于</w>
u b
海 报</w>
有 机
外交 部长</w>
世 上</w>
2 7.
解 答</w>
收 拾</w>
投 票
大 方</w>
一 家人</w>
R e
行政 处罚</w>
维 奇</w>
感 慨</w>
枢 纽</w>
香 蕉</w>
支付 宝</w>
观 光</w>
希 尔</w>
1 70</w>
船 员</w>
七 月</w>
八 个</w>
发 光</w>
兼 职</w>
住 所</w>
举 报
er s</w>
强 行</w>
衔 接</w>
擅 长</w>
快 捷</w>
全 体
起 码</w>
纺 织</w>
匆 匆</w>
托 管</w>
两 侧</w>
M P
誉 为</w>
行 为
6. 5</w>
阵 营</w>
安全 隐患</w>
0. 3</w>
闲 置</w>
时 髦</w>
描 绘</w>
违 规
空气 质量</w>
这 片</w>
扩 建</w>
中 将</w>
L e
诉 讼
梅 德
环球 网</w>
r a
C A
落 地</w>
人 间</w>
极 限</w>
伊丽 莎白</w>
拜 访</w>
管理 制度</w>
珠 海</w>
星期 二</w>
政府 军</w>
先 是</w>
薄 弱</w>
不 足以</w>
换 成</w>
彩 色</w>
巴 拉克</w>
发展 观</w>
兼 顾</w>
不 乏</w>
规 避</w>
帐 篷</w>
州 长</w>
声 誉</w>
试 验
吉 利</w>
年 限</w>
天 性</w>
适 时</w>
羡 慕</w>
坚 信</w>
地 段</w>
防 守</w>
养 殖
衰 老</w>
台 上</w>
取 出</w>
保 姆</w>
一 新</w>
一 封</w>
拉 萨</w>
刘 某</w>
纠 结</w>
多 云</w>
副 本</w>
进 城</w>
暂 行
影 院</w>
布 拉
表 述</w>
生物 学</w>
水 源</w>
契 机</w>
图 形</w>
历 时</w>
网 游</w>
收 受</w>
讨论 会</w>
性 价比</w>
也 好</w>
世 锦赛</w>
梅德 韦</w>
互 联
成 品</w>
亚 马
众 议院</w>
微 型</w>
疫 情</w>
参 议员</w>
原 文</w>
生 源</w>
摄 氏度</w>
毒 素</w>
尔 森</w>
分 摊</w>
浙 江
法 兰
商 量</w>
伙 人</w>
等 国</w>
东 航</w>
逐 年</w>
万 台</w>
中央 政治
降 落</w>
相 比
二 季度</w>
用 语</w>
甘肃 省</w>
慰 问</w>
不 容</w>
不 好
陪 伴</w>
九 年</w>
首 歌</w>
提 出
扭 曲</w>
贵 方</w>
视 线</w>
瓦 斯</w>
感 叹</w>
党 政
电话 号码</w>
教 徒</w>
分 工</w>
体 积</w>
半 场</w>
尤 为</w>
出 炉</w>
一般 性</w>
福 利
白 菜</w>
沃尔 沃</w>
数 年</w>
前 任</w>
陆 地</w>
掩 盖</w>
带 上</w>
一 审</w>
身体 健康</w>
报 案</w>
后 勤</w>
不 必要</w>
万 亿</w>
馒 头</w>
公 立
传 送</w>
乐 园</w>
写 下</w>
干 细胞</w>
i p
号 召</w>
警 车</w>
网 易</w>
监 禁</w>
村 官</w>
巴 士</w>
信 件</w>
一 会</w>
透 社</w>
消 毒</w>
快 讯</w>
九 月</w>
生态 系统</w>
六 个月</w>
之 道</w>
警 察
车 道</w>
经济 区</w>
前 天</w>
意 料</w>
七 个</w>
管 如此</w>
尽 管如此</w>
外 商
华 裔</w>
刚 性</w>
以 致</w>
温 泉</w>
有效 期</w>
大 火</w>
巴 菲特</w>
法 则</w>
饮 用</w>
贵 族</w>
植 物
充 当</w>
专门 机构</w>
能 耗</w>
党 的
路 透社</w>
孤 儿</w>
拖 欠</w>
华 北</w>
一 致
元 首</w>
试 行</w>
停 下来</w>
开 局</w>
小 时候</w>
以 人
字 样</w>
剧 组</w>
非 凡</w>
充 实</w>
第三 季度</w>
排 量</w>
太 高</w>
助 手</w>
美 方</w>
精 美</w>
官方 网站</w>
位 数</w>
T C</w>
美 味</w>
焊 接</w>
契 约</w>
动 力学</w>
储 量</w>
领导 班子</w>
看 重</w>
火 电</w>
骚 扰</w>
跨 境</w>
爱 国</w>
出 路</w>
推 测</w>
山 上</w>
一 无
it y</w>
老 化</w>
杆 菌</w>
服 从</w>
创造 性</w>
平 凡</w>
商 户</w>
凝 聚</w>
说 明书</w>
iPhon e
至 此</w>
发 射
危 及</w>
十 月</w>
凤 凰</w>
这 边</w>
橄 榄
宴 会</w>
坦 克</w>
逐 步
供 需</w>
注 视</w>
心理 学</w>
原 创</w>
o g
枪 支</w>
利 亚
两岸 关系</w>
高 血压</w>
法 定
跳 水</w>
留 守</w>
楼 宇</w>
天 赋</w>
天 上</w>
光明 日报</w>
突 发</w>
审 美</w>
2 2
马 拉</w>
流 出</w>
小 偷</w>
实 业</w>
动 力
隐 瞒</w>
金融 服务</w>
香港 特别行政区</w>
出 自</w>
中 止</w>
客 服</w>
县 委</w>
198 7</w>
非 线性</w>
翅 膀</w>
重 重</w>
药 业</w>
基督 教</w>
同 年</w>
出 演</w>
跨国 公司</w>
胀 率</w>
小 于</w>
s h
食用 油</w>
预 先</w>
批 次</w>
中 美
跟 进</w>
a k
肩 膀</w>
倒 闭</w>
星期 天</w>
据 此</w>
悠 久</w>
总 队</w>
出 局</w>
顺 差</w>
长 得</w>
睡 着</w>
相 连</w>
简 介</w>
理 事</w>
政 协
同 性
赛 场</w>
裙 子</w>
略 有</w>
三 峡</w>
解 救</w>
失 衡</w>
退 休
被 害人</w>
弱 势</w>
供应 链</w>
f f
遗 传
相 关
上 传</w>
转 为</w>
老 虎</w>
干 脆</w>
富 翁</w>
向 下</w>
荣 耀</w>
易 于</w>
全 局</w>
伦 理</w>
献 血</w>
地 向</w>
植 入</w>
先 锋</w>
顺 利
威 尔</w>
麦 克</w>
更 能</w>
大 跌</w>
制 药</w>
头 痛</w>
率 领</w>
抓 紧</w>
剧 烈</w>
风 光</w>
大 局</w>
畅 通</w>
匈 牙
趋 于</w>
国防 部长</w>
产 资源</w>
荣 幸</w>
第 六</w>
游 戏
旺 盛</w>
导 游</w>
一 千
宽 容</w>
2. 8</w>
角 落</w>
电 缆</w>
无 聊</w>
中 山
此 间</w>
黑 客</w>
暴 利</w>
挽 救</w>
严 肃
一般 来说</w>
哈 萨
债 权人</w>
邮 报</w>
坚 守</w>
卫生 局</w>
诠 释</w>
盒 子</w>
常 识</w>
接 纳</w>
颗粒 物</w>
召 集</w>
去 除</w>
与 否</w>
绿 色
热 心</w>
以人 为本</w>
收 入
得 起</w>
留 意</w>
特 区政府</w>
旗 帜</w>
妥 善
开 庭</w>
投资 人</w>
环 球</w>
体 质</w>
in e</w>
语 法</w>
缓 和</w>
户 外</w>
器 材</w>
一 到</w>
自 有</w>
冷 空气</w>
试 试</w>
批 发</w>
合作 社</w>
进 一步
进一步 提高</w>
相 对
查 找</w>
晓 松</w>
日 趋</w>
出 场</w>
多 克</w>
疏 散</w>
二手 车</w>
高 清</w>
名 制</w>
黎 明</w>
院 子</w>
去 过</w>
信 赖</w>
实 名制</w>
警 官</w>
加利 福
轰 炸</w>
单 价</w>
联邦 政府</w>
搜 救</w>
挣 扎</w>
过 滤</w>
方 向
差 价</w>
前 不久</w>
中 海
多 彩</w>
圣 经</w>
光 荣</w>
还 原</w>
裤 子</w>
缔 结</w>
早 报</w>
内 战</w>
负 债
缺 席</w>
墓 地</w>
矿 产资源</w>
2 1.
法制 日报</w>
ww w</w>
3 80</w>
这 批</w>
谎 言</w>
星 球</w>
光 辉</w>
中 秋
灌 溉</w>
慷 慨</w>
招 收</w>
第二 届</w>
秘书 处</w>
宽 带</w>
搜 集</w>
助 者</w>
加 紧</w>
出 差</w>
C D
轴 距</w>
极 具</w>
果 汁</w>
骨 头</w>
殴 打</w>
姿 势</w>
下 一代</w>
预 示</w>
相 差</w>
胳 膊</w>
找 个</w>
好 消息</w>
活 动
支 部</w>
心 思</w>
发 病</w>
务 工
锦 湖</w>
严格 执行</w>
种族 歧视</w>
反 射</w>
之 初</w>
税 法</w>
报 刊</w>
崭 新</w>
a t</w>
病 房</w>
灿 烂</w>
主 题
涡 轮</w>
查 出</w>
敢 于</w>
伊斯 兰
狭 窄</w>
宇航 员</w>
目 睹</w>
二 者</w>
高 额</w>
醒 来</w>
协调 员</w>
i c</w>
特 尔</w>
陆 军</w>
给 力</w>
繁 殖</w>
水 下</w>
休 假</w>
核 算</w>
介 意</w>
各 家</w>
主办 方</w>
第四 季度</w>
普通 人</w>
日 均</w>
外 科</w>
乘 车</w>
盗 版</w>
0. 4</w>
行 贿</w>
交 警
8. 5</w>
现 货</w>
封 面</w>
孙 子</w>
柔 软</w>
乒 乓
i l</w>
十 字</w>
冰 岛</w>
入 手</w>
考 场</w>
分之 二</w>
中 长期</w>
新 社</w>
ar t
规 模
合 伙人</w>
相 亲</w>
时 尚
会 场</w>
麦 当
大 风</w>
解 雇</w>
意 味</w>
轨 道
评 定</w>
蜂 蜜</w>
股 份
各 省</w>
偏 见</w>
伯 格</w>
贩 卖</w>
消 化
聘 用</w>
部 长
这 本</w>
瘫 痪</w>
多 余</w>
腐 蚀</w>
德 拉</w>
达 成
丧 生</w>
公 诉</w>
全 额</w>
落 户</w>
报 销</w>
T w
重 心</w>
掌 声</w>
不 远</w>
城镇 化</w>
数 月</w>
凭 证</w>
责任 人</w>
远 镜</w>
笔 试</w>
秋 冬</w>
插 入</w>
从 没</w>
需 求
试 着</w>
保证 金</w>
星期 四</w>
个人 资料</w>
雷 曼</w>
斯 顿</w>
选 票</w>
诊 所</w>
渤 海</w>
望 远镜</w>
国土资源 部</w>
启 示</w>
上 任</w>
摩托 罗拉</w>
揭 开</w>
坚 定
预 言</w>
面 包
事 迹</w>
香 烟</w>
婚 后</w>
抗 生素</w>
悲 观</w>
外 国
火 焰</w>
旅 程</w>
小 事</w>
几 何</w>
演 练</w>
合 力</w>
饮 用水</w>
直 径</w>
半 数</w>
配 额</w>
牧 民</w>
黄金 周</w>
误 导</w>
沙 特</w>
样 式</w>
南 极</w>
泊 尔</w>
巨 人</w>
之 情</w>
繁 忙</w>
树 脂</w>
骚 乱</w>
绝 大部分</w>
墙 壁</w>
捐 献</w>
护 人</w>
el l
管理 系统</w>
停 牌</w>
衣 物</w>
海 峡
机 型</w>
招 待
第六 十
废 弃</w>
外商 投资</w>
种族 主义</w>
得 多</w>
午 饭</w>
玩 耍</w>
巧 妙</w>
厚 度</w>
198 4</w>
市 政</w>
上 周五</w>
相比 之下</w>
置 于</w>
e y</w>
普遍 认为</w>
新 版</w>
动 手</w>
有 制</w>
夜 里</w>
队 友</w>
兔 子</w>
副 会长</w>
亚太 地区</w>
下 台</w>
研究 成果</w>
水 道</w>
水 稻</w>
密 封</w>
恶 性
弯 曲</w>
流 浪</w>
深 夜</w>
每 位</w>
起 义</w>
整 体
I C
这 话</w>
星 星</w>
崇 拜</w>
张 某</w>
犹太 人</w>
西 北
无人 机</w>
为 准</w>
职 人员</w>
外 语</w>
公共 卫生</w>
区域 性</w>
二 年</w>
19 49</w>
增 压</w>
A C</w>
服 装
o d
日 程</w>
写字 楼</w>
某种 程度</w>
尺 度</w>
离 去</w>
公 信
上 车</w>
问 候</w>
年 会</w>
专 卖
醉 酒</w>
念 头</w>
前 列</w>
一大 批</w>
热 水器</w>
完 工</w>
亚马 逊</w>
看 病</w>
瑞 拉</w>
永 不</w>
奥林匹 克</w>
达成 协议</w>
矿 山</w>
男 女
少 年
出 动</w>
三 项</w>
3 9
组 委会</w>
土著 人</w>
震 撼</w>
震 动</w>
废 除</w>
不 论
小 小</w>
倘 若</w>
双 边
闻 名</w>
高 昂</w>
表 彰</w>
急 于</w>
强制 性</w>
音 机</w>
过 期</w>
搜 索
参 选</w>
入 围</w>
面 向
直 线</w>
不 动
谋 杀</w>
前 方</w>
外 贸</w>
发 了</w>
卖 掉</w>
10 0
英 文
约 束
容 纳</w>
着 急</w>
一 时间</w>
酝 酿</w>
阿 姨</w>
贯 穿</w>
星期 三</w>
天文 台</w>
小 型
域 名</w>
抚 养</w>
名 牌</w>
十 个</w>
不在 乎</w>
h t
揭 秘</w>
忠 实</w>
阿尔及 利亚</w>
复 议</w>
前 一天</w>
腹 部</w>
光 学</w>
青 海
迪 瓦</w>
一 分钟</w>
美 妙</w>
三 成</w>
生 存
促 进
安 保</w>
移 徙</w>
打 着</w>
构成 犯罪</w>
士 学位</w>
i t</w>
R A
烹 饪</w>
示威 者</w>
爵 士</w>
强 硬</w>
前 日</w>
主 观</w>
销售 量</w>
这 使</w>
卡 拉</w>
职 场</w>
写 信</w>
值得 一
M T</w>
钱 江
海 尔</w>
崇 高</w>
居 室</w>
追 问</w>
城 县</w>
宁 静</w>
M ic
马 尔
适 应
萨科 齐</w>
次 日</w>
二 代</w>
本 赛季</w>
常 年</w>
造 就</w>
视 力</w>
税 费</w>
委 内
规划 署</w>
开发 者</w>
克 逊</w>
发布 公告</w>
at ion</w>
致 力</w>
港 币</w>
基 因
民 营企业</w>
朝阳 区</w>
内 需</w>
违法 犯罪</w>
期 盼</w>
强 烈
商 铺</w>
东 道
查 尔斯</w>
夺 冠</w>
第二 轮</w>
讽 刺</w>
瞄 准</w>
浓 厚</w>
阻 力</w>
另 据</w>
键 盘</w>
过 得</w>
彩 票</w>
突 发
农 历</w>
中共 中央</w>
2. 6</w>
笔记 本</w>
减 小</w>
茶 叶</w>
着 陆</w>
匈牙 利</w>
中海 油</w>
风 力</w>
招 募</w>
预 料</w>
昆 虫</w>
20 14</w>
约 旦</w>
197 8</w>
毛 病</w>
专 案
W e
T C
反 响</w>
预 见</w>
多 媒体</w>
坚 实</w>
吩 咐</w>
严 厉
三 分之二</w>
钱 包</w>
小 鸟</w>
奇 瑞</w>
饮 酒</w>
效 能</w>
地 中海</w>
上 将</w>
暑 期</w>
家 电
证券 时报</w>
眼 神</w>
C N
鲁 迅</w>
正 当
教科 文
B S</w>
钱江 晚报</w>
房地 产业</w>
房 屋
3 6
利 斯</w>
网 上
精 华</w>
本 级</w>
保 管</w>
科 特
活 泼</w>
抓 捕</w>
密切 相关</w>
历 经</w>
质 素</w>
秘 鲁</w>
最 受</w>
建 部</w>
依法 追究</w>
万 公里</w>
更 要</w>
悄 悄</w>
9 000</w>
迟 迟</w>
订 立</w>
月 末</w>
缩 减</w>
中 秋</w>
中 东
僵 局</w>
教 师
持续 性</w>
四 季度</w>
中 日</w>
火 炬</w>
医 学院</w>
粮 液</w>
标 致</w>
旧 金山</w>
发生 变化</w>
军 备</w>
农 作物</w>
u m
情 愿</w>
美术 馆</w>
挫 折</w>
人员 伤亡</w>
上 证
迈 克</w>
商 贸</w>
低 估</w>
破 坏
税 款</w>
华 夏</w>
加 价</w>
面 子</w>
定 量</w>
借 此</w>
追 逐</w>
引人 注目</w>
足 联</w>
阳 县</w>
航 运</w>
术 后</w>
最低 工资</w>
开 枪</w>
里 程</w>
标 志
昔 日</w>
龄 化</w>
概 述</w>
强 力</w>
囚 犯</w>
一 丝</w>
3. 2</w>
合 影</w>
不 服</w>
万 一</w>
美 元
广播 网</w>
巴 布
国 别</w>
客户 端</w>
喜 剧</w>
裂 缝</w>
理 智</w>
团 长</w>
原 定</w>
为 首</w>
广 汽</w>
3 7
解 散</w>
毒 性</w>
新 疆
深 厚</w>
体 操</w>
掌 控</w>
年 度
勉 强</w>
间 谍</w>
账 号</w>
拓 宽</w>
总 统
科学 研究</w>
泛 滥</w>
收 盘
刹 车</w>
防 汛</w>
者 说</w>
门 诊</w>
色 素</w>
注 明</w>
征 点</w>
大 笑</w>
一 点儿</w>
起 征点</w>
维 修
真 空</w>
全 力
时 会</w>
并 处</w>
秒 钟</w>
等 奖</w>
搭 档</w>
兔 年</w>
承 载</w>
右 手</w>
反 抗</w>
运 河</w>
让 步</w>
到 场</w>
内 存</w>
礼 包</w>
物 理
委内 瑞拉</w>
商 学院</w>
公共 场所</w>
收费 站</w>
抵 御</w>
装 箱</w>
经 常
海 淀
拉 圭</w>
家 用</w>
通 车</w>
致 富</w>
生 殖</w>
扰 乱</w>
听 力</w>
不 锈
款 人</w>
2. 7</w>
雨 量</w>
或 者说</w>
国 旗</w>
里 程
滞 留</w>
官 司</w>
国家 海洋局</w>
18 00</w>
全国 人大</w>
山 东
赞 美</w>
讲 解</w>
异 地</w>
实 话</w>
难 点</w>
连 续
可 观</w>
3 4
香 水</w>
锦 标
托 人</w>
占 有
豁 免</w>
一 出</w>
乌 干
市场 竞争</w>
嘴 唇</w>
各 有</w>
续 费</w>
思 议</w>
at ion
西 南
胸 部</w>
警 报</w>
界 限</w>
急 救</w>
间 隔</w>
科特 迪瓦</w>
多 多</w>
卖 淫</w>
杠 杆</w>
定 居</w>
默 多克</w>
时 代
自 发</w>
卖 方</w>
锦标 赛</w>
核 定</w>
杭 州市</w>
日 摄</w>
工作 室</w>
专案 组</w>
显 而易
退 还</w>
显而易 见</w>
建 材</w>
目 击者</w>
投 行</w>
买 方</w>
列 举</w>
信 访</w>
难 忘</w>
财 力</w>
谈 起</w>
代 言</w>
彩 电</w>
乌干 达</w>
轨道 交通</w>
泳 池</w>
总 公司</w>
可 疑</w>
中 院</w>
资本 主义</w>
窃 听</w>
双 汇
不可 思议</w>
谘 询</w>
日 内</w>
年 薪</w>
工程 处</w>
国际 金融
争 执</w>
违 纪</w>
第一 条</w>
男 朋友</w>
富 含</w>
山 寨</w>
初 级</w>
患 上</w>
恐怖 分子</w>
金 砖</w>
晋 级</w>
轮 廓</w>
伙 伴
今天 上午</w>
车 位</w>
威 尔
利润 率</w>
租 用</w>
手 套</w>
感 性</w>
管理 中心</w>
滑 坡</w>
我 爱
国 航</w>
期 满</w>
主 帅</w>
色 情</w>
婴 幼儿</w>
大 牌</w>
潜 规则</w>
为 人
矿 物</w>
清 算</w>
民 生
情 节
央 票</w>
反 正</w>
牵 头</w>
火 锅</w>
抬 头</w>
惠 民</w>
下 令</w>
用 药</w>
标 注</w>
力 求</w>
g e</w>
198 2</w>
廉 洁</w>
来 回</w>
归 还</w>
民 办
电 磁
收 藏
摄像 头</w>
句 话</w>
免 除</w>
牢 固</w>
梳 理</w>
护 航</w>
固 然</w>
C C
悄 然</w>
定 为</w>
职业 生涯</w>
良 心</w>
比 克</w>
已 久</w>
天 后</w>
一 经</w>
曼 谷</w>
摩 西</w>
以 防</w>
过 量</w>
一 员</w>
白 俄罗斯</w>
电动 汽车</w>
依 次</w>
领导 者</w>
征 服</w>
暴 力
好 几个</w>
奥斯 卡</w>
一 口气</w>
民 政</w>
偏 低</w>
信 部</w>
地 人</w>
余 人</w>
衍 生</w>
10 5</w>
说 来</w>
深 信</w>
试 点
吉 姆</w>
卡 塔尔</w>
W T
青 年
雷 斯</w>
市 级</w>
公益 性</w>
词 语</w>
决 定性</w>
何 况</w>
申 购</w>
动 感</w>
分 流</w>
投 向</w>
0. 8</w>
义 勇
3. 3</w>
幕 后</w>
规范 化</w>
法 例</w>
养 护</w>
西 瓜</w>
埃 塞
A m
饰 品</w>
案 发
干 活</w>
工作 日</w>
餐 饮
直 言</w>
探 测器</w>
跑 步</w>
片 中</w>
中 信
餐 桌</w>
拼 命</w>
导 体</w>
大会 常务委员会</w>
人民代表 大会常务委员会</w>
火 车票</w>
大 涨</w>
产 阶级</w>
疑 似</w>
指 着</w>
生产 者</w>
糖 果</w>
境 界</w>
中国 银行</w>
I S
总 收入</w>
系 列
新 任</w>
占 地</w>
五 粮液</w>
纳 米</w>
第二 章</w>
夫 妻
中 欧</w>
银行 家</w>
无 锡</w>
得 益于</w>
油 耗</w>
防 空</w>
固定 资产</w>
阵 地</w>
斯 洛
广播 公司</w>
部 份</w>
敌 对</w>
加 固</w>
迫 切
激 活</w>
方 便
卷 入</w>
粮 农
粮农 组织</w>
控制 器</w>
嫌 疑</w>
回 头</w>
城 堡</w>
对外 开放</w>
地下 水</w>
复杂 性</w>
品 尝</w>
珠 三角</w>
对外 贸易</w>
引 渡</w>
大 雾</w>
大 部</w>
固 醇</w>
世 贸
布什 总统</w>
估 价</w>
这 台</w>
U n
用 心</w>
米 尔</w>
牛 仔
公信 力</w>
重庆 晚报</w>
牌 子</w>
流 通
带 头</w>
轨 迹</w>
射 线</w>
数字 化</w>
变速 器</w>
重 伤</w>
地 步</w>
饮 水</w>
大 灯</w>
紫 色</w>
凯 恩</w>
邪 恶</w>
两 点</w>
专业 化</w>
不 吃</w>
挤 压</w>
大 为</w>
加 利亚</w>
手 续费</w>
总 有</w>
净 值</w>
住 宅
世 博会</w>
并 用</w>
世 园</w>
3 5.
本 署</w>
华 为</w>
猛 烈</w>
录 用</w>
红 酒</w>
大 熊猫</w>
判 定</w>
索 取</w>
凤 凰
陈 水
亲 友</w>
不 及
配 送</w>
新 鲜
值 班</w>
麻 醉
虚 拟
评 为</w>
招 聘
浪 潮</w>
杀 手</w>
好 评</w>
e p
专卖 店</w>
er s
阿 布
过 时</w>
网络 游戏</w>
细 分</w>
检 索</w>
格 林</w>
简 短</w>
操 控</w>
环境 污染</w>
港 澳</w>
帷 幕</w>
好 吃</w>
售 出</w>
条 文</w>
疲 软</w>
光 标</w>
过 大</w>
妇 女
女 童</w>
发 明
水 管</w>
教科文 组织</w>
3 8
称 呼</w>
杀 人
搜索 引擎</w>
套 餐</w>
外 围</w>
公 爵</w>
经济 危机</w>
陈水 扁</w>
过 敏</w>
救 人</w>
天 内</w>
网 址</w>
海 拔</w>
创造 力</w>
不锈 钢</w>
C or
雅 典</w>
演 说</w>
属 实</w>
中秋 节</w>
著作 权</w>
哭 泣</w>
蒙 古
经 由</w>
政 法
放 开</w>
分 钱</w>
走 低</w>
心 目</w>
古 典</w>
高 晓松</w>
大 衣</w>
听 证</w>
进 出</w>
南 市</w>
元 旦</w>
俄 罗斯
通 风</w>
股东 大会</w>
特 价</w>
内 向</w>
谢 您</w>
禽 流感</w>
多 处</w>
残 忍</w>
尼亚 州</w>
变 化
首 尔</w>
y n
当地 人</w>
东 南部</w>
感 染
店 主</w>
临 床
硬 币</w>
知名 度</w>
杰 克逊</w>
承包 商</w>
专业 人士</w>
这 段</w>
几 点</w>
产 妇</w>
家 务</w>
厨 师</w>
严 密</w>
所 能</w>
与 众
游 览</w>
涌 入</w>
棕 色</w>
单 个</w>
王 室</w>
沿 线</w>
同 伴</w>
采 矿</w>
弗 兰
公务 用车</w>
国务 卿</w>
双 胞胎</w>
代表 大会</w>
良 好
战 线</w>
副 省长</w>
保 加利亚</w>
饱 和</w>
违规 行为</w>
照 料</w>
时装 周</w>
始 终
前 行</w>
准 时</w>
时 任</w>
司法 机关</w>
催 化剂</w>
银行 贷款</w>
除 去</w>
宁 市</w>
传 真</w>
高 层次</w>
被 誉为</w>
最高 人民法院</w>
逼 近</w>
批发 市场</w>
字 典</w>
与众 不同</w>
最 大
日 志</w>
保 卫</w>
0. 6</w>
公 款</w>
A r
波 音</w>
刷 新</w>
财 产
防 卫</w>
网 吧</w>
班 加
排 斥</w>
居 高
互 信</w>
书 画</w>
一 小
重 启</w>
民 办</w>
段 性</w>
大中 城市</w>
公安 厅</w>
与会 者</w>
戏 剧
失 效</w>
依赖 于</w>
楼 房</w>
5 5
退 货</w>
嘴 里</w>
an k</w>
拟 议</w>
来 访</w>
贩 运</w>
没 人</w>
分 辨
辛 格</w>
舰 队</w>
参 加
适用 房</w>
工 信部</w>
廉 租</w>
女 足</w>
在 意</w>
发 作</w>
酒 后</w>
务工 人员</w>
让 人</w>
棚 户
棚户 区</w>
政策 措施</w>
化 妆</w>
登 场</w>
成 像</w>
踏 上</w>
西 装</w>
参 保</w>
位 列</w>
挣 钱</w>
妥 善</w>
16 00</w>
失 控</w>
发 挥
被 盗</w>
分 担</w>
六 大</w>
篮 子</w>
莫 桑
破 获</w>
法律 责任</w>
魔 术</w>
速 率</w>
下 方</w>
理工 大学</w>
I B
格 达</w>
纺织 品</w>
施 加</w>
或 缺</w>
合 众
革 新</w>
相 识</w>
it ter</w>
10 1</w>
所 涉</w>
标 的</w>
忍 不住</w>
本 科
受 过</w>
民 间
我爱 你</w>
E T
联合 王国</w>
提 的是</w>
值得一 提的是</w>
莫桑 比克</w>
案 子</w>
航天 飞机</w>
废 水</w>
峰 值</w>
低 保</w>
森 林
不 管
见 义勇
大 有</w>
合 伙</w>
可 口
二 期</w>
援 助
存 货</w>
伙伴 关系</w>
用 力</w>
I P</w>
脚 下</w>
关 门</w>
3 500</w>
买 下</w>
通讯 社</w>
毛 主席</w>
接 入</w>
放射 性
助 学</w>
表 现
萨 利
国 产
报 社</w>
寂 寞</w>
刚 好</w>
3. 6</w>
高等 学校</w>
社 科院</w>
渔 民</w>
人 际
交 道</w>
中 标</w>
路 交通</w>
电影 院</w>
水 晶</w>
薄 膜</w>
泰 勒</w>
双 双</w>
县 政府</w>
花 朵</w>
浦 路
塞 浦路
减 税</w>
保 湿</w>
肝 脏</w>
腕 表</w>
村 子</w>
国 内
编 列</w>
破 发</w>
波 特</w>
概念 车</w>
平 原</w>
同性 恋</w>
一 举</w>
调查 组</w>
守 则</w>
堵 塞</w>
刊 物</w>
绿 地</w>
殖民 地</w>
因 涉嫌</w>
亿 股</w>
3 4.
墨西 哥
受 害</w>
笔记 本
次 于</w>
倡 廉</w>
笔记本 电脑</w>
2. 1</w>
调查 报告</w>
第三 章</w>
盎 司</w>
扶 贫
大 幅
伊 尔</w>
高 低</w>
排 出</w>
场 馆</w>
热 水</w>
必 然
名 片</w>
千 万
招 商
P D
阐 明</w>
适 量</w>
该 片</w>
始 于</w>
骨 干</w>
阶 段性</w>
可 不</w>
发 誓</w>
二 线</w>
采 纳</w>
演 示</w>
介 质</w>
该 案</w>
逾 期</w>
海 里</w>
歌 唱</w>
徘 徊</w>
当 做</w>
客 场</w>
地 为</w>
路 易
网 店</w>
模 样</w>
微 小</w>
二 战</w>
面 粉</w>
第二 季度</w>
美 德</w>
党 员
罗马 尼亚</w>
洗 澡</w>
人 质</w>
一 栋</w>
礼 仪</w>
全 过程</w>
合众 国</w>
双 语</w>
进 驻</w>
脉 冲</w>
中央 电视台</w>
骗 子</w>
并 于</w>
尽 量
可 不是</w>
茅 台
剧 中</w>
P S
豆 浆</w>
检 方</w>
审 讯</w>
草 根</w>
肤 色</w>
倒 塌</w>
五 十
不可 或缺</w>
比 前</w>
大 兴</w>
丰 厚</w>
一 堆</w>
C T</w>
时 至</w>
2 20</w>
烈 士</w>
太 过</w>
197 9</w>
驻 地</w>
膝 盖</w>
年 龄
阻 挡</w>
销售 收入</w>
突发 事件</w>
来 得</w>
原油 价格</w>
早 前</w>
这 支</w>
过 境</w>
微博 中</w>
面 对面</w>
毫 升</w>
旋 律</w>
首 度</w>
遇 难者</w>
名 下</w>
集 资</w>
去 年底</w>
金 价</w>
蜡 烛</w>
学 子</w>
装 有</w>
营 收</w>
工商 部门</w>
逝 世</w>
审 视</w>
粽 子</w>
基 点</w>
代 人</w>
突 破
束 缚</w>
魔 法</w>
这 时候</w>
已 成</w>
顶 部</w>
新 品</w>
子 怡</w>
复 古</w>
和 浩
初 始</w>
内 部
专 题
短 语</w>
放 进</w>
尼 迪</w>
尔 多
受 审</w>
成 都市</w>
限 量</w>
身 子</w>
本 能</w>
体育 馆</w>
理 查
开 头</w>
反 腐</w>
维 和</w>
正 常
正 值</w>
悉 尼</w>
品 位</w>
交通 工具</w>
禁 区</w>
民 调</w>
接 待
广泛 应用</w>
呼 和浩
达 州</w>
祝 愿</w>
勃 勃</w>
讲 习</w>
盘 子</w>
排 水</w>
近 代</w>
压 制</w>
劳 务</w>
西 北部</w>
启 发</w>
绘 制</w>
日 来</w>
新生 儿</w>
废 墟</w>
骗 取</w>
账 单</w>
夏 日</w>
卡 片</w>
世界 卫生组织</w>
来 信</w>
昨天 上午</w>
改 良</w>
反 击</w>
青 春
绳 子</w>
马 德里</w>
资 格
平 息</w>
常 规
老 龄化</w>
沙 滩</w>
参 谋
深 切</w>
玛 丽
换 句
换句 话说</w>
开 销</w>
尼 克</w>
口 碑</w>
营 地</w>
摩 洛
1 1
非 政府</w>
人 生
余 万元</w>
调 试</w>
摆 放</w>
飓 风</w>
签 发</w>
口 市</w>
历 来</w>
共产 党员</w>
二 十年</w>
返 还</w>
纤 维
塞浦路 斯</w>
雨 雪</w>
渔 船</w>
神 舟</w>
政 绩</w>
打 扰</w>
大 鼠</w>
万 达</w>
i k
创新 能力</w>
假 装</w>
高 企</w>
二 十</w>
燃 气</w>
大 纲</w>
4 8
角 度
取 向</w>
克 拉</w>
面 料</w>
陈 某</w>
祖 父</w>
无 知</w>
G PS</w>
长 寿</w>
反 腐败</w>
脂 肪
竞 技</w>
志 强</w>
美联 社</w>
紧 密
摩洛 哥</w>
咳 嗽</w>
双 向</w>
需求 量</w>
潮 湿</w>
4 5
制 片
用 人</w>
冰 冻</w>
2 40</w>
远 洋</w>
见 过</w>
所 示</w>
塔 吉
腐 倡廉</w>
婚 前</w>
反 腐倡廉</w>
医 改</w>
选 取</w>
法 国
十二 月</w>
胶 囊</w>
情节 严重</w>
人 身
产业 结构</w>
躲 避</w>
汉 族</w>
握 手</w>
恶 心</w>
转 动</w>
尾 巴</w>
安全 监管</w>
16 8</w>
不断 扩大</w>
一九 九
弱 点</w>
4 50</w>
出 生
两国 关系</w>
元 件</w>
运 费</w>
洁 净</w>
未 知</w>
中 称</w>
不动 产</w>
时 要</w>
厌 恶</w>
一 词</w>
精神 病</w>
曼 联</w>
承 担
层 层</w>
刻 意</w>
切 断</w>
八 月</w>
落 下</w>
数 次</w>
探 访</w>
信用 证</w>
求 解</w>
华 南</w>
链 条</w>
普 尔</w>
限 定</w>
实 名</w>
主席 团</w>
高 贵</w>
都 是</w>
遣 返</w>
继 承
复 出</w>
嘲 笑</w>
维 多
售 后
售后 服务</w>
饱 受</w>
留 下来</w>
土地 出让</w>
初 衷</w>
不 移</w>
空 缺</w>
人 性化</w>
举 止</w>
艾 伦</w>
湖 泊</w>
新生 代</w>
多 为</w>
纪念 馆</w>
现实 生活</w>
侵 蚀</w>
首 家</w>
跟 鞋</w>
支 柱</w>
S el
3. 0</w>
恋 情</w>
并 称</w>
仅 次于</w>
纪 检
魔 鬼</w>
海 面</w>
只 得</w>
千 名</w>
吸 入
分 配
一 波</w>
编 剧</w>
红 利</w>
摩 根</w>
任 用</w>
o f
高 高
走 红</w>
电子 产品</w>
武装 部队</w>
帮 扶</w>
N e
香 味</w>
篇 文章</w>
服 役</w>
接 管</w>
困 难
佩 戴</w>
海峡 两岸</w>
伟 业</w>
西 安市</w>
经 理
章 子怡</w>
立 足</w>
创 伤</w>
分 支</w>
修 饰</w>
百 元</w>
改 组</w>
中 非</w>
经济 衰退</w>
胡 子</w>
科 比</w>
段 落</w>
老 太太</w>
u d
越 过</w>
制 度
二 月</w>
已 知</w>
孤 立</w>
国际金融 报</w>
鸟 类</w>
治 愈</w>
深 感</w>
经 受</w>
快 点</w>
受 贿
丰 收</w>
客 观
优 异</w>
法 新社</w>
夺 取</w>
之 心</w>
A p
淹 没</w>
捍 卫</w>
初 次</w>
报 率</w>
出 入</w>
不论 是</w>
指 明</w>
贴 近</w>
特 质</w>
模 板</w>
无 条件</w>
人 身</w>
转 入</w>
赛 后</w>
残 留</w>
数 码
天 线</w>
夏 威
变 迁</w>
做 饭</w>
矿 工</w>
履 行
天津 市</w>
单 方面</w>
高 跟鞋</w>
访 问
前 沿</w>
切尔 西</w>
亚 历
审 判
外 援</w>
埃塞 俄
格 兰
揭 露</w>
司 令</w>
人 寿</w>
下 表</w>
一 旁</w>
营业 执照</w>
岛 上</w>
增 收</w>
长 者</w>
国土 资源</w>
结 婚
包 装
分辨 率</w>
3. 8</w>
良 性</w>
肯 德
新 界</w>
放 假</w>
布鲁 塞尔</w>
随 身
生 日
海 边</w>
白 人</w>
居高 不下</w>
实 在
七 成</w>
当 今
北 极</w>
何 处</w>
以 求</w>
郁 症</w>
罢 了</w>
惟 一</w>
建 委</w>
其 一</w>
犯 下</w>
公开 市场</w>
检 察</w>
替 换</w>
激 起</w>
否 决</w>
各 族
劫 持</w>
4 6
厂 房</w>
世界 大战</w>
0. 7</w>
跑 道</w>
西 非</w>
社 团</w>
具体 情况</w>
欣 慰</w>
最 新
改 制</w>
角度 看</w>
推 高</w>
意 识
在此 之前</w>
退 化</w>
贪 污
政协 委员</w>
挑 战
大力 支持</w>
嘉 莉</w>
假 定</w>
蒸 发</w>
举 例</w>
生 前</w>
超 声</w>
申请 书</w>
果 断</w>
明确 提出</w>
势 必</w>
逃 犯</w>
涂 料</w>
官 网</w>
对 口</w>
体 力</w>
会 否</w>
中 学生</w>
贸 发</w>
归 属</w>
外 来
回 报率</w>
分 支
教 导</w>
赶 快</w>
第四 章</w>
林 志
华 商</w>
信 中</w>
佛罗 里
高 官</w>
恒 星</w>
发 力</w>
F A</w>
行业 协会</w>
祭 司</w>
张 家
预 备</w>
阳 台</w>
收 购
肯德 基</w>
促 请</w>
零 零</w>
猜 想</w>
教育 厅</w>
客 运
多 功能</w>
追 溯</w>
科 普</w>
歇 尔</w>
连 串</w>
误 区</w>
讯 息</w>
关 注
有 色
工作 岗位</w>
管理 条例</w>
收费 公路</w>
轴 承</w>
精 灵</w>
热 销</w>
J oh
感 知</w>
前 锋</w>
光 纤</w>
a m</w>
4 7
过 往</w>
击 毙</w>
破 碎</w>
出 游</w>
阴 谋</w>
疑 虑</w>
录 制</w>
填 报</w>
今年 年底</w>
事 故
饮 食
扶 梯</w>
艰 辛</w>
上 台</w>
看 成</w>
特 设</w>
天气 预报</w>
大 夫</w>
不 力</w>
认 出</w>
快 要</w>
外 资企业</w>
猴 子</w>
海 内外</w>
歌 声</w>
机 密</w>
形 势
处 处</w>
回 忆
千 人</w>
热 点
商 机</w>
有 助</w>
抵 消</w>
投 入
起 源</w>
而 生</w>
尽 全力</w>
纳 米
两 张</w>
上 衣</w>
蒸 汽</w>
老 大</w>
侮 辱</w>
3 6.
矩 阵</w>
一 圈</w>
车 组</w>
景 色</w>
文 职</w>
收 养</w>
城乡 居民</w>
国 八条</w>
高峰 期</w>
德 国
A N
高 手</w>
中小 学生</w>
两 党</w>
赶 来</w>
在 校</w>
争 优</w>
牛仔 裤</w>
标 明</w>
拿 来</w>
古 怪</w>
羊 肉</w>
有所 不同</w>
力 气</w>
带 回</w>
保 守
社会 福利</w>
献 给</w>
消息 人士</w>
审 慎</w>
皇 马</w>
在 我
副 作用</w>
10 9</w>
选择 性</w>
费 率</w>
注册 资本</w>
抽 查</w>
只 见</w>
出 名</w>
第三 届</w>
M L</w>
身 处</w>
安 心</w>
金融 体系</w>
社 区
排 放量</w>
预防 性</w>
露 面</w>
想 像</w>
固 体</w>
出 事</w>
贫困 地区</w>
犯 人</w>
滑 雪</w>
巴 格达</w>
叶 子</w>
变 相</w>
I C</w>
1 300</w>
向 来</w>
歌 迷</w>
推 向</w>
打 动</w>
印 第
中小 板</w>
3 9.
赵 薇</w>
我 用</w>
卡 梅
百 万
信 贷
见义勇 为</w>
表 演
b er
连 同</w>
节 约
增 量</w>
合法 性</w>
这 篇</w>
激 增</w>
明 朗</w>
撞 击</w>
工 委</w>
利 物
里程 碑</w>
海淀 区</w>
成 功
亿 港元</w>
驱 逐</w>
乒乓 球</w>
房 东</w>
创 先
创先 争优</w>
切 割</w>
主 机</w>
饲 养</w>
金融 时报</w>
本 轮</w>
埃塞俄 比亚</w>
印 机</w>
沿 岸</w>
1 25</w>
铁路 局</w>
连 接
置 信</w>
做 生意</w>
陈 先生</w>
连 任</w>
茅台 酒</w>
惠 普</w>
击 中</w>
会 费</w>
希 腊
夸 大</w>
停 下</w>
盟 约</w>
杰 伦</w>
技术 创新</w>
常 务</w>
乐 器</w>
中 信</w>
乳 业</w>
溶 液</w>
后 卫</w>
中美 关系</w>
推 介</w>
奴 隶</w>
i f
名 誉</w>
受 访</w>
刑 罚</w>
俄 国</w>
法 国人</w>
响 起</w>
桂 园</w>
抛 售</w>
地 形</w>
器 件</w>
中 外
腐 败
火 热</w>
核 对</w>
字 符</w>
起 伏</w>
益 处</w>
抽 象</w>
微 妙</w>
十七 届</w>
店 员</w>
降 临</w>
辞 去</w>
文 凭</w>
巨 星</w>
外交 官</w>
救 护
高 尚</w>
送 来</w>
细 胞
宽 度</w>
内蒙 古
上 文</w>
由 此
全国 人民代表大会</w>
之 争</w>
一 味</w>
文物 保护</w>
文化 交流</w>
互 助</w>
中央 银行</w>
地 表</w>
商 标
中 美洲</w>
无 须</w>
基 数</w>
Tw itter</w>
邮 箱</w>
经 委</w>
整 齐</w>
通 话</w>
萧 条</w>
纽约 时报</w>
中国 联通</w>
同 级</w>
主 打</w>
病 率</w>
吸入 颗粒物</w>
可 吸入颗粒物</w>
冷 漠</w>
建 华</w>
乘 用车</w>
行动 计划</w>
绯 闻</w>
喂 养</w>
C ar
赛 车</w>
动 车组</w>
油 画</w>
女 郎</w>
坚定 不移</w>
变 暖</w>
乙 烯</w>
il l
舞 会</w>
祖 先</w>
鼠 标</w>
雕 像</w>
补 救</w>
副 教授</w>
会 员
牲 畜</w>
商 讨</w>
仔 细
频 发</w>
跨 界</w>
种族 隔离</w>
乞 讨</w>
党员 干部</w>
不 法
编 程</w>
真实 性</w>
符合 条件</w>
并 发
一 小</w>
触 及</w>
规 矩</w>
盘 中</w>
庇 护</w>
境 地</w>
勘 查</w>
部 地区</w>
私 家
压 缩
丹 尼尔</w>
畅 销</w>
打 交道</w>
基 文</w>
受 到
关键 技术</w>
会议 室</w>
伊 朗
度 假
向 往</w>
业 者</w>
潘 基文</w>
新 低</w>
风 气</w>
瓶 子</w>
恐怖 袭击</w>
就业 机会</w>
楼 下</w>
想 过</w>
瓷 器</w>
商 界</w>
之 势</w>
ac h
首 饰</w>
年 终
孟 加拉
发行 价</w>
郑 州市</w>
肠 道</w>
海外 版</w>
忙 于</w>
并发 症</w>
存 储
丹 利</w>
I V</w>
色 调</w>
果 然</w>
保 值</w>
3 7.
第二 期</w>
意识 形态</w>
公立 医院</w>
附加 费</w>
兄 弟
规 例</w>
美 分</w>
利 益
无 视</w>
头 顶</w>
外 籍</w>
10 8</w>
隐 形</w>
物 料</w>
爆 出</w>
气 管</w>
而 后</w>
最 先</w>
教 委</w>
必 定</w>
了 不起</w>
严 谨</w>
3 00
难 受</w>
科 长</w>
生活 费</w>
甜 美</w>
润 滑
投 保</w>
号 称</w>
发挥 作用</w>
邻 近</w>
药 材</w>
碧 桂园</w>
树 枝</w>
时 节</w>
掩 饰</w>
录 片</w>
小 S</w>
劳 工
便 会</w>
电 煤</w>
游 艇</w>
最高 法院</w>
浓 缩</w>
女 演员</w>
佛 教</w>
代理 商</w>
红 包</w>
摩 根
手 持</w>
集 群</w>
贩 毒</w>
语 气</w>
村 委会</w>
总 面积</w>
嫌 犯</w>
沙 特
号 楼</w>
不 惜</w>
防 灾</w>
合 格
浴 室</w>
国 强</w>
周 杰伦</w>
装 配</w>
方向 盘</w>
改 编</w>
反倾 销</w>
黄 瓜</w>
新 盘</w>
新 农</w>
总 能</w>
大会 堂</w>
相关 性</w>
哈萨 克斯坦</w>
几 分</w>
移 动
幸福 感</w>
粗 糙</w>
档 次</w>
柔 和</w>
室 外</w>
委 任</w>
以 南</w>
七 八
A I
顺 便</w>
援助 团</w>
实在 在</w>
实 实在在</w>
一 角</w>
t r
c n</w>
周 期
低 廉</w>
积 水</w>
模 具</w>
工 人
光 芒</w>
旦 大学</w>
复 旦大学</w>
典 范</w>
邮 寄</w>
皮 革</w>
打 断</w>
品 味</w>
党 史</w>
青海 省</w>
案 情</w>
恐 龙</w>
女 主角</w>
古 城</w>
细 心</w>
批 判</w>
作 弊</w>
乳 腺癌</w>
中 队</w>
上 前</w>
雕 刻</w>
和 谐
叫 停</w>
书 面
新 春</w>
功 课</w>
还 好</w>
双 眼</w>
诺 贝尔
缘 故</w>
标志 性</w>
宝 网</w>
占有 率</w>
克 隆</w>
身 旁</w>
详 尽</w>
自然 保护区</w>
界 线</w>
电 报</w>
议 书</w>
今天 下午</w>
中 是</w>
海 关
未 曾</w>
分 量</w>
鸟 儿</w>
磨 损</w>
瘦 身</w>
用 法</w>
嫉 妒</w>
动 画
该 店</w>
时 限</w>
执 业</w>
---- ----
选 举
脸 色</w>
职 能
狂 热</w>
最 强</w>
颠 覆</w>
轻 重</w>
求 婚</w>
民政 部</w>
安 检</w>
见 解</w>
供 热</w>
起 身</w>
可 否</w>
分支 机构</w>
矿 井</w>
液晶 电视</w>
营业 税</w>
溢 价</w>
抢 购</w>
做 起</w>
1. 9</w>
默 认</w>
面 膜</w>
文化 部</w>
就 医</w>
窗 外</w>
新闻 媒体</w>
批 复</w>
乃 是</w>
控 件</w>
服务 体系</w>
勤 奋</w>
上 浮</w>
进 食</w>
胆 固醇</w>
沉 积</w>
布 雷</w>
西 红
秘 诀</w>
花 园
涂 抹</w>
决策 者</w>
龙 湖</w>
珍 珠</w>
参 阅</w>
M A</w>
集 装箱</w>
有 无</w>
接 种</w>
口 腔</w>
体育 场</w>
麦当 劳</w>
静 态</w>
避 险</w>
i m</w>
食 盐</w>
本 案</w>
新 规</w>
畸 形</w>
广 电
祷 告</w>
海 地区</w>
无 情</w>
成 型</w>
点 半</w>
年 华</w>
平 日</w>
停 滞</w>
议 论</w>
红 外</w>
网 格</w>
永 久性</w>
晓 明</w>
小 车</w>
审计 署</w>
龙 网</w>
问 问</w>
道 路交通</w>
通 行
石 流</w>
私 下</w>
土 著</w>
哈尔 滨
两 类</w>
公 民
身 价</w>
泪 水</w>
小 心
加 密</w>
能 为</w>
团 结
听 听</w>
闪 电</w>
多 条</w>
首 款</w>
笔 记</w>
乱 象</w>
3 8.
深 深
泥 石流</w>
转 载</w>
搭 乘</w>
仅 如此</w>
E R
水 土
患 病</w>
写 出</w>
里 人</w>
矿 产</w>
此 处</w>
横 向</w>
博物 院</w>
升 起</w>
作 出
索 引</w>
打 败</w>
内 衣</w>
光 电</w>
获 益</w>
煤 电</w>
山 顶</w>
海 军
求 职
头 衔</w>
冰 雪</w>
转 而</w>
A P
陪 审
榜 单</w>
树 上</w>
子 宫</w>
休 息
中小 型</w>
大 蒜</w>
构 想</w>
地 铁
发 电机</w>
诱 导</w>
计 时</w>
而 知</w>
穆 巴拉克</w>
整 洁</w>
信 任
高 等</w>
庄 严</w>
不 觉</w>
一 趟</w>
酸 奶</w>
政 客</w>
套 数</w>
士 丹利</w>
名 声</w>
余 地</w>
年 份</w>
深 层</w>
江 湖</w>
权 重</w>
尼 奥</w>
定 罪</w>
决 算</w>
低 端</w>
U S
相 符</w>
疲 惫</w>
期 权</w>
拍 戏</w>
想 象
出 院</w>
出 庭</w>
不 仅如此</w>
静 脉</w>
互 补</w>
个人 信息</w>
阵 线</w>
理 应</w>
10 000</w>
退 市</w>
校 方</w>
县 委书记</w>
制 剂</w>
笑 声</w>
抑 郁</w>
当 月</w>
各 项
雪 佛
配 有</w>
若 干
摩根 士丹利</w>
命 题</w>
麦 克
时 分</w>
庆 典</w>
保 费</w>
不 许</w>
照 射</w>
成 龙</w>
榜 首</w>
平 行</w>
巡 查</w>
士 尼</w>
鉴 别</w>
苍 白</w>
泉 水</w>
凶 手</w>
党 政</w>
骑 士</w>
回 调</w>
一 整天</w>
一 侧</w>
成 绩
中 级
金 银</w>
淀 粉</w>
法 郎</w>
善 意</w>
个 子</w>
B D</w>
醒 目</w>
荧 光</w>
百 货</w>
高 品质</w>
迪 士尼</w>
组 装</w>
安全 感</w>
地 去</w>
火 箭
想象 力</w>
偏 离</w>
书 中</w>
换 取</w>
工作 队</w>
右 边</w>
重 金属</w>
西 湖</w>
物价 局</w>
北 海</w>
侦 破</w>
年 收入</w>
专 栏</w>
不好 意思</w>
不 来</w>
越 是</w>
晶 晶</w>
萨 尔
约翰 逊</w>
浦 东</w>
引 爆</w>
享 用</w>
观 赏</w>
汪 小
办公 楼</w>
犯罪 分子</w>
深 层次</w>
p e</w>
环保 局</w>
口 中</w>
访 华</w>
吻 合</w>
冰 淇
乐 于</w>
V T</w>
14 00</w>
达 尔</w>
突 出
比 喻</w>
固 有</w>
拉 加</w>
厦 门
邮 政局</w>
来 水</w>
卫生 间</w>
几 内
炎 热</w>
流动 人口</w>
污 水
开 着</w>
一 连串</w>
脸 部</w>
流 畅</w>
没 关系</w>
好 了</w>
漠 化</w>
戴 着</w>
公共 交通</w>
触 摸</w>
电 邮</w>
昌 市</w>
提 振</w>
尼 泊尔</w>
母 公司</w>
果 实</w>
发 点</w>
i o</w>
诱 发</w>
血 病</w>
然 不同</w>
比 上</w>
北京 地区</w>
而 定</w>
坚 固</w>
荣 获</w>
发 扬</w>
中 科院</w>
氰 胺</w>
撰 文</w>
判 刑</w>
酷 刑</w>
较 长</w>
菲 尔德</w>
纸 张</w>
格 里
更 长</w>
在 售</w>
压 迫</w>
不 公</w>
长 途
草 坪</w>
光 谱</w>
省 委常委</w>
慎 重</w>
织 物</w>
如 实</w>
好 玩</w>
国有 资产</w>
D S
放 贷</w>
尔 多</w>
尚 无</w>
奔 腾</w>
驳 回</w>
点 多</w>
尾 部</w>
存 活</w>
10 2</w>
河 道</w>
来 往</w>
口 感</w>
不 至于</w>
1 15</w>
销售 价格</w>
法 学</w>
三 聚
藏 族</w>
第一 届</w>
显示 屏</w>
怎么 回事</w>
媳 妇</w>
邮 局</w>
9 9.
德 斯</w>
你 方</w>
饼 干</w>
项 链</w>
有 史
山 大</w>
外 媒</w>
匮 乏</w>
今年 年初</w>
198 1</w>
现 款</w>
汉 字</w>
毁 坏</w>
有史 以来</w>
揭 晓</w>
吸 纳</w>
褐 色</w>
动 人</w>
袋 子</w>
看 书</w>
降 雪</w>
购房 人</w>
汇 款</w>
出 面</w>
3. 4</w>
重要 讲话</w>
器 械</w>
收 音机</w>
私 有
免 受</w>
硬 化</w>
民 俗</w>
最大 化</w>
屁 股</w>
少 于</w>
内 陆</w>
免 税
低 下</w>
季 报</w>
塑 化剂</w>
净 额</w>
决 权</w>
题 为</w>
阿 卜
轮 流</w>
西 岸</w>
热 带
执 勤</w>
作 证</w>
紫 外线</w>
灰 尘</w>
提 拔</w>
不 合</w>
窝 点</w>
税 收
星期 日</w>
一 分</w>
精 细</w>
拦 截</w>
八 成</w>
高 性能</w>
自然 资源</w>
考 量</w>
高 龄</w>
主 任
美 利
头 疼</w>
劝 说</w>
九 届</w>
专项 资金</w>
i r</w>
L O
李 嘉
后 方</w>
关 上</w>
之 急</w>
颁 奖</w>
玉 树</w>
小 户型</w>
三聚 氰胺</w>
淡 季</w>
欢 呼</w>
司令 部</w>
中华 文化</w>
In ter
汉 堡</w>
杯 子</w>
常 设</w>
取 证</w>
钢 筋</w>
边 防</w>
往 常</w>
不 曾</w>
集 聚</w>
子 孙</w>
长 的</w>
迈 进</w>
西班牙 语</w>
民 航
心 愿</w>
中 性</w>
进 取</w>
央 视
差 额</w>
198 3</w>
酌 情</w>
美 金</w>
经营 性</w>
二 号</w>
之 称</w>
T V
订 票</w>
班 级</w>
再 次
全 县</w>
Sel ina</w>
首都 机场</w>
联 络
有 罪</w>
分 级</w>
气象 局</w>
成 名</w>
毛 利率</w>
档 案
工作 量</w>
冰淇 淋</w>
银 川</w>
送 礼</w>
节 水</w>
美元 汇率</w>
发展 前景</w>
淘 宝网</w>
染 色</w>
夏威 夷</w>
史蒂 夫</w>
包 容</w>
燕 窝</w>
连 锁
妇 联</w>
沦 为</w>
有色 金属</w>
世界 纪录</w>
量 级</w>
调 侃</w>
盟 友</w>
代 会</w>
C BA</w>
分 布
冒 充</w>
t o</w>
淡 水</w>
敞 开</w>
现 今</w>
投 机
打 发</w>
中国 电信</w>
一 并</w>
3 20</w>
赌 场</w>
胜 任</w>
爱 上</w>
河 水</w>
防 火</w>
直 观</w>
利物 浦</w>
改 装</w>
东 欧</w>
T SI</w>
财 报</w>
楼 上</w>
改 动</w>
支 架</w>
自治 州</w>
圆 满
2 60</w>
聆 听</w>
精 选</w>
早 早</w>
发 稿</w>
顿 时</w>
交 际</w>
顺 着</w>
胡 同</w>
捷 克</w>
意大 利
加 斯</w>
再 融资</w>
腹 泻</w>
漏 油</w>
测 量
和谐 社会</w>
吉 尔
全体 会议</w>
C R
空气 污染</w>
折 合</w>
姚 晨</w>
an c
飞行 器</w>
控制 目标</w>
三 地</w>
素 养</w>
后 排</w>
反对 党</w>
元 至</w>
东 海</w>
专 用
青 年人</w>
那 场</w>
沙特 阿拉伯</w>
服务 质量</w>
律 师
就 职</w>
两 边</w>
皱 纹</w>
坠 毁</w>
喝 水</w>
不 相
追 赶</w>
物业 管理</w>
车 门</w>
明 治</w>
拉 德</w>
免 去</w>
第三 条</w>
条 纹</w>
执 政党</w>
吸 取</w>
金融 业</w>
六 成</w>
i b
e g
李 小
改 建</w>
可 信</w>
研 讨</w>
看 得
看 不
副 校长</w>
at e</w>
稳 固</w>
熟 练</w>
招 牌</w>
万 多元</w>
海 鲜</w>
前 线</w>
前 款</w>
划 定</w>
类 产品</w>
市 县</w>
台 词</w>
皇 后</w>
同 盟</w>
发 觉</w>
事 关</w>
财 长</w>
测 验</w>
汇 集</w>
整 套</w>
大 雪</w>
充 斥</w>
世贸 组织</w>
用 到</w>
小 组
产 商</w>
流 产</w>
拉 开
字 体</w>
丰 富
严厉 打击</w>
专家 学者</w>
美 学</w>
经理 人</w>
福 克斯</w>
小 康
马 云</w>
西红 柿</w>
羽 毛
次 序</w>
壁 垒</w>
健康 状况</w>
赚 取</w>
税 负</w>
本 期</w>
华 德</w>
责 备</w>
救护 车</w>
叠 加</w>
钱 财</w>
交易 量</w>
业 余</w>
迎 合</w>
评 判</w>
用 餐</w>
山 谷</w>
两 场</w>
汪 洋</w>
湿 度</w>
摄像 机</w>
万 英镑</w>
le y</w>
纪 录片</w>
稍 后</w>
接 送</w>
患 儿</w>
客 房</w>
协 会
像 素</w>
优 越</w>
筹 划</w>
民 意
查 办</w>
充 裕</w>
伤 员</w>
跌 破</w>
羽 毛</w>
时 空</w>
7 50</w>
重 型</w>
拿 走</w>
总 的
展 品</w>
精 密</w>
泥 土</w>
法兰 克
左 边</w>
净 资产</w>
主 编</w>
纳 斯达
开发 利用</w>
不能 不</w>
职业 病</w>
美 白</w>
可口 可乐</w>
新 颖</w>
拉 斯
备 用</w>
闭 幕</w>
迪 拜</w>
积 蓄</w>
捐 助者</w>
PM 2.5</w>
太 好了</w>
口 径</w>
领 先
蓝 图</w>
医 务
人 类
齿 轮</w>
锅 炉</w>
无 偿</w>
招待 会</w>
公安 分局</w>
一无 二</w>
1 100</w>
考 上</w>
知 情
虚 构</w>
烟 花</w>
很 棒</w>
对 立</w>
研究 部</w>
洽 谈</w>
切 除</w>
ic h
T O
牧 业</w>
售 楼
撤 回</w>
韩 国
防 控</w>
走 近</w>
省 内</w>
不 说</w>
膳 食</w>
简 约</w>
放 学</w>
疑 惑</w>
桑 兰</w>
放射性 物质</w>
抽 检</w>
打 扫</w>
卡 特</w>
鲜 艳</w>
该 局</w>
独 一无二</w>
手 枪</w>
北 方
上 旬</w>
非常 高兴</w>
悲 惨</w>
异 化</w>
小 吃</w>
逃 脱</w>
血 糖</w>
早 点</w>
事 局</w>
王 朝</w>
深入 开展</w>
尽 情</w>
第二 条</w>
惩 处</w>
必 备</w>
B l
4 9
长 沙
瓦 时</w>
演 讲
机 油</w>
恤 金</w>
差 点</w>
唯 有</w>
不太 可能</w>
H O</w>
春 夏</w>
新 书</w>
建 模</w>
屡 屡</w>
复 习</w>
商 用</w>
兰 卡</w>
晚 些时候</w>
人 手</w>
雪 花</w>
部长 级</w>
财 年</w>
美国 国会</w>
招 考</w>
表 扬</w>
第四 届</w>
汇 票</w>
底 层</w>
卡 通</w>
供 暖</w>
传 到</w>
近 乎</w>
论 点</w>
信 封</w>
阵 雨</w>
蝴 蝶</w>
理查 德</w>
海 滨</w>
浓 郁</w>
北 区</w>
E n
较 量</w>
解决 办法</w>
点 头</w>
德 勒</w>
兼 并</w>
井 下</w>
专 心</w>
el l</w>
高 大</w>
铭 记</w>
精 心
歹 徒</w>
新 世纪</w>
排 序</w>
健 身
本报 讯</w>
挽 回</w>
得 上</w>
处 处长</w>
台湾 地区</w>
分 娩</w>
综合 征</w>
味 千</w>
十 八
组织 者</w>
检 修</w>
三 届</w>
高 职</w>
背 上</w>
债 权</w>
火 山
旅 途</w>
强 壮</w>
出 厂
数 千</w>
园 林</w>
4. 2</w>
流 体</w>
怀 着</w>
出 发点</w>
上 周末</w>
行 径</w>
生产 能力</w>
民 用
捆 绑</w>
房 管局</w>
奇 特</w>
作 坊</w>
ac e</w>
移 送</w>
增 产</w>
区 长</w>
化 肥</w>
低 位</w>
世界 贸易
S P
首 轮</w>
罪 恶</w>
放 映</w>
委员 长</w>
仇 恨</w>
M BA</w>
节 后</w>
混 合
居民 消费</w>
骨 骼</w>
白 血病</w>
模 拟
桂 林</w>
病 变</w>
万 多
晋 升</w>
早 盘</w>
银 色</w>
经 适</w>
张 贴</w>
吊 销</w>
责任 制</w>
增加 值</w>
侦 察</w>
IB M</w>
高 地</w>
置 疑</w>
棘 手</w>
全 美</w>
党 组
专 职</w>
三 菱</w>
or e</w>
维 吾
垄 断
特 兰
国家 电网</w>
出 入境</w>
公开 赛</w>
10 4</w>
灾 民</w>
抢 险</w>
金 正
那 年</w>
说 是</w>
呼 叫</w>
上 司</w>
定 点</w>
天 鹅</w>
坟 墓</w>
变 异</w>
神 情</w>
浮 动</w>
提 速</w>
抑 郁症</w>
乌 拉圭</w>
高 效率</w>
钢 材</w>
遍 布</w>
接 替</w>
维多 利亚</w>
毛 巾</w>
推 理</w>
悲 哀</w>
减 速</w>
兵 团</w>
兴 奋
人 中</w>
中国人民 大学</w>
超 级
自 助</w>
张 艺
剧 情</w>
一 把手</w>
3. 1</w>
词 典</w>
氧 气</w>
护 人员</w>
大 象</w>
内 政
保 荐</w>
一 棵</w>
达 尔
城市 规划</w>
千 瓦时</w>
会 为</w>
空 姐</w>
环境 影响</w>
制 动</w>
突 击</w>
明 明</w>
坏 事</w>
分 校</w>
乳 制品</w>
大 不
哈 里</w>
人 造</w>
干 线</w>
好 几
奥 委会</w>
备 战</w>
液 压</w>
核 泄漏</w>
本 发明</w>
散 布</w>
商业 模式</w>
午 夜</w>
中央 财政</w>
个 世纪</w>
连 日来</w>
角 逐</w>
管理 机构</w>
第 八</w>
弹 药</w>
去 向</w>
加 工
10 3</w>
触 发</w>
开 除</w>
中 来</w>
一年 一度</w>
10 6</w>
馆 长</w>
难以 置信</w>
野 蛮</w>
笼 罩</w>
涨 停</w>
法兰克 福</w>
地 狱</w>
党组 书记</w>
顺 应</w>
红 十字</w>
相 遇</w>
过 早</w>
线 图</w>
半 导体</w>
T 恤</w>
税 局</w>
眼 看</w>
相互 作用</w>
四 种</w>
顶 尖</w>
刘 德华</w>
京 剧</w>
有 近</w>
更 强</w>
基本 面</w>
六 十
中 航</w>
大学 毕业</w>
圆 满</w>
四 级</w>
激 进</w>
显 出</w>
中国 足协</w>
紧 凑</w>
涉 足</w>
拉 美</w>
个 省</w>
A C
蒙 古</w>
多 于</w>
现金 流</w>
捕 捉</w>
职 工
务 必</w>
价格 下降</w>
精 准</w>
私 人
半 决赛</w>
问 到</w>
购物 中心</w>
西藏 自治区</w>
萨利 赫</w>
常务 会议</w>
所 有者</w>
在我 看来</w>
巨 型</w>
分 组</w>
补 偿
理 事长</w>
四 季</w>
包 机</w>
产 销</w>
家庭 成员</w>
卡 马
亚 军</w>
西 南部</w>
萨 博</w>
营 业务</w>
医 护人员</w>
主 营业务</w>
起 火</w>
化 工
券 市场</w>
债 券市场</w>
传 导</w>
S u
3 2
节 性</w>
思 念</w>
购买 力</w>
准 许</w>
再 有</w>
借 钱</w>
纳斯达 克</w>
约束 力</w>
告 诫</w>
他 家</w>
质 地</w>
经济 体制</w>
现 场
每 隔</w>
打 压</w>
应 届</w>
工程 项目</w>
地 球
关键 在于</w>
传 播
联合国 安理会</w>
t on</w>
金 字
张艺 谋</w>
入 睡</w>
偷 偷</w>
行 了</w>
摇 头</w>
就 行了</w>
安 盟</w>
外 壳</w>
以 旧
e st
炼 油</w>
剧 场</w>
光 滑</w>
不断 完善</w>
三 峡
张 国
军 舰</w>
报 收</w>
均 线</w>
颁奖 典礼</w>
智 商</w>
换 新</w>
孟加拉 国</w>
半 夜</w>
祖 母</w>
女 排</w>
4. 6</w>
某 事</w>
说 谎</w>
获 准</w>
洛 克</w>
无 害</w>
好 运</w>
亿 立方米</w>
青 岛
血 液
既 往</w>
打 听</w>
取 缔</w>
试 卷</w>
应 聘</w>
饭 菜</w>
光 灯</w>
E x
阿 塞
通 信
退 款</w>
解 禁</w>
美 人</w>
但 愿</w>
亦 可</w>
一 条
p m</w>
职能 部门</w>
极 力</w>
抄 袭</w>
微 弱</w>
武 器
手 下</w>
体育 运动</w>
遥 感</w>
珠 江</w>
方 形</w>
慈善 事业</w>
建 房</w>
小 鼠</w>
苏 珊</w>
第一 名</w>
报 送</w>
路 过</w>
标 普</w>
应 变</w>
颈 部</w>
环 绕</w>
更 多地</w>
半 天</w>
程 式</w>
禁 运</w>
扫 雷</w>
恶 性</w>
以旧 换新</w>
L a
盛 行</w>
得 主</w>
处 级</w>
匆 忙</w>
出 让
免 征</w>
专 科</w>
过 错</w>
财政 部长</w>
字 符
乳 房</w>
三 点</w>
试点 工作</w>
年 里</w>
吸 附</w>
卡马 乔</w>
不 解</w>
过 关</w>
生 子</w>
入 狱</w>
优 于</w>
互 相
D S</w>
机 身</w>
干 嘛</w>
些 年来</w>
A s
紧 缺</w>
水 上</w>
族 自治区</w>
收盘 价</w>
特 使</w>
完 备</w>
团 聚</w>
偏 差</w>
万 桶</w>
赶 往</w>
葬 礼</w>
华 语</w>
内蒙古 自治区</w>
亿 人</w>
露 天</w>
近 两年</w>
文 明
佩 克</w>
见 度</w>
监 理</w>
地 面积</w>
上 班
4. 3</w>
百 计</w>
伪 劣</w>
不 敢
上 校</w>
遗 忘</w>
生命 力</w>
爆 竹</w>
巴 斯</w>
四 成</w>
吁 请</w>
信 托
承 接</w>
准备 金</w>
耦 合</w>
糊 涂</w>
感 到
大 爷</w>
克萨 斯</w>
快 餐</w>
增 设</w>
受 众</w>
人 要</w>
亲 身</w>
得 意</w>
建设 工程</w>
著 称</w>
汪小 菲</w>
展 览会</w>
外 人</w>
交 换
油 漆</w>
查 验</w>
局 限</w>
克 鲁
诈 骗
党 支部</w>
先 知</w>
充 沛</w>
金 刚</w>
重 现</w>
第一 章</w>
研究 室</w>
涌 现</w>
实用 性</w>
中国 科学院</w>
超 载</w>
交 互</w>
0. 9</w>
申请 表</w>
地 里</w>
出 席会议</w>
资源 税</w>
覆盖 率</w>
福 音</w>
气 球</w>
应 为</w>
举 起</w>
大 增</w>
不 负
西 斯</w>
尖 锐</w>
司法 解释</w>
企 事业</w>
预 备
陷 入
白 皮书</w>
废 料</w>
绝 不会</w>
管理 费</w>
相 撞</w>
描 写</w>
入 园</w>
2. 9</w>
走 开</w>
想 念</w>
光 泽</w>
二 百
P E</w>
门 户</w>
私家 车</w>
数 百万</w>
拇 指</w>
军 团</w>
公安 部门</w>
克 制</w>
迅 猛</w>
大 关</w>
哈 根</w>
人 有</w>
控 告</w>
拖 累</w>
谷 物</w>
日 经</w>
搜 查</w>
较 差</w>
绅 士</w>
197 3</w>
济 南市</w>
晶 体</w>
斯 托
零 售价</w>
加 纳</w>
切 换</w>
货 品</w>
女 性
厌 倦</w>
中 等
长 长的</w>
胚 胎</w>
歌 词</w>
惠 及</w>
4 9.
颇 具</w>
经贸 合作</w>
焚 烧</w>
清 洁
故 意
微 观</w>
唤 醒</w>
反 驳</w>
诉 人</w>
哈 拉</w>
一 无所
外交 政策</w>
风 貌</w>
该 院</w>
美 观</w>
弟 兄</w>
序 幕</w>
呼 唤</w>
简 易</w>
生 机</w>
深 刻
敬 意</w>
戒 烟</w>
青 蛙</w>
钞 票</w>
之 手</w>
不 穷</w>
礼 拜</w>
春 市</w>
奶 酪</w>
各族 人民</w>
营 救</w>
党 建</w>
付 给</w>
亲 情</w>
s e</w>
动 向</w>
中 场</w>
B r
爱 沙
投资 银行</w>
三 日</w>
WT O</w>
星 系</w>
旅 费</w>
恰 好</w>
ic e</w>
麦 凯恩</w>
渗 透
终 点</w>
准确 性</w>
3. 7</w>
老 是</w>
美 好
多 长时间</w>
首 长</w>
里 氏</w>
还 贷</w>
蒙 特
政治 权利</w>
总 和</w>
广播 电台</w>
压 抑</w>
风 机</w>
p on</w>
暗 访</w>
名 录</w>
龙 头
舌 头</w>
洗 涤</w>
前 走</w>
过 户</w>
走 到</w>
责任 人员</w>
广电 总局</w>
伟 大
从 业</w>
遣 队</w>
足 迹</w>
听 从</w>
暴 风雨</w>
掏 出</w>
停车 位</w>
隐 蔽</w>
尼 古
警 力</w>
自由 化</w>
熟 知</w>
欧洲 人</w>
校 舍</w>
指导 价</w>
扩 大
面 具</w>
间 隙</w>
路 透</w>
意 在</w>
备 份</w>
售 票
送 达</w>
技 艺</w>
才 华</w>
小 狗</w>
中央政治 局</w>
明 市</w>
开 拓
年终 奖</w>
吸 烟
中介 机构</w>
管 委会</w>
水 流</w>
普遍 存在</w>
亲 节</w>
下 称</w>
19 70</w>
王 女士</w>
4. 8</w>
节 假日</w>
转 基因</w>
求 是</w>
晚 宴</w>
克 林</w>
伸 手</w>
管理 体制</w>
知 晓</w>
电 荒</w>
战 后</w>
宽 敞</w>
上 岗</w>
猩 猩</w>
台 币</w>
默 默
扣 押</w>
虚 弱</w>
舞 弊</w>
珍 妮</w>
彻 底
后 台</w>
名 列</w>
原 市</w>
黑 白</w>
蜜 蜂</w>
着 装</w>
独 有</w>
总 决赛</w>
大 连
共 建</w>
克里 斯</w>
银 幕</w>
节 能
禁 烟</w>
名 气</w>
十一 月</w>
防 务</w>
特 网</w>
曾 任</w>
斯 州</w>
支 行</w>
小 编</w>
奥 会</w>
致 死</w>
算 了</w>
汉 姆</w>
D i
C on
左 手</w>
京 都</w>
不 见
非 统
非统 组织</w>
辐 射
尽 头</w>
偏 高</w>
伙 计</w>
申 花</w>
班加 西</w>
话 语
老 实</w>
妆 容</w>
产品 价格</w>
长 征</w>
这 天</w>
赶 赴</w>
烧 伤</w>
改 款</w>
嘴 巴</w>
领 事</w>
爱沙 尼亚</w>
扩 充</w>
华 润</w>
前 去</w>
胜 过</w>
摔 倒</w>
傲 慢</w>
不 受</w>
装 扮</w>
卡 罗
M A
辅 导
布 里</w>
停 电</w>
青 藏
江 市</w>
存 者</w>
可 控</w>
车 轮</w>
球 星</w>
成 形</w>
受 阻</w>
反 过来</w>
劳动 合同</w>
通 向</w>
换 代</w>
开 端</w>
or g
雪佛 兰</w>
投入 使用</w>
工商 行政</w>
山 县</w>
耗 费</w>
督 导</w>
稀 缺</w>
知识 分子</w>
特 许</w>
故 乡</w>
真 心</w>
淋 巴
机 动</w>
哥 本
附 带</w>
戛 纳</w>
hon e</w>
阿塞 拜
电 线</w>
指 派</w>
弊 端</w>
冷 冻</w>
六 中全会</w>
两 级</w>
野 外</w>
贡 献
特 派
产 区</w>
互联 网
I D</w>
物 质
木 头</w>
暴 涨</w>
安全 事故</w>
北 非</w>
犯罪 行为</w>
牢 牢</w>
省 钱</w>
片 段</w>
毫 克</w>
机 体</w>
抗 力</w>
亚 美
攻 势</w>
利用 率</w>
不 光</w>
退 回</w>
小 刚</w>
细 腻</w>
婚 宴</w>
女 神</w>
这样 的话</w>
融 化</w>
紧急 情况</w>
码 标价</w>
明 码标价</w>
幸 存者</w>
工商 银行</w>
层 出
求职 者</w>
层出 不穷</w>
坍 塌</w>
发 烧</w>
奉 行</w>
国 安</w>
马克 思</w>
计算 方法</w>
波 及</w>
拉 姆</w>
意 见
We b</w>
门 户
诱 人</w>
职 务
晚 期</w>
完 整
另 类</w>
印 刷
行 者</w>
自 私</w>
大 哥</w>
齐 鲁
轻 轻
欧 安
好 坏</w>
十 八</w>
I D
跟 上</w>
统 治
橱 柜</w>
心 人</w>
安 妮</w>
十 多年</w>
阿塞拜 疆</w>
烟 台</w>
敬 畏</w>
担 负</w>
密 集
叶 片</w>
刑事 拘留</w>
回 暖</w>
竭 力</w>
科 医生</w>
方 可</w>
抗 战</w>
亿 日元</w>
通 胀率</w>
蓝 天</w>
埃 尔</w>
风险 管理</w>
能 见度</w>
羊 毛</w>
刘 晓
跻 身</w>
贪 婪</w>
视 图</w>
浑 身</w>
手 提
7 0
重 于</w>
货 量</w>
裁 减</w>
显示 器</w>
学 问</w>
多 哈</w>
王 后</w>
毛 衣</w>
微 波</w>
问 卷</w>
重 任</w>
话语 权</w>
石 墨</w>
现 存</w>
出让 金</w>
借 给</w>
信息 网</w>
之 多</w>
气 愤</w>
野 田</w>
鄂 尔多
班 主任</w>
学 森</w>
奇 妙</w>
鲨 鱼</w>
研究 会</w>
深深 地</w>
四 次
几 句</w>
交 纳</w>
运 力</w>
街 日报</w>
淡 化</w>
支持 率</w>
华尔 街日报</w>
愈 烈</w>
吵 架</w>
制 售</w>
传 染</w>
海 岛</w>
多 尔</w>
四 十</w>
受 不了</w>
伪 装</w>
丰富 多彩</w>
四次 会议</w>
哺 乳
an n
遇 上</w>
省 区</w>
巴 萨</w>
天 花
分 辨</w>
分 明</w>
借 用</w>
第 七</w>
电子 书</w>
小康 社会</w>
原 型</w>
一个 多月</w>
i an</w>
高尔夫 球</w>
边 上</w>
I T
19 0</w>
默 德</w>
捕 获</w>
多 层次</w>
赞 助
在 乎</w>
专 场</w>
肇 事
实施 细则</w>
以 赴</w>
质 感</w>
底 盘</w>
不 用
上 路</w>
威 力</w>
呼和浩 特</w>
2 30</w>
药 店</w>
犹 大</w>
持续 增长</w>
关 押</w>
i z
编 队</w>
状 元</w>
喜 好</w>
风 采</w>
缴 获</w>
半 月</w>
全力 以赴</w>
住 处</w>
职业 道德</w>
世界贸易 组织</w>
3 3
酒 类</w>
当 即</w>
开 庭
师 资</w>
哥本 哈根</w>
原油 期货</w>
阿 森
第六 条</w>
滋 润</w>
愉 悦</w>
大 肠
北京 青年报</w>
动 植物</w>
默 克尔</w>
分 管</w>
一 阵
领 带</w>
归 来</w>
婚姻 法</w>
助 推</w>
帝 汶</w>
再 用</w>
5 50</w>
高 利
生 境</w>
哈 佛
源 地</w>
拘 役</w>
评论 员</w>
内 置</w>
万 余</w>
美 景</w>
烟 雾</w>
新 郎</w>
持 有人</w>
后 市</w>
创 出</w>
八 届</w>
伤 势</w>
4 4
2 80</w>
1 11</w>
老 款</w>
严格 控制</w>
演 愈烈</w>
愈 演愈烈</w>
塑料 袋</w>
同 日</w>
越 大</w>
可 笑</w>
参谋 长</w>
I S</w>
承担 责任</w>
间 断</w>
武装 人员</w>
学术 界</w>
军 委</w>
蓬 勃
经常 性</w>
汇 总</w>
山 水</w>
国 集团</w>
副 产品</w>
私有 化</w>
极 少</w>
复合 材料</w>
招 待</w>
安 定</w>
偏 好</w>
东 帝汶</w>
s p
递 给</w>
沿 海地区</w>
感 应</w>
仍 会</w>
迈 腾</w>
经济 网</w>
惩 治</w>
巴 尼亚</w>
千 里</w>
偏 远</w>
ac k</w>
情 怀</w>
一 页</w>
资 料
滥 用
毁 灭
托 马斯</w>
太 小</w>
防 晒</w>
看 中</w>
如 期</w>
初 步
8 8
盼 望</w>
齐鲁 晚报</w>
之 作</w>
or t
亲 吻</w>
an g
5. 8</w>
醉 驾</w>
证 明书</w>
记 录
班 车</w>
炫 耀</w>
显 微
挪 用</w>
十 届</w>
英国 政府</w>
戴 上</w>
发 病率</w>
一致 性</w>
零 食</w>
能 效</w>
o v</w>
钱 学森</w>
百 名</w>
保险 费</w>
越 发</w>
起 亚</w>
说 完</w>
浪 费
广 义</w>
繁 多</w>
恢复 正常</w>
常务 副</w>
向 东</w>
击 队</w>
过 热</w>
航 道</w>
男 篮</w>
多 伦
Grou pon</w>
贝 克
校 园
市 内</w>
福 布斯</w>
社会 化</w>
滋 生</w>
村 干部</w>
房产 证</w>
中 年</w>
概念 股</w>
原 价</w>
印 制</w>
关 口</w>
跨 越
第 九条</w>
呼吸 道</w>
菜 价</w>
深 情</w>
每 公斤</w>
斯 里
怀 念</w>
北 欧</w>
两国 人民</w>
离 岛</w>
瑞 银</w>
斯 勒</w>
网 帖</w>
紧 张
穆 迪</w>
班 上</w>
李 克
华盛 顿
ol d
省 会</w>
有 的是</w>
有 利
明 日</w>
另 一名</w>
反 感</w>
储 蓄
镇 压</w>
短 片</w>
特 种
滚 动</w>
跌 倒</w>
盛 宴</w>
中 学
难 怪</w>
辣 椒</w>
背 着</w>
股 民</w>
老 挝</w>
治 安
抨 击</w>
截 图</w>
急 速</w>
审 判决</w>
哈 哈</w>
防 洪</w>
焦 炭</w>
测 绘</w>
校 友</w>
标 示</w>
收入 者</w>
对 阵</w>
家 禽</w>
iPhone 4</w>
食品 药品</w>
注 射
亲 近</w>
高 空</w>
闯 入</w>
背 部</w>
1 14</w>
表示 感谢</w>
巴 尔
处 方</w>
逐 一</w>
第五 条</w>
着 眼
百 货
灾 情</w>
正 视</w>
平 和</w>
买 单</w>
Y ou
欧安 会</w>
参 赛
光 亮</w>
下 个月</w>
5 9
该 股</w>
职 称</w>
布莱 尔</w>
共产 主义</w>
光 彩</w>
避 难</w>
苦 恼</w>
紧 紧
确 有</w>
登 机</w>
替 代
曾 多次</w>
暴 露出</w>
打 下</w>
取 胜</w>
不 堪
首 府</w>
空 客</w>
科 大</w>
环保 部</w>
津 巴布
抽 屉</w>
已 婚</w>
尚 有</w>
地下 室</w>
售 卖</w>
共 青
一 职</w>
颖 而出</w>
送 上</w>
脱 颖而出</w>
美利 坚
特 纳</w>
实 事</w>
中 立</w>
理 想
教育 部门</w>
挂 号</w>
乏 味</w>
H 股</w>
系统 性</w>
汲 取</w>
接 过</w>
最 优</w>
抗 拒</w>
使 者</w>
亚美 尼亚</w>
东北 地区</w>
证券 交易</w>
量 产</w>
机 上</w>
套 现</w>
公 然</w>
武 术</w>
星 座</w>
控制 权</w>
圈 子</w>
相 爱</w>
林志 玲</w>
TC L</w>
提 琴</w>
强 降雨</w>
哈 药</w>
中国 证监会</w>
中 风</w>
海 豚</w>
此 番</w>
基 建</w>
e ar
平 板
布 伦
刘 先生</w>
做 人</w>
供 货</w>
中央 党校</w>
示范 区</w>
民 兵</w>
染 色
集 结</w>
津巴布 韦</w>
所 处</w>
实 实</w>
印 证</w>
十 六
莱 斯</w>
看 守
安全 部队</w>
保 住</w>
执 导</w>
氧化 物</w>
双汇 发展</w>
演 化</w>
没 用</w>
地 道</w>
瓦 多</w>
压 器</w>
5. 2</w>
这样 一来</w>
纪念 日</w>
扩 容</w>
张 女士</w>
全 资</w>
两 份</w>
4 6.
博士 学位</w>
那 一刻</w>
财政 局</w>
巴 克</w>
仪 表</w>
5. 4</w>
退 税</w>
瑟 琳</w>
失 眠</w>
因 特网</w>
交 替</w>
树 叶</w>
林 业
天 安
过 失</w>
第一 百
o u</w>
J e
衣 裙</w>
阀 门</w>
百分 比</w>
政 委</w>
小 屋</w>
原子 能
公共 利益</w>
便 利
亚 特</w>
买 车</w>
PD F</w>
胜 地</w>
牛 仔</w>
太 空
外 债</w>
印第 安
出 人
破坏 性</w>
特 里</w>
格 斯</w>
小 到
相 适应</w>
广 西
保 质
两 部</w>
美利坚 合众国</w>
粉 色</w>
示 例</w>
哈尔滨 市</w>
10 7</w>
电 费</w>
流 转</w>
危 地
豆 腐</w>
脱 落</w>
右 侧</w>
人际 关系</w>
赎 回</w>
维吾 尔
穆 罕
开 行</w>
之 久</w>
Ma c</w>
辨 别</w>
螺 旋</w>
浮 出</w>
成 因</w>
国 会
以 至</w>
测 评</w>
欧 佩克</w>
教科 书</w>
乐 团</w>
闪 烁</w>
第五 章</w>
返 乡</w>
社会 公众</w>
归 纳</w>
届 满</w>
定 金</w>
人 行
C F
高利 贷</w>
销 员</w>
重 叠</w>
从 那
六 方
做 个</w>
之 风</w>
P r
A A</w>
譬 如</w>
注 释</w>
方 面
舆 论
耽 误</w>
H TC</w>
车 牌</w>
答 道</w>
大 腿</w>
财政 预算</w>
矿 区</w>
热 衷
毁灭 性</w>
撤 军</w>
开庭 审理</w>
左 侧</w>
威 尼斯</w>
简 便</w>
力 图</w>
六方 会谈</w>
为 宜</w>
丹 丹</w>
萨尔 瓦多</w>
治 病</w>
斯里 兰卡</w>
收 据</w>
市 委常委</w>
大 洋
东道 国</w>
红 网</w>
岸 边</w>
四 次</w>
人民 大会堂</w>
骆 驼</w>
行 李
职 守</w>
开 花</w>
坠 落</w>
专家 组</w>
ht t
er v
血 性</w>
第一 家</w>
沉 淀</w>
硬 盘</w>
文物 局</w>
多 发</w>
哲 学家</w>
二 楼</w>
2 10</w>
繁 华</w>
安 东
国际 原子能
国际原子能 机构</w>
译 成</w>
自 杀
新闻 报道</w>
新 形势
新形势 下</w>
推 断</w>
战 友</w>
雄 厚</w>
门户 网站</w>
生 长
巴勒 斯坦
壮 观</w>
博 鳌</w>
买 来</w>
ar d
197 6</w>
落 网</w>
花 旗
共 鸣</w>
不 成
简 报</w>
看 点</w>
植 被</w>
大 家庭</w>
党和 国家</w>
世 纪
撒 谎</w>
另 一家</w>
说 实话</w>
注 资</w>
根本 原因</w>
很 久
留 住</w>
映 射</w>
天 文</w>
在 校
单 击</w>
风 味</w>
街 区</w>
其 二</w>
不 休</w>
肩 上</w>
混 淆</w>
射 出</w>
19 67</w>
繁 重</w>
直 流</w>
男 孩子</w>
停 放</w>
之 重</w>
有 效率</w>
就 任</w>
凯 瑟琳</w>
潜 逃</w>
海 口市</w>
故 宫
故宫 博物院</w>
手 术
张 力</w>
复 活</w>
处 罚金</w>
严 惩</w>
上 场</w>
转 会</w>
著 名
着 实</w>
卫 星
华 泰</w>
资源 管理</w>
管理 体系</w>
恐 吓</w>
已 然</w>
免 职</w>
一 脸</w>
注 销</w>
勒 斯</w>
务 工</w>
制度 化</w>
见 习</w>
纪检 监察</w>
演 艺</w>
流 血</w>
救 援
并 存</w>
工 序</w>
江 淮</w>
国 标</w>
丽 丝</w>
越来越 少</w>
正 直</w>
合 资企业</w>
伴 有</w>
一 封信</w>
汇 聚</w>
悲 痛</w>
威 士
关注 度</w>
不 绝</w>
第四 条</w>
投 身</w>
季 节性</w>
o m</w>
海 运</w>
流 浪
搞 好</w>
抽 取</w>
分 许</w>
19 60</w>
搅 拌</w>
公 用</w>
重 创</w>
监 护人</w>
客 气</w>
发 来</w>
卡梅 伦</w>
一 两个</w>
驱 动
纳 斯</w>
检 出</w>
心 跳</w>
康 师傅</w>
多 米
雀 巢</w>
防 水</w>
水 手</w>
政策 性</w>
揽 子</w>
探 究</w>
就 诊</w>
外 衣</w>
一 揽子</w>
升 空</w>
借 着</w>
今年 初</w>
警察 局</w>
英 超</w>
突 变</w>
空 运</w>
照 亮</w>
静 静
证券 市场</w>
盲 人</w>
o w</w>
选 区</w>
落 成</w>
腿 部</w>
出 土</w>
贝 卢
警 卫</w>
缺 水</w>
热衷 于</w>
滋 味</w>
渐 进</w>
标 语</w>
喀 布尔</w>
叫 声</w>
到 访</w>
修 养</w>
产业 园</w>
相 声</w>
疟 疾</w>
批 评
股票 市场</w>
日 到</w>
施 压</w>
山 脉</w>
合 理性</w>
B ro
规 约</w>
老 朋友</w>
大 军</w>
地 震
件 人</w>
资金 面</w>
温 州市</w>
民主 化</w>
格 尔</w>
农 夫</w>
htt p</w>
600 0
环球 时报</w>
污水 处理</w>
曲 折</w>
专 人</w>
A L
坚 称</w>
南 站</w>
这 所</w>
直 觉</w>
环境 保护
有所 增加</w>
所 指</w>
哈 马斯</w>
午 节</w>
r pm</w>
阿 联
阿联 酋</w>
电 极</w>
款 额</w>
普遍 性</w>
教 练
册 子</w>
三 类</w>
误 会</w>
索 要</w>
手 势</w>
取得 成功</w>
金字 塔</w>
母 语</w>
风 潮</w>
车 库</w>
终 生</w>
批 量</w>
人 情</w>
车 头</w>
电 信
李 女士</w>
R O
镇 上</w>
端 午节</w>
欢 喜</w>
峡 谷</w>
增 资</w>
动 辄</w>
昏 迷</w>
该 县</w>
玫 瑰
狐 狸</w>
斯 克</w>
心理 学家</w>
大 肆</w>
机 关
造 林</w>
心 血管</w>
坐 标</w>
出 价</w>
顽 强</w>
旭 日</w>
化 验</w>
产 权
5 6
迫切 需要</w>
而 行</w>
租 住</w>
注册 商标</w>
器 具</w>
法律 援助</w>
三 十年</w>
营业 额</w>
新 政府</w>
打 入</w>
交通 拥堵</w>
乏 力</w>
不 难
R E
隔 壁</w>
量 刑</w>
迷 惑</w>
花园 里</w>
控 烟</w>
填 充</w>
解 开</w>
看 守</w>
未 婚
损 毁</w>
附 上</w>
胡 萝卜</w>
考 研</w>
米 歇尔</w>
毛 孔</w>
编 辑
招聘 会</w>
就 餐</w>
基 尼</w>
光 盘</w>
书 记
贩 子</w>
沈 阳市</w>
开 征</w>
财政 政策</w>
小 姑娘</w>
顾 虑</w>
金融 中心</w>
郭 德
财 经
要 花</w>
自 来水</w>
考 古
穆罕 默德</w>
盟 委员会</w>
田 野</w>
欧 盟委员会</w>
及 时
危地 马拉</w>
侵 略
on g</w>
197 5</w>
营业 部</w>
相 近</w>
生产 率</w>
潜 伏</w>
护 肤</w>
总体 规划</w>
地铁 站</w>
化学 物质</w>
I E
纯 洁</w>
无 一
全 日
界 人士</w>
清 水</w>
出 走</w>
之 意</w>
al l
5. 3</w>
较 前</w>
虽 说</w>
第一 款</w>
提 早</w>
警 戒</w>
洛 阳</w>
地质 灾害</w>
路 费</w>
跌 至</w>
游 泳池</w>
深 海</w>
戴 尔</w>
心 声</w>
建 行</w>
高 山</w>
看守 所</w>
方 言</w>
小 雨</w>
中 东部</w>
一个 多</w>
财政 拨款</w>
编 织</w>
物 理学</w>
指 甲</w>
奥林匹 克
内 政</w>
不 景气</w>
三 方</w>
翡 翠</w>
日 军</w>
征 聘</w>
否 是</w>
4. 4</w>
连 线</w>
料 到</w>
扶贫 开发</w>
世界 级</w>
童 话</w>
暖 和</w>
新 一届</w>
不 知情</w>
W or
限 内</w>
运 载
轮 椅</w>
离 子
盛 会</w>
对 华</w>
司法 部</w>
竞争 性</w>
抬 起</w>
只 用</w>
出 击</w>
高 层
金 九
逗 留</w>
没 见</w>
是 否是</w>
提出 申请</w>
保 暖</w>
黑 洞</w>
资金 来源</w>
该 省</w>
蚂 蚁</w>
意 志
应 是</w>
吸 入</w>
陈 列</w>
跨越 式</w>
精 简</w>
眼 部</w>
技术 性</w>
打 架</w>
常 会</w>
市场 占有率</w>
工艺 品</w>
阿尔 巴尼亚</w>
金正 日</w>
调 味
科 尔</w>
甲 板</w>
溶 剂</w>
之 子</w>
T r
B 2
议 者</w>
居 家</w>
导 报</w>
长 三角</w>
银 河</w>
成交 价</w>
南 克</w>
兼 容</w>
全 天</w>
催 生</w>
u m</w>
Inter n
3 30</w>
老 总</w>
税务 局</w>
瑞 士
出 卖</w>
冰 冷</w>
假 冒
龙头 企业</w>
餐 具</w>
在 短期内</w>
呕 吐</w>
中 亚</w>
P L
让 利</w>
煤 气</w>
交 出</w>
林 肯</w>
既 定</w>
当今 世界</w>
州 区</w>
历 年</w>
体 外</w>
不 大
B ank</w>
那 段</w>
输 出
清 明</w>
5. 6</w>
走 来</w>
水 产</w>
抗 日</w>
几内 亚</w>
侵 占</w>
专家 建议</w>
规模 化</w>
自治 县</w>
皮 肤
有 种</w>
晓 得</w>
心 想</w>
中 途</w>
申请 者</w>
潜 水</w>
欢 迎
截 然不同</w>
余 家</w>
为人 知</w>
静 下来</w>
霉 素</w>
篇 章</w>
站 立</w>
田 间</w>
店 面</w>
型 期</w>
吃 掉</w>
负 载</w>
窗 帘</w>
海 航</w>
总 干事</w>
微 波
减 产</w>
债 务
G B</w>
首 要
路 程</w>
航天 局</w>
斯 加</w>
宣 誓</w>
多伦 多</w>
中 考</w>
首 创</w>
磁 场</w>
电 场</w>
理 所
格 拉</w>
山 羊</w>
哈 佛</w>
亟 待</w>
中国 民航</w>
不 平</w>
下 巴</w>
转 型期</w>
美 瑞</w>
底 价</w>
紧 接着</w>
巧 合</w>
基 石</w>
体 面</w>
不用 说</w>
风 能</w>
新 近</w>
弗兰 克</w>
妊 娠</w>
声 波</w>
售 后</w>
中 产阶级</w>
监 护</w>
期 限内</w>
分 队</w>
防 线</w>
特 地</w>
大 伟</w>
塔吉 克斯坦</w>
凯 美瑞</w>
侵 入</w>
需 品</w>
谋 划</w>
棒 球</w>
印 花</w>
书 院</w>
蓬勃 发展</w>
粉 碎</w>
校 区</w>
曝 出</w>
多 天</w>
假冒 伪劣</w>
过 节</w>
波 士
开 列</w>
发 音</w>
友 善</w>
藏 品</w>
积极 开展</w>
李 亚
月 薪</w>
小 额</w>
名 将</w>
博士 生</w>
半 球</w>
之 力</w>
搞 笑</w>
居民 收入</w>
威 廉
人 称</w>
迈 向</w>
行政 区域</w>
受 此</w>
长 途</w>
遗 嘱</w>
血 燕</w>
社会 科学</w>
殡 葬</w>
地 被</w>
从 句</w>
降 级</w>
三 倍</w>
一 如
9. 5</w>
日 向</w>
工 夫</w>
不 怎么</w>
M IN
鸡 肉</w>
狂 欢</w>
橙 色</w>
废 弃
里 奇</w>
激 光
斯科 尼</w>
感 人</w>
家 用
顺 畅</w>
近 距离</w>
管理 处</w>
气 流</w>
发 热</w>
参加 者</w>
遵 照</w>
疲 倦</w>
流 泪</w>
无 罪</w>
夹 克</w>
地理 位置</w>
助 长</w>
加 载</w>
金九 银</w>
站 台</w>
抗 体</w>
建设 部</w>
印 件</w>
雷 诺</w>
此 地</w>
补 助
敏 捷</w>
加 权</w>
停车 费</w>
余 年</w>
中东 地区</w>
阳 刚</w>
瀑 布</w>
族 裔</w>
天花 板</w>
修 补</w>
人 意</w>
观 设计</w>
枪 击</w>
月 度</w>
尼 克
地方 性</w>
胃 口</w>
特 遣队</w>
星 光</w>
抗 震
小 船</w>
大 叫</w>
评 分</w>
菲 尔</w>
浸 泡</w>
模 糊
户 外
en d
M M</w>
一 端</w>
一 楼</w>
老 年
每 晚</w>
极 高</w>
意 想不到</w>
屋 子里</w>
十五 日</w>
精 明</w>
甲 醛</w>
一 分钱</w>
装 满</w>
钢 厂</w>
片 区</w>
灭 火</w>
时 捷</w>
无 不</w>
并 重</w>
风 云</w>
造 价</w>
警 务</w>
蕾 丝</w>
苛 刻</w>
背 叛</w>
漫 步</w>
打 球</w>
C o</w>
顾 及</w>
郭德 纲</w>
辩 解</w>
考 点</w>
积极 探索</w>
潜 能</w>
攻 击
巴 拿
B e
遗 弃</w>
标 杆</w>
尼 加拉
大 通</w>
创 纪录</w>
冲 击
保 时捷</w>
贸 市场</w>
豪 门</w>
记忆 力</w>
袜 子</w>
把 关</w>
承 受
开 场</w>
套 装</w>
家 辉</w>
区 市</w>
保险 业</w>
an g</w>
5 8
门 徒</w>
基 调</w>
一如 既往</w>
8. 8</w>
近 东</w>
有 害
拉 面</w>
很 多年</w>
商 谈</w>
友 情</w>
住 院
西 欧</w>
型 基金</w>
吉 尔</w>
蓬 莱</w>
煤 价</w>
失 利</w>
ol d</w>
1 19</w>
主 人
有 线
尼加拉 瓜</w>
复 原</w>
五 角
不 菲</w>
长 效
长效 机制</w>
谋 取</w>
桌 面</w>
手 脚</w>
SO HO</w>
3. 9</w>
贸易 顺差</w>
奖 牌</w>
上 汽</w>
供 求</w>
6. 2</w>
19 50</w>
车 内</w>
拍卖 会</w>
打 个</w>
急 忙</w>
呵 护</w>
匿 名</w>
I t</w>
用 电量</w>
时 而</w>
无 缘</w>
得 来</w>
主管 机关</w>
首 领</w>
重 回</w>
朝鲜 半岛</w>
奥 尔
兴 业</w>
L uc
购 入</w>
羽毛 球</w>
张 建
安 宁</w>
双 赢</w>
住房 价格</w>
一 笑</w>
Ch ina</w>
金 陵</w>
输 电</w>
脑 子</w>
统计 数字</w>
无 权</w>
文 汇报</w>
教育 资源</w>
好 比</w>
围 墙</w>
同 居</w>
停 工</w>
赴 美</w>
穿 梭</w>
授 课</w>
多 变</w>
多 亿元</w>
和 服</w>
十 四
靠 着</w>
矿 物质</w>
本科 生</w>
建筑 师</w>
别 忘
Grou p</w>
6. 3</w>
17 00</w>
铺 设</w>
逆 差</w>
未 成年</w>
总 人口</w>
奥 运
减 低</w>
不负 责任</w>
ar t</w>
防 腐
选 址</w>
誓 言</w>
省 区市</w>
性 行为</w>
实际 行动</w>
大 类</w>
大 型
召 唤</w>
血 清</w>
卫生 署</w>
重 力</w>
缔 约</w>
结 实</w>
服务 费</w>
推 开</w>
当 务
女 方</w>
央视 春晚</w>
凤凰 网</w>
先 例</w>
万 物</w>
该 区</w>
视 频
第七 条</w>
欠 缺</w>
核 辐射</w>
当务 之急</w>
关 掉</w>
两 套</w>
5. 1</w>
贪 官</w>
衣 着</w>
浪费 时间</w>
投 降</w>
打 响</w>
千 克</w>
黑 夜</w>
西 站</w>
章 制度</w>
悬 念</w>
高 新区</w>
洞 穴</w>
屏 障</w>
经济 性</w>
民政 局</w>
构 筑</w>
微波 炉</w>
万 家</w>
明 知</w>
接 力</w>
信 号
随 处
随处 可见</w>
疏 导</w>
人口 普查</w>
长沙 市</w>
行政 处分</w>
放 慢</w>
头 来</w>
共同 社</w>
代 号</w>
il l</w>
非 盟</w>
关 乎</w>
花 生</w>
确 诊</w>
港 澳
开 水</w>
开 机</w>
天 窗</w>
不知 不觉</w>
Ad d</w>
议 事</w>
老 兵</w>
暗 杀</w>
古 典
公 元</w>
个人 电脑</w>
万 件</w>
致 敬</w>
核心 技术</w>
缴 付</w>
牢 记</w>
热 钱</w>
放 着</w>
中 投</w>
雅 各</w>
透 支</w>
近 似</w>
贫 富
筹 建</w>
学 界</w>
善 款</w>
九 成</w>
I M</w>
重 工</w>
用 手</w>
废弃 物</w>
募 捐</w>
做 梦</w>
黑 社会</w>
追 加</w>
规 章制度</w>
社 长</w>
电力 供应</w>
源 泉</w>
参 观者</w>
r os
白 云
心 病</w>
受贿 罪</w>
别忘 了</w>
陈 代谢</w>
新 陈代谢</w>
怎 样
家庭 暴力</w>
围 巾</w>
两 成</w>
装 机
纪念 品</w>
知 情人</w>
此 人</w>
根 据
无 私</w>
大气 层</w>
共 振</w>
饱 满</w>
财政 赤字</w>
宗教 信仰</w>
大 有
及 早</w>
别 克</w>
难 关</w>
酱 油</w>
省 委书记</w>
敏 锐</w>
工 行</w>
纽 带</w>
次 世界大战</w>
奔 跑</w>
草 莓</w>
玉 米
富 力</w>
4. 7</w>
重 灾区</w>
架 子</w>
乙 方</w>
en n
市 面上</w>
尖 叫</w>
劳 斯</w>
触 动</w>
机 能</w>
山 路</w>
孟 买</w>
基础 教育</w>
6. 4</w>
非常 感谢</w>
英 特尔</w>
家 门口</w>
Q u
高级 官员</w>
订 阅</w>
积 雪</w>
有 余</w>
感 恩
必 需品</w>
罗 伯
怎样 才能</w>
对 准</w>
诚 挚</w>
考 评</w>
税 制</w>
年 终</w>
还 应</w>
资产 重组</w>
查 理</w>
收 报</w>
趣 味</w>
生 计</w>
来 文</w>
早 晚</w>
并 非
年 产</w>
小 子</w>
助 力</w>
之 以
不容 乐观</w>
转 播</w>
第二 位</w>
楼 面</w>
抽 出</w>
一 心</w>
老 乡</w>
护 肤
首 套</w>
纪念 碑</w>
展 厅</w>
小 规模</w>
人 文
番 茄</w>
瑜 伽</w>
时 起</w>
室 内
不 在</w>
三角 洲</w>
A c
运 算</w>
热 衷</w>
期 相比</w>
昆 明市</w>
同 期相比</w>
调 配</w>
生命 危险</w>
平 安
追 捕</w>
病 床</w>
物业 公司</w>
入 世</w>
侦 探</w>
署 名</w>
哈佛 大学</w>
兵 力</w>
4 S</w>
背 面</w>
别 说</w>
一 团</w>
12 4
隆 重</w>
足 轻重</w>
往 事</w>
喷 发</w>
o d</w>
钻 井</w>
自 在</w>
科技 部</w>
改 成</w>
开 工
客户 服务</w>
勒 索</w>
保质 期</w>
不 应
on e</w>
运 人</w>
第 八条</w>
福 祉</w>
淡 定</w>
来 得
提供 商</w>
孙 女</w>
商品 交易所</w>
1. 0</w>
音 响</w>
分 数
令人 满意</w>
不 由
税务 机关</w>
抗 日
坦 桑
入 股</w>
亚 特兰
W i
翼 翼</w>
热点 问题</w>
EC FA</w>
铅 笔</w>
受 限</w>
交 由</w>
轻轻 地</w>
洛 斯</w>
标 本</w>
勇 于</w>
E S
柠 檬
逃 逸</w>
肺 癌</w>
数 个</w>
各个 方面</w>
友 人</w>
中 广
无 所谓</w>
挤 出</w>
彩 虹</w>
入 场</w>
储 备
五 星级</w>
中央 气象台</w>
In c</w>
道 琼斯</w>
事务 处</w>
中 低收入</w>
路 线图</w>
歉 意</w>
木 马</w>
一 十</w>
通用 汽车</w>
远 远
第二 年</w>
华 中
督 办</w>
本 领</w>
打 招呼</w>
巴 塞
导 航
化 成</w>
预 留</w>
结 尾</w>
水 池</w>
地 缘</w>
初 一</w>
从 严</w>
马 里
英 雄
用 量</w>
天 桥</w>
党政 机关</w>
阻 挠</w>
配 售</w>
这 幅</w>
装 载</w>
美国 市场</w>
操作 性</w>
9 6
1 35</w>
苦 苦</w>
离 岸</w>
氨 酸</w>
居民 家庭</w>
士 们</w>
分析 方法</w>
营养 不良</w>
洗 净</w>
有 点儿</w>
小 册子</w>
千 万元</w>
关键 时刻</w>
首 场</w>
球 赛</w>
保 卫
抗震 救灾</w>
密集 型</w>
完整 性</w>
口 音</w>
十 分钟</w>
入 党</w>
很 漂亮</w>
大 户</w>
围 着</w>
黑 兰</w>
连 衣裙</w>
梦 幻</w>
显微 镜</w>
山 坡</w>
学 年</w>
地 层</w>
面 条</w>
链 家</w>
自然 界</w>
职务 犯罪</w>
小心 翼翼</w>
分 销</w>
做 客</w>
不 介意</w>
驻 华
核 事故</w>
更 深</w>
局 限于</w>
脂肪 酸</w>
德 黑兰</w>
一 案</w>
4. 9</w>
趋 向</w>
肯 尼迪</w>
民 党</w>
切 身
生 育
环保 部门</w>
办 好</w>
一 回</w>
犯罪 案件</w>
更 为重要</w>
曙 光</w>
午 后</w>
中 粮</w>
社会 科学院</w>
海 伦</w>
无 期徒刑</w>
太 快</w>
股份 制</w>
海 南
实 证</w>
动 工</w>
共和 党人</w>
思 索</w>
多 出</w>
堆 积</w>
一 堂</w>
身 分</w>
挑 衅</w>
侵 袭</w>
传 动</w>
上 加
马 铃
艺术 节</w>
肾 脏</w>
新闻 界</w>
县 市</w>
中 有
两 难</w>
T e
那 座</w>
请 来</w>
特 种</w>
炸 药</w>
游 玩</w>
受益 人</w>
中国 台湾</w>
质 教育</w>
该 剧</w>
素 质教育</w>
筹 备
收 视
奶 油</w>
经 合
经合 组织</w>
管 控</w>
相 邻</w>
星 人</w>
实 事
实事 求是</w>
事实 证明</w>
丢 掉</w>
老 爸</w>
稳 妥</w>
有 色</w>
断 层</w>
手 腕</w>
八 大</w>
红 旗</w>
就 近</w>
字符 串</w>
回 流</w>
内 有</w>
战 绩</w>
另 一方</w>
文件 夹</w>
心 头</w>
坦桑 尼亚</w>
切实 加强</w>
五 六
一 惊</w>
蓄 电池</w>
缓 刑</w>
综 指</w>
班 长</w>
照 看</w>
摊 位</w>
复 印件</w>
北 极
一大 堆</w>
o s</w>
珊 瑚</w>
宏 伟</w>
化 疗</w>
丽 莎</w>
P a
甲 方</w>
宣 扬</w>
迷 信</w>
病 理</w>
极 致</w>
指 纹</w>
我 刚</w>
发言 者</w>
舆 情</w>
纵 横</w>
洗 钱</w>
字 号</w>
十 几年</w>
全国 人民代表大会常务委员会</w>
o x</w>
酸 性</w>
坦 诚</w>
合 一</w>
乱 收费</w>
4. 1</w>
197 4</w>
评论 家</w>
精 子</w>
河 边</w>
放 射</w>
军 用</w>
买 卖
不 胜
封 建</w>
C BD</w>
马 尔</w>
湾 仔</w>
三 农</w>
财 税</w>
航空 器</w>
检察 长</w>
伊 始</w>
诺 言</w>
落 入</w>
肢 体</w>
编 译</w>
歌 剧</w>
单 调</w>
兼 任</w>
入 户</w>
粮食 安全</w>
深 陷</w>
效 仿</w>
iP ad
远 高于</w>
菲 利
来 时</w>
推 导</w>
抢 眼</w>
定 律</w>
加 薪</w>
M c
阿森 纳</w>
着眼 于</w>
王 晓
爸 爸
爸爸 妈妈</w>
智能 化</w>
年 头</w>
完 好</w>
基础 性</w>
薪 资</w>
网络 安全</w>
巴塞 罗
华 文</w>
八 号</w>
先 决
充分 考虑</w>
报 业</w>
大 麻</w>
交 响
4 7.
铸 造</w>
解放 军
解 体</w>
继 而</w>
跳 跃</w>
消防 安全</w>
心理 健康</w>
工程 院</w>
奇 异</w>
大 省</w>
阿卜 杜
河 南
有 空</w>
摸 索</w>
在此 期间</w>
华 东</w>
会 馆</w>
伊 利</w>
TV B</w>
计 入</w>
表达 式</w>
自 卫队</w>
机 电</w>
断 定</w>
头 号</w>
为 生</w>
马铃 薯</w>
风 尚</w>
重 症</w>
督 查</w>
冲 洗</w>
光 大</w>
伊斯兰 教</w>
主 城区</w>
中 型</w>
造 福</w>
贝卢 斯科尼</w>
至 上</w>
米 饭</w>
巴 林</w>
先决 条件</w>
五 是</w>
一 季</w>
预 告</w>
腰 带</w>
经 典
清 明
求 学</w>
衷 心</w>
九 个</w>
莫 过于</w>
秦 皇
每 逢</w>
来 不及</w>
无 尽</w>
推 移</w>
宽 恕</w>
向 导</w>
各 区</w>
傻 瓜</w>
ation al</w>
an t
进 修</w>
象 征
节 前</w>
美 容
缓 缓</w>
第一 部</w>
外 币</w>
先 驱</w>
做 工</w>
牵 手</w>
布 拉</w>
阶 梯</w>
滥用 职权</w>
暴 雪</w>
抢 劫
忧 郁</w>
L G</w>
这 门</w>
搁 置</w>
开放 式</w>
克 莱</w>
防腐 剂</w>
言 人</w>
平 壤</w>
大大 的</w>
D e
这 颗</w>
纳 德</w>
甲 状
洋 葱</w>
时 隔</w>
惊 艳</w>
从 头
抗 议者</w>
单 品</w>
事务 局</w>
容 性</w>
呼 应</w>
衰 竭</w>
获 救</w>
多 半</w>
增长 点</w>
神经 网络</w>
物 件</w>
少 见</w>
区 委</w>
避 孕
着 眼</w>
民族 自治</w>
数学 模型</w>
忽 悠</w>
re s
D av
缔 造</w>
提供 者</w>
打 通</w>
感恩 节</w>
工作 效率</w>
多 款</w>
ou n
问 世</w>
起 诉
范 例</w>
综合 治理</w>
第一 年</w>
广播 电视</w>
并不 知道</w>
年 仅</w>
公 用
代 言人</w>
高 分</w>
放 过</w>
恋 人</w>
忠 告</w>
周 转</w>
再 也
催 化</w>
余 个</w>
人 以</w>
不 经
荒 谬</w>
疏 忽</w>
公 职人员</w>
践 行</w>
电 商</w>
瑕 疵</w>
太 原市</w>
基本 法</w>
氨 基
数 十年</w>
收视 率</w>
护肤 品</w>
老 龄</w>
照 样</w>
之 夜</w>
竞 价</w>
爱 国
定 论</w>
6 5
银 河
翻 新</w>
安 抚</w>
动 乱</w>
冷 淡</w>
亚历 山大</w>
中华人民 共和
饮 品</w>
第十 四条</w>
空 中
心 意</w>
划 算</w>
全 心
何 以</w>
轰 动</w>
西 门
被 控</w>
脚 本</w>
柴 油
无 非</w>
睫 毛</w>
校 正</w>
交易 员</w>
为 难</w>
高 楼</w>
短 线</w>
画 作</w>
居 委会</w>
驱 车</w>
野 心</w>
稀 少</w>
特 勒</w>
挑 剔</w>
地 盘</w>
吉 他</w>
力 军</w>
然 大
东 区</w>
资 银行</w>
普通 话</w>
吉尔 吉
医务 人员</w>
为 名</w>
与 时
脑 部</w>
麻 醉</w>
食 物
楚 网</w>
未 见</w>
打 印机</w>
假 药</w>
说 不
纵 向</w>
希 望
宁 可</w>
9 9
美 美</w>
病 菌</w>
王 妃</w>
武 侠</w>
接 收
戴 维</w>
工 具
五 天</w>
于 本周</w>
不太 好</w>
暂行 办法</w>
建筑 工程</w>
五 次</w>
乡 下</w>
th e</w>
选 中</w>
抬 高</w>
抉 择</w>
高 雅</w>
贫困 人口</w>
涂 层</w>
曼 哈
振 华</w>
戏剧 性</w>
去 掉</w>
主 动
谍 照</w>
税务 总局</w>
片 刻</w>
时 才</w>
息 息
信托 公司</w>
走 强</w>
管理 水平</w>
滨 海</w>
宣 读</w>
各 异</w>
前 排</w>
一 说</w>
序 言</w>
随身 携带</w>
选 秀</w>
这 么
聚 合物</w>
纪 律
竞争 者</w>
科 索
斯洛 伐
接 手</w>
仓 位</w>
默 默</w>
采取 有效</w>
搞 定</w>
国际 性</w>
口 罩</w>
农 行</w>
亚 冠</w>
高中 生</w>
逃 亡</w>
开工 率</w>
头 皮</w>
停 顿</w>
书 法
三 亚
颤 抖</w>
房 主</w>
一 百</w>
C l
集 成
而 不
结 冰</w>
爱 德华</w>
煽 动</w>
无 形</w>
大 笔</w>
不 言
一 想</w>
4 500</w>
爱 情
逃 生</w>
紧 迫
湖 区</w>
新 台币</w>
布 满</w>
太 久</w>
a h
调 低</w>
计 价</w>
荆 楚网</w>
第十 条</w>
写 入</w>
一次 次</w>
继承 人</w>
厚 的</w>
厚 厚的</w>
南 亚</w>
农 田
重 塑</w>
拟 任</w>
惊 叹</w>
制片 人</w>
亚 硝
1 18</w>
驾 照</w>
遗 失</w>
点 缀</w>
嘉 玲</w>
卫生 部门</w>
作 假</w>
说 服
援 建</w>
拥 护</w>
代 办</w>
高速 铁路</w>
说 不定</w>
硕 士学位</w>
炎 症</w>
并 不多</w>
余 下</w>
争 相</w>
p er
蒂 斯</w>
耗 能</w>
照 相机</w>
法 拉
信息 中心</w>
规 程</w>
窒 息</w>
润滑 油</w>
水 务</w>
始终 保持</w>
喜 庆</w>
充分 体现</w>
MIN I</w>
量 子</w>
而 言之</w>
经济 运行</w>
科索 沃</w>
有 钱
m e</w>
P O
E l
获 批</w>
早 年</w>
实 效</w>
大 山</w>
不 慎</w>
一切 都是</w>
这 首</w>
脑 子里</w>
洪 波</w>
本 项</w>
惠 州</w>
小 客车</w>
安全 法</w>
刑事 案件</w>
亿 万
管理 模式</w>
宫 廷</w>
出口 商</w>
鲜 活</w>
退休 金</w>
辨 认</w>
萨 特</w>
结 晶</w>
献 上</w>
波士 顿</w>
扎 伊尔</w>
f or
对 话
纠 缠</w>
房 山</w>
开 阔</w>
单 车</w>
世 博</w>
4 8.
试 用</w>
焦 煤</w>
影视 剧</w>
文 科</w>
举 行
万 分</w>
面包 车</w>
溯 到</w>
放 在
执 教</w>
成 就
十 七</w>
B er
老 旧</w>
流 利</w>
明确 要求</w>
手 头</w>
多种 形式</w>
厚 重</w>
党和 政府</w>
低 点</w>
拉 手</w>
抛 出</w>
宾 客</w>
卡 罗</w>
划 拨</w>
分数 线</w>
习惯 于</w>
不 料</w>
外 地人</w>
S ch
长 春市</w>
逃 走</w>
机 车</w>
宫 殿</w>
印度 洋</w>
克 拉
一 审判决</w>
现实 意义</w>
指 标
归 属于</w>
墙 面</w>
位 移</w>
一 斤</w>
某 一</w>
屠 宰</w>
事故 现场</w>
领 到</w>
过 滤
越 高</w>
战 队</w>
兰 人</w>
臀 部</w>
温 度
活 性
捕 鱼</w>
天 主教</w>
骑 车</w>
耀 眼</w>
独立 性</w>
海 中</w>
时 有</w>
扮 演
出 新</w>
光 环</w>
倾 倒</w>
铁 龙</w>
车 里</w>
聚 合</w>
离 家</w>
每 到</w>
同 业</w>
变 频</w>
关键 性</w>
折 叠</w>
戈 尔</w>
尊 贵</w>
大幅 提高</w>
会 令</w>
九 龙
主 线</w>
两 起</w>
M S
镶 嵌</w>
彼 得
刷 卡</w>
光 源</w>
转 运</w>
白 云</w>
爆 破</w>
欧 阳</w>
月 生</w>
反 垄断</w>
全日 制</w>
轮 毂</w>
足 率</w>
无 处
搬 家</w>
德 国人</w>
山 地</w>
城 墙</w>
咎 于</w>
佳 节</w>
何 在</w>
从 容</w>
交易 市场</w>
黑 莓</w>
纽约 市</w>
复 发</w>
在 世界
在世界 上</w>
发生 爆炸</w>
节 食</w>
胰 岛
楼 价</w>
斥 资</w>
公益 事业</w>
保 育</w>
配 租</w>
本 性</w>
咆 哮</w>
充 足率</w>
一 国</w>
看 一看</w>
热 烈
棵 树</w>
方便 面</w>
和 谈</w>
o y
1 31</w>
诟 病</w>
沃 斯</w>
杀 伤
最 差</w>
归 咎于</w>
四 天</w>
剖 析</w>
先 天性</w>
亚 运会</w>
P ro
近几 年来</w>
蜘 蛛</w>
新 快报</w>
拉 脱
悄 悄
小 家电</w>
安德 鲁</w>
国 道</w>
免 得</w>
义 工</w>
业 余
西 城区</w>
相 似
救 出</w>
售 货
F D
而 上</w>
红 灯</w>
巡 回
培 养
售楼 处</w>
合 肥
另 一半</w>
会 以</w>
买 不起</w>
附加 值</w>
视 作</w>
播 放
招 投标</w>
局 地</w>
塔 拉</w>
回 扣</w>
北 汽</w>
第十 三条</w>
直 销</w>
登 山</w>
握 住</w>
层 空间</w>
多 来</w>
外 层空间</w>
中 行</w>
2 70</w>
风 头</w>
赫 尔
莎 拉</w>
花 卉</w>
朴 素</w>
拉脱 维亚</w>
后 人</w>
初 选</w>
兽 医</w>
资源 配置</w>
落 到</w>
聚 力</w>
第十 九条</w>
定 居
主 妇</w>
迪 斯
赢 家</w>
绝 非</w>
找 回</w>
周期 性</w>
u g
过渡 时期</w>
犯罪 事实</w>
恶 魔</w>
家 族
大 坝</w>
不 信</w>
6. 8</w>
粗 暴</w>
稀 释</w>
更 名</w>
合 唱</w>
以 东</w>
7 7
致 歉</w>
结 合
由此 可见</w>
契 税</w>
出 货</w>
冰 川</w>
五 分钟</w>
一 两
询 价</w>
装机 容量</w>
罚 单</w>
结 识</w>
救援 队</w>
装 运</w>
裂 纹</w>
第八 届</w>
摄 取</w>
怪 物</w>
宝 座</w>
夏 令
圣诞 老人</w>
发 出
17 5</w>
物 流
染色 体</w>
遗 迹</w>
电子 地图</w>
森林 公园</w>
成本 上升</w>
各 人</w>
d on</w>
驱 使</w>
院 线</w>
阻 塞</w>
血 统</w>
菠 菜</w>
玩 游戏</w>
燃 料
火 花</w>
比 增加</w>
武装 冲突</w>
武器 装备</w>
格 林
同 比增加</w>
交 火</w>
矫 正</w>
电 磁</w>
热 情
不应 求</w>
S c
首 脑
长 发</w>
菜 农</w>
英 勇</w>
舒适 性</w>
消费 量</w>
形 式
帅 气</w>
印 有</w>
供 不应求</w>
该 书</w>
租 车</w>
男 方</w>
演 艺
每 斤</w>
探 望</w>
师 大</w>
降 解</w>
踏 实</w>
西 区</w>
海 市</w>
平 等
字 眼</w>
偏 向</w>
iv ers
深 水</w>
搬 进</w>
帝 国主义</w>
产 后</w>
镀 铬</w>
红 线</w>
核心 区</w>
投资 额</w>
情 绪
大 体</w>
五 日</w>
为 数
退 房</w>
解放 日报</w>
政治 部</w>
实 务</w>
反 倒</w>
P C
双 腿</w>
免税 店</w>
交 织</w>
乙 醇</w>
专门 知识</w>
下 放</w>
高 素质</w>
限 性</w>
遴 选</w>
试 题</w>
花 瓶</w>
本 合同</w>
无 声</w>
控 股
元 宵</w>
骑 马</w>
贝 利</w>
第十 一条</w>
爱 国主义</w>
息息 相关</w>
古 迹</w>
入 学
下 手</w>
as h
1 12</w>
雷 特</w>
通 航</w>
行 进</w>
特 工</w>
天 体</w>
十二 个</w>
加 尔</w>
三 层</w>
一 书</w>
炮 弹</w>
消 耗
变 质</w>
于 民</w>
迷 失</w>
第四 个</w>
房 贷
意 外
名 家</w>
1 13</w>
页 岩</w>
阿 姆
体 温</w>
不法 分子</w>
B ar
铝 合金</w>
董 事局</w>
电话 会议</w>
用 处</w>
折 射</w>
承 租
农 家</w>
长 裙</w>
进 货</w>
车 速</w>
社会 学</w>
一 班</w>
该 部</w>
萨 拉
种 群</w>
澳门 特别行政区</w>
民生 银行</w>
探 险</w>
委 屈</w>
胜 出</w>
理所 当然</w>
服 刑</w>
昌 平</w>
俱 进</w>
粮 价</w>
撤 退</w>
换 乘</w>
土地 利用</w>
保障 部</w>
人 流</w>
不容 忽视</w>
七 日</w>
9 0
财政 部门</w>
组 团</w>
百 思
病 毒
灾 难
派 驻</w>
来 电</w>
最 深</w>
高 三</w>
融 资
牟 利</w>
消 协</w>
正 要</w>
新 开工</w>
周 到</w>
陪审 团</w>
精 通</w>
堕 落</w>
高 风险</w>
道 具</w>
补 给</w>
瓦 尔</w>
尾 声</w>
人行 道</w>
骗 局</w>
肺 炎</w>
网 签</w>
上 榜</w>
盈 余</w>
气 囊</w>
紊 乱</w>
时 钟</w>
归 案</w>
广 发</w>
吉 祥</w>
压缩 机</w>
动画 片</w>
中信 证券</w>
过 敏
证券 交易所</w>
者 之间</w>
爸 妈</w>
爱 美</w>
提 炼</w>
批 示</w>
孤 单</w>
受 骗</w>
专业 知识</w>
迁 徙</w>
日本 首相</w>
地 基</w>
一 夜
领 军</w>
生 化</w>
某种 意义</w>
粉 红色</w>
皇 宫</w>
环境保护 部</w>
新 年
F i</w>
起 着</w>
西 方
莎 士
莎士 比亚</w>
第二 阶段</w>
猎 人</w>
洗 牌</w>
最新 消息</w>
总 务</w>
回忆 起</w>
保 全</w>
主 业</w>
世 间</w>
H ar
长 安
解 脱</w>
水 产品</w>
平板 电视</w>
可 取</w>
取 暖</w>
出 错</w>
5. 7</w>
巡 视</w>
奶 牛</w>
郁 闷</w>
蘑 菇</w>
斯洛伐 克</w>
公共 安全</w>
会 后</w>
一 举
被 称作</w>
早 饭</w>
开 往</w>
变 形
副 总</w>
3 0.
金 斯</w>
解 密</w>
西 宁</w>
不可 否认</w>
镇 政府</w>
第五 次</w>
破 灭</w>
根本 性</w>
有限 元</w>
房 门</w>
性 病</w>
小 儿</w>
护 送</w>
载 荷</w>
说服 力</w>
荒 唐</w>
聪 明
看 清</w>
在 生活
价值 体系</w>
五角 大楼</w>
欣 喜</w>
振 奋</w>
奔 波</w>
农 牧民</w>
儿童 医院</w>
信 服</w>
丢 弃</w>
es s
这 艘</w>
申 领</w>
民意 调查</w>
查 封</w>
弥 漫</w>
饥 荒</w>
雪 铁龙</w>
胰岛 素</w>
主 板</w>
进 场</w>
来 宾</w>
愈 来
小 伙</w>
写 给</w>
关键 问题</w>
亲 手</w>
小 学
专利 权</w>
该 死</w>
存 有</w>
丝 绸</w>
私 自</w>
大肠 杆菌</w>
外 观设计</w>
一 动</w>
脑 筋</w>
电 能</w>
服务 水平</w>
换 来</w>
伦 斯</w>
与时 俱进</w>
语 境</w>
晚 年</w>
扎 根</w>
夜 饭</w>
国 庆
亮 度</w>
2 25</w>
适应 性</w>
有 量</w>
建 军</w>
庄 市</w>
亚 当</w>
P h
钓 鱼
金 星</w>
造 出</w>
破 损</w>
每 盎司</w>
壁 画</w>
发 文</w>
伤 残</w>
不 理</w>
饺 子</w>
进 气</w>
莱 德</w>
延 缓</w>
大 洋</w>
前 妻</w>
再 三</w>
关键 因素</w>
全 意</w>
副 所长</w>
剥 离</w>
6 8
食 欲</w>
连 夜</w>
满 足
收 看</w>
下 水</w>
as s
3 15</w>
罗 夫</w>
戴 维斯</w>
剥 削</w>
制 冷</w>
静 止</w>
第四十 九届</w>
流 逝</w>
无 忧</w>
批 准
微 微</w>
低 头</w>
ic k</w>
松 下</w>
大 意</w>
国 学</w>
闪 亮</w>
母 舰</w>
懒 惰</w>
惧 怕</w>
倒 下</w>
互 联</w>
Joh n</w>
第 九</w>
变 数</w>
F r
马 耳
结 核</w>
真 是
年 夜饭</w>
冷 清</w>
中 以</w>
i st
鼓 掌</w>
运 到</w>
赔偿 金</w>
负责 同志</w>
层 楼</w>
容 许</w>
全 职</w>
之 大</w>
主管 人员</w>
闸 蟹</w>
货 架</w>
翻 番</w>
受益 者</w>
轻 型</w>
超 大</w>
美 洲
付 诸
不 减</w>
钢 板</w>
软 弱</w>
老 太</w>
美 林</w>
瑟 夫</w>
成 长
岸 线</w>
仓 储</w>
一 站</w>
o t</w>
B O
长 相</w>
越 野
拉 克
奋 力</w>
黄 某</w>
额 头</w>
转 到</w>
爱 因
爱因 斯坦</w>
火 力</w>
招 股</w>
大 闸蟹</w>
创 新型</w>
冲 刺</w>
R ob
降 水量</w>
调 制</w>
该 机</w>
耶 夫</w>
机 床</w>
放 出</w>
图 标</w>
三 明治</w>
197 2</w>
自 尊</w>
结 盟</w>
看 不出</w>
液 晶</w>
大中 型</w>
克莱 斯勒</w>
五 百</w>
黑 名单</w>
筷 子</w>
海 淀</w>
影 迷</w>
定 位
E R</w>
候 选</w>
下 架</w>
万 里</w>
PM I</w>
1 23</w>
送 交</w>
联 席会议</w>
立 案
点 火</w>
期货 市场</w>
情 况
天文 学家</w>
务 局</w>
冯 小刚</w>
伤 病</w>
三 款</w>
风 筝</w>
熟 人</w>
扑 灭</w>
高 技术</w>
诽 谤</w>
汇 丰</w>
孕 育</w>
危险 性</w>
体 型</w>
责 成</w>
莲 花</w>
盛 典</w>
深入 研究</w>
戒 毒</w>
平 淡</w>
居 多</w>
相 等</w>
损 耗</w>
总 工会</w>
共 赢</w>
自 行
清 爽</w>
一 队</w>
C om
6. 7</w>
贮 存</w>
特殊 性</w>
水 体</w>
国际 标准</w>
保 安
低 谷</w>
涨 势</w>
有 点
库 区</w>
布 兰
高 举</w>
绝 对
沥 青</w>
敏 感性</w>
宣传 教育</w>
十二 届</w>
u st
马耳 他</w>
进 京</w>
约 瑟</w>
玛丽 亚</w>
曼哈 顿</w>
况 且</w>
共 用</w>
公 投</w>
伯 南克</w>
些 许</w>
不管 怎样</w>
B M
6. 6</w>
震 后</w>
考 察
第九 届</w>
立 项</w>
沉 浸</w>
最 佳
台 下</w>
不 复
濒 危</w>
海 港</w>
架 飞机</w>
推 崇</w>
座 谈</w>
乞 丐</w>
两 座</w>
签 订
没 想</w>
如 意</w>
i es</w>
T D</w>
高 房价</w>
荣 誉
细 微</w>
米 勒</w>
掩 护</w>
坐 落</w>
二 审</w>
两 组</w>
语 句</w>
绽 放</w>
气象 部门</w>
摇 滚</w>
年龄 段</w>
害 羞</w>
安全 带</w>
如 其
取得 联系</w>
1 16</w>
黑 山</w>
赐 给</w>
失 职</w>
5 7
铁 矿</w>
根 基</w>
新 民</w>
山 村</w>
以 北</w>
香 料</w>
昨天 晚上</w>
旅游 者</w>
支 柱
抽 样</w>
开 朗</w>
转 账</w>
指 示
报 废</w>
房 委会</w>
局 限性</w>
大大 提高</w>
出 品</w>
金 币</w>
金 子</w>
挑战 性</w>
发行 量</w>
些 年</w>
鸽 子</w>
而 据</w>
片 子</w>
汽车 产业</w>
江 县</w>
教 养</w>
收 敛</w>
性 关系</w>
带 入</w>
全心 全意</w>
P et
陈 冠
豪华 型</w>
洗 手
日 历</w>
接 轨</w>
恳 求</w>
丛 林</w>
三 分</w>
ac k
近几 个月</w>
议 长</w>
终 审</w>
理 赔</w>
水 污染</w>
失 调</w>
大 兴
加勒 比
保护 主义</w>
交 叉
不 尽
一 环</w>
视 觉
本 应</w>
大 吃
切 尔</w>
亮 丽</w>
一 排</w>
霸 王</w>
阳 光
足 坛</w>
请 假</w>
西南 地区</w>
螺 旋
湖南 卫视</w>
法 学院</w>
房贷 利率</w>
展 现出</w>
实施 方案</w>
前 列
上 天</w>
枪 手</w>
三 环</w>
解 说</w>
疲 力
传 记</w>
调 和</w>
言 不
知情 权</w>
监测 数据</w>
效 果
威尔 士</w>
侧 重</w>
丽 特</w>
踢 球</w>
第 十二条</w>
激 怒</w>
撒 哈拉</w>
打 捞</w>
年度 报告</w>
老 伴</w>
相 片</w>
外 贸
合作 项目</w>
保护 环境</w>
1 45</w>
1 28</w>
持续 时间</w>
并 列</w>
分 会</w>
音 频</w>
连 连</w>
起 源于</w>
粪 便</w>
厄 瓜
南 瓜</w>
供 养</w>
. .</w>
骨 干
硅 谷</w>
直 达</w>
电 讯
杀 伤</w>
建 构</w>
入 驻</w>
价格 战</w>
R es
贫 血</w>
竞 标</w>
步 枪</w>
供 求
优 良
买 进</w>
中央 军委</w>
个 个</w>
边 际</w>
调 节
案 发</w>
方 正</w>
冷 水</w>
人 用</w>
不 前</w>
一 汽
S S</w>
边 境
有 事</w>
新 奇</w>
控制 中心</w>
多 点</w>
香 气</w>
难 说</w>
通 报
追 溯到</w>
男 主角</w>
弗 吉
中 医药</w>
197 7</w>
自 卫</w>
法 老</w>
最 坏</w>
无 家
发 电
不 齐</w>
重 量级</w>
触 犯</w>
本 场</w>
坚持 不懈</w>
贫富 差距</w>
肥 料</w>
红 色
察 觉</w>
品 格</w>
同 一天</w>
前 瞻
不 息</w>
阿 曼</w>
第三 轮</w>
澳大 利亚
开发 银行</w>
巡 逻
风 俗</w>
还 价</w>
立 足
旁 听</w>
怀 特</w>
平 衡
以 待</w>
领 队</w>
第七 届</w>
第一 阶段</w>
太 低</w>
国际 奥委会</w>
al l</w>
耗 资</w>
沉 没</w>
最 能</w>
扔 掉</w>
怜 悯</w>
勇 士</w>
加 索</w>
前瞻 性</w>
偏 爱</w>
正 向</w>
接 听</w>
拆 卸</w>
外 空</w>
县 域</w>
北 上</w>
传 给</w>
赔 付</w>
货 商</w>
等 离子</w>
毗 邻</w>
发 电厂</w>
冷 却
公 墓</w>
两 块</w>
男 装</w>
抑 或</w>
姜 文</w>
商业 化</w>
青春 期</w>
网 银</w>
网 膜</w>
扬 州</w>
发 货</w>
超 额</w>
枕 头</w>
大 阪</w>
国 度</w>
亲 眼
补 充
第二 批</w>
犹 太</w>
无家 可
新 片</w>
常 任
宝 安</w>
参 会</w>
即 日起</w>
到 时候</w>
不良 反应</w>
线 程</w>
第十 一届</w>
头 目</w>
夏令 营</w>
变 压器</w>
前 卫</w>
犀 利</w>
抗 震</w>
成 份</w>
巴 博</w>
公 有制</w>
之 美</w>
鄂尔多 斯</w>
跟 风</w>
巡 警</w>
血液 循环</w>
少 有</w>
私 营
恩 斯</w>
强 拆</w>
失 落</w>
四 方</w>
合理 化</w>
协 力</w>
勘 察</w>
价 款</w>
较 弱</w>
设计 方案</w>
生 死</w>
热 器</w>
歌 舞</w>
打 包</w>
慈善 机构</w>
大 理
坦 白</w>
全 港</w>
粉 末</w>
溃 疡</w>
换 上</w>
可 知</w>
会员 卡</w>
S k
草 拟</w>
环 路</w>
玛 格
栽 培</w>
日益 增长</w>
感 谢您</w>
吞 吐
伸 展</w>
事 例</w>
乳 品</w>
不 快</w>
骨 髓</w>
转 折
贺 卡</w>
统 筹
空 地</w>
生产 成本</w>
深 色</w>
氨基 酸</w>
文 蔚</w>
防 扩散</w>
逛 街</w>
观 众
艰 苦
联 大</w>
民主 主义</w>
抗 菌</w>
工 党</w>
头 等
又 称</w>
重 中
语 义</w>
沙 拉</w>
架 次</w>
李 晓
本 金</w>
月 光</w>
司令 员</w>
充满 活力</w>
-- --</w>
重中 之重</w>
资金 投入</w>
缩 影</w>
精 湛</w>
秉 承</w>
废 止</w>
导 入</w>
五 花
争 辩</w>
陈冠 希</w>
酗 酒</w>
绿 灯</w>
木 板</w>
旱 灾</w>
加利福 尼亚州</w>
不足 道</w>
面 纱</w>
随 手</w>
闪 光</w>
纸 质</w>
畏 惧</w>
或 少</w>
大 树</w>
来得 及</w>
关键 时期</w>
不 容易</w>
ou r
舰 艇</w>
方 百计</w>
打 来</w>
崇 尚</w>
千 方百计</w>
刘 嘉玲</w>
共同 利益</w>
不敢 相信</w>
一 幢</w>
H IV</w>
色 泽</w>
水利 建设</w>
保 监会</w>
不 失</w>
陷入 困境</w>
路易 斯</w>
起 价</w>
老 外</w>
宇 宙
嘉 年华</w>
前 身</w>
7. 8</w>
预算 案</w>
狠 狠</w>
数 十</w>
挡 住</w>
拿 破
实 处</w>
安 县</w>
事 事</w>
零售 业</w>
赛 义
肮 脏</w>
多 层</w>
博 文</w>
华 谊</w>
一无所 知</w>
一小 部分</w>
播 种</w>
发 起
中广 网</w>
装 机</w>
统治 者</w>
沙 龙</w>
四 名</w>
北 斗</w>
覆盖 面</w>
第六 章</w>
抵 押
性 命</w>
平均 价格</w>
他 俩</w>
隆 重
莱 特</w>
画 像</w>
洪 灾</w>
杨 幂</w>
排 污</w>
换 言之</w>
保健 品</w>
任 免</w>
亚 地区</w>
之 而来</w>
丽 娜</w>
上 层</w>
三 包</w>
la y
7. 1</w>
阐 释</w>
拉开 帷幕</w>
抢 占</w>
剔 除</w>
下 同</w>
Th e</w>
L T
选 活动</w>
川 县</w>
使用 寿命</w>
会 话</w>
订 货</w>
短 裤</w>
点 心</w>
提 起
好 奇
喇 叭</w>
信 徒</w>
马拉 松</w>
灾难 性</w>
检查 组</w>
极 有</w>
新闻 周刊</w>
大 都市</w>
二氧化 硫</w>
运 往</w>
走 动</w>
经验 丰富</w>
管 家</w>
斯达 黎
哥 斯达黎
哥 华</w>
亿 英镑</w>
主人 公</w>
阵 阵</w>
航空 运输</w>
温 哥华</w>
哀 悼</w>
一 滴</w>
B 股</w>
能 干</w>
维 持
真 皮</w>
G L
费 力</w>
英国 广播公司</w>
法定 代表</w>
折 腾</w>
废 气</w>
席 卷</w>
夫妻 俩</w>
墓 葬</w>
M V</w>
缓 冲
现 役</w>
源 代码</w>
斯 塔
赞 比亚</w>
象 是</w>
诉讼 法</w>
考 证</w>
查 实</w>
时 不时</w>
基督 徒</w>
上 下文</w>
牵 引</w>
本 年度</w>
动 议</w>
党 代会</w>
修 缮</w>
俨 然</w>
云 集</w>
1 22</w>
运载 火箭</w>
货 款</w>
警 队</w>
拿破 仑</w>
寄 托</w>
发生 冲突</w>
原 产地</w>
做 点</w>
i al</w>
皇 室</w>
极 好</w>
饭 后</w>
闻 到</w>
第一 代</w>
理 科</w>
控 诉</w>
打 假</w>
引 资</w>
常 有</w>
决 不会</w>
严重 性</w>
雷 德</w>
请 参阅</w>
联 军</w>
窗 子</w>
州 大学</w>
周 迅</w>
Un ivers
N O
CD MA</w>
C ol
联合 体</w>
满 脸</w>
明 说</w>
总 算</w>
古 董</w>
占 地面积</w>
医 治</w>
列 颠</w>
传 授</w>
6 6
有 偿</w>
抵 触</w>
委 托人</w>
妥善 处理</w>
分布 式</w>
信 函</w>
陆 战队</w>
裸 婚</w>
无 几</w>
斯 巴
愈 发</w>
赫 斯</w>
莫 文蔚</w>
第十 五条</w>
就 象</w>
不得 已</w>
上 下
运 行
跌 停</w>
水 里</w>
更 正</w>
X X
19 61</w>
过 夜</w>
要 紧</w>
求 证</w>
导航 系统</w>
存 入</w>
免疫 系统</w>
倒 卖</w>
输 液</w>
真 情</w>
治 国</w>
惯 性</w>
常 州</w>
圣 地</w>
喇 嘛</w>
临 到</w>
两 三
耐 用</w>
校 内</w>
更 糟</w>
文 库</w>
建 交</w>
处 决</w>
厄瓜 多尔</w>
保持 稳定</w>
k e</w>
过 重</w>
考 虑
纯 属</w>
接 获</w>
寒 冬</w>
各 界人士</w>
卫生 院</w>
中国 区</w>
C H
飞 翔</w>
立 委</w>
核 试验</w>
怎 能</w>
农田 水利</w>
m l</w>
花 样</w>
突 袭</w>
活 儿</w>
民航 局</w>
旗 舰
微 不足道</w>
小 路</w>
察 看</w>
同 意
十 九
中 环</w>
上班 族</w>
g ov</w>
概 况</w>
如 是说</w>
可 贵</w>
诊 疗</w>
获得 成功</w>
的 士</w>
李嘉 欣</w>
并 行</w>
出人 意料</w>
偏 少</w>
中 世纪</w>
不 尽</w>
楼 层</w>
微 量</w>
F ed</w>
B P</w>
124 ;</w>
&# 124;</w>
门 将</w>
肉 体</w>
篮 板</w>
牧 场</w>
当 当
四 项</w>
发 短信</w>
冶 炼</w>
静静 地</w>
附 有</w>
责任 心</w>
孩 儿</w>
大 妈</w>
十 条</w>
中 日
u e</w>
7. 3</w>
汗 水</w>
招 录</w>
哥伦 比亚
利 华</w>
不 起
防 疫</w>
议 会
行 之
绑 定</w>
悬 浮</w>
外 电
变形 金刚</w>
供 述</w>
零 时</w>
选 赛</w>
立 体
着 想</w>
杂 交</w>
日 方</w>
外电 报道</w>
务 员</w>
加 利</w>
农业 大学</w>
19 55</w>
首要 任务</w>
钟 头</w>
自 如</w>
绿 茶</w>
混 合物</w>
死 后</w>
未 婚</w>
最 牛</w>
招 致</w>
实 战</w>
双边 关系</w>
二十 世纪</w>
与 其
要 不是</w>
按 键</w>
屏 蔽</w>
几 款</w>
一 节</w>
B BC</w>
风 景
简 单
的 斯</w>
期 末</w>
开 具</w>
并不 大</w>
十 几个</w>
两 军</w>
6. 1</w>
首脑 会议</w>
评 议</w>
焦 急</w>
折 射出</w>
古 人</w>
发 债</w>
P K</w>
简 陋</w>
告 终</w>
公 署</w>
es s</w>
见 识</w>
竟 是</w>
犯罪 团伙</w>
犯 规</w>
民主 党派</w>
大 酒店</w>
国会 议员</w>
A P</w>
终 极</w>
符合 国家</w>
积 压</w>
社 论</w>
比 赛
掌 管</w>
好奇 心</w>
医疗 保健</w>
一 朵</w>
连 结</w>
深 思</w>
殖 民</w>
微 调</w>
寺 庙</w>
克萨 斯州</w>
倒 霉</w>
默 契</w>
新 民
收 缴</w>
拜 登</w>
总 资产</w>
怪 异</w>
川 市</w>
台 商</w>
南 区</w>
公共 财政</w>
从 未
中国人民 解放军</w>
无 形
惨 重</w>
必要 条件</w>
外 星人</w>
境 况</w>
侦 查
顶 峰</w>
面 目</w>
金 矿</w>
进 行
这 一
调查 局</w>
第六 届</w>
林 地</w>
履行 职责</w>
官 场</w>
真 话</w>
有 幸</w>
排 水
投 融资</w>
弹 簧</w>
屋 内</w>
a h</w>
19 45</w>
溶 解</w>
李 登
德 里
东 城区</w>
顶 端</w>
难 民营</w>
财务 状况</w>
科技 大学</w>
男 子
沐 浴</w>
松 弛</w>
悬 崖</w>
女 工</w>
多 边
加 倍</w>
中共 中央政治局</w>
e w
透 视</w>
追 随</w>
菲 亚特</w>
紧 要</w>
田 径</w>
放 行</w>
推 进
寄 给</w>
功能 区</w>
iPad 2</w>
预备 役</w>
非常 重视</w>
多 头</w>
另 行</w>
原 件</w>
伊 拉克
书 包</w>
下 线</w>
C P
阅 卷</w>
蚊 子</w>
艾 哈
社会 保障部</w>
父 子</w>
普 斯</w>
教学 楼</w>
害 性</w>
友好 合作</w>
高度 评价</w>
香港 媒体</w>
货币 基金</w>
警 觉</w>
特 长</w>
执 着</w>
切身 利益</w>
第六 次</w>
第一 件</w>
安德 烈</w>
世 代</w>
不 振</w>
一 早</w>
苍 蝇</w>
航空 母舰</w>
航空 业</w>
纵 观</w>
空 军
知名 品牌</w>
申 办</w>
清 白</w>
有 益于</w>
排 毒</w>
市场 营销</w>
养 活</w>
其 为</w>
书 本</w>
根据 地</w>
宽 大</w>
宋 庆
大 年
坚 挺</w>
向 外</w>
雷 锋</w>
管 线</w>
一 段
那 辆</w>
角 膜</w>
联 体</w>
第三 代</w>
焕 发</w>
旗 舰</w>
忧 伤</w>
学习 型</w>
阿 盟</w>
连续 性</w>
越 狱</w>
结 石</w>
教 皇</w>
大 王</w>
俗 称</w>
Ch ri
黄 山</w>
致 以</w>
筹 款</w>
构 件</w>
往 前</w>
大 举</w>
国 足</w>
n er</w>
福利 院</w>
河 里</w>
按 计划</w>
抢 救
强制 执行</w>
庙 会</w>
城市 居民</w>
创造 条件</w>
专 属</w>
奥 的斯</w>
同意 书</w>
吉尔吉 斯
互联网 安全</w>
迪 克</w>
断 言</w>
心 爱</w>
反 向</w>
之 战</w>
课 本</w>
英文 版</w>
私 用</w>
汉 王</w>
染 料</w>
挥 霍</w>
天 真</w>
固 体
中国 社科院</w>
m a
M an
驻 扎</w>
马 尼
轮 机</w>
唤 起</w>
主导 地位</w>
请 教</w>
时 有
斡 旋</w>
效 用</w>
排 名
半 径</w>
邮 政
辟 谣</w>
缴 税</w>
相 伴</w>
猛 增</w>
残 余</w>
李登 辉</w>
敲 定</w>
忍 耐</w>
弹 道
巴 西
大 姐</w>
国 力</w>
农 贸市场</w>
U F
Mic ha
航 海</w>
祈 求</w>
直 属</w>
洗 手</w>
执行 长</w>
执 政
托 尼</w>
当当 网</w>
图 画</w>
医 患</w>
养 育</w>
l d</w>
V C</w>
摒 弃</w>
女 士们</w>
1 26</w>
生活 习惯</w>
热 度</w>
村 镇</w>
式 各样</w>
市场 秩序</w>
四 家</w>
各 式各样</w>
利 维亚</w>
20 16</w>
高 强度</w>
靴 子</w>
章 节</w>
短 短
杨 某</w>
权 法</w>
守 护</w>
出 众</w>
一 等</w>
F or
银 联</w>
贝 拉</w>
纪 委书记</w>
四 肢</w>
前 辈</w>
顿 饭</w>
筹 码</w>
科技 成果</w>
涉 案
梅 花</w>
斯 塔</w>
副 厅长</w>
他 用</w>
违 章</w>
种 植
燃 煤</w>
滑 稽</w>
游戏 机</w>
城乡 建设</w>
地 税局</w>
哥斯达黎 加</w>
吸 收
主 要
丁 俊
首 页</w>
并 举</w>
市场 价</w>
备 选</w>
c on
S T
197 1</w>
面 值</w>
菜 市场</w>
组 合
私 营企业</w>
民政 部门</w>
李克 强</w>
形 容
冶 金</w>
中 起</w>
上证 综指</w>
org an</w>
i OS</w>
追 查</w>
衬 衣</w>
甚 么</w>
换 届
市 镇</w>
刚 开始</w>
刚 刚开始</w>
分 层</w>
乌 兹
菜 肴</w>
写 成</w>
公司 股票</w>
举 例
at h
贵 阳市</w>
窃 取</w>
神经 元</w>
研究 进展</w>
灯 笼</w>
液 化</w>
感 官</w>
叹 息</w>
发 泄</w>
中国 工程院</w>
ag e</w>
私 奔</w>
特 约</w>
深 交所</w>
市场 供应</w>
班 机</w>
所 有制</w>
交 友</w>
买 到</w>
中 年
不 合
E L
1 17</w>
胸 前</w>
庄 园</w>
偷 走</w>
以 上
严重 后果</w>
闪 耀</w>
警 钟</w>
解 释
西北 地区</w>
磁 盘</w>
洗 衣</w>
换届 选举</w>
拘 捕</w>
惊 心</w>
归 根
军 营</w>
球 菌</w>
爱 护</w>
每 天
创业 者</w>
再 造</w>
党 风
任 天堂</w>
预 付
越野 车</w>
负债 率</w>
维 系</w>
第一 轮</w>
租 户</w>
拜 年</w>
差 异化</w>
君 子</w>
副 处长</w>
企 鹅</w>
任 教</w>
途 经</w>
路 里</w>
起 因</w>
角 落
而 至</w>
维 度</w>
构 架</w>
本 条</w>
更 进一步</w>
收 视</w>
学 说</w>
坚 硬</w>
农 民
公 馆</w>
辗 转</w>
满 贯</w>
政 坛</w>
发 电量</w>
不 一</w>
汽 油
想 方
国 泰
另 一边</w>
厌 烦</w>
儿 科</w>
资本 金</w>
舒 缓</w>
电 阻</w>
珍 藏</w>
游 人</w>
水 电站</w>
当 庭</w>
学 系</w>
大 运</w>
业 已</w>
14 7</w>
雪 地</w>
那 州</w>
轮 船</w>
点 子</w>
江 山</w>
有钱 人</w>
愈 合</w>
彩 排</w>
受 体</w>
卡 路里</w>
降 低成本</w>
精 品
想方 设法</w>
利 性</w>
八 卦</w>
现代 人</w>
守 法</w>
在 实践
交易 会</w>
身 家</w>
持 枪</w>
怀 抱</w>
喉 咙</w>
五 环</w>
驱 逐
石 屹</w>
推 盘</w>
小 国</w>
可 变</w>
口 译</w>
上 阵</w>
3 3.
3 2.
高 院</w>
财政 支出</w>
矿 泉水</w>
潘 石屹</w>
波 罗</w>
期货 价格</w>
刚 果</w>
预 估</w>
追 寻</w>
起 始</w>
话 剧</w>
药 家
商 贩</w>
典 雅</w>
上证 指数</w>
溢 出</w>
危 急</w>
全 能</w>
百思 买</w>
生产 工艺</w>
消 逝</w>
暂 无</w>
当 当</w>
前 台</w>
主 语</w>
3 600</w>
鳄 鱼</w>
鲍 勃</w>
马 其
改 观</w>
体 贴</w>
人道 主义
人道主义 法</w>
乙 肝</w>
走 入</w>
良 机</w>
渎 职
波 浪</w>
丁俊 晖</w>
一步 步</w>
找 寻</w>
或 多
四 点</w>
分 店</w>
产 科</w>
表 盘</w>
综合 利用</w>
特 曼</w>
多 公里</w>
台 区</w>
分 类
停 运</w>
M S</w>
转 速</w>
行之 有效</w>
获 知</w>
耳 机</w>
病 症</w>
澳 元</w>
均 收入</w>
周边 地区</w>
关 节
共青 团</w>
4 80</w>
玛格 丽特</w>
多 一些</w>
可 信
凝 聚力</w>
集 邮</w>
纯 净</w>
看 病
犯 错</w>
接 受
并 发</w>
小 提琴</w>
多 套</w>
化 率</w>
两 厢</w>
规 管</w>
未 决</w>
时间 段</w>
并 入</w>
平 坦</w>
帕 萨特</w>
局 部地区</w>
复 审</w>
墨 尔
发 抖</w>
侵 权
人 去</w>
下 落</w>
转 交</w>
背 包</w>
卡 人</w>
上海 大众</w>
赛 前</w>
荣 威</w>
李 明
总统 府</w>
平均 值</w>
图 纸</w>
厅 级</w>
凭 着</w>
全 景</w>
二十 一</w>
七 大</w>
饮食 习惯</w>
西方 人</w>
科研 人员</w>
日 程
所 学</w>
不可 分割</w>
一 房</w>
随 之而来</w>
已 故</w>
利 空</w>
公 会</w>
专 柜</w>
M y
直 接
每 种</w>
此 行</w>
寓 意</w>
园 艺</w>
回 顾
名 册</w>
印 章</w>
养殖 户</w>
互 换</w>
B o
获得 者</w>
家 门</w>
定 额</w>
变 频
关 头</w>
一 等奖</w>
驾 驭</w>
预算 外</w>
递 增</w>
获 刑</w>
志 军</w>
吸烟 者</w>
南 水
刘 女士</w>
余 万</w>
交通 安全</w>
7. 2</w>
领 土
承租 人</w>
打 折扣</w>
俄 方</w>
供 货商</w>
体育 总局</w>
一 派</w>
一 万
C VT</w>
风 景区</w>
背 心</w>
电 气
清 凉</w>
怀 里</w>
怀 有</w>
后 备</w>
单 日</w>
飞 跃</w>
画 廊</w>
回 笼</w>
出版 商</w>
这 为</w>
联系 方式</w>
粗 略</w>
根本 利益</w>
敲 响</w>
喝 茶</w>
决 不能</w>
内 心
公民 权利</w>
五 分之一</w>
一 户</w>
C C</w>
雷 尔</w>
进 站</w>
说 得
检 控</w>
无 用</w>
小 贩</w>
塑 性</w>
国庆 节</w>
卫生 厅</w>
倒 挂</w>
骆 家辉</w>
直 指</w>
极 易</w>
悼 念</w>
并 会</w>
风险 投资</w>
轮 车</w>
贝克 汉姆</w>
稿 件</w>
眼 影</w>
流 水</w>
晶 硅</w>
新 星</w>
推 广
形容 词</w>
幸 好</w>
多 一点</w>
地 问</w>
d e</w>
15 5</w>
高级 人民法院</w>
那 家</w>
起诉 书</w>
自 救</w>
肥 羊</w>
肝 炎</w>
惨 淡</w>
影 星</w>
尔 蒙</w>
下 决心</w>
七 天</w>
G r
食 谱</w>
领先 地位</w>
车 企</w>
第三 者</w>
Luc as</w>
生产 厂家</w>
环 卫
本 色</w>
时 应</w>
婷 婷</w>
太平 洋
化 物</w>
不 全</w>
特 拉
沿 途</w>
末 日</w>
妞 妞</w>
堵 住</w>
养 猪</w>
党风 廉政</w>
兄弟 姐妹</w>
信息 安全</w>
仁 慈</w>
不知 所
Ap p
车 窗</w>
脸 颊</w>
内政 部</w>
人 造
3 1.
精 髓</w>
病 学</w>
清明 节</w>
核 证</w>
敲 门</w>
敦 煌</w>
拨 付</w>
国有 土地</w>
回 馈</w>
品 德</w>
难 看</w>
这 人</w>
视 听</w>
破 旧</w>
矿 权</w>
理工 学院</w>
牧 区</w>
律 法</w>
封 存</w>
变 性</w>
参 见</w>
全 长</w>
下 半场</w>
M O
阳 性</w>
镇 静</w>
结 成</w>
略 微</w>
点 名</w>
欠 款</w>
时有 发生</w>
无 助</w>
一 碗</w>
长 虹</w>
超 重</w>
继续 加强</w>
张 扬</w>
巨 资</w>
坏 消息</w>
在生活 中</w>
元 前</w>
交 管部门</w>
课 程
证 明
背 离</w>
耻 辱</w>
私 隐</w>
游 说</w>
格 栅</w>
措 辞</w>
总 工程师</w>
参 股</w>
伯 拉
a f
2 300</w>
遗 留</w>
第二十 三条</w>
生 姜</w>
学 士学位</w>
埋 葬</w>
上 届</w>
警 戒
第十 八条</w>
白 石</w>
毋 庸
当 心</w>
宁 县</w>
卖 点</w>
青岛 市</w>
螃 蟹</w>
科学 化</w>
残 骸</w>
帆 船</w>
工 伤</w>
后 退</w>
几 条</w>
门 人</w>
钦 佩</w>
解 剖</w>
扎 堆</w>
建设 银行</w>
工程 质量</w>
垃圾 处理</w>
各 州</w>
佛罗里 达州</w>
零 下</w>
雄 心
长 短</w>
耗 时</w>
汇 编</w>
栅 栏</w>
新 型
基 会</w>
喊 道</w>
哺乳 动物</w>
向 着</w>
重 演</w>
芳 香</w>
胁 迫</w>
天 下
勾 兑</w>
兴奋 剂</w>
C o
订 婚</w>
就 业率</w>
名 城</w>
动力 系统</w>
两 层</w>
日 出</w>
承 销</w>
征 用</w>
布伦 特</w>
外 加</w>
同 仁</w>
前 段时间</w>
D I
身 于</w>
烧 毁</w>
坚 果</w>
遥 控</w>
菊 花</w>
空 域</w>
碳 水
碳水 化合物</w>
输 给</w>
波 器</w>
一 站
纯 收入</w>
法 网</w>
技术 水平</w>
出 头</w>
倒 车</w>
五 成</w>
er r
饮 水
柯 达</w>
千 米</w>
代 之</w>
一 年级</w>
13 6</w>
预付 卡</w>
陈 晓
踪 影</w>
第十 届</w>
寒 假</w>
发生 率</w>
保险 人</w>
一 辆车</w>
精 力
梯 度</w>
明 珠</w>
改 性</w>
黄 海</w>
略 显</w>
甲 酸</w>
战斗 力</w>
19 64</w>
领 事
野 兽</w>
说 不出</w>
裁 判
衰 落</w>
自 定义</w>
拖 拉
展 览
宽 阔</w>
定 期
大 本
大 手
几 张</w>
公 募</w>
2 200</w>
言 辞</w>
攻 读</w>
奖 杯</w>
地 用</w>
反 省</w>
免 于</w>
业 银行</w>
问 卷
问卷 调查</w>
远 方</w>
蒙 牛</w>
生 殖
牙 买
民用 航空</w>
每 秒</w>
政 变</w>
干 得</w>
封 建
宋 丹丹</w>
名 言</w>
事 前</w>
一 顶</w>
饭 馆</w>
负债 表</w>
第二十 五条</w>
突破 口</w>
沉 降</w>
或多 或少</w>
定 时</w>
中 铁</w>
漂 浮</w>
派 别</w>
欧 冠</w>
建 局</w>
好 心</w>
大 专</w>
名 副
党的 建设</w>
交 割</w>
C T
追 尾</w>
越 野</w>
立 马</w>
物理 学家</w>
朱 德</w>
本 该</w>
复 牌</w>
南 宁市</w>
副 县长</w>
雄 性</w>
阅 读
反 复
劣 势</w>
刀 具</w>
中间 价</w>
不断 加强</w>
降 雨量</w>
迷 你</w>
消费 市场</w>
海 浪</w>
服务 公司</w>
日 间</w>
应 予</w>
决 书</w>
代表 作</w>
了 算</w>
重 度</w>
转折 点</w>
转 弯</w>
豪华 版</w>
每 户</w>
后 门</w>
低 开</w>
错 误
赞助 商</w>
脑 海</w>
纹 理</w>
着 迷</w>
牙买 加</w>
每 名</w>
成交 额</w>
保险 杠</w>
L in
黄 油</w>
重 构</w>
被 子</w>
明显 提高</w>
承 运人</w>
航天 器</w>
弹道 导弹</w>
二零零 六年</w>
首 席
监 管
瓷 砖</w>
山 庄</w>
克 拉克</w>
9. 6</w>
项目 管理</w>
赞 誉</w>
貌 似</w>
方面 面</w>
方 方面面</w>
工 会
原 始
努力 实现</w>
之 星</w>
中 式</w>
首 钢</w>
杨 洁
总的 来说</w>
口 处</w>
单 身
分 子
高 频</w>
搬 运</w>
富 春
大 巴</w>
名副 其实</w>
配 饰</w>
转 达</w>
车 载</w>
虔 诚</w>
缓 冲</w>
站 长</w>
空 闲</w>
画 展</w>
柠 檬</w>
摇 晃</w>
成 败</w>
康 乐</w>
地 面
三亚 市</w>
F l
B2 C</w>
6 50</w>
14 4</w>
首 例</w>
日 夜</w>
无 故</w>
新加 坡
承 载
应 收</w>
并不 一定</w>
天 里</w>
在 京
金 黄色</w>
科 夫</w>
皇 冠</w>
民事 诉讼</w>
有 理</w>
时 称</w>
技术 支持</w>
性 别
张 晓
带 队</w>
子 弟</w>
卡 斯</w>
兴 业银行</w>
光 临</w>
兆 瓦</w>
一百 一十</w>
2 800</w>
谚 语</w>
签 下</w>
理 顺</w>
理 事
爱 丽丝</w>
炮 轰</w>
抽 签</w>
压 低</w>
13 8</w>
角落 里</w>
电 解
演 技</w>
毅 力</w>
为 重</w>
预 选赛</w>
那 件事</w>
遵 从</w>
连锁 店</w>
落 幕</w>
特 色
池 塘</w>
取 而
充满 信心</w>
一 代人</w>
e e</w>
重庆 晨报</w>
追 究
极 端
散 文</w>
抗 氧化</w>
奔 赴</w>
单 据</w>
关键 字</w>
关 停</w>
过 低</w>
第十 七条</w>
私 有</w>
石 块</w>
烟 囱</w>
林 斯</w>
推 手</w>
应 考</w>
布 里
小 肥羊</w>
取而 代之</w>
加利福 尼亚</w>
几 十</w>
井 冈
魔 术
级 市</w>
富 士
大 屠杀</w>
独 联体</w>
特别行政 区政府</w>
带 宽</w>
切实 可行</w>
令人 担忧</w>
2 400</w>
13 7</w>
轻 度</w>
谋 生</w>
立 大学</w>
目 击</w>
珠 宝
漩 涡</w>
庄 稼</w>
任 志强</w>
一 对
议 定</w>
海 洛
横 跨</w>
广 电</w>
幽 默
国家 税务总局</w>
后 天</w>
全 家人</w>
不 法</w>
一 日
航天 员</w>
美 化</w>
纷 纷
宏 大</w>
1 21</w>
镇 长</w>
背 诵</w>
维吾尔 自治区</w>
第二 代</w>
杨洁 篪</w>
权威 性</w>
新疆 维吾尔自治区</w>
士 气</w>
公司 业绩</w>
倒 数</w>
产品 线</w>
两 件</w>
世界 冠军</w>
in t
队 列</w>
转 过</w>
经营 范围</w>
急 切</w>
幽 灵</w>
大 餐</w>
压 力
华 东
借 款人</w>
19 56</w>
领 会</w>
证 词</w>
蒙 德</w>
经营 权</w>
环 评</w>
常规 武器</w>
南 美</w>
公务 车</w>
东 路</w>
路 子</w>
生 死
文化 节</w>
健康 成长</w>
业 态</w>
谦 虚</w>
荷 尔蒙</w>
眼 线</w>
病 因</w>
暂 缓</w>
改 写</w>
少 许</w>
在实践 中</w>
国际 足联</w>
北 调</w>
临 界</w>
贴 心</w>
新 来</w>
公 正
两 岁</w>
试 运行</w>
第二十 六条</w>
拜 托</w>
所 罗
天 王</w>
大 堂</w>
卖 房</w>
不 均</w>
7. 4</w>
明 代</w>
推 动力</w>
拉 尔</w>
布莱 克</w>
分 段</w>
克 劳</w>
体 能</w>
了 个</w>
买 票</w>
衍 生
社 交
沙 田</w>
敏 感
强 震</w>
失 事</w>
六 十</w>
之 年</w>
炸 机</w>
政法 委</w>
指 针</w>
巴拿 马</w>
女 单</w>
合 乎</w>
兴 趣
公 立</w>
赖 斯</w>
汹 涌</w>
水 泥
最高 点</w>
攀 登</w>
承受 能力</w>
急 救
如 此
北 市</w>
判 处
S y
G l
领 衔</w>
这 些年来</w>
约 瑟夫</w>
最高 人民检察院</w>
安 居</w>
华 南
伯拉 罕</w>
亚 伯拉罕</w>
ub e</w>
飞 天</w>
讨 好</w>
蓄 水</w>
渲 染</w>
投 影</w>
农 资</w>
你 家</w>
萨 拉</w>
空 洞</w>
李 大
张 开</w>
张 大</w>
应 由</w>
常 见
宁 波
动 不动</w>
交警 部门</w>
13 3</w>
自 查</w>
画 画</w>
民族 主义</w>
保障 体系</w>
人 道</w>
n e</w>
O K</w>
E T</w>
邮 品</w>
达 赖</w>
货 源</w>
肠 胃</w>
班 人</w>
清 淡</w>
汽车 行业</w>
来 华</w>
有效 途径</w>
广西 壮
年 老</w>
女 婿</w>
商 行</w>
十 天</w>
劝 告</w>
一大 早</w>
9. 8</w>
雷 人</w>
牛 排</w>
可 见
便 秘</w>
价格 比</w>
编 造</w>
笑 脸</w>
穿 衣</w>
激 动
扎 克</w>
当 面</w>
引 诱</w>
声 响</w>
A 380</w>
5. 9</w>
祭 祀</w>
商 议</w>
人 均收入</w>
高 处</w>
级 党委</w>
社 保
烧 烤</w>
文 体</w>
巡 航</w>
寂 静</w>
各 级党委</w>
卷 风</w>
九 十</w>
不 朽</w>
七 届</w>
溶 性</w>
沙 子</w>
家庭 教育</w>
多 所</w>
外 商</w>
从 政</w>
中 证
迷 恋</w>
财产 损失</w>
贞 昌</w>
腰 部</w>
灯 泡</w>
挤 满</w>
售 房</w>
上 星期</w>
13 4</w>
陷 于</w>
苏 贞昌</w>
奖 者</w>
在 座</w>
启 程</w>
卸 任</w>
美 貌</w>
粗 鲁</w>
福 田</w>
着 火</w>
法拉 利</w>
母 乳</w>
案发 后</w>
无 穷
放 大
处理 厂</w>
充分 肯定</w>
住房 问题</w>
AI G</w>
魔 力</w>
锐 减</w>
远 东</w>
质 保</w>
行业 标准</w>
节 俭</w>
烟 草
武 昌</w>
显 眼</w>
探 寻</w>
我 军</w>
布 料</w>
主 营</w>
一 块
Cor p</w>
龙 卷风</w>
欺 负</w>
捕 捞</w>
抗日 战争</w>
华 锐</w>
动 静</w>
切尔 诺
上 缴</w>
隔 绝</w>
独 秀</w>
沸 腾</w>
月 间</w>
批发 价</w>
弱 势
咖啡 馆</w>
十字 架</w>
P A</w>
跳 槽</w>
裸 体</w>
毛 钱</w>
晚 点</w>
早 起</w>
拘 禁</w>
东 莞
高 标准</w>
钟 情</w>
朝 向</w>
引 述</w>
尘 埃</w>
咨询 服务</w>
今年 春节</w>
6 7
诗 词</w>
花 儿</w>
点 球</w>
寡 妇</w>
元 宵
付 钱</w>
亚硝 酸盐</w>
专 线</w>
不 感兴趣</w>
移 居</w>
无 缝</w>
干部 群众</w>
主 体
东莞 市</w>
a z
鸭 子</w>
音乐 家</w>
雷 克萨斯</w>
远 地区</w>
该 文</w>
肺 部</w>
手 袋</w>
小 汽车</w>
各 市</w>
经 商</w>
竭 尽全力</w>
总 督</w>
开 张</w>
坏 人</w>
国务 委员</w>
千万 别</w>
信 箱</w>
陈 旧</w>
配 建</w>
逻 辑
达 姆</w>
试 飞</w>
萨 德</w>
自杀 式</w>
熬 夜</w>
熟 练
有线 电视</w>
小到 中
小 行星</w>
失 明</w>
可 口</w>
保健 食品</w>
交易 中心</w>
不及 待</w>
维 克</w>
第七 章</w>
石家 庄市</w>
枯 竭</w>
房 企
合肥 市</w>
受 邀</w>
减 压</w>
冬 雨</w>
共 处</w>
万 至</w>
8. 6</w>
逼 迫</w>
营 利</w>
花 旗</w>
脚 踏
综合 症</w>
特 里
市 政
丰 台</w>
说 些</w>
结 核
河 网</w>
更 何况</w>
无处 不在</w>
土 壤
回 信</w>
公 证</w>
Micha el</w>
聘 者</w>
皮 鞋</w>
报告 书</w>
弗 朗
只 想</w>
偿 债</w>
优 势
一 路上</w>
7. 6</w>
19 9</w>
追 逃</w>
贫困 县</w>
第十 六条</w>
第五 届</w>
未 获</w>
供 需
上 半场</w>
高 危</w>
赛 跑</w>
诅 咒</w>
觉 醒</w>
节 省
烹 调</w>
注意 事项</w>
斯 敦</w>
得 出
得出 结论</w>
关 联
俏 江南</w>
五 千</w>
书 房</w>
一 元</w>
风 雪</w>
隐 性</w>
节 制</w>
死 因</w>
投 影
往 后</w>
卡 拉
分 期</w>
鲁 能</w>
顶 层</w>
陛 下</w>
藏 身</w>
花旗 集团</w>
编 者
系列 产品</w>
第二十 条</w>
滞 销</w>
沙 尔</w>
微 薄</w>
后 赛</w>
双 脚</w>
储 户</w>
停 业</w>
迫 害</w>
视 网膜</w>
老 牌</w>
步 兵</w>
托 运</w>
巅 峰</w>
和 睦</w>
入 伍</w>
优 越
ir e</w>
13 2</w>
阿姆 斯特
补 水</w>
海洋 法</w>
机械 化</w>
悄悄 地</w>
忘 掉</w>
平 价</w>
季 后赛</w>
台 州</w>
之 王</w>
中 所</w>
风 范</w>
韦 斯</w>
邮 戳</w>
贺 岁</w>
谈 恋爱</w>
落 到
落到 实处</w>
私 立</w>
沉 思</w>
每 家</w>
协 议书</w>
十 六</w>
C S
账 目</w>
西 城</w>
很 难说</w>
四 国</w>
噩 梦</w>
售货 员</w>
偏 僻</w>
中 指</w>
三 轮车</w>
P hone</w>
轰 炸机</w>
西门 子</w>
补 课</w>
拼 搏</w>
山 体</w>
尾 灯</w>
公 营</w>
不 善</w>
一 脚</w>
一 桩</w>
那 份</w>
西 西
自然 环境</w>
独 生
治 堵</w>
无 序</w>
人 秀</w>
角 质</w>
纸 币</w>
第二十 一条</w>
特 警</w>
煤 层
煤层 气</w>
沿 用</w>
感 触</w>
并 进</w>
年 长</w>
岛 内</w>
大 亨</w>
过 半</w>
离 散</w>
猖 獗</w>
更 快</w>
提起 公诉</w>
排 练</w>
太 平</w>
勿 扰</w>
克里 斯蒂
9. 7</w>
避 难
遍 及</w>
自 学</w>
绝 佳</w>
福 德</w>
知 觉</w>
暗 中</w>
时 所</w>
插 件</w>
捷 径</w>
指标 体系</w>
开发 人员</w>
实践 证明</w>
女 装</w>
一 票</w>
一 扇</w>
f or</w>
赵 某</w>
热 播</w>
李 冰冰</w>
总 产量</w>
形 象
建 起</w>
奋 进</w>
功 于</w>
免疫 力</w>
低 水平</w>
亿 千瓦时</w>
金 华</w>
通行 证</w>
缅 怀</w>
红 毯</w>
电 动机</w>
暴 行</w>
摊 款</w>
刺 激
h t</w>
马其 顿</w>
陈 志
红 楼
红楼 梦</w>
盐 酸</w>
消费 税</w>
大 棚</w>
刻 苦</w>
保险 金</w>
举行 会谈</w>
高 薪</w>
远 见</w>
理事 国</w>
弄 清楚</w>
伤 痛</w>
下 述</w>
一 匹</w>
渊 源</w>
屋 宇</w>
协会 会长</w>
交通 管理</w>
亚 利
Univers ity</w>
迫 不及待</w>
核 桃</w>
归 功于</w>
弱势 群体</w>
平均 工资</w>
平 线</w>
大 林</w>
大 体
受 惠</w>
保持 良好</w>
低 声</w>
二 世</w>
三 期</w>
re d
2 600</w>
新 开</w>
怀 旧</w>
小 张</w>
奏 效</w>
声 望</w>
十 四</w>
不 爱</w>
青藏 高原</w>
避难 所</w>
调 集</w>
读 取</w>
纵 容</w>
牙 医</w>
毛 额</w>
更 生</w>
南水 北调</w>
加 仑</w>
全 人类</w>
债务 人</w>
亚 哥</w>
东方 网</w>
U N
8 50</w>
适 于</w>
自 决</w>
第二十 七条</w>
真 菌</w>
湖 人</w>
德 曼</w>
强 生</w>
应 得</w>
小 王</w>
妓 女</w>
四 位</w>
乌兹 别
西 雅
性 生活</w>
展 区</w>
学习 成绩</w>
外 部
在 必
四 驱</w>
饭 碗</w>
造 血</w>
足 球队</w>
赛 特</w>
诚 恳</w>
草 药</w>
致 癌</w>
育 人</w>
留 学
吸 气</w>
北 大
勾 勒</w>
万 公顷</w>
附 表</w>
钢 管</w>
贸易 额</w>
说 了算</w>
昼 夜</w>
发展 潜力</w>
世界 性</w>
不 懂</w>
不 带</w>
趁 着</w>
调查 者</w>
蜜 月</w>
绿色 通道</w>
替 补</w>
巡 视
交 房</w>
举 世
不 免</w>
类 节目</w>
沉 闷</w>
小 巷</w>
剧 团</w>
企 稳</w>
互 惠</w>
部 副</w>
第四十 八届</w>
第二 节</w>
民主 党人</w>
救 生
扬 扬</w>
好 些</w>
奋 战</w>
囤 积</w>
四 人</w>
井冈 山</w>
G T
终 究</w>
对 流</w>
宣 讲</w>
历史 学家</w>
农业 银行</w>
元宵 节</w>
举 足轻重</w>
临时 工</w>
三 网</w>
一 模
领 空</w>
英国 首相</w>
芭 蕾
绝 不能</w>
纷 争</w>
纳 森</w>
留 有</w>
料 理</w>
救 护</w>
故 居</w>
定 决心</w>
别 无
下 定决心</w>
A N</w>
黄 晓明</w>
非 诚</w>
追 回</w>
石 景
无 常</w>
太 远</w>
历 届</w>
一模 一样</w>
X ML</w>
预防 措施</w>
远 比</w>
资 历</w>
诺 夫</w>
诈骗 罪</w>
考虑 一下</w>
海 归</w>
本 是</w>
教 辅</w>
嵌 入</w>
尘 土</w>
堡 垒</w>
勋 章</w>
公 元前</w>
辨 识</w>
积 率</w>
根 除</w>
情 书</w>
国土 局</w>
各个 领域</w>
交 涉</w>
陈 家</w>
附 录</w>
精 油</w>
江 河</w>
无 误</w>
无 穷</w>
所 为</w>
尔 曼</w>
好 不好</w>
信 访
交 战</w>
万 国</w>
重 重
趋 紧</w>
答 辩</w>
新 泽
换 个</w>
容 积率</w>
家 居
吉 米</w>
民族 团结</w>
查 证</w>
戏 称</w>
廉 政
应 聘者</w>
受 人</w>
南 昌市</w>
助 学金</w>
切 勿</w>
倒 退</w>
丰 满</w>
严肃 处理</w>
舟 曲</w>
而 同</w>
科技 进步</w>
王 建
春 秋</w>
无 能
无 损</w>
干 吗</w>
双 重
6 9
6 4
2 11</w>
虹 桥</w>
联合 利华</w>
男女 平等</w>
数据 处理</w>
故 事
和平 部队</w>
史 料</w>
公 路
上 下班</w>
An g
顽 固</w>
玫瑰 花</w>
清 晰
有 成效</w>
惬 意</w>
喝 咖啡</w>
哈 兹</w>
军 校</w>
中 所
M ac
高等 院校</w>
陆 上</w>
那 人</w>
转 机</w>
拉 伸</w>
委 派</w>
圣 灵</w>
刘 少
产业 政策</w>
重点 项目</w>
结 为</w>
百 公里</w>
涉案 人员</w>
检查 和</w>
数 千
抢 修</w>
心 底</w>
婚 恋</w>
吞 噬</w>
五 岁</w>
不 俗</w>
il e</w>
风 度</w>
构 思</w>
女性 网</w>
发展 局</w>
劳 资
克 森</w>
AT M</w>
1 24</w>
达 沃斯</w>
融 券</w>
游 资</w>
清 查</w>
海 豹</w>
派 系</w>
母 亲节</w>
攻 坚</w>
吃 不
中央政治 局
19 00</w>
转 折</w>
负 增长</w>
口 水</w>
包 袱</w>
乔 丹</w>
迭 代</w>
细 小</w>
礼 堂</w>
有 意识</w>
大理 石</w>
印 记</w>
下 沉</w>
S m
辛 亥</w>
证明 文件</w>
葡萄 糖</w>
药 监局</w>
用 钱</w>
海 岸线</w>
拉 塔</w>
富 民</w>
好 感</w>
哮 喘</w>
叛 乱</w>
公 职</w>
光 顾</w>
三 岁</w>
镇 定</w>
考 官</w>
禁 忌</w>
热 窝</w>
比 利</w>
新 世界</w>
尚 武</w>
古 希腊</w>
南 路</w>
人 参</w>
三 周</w>
万 港元</w>
顺利 进行</w>
调 剂</w>
许 诺</w>
美国 银行</w>
监督 员</w>
治 疗
强 盗</w>
张 春
年 满</w>
僵 尸</w>
余 力</w>
c o</w>
19 59</w>
肥 皂</w>
最 终
感染 者</w>
入 门</w>
仅 限于</w>
两 三个</w>
万 份</w>
19 52</w>
愈 加</w>
周 报</w>
可 言</w>
别 处</w>
传统 媒体</w>
两 旁</w>
世 俗</w>
万 张</w>
首 映</w>
起 降</w>
读 物</w>
试 探</w>
碰 上</w>
瓦 解</w>
实 地
吕 斯</w>
不 规则</w>
防 护
车 手</w>
玻 利维亚</w>
步 步</w>
慕 尼
小 费</w>
地 站</w>
吃 喝</w>
公 屋</w>
专 程</w>
8 5
读 完</w>
该 款</w>
融 洽</w>
考 查</w>
第一 场</w>
真是 太</w>
生产 性</w>
抽 奖</w>
徐 州</w>
天 籁</w>
大本 营</w>
后 裔</w>
发展 壮大</w>
修 课</w>
他 称</w>
乡 镇
一般 而言</w>
马 吕斯</w>
顺 义</w>
辍 学</w>
药 品
牛 市</w>
斜 坡</w>
折 不
广西壮 族自治区</w>
加 名</w>
出 访</w>
中 要</w>
L V</w>
风 扇</w>
虚 伪</w>
积 聚</w>
皮 特</w>
涉 外</w>
展 台</w>
对 峙</w>
合 成
严 查</w>
M e
问 政</w>
爵 夫人</w>
格 雷
粮 油</w>
稳 重</w>
猎 物</w>
浮 现</w>
毁 掉</w>
收 割</w>
打 理</w>
开 裂</w>
兰 德</w>
优 质
餐 厨</w>
顺利 完成</w>
限 制
蓝 光</w>
成 语</w>
征 得</w>
征 兆</w>
前 一
一 试</w>
一 千</w>
韧 性</w>
资产 阶级</w>
范 儿</w>
罗 纳
用 不着</w>
理 发
木 质</w>
无 限期</w>
拳 击</w>
并不 需要</w>
国务院 办公厅</w>
主 因</w>
H O
贴 着</w>
第二十 四条</w>
社会 治安</w>
磁 带</w>
新民 晚报</w>
推 销员</w>
接 通</w>
层 次
讲 台</w>
瞭 望</w>
注 水</w>
回 想</w>
伟 人</w>
上 访</w>
一对 一</w>
贵 宾</w>
认 罪</w>
罗 毕</w>
版 权
根 深
施 瓦
憧 憬</w>
墨 水</w>
侦 察
万 能</w>
迫 于</w>
贵 金属</w>
禁 用</w>
拳 头</w>
手 掌</w>
局 级</w>
好 不容易</w>
劣 质</w>
先 天</w>
鄱 阳
演 戏</w>
旷 野</w>
抵 抗力</w>
技 师</w>
土地 储备</w>
听 闻</w>
保 佑</w>
中 村</w>
赢 利</w>
警 员</w>
外 貌</w>
固 化</w>
力 拓</w>
凝 胶</w>
公 牛</w>
随 地</w>
身 心
耗 尽</w>
次 要</w>
持 刀</w>
完 后</w>
威士 忌</w>
多 见</w>
十字 路口</w>
为 力</w>
m ent</w>
7 5
补助 金</w>
独 资</w>
海 马</w>
新 德里</w>
招商 引资</w>
同 于</w>
双 层</w>
使 劲</w>
不良 贷款</w>
A 3</w>
百 万元</w>
拒 绝
打 仗</w>
安全 检查</w>
塞 人</w>
刑 拘</w>
限 电</w>
萨 尔</w>
油 厂</w>
微 粒</w>
弟 子</w>
三 门
静 电</w>
钉 子</w>
话 费</w>
稀 有</w>
清 代</w>
毫不 犹豫</w>
朴 实</w>
庆 幸</w>
定 下</w>
女 明星</w>
墨尔 本</w>
双 臂</w>
勾 结</w>
保 人</w>
A b
16 2</w>
15 000</w>
送 入</w>
证 交所</w>
萨 卡</w>
无 从</w>
夫 斯基</w>
亚利 桑
二 维</w>
8. 2</w>
见 面
腰 包</w>
民 心</w>
排 雷</w>
图 像
入 式</w>
丑 陋</w>
阿布 哈兹</w>
酿 造</w>
自然 人</w>
腐 烂</w>
老 式</w>
排 球</w>
想 一想</w>
心 事</w>
孙 俪</w>
土 豆
图 片
听 话</w>
亲 戚
七 一</w>
跳 动</w>
联合 声明</w>
美国 国务院</w>
策 略
沉 船</w>
核 反应堆</w>
总 成</w>
志 刚</w>
幽默 感</w>
ur e</w>
I A</w>
违 建</w>
触 摸
观 光
海关 总署</w>
推 算</w>
总 产值</w>
开 立</w>
农 副产品</w>
公 诉人</w>
之 用</w>
中央政治局 常委</w>
要 钱</w>
每 克</w>
心 上</w>
好 心人</w>
健身 房</w>
青 霞</w>
素 材</w>
盘 股</w>
献 身</w>
泰 山</w>
工业 园区</w>
保 有量</w>
休 闲
下 级</w>
重 整</w>
蓝 皮书</w>
流 感
智 库</w>
新 手</w>
整 容</w>
敬 业</w>
市场 部</w>
复 仇</w>
19 48</w>
零售 价格</w>
绍 峰</w>
省 公安厅</w>
特 高压</w>
太 晚</w>
多 米</w>
吃 晚饭</w>
I II</w>
黄 蜂</w>
谢 谢您</w>
药品 监督
药品监督 管理局</w>
脸 谱</w>
相 传</w>
本 周一</w>
居 留</w>
宇航 局</w>
因 公</w>
可 为</w>
八 十</w>
k m</w>
15 8</w>
采 购
散 户</w>
损 失
困 局</w>
谈 判
荧 屏</w>
经 查</w>
终 端
端 午</w>
极 其
公 道</w>
他 来</w>
ab y</w>
这 回</w>
赛义 夫</w>
整 形</w>
居住 区</w>
墨 镜</w>
堕 胎</w>
噱 头</w>
击 手</w>
关 照</w>
介 于</w>
东 电</w>
东 城</w>
4 3
高 考
眼 皮</w>
发 疯</w>
发 式</w>
十 分之一</w>
三 口</w>
高 明</w>
顺 德</w>
铃 木</w>
维 护
挫 败</w>
建筑 业</w>
堵 车</w>
高 洪波</w>
领事 馆</w>
设计 者</w>
男 童</w>
特 人</w>
爆炸 事件</w>
时 时</w>
抗 争</w>
心 存</w>
微 风</w>
应 从</w>
尤 为重要</w>
官 邸</w>
复 核</w>
坦 承</w>
前 门</w>
跟 不上</w>
质 押</w>
甚 远</w>
号 牌</w>
发 脾气</w>
初 级
但 据</w>
1 20
鲜 明
族 群</w>
吞吐 量</w>
主题 公园</w>
iP od</w>
马尼 拉</w>
花 生
舍 不得</w>
股份 公司</w>
缓 存</w>
皮 带</w>
湖 北
提 前
平 滑</w>
帕 特
各个 环节</w>
以上 学历</w>
中国 香港</w>
一 宗</w>
最低 水平</w>
思 潮</w>
口 服</w>
it h</w>
C R</w>
风 靡</w>
适 中</w>
落 马</w>
火箭 队</w>
永 生</w>
头 晕</w>
主 页</w>
不 靠</w>
账 面</w>
罗 德</w>
统计 调查</w>
弃 权</w>
幸 运
多 部</w>
该 是</w>
营养 素</w>
结 余</w>
碰 巧</w>
时 效</w>
拉 尼</w>
呵 呵</w>
19 65</w>
19 51</w>
高 产</w>
该 处</w>
脱 硫</w>
老 区</w>
真 寺</w>
物业 费</w>
句 型</w>
半 月
化 身</w>
功 能性</w>
佛 山市</w>
隔 离
社会 效益</w>
破 案</w>
看得 见</w>
直 航</w>
琢 磨</w>
源 源
洗手 间</w>
懈 努力</w>
开 展
大 同</w>
外 婆</w>
基因 组</w>
固 执</w>
不 懈努力</w>
高 发</w>
违 约
胜 者</w>
现代 农业</w>
清 真寺</w>
抢 夺</w>
抗 击</w>
太 贵</w>
单 是</w>
十 九</w>
军 演</w>
第三 期</w>
示 意</w>
无能 为力</w>
新 村</w>
售 楼</w>
北 韩</w>
低 落</w>
长 远
订 金</w>
萨拉 热窝</w>
民生 问题</w>
杨 善
时 能</w>
援 疆</w>
年 货</w>
屡 次</w>
不 离</w>
an ce</w>
艾哈 迈
清 扫</w>
命 中</w>
南 极
今年 夏天</w>
仇 敌</w>
靓 丽</w>
附 中</w>
美 国家</w>
欠 发达</w>
本 事</w>
有害 物质</w>
应 邀</w>
四 环</w>
反 之</w>
内 罗毕</w>
一 任</w>
领 馆</w>
多 时</w>
场 外</w>
利 昂</w>
关 机</w>
0. 25</w>
疲 弱</w>
梅 西</w>
无家可 归</w>
抢 走</w>
合 办</w>
严 寒</w>
7. 7</w>
13 9</w>
那 名</w>
购 进</w>
负 起</w>
蕴 含</w>
花 纹</w>
膨 胀率</w>
火 鸡</w>
无 愧</w>
我 该</w>
成绩 单</w>
成 指</w>
情 结</w>
威廉 姆斯</w>
出 厂</w>
共 和</w>
业务 员</w>
不良 影响</w>
青 山</w>
阿 密</w>
采 样</w>
送 货</w>
诊 治</w>
绳 索</w>
水 泵</w>
气 势</w>
极 强</w>
房 里</w>
叙 事</w>
单 项</w>
上 床</w>
一 盒</w>
US B</w>
8. 7</w>
麻 木</w>
防 火
跟 前</w>
衣 柜</w>
至 今日</w>
直 面</w>
时 至今日</w>
大 河网</w>
香港 大学</w>
随 其后</w>
踊 跃</w>
紧 随其后</w>
末 端</w>
敌 意</w>
技术 标准</w>
德 利</w>
平 面
N AS
采 摘</w>
站 楼</w>
看 房</w>
畅 销
渡 过</w>
欧洲 联盟</w>
打 人</w>
大 满贯</w>
写 字</w>
公 选</w>
位 子</w>
不 需</w>
三 元</w>
一 瞬间</w>
航 站楼</w>
缺 钱</w>
得 罪</w>
工商 管理</w>
地 标</w>
千 计</w>
辩 护
矿 床</w>
用 具</w>
望 去</w>
并非 如此</w>
安 卓</w>
大 喊</w>
各 处</w>
前 例</w>
不 决</w>
湿 润</w>
深 造</w>
很 感兴趣</w>
学生 家长</w>
在京 举行</w>
判处 死刑</w>
分 给</w>
长 久
银 子</w>
罗斯 福</w>
给 定</w>
纳 粹</w>
篇 小说</w>
油 污</w>
朋 好友</w>
大洋 网</w>
亲 朋好友</w>
之 物</w>
中 下游</w>
上 赛季</w>
集中 精力</w>
迈 阿密</w>
跳 出</w>
讨 价
表 面
等 同于</w>
神经 系统</w>
浮 躁</w>
正 版</w>
懂 事</w>
帐 单</w>
副 司长</w>
五 名</w>
丰 盛</w>
e x</w>
黄 昏</w>
讨价 还价</w>
衍生 品</w>
若 有</w>
摩 尔</w>
惊 恐</w>
堆 放</w>
凉 爽</w>
偏 偏</w>
事业 部</w>
鲜 血</w>
长 辈</w>
酒 瓶</w>
配 套
有 位</w>
新 品种</w>
报 名
咖啡 因</w>
取 款</w>
试 用
联 名</w>
维 加斯</w>
晴 朗</w>
接 电话</w>
巴 里</w>
工作 站</w>
两 头</w>
C ap
雅 阁</w>
记 协</w>
稻 草</w>
海军 陆战队</w>
巡 回</w>
屈 服</w>
对话 框</w>
失 灵</w>
喝 一杯</w>
却 说</w>
协 商
关 岛</w>
修 好</w>
三角 形</w>
MP V</w>
1 29</w>
蒂 固</w>
生 生</w>
滚 滚</w>
润 滑</w>
洗 礼</w>
再次 发生</w>
入 院</w>
免 费
三 板</w>
2 700</w>
迎 战</w>
根本 无法</w>
庭 院</w>
寄 宿</w>
可 望</w>
出厂 价</w>
上 千</w>
三十 日</w>
一 年期</w>
脱 水</w>
温 总理</w>
日 语</w>
接 见</w>
黑 板</w>
第一 夫人</w>
末 期</w>
提 车</w>
哈 弗</w>
减 至</w>
两 辆</w>
一 岁</w>
R ich
C L
7. 9</w>
运 载</w>
贸易 法</w>
质 问</w>
经济 总量</w>
犯 有</w>
收 录</w>
录 得</w>
家用 电器</w>
型 车</w>
刑 侦</w>
凶 猛</w>
中外 合作</w>
中 药材</w>
首 富</w>
这 栋</w>
紧密 结合</w>
满 怀</w>
法 新</w>
河 谷</w>
无 证</w>
斯蒂 芬</w>
改 名</w>
军 火</w>
具 特色</w>
主 宰</w>
良 知</w>
法 人
很 差</w>
定居 点</w>
奖 章</w>
多 钱</w>
向 标</w>
5 08</w>
这 有</w>
芝 麻</w>
稳 步
洋 品牌</w>
根深 蒂固</w>
放 电</w>
开 火</w>
广 为</w>
争 斗</w>
随 机
陈 晓</w>
身体 状况</w>
积极 支持</w>
社会 秩序</w>
甲状 腺</w>
心 肌
十 日</w>
上 要</w>
19 68</w>
飞 速
风 向标</w>
配 料</w>
过滤 器</w>
财政 厅</w>
贝 克</w>
编 排</w>
第一 百</w>
深 知</w>
检查 站</w>
旅行 者</w>
数以 千计</w>
买 主</w>
一夜 之间</w>
9 11</w>
香港 特区政府</w>
雪 上加
雪上加 霜</w>
登 台</w>
数百 名</w>
收 成</w>
拉 近</w>
小 川</w>
国家 体育总局</w>
内 分泌</w>
余 元</w>
万 年</w>
一 席
连 胜</w>
绝 缘</w>
淡 淡
本 章</w>
救 命</w>
巴 比
大 革命</w>
阳 澄
真 假</w>
支柱 产业</w>
悬 殊</w>
她 家</w>
光 棍
亚特兰 大</w>
ar e</w>
驻 军</w>
里 约
轻 而易
网络 媒体</w>
正常 化</w>
新闻 记者</w>
慈 爱</w>
影 后</w>
引 致</w>
废 旧</w>
射 门</w>
审 定</w>
威 慑</w>
大吃 一惊</w>
合 营</w>
全 城</w>
16 5</w>
1 27</w>
霍 华德</w>
轻而易 举</w>
获 释</w>
柔 性</w>
曾 一度</w>
外 墙</w>
各 行
倍 感</w>
优 酷</w>
代 购</w>
他 命</w>
五 矿</w>
通 过
蓄 意</w>
热 切</w>
查 韦斯</w>
有 多
数据 中心</w>
攻 关</w>
农 机</w>
保 温</w>
交 接</w>
主 播</w>
一 空</w>
难 求</w>
经 社
服务 项目</w>
服务 平台</w>
宜 昌</w>
二 年级</w>
19 63</w>
经贸 关系</w>
相互 尊重</w>
族 自治州</w>
坦 率</w>
千 岛
俄 语</w>
D I</w>
阳澄 湖</w>
贫 民
而 过</w>
线 上</w>
熄 灭</w>
格 雷</w>
李 阳</w>
斯 堡</w>
散 发出</w>
收藏 家</w>
摆 设</w>
接 触
心 血</w>
女 婴</w>
到 手</w>
估 量</w>
衷 心
第二 种</w>
立 信</w>
消 遣</w>
差 错</w>
促进 会</w>
五 星</w>
世界 排名</w>
里 昂</w>
达 赖
达赖 喇嘛</w>
显 著
强 奸
床 位</w>
受 灾
千 龙网</w>
共同 点</w>
保 镖</w>
不经 意</w>
记 下</w>
杨 澜</w>
有点 像</w>
有 如</w>
打 消</w>
度 量</w>
小 巧</w>
学生 会</w>
交通 银行</w>
上 证</w>
1 2.5</w>
飞 快</w>
限 贷</w>
近 平</w>
转 递</w>
繁 琐</w>
牙 膏</w>
污 泥</w>
日 系</w>
日 为</w>
容 貌</w>
增 高</w>
基本 原理</w>
团 圆</w>
区 位</w>
传 媒
主 旋律</w>
严格 遵守</w>
陈 德
纤维 素</w>
第二十 九条</w>
第一 期</w>
捐 赠
指 称</w>
把 门</w>
少年 儿童</w>
公平 正义</w>
低 空</w>
非 同
雌 性</w>
谈 不上</w>
讲 课</w>
联 动
空 虚</w>
汇 市</w>
极 地</w>
想 必</w>
刊 发</w>
丰 台区</w>
选 房</w>
联动 机制</w>
稍 稍</w>
查 清</w>
尼日 尔</w>
小 腿</w>
家 协会</w>
大 屏幕</w>
复 活
中等 职业</w>
零 点</w>
铁路 运输</w>
酒 会</w>
运 期间</w>
边 缘
美 式</w>
港 岛</w>
每 日
春 运期间</w>
富 于</w>
大 成</w>
吉尔吉斯 斯坦</w>
北京 地铁</w>
出 海</w>
公平 竞争</w>
充分 认识</w>
世 卫</w>
不言 而
一 例</w>
19 58</w>
边 界
西 侧</w>
而 然</w>
沉 积
施 加
报告 会</w>
就 行</w>
合格 率</w>
冯 绍峰</w>
入 量</w>
中央 纪委</w>
上 个世纪</w>
ic a</w>
A B
6. 9</w>
里约 热
那 件</w>
通 俗</w>
认 捐</w>
笼 子</w>
眉 毛</w>
战 事</w>
太阳 系</w>
太 子
公 车
便 携
中共 党员</w>
质 监局</w>
肉 制品</w>
电力 系统</w>
理 工</w>
每天 晚上</w>
标 配</w>
杰 出
斯 大林</w>
打 击
张 杰</w>
小 米</w>
安东 尼</w>
剩 女</w>
内 卢</w>
专 制</w>
不 间断</w>
P ar
里约热 内卢</w>
药家 鑫</w>
羞 辱</w>
年 纪念</w>
守 候</w>
地 主</w>
台 办</w>
分 隔</w>
习 近平</w>
中山 大学</w>
三 星
Q D
N S</w>
5 500</w>
零 星</w>
议 事
综合 体</w>
居住 证</w>
多 晶硅</w>
保 单</w>
9 5
霸 气</w>
趁 机</w>
育 种</w>
真 想</w>
滑 动</w>
明显 增加</w>
打 量</w>
开 个</w>
宠 物
外汇 市场</w>
夏 普</w>
名 誉
初 始
一 世</w>
iv e</w>
领土 完整</w>
鄱阳 湖</w>
连 环</w>
货 物
花 样
居 于</w>
历史 悠久</w>
交 锋</w>
w e
G e
言 行</w>
琐 事</w>
海 波</w>
武装 力量</w>
扼 杀</w>
嫦 娥</w>
基层 干部</w>
发展 势头</w>
升 学</w>
不 如
路 况</w>
致 意</w>
灵 敏</w>
消防 员</w>
欢 快</w>
杨善 洲</w>
扣 留</w>
所在 单位</w>
地 产
受 挫</w>
出 钱</w>
偿 付</w>
交 错</w>
互 通</w>
个 体
专业 性</w>
G O</w>
面 容</w>
迟 缓</w>
田 地</w>
机 长</w>
有 否</w>
更 显</w>
挑 起</w>
必 会</w>
往 前走</w>
再 创</w>
具体 措施</w>
G A</w>
阴 道</w>
门 窗</w>
酸 钠</w>
远 期</w>
点 亮</w>
春 节
支 教</w>
德 州</w>
式 样</w>
受 雇</w>
冠 名</w>
不 知道</w>
D A
高 耗能</w>
经社 理事会</w>
离 奇</w>
相 貌</w>
畜 牧业</w>
煤 油</w>
最 贵</w>
普 及
情报 局</w>
德 语</w>
创 投</w>
其 所</w>
一站 式</w>
辩 称</w>
半 年报</w>
净 流入</w>
两 队</w>
面 谈</w>
阴 暗</w>
肖 像</w>
正确 性</w>
所 行</w>
当 代
利 尔</w>
不言而 喻</w>
那 双</w>
运动 型</w>
象 棋</w>
红色 旅游</w>
系统 工程</w>
物 力</w>
煤 矿
然 无
灭 亡</w>
多 渠道</w>
哈 姆
各 不
驱动 器</w>
颜 料</w>
足 额</w>
绩 效
深入 人心</w>
浪 尖</w>
散 落</w>
建 联</w>
学 分</w>
党和 人民</w>
8. 9</w>
见面 会</w>
治安 管理</w>
数 周</w>
外 滩</w>
共 存</w>
六 日</w>
中国 社会科学院</w>
两 条
额 贷款</w>
用 性</w>
流 露出</w>
毋庸 置疑</w>
时 日</w>
效果 图</w>
感 悟</w>
总 有
廉 署</w>
小 额贷款</w>
两 者之间</w>
不及 格</w>
高 新</w>
那 本书</w>
质 监</w>
访 客</w>
育 儿</w>
稳定 物价</w>
电 池
琳 娜</w>
明 晰</w>
房地 产商</w>
十 五条</w>
医疗 保障</w>
出口 国</w>
保 修</w>
五 项</w>
之 名</w>
ic k
购买 者</w>
自然 而然</w>
绕 过</w>
硬 度</w>
率 为</w>
牵 动</w>
杂 质</w>
摇 摆</w>
提 高
克 里</w>
飞速 发展</w>
过 硬</w>
质量 标准</w>
财政 资金</w>
m an
长 治
银行 存款</w>
萃 取</w>
而 今</w>
短 裙</w>
曾 荫
整 数</w>
差 别
处 女
创 性</w>
出 乎
伊 利
亚洲 地区</w>
3 40</w>
霍 乱</w>
纳米 比亚</w>
来 京</w>
权 衡</w>
技术 改造</w>
弱 化</w>
对 本</w>
字 头</w>
头 盔</w>
圣 地
各不 相同</w>
区域 合作</w>
再 者</w>
N 1</w>
防 晒
铲 除</w>
调 整
舒 淇</w>
用 房</w>
枯 燥</w>
月 经</w>
德 班</w>
四 日</w>
侨 胞</w>
五 十年</w>
三 者</w>
P ad</w>
韩 寒</w>
酒 驾</w>
通货 膨胀率</w>
节 日
第一 节</w>
眉 睫</w>
库 存量</w>
巴塞罗 那</w>
和 尚</w>
告 上</w>
体育 局</w>
镇 江</w>
金 刚
轮 子</w>
短短 的</w>
曾荫 权</w>
无 可</w>
剪 辑</w>
7 500</w>
豪 车</w>
能 及</w>
市场 准入</w>
商 圈</w>
刘 海</w>
其 妙</w>
佩 斯</w>
交易 平台</w>
集成 电路</w>
近 海</w>
转 变成</w>
舒适 型</w>
继续 下去</w>
第三 节</w>
温 情</w>
淫 秽</w>
本 世纪</w>
新闻 稿</w>
接 头</w>
指导 思想</w>
恶 意
总统 大选</w>
常任 理事</w>
家 电网</w>
南 县</w>
列 车
光棍 节</w>
这 组</w>
缤 纷</w>
狭 小</w>
牛 津</w>
新 婚</w>
副 手</w>
几 千年</w>
一 连</w>
E A</w>
随 时
这 架</w>
该 类</w>
装 甲
芹 菜</w>
老 汉</w>
海洛 因</w>
欠 薪</w>
天 涯</w>
在 世</w>
反 差</w>
北 川</w>
部 级</w>
脚 踝</w>
相 匹配</w>
火 烧</w>
混 杂</w>
斑 点</w>
播放 器</w>
居 所</w>
后 备
各 派</w>
农村 居民</w>
二 元</w>
不知所 措</w>
Sk y
C a
长 老</w>
迅 猛
烟 花
林 区</w>
明显 改善</w>
新 式</w>
十一 日</w>
加 装</w>
何 等</w>
8. 3</w>
辅导 员</w>
诺 斯
西 路</w>
王 亚
满 满
星 际</w>
文 盲</w>
归 于</w>
居民 身份证</w>
外 资银行</w>
钟 表</w>
烤 鸭</w>
李亚 鹏</w>
拼 接</w>
心 疼</w>
全 军</w>
顾 问
自 民党</w>
深 渊</w>
法 宝</w>
才 行</w>
寄 生
励 志</w>
不大 可能</w>
一 两年</w>
风 云
详 情
能源 价格</w>
级 车</w>
撕 裂</w>
摇 篮</w>
关键 环节</w>
交 大</w>
G re
课 时</w>
设 区</w>
突 如其
突如其 来</w>
撞 倒</w>
扫 除</w>
动 身</w>
传统 节日</w>
两 位数</w>
不 耐
不 失
8. 4</w>
黄 牛</w>
说 到底</w>
详情 请</w>
肇事 者</w>
精 彩
机 舱</w>
本 刊</w>
接 吻</w>
总有 一天</w>
库 克</w>
巴 德</w>
含 糊</w>
供 选择</w>
不 妥</w>
赶 走</w>
看 做</w>
文 风</w>
戴 安娜</w>
大 叔</w>
分析 家</w>
出 产</w>
东 县</w>
一汽 大众</w>
非 但</w>
野 餐</w>
选 派</w>
自 助
村 落</w>
持 卡人</w>
塞 内
卡 因</w>
几 项</w>
凝 固</w>
w or
纸 条</w>
相 聚</w>
暗 淡</w>
投资 收益</w>
徒 步</w>
君 安</w>
自 给
痊 愈</w>
甜 点</w>
杰 明</w>
心 动</w>
大 马
在 眉睫</w>
全 盘</w>
一 中</w>
认真 学习</w>
纳 州</w>
战 时</w>
成 功率</w>
思 域</w>
对 决</w>
大 暴雨</w>
哈 尔</w>
原 副</w>
介 绍
人 权
为数 不多</w>
QD II</w>
19 62</w>
驾驶 证</w>
输 血</w>
毕业 典礼</w>
拼 写</w>
心 得</w>
媲 美</w>
圣 节</w>
发行 人</w>
厦门 市</w>
俄 亥
H T
苏 尔特</w>
相 位</w>
炼 厂</w>
林 青霞</w>
早 上
早上 好</w>
接 班人</w>
富春 山</w>
多 巴
势 在必
冠 军
中 组
专 长</w>
三 代</w>
高等 法院</w>
阵 风</w>
酒 业</w>
约 而同</w>
桂 冠</w>
恶性 循环</w>
大 河</w>
外 企</w>
共产 党人</w>
中 转</w>
两 面</w>
不 约而同</w>
驾驶 者</w>
销 路</w>
还 清</w>
载 入</w>
胶 原
筹 办</w>
短 板</w>
现 房</w>
清 朝</w>
母 婴</w>
橱 窗</w>
林 木</w>
小组 赛</w>
富 强</w>
失 恋</w>
大 陆
刘少 奇</w>
集 训</w>
管 辖
眼 界</w>
申 明</w>
独生 子女</w>
校 服</w>
普 森</w>
性 格
减 去</w>
侵权 行为</w>
马 桶</w>
讲 话
视 点</w>
血 流</w>
教学 质量</w>
居住 地</w>
复活 节</w>
合 唱
养 费</w>
何 必</w>
青 网</w>
超 声波</w>
经 销</w>
生命 安全</w>
暧 昧</w>
得 体</w>
少 林
千 亿</w>
加 码</w>
关节 炎</w>
依 存</w>
迫 在眉睫</w>
生产 国</w>
混 沌</w>
何 不</w>
9. 1</w>
重 生</w>
留学 人员</w>
木 家具</w>
无 礼</w>
尽 显</w>
尔 卡</w>
小 猫</w>
安全 措施</w>
大大 降低</w>
判 决书</w>
买 房
不得 而知</w>
黄 淮</w>
重要 途径</w>
肆 虐</w>
牌 号</w>
版 面</w>
毛 里
棺 材</w>
嗓 子</w>
冒 犯</w>
共 度</w>
人才 队伍</w>
两 口</w>
下 山</w>
一 包</w>
E d
质 询</w>
英 俊</w>
红 火</w>
秒 杀</w>
短 文</w>
把 戏</w>
成 瘾</w>
寒 风</w>
力 所
倒 入</w>
乘 务员</w>
海 区</w>
大大 增加</w>
同 情
光 子</w>
伊朗 核</w>
亚 足联</w>
中组 部</w>
飞 越</w>
领导 层</w>
霍 尔</w>
陕 北</w>
银 川市</w>
竞 相</w>
派 发</w>
武 警
政治 委员</w>
擦 拭</w>
挖 掘
几 近</w>
公 厕</w>
三 厢</w>
1 48</w>
黄 光
葫 芦</w>
自 强</w>
烟花 爆竹</w>
每 张</w>
樱 桃</w>
性 情</w>
尽量 避免</w>
史 无
上 岸</w>
莉 莉</w>
省 城</w>
海 平面</w>
沸 沸
家 里人</w>
困难 群众</w>
史无 前例</w>
倒 计时</w>
佛罗里 达</w>
长 子</w>
钢铁 企业</w>
辖 下</w>
沸沸 扬扬</w>
战略 伙伴</w>
平均 年龄</w>
C it
邀 请
生 意
政 界</w>
控 器</w>
打 赌</w>
年 青</w>
工业 生产</w>
工 期</w>
安 放</w>
奖 品</w>
举报 人</w>
中央 社</w>
万 圣节</w>
问 责
违 反
案 自首</w>
投 案自首</w>
扫 描
常 人</w>
下 岗</w>
一 纸</w>
T 台</w>
G 20</w>
过 长</w>
联 社</w>
缴 款</w>
第二 名</w>
婚 变</w>
仍 为</w>
五 种</w>
8 7
超 高</w>
篇 幅</w>
收 听</w>
巴 沙尔</w>
将 来临</w>
即 将来临</w>
卫 士</w>
单 打</w>
停 泊</w>
停 战</w>
云 南
难 堪</w>
针 织</w>
通 关</w>
美 感</w>
第二 次世界大战</w>
妥善 解决</w>
加 拉</w>
公益 活动</w>
例 证</w>
从 轻</w>
15 2</w>
陵 园</w>
要 约</w>
第二 十二条</w>
游 离</w>
浴 缸</w>
打 字
张 学
实 拍</w>
学 好</w>
历 任</w>
北 爱尔兰</w>
劲 儿</w>
冥 想</w>
先 期</w>
佩 服</w>
体育 锻炼</w>
人 保</w>
中央 人民政府</w>
联 利</w>
罐 头</w>
有 形</w>
墙 体</w>
八 十年代</w>
o o</w>
ec t</w>
韩 国政府</w>
防 御
贷 款
西雅 图</w>
西 州</w>
生产 日期</w>
支 书</w>
持 仓</w>
拨 通</w>
拐 卖
才 智</w>
手机 用户</w>
徐 某</w>
占 款</w>
倍 增</w>
人 队</w>
上 当</w>
万 事
一 家
W il
重 温</w>
贪 腐</w>
自 主权</w>
祈 福</w>
整 机</w>
塞内 加尔</w>
周 某</w>
发行 股票</w>
亦 庄</w>
销 往</w>
重大 项目</w>
趴 在</w>
诚 然</w>
窘 境</w>
留 心</w>
武汉 大学</w>
林业 局</w>
合 规</w>
八 门</w>
两 轮</w>
W in
9. 2</w>
19 57</w>
香 山</w>
迷 茫</w>
碱 性</w>
监察 局</w>
爵 士
战略 目标</w>
慕尼 黑</w>
山 洪</w>
小 康</w>
因 应</w>
个 头</w>
M on
鞍 山</w>
行 贿
数 万</w>
所得 税法</w>
工商 联</w>
小 店</w>
实用 新型</w>
大 白菜</w>
复 旦</w>
喷 射</w>
劫 匪</w>
人 格
不 远处</w>
一 章</w>
PL C</w>
痛 心</w>
气 压</w>
手 稿</w>
唐 山</w>
不在 少数</w>
除 夕</w>
销售 员</w>
迅猛 发展</w>
跟 帖</w>
滋 养</w>
李 敖</w>
教 士</w>
提 成</w>
展 馆</w>
宫 城县</w>
娱乐 场所</w>
圣诞 树</w>
圈 内</w>
加 工厂</w>
修 剪</w>
上 交</w>
一 斑</w>
迷 路</w>
萨 达姆</w>
肝 癌</w>
群众 反映</w>
缩 写</w>
精神 文明</w>
突破 性</w>
未 果</w>
排 行</w>
拖 车</w>
所 幸</w>
想 而知</w>
层 级</w>
外 语
壁 纸</w>
可 想而知</w>
全 科</w>
九 二</w>
万 维</w>
一 辈</w>
诱 因</w>
稳 中有
电 车</w>
往 日</w>
录 像
家庭 作业</w>
周 立
南 山</w>
今 夏</w>
p l
鞠 躬</w>
贯 通</w>
竞 拍</w>
牵 涉</w>
有 损</w>
抛 开</w>
巴 赫</w>
国 营</w>
凡 事</w>
凑 型</w>
会 展
之 苦</w>
中 为</w>
8 9
真 伪</w>
源源 不断</w>
消 退</w>
比 拟</w>
果 树</w>
得 手</w>
学 士</w>
国泰 君安</w>
停 靠</w>
践 踏</w>
路 桥</w>
财政 年度</w>
裸 露</w>
苏 维
紧 凑型</w>
洋 洋</w>
大 势
吸 血
受 托人</w>
齐 白石</w>
预 付</w>
限 量
谋 杀
成 才</w>
悉 数</w>
很 久</w>
小 雪</w>
合同 法</w>
养 猪
薄 弱
营养 成分</w>
移动 电话</w>
神 秘
康 熙</w>
学习 者</w>
发起 人</w>
任 务
付 清</w>
辩 护人</w>
表 层</w>
照 着</w>
潜 意识</w>
深 沉</w>
母 子</w>
厂 区</w>
努力 学习</w>
A 1</w>
高 超</w>
顺 从</w>
雷 雨</w>
雨 林</w>
金 库</w>
诺贝尔 奖</w>
表 中</w>
罪 人</w>
特 制</w>
海 量</w>
招 办</w>
因 于</w>
同 台</w>
受 旱</w>
即 便
即便 如此</w>
V er
赛 区</w>
演 变成</w>
推 到</w>
把 头</w>
巴 尔</w>
工商 户</w>
封 顶</w>
场 费</w>
P ol
ET F</w>
6 500</w>
美国 公司</w>
离 场</w>
满 面</w>
殿 堂</w>
常 说</w>
光明 网</w>
之 机</w>
h k</w>
默默 地</w>
飞 利
艺术 团</w>
缝 隙</w>
统计 学</w>
水利 工程</w>
报 答</w>
忽 职守</w>
将 领</w>
国 立</w>
吸血 鬼</w>
华 龙网</w>
产品 销售</w>
M organ</w>
高 油价</w>
退 缩</w>
账 款</w>
英语 口语</w>
省 纪委</w>
宋 祖
医 务</w>
全 款</w>
偷 窃</w>
偏 紧</w>
人 居</w>
主 旨</w>
中 南部</w>
三 四
进口 商</w>
轮 候</w>
转 战</w>
胜 利
组 分</w>
死 神</w>
文 斯</w>
愈来 愈</w>
威 斯
太 少</w>
限制 性</w>
祸 首</w>
环境 卫生</w>
爱 立信</w>
标 人</w>
捐 给</w>
挥 舞</w>
官 僚</w>
出版 业</w>
几 小时</w>
冲 着</w>
公 子</w>
代 为</w>
血 腥</w>
清 澈</w>
放 款</w>
各 业</w>
兴 旺</w>
借 机</w>
作出 贡献</w>
个人 住房</w>
G al
重 病</w>
重 机</w>
袭 击者</w>
表 征</w>
聘 任</w>
排 污
富 尔</w>
大 佬</w>
国 界</w>
化 为</w>
储 藏</w>
老 院</w>
玩 忽职守</w>
泄 密</w>
架 上</w>
恼 火</w>
强 加</w>
国际 事务</w>
助 攻</w>
内 核</w>
人 人
不 入</w>
七 十</w>
一 谈</w>
阿 让</w>
荒 漠化</w>
舞 蹈
美国 财政部</w>
秦皇 岛</w>
科 维奇</w>
炒 股</w>
幸 存</w>
家 政</w>
安全 事件</w>
可 比</w>
200 00</w>
麻醉 药品</w>
香 槟</w>
闹 剧</w>
表现 形式</w>
菲利 普</w>
精 装</w>
福 林</w>
百 亿</w>
王 小
热 词</w>
洪 都
敌 军</w>
打 碎</w>
力所 能及</w>
不 绝
上 瘾</w>
院 内</w>
据 报</w>
居 图</w>
尖 端</w>
安全 区</w>
出 线</w>
值 钱</w>
促进 作用</w>
份 子</w>
仰 望</w>
世纪 末</w>
a w
重 负</w>
路 军</w>
规范 性</w>
联 考</w>
滑 冰</w>
普通 高校</w>
插 座</w>
打 拼</w>
雅 思</w>
阴 阳</w>
许 多年</w>
王 府
水利 部</w>
张 朝阳</w>
建 中</w>
巡 演</w>
官 僚
宁 夏
升 幅</w>
北 路</w>
劳 累</w>
盟 国</w>
玩 得</w>
新 作</w>
揭 幕</w>
扩大 内需</w>
家 具
名 列
加 达</w>
办公 桌</w>
他 妈
读 过</w>
计 数</w>
警戒 线</w>
荷 载</w>
此 轮</w>
按 期</w>
心理 咨询</w>
双 人</w>
刷 牙</w>
侵略 者</w>
Ad ob
18 5</w>
道 义</w>
股 息</w>
维 他命</w>
管辖 权</w>
煤 化工</w>
档 期</w>
损 害
损害 赔偿</w>
可 持续性</w>
仅 靠</w>
亚 锦赛</w>
为 时
美国 联邦
波 长</w>
好 于</w>
固体 废物</w>
升 华</w>
他妈 的</w>
骨 架</w>
风 声</w>
诉 诸</w>
自 力
系统 地</w>
离 任</w>
林 中</w>
最低 点</w>
开 户</w>
园 林
不 争</w>
还 债</w>
边境 地区</w>
西 单</w>
血 管
毫无 意义</w>
招商 银行</w>
宜 居</w>
南 沙</w>
公 章</w>
Ch e
.. ..
金 发</w>
置 评</w>
犹 豫
牺 牲
火 腿</w>
泰 晤
油 炸</w>
殖民 化</w>
意 料
大 哭</w>
唐 代</w>
反 导</w>
南 通</w>
低 收入者</w>
送 回</w>
进 门</w>
过 冬</w>
试验 区</w>
记 入</w>
纷纷 表示</w>
精 确
立 陶
科学 性</w>
番 话</w>
手机 号码</w>
圣地 亚哥</w>
供求 关系</w>
鲜 有</w>
视 镜</w>
花 瓣</w>
考 题</w>
羞 愧</w>
绵 羊</w>
癌 细胞</w>
物价 部门</w>
平 房</w>
帅 哥</w>
布 宜
宁波 市</w>
南极 洲</w>
写 真</w>
下 雪</w>
16 6</w>
黄光 裕</w>
阵 列</w>
说 家</w>
装 船</w>
梦 中</w>
李 家</w>
发展 史</w>
转 换成</w>
虫 子</w>
时 性</w>
底 座</w>
城 中村</w>
全 套</w>
信息 时报</w>
两 分钟</w>
不 切
蒙古 国</w>
蒂 姆</w>
医疗 器械</w>
e p</w>
17 8</w>
闪 闪
皮 埃尔</w>
滤 波器</w>
探 险
如 是</w>
在 读</w>
国 库</w>
可 图</w>
包 包</w>
买 不到</w>
中心 区</w>
雨 润</w>
确 保
染 上</w>
暴力 事件</w>
新 月
排名 第</w>
抓 住
恶 搞</w>
恶 人</w>
工商 总局</w>
喜 剧
从业 者</w>
书记 处</w>
9. 4</w>
遗 余力</w>
蓬 勃</w>
空 头</w>
牵 连</w>
清 偿</w>
更 让人</w>
扇 门</w>
平 整</w>
听 觉</w>
同 位
不 遗余力</w>
19 69</w>
钢 笔</w>
窃 贼</w>
正 经</w>
摩 天
总 厂</w>
工 伤
少 将</w>
孩 童</w>
天安 门
发言 权</w>
冬 日</w>
优秀 人才</w>
优 选</w>
五花 八门</w>
魔术 师</w>
香 肠</w>
这 群</w>
试用 期</w>
莫 斯</w>
群众 利益</w>
灌 输</w>
本 季</w>
出口 额</w>
风 速</w>
闻 名
郑 重</w>
表 皮</w>
蝙 蝠</w>
缺 氧</w>
第 一种</w>
移 民
狗 狗</w>
守 卫</w>
反对 者</w>
原 装</w>
儿童 节</w>
临时 性</w>
钢铁 行业</w>
脱 离
李 明</w>
显 露</w>
我 敢</w>
密切 联系</w>
保 有</w>
何 方</w>
一 文</w>
o k
CN N</w>
5 20</w>
15 7</w>
赶 回</w>
赃 款</w>
西 尔</w>
裂 变</w>
莫 名
莫名 其妙</w>
第二十 八条</w>
王 星</w>
浓 缩
洛 夫</w>
注射 液</w>
法国 巴黎</w>
校 外</w>
劝 阻</w>
分 拆</w>
不 舍</w>
车 次</w>
绍 兴</w>
珊 瑚
王 志
水 军</w>
有 太多</w>
咀 嚼</w>
中华人民共和 国
两 艘</w>
两 台</w>
不足 为
下 水道</w>
T F
A le
闹 钟</w>
菜 篮子</w>
获 赠</w>
耐 力</w>
密 钥</w>
存 折</w>
争 夺
丽 江</w>
不切 实际</w>
V S</w>
非常 明显</w>
耕 种</w>
续 约</w>
票 价格</w>
百万 富翁</w>
百 合</w>
明确 指出</w>
吓 坏</w>
元 帅</w>
17 3</w>
金融 公司</w>
调 理</w>
湄 公
极 化</w>
敬 请</w>
收入 水平</w>
接 任</w>
底 特
妥 当</w>
善 待</w>
响 亮</w>
变频 空调</w>
14 2</w>
馅 饼</w>
食物 中毒</w>
非常 适合</w>
腾 出</w>
炼 油厂</w>
房 款</w>
宋祖 英</w>
冉 阿让</w>
余 震</w>
为 啥</w>
不耐 烦</w>
上海 市
一 改</w>
飞 过</w>
领 巾</w>
那 会</w>
达 斯</w>
行政 诉讼</w>
耽 搁</w>
特别 强调</w>
洗 脸</w>
洋 房</w>
新 兵</w>
增长 幅度</w>
前 年</w>
义 乌</w>
中 高级</w>
东道 主</w>
转 子</w>
转 化成</w>
蕴 藏</w>
艳 丽</w>
狩 猎</w>
易 建联</w>
弄 虚
建筑 材料</w>
对 照
u l</w>
o p</w>
k W</w>
e x
ad y</w>
造 纸</w>
过 日子</w>
轻 质</w>
身心 健康</w>
课 文</w>
盛 世</w>
受 制
升 级
出 汗</w>
光 照</w>
何 鸿
东 芝</w>
鸟 巢</w>
驻华 大使</w>
预 后</w>
课 税</w>
该 报</w>
缺 损</w>
疯 子</w>
生育 率</w>
法制 晚报</w>
抱 负</w>
所 称</w>
因 果
器 皿</w>
初 三</w>
交 互
运 而生</w>
跨 度</w>
谢 娜</w>
诺斯 艾
考 入</w>
立案 侦查</w>
猛 进</w>
照 相</w>
本 行政区域</w>
执法 检查</w>
布宜 诺斯艾
坊 间</w>
势在必 行</w>
供 图</w>
专 责</w>
税 额</w>
狡 猾</w>
操 场</w>
摇 滚
在校 生</w>
公务 机</w>
上 身</w>
防火 墙</w>
里 根</w>
达尔 富尔</w>
短 发</w>
特派 团</w>
湄公 河</w>
李 宇
底特 律</w>
应 运而生</w>
围 攻</w>
发 证</w>
人 则</w>
中 英文</w>
这 要</w>
豪华 车</w>
李明 博</w>
服务 商</w>
想 来</w>
卡 尔
制 定
l er</w>
20 30</w>
银 牌</w>
跳 楼</w>
统 统</w>
教 员</w>
已 过</w>
名 胜
南 下</w>
人 物
中国 外交部</w>
两 支</w>
J av
车 顶</w>
贴 身</w>
药 性</w>
自力 更生</w>
聚 在一起</w>
竖 起</w>
早 先</w>
掠 夺</w>
山 姆</w>
好 几年</w>
卢 布</w>
et t
退 票</w>
没 人
惋 惜</w>
室 友</w>
北 青网</w>
乌兹别 克斯坦</w>
一 概</w>
一 女</w>
预 想</w>
限 行</w>
通 缉</w>
自 此</w>
社 工</w>
相 较</w>
相 约</w>
父 母亲</w>
欧 文</w>
本 意</w>
新 意</w>
招 来</w>
拖拉 机</w>
抽 调</w>
可 不
十 岁</w>
光 碟</w>
于 求</w>
两 度</w>
专利 申请</w>
万 千</w>
it t
苏 拉塔</w>
源 性</w>
洗 发
扮演 着</w>
哪 些
同情 心</w>
史 诗</w>
反倾 销
厚 望</w>
凯 蒂</w>
俱 全</w>
一 遇</w>
高速 路</w>
震 中</w>
西 服</w>
户 籍
成 都
建 于</w>
乳 腺</w>
这 则</w>
老 人家</w>
生物 学家</w>
漫 游</w>
气 泡</w>
每 一件</w>
曹 操</w>
打 黑</w>
弄 清</w>
切 成</w>
冷 藏</w>
优先 权</w>
两 房</w>
万 条</w>
D E
首 部</w>
虫 剂</w>
考试 院</w>
端 口</w>
生命 周期</w>
浪 漫
津 津
总 编辑</w>
弗 里</w>
头 市</w>
喝 点</w>
发 球</w>
净 利</w>
入 门
7 9
醒 过来</w>
配 制</w>
贸易 逆差</w>
科 室</w>
林 丹</w>
极其 重要</w>
封 堵</w>
大 三</w>
四 届</w>
各行 各业</w>
全面 实施</w>
一 片
领 养</w>
雅 加达</w>
税收 政策</w>
点 滴</w>
泰 达</w>
油 墨</w>
市场 监管</w>
定 理</w>
如 愿</w>
侥 幸</w>
高 校
邮 轮</w>
耶 稣
结核 病</w>
纽约 商品交易所</w>
科 大学</w>
洪都 拉斯</w>
汽车 业</w>
持 久
投 掷</w>
宣 部</w>
坠 入</w>
各 路</w>
台 独</w>
另 一只</w>
信息 产业</w>
风 电场</w>
雨 天</w>
百 胜</w>
畜 牧</w>
李 连
杂 货
摆 动</w>
垃圾 桶</w>
北京 师范大学</w>
优良 传统</w>
交 管局</w>
不 计</w>
超 速</w>
老 将</w>
编者 按</w>
曾 于</w>
新型 农村</w>
征 程</w>
国 资</w>
公 映</w>
伤 人</w>
4 2.
非 官方</w>
随时 随地</w>
萝 卜
滤 波</w>
深 化
深化 改革</w>
掉 下来</w>
所 作
愿 景</w>
征 管</w>
大 额</w>
动 态
兼 具</w>
俊 杰</w>
不同 寻常</w>
it al</w>
Q F
4 2
龙 门</w>
高 精度</w>
高 压
顶 上</w>
近 视</w>
抓 起</w>
工业 协会</w>
少 儿</w>
大大 小小</w>
可 视
原 产</w>
写 信
信 片</w>
事 变</w>
专 卖</w>
面 世</w>
车 险</w>
跃 进</w>
装 潢</w>
缺 乏
满 分</w>
施 救</w>
布鲁 斯</w>
小型 车</w>
客 源</w>
地 平线</w>
加 长</w>
减 负</w>
党 委
交易 额</w>
一 整套</w>
T A</w>
陈 奕
过 身</w>
识 别
职业 培训</w>
煤炭 资源</w>
每 件</w>
所作 所为</w>
广大 群众</w>
发 车</w>
发 愁</w>
公开 信</w>
光 是</w>
休 斯敦</w>
一 至</w>
蔡 依
硫 酸</w>
海 参</w>
水 肿</w>
文学 奖</w>
挂 职</w>
拉 长</w>
总 裁
娜 塔
夜 空</w>
中 路</w>
中 奖</w>
M E
隐 喻</w>
部 族</w>
罗 拉
应用 软件</w>
多 件</w>
外 包装</w>
发出 通知</w>
依法 行政</w>
l a</w>
飞利 浦</w>
钻 进</w>
速 腾</w>
苔 丝</w>
苏 区</w>
素 有</w>
立陶 宛</w>
溺 水</w>
栏 杆</w>
扶 手</w>
战 火</w>
成就 感</w>
宝 钢</w>
头 像</w>
天 黑</w>
出乎 意料</w>
兰 花</w>
交通 大学</w>
乔 纳森</w>
自 闭
民 企</w>
判 断
克 利
僵 硬</w>
雷 电</w>
阻 断</w>
超 强</w>
调 任</w>
色 彩
清 网</w>
大体 上</w>
响 声</w>
南 美洲</w>
俱 增</w>
除 术</w>
钢 琴
酿 酒</w>
辩护 律师</w>
累 累</w>
社区 卫生</w>
漏 水</w>
正当 竞争</w>
有 线</w>
早 教</w>
所 趋</w>
市 价</w>
导 购</w>
前 言</w>
不 问</w>
in t</w>
颠 簸</w>
计 税</w>
要 命</w>
自闭 症</w>
自 费</w>
毕 加索</w>
更 有
普 拉</w>
抄 底</w>
寝 室</w>
大手 笔</w>
吴 某</w>
刑 警</w>
人民 银行</w>
中共 中央
is s
15 6</w>
非常 简单</w>
重 担</w>
联 检</w>
点 点</w>
日 化</w>
新 进展</w>
挥 手</w>
实 情</w>
孕 期</w>
信 道</w>
As s
附 着</w>
较 少</w>
译 者</w>
联系 人</w>
第三 位</w>
沙 漠化</w>
普 勒</w>
怨 恨</w>
州 政府</w>
屯 门</w>
城 内</w>
写 照</w>
再次 出现</w>
中 超
中 宣部</w>
上 风</w>
as h</w>
膜 炎</w>
班 次</w>
奥 利
博 得</w>
分 部</w>
倾 诉</w>
一阵 子</w>
S E
Com m
18 2</w>
12 3
-------- --------
驶 入</w>
长 线</w>
线 下</w>
毛 发</w>
斯特 罗</w>
文 革</w>
成长 性</w>
当 红</w>
夜 总会</w>
各 式</w>
取 样</w>
参赛 者</w>
千 嬅</w>
传染 性</w>
以 致
之 忧</w>
造 访</w>
第三十 条</w>
生产 资料</w>
河 区</w>
柱 子</w>
好 极了</w>
大 到</w>
喧 嚣</w>
假 币</w>
8 6
连 忙</w>
越 南
脚 趾</w>
纳 塔</w>
明 信片</w>
无 障碍</w>
总 要</w>
大 韩
嗅 觉</w>
同 名</w>
历 次</w>
作 案
伍 德</w>
以 示</w>
不 明朗</w>
下 一
or t</w>
龙 虾</w>
迟 钝</w>
西 安
第二 百</w>
灌 木</w>
满 载</w>
更 佳</w>
所 持</w>
呼 喊</w>
剑 桥</w>
俗 话说</w>
交 朋友</w>
二零零 四年</w>
一 地</w>
16 3</w>
14 3</w>
首 期</w>
购 置
舟 子</w>
粘 贴</w>
篡 改</w>
离 谱</w>
独立 自主</w>
海 信</w>
广 受</w>
小 家伙</w>
大 程度</w>
合 照</w>
句 号</w>
传 单</w>
仪 馆</w>
r a</w>
an a</w>
V 6</w>
S A</w>
遍 地</w>
贵 重</w>
讯 问</w>
研究 中心</w>
沉 寂</w>
比 特</w>
殡 仪馆</w>
日 照</w>
收 窄</w>
打 字</w>
情 妇</w>
得 当</w>
大 唐</w>
城 际</w>
反倾销 税</w>
印第安 人</w>
制 图</w>
人口 老龄化</w>
乌 龟</w>
严肃 查处</w>
两 处</w>
30 7</w>
超 人</w>
薄弱 环节</w>
百 家</w>
早 些</w>
弄虚 作假</w>
存 贷款</w>
吃 亏</w>
轻 视</w>
轻 盈</w>
资源 整合</w>
装 饰
搏 斗</w>
手 可
必 有</w>
大 院</w>
国 门</w>
过 路费</w>
移 除</w>
歌 唱
木 地板</w>
我 必</w>
妇 幼
复 试</w>
国家 博物馆</w>
品牌 形象</w>
信 奉</w>
使用 率</w>
东 侧</w>
N m</w>
骨 灰</w>
许 许
许许 多多</w>
罗纳 尔多</w>
第三 天</w>
漆 黑</w>
欧 亚</w>
普 拉
孵 化</w>
失 窃</w>
大 腕</w>
复 方</w>
口 腔
口 浪尖</w>
勤 劳</w>
加 盖</w>
不难 看出</w>
风 口浪尖</w>
远 程
砍 伐</w>
潜 入</w>
本 月底</w>
无 能</w>
无 益</w>
方 舟子</w>
广东 省委</w>
山 西
分 批</w>
I F
解放 思想</w>
自 信心</w>
正 以</w>
李 宁</w>
搁 浅</w>
推 选</w>
感 谢
心 所
宋庆 龄</w>
大 炮</w>
周 年纪念</w>
向 量</w>
分 居</w>
伊斯 坦
主 力军</w>
18 8</w>
领 头
还 称</w>
踪 迹</w>
警 务
萨 姆</w>
芒 果</w>
自 负</w>
犯 错误</w>
混 蛋</w>
曲 面</w>
敲 诈
提 取
拉斯 维加斯</w>
干 练</w>
夺 目</w>
初 恋</w>
八 一</w>
全 队</w>
一 击</w>
蔡依 林</w>
药 房</w>
紧紧 围绕</w>
精 打
破 门</w>
相 成</w>
狭 隘</w>
明 星
无 畏</w>
底 气</w>
夯 实</w>
周 密</w>
价 差</w>
不 折不
l y</w>
W h
H P</w>
避 孕</w>
蒸 气</w>
盘 旋</w>
瑞 克</w>
植 树</w>
格 力</w>
杀 菌</w>
改革 方案</w>
就 绪</w>
刘 易
作 曲
A R</w>
餐 桌上</w>
须 知</w>
起 家</w>
联合国 总部</w>
概 要</w>
放 纵</w>
摄 入量</w>
导 出</w>
代 名词</w>
京 津</w>
万 立方米</w>
近 十年</w>
管 员</w>
离 婚
数 百</w>
抚 摸</w>
惊 吓</w>
总裁 兼</w>
墨西哥 湾</w>
国 境</w>
发 怒</w>
其 他
伤 痕</w>
中 兴</w>
es t</w>
香港 特区</w>
酵 母</w>
郭 美美</w>
连 贯</w>
车 尾</w>
肥 胖
缴 存</w>
相 隔</w>
盗 窃
田 园</w>
海 绵</w>
母 鸡</w>
无 现</w>
录 取
工 薪
奋 斗
地 产商</w>
产品 设计</w>
乘 机</w>
H K</w>
美 债</w>
泰晤 士
撒 上</w>
拉 大</w>
成功 经验</w>
感 情
忏 悔</w>
全 权</w>
东北 亚</w>
三 一</w>
飞 去</w>
论 者</w>
讲话 中</w>
监 视
涨 跌</w>
文学 作品</w>
工作 日内</w>
士 革</w>
在 讲话中</w>
商 船</w>
听 懂</w>
作 秀</w>
作 品
黄 奇
选择 权</w>
独 家
惊 醒</w>
张 德
尼 斯
大马 士革</w>
外部 环境</w>
处 所</w>
同 伙</w>
列 明</w>
克 什
下 个</w>
上 马</w>
食 者</w>
鞭 炮</w>
财务 管理</w>
艳 照</w>
用 尽</w>
旅游 景点</w>
小 儿子</w>
叛 逆</w>
凝 结</w>
冲 浪</w>
人 马</w>
交换 意见</w>
乘 飞机</w>
中小 学校</w>
上 楼</w>
集体 土地</w>
集中 度</w>
王 老
殊 荣</w>
栖 息
日 光</w>
大 部地区</w>
周边 国家</w>
医 科大学</w>
住 址</w>
举 个</w>
两 样</w>
D A</w>
4 20</w>
转 过身</w>
赠 与</w>
败 坏</w>
禁 飞
看 护</w>
电子 设备</w>
甲 醇</w>
数码 相机</w>
承 保</w>
戏 曲</w>
情 境</w>
心 协力</w>
大 银行</w>
埋 单</w>
地 貌</w>
台 资</w>
出 狱</w>
入 口处</w>
光 大银行</w>
Ang el
经济 时报</w>
答 覆</w>
特种 部队</w>
深 表</w>
活 化</w>
毛 细
杨 先生</w>
斯科 特</w>
当 着</w>
希 德</w>
工商 时报</w>
哪 种</w>
六 届</w>
之 谜</w>
黄奇 帆</w>
蒂 娜</w>
租 借</w>
油 门</w>
水土 流失</w>
新闻 办</w>
所 提</w>
富 国</w>
句 意</w>
价格 调整</w>
万 平方公里</w>
t h</w>
魔 兽</w>
马 达</w>
轻 柔</w>
脊 柱</w>
紧 邻</w>
煤炭 企业</w>
本 地人</w>
奖 赏</w>
分析 法</w>
元 到</w>
Dav id</w>
D on</w>
荒 凉</w>
紫 金</w>
沼 泽</w>
教师 节</w>
情 趣</w>
大势 所趋</w>
R S</w>
达 西</w>
网 路</w>
精力 充沛</w>
算 不上</w>
省 略</w>
监察 部</w>
泉 州</w>
机械 设备</w>
放 手</w>
工业 区</w>
居 前</w>
小 微</w>
声 援</w>
初 审</w>
亚太 区</w>
2 26</w>
驴 友</w>
隶 属</w>
陈 女士</w>
考试 成绩</w>
痛 哭</w>
拍卖 行</w>
家 装</w>
后 视镜</w>
信贷 政策</w>
保护 法</w>
乳 液</w>
买卖 双方</w>
不折不 扣</w>
鲸 鱼</w>
险 情</w>
节 目
纪 检</w>
穿 透</w>
献 出</w>
潜 水
氧化 剂</w>
毯 子</w>
住房 贷款</w>
为 题</w>
一块 儿</w>
un g</w>
ad a</w>
T ube</w>
15 3</w>
里 奥</w>
行 踪</w>
硬 朗</w>
灵 敏
油 品</w>
民 居</w>
宽 广</w>
中 控
19 66</w>
00 00
课 外
试 驾</w>
精神 状态</w>
稳定 增长</w>
称 得上</w>
由 衷</w>
生命 财产</w>
汽车 公司</w>
检 验
大韩 民国</w>
大 头</w>
后 勤
卷 发</w>
c m</w>
G S</w>
餐饮 业</w>
访 美</w>
燕 子</w>
比 拼</w>
拷 贝</w>
异 味</w>
内 脏</w>
二 字</w>
不断 创新</w>
i er</w>
O P
In d
羁 押</w>
素 食</w>
痴 迷</w>
片 酬</w>
新 车型</w>
徒 弟</w>
小 林</w>
奶 制品</w>
嗓 音</w>
ag a</w>
7 6
领 跑</w>
那 块</w>
经济 委员会</w>
端 的</w>
相 辅
百分之 百</w>
特 罗斯</w>
湘 江</w>
淡 出</w>
法 典</w>
惟 有</w>
当 属</w>
异 于</w>
叫 醒</w>
了 婚</w>
丙 烯
一 粒</w>
讲 师</w>
热烈 欢迎</w>
海 通</w>
数 日</w>
护 栏</w>
戏 份</w>
左 右
坏 习惯</w>
e f
速 器</w>
课 堂
臭 氧</w>
浪 网</w>
水 龙头</w>
栖息 地</w>
抗 衡</w>
如 火
大 戏</w>
坎 坷</w>
召 力</w>
公车 私用</w>
催 促</w>
亿 多元</w>
两 端</w>
9. 3</w>
鲜明 对比</w>
班 里</w>
欢 笑</w>
橄榄 油</w>
格 拉斯</w>
揭 发</w>
技术 手段</w>
很 深</w>
大 洲</w>
可不 可以</w>
可 喜</w>
en ce</w>
长 跑</w>
远 超</w>
起 舞</w>
认真 落实</w>
联合 报</w>
正 试图</w>
大学 教授</w>
大 江
国家 主权</w>
半月 谈</w>
加 强
分 离
几 句话</w>
写 明</w>
兰 特</w>
付 诸</w>
主 动性</w>
D C</w>
这 道</w>
输 掉</w>
车 灯</w>
落 空</w>
第三十 四条</w>
猥 亵</w>
指导 员</w>
前 端</w>
先 到</w>
两 架</w>
8. 1</w>
14 6</w>
重 用</w>
进口 量</w>
轻 伤</w>
糯 米</w>
相辅 相成</w>
浇 水</w>
梁 洛
无 关
截 面</w>
奇 怪
太 难</w>
复 查</w>
名 流</w>
南 车</w>
内 疚</w>
K ar
G T</w>
车 辆
薯 条</w>
碳 酸
朱 丽
旗 号</w>
斯 柯达</w>
打 乱</w>
恭 喜</w>
小 城</w>
夺 走</w>
出 力</w>
凯 文</w>
以 供</w>
下 届</w>
上 街</w>
里 德</w>
脑 海中</w>
档案 馆</w>
旧 址</w>
创新 性</w>
交 融</w>
专 案</w>
下 功夫</w>
上海 通用</w>
一 具</w>
进 制</w>
足球 赛</w>
管 子</w>
流动 资金</w>
法律 效力</w>
择 校
年 幼</w>
小 便</w>
如 荼</w>
失 败
G S
障 碍
远远 不够</w>
称 职</w>
浮 云</w>
录 音
复 印</w>
单 向</w>
供 参考</w>
伊斯坦 布尔</w>
买 菜</w>
下 场</w>
三 个
触摸 屏</w>
西 蒙</w>
耳 光</w>
突 起</w>
海外 投资</w>
干 警</w>
塞 拉
囊 括</w>
俘 虏</w>
不 严</w>
O p
E v
这 般</w>
路 由</w>
诉 说</w>
营养 价值</w>
直 属
用 过</w>
现实 主义</w>
热 力</w>
流 氓</w>
未 满</w>
指 头</w>
反 叛</w>
原 地</w>
加勒比 海</w>
办 人</w>
先进 性</w>
传 球</w>
中 区</w>
院 所</w>
银行 信贷</w>
重 来</w>
邓 超</w>
禁飞 区</w>
白 剂</w>
特殊 教育</w>
版 图</w>
海 龟</w>
比 照</w>
斯 图
接 地</w>
彩 妆</w>
少 不了</w>
好 时机</w>
嘱 咐</w>
北 风</w>
V IP</w>
1 2000</w>
00 1</w>
高峰 论坛</w>
长久 以来</w>
超 前</w>
美国 纽约</w>
泥 浆</w>
成本 低</w>
实施 办法</w>
龄 人</w>
金 银
逼 真</w>
辞 退</w>
老 妇人</w>
粉 红</w>
现 正</w>
板 凳</w>
日 称</w>
待 命</w>
如火 如荼</w>
堪 忧</w>
同 龄人</w>
出租 汽车</w>
二十 四</w>
丛 生</w>
一 袋</w>
20 8</w>
15 1</w>
防 辐射</w>
磁 性</w>
皆 是</w>
演 进</w>
淡淡 的</w>
流通 股</w>
民事 责任</w>
横 幅</w>
宾 语</w>
会 展</w>
五 位</w>
乐 曲</w>
丝 网</w>
上 部</w>
配 角</w>
胶原 蛋白</w>
索 纳塔</w>
称 其</w>
犯罪 活动</w>
杀 虫剂</w>
年 时</w>
尔 夫</w>
富 豪
多 平方米</w>
外 科
口 子</w>
几 件</w>
an o</w>
5 4
驾 入</w>
重要 环节</w>
评 奖</w>
要 死</w>
照 耀</w>
热带 风暴</w>
执政 为民</w>
巴勒斯坦 人</w>
宾 夕
容 积</w>
客 流量</w>
G old
跌 落</w>
花 销</w>
舆论 监督</w>
睡 不着</w>
水 县</w>
毛 利</w>
李 文
星 空</w>
斟 酌</w>
广大 党员</w>
已 到</w>
岸 上</w>
富 城</w>
唇 膏</w>
去 处</w>
养殖 场</w>
亲 子</w>
亚 伦</w>
五 点</w>
U R
20 5</w>
限量 版</w>
锋 芝</w>
达 到
独 裁
片 方</w>
无 产阶级</w>
不 敌</w>
上 下游</w>
齐 下</w>
豆 芽</w>
联合国 儿童
联合国儿童 基金会</w>
留 念</w>
棒 了</w>
折 断</w>
太 棒了</w>
单 体</w>
主 食</w>
世 行</w>
一 记</w>
铝 业</w>
量 房</w>
遮 住</w>
走 走</w>
联合 政府</w>
缘 于</w>
液 相</w>
巴比 伦</w>
宋 代</w>
多种 多样</w>
基督 山</w>
其 三</w>
公共 资源</w>
倒 逼</w>
亚 运</w>
2 90</w>
00 2
随 者</w>
近 些年</w>
政法 大学</w>
奥 秘</w>
外交 关系</w>
圆满 完成</w>
命 案</w>
加 以
切尔诺 贝利</w>
井 喷</w>
上 山</w>
的 哥</w>
瑞 安</w>
水 瓶</w>
树 干</w>
本 杰明</w>
日 俱增</w>
无 一</w>
干 道</w>
天 数</w>
叶 派</w>
党 务</w>
人 街</w>
与 日俱增</w>
一 棵树</w>
节能 灯</w>
第一 份</w>
王 上</w>
特 征
机 电
未 知
挺 进</w>
总 金额</w>
埋 怨</w>
交 界</w>
B I</w>
西 山</w>
血 浆</w>
望 而
感到 高兴</w>
实 属</w>
变 脸</w>
包 头</w>
低 俗</w>
一 束</w>
QF II</w>
面 额</w>
裁 缝</w>
色 谱</w>
福 克</w>
甲 烷</w>
生 出</w>
梁洛 施</w>
格 拉
小 女儿</w>
富 足</w>
外 伤</w>
台湾 同胞</w>
前 大灯</w>
公共 关系</w>
低 级</w>
众 议员</w>
交流 活动</w>
Ch ar
航 程</w>
经 得起</w>
紧张 局势</w>
省 政协</w>
电讯 报</w>
版 画</w>
潍 坊</w>
果 园</w>
林 市</w>
尼克 松</w>
宾夕 法
安 然</w>
套 利</w>
同 感</w>
发 件人</w>
医疗 费</w>
书 信</w>
九 十年代</w>
音 量</w>
铜 牌</w>
重大 损失</w>
挪 用
技术 开发区</w>
性 爱</w>
底 蕴</w>
密切 合作</w>
右 翼</w>
原子 弹</w>
内 侧</w>
公共 政策</w>
中 西
ic s</w>
集 市</w>
群 落</w>
看 涨</w>
火 柴</w>
消 亡</w>
歌 星</w>
杀人 罪</w>
日本 队</w>
文 交所</w>
录 入</w>
少林 寺</w>
富豪 榜</w>
各 族</w>
印 花
努力 提高</w>
出 资
余 件</w>
争夺 战</w>
书 上</w>
举例 来说</w>
万 通</w>
门 上</w>
玛 利亚</w>
热 门
李连 杰</w>
李 泽
指 使</w>
庄 重</w>
工程 技术</w>
奴 隶
城 建</w>
坐 飞机</w>
高 烧</w>
银行 业务</w>
重 磅</w>
谁 知</w>
计算 公式</w>
联 会</w>
渎职 侵权</w>
洲 际</w>
母 校</w>
村 级</w>
无 处</w>
常规 赛</w>
存 量房</w>
冲 破</w>
内 科</w>
什 叶派</w>
一 如</w>
香港 特别行政区政府</w>
语言 学</w>
评 比</w>
让 你
视觉 效果</w>
热 火
散 热</w>
收 纳</w>
常 任</w>
巴 方</w>
华 北
几十 万</w>
产品 开发</w>
主任 医师</w>
不 出
高 级别</w>
销售 商</w>
鉴 定
讲 故事</w>
缺 位</w>
洗 衣服</w>
松 散</w>
斐 济</w>
开 门
庆 林</w>
契 合</w>
大 二</w>
启 蒙</w>
参 演</w>
偷 偷
倾 销</w>
主 产区</w>
中 职</w>
酒 店
西 伯
管 网</w>
歌 舞
日 落</w>
散 射</w>
控股 公司</w>
声 器</w>
分之 三</w>
保险 费用</w>
作曲 家</w>
中 金
不 致</w>
一 八</w>
3 65</w>
要 价</w>
致 癌
眉 头</w>
皮 质</w>
畅销 书</w>
歪 曲</w>
板 材</w>
本 会</w>
接 踵
承 租</w>
分 裂
伯 克</w>
企业 界</w>
7 8
香 奈
迟 早</w>
负 着</w>
要 用</w>
蔬 菜
稀 土
激 励
格 子</w>
替代 品</w>
拉 着</w>
奶 茶</w>
剪 切</w>
了 然</w>
三 只</w>
雌 激素</w>
议会 选举</w>
脱 口
经济 特区</w>
梦 见</w>
捷 豹</w>
思想 家</w>
射 手</w>
家 教</w>
外 侧</w>
做 好事</w>
交通 部</w>
高 一</w>
马 甲</w>
肩 负</w>
编 纂</w>
监 制</w>
煤 气
水 文</w>
彭 帅</w>
引 以为
希 特勒</w>
坦 然</w>
哪 家</w>
哈姆 雷特</w>
出 世</w>
一 刀
6 30</w>
造 势</w>
远 景</w>
超 模</w>
渗 漏</w>
沉 着</w>
更 难</w>
支 线</w>
开 赛</w>
导 管</w>
密 不可
密不可 分</w>
华 侨
全 然</w>
全 党</w>
停 止
个 星期</w>
谱 法</w>
自 营</w>
款 待</w>
改 扩建</w>
捣 毁</w>
打 车</w>
所 起</w>
成 熟
强制 措施</w>
幼 稚</w>
嫌疑 犯</w>
命 中
齐 齐</w>
马 萨
重 复
计 画</w>
真 功夫</w>
正常 人</w>
来 袭</w>
最高 峰</w>
敬 佩</w>
拆 借</w>
情 局</w>
常 住
常住 人口</w>
尾 盘</w>
子 座</w>
场 内</w>
制定 者</w>
出 轨</w>
不见 得</w>
上 涨
15 4</w>
钻 戒</w>
豆 类</w>
程序 员</w>
盖 子</w>
指导 意义</w>
打 分</w>
得 奖</w>
多 辆</w>
停 摆</w>
交 到</w>
郭 富城</w>
睡 衣</w>
果 子</w>
收购 价</w>
力 士</w>
切 片</w>
分 列</w>
冲击 力</w>
不复 存在</w>
4 1.
血 迹</w>
绚 丽</w>
无 名</w>
支 招</w>
打 伤</w>
恪 守</w>
幸福 生活</w>
即 刻</w>
亿 万</w>
K h
16 1</w>
高 得</w>
雄心 勃勃</w>
限 售</w>
阿 巴斯</w>
终 将</w>
空军 基地</w>
清 纯</w>
油 腻</w>
江 区</w>
橄榄 球</w>
普通 住宅</w>
打 倒</w>
总 长</w>
征 战</w>
展 示
大幅 度
处 女</w>
军 工</w>
交 了</w>
习惯 性</w>
中证 网</w>
东 盟
下 楼</w>
3 70</w>
首 开</w>
非 殖民化</w>
适用 范围</w>
这 比</w>
试 水</w>
气 场</w>
木 星</w>
数 最多</w>
成 人
差别 化</w>
地 化</w>
喝 醉</w>
各 有
反 常</w>
卢 萨卡</w>
剧 目</w>
前 夫</w>
入门 级</w>
优越 性</w>
今 年底</w>
举 重</w>
中 情局</w>
下 星期</w>
阿 萨德</w>
苗 条</w>
脊 梁</w>
租 约</w>
石油 价格</w>
狱 中</w>
滚 筒</w>
每日 电讯</w>
此 机会</w>
收 场</w>
总 分</w>
可 操作性</w>
厂 长</w>
出 货量</w>
人 为
逝 去</w>
逐步 形成</w>
辱 骂</w>
跨 省</w>
诚 地</w>
芬 芳</w>
罪 孽</w>
科 级</w>
直 喷</w>
珍 视</w>
梦 境</w>
操 心</w>
摸 底</w>
抵 挡</w>
循 环
开 拍</w>
布宜诺斯艾 利斯</w>
大 潮</w>
中超 联赛</w>
e B
M ed
驱 散</w>
进口 关税</w>
盛 开</w>
燕 姿</w>
港 区</w>
洛 克
欠 佳</w>
核 设施</w>
拉 夫
惩 戒</w>
市场 行情</w>
定 做</w>
国际 公约</w>
国家 联盟</w>
中 资</w>
不 惜
I N</w>
4 4.
非 国家</w>
钟 爱</w>
茫 然</w>
罹 患</w>
百 年
由 市</w>
炒 房</w>
浦 东
河 县</w>
每 届</w>
斯洛 文
招 生
拉 拉</w>
奖 赛</w>
大 奖赛</w>
制 宜</w>
p er</w>
错 综
错综 复杂</w>
里 头</w>
行李 箱</w>
药 剂</w>
缺 血</w>
矢 量</w>
热 能</w>
波 罗
汉 口</w>
每 分钟</w>
有所 提高</w>
改 用</w>
捐 出</w>
招 工</w>
总 冠军</w>
发 动
临 界
中信 银行</w>
一 价</w>
迷 离</w>
词 组</w>
私营 部门</w>
真 有</w>
款 机</w>
机 智</w>
情 势</w>
总 而言之</w>
很久 以前</w>
可 供</w>
原 体</w>
北京 市政府</w>
两 院</w>
迪斯 尼</w>
身份 证件</w>
责 怪</w>
谢 意</w>
识 字</w>
社会 工作</w>
检 测
本 部</w>
收 钱</w>
收 款</w>
平 庸</w>
冲 出</w>
You Tube</w>
罐 子</w>
第一 项</w>
相 恋</w>
您 好</w>
德 意志
引 出</w>
副 委员长</w>
军 阀</w>
亚 于</w>
之 感</w>
中国 经济时报</w>
不 败</w>
一 列</w>
Intern ational</w>
18 4</w>
魁 祸首</w>
观 音
行政 村</w>
脸 庞</w>
罪 魁祸首</w>
满 是</w>
法 师</w>
本 体</w>
斯 德
回 返</w>
受 力</w>
剪 刀</w>
刺 绣</w>
亵 渎</w>
万 左右</w>
一 氧化
F in
顶 点</w>
该 不该</w>
旋 风</w>
推 荐
市 住</w>
姊 妹</w>
吉 祥
发 微博</w>
利润 总额</w>
创 新高</w>
冰 雹</w>
人 到</w>
不 定期</w>
馆 藏</w>
针 灸</w>
量 身</w>
那 头</w>
运 价</w>
计 较</w>
罗 兰</w>
新 药</w>
择 校</w>
富 兰
大 幕</w>
切 除术</w>
in i</w>
14 1</w>
非 得</w>
铁 道</w>
落 水</w>
草 稿</w>
索 尔</w>
笔 录</w>
渴 求</w>
河 口</w>
民 情</w>
权 属</w>
想 得到</w>
卡 斯
几十 个</w>
兵 营</w>
全 村</w>
全 书</w>
O ff
E 3</w>
贸易 区</w>
索 性</w>
海洋 环境</w>
水 性</w>
摇 摇
投机 性</w>
一 览
S E</w>
非 公有制</w>
集 资金</w>
重 金</w>
过 山
自然 科学</w>
给 付</w>
筹 集资金</w>
神 父</w>
独 自
特 立
服 药</w>
暴 发</w>
推广 应用</w>
巴 巴
尘 暴</w>
和平 利用</w>
中控 台</w>
问 答</w>
输出 功率</w>
视 性</w>
纯 正</w>
独自 一人</w>
牛 顿</w>
沪 市</w>
有利 条件</w>
施加 压力</w>
据 点</w>
拐 卖</w>
微 量
太 累</w>
地 参</w>
南 太平洋</w>
写信 给</w>
保持 一致</w>
保 税
作 业
一 不
an k
Rob er
16 9</w>
驾 校</w>
飞 涨</w>
风 向</w>
这 两项</w>
蒙 受</w>
自 备</w>
结 账</w>
管 齐下</w>
流行 病学</w>
时 刻
安 监</w>
吸 取
保障 制度</w>
一 见</w>
营 店</w>
美 欧</w>
疏 远</w>
护 理
应 立即</w>
已 获</w>
发 财</w>
修 道
使用 费</w>
I E</w>
长 队</w>
郊 野</w>
那 不
蜗 牛</w>
监 事会</w>
汪 峰</w>
敲 诈</w>
名 著</w>
再 来</w>
六 级</w>
僵 持</w>
作 响</w>
H z</w>
9. 9</w>
19 53</w>
颁奖 礼</w>
颁 布
钟 声</w>
耶稣 基督</w>
组织 部长</w>
研究 生
易 事</w>
方 舟</w>
新 浪网</w>
密 封
地 区
受 苦</w>
内 障</w>
养 分</w>
兵 役</w>
克 利</w>
从头 到
严 防</w>
风 雨
里 尼奥</w>
郭 晶晶</w>
邦 国</w>
软件 开发</w>
螺 栓</w>
联合国 教科文组织</w>
管理 机制</w>
歧 视性</w>
数据 分析</w>
悬 赏</w>
吴 先生</w>
冠 心病</w>
人 体
下 半
三个 代表</w>
19 47</w>
筛 查</w>
皮 草</w>
每 套</w>
技术 上</w>
废 品</w>
奇怪 的是</w>
图 象</w>
四 分之三</w>
哨 所</w>
哥 尔
品 类</w>
别 致</w>
中 山市</w>
万 亿日元</w>
一 有</w>
麻 疹</w>
韩 元</w>
迪 拉克</w>
血 栓</w>
火 炉</w>
滨 江</w>
渎 职</w>
暖 气</w>
整 夜</w>
情 有
恶 作
心 智</w>
小 将</w>
大 四</w>
不 谈</w>
一 目
那 间</w>
过山 车</w>
胡 须</w>
肾 上
管 教</w>
生命 线</w>
活 塞</w>
江 北</w>
比 比
极 小</w>
最 重</w>
张 庆
埃 尔
副 董事长</w>
分 散
保 本</w>
交流 会</w>
门 类</w>
老 头</w>
筹 股</w>
笨 拙</w>
监 管局</w>
炮 击</w>
杰 作</w>
斯洛文 尼亚</w>
婚 纱
大众 化</w>
坚持 下去</w>
出 战</w>
假 货</w>
五 分</w>
事 是</w>
之 家</w>
一 曲</w>
S ec
B u
风 趣</w>
非 要</w>
阿拉 斯加</w>
重大 意义</w>
邓 华德</w>
灵敏 度</w>
浓 烟</w>
时尚 界</w>
均 值</w>
剪 裁</w>
公共 设施</w>
买 得起</w>
金融 监管</w>
茄 子</w>
美国 宇航局</w>
活 下去</w>
时 政</w>
政 法</w>
拖 鞋</w>
打 工
开放 性</w>
子 丹</w>
增 补</w>
塞 进</w>
可信 度</w>
医药 费</w>
化学 反应</w>
之 时</w>
两 手</w>
不 对
颇 受</w>
较 之</w>
自 大</w>
缠 身</w>
税 种</w>
相 间</w>
环 形</w>
热 电</w>
教 书</w>
快 到</w>
得 住</w>
建 平</w>
工伤 保险</w>
导 火
增 生</w>
回 笼
里 边</w>
罪 案</w>
缘 何</w>
磁 共振</w>
接待 费</w>
战 舰</w>
心 菜</w>
开 店</w>
山 里</w>
奶 瓶</w>
天 河</w>
大兴 区</w>
可 可</w>
及 格</w>
半 左右</w>
休 克</w>
令人 震惊</w>
一个 半</w>
一 跳</w>
音 译</w>
阿拉伯 人</w>
白 内障</w>
最 难</w>
无 止
断 电</w>
性 状</w>
循 序
循序 渐进</w>
如 欲</w>
可 行
MP 3</w>
首 映
零 钱</w>
电 容</w>
教育 家</w>
尚 待</w>
射 程</w>
便携 式</w>
阿拉伯 语</w>
足球 比赛</w>
货 运
船 高</w>
珍 品</w>
浙江 大学</w>
污染 源</w>
格 里</w>
妇女 儿童</w>
原 籍</w>
十几 岁</w>
初 二</w>
亟 需</w>
X 射线</w>
M ob
闭 幕式</w>
酿 成</w>
议 席</w>
虫 害</w>
致 病</w>
系 主任</w>
牵 扯</w>
正 月
揭 牌</w>
批 出</w>
执行 力</w>
培训 中心</w>
善 后
向 南</w>
保守 党</w>
传 奇
上 合</w>
g a</w>
B ri
麦克 风</w>
鸡 尾
费 德勒</w>
董 秘</w>
第三 产业</w>
炉 子</w>
涨 船高</w>
水 涨船高</w>
棕 榈
旭 东</w>
新 专辑</w>
数十 亿美元</w>
教练 员</w>
微量 元素</w>
双汇 集团</w>
别 国</w>
共 性</w>
伦 比</w>
1 10
陈 坤</w>
防 伪</w>
装 入</w>
脱 掉</w>
科技 日报</w>
死 于</w>
推 介
推介 会</w>
按 下</w>
手 感</w>
慢 跑</w>
富 余</w>
多 得</w>
劳 力</w>
降 息</w>
落 泪</w>
第三十 五条</w>
特 效</w>
武 士</w>
打 造出</w>
征 询</w>
尤 指</w>
女 主人</w>
其 道</w>
保持 沉默</w>
保 定</w>
体 系
二零零 五年</w>
事 无
3 10</w>
黄 素</w>
革命 性</w>
非 议</w>
达尔 文</w>
表 白</w>
荡 荡</w>
纪念 活动</w>
白 糖</w>
消 极
流 水
无 异于</w>
旗舰 店</w>
幻 觉</w>
工 件</w>
图 文</w>
困 苦</w>
售 罄</w>
哈 利
周立 波</w>
单 月</w>
公司 债券</w>
公 义</w>
为 一体</w>
丹 东</w>
Am er
驳 斥</w>
边缘 化</w>
翻 开</w>
监管 者</w>
毒 药</w>
楷 模</w>
广 度</w>
凯 利</w>
陈奕 迅</w>
象征 性</w>
计算 结果</w>
米 拉</w>
状 况
抽 样
才 干</w>
密 歇
威尔 逊</w>
好 书</w>
初 中
代 孕</w>
世界 遗产</w>
金 龙</w>
郊 外</w>
软 骨</w>
盈 利
盈利 模式</w>
百 个</w>
珠 江
爱 意</w>
校 门</w>
旅 店</w>
文化 背景</w>
惊 慌</w>
恶作 剧</w>
徐 静
小 板</w>
利 器</w>
六 七
公司 章程</w>
佩 里</w>
羊 群</w>
第二 款</w>
煎 熬</w>
河 北
沉 睡</w>
母 乳
母乳 喂养</w>
来 港</w>
更 新
暴 躁</w>
明 翰</w>
带 头
工作 力度</w>
寿 险</w>
大 病</w>
商 住</w>
南 大学</w>
住宅 区</w>
严重 威胁</w>
鹦 鹉</w>
退 学</w>
违反 规定</w>
用户 界面</w>
深 加工</w>
浓 重</w>
承 付</w>
执 掌</w>
回笼 资金</w>
卡 斯特罗</w>
千 伏</w>
十 万</w>
办 证</w>
军 民</w>
伤 感</w>
之 分</w>
义 词</w>
主持 会议</w>
预 知</w>
软 化</w>
走 向
空 管</w>
爱 是</w>
希 伯
学 府</w>
好 日子</w>
回 老家</w>
卵 巢</w>
仙 女</w>
亚洲 杯</w>
一百 年</w>
适 房</w>
评 卷</w>
而 不见</w>
离 合</w>
社会 关系</w>
瞒 报</w>
白 雪
疤 痕</w>
环保 署</w>
无 事</w>
忠 于</w>
德 里克</w>
巡视 员</w>
封 装</w>
危险 品</w>
包 钢</w>
似 地</w>
道 而
行 善</w>
英 菲
绘 图</w>
杯 赛</w>
扎 伊</w>
剧 照</w>
儿 时</w>
不 亚于</w>
一 时期</w>
16 4</w>
遥 遥
通 缉
过渡 期</w>
辽 阔</w>
航空 工业</w>
符合 规定</w>
突 显</w>
百 科</w>
海 事
客 商</w>
天 候</w>
北京 西站</w>
修 女</w>
之 死</w>
中金 公司</w>
中 南</w>
上涨 幅度</w>
装 甲</w>
自 带</w>
矛 头</w>
柳 州</w>
恰 逢</w>
当 家
弹 头</w>
吓 人</w>
可见 一斑</w>
可 悲</w>
北 海
代 夫</w>
餐饮 企业</w>
集体 经济</w>
问 起</w>
迈 入</w>
网络 化</w>
纽约 州</w>
答 题</w>
波 多
斯巴 鲁</w>
敛 财</w>
怪 圈</w>
工 商业</w>
山 林</w>
大 打折扣</w>
北 侧</w>
冰 块</w>
全面 落实</w>
交 钱</w>
三 四</w>
St an
A AA</w>
黄 花
遗 症</w>
起 飞
盐 水</w>
环境 监测</w>
渗 入</w>
正 职</w>
携 程</w>
拥 有者</w>
引人 关注</w>
布 达
小 轿车</w>
因果 关系</w>
伊 斯</w>
争 抢</w>
东 家</w>
专 科
St ev
N et
CC TV</w>
阿 内
长期 存在</w>
血 小板</w>
蜿 蜒</w>
算 价</w>
状 语</w>
爱 丁
来 之
杂货 店</w>
抓 手</w>
圣 洁</w>
不 鲜</w>
一席 之地</w>
i e
隐 含</w>
逐步 提高</w>
离 家
祥 和</w>
滑 落</w>
斯德 哥尔
抗 癌</w>
手机 短信</w>
手 艺</w>
学 前</w>
发表 意见</w>
助 人</w>
减 退</w>
准 妈妈</w>
冰 毒</w>
保 鲜</w>
举报 电话</w>
A V
阿内 尔卡</w>
进口 车</w>
该 州</w>
融资 难</w>
节 庆</w>
渔 业
汕 头</w>
抢救 无效</w>
投 射</w>
成 群</w>
单 单</w>
儿 媳</w>
依赖 性</w>
上 级
w h
P lay
19 54</w>
驱逐 舰</w>
金 隅</w>
财政 补贴</w>
谨 防</w>
调 解
自 足</w>
直 飞</w>
爱情 故事</w>
油 菜</w>
教师 队伍</w>
插 手</w>
手提 包</w>
我 愿</w>
失 常</w>
塌 陷</w>
后 遗症</w>
一目 了然</w>
er g
S e
O L</w>
火 势</w>
润 发</w>
波 斯</w>
治 本</w>
性 研究</w>
建筑 工地</w>
多米 尼
喝 彩</w>
喀 麦
味 儿</w>
可行 性研究</w>
作 文
久 远</w>
三 百</w>
一 筹</w>
9 8
颁布 实施</w>
起 重机</w>
翻 译成</w>
结 算价</w>
穆 里尼奥</w>
神 色</w>
比比 皆是</w>
枪 杀</w>
心 痛</w>
强 省</w>
寻 觅</w>
宁夏 回
大学 校长</w>
塞拉 利昂</w>
卖 淫
伊斯兰 堡</w>
产业 基地</w>
乌 鸦</w>
上 尉</w>
三 鹿</w>
2 13</w>
锋 利</w>
遗传 算法</w>
自治 领</w>
红 枣</w>
科 罗拉
潇 洒</w>
求 救</w>
杰 斯</w>
更 少</w>
施 政</w>
市场 机制</w>
坚 韧</w>
国 泰</w>
加 分</w>
作 法</w>
作 好</w>
亚太 经
RA V
费 城</w>
等 离子
看 得</w>
桃 花</w>
收 率</w>
推 车</w>
忙 忙</w>
家 暴</w>
宜 人</w>
国家 旅游局</w>
吸 食</w>
几 百万</w>
仓 促</w>
下一 阶段</w>
G U
C ou
19 37</w>
详细 信息</w>
见 不鲜</w>
组 委</w>
民办 学校</w>
梅 尔</w>
建筑 设计</w>
希望 工程</w>
尽量 减少</w>
头 条</w>
友好 关系</w>
十 国集团</w>
军 装</w>
全力 支持</w>
L O</w>
4 0.
龙 年</w>
选举 权</w>
生 理
清洁 工</w>
深 证</w>
法律 顾问</w>
杭 州
最 远</w>
忐 忑</w>
市场 前景</w>
工程 学院</w>
大 埔</w>
夜 班</w>
外 边</w>
合法 化</w>
取 名</w>
动 脉
停止 使用</w>
佐 证</w>
亚 裔</w>
二 层</w>
不 顾
驻 外</w>
陶 醉</w>
航 展</w>
肥 沃</w>
等离子 体</w>
碳 纤维</w>
睡 前</w>
男 单</w>
燃 放</w>
晶 体
无法 忍受</w>
押 金</w>
帐 号</w>
尽 责</w>
后 院</w>
升 迁</w>
停 职</w>
之 策</w>
认 清</w>
菊 萍</w>
第四 节</w>
王 振
王 家</w>
温 水</w>
涨 到</w>
民族 区域</w>
批发 商</w>
建设 厅</w>
富士 康</w>
冗 长</w>
人民 解放军</w>
不 利
黑 马</w>
颠 倒</w>
遗 漏</w>
资 费</w>
观察 家</w>
耕 作</w>
美 人
紧 闭</w>
精 装修</w>
疲力 尽</w>
栖 息</w>
极 少数</w>
杏 仁</w>
明 尼
恶性 肿瘤</w>
嘉 兴</w>
内 裤</w>
产 生
2 15</w>
高高 的</w>
香 精</w>
铁 岭</w>
通行 费</w>
腹 地</w>
甄 子丹</w>
现 如今</w>
王 立
活动 中心</w>
欢 庆</w>
格 格</w>
杨 红
李 宗
普 罗
拍 品</w>
投资 总额</w>
德意志 银行</w>
干部 队伍</w>
场 主</w>
和平 解决</w>
前 两天</w>
兴 市</w>
公 社</w>
门 头
调 味</w>
讲 坛</w>
美国 队</w>
纸 箱</w>
第三十 一条</w>
百 米</w>
病 历</w>
生长 发育</w>
流 淌</w>
李宇 春</w>
朗 诵</w>
新 居</w>
斯特 劳斯</w>
屡 见不鲜</w>
学 过</w>
大 拇指</w>
哈 马</w>
副 行长</w>
刑事 诉讼</w>
先 机</w>
亚利桑 那州</w>
上 一年</w>
NAS A</w>
M G
长 城
莉 亚</w>
美国 商务部</w>
第三 十二条</w>
秀 莲</w>
相似 之处</w>
液 态</w>
正 交</w>
无 阻</w>
夹 雪</w>
分 期
住 进</w>
个人 所得税法</w>
雨 夹雪</w>
言 论
蓝 牙</w>
格 言</w>
无线 网络</w>
批评 家</w>
当 上</w>
尾 气</w>
大气 污染</w>
同位 素</w>
单 元
前 脸</w>
体 坛</w>
一 族</w>
er e</w>
S L
J o
遮 盖</w>
解 冻</w>
秀 丽</w>
激动 人心</w>
普通 高中</w>
承 销商</w>
富兰 克林</w>
多 日</w>
县 里</w>
劳 资</w>
冰 激
公用 事业</w>
不 正</w>
跨 过</w>
般 地</w>
联合国 大会</w>
私 利</w>
求 得</w>
比 基尼</w>
森 堡</w>
救 赎</w>
支 派</w>
扰 动</w>
所 思</w>
小 明</w>
在 所
向 西</w>
出 奇</w>
令人 吃惊</w>
习 班</w>
一 战</w>
食 材</w>
领 地</w>
言论 自由</w>
节 节</w>
紧密 联系</w>
深 发展</w>
每 人
最 合适</w>
数 组</w>
打 拐</w>
式 化</w>
工 况</w>
大 队长</w>
吃 药</w>
原 味</w>
剧 集</w>
利 美</w>
内心 深处</w>
亿 多</w>
人身 安全</w>
享 年</w>
一 成</w>
ri v
A S</w>
院 里</w>
自 立</w>
股票 价格</w>
笑 了
究 其
知名 企业</w>
波多 黎
极 为重要</w>
服务 行业</w>
尔 巴
国际 金融</w>
势 必会</w>
不 值</w>
赦 免</w>
萌 芽</w>
白 金</w>
珍 稀</w>
满 月</w>
散 装</w>
撤 消</w>
房 利美</w>
就 够</w>
多 户</w>
团 体
喷 雾</w>
叮 嘱</w>
保守 派</w>
传 入</w>
中 枢</w>
S H</w>
Chri st
道 远</w>
逆 境</w>
瑞 德</w>
热门 话题</w>
抑 制
扑 救</w>
戈 登</w>
悬 而
床 单</w>
平 区</w>
多 只</w>
图 中</w>
历 代</w>
华 纳</w>
任 重
交 投</w>
H D
黄 埔</w>
详细 资料</w>
第三十 六条</w>
武 商</w>
暴 动</w>
春 风</w>
国 贸</w>
两 届</w>
ing s</w>
飞 扬</w>
锂 电池</w>
都 会</w>
胡 某</w>
肉 眼</w>
第三十 八条</w>
画 出</w>
电 工</w>
测 控</w>
文 献
学习 网</w>
只 为</w>
发明 专利</w>
区 议会</w>
出 乎</w>
其 事</w>
六 一</w>
三 号</w>
5 30</w>
霸 权</w>
衰 减</w>
苯 二
自 尊
生 肖</w>
李 俊</w>
杀伤 性</w>
搞 清楚</w>
小 城镇</w>
吴 邦国</w>
可视 化</w>
减 半</w>
互 不</w>
下 垂</w>
LT E</w>
19 46</w>
运动 鞋</w>
语 调</w>
脊 髓</w>
美 誉</w>
气 门</w>
未知 数</w>
挖 出</w>
建 新</w>
康 复
实 力
头等 舱</w>
唱 响</w>
乡 间</w>
不尽 相同</w>
不失 为</w>
一 米</w>
P art
18 6</w>
15 9</w>
马 路上</w>
进口 产品</w>
路 灯</w>
贝 宁</w>
虎 妈</w>
能 以</w>
突 围</w>
监 护
文 具</w>
投资 方</w>
手 写</w>
悬而 未决</w>
性 侵犯</w>
径 直</w>
岗 区</w>
实际 操作</w>
国家 文物局</w>
十二 日</w>
价 权</w>
oc i
长 约</w>
赞 成
至 多</w>
篱 笆</w>
濒 临</w>
激 进
每 升</w>
曼 德拉</w>
报 上</w>
房 客</w>
大 部份</w>
I O
B us
3 000
非洲 统一
非洲统一 组织</w>
那不 勒斯</w>
衰 弱</w>
自我 介绍</w>
编 者</w>
维 基</w>
第三 名</w>
男 婴</w>
璀 璨</w>
激励 机制</w>
安 区</w>
奥斯 陆</w>
国有 银行</w>
出厂 价格</w>
倒 地</w>
人 心
之 宝</w>
难 事</w>
落 不明</w>
胸 怀</w>
耳 边</w>
紧迫 性</w>
海 湾
浆 机</w>
林 森</w>
极 富</w>
房 市</w>
心 境</w>
弥 漫
家庭 主妇</w>
定 价权</w>
好 意</w>
增 殖</w>
受制 于</w>
低 速</w>
下 落不明</w>
车 程</w>
西伯 利亚</w>
红 薯</w>
直 通</w>
游 击队</w>
波多黎 各</w>
水 价</w>
方 同意</w>
归 因于</w>
地 势</w>
在 线
双 方同意</w>
印度 人</w>
公 文</w>
保障 局</w>
任 由</w>
香港 中文
香港中文 大学</w>
近 一半</w>
跌 势</w>
财务 报表</w>
荃 湾</w>
花 粉</w>
甘 蔗</w>
率 地</w>
昏 暗</w>
投影 机</w>
急 诊</w>
孤 独
多 加</w>
增长 势头</w>
一 盘</w>
雨 伞</w>
银河 系</w>
该 法</w>
繁 荣
矩 形</w>
疑 犯</w>
意 甲</w>
履 职</w>
叫 好</w>
刘易 斯</w>
乖 乖</w>
中 西</w>
三 千</w>
oc k</w>
门 市</w>
长江 日报</w>
观众 们</w>
要 害</w>
现 成</w>
海洋 生物</w>
没 多久</w>
岛 国</w>
外国 语</w>
善 用</w>
剪 纸</w>
伯 利
之 举</w>
不足为 奇</w>
ear ch</w>
30 6</w>
露 西</w>
职业 技能</w>
端 倪</w>
消耗 量</w>
检 举</w>
断 面</w>
数 千名</w>
广告 宣传</w>
小 升
存储 器</w>
制 卡</w>
两 千
不 长</w>
G M
鹏 飞</w>
跃 升</w>
贵 国</w>
航空 航天</w>
自由 基</w>
牛 津
火 灾
招 数</w>
憎 恨</w>
广大 干部</w>
安 逸</w>
大 儿子</w>
受 让</w>
募 资</w>
入 点</w>
世 家</w>
专 营</w>
p h
频 谱</w>
隶 属于</w>
锻 炼
贾 庆林</w>
田 径
柜 子</w>
无 偿
推 力</w>
干 净
带 回家</w>
市 公安局</w>
小升 初</w>
园 长</w>
合唱 团</w>
友 谊
单 人</w>
2 100</w>
麻 将</w>
鲍 尔森</w>
阿姆斯特 丹</w>
货 船</w>
蔑 视</w>
舒适 版</w>
缭 乱</w>
缠 绕</w>
积极 主动</w>
曼 城</w>
援 手</w>
技术 转让</w>
帮 手</w>
基本 建设</w>
南 侧</w>
出生 率</w>
令人 兴奋</w>
专 区</w>
与 非</w>
震 慑</w>
长 阳</w>
给 人以</w>
真 挚</w>
物价 指数</w>
波 音
每 平米</w>
梯 子</w>
头 戴</w>
分 泌
万 册</w>
m g</w>
i x
S C
Rich ard</w>
30 1</w>
鼓 吹</w>
马萨 诸
香 草</w>
通 宵</w>
纽 交所</w>
特 里亚</w>
煤矿 安全</w>
灌 注</w>
毅 然</w>
服务 站</w>
改 变
归根 结
圆 梦</w>
加 迪
再 创新高</w>
交 界
UF O</w>
19 20</w>
鬼 魂</w>
驾驶 执照</w>
马尔 代夫</w>
陈 独秀</w>
质 化</w>
谈 过</w>
缘 由</w>
结 交</w>
突 击队</w>
疾 控
波音 公司</w>
晕 倒</w>
拍 出</w>
市 容</w>
小 龙</w>
奥林匹克 运动会</w>
备 考</w>
加 里</w>
初始 化</w>
刚 过</w>
30 8</w>
难 于</w>
起 色</w>
秘 密
湖 人队</w>
杨 一
期 房</w>
故 障
手术 室</w>
徇 私
国 税</w>
十分 重视</w>
企业 法人</w>
O r
19 21</w>
除 掉</w>
重 仓</w>
负责 管理</w>
结婚 证</w>
纯 真</w>
直 到
直到 现在</w>
水 货</w>
核 裁军</w>
振 荡</w>
徐静 蕾</w>
开 幕
嵌 入式</w>
失败 者</w>
因 地
力 挺</w>
冷 落</w>
克里斯蒂 娜</w>
付 出
从那 时起</w>
为 的是</w>
严 打</w>
三 年级</w>
s k
阿 兰</w>
贬 低</w>
盖 章</w>
深圳 特区</w>
比 作</w>
朝 天</w>
有 加</w>
数 控</w>
女 职工</w>
可 卡因</w>
助 阵</w>
了 结</w>
一刀 切</w>
17 6</w>
飞 速</w>
领 略</w>
隐 忧</w>
间 距</w>
速 冻</w>
记 名</w>
自 传</w>
百 人</w>
玩 乐</w>
爱 卡</w>
提 法</w>
拓 扑</w>
幌 子</w>
山 峰</w>
孙 燕姿</w>
哈 特</w>
吨 级</w>
冬 奥会</w>
保护 措施</w>
亚太经 社会</w>
身 在</w>
缺 电</w>
珍 珠
延 到</w>
对照 组</w>
头 寸</w>
因地 制宜</w>
华 中</w>
公 吨</w>
交界 处</w>
不 干</w>
不 多见</w>
B a
轻 薄</w>
观 摩</w>
表 率</w>
联 队</w>
纬 度</w>
眼 花
热 忱</w>
海 员</w>
流 星</w>
波罗 的
张 雨</w>
完全 相同</w>
变 态</w>
厚 非</w>
华 美</w>
十 周年</w>
公 鸡</w>
伦 敦
交 配</w>
M I</w>
17 7</w>
钱 币</w>
通 畅</w>
辜 负</w>
赖 于</w>
相 见</w>
普 林
斯德哥尔 摩</w>
持 有者</w>
怒 火</w>
寄生 虫</w>
喀麦 隆</w>
化学 成分</w>
刚 需</w>
停 机</w>
亿万 富翁</w>
人工 智能</w>
m b
20 1</w>
阴 霾</w>
躯 体</w>
腾 飞</w>
立 方</w>
溢 着</w>
深入 调查</w>
次 年</w>
次 列车</w>
建 业</w>
大型 超市</w>
吉 布
卑 鄙</w>
六 次</w>
克 劳
伯 明翰</w>
亲 王</w>
不 改</w>
一 见
雾 灯</w>
陆 路</w>
配 以</w>
车 费</w>
白 痴</w>
片 面</w>
熙 来</w>
沙 尘暴</w>
欧洲 委员会</w>
旁 观</w>
新兴 国家</w>
批发 价格</w>
恩 爱</w>
心 动
当 其
幸 亏</w>
居民 区</w>
家 务
备 有</w>
境 遇</w>
国际 交流</w>
合 会</w>
N G</w>
鲁 大学</w>
风 吹</w>
题 组</w>
隔 夜</w>
锻炼 身体</w>
行 不通</w>
肠 癌</w>
美 股</w>
站 不
瓦 纳</w>
洋 溢着</w>
沉 稳</w>
木 制</w>
恶 势力</w>
工业 园</w>
家 境</w>
太 忙</w>
地产 股</w>
圆 桌
商业 区</w>
唐 太
周 小川</w>
劳动 报酬</w>
佩 林</w>
两 三年</w>
不 以为
苗 头</w>
航 油</w>
联 播</w>
竞 得</w>
礼 盒</w>
甘 心</w>
滑 雪
消防 车</w>
杜 马</w>
弱 者</w>
实 木</w>
严重 破坏</w>
oo d</w>
A BC</w>
眼花 缭乱</w>
相对 来说</w>
广泛 开展</w>
工 友</w>
听 不懂</w>
名 贵</w>
卵 子</w>
加 盟
减 慢</w>
交通 委</w>
举 债</w>
一 秒</w>
R o
4 5.
课 题组</w>
胜 负</w>
私 家</w>
心所 欲</w>
征 兵</w>
博士 后</w>
军事 委员会</w>
克什 米尔</w>
交警 大队</w>
中 电
14 9</w>
非洲 人</w>
血 症</w>
而 起</w>
湾 区</w>
无可 厚非</w>
排 气</w>
德国 总理</w>
张家 界</w>
大 庆</w>
境 游</w>
出 逃</w>
凯 迪拉克</w>
内 特</w>
俄亥 俄
优 劣</w>
以 备</w>
16 7</w>
赶 赴
赶赴 现场</w>
被 忽视</w>
自 语</w>
第三十 三条</w>
看 管</w>
理论 体系</w>
怒 气</w>
州 立大学</w>
大不 列颠</w>
反 射
全国 代表大会</w>
主题 曲</w>
世 茂</w>
一 万元</w>
Mar k
运动 版</w>
轮 番</w>
英菲 尼迪</w>
种 地</w>
淋 浴</w>
法律 依据</w>
气 田</w>
气 动</w>
未婚 夫</w>
无 耻</w>
施工 单位</w>
恐怖 组织</w>
快 餐
大 爱</w>
大 婚</w>
君 威</w>
创 建
修 路</w>
传统 产业</w>
会计 准则</w>
伊利 诺
五 四</w>
问 津</w>
铃 声</w>
返 程</w>
轮 值</w>
资源 优势</w>
视 而不见</w>
苏 丹
秀 场</w>
矿 业
王府 井</w>
游戏 规则</w>
洗 浴</w>
手机 游戏</w>
已 近</w>
国家 森林公园</w>
历史 博物馆</w>
兰 达</w>
亿 年</w>
M 2</w>
骑 着</w>
贝 蒂</w>
调 料</w>
西 甲</w>
血 脂</w>
薄 熙来</w>
考古 学家</w>
留 存</w>
漠 视</w>
水 印</w>
掩 埋</w>
探 头</w>
师 范</w>
子 系统</w>
基层 工作</w>
唐 人街</w>
党的 领导</w>
乌鲁木 齐
业 主
上 周四</w>
一 档</w>
首 付款</w>
米 左右</w>
福 州市</w>
教 给</w>
尼 美</w>
客 票</w>
完 成
多 谢</w>
坠 楼</w>
共 事</w>
乎 其
中 意</w>
4 3.
19 5</w>
遵 行</w>
通 州区</w>
选举 法</w>
谎 称</w>
简 述</w>
直 奔</w>
火 器</w>
望 京</w>
星 巴克</w>
斯坦 福
慢 性病</w>
悬 架</w>
填 妥</w>
四 面
后 座</w>
变 电站</w>
代理 律师</w>
一 发</w>
9 7
首 当其
长 着</w>
重新 考虑</w>
跋 涉</w>
舒 利</w>
耳 环</w>
矗 立</w>
湛 江</w>
海 牙</w>
民 俗
明 清</w>
度假 村</w>
妇幼 保健</w>
型 师</w>
售 假</w>
吉 隆
兼 备</w>
会展 中心</w>
会 用</w>
九 江</w>
举 手</w>
ha t</w>
通 路</w>
证券 化</w>
让你 在</w>
脑 瘫</w>
比较 严重</w>
曲 子</w>
斗 士</w>
捉 到</w>
彻 奇</w>
开 播</w>
壮 丽</w>
古 籍</w>
刺 痛</w>
利润 分配</w>
五 倍</w>
说 好</w>
组 人员</w>
粉 底</w>
机 组人员</w>
新鲜 空气</w>
性 骚扰</w>
工 薪</w>
圆桌 会议</w>
包 子</w>
刚 度</w>
养老 院</w>
全 天候</w>
首当其 冲</w>
韩国 队</w>
足 足</w>
西班牙 人</w>
芭 蕾</w>
笔 下</w>
犹豫 不决</w>
激 战</w>
渺 茫</w>
浓 的</w>
浓 浓的</w>
水土 保持</w>
教育 规划</w>
所罗 门</w>
心 地</w>
布 雷
冲 绳</w>
高 声</w>
预 赛</w>
舍 得</w>
纳 达尔</w>
生日 礼物</w>
灵 通</w>
消 散</w>
民事 行为</w>
正 文</w>
林 峰</w>
暂行 规定</w>
捏 造</w>
影 城</w>
广告 牌</w>
室 温</w>
天安门 广场</w>
哎 呀</w>
卫生 防护</w>
区 委书记</w>
从那 以后</w>
于 世</w>
阿 美</w>
闷 热</w>
酒 杯</w>
追 缴</w>
走 了</w>
相互 了解</w>
皮 层</w>
灯 塔</w>
沉 默
柴油 机</w>
权威 人士</w>
无关 紧要</w>
无 烟</w>
成 套</w>
定 局</w>
域 网</w>
卢 比</w>
交 巡警</w>
两 性</w>
丛 书</w>
el d</w>
A D</w>
19 30</w>
行政 复议</w>
营 销
脚 印</w>
肿 胀</w>
绵 阳</w>
海 藻</w>
摸 清</w>
引 起
安全 局</w>
奥 数</w>
围 栏</w>
向 前走</w>
利 差</w>
判 罚</w>
公 害</w>
低 压</w>
之 源</w>
中国 国际
中 锋</w>
不 详</w>
X 光</w>
领 军
蒙特 利尔</w>
自 主
胸 口</w>
肆 意</w>
爷 爷
爷爷 奶奶</w>
测 定
手 握</w>
尽 致</w>
为 先</w>
三门 峡</w>
赤 道</w>
记 号</w>
眨 眼</w>
氢 气</w>
政策 法规</w>
所 要</w>
惨 遭</w>
展 位</w>
大 便</w>
名 牌
制 假</w>
公立 学校</w>
企 业主</w>
二十 五</w>
k g</w>
震 源</w>
配 对</w>
购置 税</w>
直升 飞机</w>
献 策</w>
民 房</w>
村 支书</w>
暂 定</w>
多 糖</w>
多 用</w>
危 害性</w>
区 划</w>
劳动 密集型</w>
万 昌</w>
麻 痹</w>
香奈 儿</w>
酒 庄</w>
货 柜</w>
自由 贸易</w>
老 子</w>
纯 度</w>
疾控 中心</w>
牛 米</w>
法制 办</w>
汽车 网</w>
水 厂</w>
李大 钊</w>
未 遂</w>
有 失</w>
族 人</w>
携 带
家电 产品</w>
喊 叫</w>
吴 菊萍</w>
努 尔</w>
免 遭</w>
乐 乐</w>
Wor ld</w>
Te ch
4 G</w>
赛 道</w>
若干 意见</w>
目 不
番 禺</w>
界 别</w>
拉 特</w>
巴 士
定 型</w>
外 流</w>
埋 藏</w>
免 会</w>
住 脚</w>
五 国</w>
三 省</w>
难 免会</w>
葡萄 园</w>
葛 优</w>
深刻 印象</w>
李 国
折 旧</w>
户 晓</w>
尚 需</w>
围 棋</w>
名 师</w>
劳 伦斯</w>
刀 子</w>
几 步</w>
八 日</w>
重 拾</w>
赡 养</w>
街 道
耶 鲁大学</w>
浓 密</w>
核 动力</w>
本 校</w>
探 底</w>
扬 言</w>
归 宿</w>
布 罗
套 取</w>
太 湖</w>
回忆 录</w>
商业 性</w>
副 区长</w>
几 日</w>
中级 车</w>
i p</w>
S erv
高 雄</w>
重 在</w>
追 求
落 定</w>
花 岗
联 想
聊 天
紧紧 抓住</w>
盘 整</w>
烟 民</w>
总 指挥</w>
封 闭
学术 研究</w>
大连 市</w>
大 户型</w>
四 款</w>
单 边</w>
供 地</w>
人 世</w>
三 甲</w>
一 丝
雨 季</w>
蓝 筹股</w>
续 续</w>
画 上</w>
煤 业</w>
注册 处</w>
技术 含量</w>
宝 藏</w>
几 百</w>
串 联</w>
两 日</w>
香 糖</w>
都 行</w>
路 虎</w>
订 定</w>
甲 基</w>
独立 国</w>
天 亮</w>
劳 作</w>
几 秒钟</w>
军事 力量</w>
全面 完成</w>
不 为
ar y</w>
D O
通 电话</w>
边 疆</w>
试 官</w>
续 期</w>
气 旋</w>
日 趋
无 果</w>
实 为</w>
入 息</w>
下 肢</w>
面 试官</w>
钻 研</w>
竞 技
济 源</w>
此 时
欧洲 共同体</w>
极 佳</w>
无 动
无动 于
并不 认为</w>
展 商</w>
实 测</w>
太 重</w>
埃 里克</w>
在 编</w>
圆 润</w>
发 器</w>
发 亮</w>
卖 得</w>
力 量
剧 作家</w>
六 点</w>
使用 量</w>
付出 代价</w>
二 环</w>
t ion</w>
as e</w>
读 书
蝴 蝶
用户 数</w>
流行 音乐</w>
昆 士
意大利 人</w>
家 喻
多 斯</w>
国 外
发 到</w>
农 家
亲 和
世界 观</w>
Sky pe</w>
20 7</w>
高 分子</w>
骑 兵</w>
随 心所欲</w>
追 随者</w>
身 躯</w>
贫民 窟</w>
评 述</w>
英 美</w>
电 荷</w>
每 亩</w>
日本 共同社</w>
报 关</w>
坏 死</w>
及时 发现</w>
千 金</w>
出 港</w>
争 霸</w>
中国 式</w>
严 酷</w>
严 峻
K TV</w>
长 效</w>
遮 挡</w>
通报 批评</w>
诞 辰</w>
表达 方式</w>
能源 安全</w>
科 协</w>
相 称</w>
略 带</w>
故意 杀人罪</w>
家喻 户晓</w>
国 安
古 镇</w>
口 香糖</w>
双 倍</w>
体系 结构</w>
书 屋</w>
不 衰</w>
陈 慧
行政 许可</w>
而 论</w>
灌 木
消防 队员</w>
报 批</w>
小 丑</w>
定 语</w>
吉隆 坡</w>
减 刑</w>
伤 亡
4. 0</w>
顺 势</w>
阿尔 贝</w>
酰 胺</w>
象 牙</w>
至 终</w>
老 先生</w>
离 心
盛 事</w>
由 来
王 永
每 星期</w>
新 举措</w>
手 足</w>
弗 洛
带 子</w>
婚 事</w>
君 主</w>
发 问</w>
出 没</w>
主任 委员</w>
个 儿</w>
高 密度</w>
远程 教育</w>
赔 钱</w>
语言 文字</w>
绿 洲</w>
终 了</w>
管 用</w>
窍 门</w>
皆 知</w>
百 强</w>
电 图</w>
生 下</w>
抗 原</w>
房 顶</w>
德 纳</w>
张 望</w>
小型 张</w>
小 红
多 德</w>
吝 啬</w>
向 性</w>
关系 密切</w>
u p</w>
陈 嘉
说 明
衣 橱</w>
花 花
白 白</w>
海 鸥</w>
水 温</w>
来之 不易</w>
星 云</w>
忌 惮</w>
心 肠</w>
很 近</w>
天 主
壳 牌</w>
吸取 教训</w>
同 性</w>
逼 人</w>
轮 换</w>
豆 浆机</w>
脾 胃</w>
污 垢</w>
学 堂</w>
太 极</w>
商标 注册</w>
后 经</w>
发 炎</w>
st er</w>
阁 楼</w>
闲 暇</w>
翻 倍</w>
离 世</w>
狂 风</w>
灵 顿</w>
淑 女</w>
汉 堡
梁 咏
杂 草</w>
收 容</w>
拐 杖</w>
我 想</w>
开 挖</w>
帕 克</w>
奥 组委</w>
四 大
吉 普
力 宝</w>
今 冬</w>
不在 意</w>
oc k
am m
食品 行业</w>
酷 似</w>
近 三年</w>
英 亩</w>
臭 味</w>
老 字号</w>
立 特里亚</w>
私 权</w>
炮 火</w>
正 规
旱 区</w>
无 意识</w>
指 点</w>
护 者</w>
房 网</w>
成本 增加</w>
厄 立特里亚</w>
中 线</w>
19 11</w>
难 逃</w>
车 流</w>
身份 证明</w>
蚀 性</w>
艾滋 病毒</w>
船 队</w>
美国 空军</w>
紧 跟</w>
由来 已久</w>
海 清</w>
最低 价</w>
早 有</w>
抢 先</w>
建设 者</w>
同 等
卫 冕
勘 测</w>
刻 画</w>
价 签</w>
中文 版</w>
一 串</w>
进行 谈判</w>
该 名</w>
装 饰品</w>
能 比</w>
经 办</w>
立 志</w>
稀 缺
矿 难</w>
泽 民</w>
樱 花</w>
校 准</w>
据 调查</w>
护 卫</w>
床 边</w>
小 波</w>
套 件</w>
墓 碑</w>
喀 什</w>
同 质化</w>
只 管</w>
入 室</w>
侄 子</w>
证 据
紧急 通知</w>
电视 电话会议</w>
流 星
本 网</w>
朝 伟</w>
提取 物</w>
指 认</w>
往 外</w>
工程 学</w>
大 热</w>
后 继</w>
别无 选择</w>
军 力</w>
丝 绸
一 周年</w>
e m</w>
黑 色
赫 然</w>
莫 大</w>
第五 十</w>
科学 界</w>
留 出</w>
漓 尽致</w>
淋 漓尽致</w>
机 票价格</w>
木 乃
摔 跤</w>
宏观 政策</w>
北京 站</w>
剑 桥
保险 资金</w>
亚 尔</w>
隐 身</w>
防 盗</w>
防 备</w>
载 机</w>
电力 企业</w>
激光 器</w>
洛 伊</w>
根 治</w>
有 赖于</w>
打 磨</w>
我 俩</w>
复 员</w>
住 在一起</w>
阿卜杜 拉</w>
阅读 器</w>
踏 入</w>
误 读</w>
芙 蓉
相 一致</w>
甜 食</w>
特 惠</w>
日本 央行</w>
定 会</w>
如 图</w>
同 步
各 部</w>
台湾 海峡</w>
个人 账户</w>
业务 范围</w>
世 贸</w>
下 课</w>
S EC</w>
降 下来</w>
闲 聊</w>
遣 散</w>
远 距离</w>
过 头</w>
膀 胱</w>
胶 片</w>
米 德尔</w>
登 山
滨 海
无动于 衷</w>
新 秀</w>
效 性</w>
批 捕</w>
座 率</w>
听 过</w>
再 审</w>
俄亥俄 州</w>
任 择</w>
亲戚 朋友</w>
in s</w>
X X</w>
19 27</w>
证券 网</w>
艺术 作品</w>
短 时</w>
猫 腻</w>
牡 丹</w>
榨 菜</w>
旁 人</w>
总 司令</w>
利 害
保持 联系</w>
两 颗</w>
陈 建
透 水</w>
赞 叹</w>
资源 共享</w>
讨 薪</w>
花 掉</w>
缓冲 区</w>
移 植
猜 疑</w>
本 篇</w>
无 望</w>
无 与
摩 托</w>
拒绝 接受</w>
大 得多</w>
复杂 化</w>
填 满</w>
圈 地</w>
古 墓</w>
黄 奕</w>
饿 死</w>
赶 超</w>
费 尔
航 班
梁咏 琪</w>
手 提</w>
总 线</w>
外 相</w>
另 行
参 谋</w>
十 名</w>
刊 载</w>
出口 量</w>
伤 情</w>
中 度</w>
业 委会</w>
一 栏</w>
露 营</w>
陶 器</w>
防 总</w>
赌 注</w>
理 发</w>
服务 部</w>
无 名
文 人</w>
忧 愁</w>
开发 新</w>
安 息</w>
外科 手术</w>
塑 胶</w>
向 北</w>
北 美洲</w>
专业 人才</w>
18 1</w>
香 格里
诧 异</w>
试 射</w>
英国 伦敦</w>
群 体
终 身
离 异</w>
牛 队</w>
机 动
春 天里</w>
无与 伦比</w>
无 敌</w>
旅行 团</w>
新 旧</w>
数 天</w>
恐 惧
小 金库</w>
吃 些</w>
卓 有成效</w>
刘 明
资格 证书</w>
红 星</w>
生活 必需品</w>
环境 质量</w>
湖 水</w>
母 女</w>
橡 皮
披 上</w>
巴 尼</w>
尚 属</w>
卖 地</w>
冲 向</w>
全 身心</w>
克 族</w>
人力 资本</w>
中间 人</w>
领头 羊</w>
进 屋</w>
边 防
苏 越</w>
第七 十
牢 骚</w>
污染 环境</w>
普通 百姓</w>
得 救</w>
影 帝</w>
委 党校</w>
好 笑</w>
壁 炉</w>
垄断 法</w>
围 剿</w>
吃 紧</w>
反 垄断法</w>
卫冕 冠军</w>
加 元</w>
体 形</w>
17 2</w>
遥 控器</w>
赣 州</w>
系 车</w>
立足 于</w>
生 平</w>
比 不上</w>
杨 千嬅</w>
有 氧</w>
忧 心
就 学</w>
安 迪</w>
可 耻</w>
分 包</w>
上 半
轴 线</w>
节日 期间</w>
腺 炎</w>
美 满</w>
环 卫</w>
燃料 电池</w>
我 本</w>
实 业
四 强</w>
单 子</w>
劳 务
别 于</w>
冰 山</w>
入 库</w>
便 士</w>
丝 特</w>
一 伙</w>
齐 聚</w>
陈 浩
那 英</w>
邓 小
避孕 药</w>
该 党</w>
美术 学院</w>
究其 原因</w>
瘟 疫</w>
波罗的 海</w>
段 子</w>
梁 朝伟</w>
无止 境</w>
数十 万</w>
挪用 公款</w>
开放 日</w>
存 档</w>
垫 付</w>
土 化</w>
原 题</w>
卫 兵</w>
会 诊</w>
业余 时间</w>
P P</w>
雪 莉</w>
闸 门</w>
采 写</w>
路 旁</w>
试 者</w>
联 接</w>
缘 分</w>
木乃 伊</w>
朗 读</w>
无 休
数 名</w>
放 贷款</w>
掏 钱</w>
平 县</w>
发 放贷款</w>
半 个世纪</w>
伤 害
亿 人次</w>
两 所</w>
起 居室</w>
贡献 率</w>
装 在</w>
蒙古 族</w>
获 奖者</w>
继 任
第四十 三条</w>
立 面</w>
省 直</w>
本 土化</w>
摩 加迪
捧 场</w>
惊 险</w>
很 早</w>
定位 系统</w>
宁夏回 族自治区</w>
另 一面</w>
古 罗马</w>
之 计</w>
两 间</w>
东 西方</w>
风 口</w>
这 间</w>
迅 雷</w>
财政 投入</w>
艰苦 奋斗</w>
签 合同</w>
用 油</w>
特 斯</w>
死 伤</w>
旁 观者</w>
小 花</w>
地 笑</w>
公开 选拔</w>
书 架</w>
中国 记协</w>
三 楼</w>
5. 0</w>
19 8</w>
高 炉</w>
雪 橇</w>
防 腐</w>
词 义</w>
第四十 一条</w>
痘 痘</w>
水 灾</w>
殆 尽</w>
歌唱 家</w>
有 条
更 应</w>
巡 游</w>
小 溪</w>
寄 来</w>
婚纱 照</w>
力 宏</w>
公开 课</w>
乐 坛</w>
举 证</w>
一 天天</w>
18 3</w>
逃 税</w>
趋 缓</w>
赞成 票</w>
第三十 九条</w>
登记 手续</w>
消防 官兵</w>
椭 圆形</w>
杂 技</w>
有 偶</w>
投票 权</w>
德 育</w>
开 源</w>
并 论</w>
地 想</w>
四 海</w>
卫 报</w>
匹 马</w>
三 百
R a
非 理性</w>
部长 会议</w>
逃 出</w>
近 两
近两 年来</w>
过 世</w>
辛 勤
购 得</w>
谦 卑</w>
荣誉 称号</w>
色 系</w>
脚 跟</w>
脉 搏</w>
精 良</w>
第一 句</w>
独 有偶</w>
点 到</w>
演艺 圈</w>
期 末
无 独有偶</w>
投资 性</w>
归根结 底</w>
强 于</w>
多 亏</w>
否 决权</w>
可 用性</w>
北京 警方</w>
几 只</w>
中国 女足</w>
中 医院</w>
三 轮</w>
万 块</w>
IP v
Che 168</w>
走 遍</w>
资 会</w>
要 不然</w>
褪 色</w>
羚 羊</w>
纳 特</w>
确 凿</w>
电 波</w>
构成 威胁</w>
快 车</w>
发 声</w>
一 刻
4 60</w>
赛 尔</w>
西 门</w>
租 客</w>
种 种
种种 原因</w>
眼 前一
眼前一 亮</w>
电子 化</w>
玩 意</w>
李 彦
杂 物</w>
摩加迪 沙</w>
应 许</w>
小 队</w>
婚 庆</w>
军 训</w>
on y</w>
雪 山</w>
逊 色</w>
试 想</w>
补 丁</w>
羊 羔</w>
罗 杰</w>
甲 壳
玩 意
玩意 儿</w>
波 段</w>
没 到</w>
死 人</w>
想 见</w>
奥运 冠军</w>
多 夫</w>
回 味</w>
和平 统一</w>
入学 率</w>
中 市</w>
专 有</w>
Ne w
黄金 价格</w>
非常 复杂</w>
退休 年龄</w>
辛 辣</w>
贾 德</w>
裁判 员</w>
珊瑚 礁</w>
猝 死</w>
烦 躁</w>
智 者</w>
掌 门人</w>
巫 师</w>
大 好</w>
可 依</w>
公 私</w>
使 出</w>
s c
S a
退 伍</w>
诉 状</w>
电影 学院</w>
王老 吉</w>
牛津 大学</w>
火山 灰</w>
滞 不前</w>
深入 基层</w>
插 图</w>
扔 进</w>
德 森</w>
岁 钱</w>
好 似</w>
发 源地</w>
压 岁钱</w>
会 期</w>
人类 文明</w>
不起 眼</w>
上 架</w>
RAV 4</w>
1 1.5</w>
辐射 量</w>
轻 信</w>
离 境</w>
由 省</w>
橡 树</w>
搬 走</w>
拦 住</w>
惠 誉</w>
履 历</w>
套 型</w>
夕 阳</w>
基层 组织</w>
地 壳</w>
图 斯</w>
到 困难</w>
做 手术</w>
严重 不足</w>
ou t</w>
陡 峭</w>
选 题</w>
调味 品</w>
课 外</w>
组织 部门</w>
离家 出走</w>
相 提
相提 并论</w>
灯 具</w>
检 获</w>
机 会
攻 克</w>
年轻 一代</w>
好 久</w>
利 民</w>
党政 领导</w>
偷 拍</w>
交易 价格</w>
于 众</w>
东 海岸</w>
不 凡</w>
领 海</w>
院 方</w>
独 栋</w>
毛 毯</w>
条 件
成 真</w>
心 肌</w>
合 剂</w>
依 存
主 党</w>
频 现</w>
音乐 学院</w>
读 于</w>
票 数</w>
永 磁</w>
检查 一下</w>
帝 王</w>
子 弟
好 得多</w>
华盛顿 邮报</w>
刑 期</w>
全面 提高</w>
交 待</w>
云 层</w>
主 城</w>
Wi Fi</w>
20 50</w>
黯 淡</w>
黑 猩猩</w>
透 镜</w>
赐 予</w>
腔 镜</w>
翻 身</w>
绰 号</w>
片 场</w>
核 危机</w>
操 守</w>
心 仪</w>
师范 生</w>
就 读于</w>
学 籍</w>
孔 雀</w>
国际 机场</w>
利 息
光 华</w>
便利 店</w>
之 无愧</w>
不 自
不 无
错 失</w>
重 镇</w>
积 淀</w>
真 主党</w>
王 军</w>
权 证</w>
收 支
我 怕</w>
感染 力</w>
张 月</w>
实 况</w>
婚姻 登记</w>
土 星</w>
再也 不能</w>
两 人
一 面
M B</w>
轻 便</w>
规划 设计</w>
竞 购</w>
港澳 台</w>
洁 白</w>
橘 子</w>
月 均</w>
政 务
掺 杂</w>
惊 呼</w>
得 克萨斯州</w>
分 立</w>
代 尔</w>
鸿 沟</w>
饮水 困难</w>
非法 经营</w>
那 张</w>
选 美</w>
资料 库</w>
该 村</w>
纪 实</w>
淹 死</w>
斯 卡</w>
哈 克</w>
可 追溯</w>
变 现</w>
光 束</w>
健 壮</w>
停 滞不前</w>
优质 服务</w>
仍 能</w>
荷 兰
节 气</w>
紧 身</w>
痛 快</w>
略 高于</w>
歌 颂</w>
榴 弹</w>
拍 电影</w>
徽 章</w>
家 长
大 案</w>
填 海</w>
偷 运</w>
佳 缘</w>
乌鲁木齐 市</w>
不管 怎么</w>
选 为</w>
粉 尘</w>
管 好</w>
第五 个</w>
眼 圈</w>
班 费</w>
残 暴</w>
撒 下</w>
打 篮球</w>
总 站</w>
快 感</w>
常 数</w>
头 儿</w>
化学 武器</w>
元 朗</w>
储 层</w>
信任 危机</w>
供 职</w>
体育 中心</w>
u t</w>
10. 5</w>
钢 价</w>
试 看</w>
老 一辈</w>
禁 止
淑 珍</w>
格 尔
日 以</w>
教育 界</w>
工 头</w>
委 托
如 人意</w>
奈 何</w>
卢 森堡</w>
南 南
医 管局</w>
全 校</w>
位 一体</w>
中 应</w>
长 满</w>
超 值</w>
蔬 果</w>
答 卷</w>
电 灯</w>
湘 潭</w>
海 明</w>
油 轮</w>
招 揽</w>
总 结
天 上
大 字</w>
双 核</w>
动 能</w>
二零零 三年</w>
之 高</w>
一 分
IP 地址</w>
4 30</w>
贝 壳</w>
莱 克</w>
联想 集团</w>
绩效 考核</w>
燃 放
炫 富</w>
模 特
巴 塞尔</w>
工薪 阶层</w>
履 约</w>
小 猪</w>
如此 一来</w>
在 历史
在历史 上</w>
印度 政府</w>
减 除</w>
一 月份</w>
隐 秘</w>
防晒 霜</w>
谱 写</w>
臭 氧
线 圈</w>
科研 机构</w>
知 悉</w>
水 箱</w>
每 每</w>
探 亲</w>
成 衣</w>
应 酬</w>
市场 主体</w>
吴 晓
几 千
冻 雨</w>
再也 不会</w>
克莱 尔</w>
仅 用</w>
九 日</w>
起 彼
渔 夫</w>
李 永
明 示</w>
愤 慨</w>
建 有</w>
平等 互利</w>
天 山</w>
围 困</w>
后 背</w>
另 一端</w>
参加 考试</w>
先 河</w>
n a</w>
R os
雄 心</w>
输 入
贫 富</w>
烫 伤</w>
此 起彼
林 先生</w>
无 数次</w>
或 作</w>
快 门</w>
崩 盘</w>
小 河</w>
反 面</w>
南南 合作</w>
初步 统计</w>
决 战</w>
共 创</w>
八 方</w>
保税 区</w>
交通 管制</w>
五 届</w>
乎 乎</w>
不 胜</w>
高中 毕业</w>
近 现代</w>
赛 马</w>
调查 取证</w>
该 条</w>
穿 戴</w>
病 痛</w>
电子 信息</w>
烟 气</w>
油 箱</w>
毒 贩</w>
楼 顶</w>
支 流</w>
彗 星</w>
奇 观</w>
天安 门</w>
合 署</w>
单 程</w>
出 境游</w>
冰激 凌</w>
公开 场合</w>
以 下
仙 台</w>
is h
羽 绒
红 木</w>
红 地毯</w>
空 子</w>
电 源
报 盘</w>
房 管</w>
忘 却</w>
商业 秘密</w>
南 湖</w>
医药 卫生</w>
佳 彦</w>
以 房</w>
中央 军事委员会</w>
铺 开</w>
铜 矿</w>
营 办</w>
纪 要</w>
理论 依据</w>
照 会</w>
烤 肉</w>
巨 变</w>
居 们</w>
尘 器</w>
嬉 戏</w>
大众 汽车</w>
哈 里斯</w>
刺激 性</w>
击 落</w>
入 主</w>
主 攻</w>
[...]
